{
  "version": "1.0",
  "truncation": null,
  "padding": null,
  "added_tokens": [
    {
      "id": 0,
      "content": "<UNK>",
      "single_word": false,
      "lstrip": false,
      "rstrip": false,
      "normalized": false,
      "special": true
    },
    {
      "id": 1,
      "content": "<PAD>",
      "single_word": false,
      "lstrip": false,
      "rstrip": false,
      "normalized": false,
      "special": true
    },
    {
      "id": 2,
      "content": "<CLS>",
      "single_word": false,
      "lstrip": false,
      "rstrip": false,
      "normalized": false,
      "special": true
    },
    {
      "id": 3,
      "content": "<SEP>",
      "single_word": false,
      "lstrip": false,
      "rstrip": false,
      "normalized": false,
      "special": true
    },
    {
      "id": 4,
      "content": "<MASK>",
      "single_word": false,
      "lstrip": false,
      "rstrip": false,
      "normalized": false,
      "special": true
    },
    {
      "id": 5,
      "content": "<ZH>",
      "single_word": false,
      "lstrip": false,
      "rstrip": false,
      "normalized": false,
      "special": true
    }
  ],
  "normalizer": {
    "type": "Sequence",
    "normalizers": [
      {
        "type": "NFD"
      },
      {
        "type": "StripAccents"
      }
    ]
  },
  "pre_tokenizer": {
    "type": "Metaspace",
    "replacement": " ",
    "prepend_scheme": "always",
    "split": true
  },
  "post_processor": null,
  "decoder": {
    "type": "Metaspace",
    "replacement": " ",
    "prepend_scheme": "always",
    "split": true
  },
  "model": {
    "type": "Unigram",
    "unk_id": null,
    "vocab": [
      [
        "<UNK>",
        0.0
      ],
      [
        "<PAD>",
        0.0
      ],
      [
        "<CLS>",
        0.0
      ],
      [
        "<SEP>",
        0.0
      ],
      [
        "<MASK>",
        0.0
      ],
      [
        "<ZH>",
        0.0
      ],
      [
        " ",
        -2.8159174343809372
      ],
      [
        "的",
        -3.647988490872315
      ],
      [
        "了",
        -4.371181710128699
      ],
      [
        "啊",
        -4.549683930145154
      ],
      [
        "我",
        -4.909447853335122
      ],
      [
        "你",
        -4.912266431723799
      ],
      [
        " 我",
        -5.1771745345350215
      ],
      [
        "是",
        -5.181275120584813
      ],
      [
        "呢",
        -5.243008574117171
      ],
      [
        "在",
        -5.340013395639044
      ],
      [
        " 你",
        -5.342812072554743
      ],
      [
        "他",
        -5.519457036636004
      ],
      [
        "不",
        -5.531974494976698
      ],
      [
        "就",
        -5.595154731854571
      ],
      [
        "有",
        -5.6166590968210155
      ],
      [
        "说",
        -5.6387569278951
      ],
      [
        "吗",
        -5.673433643078429
      ],
      [
        "和",
        -5.686782282978168
      ],
      [
        "人",
        -5.755132807204237
      ],
      [
        "去",
        -5.785956377775914
      ],
      [
        "来",
        -5.793623045104194
      ],
      [
        "吧",
        -5.8627916896494465
      ],
      [
        "这个",
        -5.932804507061139
      ],
      [
        "一",
        -5.9415378103829966
      ],
      [
        "大",
        -5.9533746554427225
      ],
      [
        "上",
        -5.956419087024663
      ],
      [
        " 他",
        -5.99604696456937
      ],
      [
        "都",
        -6.008095429596647
      ],
      [
        "我们",
        -6.072771566132257
      ],
      [
        "要",
        -6.1041625503807
      ],
      [
        "就是",
        -6.105886765426947
      ],
      [
        "这",
        -6.134202651487433
      ],
      [
        "好",
        -6.1357573166375765
      ],
      [
        "一个",
        -6.1559098265059955
      ],
      [
        "呀",
        -6.1748855670825655
      ],
      [
        "也",
        -6.1859881220580775
      ],
      [
        "到",
        -6.22215887367005
      ],
      [
        "自己",
        -6.272792698462538
      ],
      [
        "会",
        -6.304731433925786
      ],
      [
        "地",
        -6.315804146220836
      ],
      [
        "小",
        -6.340227554332499
      ],
      [
        " 那",
        -6.362655243082678
      ],
      [
        "的时候",
        -6.367039776498455
      ],
      [
        "对",
        -6.395581129100629
      ],
      [
        "那",
        -6.421092306787754
      ],
      [
        " 这",
        -6.463948351320951
      ],
      [
        "过",
        -6.4701337519175866
      ],
      [
        "没有",
        -6.478002952106939
      ],
      [
        " 我们",
        -6.506626438013033
      ],
      [
        "她",
        -6.521385602572321
      ],
      [
        "着",
        -6.551671287702915
      ],
      [
        "得",
        -6.568293138679788
      ],
      [
        "子",
        -6.571707720804422
      ],
      [
        "什么",
        -6.600862507129525
      ],
      [
        "还",
        -6.601106083842923
      ],
      [
        "中",
        -6.611846900927272
      ],
      [
        "里",
        -6.626590791818501
      ],
      [
        "那个",
        -6.660134712241632
      ],
      [
        "能",
        -6.668698046018655
      ],
      [
        "家",
        -6.672553483844032
      ],
      [
        "想",
        -6.677458424720358
      ],
      [
        "给",
        -6.680467888491746
      ],
      [
        "把",
        -6.694808891655617
      ],
      [
        " 然后",
        -6.700990094460961
      ],
      [
        "多",
        -6.713641460475211
      ],
      [
        "儿",
        -6.729546476793008
      ],
      [
        "出",
        -6.737873464892438
      ],
      [
        "的人",
        -6.744044235383859
      ],
      [
        "看",
        -6.760327703622142
      ],
      [
        "你们",
        -6.7635786408682605
      ],
      [
        "没",
        -6.769352447612505
      ],
      [
        "他们",
        -6.772892558039773
      ],
      [
        "为",
        -6.780149846932327
      ],
      [
        "做",
        -6.789118047437762
      ],
      [
        "又",
        -6.803534611071278
      ],
      [
        "跟",
        -6.81323318468535
      ],
      [
        "用",
        -6.815919913972596
      ],
      [
        "下",
        -6.817022874496841
      ],
      [
        "被",
        -6.824865801840465
      ],
      [
        "个",
        -6.82835577219989
      ],
      [
        "点",
        -6.831840179875629
      ],
      [
        "心",
        -6.843213161807274
      ],
      [
        "很",
        -6.845310429663826
      ],
      [
        "打",
        -6.849941770085815
      ],
      [
        " 就",
        -6.875917256589256
      ],
      [
        "可以",
        -6.879024264903938
      ],
      [
        "不是",
        -6.927378000199553
      ],
      [
        "三",
        -6.931263151947929
      ],
      [
        "从",
        -6.936614463779829
      ],
      [
        "您",
        -6.938564123245847
      ],
      [
        "的话",
        -6.945123944718169
      ],
      [
        "现在",
        -6.9638147925951746
      ],
      [
        "走",
        -6.966937001961632
      ],
      [
        "再",
        -7.006640589336058
      ],
      [
        "嘛",
        -7.011060222564106
      ],
      [
        "吃",
        -7.023344003994628
      ],
      [
        "已经",
        -7.035627909252353
      ],
      [
        "还是",
        -7.037999736048635
      ],
      [
        " 就是",
        -7.046632132462557
      ],
      [
        " 但是",
        -7.047440528342786
      ],
      [
        "高",
        -7.063799041805947
      ],
      [
        "老",
        -7.067684115258311
      ],
      [
        "天",
        -7.092762501106428
      ],
      [
        "开",
        -7.098589550265444
      ],
      [
        "后",
        -7.107211017533359
      ],
      [
        "头",
        -7.113715785480435
      ],
      [
        " 在",
        -7.11582433854076
      ],
      [
        "一下",
        -7.143746323386784
      ],
      [
        "都是",
        -7.152271181228517
      ],
      [
        "叫",
        -7.171883231549794
      ],
      [
        "水",
        -7.172569344994477
      ],
      [
        " 但",
        -7.193646675267447
      ],
      [
        "长",
        -7.196940122163493
      ],
      [
        "时",
        -7.200232154334929
      ],
      [
        "发",
        -7.215189517075867
      ],
      [
        "当",
        -7.218973025476554
      ],
      [
        "这么",
        -7.233944605108496
      ],
      [
        "太",
        -7.238359177999479
      ],
      [
        "钱",
        -7.238441271795269
      ],
      [
        "最",
        -7.243923906652146
      ],
      [
        "等",
        -7.259173954443797
      ],
      [
        "这样",
        -7.263759895818486
      ],
      [
        "生",
        -7.275590515046943
      ],
      [
        "之后",
        -7.283008522788373
      ],
      [
        "给我",
        -7.288582031317061
      ],
      [
        "怎么",
        -7.291189805552989
      ],
      [
        " 因为",
        -7.300075448142287
      ],
      [
        "无",
        -7.304794089388064
      ],
      [
        "爱",
        -7.313715997917864
      ],
      [
        "可能",
        -7.317909795264407
      ],
      [
        "分",
        -7.3182830903803175
      ],
      [
        "之",
        -7.32199525464133
      ],
      [
        "听",
        -7.323195327447337
      ],
      [
        "回",
        -7.324075553559819
      ],
      [
        "工作",
        -7.328921988891665
      ],
      [
        "可",
        -7.329774612807608
      ],
      [
        "孩子",
        -7.339777545228609
      ],
      [
        " 这个",
        -7.3463829753255645
      ],
      [
        " 你们",
        -7.350807729304529
      ],
      [
        "将",
        -7.351326544130831
      ],
      [
        "事",
        -7.356948487385878
      ],
      [
        "手",
        -7.3606726841304155
      ],
      [
        "花",
        -7.366061449453575
      ],
      [
        "前",
        -7.367973692212942
      ],
      [
        "死",
        -7.370987604307933
      ],
      [
        " 所以",
        -7.3723157984530125
      ],
      [
        "让",
        -7.373013938987986
      ],
      [
        "二",
        -7.37412639609969
      ],
      [
        "特别",
        -7.3757860703076545
      ],
      [
        "一些",
        -7.386299305102316
      ],
      [
        "山",
        -7.3978326256165
      ],
      [
        "气",
        -7.413451172697366
      ],
      [
        "一点",
        -7.420273518979489
      ],
      [
        "四",
        -7.423323628083022
      ],
      [
        "比",
        -7.4263438552043635
      ],
      [
        "五",
        -7.430444284595131
      ],
      [
        "而",
        -7.432369581120771
      ],
      [
        "以后",
        -7.433816198460889
      ],
      [
        "成",
        -7.4368845014124965
      ],
      [
        "给你",
        -7.44942146844201
      ],
      [
        "先",
        -7.450518660484203
      ],
      [
        "与",
        -7.453829013331479
      ],
      [
        "才",
        -7.455835939571887
      ],
      [
        "谁",
        -7.457200614748304
      ],
      [
        "车",
        -7.457356642650925
      ],
      [
        "两",
        -7.462166257220902
      ],
      [
        " 如果",
        -7.464552974538934
      ],
      [
        "它",
        -7.466747111305473
      ],
      [
        "真的",
        -7.475880242557903
      ],
      [
        " 他们",
        -7.478331271506303
      ],
      [
        "知道",
        -7.48822545533023
      ],
      [
        "带",
        -7.496014947125001
      ],
      [
        "行",
        -7.500826827481502
      ],
      [
        "觉得",
        -7.505299004294022
      ],
      [
        "起",
        -7.509239772489254
      ],
      [
        "也是",
        -7.511447021037826
      ],
      [
        "新",
        -7.517382140257645
      ],
      [
        "出来",
        -7.518505372090694
      ],
      [
        " 现在",
        -7.523527014035254
      ],
      [
        "这些",
        -7.537619230765781
      ],
      [
        "拿",
        -7.537745335192456
      ],
      [
        "这种",
        -7.538885121317344
      ],
      [
        "找",
        -7.539173169798195
      ],
      [
        "老师",
        -7.540215911849382
      ],
      [
        "于",
        -7.545926145539996
      ],
      [
        "因为",
        -7.54877598186995
      ],
      [
        "你的",
        -7.549044975202822
      ],
      [
        "回来",
        -7.550246023158193
      ],
      [
        "时间",
        -7.552614567651505
      ],
      [
        " 是",
        -7.564426741035398
      ],
      [
        "向",
        -7.570228167325261
      ],
      [
        "开始",
        -7.57296197003401
      ],
      [
        "别",
        -7.581760686683406
      ],
      [
        "朋友",
        -7.58339065314596
      ],
      [
        "是不是",
        -7.585105460724531
      ],
      [
        "总",
        -7.585701476491028
      ],
      [
        "那么",
        -7.586329714625178
      ],
      [
        "真",
        -7.592599130010557
      ],
      [
        "更",
        -7.592789377866179
      ],
      [
        "性",
        -7.593981711747114
      ],
      [
        " 她",
        -7.59625411173532
      ],
      [
        "还有",
        -7.598951429626846
      ],
      [
        "像",
        -7.599439717140429
      ],
      [
        "哥",
        -7.604923795495068
      ],
      [
        "王",
        -7.6049948433922
      ],
      [
        "所",
        -7.610529518949225
      ],
      [
        "咱们",
        -7.615163064572359
      ],
      [
        "风",
        -7.619220062321968
      ],
      [
        "放",
        -7.6196584726161625
      ],
      [
        "白",
        -7.621660815769955
      ],
      [
        "名",
        -7.631037744135769
      ],
      [
        "快",
        -7.632795569043413
      ],
      [
        "应该",
        -7.634585354936284
      ],
      [
        "自己的",
        -7.6359812245565095
      ],
      [
        " 其实",
        -7.6380074939265405
      ],
      [
        " 而",
        -7.638292883053101
      ],
      [
        "一样",
        -7.642645673409541
      ],
      [
        "学",
        -7.644558981826879
      ],
      [
        "话",
        -7.649406865429484
      ],
      [
        " 我是",
        -7.6513060977025145
      ],
      [
        "哪",
        -7.652358671852973
      ],
      [
        "今天",
        -7.65246729729925
      ],
      [
        "进",
        -7.655520137908875
      ],
      [
        "啦",
        -7.660635566035715
      ],
      [
        "跟我",
        -7.664692923455313
      ],
      [
        "军",
        -7.6663419780270665
      ],
      [
        "问",
        -7.669482503492633
      ],
      [
        "需要",
        -7.671013945934517
      ],
      [
        "国",
        -7.673451860233632
      ],
      [
        "呃",
        -7.675188994793638
      ],
      [
        "不能",
        -7.681767841843682
      ],
      [
        "重",
        -7.686144485415495
      ],
      [
        "送",
        -7.687093679920585
      ],
      [
        "喜欢",
        -7.690042557484125
      ],
      [
        "们",
        -7.695303511123798
      ],
      [
        "面",
        -7.695458001660008
      ],
      [
        "公司",
        -7.6963028810579015
      ],
      [
        "嗯",
        -7.702276300945483
      ],
      [
        "道",
        -7.704090386061173
      ],
      [
        "住",
        -7.7062736965517225
      ],
      [
        "自",
        -7.707068302361433
      ],
      [
        " 小",
        -7.71153148720872
      ],
      [
        " 我就",
        -7.712127389066353
      ],
      [
        "力",
        -7.71434473510222
      ],
      [
        "买",
        -7.716171243765004
      ],
      [
        "海",
        -7.716399473302493
      ],
      [
        "起来",
        -7.716551520587746
      ],
      [
        "干",
        -7.717805074950114
      ],
      [
        "之前",
        -7.719984462815379
      ],
      [
        "其实",
        -7.729710313523125
      ],
      [
        "大家",
        -7.733786299692461
      ],
      [
        "能够",
        -7.7338893866535265
      ],
      [
        "以",
        -7.741405582821384
      ],
      [
        "日",
        -7.744108873499162
      ],
      [
        "年",
        -7.746277808152442
      ],
      [
        "金",
        -7.747113281484351
      ],
      [
        "我的",
        -7.751004307306083
      ],
      [
        "问题",
        -7.756220759714193
      ],
      [
        "门",
        -7.759962925622359
      ],
      [
        "妈妈",
        -7.760819037609785
      ],
      [
        "中国",
        -7.763411186066305
      ],
      [
        "明",
        -7.764864089343128
      ],
      [
        "张",
        -7.768360377738231
      ],
      [
        "生活",
        -7.774475013911813
      ],
      [
        "火",
        -7.778069317983865
      ],
      [
        "非常",
        -7.781206218529411
      ],
      [
        "别人",
        -7.784151387818207
      ],
      [
        "一个人",
        -7.7885973307181064
      ],
      [
        "马",
        -7.7896929651106905
      ],
      [
        "我就",
        -7.789772478357369
      ],
      [
        "请",
        -7.792327452705544
      ],
      [
        "口",
        -7.792410693410625
      ],
      [
        "连",
        -7.794576585275603
      ],
      [
        "八",
        -7.795452186509024
      ],
      [
        "光",
        -7.7974789184030655
      ],
      [
        "发现",
        -7.801528277128012
      ],
      [
        " 有",
        -7.807833891474431
      ],
      [
        " 那么",
        -7.8110903845339
      ],
      [
        "到了",
        -7.816574941451828
      ],
      [
        " 您",
        -7.81804521300071
      ],
      [
        " 可是",
        -7.818524682478184
      ],
      [
        "讲",
        -7.825032431630325
      ],
      [
        "见",
        -7.826293402881051
      ],
      [
        "出去",
        -7.828006283608898
      ],
      [
        "路",
        -7.83230266328621
      ],
      [
        "来了",
        -7.843582897919813
      ],
      [
        "让我",
        -7.846048810770736
      ],
      [
        "一直",
        -7.846382321862366
      ],
      [
        "强",
        -7.846711737013058
      ],
      [
        "情",
        -7.849444366477332
      ],
      [
        "全",
        -7.849808881910798
      ],
      [
        " 这是",
        -7.854770510351349
      ],
      [
        "拉",
        -7.856120332022927
      ],
      [
        "挺",
        -7.8571292234387204
      ],
      [
        "了吗",
        -7.858518409459009
      ],
      [
        "的事情",
        -7.8641925010641796
      ],
      [
        " 那你",
        -7.866957000681413
      ],
      [
        "比较",
        -7.868727215752907
      ],
      [
        "跟你",
        -7.870295710600335
      ],
      [
        "一起",
        -7.8752476678117045
      ],
      [
        " 还有",
        -7.879003155051523
      ],
      [
        "正",
        -7.8790879031285765
      ],
      [
        "六",
        -7.879387437577469
      ],
      [
        "过来",
        -7.879747774985761
      ],
      [
        "却",
        -7.880694813416795
      ],
      [
        "动",
        -7.882812884274593
      ],
      [
        "喝",
        -7.883272701802795
      ],
      [
        "外",
        -7.887427071112839
      ],
      [
        "有点",
        -7.890021832085154
      ],
      [
        "七",
        -7.894531818685712
      ],
      [
        "给他",
        -7.900733505753919
      ],
      [
        "结婚",
        -7.905352600900267
      ],
      [
        "入",
        -7.907428822698698
      ],
      [
        "清",
        -7.911448394565737
      ],
      [
        "看到",
        -7.912589772865969
      ],
      [
        "李",
        -7.914098051086945
      ],
      [
        "者",
        -7.923378724298692
      ],
      [
        "加",
        -7.926635235813821
      ],
      [
        "美",
        -7.927775843000354
      ],
      [
        "不会",
        -7.928160212109603
      ],
      [
        "不好",
        -7.933345284937243
      ],
      [
        " 也",
        -7.935375385338737
      ],
      [
        "管",
        -7.938723468202893
      ],
      [
        "转",
        -7.9433495621104555
      ],
      [
        "文",
        -7.9438946404777315
      ],
      [
        "跑",
        -7.946982116620722
      ],
      [
        "先生",
        -7.950848848135191
      ],
      [
        "红",
        -7.953407072425291
      ],
      [
        "方",
        -7.95795305671224
      ],
      [
        " 不",
        -7.959178186787806
      ],
      [
        "关",
        -7.959664337143709
      ],
      [
        "哈",
        -7.960836726124786
      ],
      [
        "那些",
        -7.964589188334513
      ],
      [
        "为什么",
        -7.9679605208704185
      ],
      [
        "本",
        -7.968308871422261
      ],
      [
        "人家",
        -7.970243666171738
      ],
      [
        "收",
        -7.97785311389255
      ],
      [
        "关系",
        -7.979769060739962
      ],
      [
        "酒",
        -7.983441138234619
      ],
      [
        "书",
        -7.985651630347785
      ],
      [
        "如果",
        -7.987359071201174
      ],
      [
        "里面",
        -7.989076199030057
      ],
      [
        " 我觉得",
        -7.989362051466314
      ],
      [
        "难",
        -7.992273312026988
      ],
      [
        "内",
        -7.9942567139442104
      ],
      [
        " 而且",
        -7.9946728091397965
      ],
      [
        "只",
        -7.997500730111883
      ],
      [
        "相",
        -7.999643449382887
      ],
      [
        "有一个",
        -7.999652644311659
      ],
      [
        "飞",
        -8.002213065091853
      ],
      [
        "说话",
        -8.00245829691609
      ],
      [
        " 嗯",
        -8.003405376809612
      ],
      [
        "化",
        -8.007921482568323
      ],
      [
        "不要",
        -8.009842439420112
      ],
      [
        "少",
        -8.013253207855184
      ],
      [
        "继续",
        -8.015777589181866
      ],
      [
        " 还",
        -8.016870817082111
      ],
      [
        "过去",
        -8.020530607994116
      ],
      [
        "法",
        -8.023010269353177
      ],
      [
        "很多",
        -8.023121468719351
      ],
      [
        "的一个",
        -8.02697649197272
      ],
      [
        "跟他",
        -8.027612803756892
      ],
      [
        "九",
        -8.029947843827868
      ],
      [
        "处",
        -8.030772089408924
      ],
      [
        "安",
        -8.036559770184374
      ],
      [
        "万",
        -8.038428621324869
      ],
      [
        "城",
        -8.043057642633201
      ],
      [
        "身",
        -8.043314558872341
      ],
      [
        "这是",
        -8.043617170421697
      ],
      [
        "他的",
        -8.052788799483968
      ],
      [
        "报",
        -8.052907294480404
      ],
      [
        "信",
        -8.056479131919641
      ],
      [
        " 今天",
        -8.062753380131891
      ],
      [
        "回家",
        -8.065367025918265
      ],
      [
        " 可",
        -8.065882973053943
      ],
      [
        "写",
        -8.066243654426996
      ],
      [
        "在一起",
        -8.066957922045448
      ],
      [
        "林",
        -8.069799777835556
      ],
      [
        "姐",
        -8.075852530608786
      ],
      [
        "接",
        -8.080896911833992
      ],
      [
        "的是",
        -8.087731162408499
      ],
      [
        " 别",
        -8.088346032851488
      ],
      [
        "东西",
        -8.089851394223055
      ],
      [
        "变",
        -8.098427485238057
      ],
      [
        "我觉得",
        -8.099034721825902
      ],
      [
        "交",
        -8.099588862439735
      ],
      [
        "倒",
        -8.10168594494945
      ],
      [
        "场",
        -8.101864361924386
      ],
      [
        "然后",
        -8.101947999950443
      ],
      [
        "往",
        -8.103255868343435
      ],
      [
        "父母",
        -8.105880642771643
      ],
      [
        "玩",
        -8.110874821970837
      ],
      [
        "是一个",
        -8.112236351909644
      ],
      [
        "区",
        -8.114297499823058
      ],
      [
        "卖",
        -8.118585156286903
      ],
      [
        "选择",
        -8.119514975486796
      ],
      [
        "远",
        -8.12003226872146
      ],
      [
        "节目",
        -8.121905094295522
      ],
      [
        "让你",
        -8.122313020553657
      ],
      [
        "坐",
        -8.123462415309008
      ],
      [
        "走了",
        -8.134244330415013
      ],
      [
        "黑",
        -8.136634062132227
      ],
      [
        " 好",
        -8.139426257237544
      ],
      [
        " 你说",
        -8.140501072696251
      ],
      [
        "当中",
        -8.143963359475366
      ],
      [
        "当时",
        -8.144429609498667
      ],
      [
        " 没有",
        -8.145158693509378
      ],
      [
        "眼",
        -8.145450623640468
      ],
      [
        "养",
        -8.14783904056282
      ],
      [
        "女",
        -8.148946992659162
      ],
      [
        "定",
        -8.149090361626248
      ],
      [
        "声",
        -8.154454479468393
      ],
      [
        " 不是",
        -8.157173937574969
      ],
      [
        "通",
        -8.158132826465113
      ],
      [
        " 我说",
        -8.158188303224545
      ],
      [
        "药",
        -8.158389836384416
      ],
      [
        "周",
        -8.159107563348545
      ],
      [
        " 从",
        -8.159545855894555
      ],
      [
        "言",
        -8.160191408074642
      ],
      [
        "是吧",
        -8.160852510472349
      ],
      [
        "主",
        -8.162361945179116
      ],
      [
        "的事儿",
        -8.163447992616366
      ],
      [
        "感",
        -8.163991162596972
      ],
      [
        "该",
        -8.165744833791464
      ],
      [
        "量",
        -8.166341223020083
      ],
      [
        "哎",
        -8.168975931365141
      ],
      [
        "认为",
        -8.175963158964134
      ],
      [
        " 哎",
        -8.176671970921591
      ],
      [
        "刚",
        -8.176843404107279
      ],
      [
        "希望",
        -8.179405192412126
      ],
      [
        "感觉",
        -8.187177662405183
      ],
      [
        "东",
        -8.187222481720486
      ],
      [
        "同",
        -8.189561700923036
      ],
      [
        "病",
        -8.193342795347354
      ],
      [
        "错",
        -8.194016822198506
      ],
      [
        "机",
        -8.194440017635982
      ],
      [
        "流",
        -8.197401205836892
      ],
      [
        "早",
        -8.198949395937507
      ],
      [
        "元",
        -8.19940230900928
      ],
      [
        "爸爸",
        -8.201914987897347
      ],
      [
        "但是",
        -8.202539231949917
      ],
      [
        "算",
        -8.204337545807372
      ],
      [
        "亲",
        -8.206558884637229
      ],
      [
        "看看",
        -8.206896374254423
      ],
      [
        "部",
        -8.208701586236714
      ],
      [
        "深",
        -8.209671947425905
      ],
      [
        "想要",
        -8.210637164532868
      ],
      [
        "回去",
        -8.21136748020847
      ],
      [
        "十",
        -8.211531927796436
      ],
      [
        "怎么样",
        -8.21279792928316
      ],
      [
        "哦",
        -8.212917163390285
      ],
      [
        "活",
        -8.21698113328446
      ],
      [
        "月",
        -8.21842731321723
      ],
      [
        "提",
        -8.218858276668609
      ],
      [
        "为了",
        -8.219664011663681
      ],
      [
        "不知道",
        -8.219775328863122
      ],
      [
        "一次",
        -8.222813634915163
      ],
      [
        "越",
        -8.223117394878619
      ],
      [
        " 我想",
        -8.22321346533829
      ],
      [
        "肯定",
        -8.223436885679007
      ],
      [
        "好了",
        -8.224000099529443
      ],
      [
        "受",
        -8.224895300912689
      ],
      [
        "准备",
        -8.227966999158712
      ],
      [
        "这样的",
        -8.22942624628563
      ],
      [
        "的时间",
        -8.229730013820097
      ],
      [
        "怕",
        -8.230682402291784
      ],
      [
        " 对",
        -8.231596628320744
      ],
      [
        "不了",
        -8.235790354156812
      ],
      [
        "完",
        -8.237657418309029
      ],
      [
        "一种",
        -8.239446780546663
      ],
      [
        " 它",
        -8.240034726531706
      ],
      [
        "命",
        -8.247490988090806
      ],
      [
        "市",
        -8.24849231102143
      ],
      [
        "我们的",
        -8.248853202921095
      ],
      [
        "也不",
        -8.250901138798449
      ],
      [
        "龙",
        -8.253899917751264
      ],
      [
        "男人",
        -8.253951543814296
      ],
      [
        "进行",
        -8.254626795761409
      ],
      [
        "公",
        -8.255544515934417
      ],
      [
        "换",
        -8.256184630060028
      ],
      [
        "咱",
        -8.257706987311382
      ],
      [
        "装",
        -8.259024825265636
      ],
      [
        "努力",
        -8.259835727325985
      ],
      [
        "好好",
        -8.259864661187077
      ],
      [
        "让他",
        -8.26473831568058
      ],
      [
        "查",
        -8.265097179556383
      ],
      [
        " 呃",
        -8.267831988303593
      ],
      [
        "空",
        -8.26815184614547
      ],
      [
        "期",
        -8.270168019415767
      ],
      [
        "西",
        -8.270178944771086
      ],
      [
        "掉",
        -8.273413044304252
      ],
      [
        "云",
        -8.273627815696525
      ],
      [
        "线",
        -8.27368430663879
      ],
      [
        "伤",
        -8.275776365777453
      ],
      [
        "留",
        -8.277774723824747
      ],
      [
        "谈",
        -8.278382577845193
      ],
      [
        "就会",
        -8.281598187456856
      ],
      [
        "离",
        -8.287831705371417
      ],
      [
        "如",
        -8.288298233930421
      ],
      [
        "热",
        -8.28851495996078
      ],
      [
        "战",
        -8.289692712545738
      ],
      [
        "是我",
        -8.29016452367491
      ],
      [
        "度",
        -8.290922630425898
      ],
      [
        " 咱们",
        -8.29101322168734
      ],
      [
        "只是",
        -8.291176576898879
      ],
      [
        "理",
        -8.291191148074446
      ],
      [
        "睡",
        -8.292947101475423
      ],
      [
        "去了",
        -8.293725353962293
      ],
      [
        "所以",
        -8.2944760952954
      ],
      [
        "平",
        -8.296094832476179
      ],
      [
        "啥",
        -8.297201775129707
      ],
      [
        "都没有",
        -8.299316235064707
      ],
      [
        "已",
        -8.30163000754943
      ],
      [
        "以前",
        -8.30259474500596
      ],
      [
        "神",
        -8.304149199954583
      ],
      [
        "陈",
        -8.304929893422914
      ],
      [
        "穿",
        -8.30670329540716
      ],
      [
        "的东西",
        -8.307527388190685
      ],
      [
        "女人",
        -8.307944424540262
      ],
      [
        "表示",
        -8.308358926347202
      ],
      [
        "菜",
        -8.310295309220264
      ],
      [
        "我是",
        -8.312112025276614
      ],
      [
        "吃饭",
        -8.31799326923055
      ],
      [
        "儿子",
        -8.319146224393263
      ],
      [
        "单",
        -8.319476424820373
      ],
      [
        "笑",
        -8.325030396095249
      ],
      [
        "教",
        -8.32531549524815
      ],
      [
        "来说",
        -8.327177381224612
      ],
      [
        "姑娘",
        -8.328089148474119
      ],
      [
        "号",
        -8.329452672315494
      ],
      [
        "忙",
        -8.333091873726747
      ],
      [
        "手机",
        -8.333221853271777
      ],
      [
        "世界",
        -8.334039949243653
      ],
      [
        "立",
        -8.335332634424363
      ],
      [
        "意",
        -8.335662995771699
      ],
      [
        "德",
        -8.335717251126063
      ],
      [
        "几",
        -8.337714494469086
      ],
      [
        "只有",
        -8.33780077192602
      ],
      [
        "数",
        -8.338093146199316
      ],
      [
        "华",
        -8.338547979344934
      ],
      [
        "追",
        -8.3391835394203
      ],
      [
        "市场",
        -8.339447648448457
      ],
      [
        "工",
        -8.339857084354435
      ],
      [
        "事儿",
        -8.34003044825819
      ],
      [
        "特",
        -8.343376207706777
      ],
      [
        "狗",
        -8.348348569509328
      ],
      [
        "呗",
        -8.351142450210764
      ],
      [
        "决定",
        -8.351487914182442
      ],
      [
        "跳",
        -8.351664410785151
      ],
      [
        "好像",
        -8.352240634004458
      ],
      [
        "选",
        -8.35295151843968
      ],
      [
        " 谁",
        -8.353006243095876
      ],
      [
        "南",
        -8.354146923451953
      ],
      [
        "的这个",
        -8.354812124876423
      ],
      [
        " 不过",
        -8.356212544537494
      ],
      [
        "位",
        -8.356430405047657
      ],
      [
        "队",
        -8.359341435600477
      ],
      [
        "妈",
        -8.359620909620695
      ],
      [
        "两个",
        -8.36127950213101
      ],
      [
        "下来",
        -8.36421285466945
      ],
      [
        "杀",
        -8.364467490202808
      ],
      [
        "明白",
        -8.365818603503795
      ],
      [
        "通过",
        -8.370635015926347
      ],
      [
        "你就",
        -8.373480239707119
      ],
      [
        "聊",
        -8.374423562178878
      ],
      [
        "是什么",
        -8.375909595768194
      ],
      [
        "是个",
        -8.377827597752493
      ],
      [
        " 那我",
        -8.378772129382503
      ],
      [
        "利",
        -8.381665865086996
      ],
      [
        "了吧",
        -8.383666193124919
      ],
      [
        "有什么",
        -8.384843667786246
      ],
      [
        "黄",
        -8.386900055740613
      ],
      [
        "约",
        -8.389070990449884
      ],
      [
        "零",
        -8.39034576975783
      ],
      [
        "的问题",
        -8.393913303743101
      ],
      [
        "其",
        -8.394733624533282
      ],
      [
        "到底",
        -8.396410658556691
      ],
      [
        "方面",
        -8.398196827806437
      ],
      [
        " 要",
        -8.3984776921685
      ],
      [
        "房",
        -8.398730126199018
      ],
      [
        "的地方",
        -8.400155187404357
      ],
      [
        "办",
        -8.400245022639034
      ],
      [
        "字",
        -8.40141802734143
      ],
      [
        "包",
        -8.401501251940573
      ],
      [
        "一定",
        -8.40301337368298
      ],
      [
        "拍",
        -8.404149045501482
      ],
      [
        "弄",
        -8.406161984288945
      ],
      [
        "对方",
        -8.408144882984038
      ],
      [
        "帮",
        -8.408825191037742
      ],
      [
        "兵",
        -8.408863528342891
      ],
      [
        "电",
        -8.409798426625025
      ],
      [
        "或者",
        -8.412819102327015
      ],
      [
        "找到",
        -8.41493541247679
      ],
      [
        "师",
        -8.415206056655034
      ],
      [
        "画",
        -8.415585246506058
      ],
      [
        "取",
        -8.416078442937893
      ],
      [
        "哭",
        -8.417674426557655
      ],
      [
        "刘",
        -8.418794381176829
      ],
      [
        "家里",
        -8.422500884299776
      ],
      [
        "感情",
        -8.42322106508046
      ],
      [
        "团",
        -8.4252293952386
      ],
      [
        "有个",
        -8.426096033561688
      ],
      [
        "局",
        -8.426955817184133
      ],
      [
        "对于",
        -8.42718969101159
      ],
      [
        "落",
        -8.4286171603667
      ],
      [
        " 把",
        -8.429060693176465
      ],
      [
        "满",
        -8.42914660250508
      ],
      [
        "国家",
        -8.429426993992523
      ],
      [
        "苦",
        -8.42951041453465
      ],
      [
        "有人",
        -8.42992491049206
      ],
      [
        "兄弟",
        -8.43163241703801
      ],
      [
        "差",
        -8.43270616260779
      ],
      [
        "直接",
        -8.435064158104726
      ],
      [
        "在这儿",
        -8.438615332709116
      ],
      [
        "一定要",
        -8.440039937111806
      ],
      [
        "脸",
        -8.440865750417379
      ],
      [
        " 他说",
        -8.441398616877615
      ],
      [
        "半",
        -8.442402651762455
      ],
      [
        "了一个",
        -8.444543468353448
      ],
      [
        "一天",
        -8.445874168132157
      ],
      [
        " 还是",
        -8.44653113544923
      ],
      [
        "最后",
        -8.448438714711266
      ],
      [
        "唱",
        -8.448518300796643
      ],
      [
        "愿意",
        -8.449228741416242
      ],
      [
        "都会",
        -8.4492640543013
      ],
      [
        "血",
        -8.449629147579795
      ],
      [
        "心里",
        -8.449915323196809
      ],
      [
        "关注",
        -8.450603644890192
      ],
      [
        "救",
        -8.451782989297225
      ],
      [
        "低",
        -8.453306147450425
      ],
      [
        "乱",
        -8.45467929605642
      ],
      [
        " 又",
        -8.455221462423367
      ],
      [
        " 你就",
        -8.457281307428131
      ],
      [
        "社会",
        -8.457896399732183
      ],
      [
        "店",
        -8.458095115674183
      ],
      [
        " 我也",
        -8.458099838324653
      ],
      [
        "近",
        -8.459681091392449
      ],
      [
        "条",
        -8.463083544374392
      ],
      [
        "调",
        -8.46466134694666
      ],
      [
        "经济",
        -8.466747573191146
      ],
      [
        "离婚",
        -8.466836961288669
      ],
      [
        "原",
        -8.46764851475707
      ],
      [
        " 再",
        -8.469793503516494
      ],
      [
        "求",
        -8.471466265165127
      ],
      [
        "世",
        -8.473163710128043
      ],
      [
        "作",
        -8.473636539037434
      ],
      [
        "学习",
        -8.477137380813483
      ],
      [
        "曾经",
        -8.47737093688202
      ],
      [
        "边",
        -8.477443847777067
      ],
      [
        "饭",
        -8.479032401937042
      ],
      [
        "那种",
        -8.481393234770755
      ],
      [
        "有没有",
        -8.482045936323004
      ],
      [
        "所有的",
        -8.482392167349534
      ],
      [
        "不想",
        -8.482392409530405
      ],
      [
        "说你",
        -8.483838918712003
      ],
      [
        " 你要",
        -8.484249669848259
      ],
      [
        " 怎么",
        -8.484436741583682
      ],
      [
        "女儿",
        -8.485685288239386
      ],
      [
        "体",
        -8.48683814868057
      ],
      [
        "离开",
        -8.487226485170751
      ],
      [
        "官",
        -8.488246513107097
      ],
      [
        "称",
        -8.48965867422785
      ],
      [
        "事情",
        -8.49004346016392
      ],
      [
        "至",
        -8.490129377003182
      ],
      [
        "出现",
        -8.490764013758962
      ],
      [
        "班",
        -8.491988001072631
      ],
      [
        "香",
        -8.492479806697812
      ],
      [
        "夜",
        -8.494487929285464
      ],
      [
        "斯",
        -8.495630693513792
      ],
      [
        "发生",
        -8.496973753543276
      ],
      [
        "医生",
        -8.498472923401776
      ],
      [
        "改变",
        -8.499547407837715
      ],
      [
        " 为什么",
        -8.500106786072333
      ],
      [
        "种",
        -8.500266834998785
      ],
      [
        "发展",
        -8.500698154304885
      ],
      [
        "电话",
        -8.501965414377427
      ],
      [
        "成为",
        -8.503321642819879
      ],
      [
        "省",
        -8.503698097176363
      ],
      [
        "北",
        -8.503904682868974
      ],
      [
        "鱼",
        -8.506708550682303
      ],
      [
        "情况",
        -8.506997468213358
      ],
      [
        "要求",
        -8.50885663666744
      ],
      [
        "说我",
        -8.510986131610997
      ],
      [
        "突然",
        -8.511186826495164
      ],
      [
        "大哥",
        -8.51152680492925
      ],
      [
        "我也",
        -8.513784284595946
      ],
      [
        "一年",
        -8.514050460953344
      ],
      [
        "第一",
        -8.517171242796254
      ],
      [
        "得到",
        -8.518515023481163
      ],
      [
        "总是",
        -8.51987108873421
      ],
      [
        "老板",
        -8.520271044537319
      ],
      [
        "改",
        -8.520611390985195
      ],
      [
        "非",
        -8.521659180376677
      ],
      [
        "刚才",
        -8.524216010055714
      ],
      [
        "企业",
        -8.52611874707363
      ],
      [
        "但",
        -8.52893619918321
      ],
      [
        "实",
        -8.53009709430317
      ],
      [
        "医院",
        -8.531006706067409
      ],
      [
        "急",
        -8.531175794421163
      ],
      [
        "楼",
        -8.532018613464118
      ],
      [
        "他妈",
        -8.533413590745152
      ],
      [
        "宝",
        -8.533912702159471
      ],
      [
        "脚",
        -8.535183509755273
      ],
      [
        "传",
        -8.537728471328329
      ],
      [
        "演",
        -8.543287898797997
      ],
      [
        "认识",
        -8.544439740256951
      ],
      [
        "如此",
        -8.545137697797141
      ],
      [
        "退",
        -8.545219759579004
      ],
      [
        "就是说",
        -8.545912287542935
      ],
      [
        "合",
        -8.547513555190221
      ],
      [
        "故事",
        -8.54760182944303
      ],
      [
        "才能",
        -8.549168675521983
      ],
      [
        " 但是我",
        -8.550232670871319
      ],
      [
        " 你是",
        -8.550819562857441
      ],
      [
        "由",
        -8.551544956718738
      ],
      [
        "员",
        -8.553001875164265
      ],
      [
        " 是不是",
        -8.556963080550911
      ],
      [
        "可是",
        -8.557859275231644
      ],
      [
        "青",
        -8.56195037361315
      ],
      [
        "站",
        -8.562206685157786
      ],
      [
        "个人",
        -8.562570754801682
      ],
      [
        "了解",
        -8.562833948993065
      ],
      [
        "然",
        -8.562952143685084
      ],
      [
        "都不",
        -8.565043634424498
      ],
      [
        "民",
        -8.566437800782074
      ],
      [
        " 我要",
        -8.567516635667506
      ],
      [
        " 如果你",
        -8.567613599692438
      ],
      [
        "米",
        -8.567626147913098
      ],
      [
        "幸福",
        -8.567713359364044
      ],
      [
        "卡",
        -8.568084250429724
      ],
      [
        "达",
        -8.569183498017667
      ],
      [
        "破",
        -8.570599705234882
      ],
      [
        "晚上",
        -8.571569766418568
      ],
      [
        "开心",
        -8.571691706429274
      ],
      [
        "玉",
        -8.576005851979923
      ],
      [
        "歌",
        -8.57642545471173
      ],
      [
        " 那个",
        -8.576873209124441
      ],
      [
        "照",
        -8.577132645993432
      ],
      [
        "阿",
        -8.577289577851523
      ],
      [
        "多少",
        -8.578333681481668
      ],
      [
        "雪",
        -8.585165464966828
      ],
      [
        "冷",
        -8.58796914398657
      ],
      [
        "大学",
        -8.589401856462054
      ],
      [
        "还没",
        -8.589506501065767
      ],
      [
        "最近",
        -8.591291259632735
      ],
      [
        "图",
        -8.59285782678971
      ],
      [
        "结",
        -8.593223645247843
      ],
      [
        "科",
        -8.593804669060972
      ],
      [
        "台",
        -8.595683105683914
      ],
      [
        "带着",
        -8.595737510848673
      ],
      [
        "皮",
        -8.596959414909177
      ],
      [
        "经常",
        -8.59718937987641
      ],
      [
        "家庭",
        -8.597962753190151
      ],
      [
        "靠",
        -8.598387084370927
      ],
      [
        "费",
        -8.59990419677463
      ],
      [
        "快乐",
        -8.601725499145367
      ],
      [
        "闹",
        -8.603218564784605
      ],
      [
        "指",
        -8.603805469893532
      ],
      [
        "几个",
        -8.605967535900806
      ],
      [
        "克",
        -8.6062484354804
      ],
      [
        "石",
        -8.606472836033687
      ],
      [
        "洗",
        -8.608155928813654
      ],
      [
        "色",
        -8.612653633935409
      ],
      [
        "乐",
        -8.613949799166228
      ],
      [
        " 不要",
        -8.61466607829044
      ],
      [
        "这次",
        -8.615127387041777
      ],
      [
        "身上",
        -8.615423363303844
      ],
      [
        " 你看",
        -8.61714516119491
      ],
      [
        "冲",
        -8.61789023661692
      ],
      [
        "也没",
        -8.620567999029555
      ],
      [
        "跟我说",
        -8.621077737956199
      ],
      [
        "反",
        -8.624051254713132
      ],
      [
        " 谢谢",
        -8.624395330779786
      ],
      [
        "真是",
        -8.624465033855248
      ],
      [
        "敢",
        -8.625524840438048
      ],
      [
        " 都",
        -8.625526721480284
      ],
      [
        "担心",
        -8.62613071343173
      ],
      [
        "房子",
        -8.627947133923568
      ],
      [
        "无法",
        -8.628286394668095
      ],
      [
        "建",
        -8.628391346632005
      ],
      [
        "音乐",
        -8.6286891930663
      ],
      [
        "影响",
        -8.629065287646963
      ],
      [
        "假",
        -8.630155151767504
      ],
      [
        "联系",
        -8.632873174171353
      ],
      [
        "肉",
        -8.633325945018834
      ],
      [
        "晚",
        -8.634106698662617
      ],
      [
        "借",
        -8.634229018751448
      ],
      [
        "把我",
        -8.63434197779574
      ],
      [
        "院",
        -8.635597781709597
      ],
      [
        "贵",
        -8.637112988436979
      ],
      [
        "知",
        -8.638254406479382
      ],
      [
        "告诉你",
        -8.638409419828037
      ],
      [
        "一条",
        -8.639116037951718
      ],
      [
        "接受",
        -8.640051149397177
      ],
      [
        "的事",
        -8.641194371717171
      ],
      [
        " 老",
        -8.641288899407263
      ],
      [
        " 却",
        -8.641351617580673
      ],
      [
        "推",
        -8.641498985615804
      ],
      [
        "身体",
        -8.642284686138854
      ],
      [
        "草",
        -8.642371502332646
      ],
      [
        "梦",
        -8.645368612391401
      ],
      [
        "搞",
        -8.646984373301596
      ],
      [
        "里边",
        -8.648292489823415
      ],
      [
        "如何",
        -8.649575581515881
      ],
      [
        "派",
        -8.650135672364051
      ],
      [
        "这儿",
        -8.650336152969768
      ],
      [
        "便",
        -8.650383133280156
      ],
      [
        "品",
        -8.651320504668185
      ],
      [
        "说了",
        -8.651499671396257
      ],
      [
        "领",
        -8.651742511723258
      ],
      [
        "朝",
        -8.653183122132598
      ],
      [
        "要是",
        -8.654179336997776
      ],
      [
        "考",
        -8.655198300882347
      ],
      [
        "对你",
        -8.65571328922342
      ],
      [
        "解",
        -8.655767346818942
      ],
      [
        "整个",
        -8.655988041512009
      ],
      [
        "都有",
        -8.656486061874697
      ],
      [
        "每",
        -8.657233837572821
      ],
      [
        "杨",
        -8.658024452661365
      ],
      [
        " 大",
        -8.658675585005938
      ],
      [
        "每天",
        -8.659345544553561
      ],
      [
        "木",
        -8.659588831305141
      ],
      [
        "地方",
        -8.660509386262682
      ],
      [
        "帮我",
        -8.662068592039814
      ],
      [
        "江",
        -8.662175957464793
      ],
      [
        "未来",
        -8.662214131777487
      ],
      [
        "必须",
        -8.664207032006349
      ],
      [
        " 而是",
        -8.664338052531756
      ],
      [
        "案",
        -8.664806220500346
      ],
      [
        "还要",
        -8.665880479011886
      ],
      [
        "刚刚",
        -8.6661515194441
      ],
      [
        "某",
        -8.666929622866453
      ],
      [
        "直",
        -8.668226847756008
      ],
      [
        "告诉我",
        -8.669969665327484
      ],
      [
        " 结果",
        -8.670273255509498
      ],
      [
        "点儿",
        -8.670870736634583
      ],
      [
        "是你",
        -8.671154424440935
      ],
      [
        "完全",
        -8.672081461455285
      ],
      [
        "牛",
        -8.67237388709074
      ],
      [
        " 后来",
        -8.673305610218135
      ],
      [
        "之间",
        -8.674886345440482
      ],
      [
        "常",
        -8.675453943600452
      ],
      [
        " 只要",
        -8.67594282519078
      ],
      [
        "后来",
        -8.677215497839166
      ],
      [
        "保",
        -8.677393169307978
      ],
      [
        "首",
        -8.678171672407307
      ],
      [
        "河",
        -8.68059689977874
      ],
      [
        "美国",
        -8.68121358631273
      ],
      [
        "尔",
        -8.681590062458499
      ],
      [
        "价",
        -8.683236868686063
      ],
      [
        "间",
        -8.683483844850478
      ],
      [
        "对我",
        -8.684023649823807
      ],
      [
        "女朋友",
        -8.685159393405312
      ],
      [
        "下去",
        -8.685257956176608
      ],
      [
        "尽",
        -8.685448968846464
      ],
      [
        "哥哥",
        -8.685743493418093
      ],
      [
        "代",
        -8.685783725502072
      ],
      [
        "的生活",
        -8.686292735373256
      ],
      [
        "出了",
        -8.68684149621874
      ],
      [
        " 可能",
        -8.687591706440175
      ],
      [
        "也会",
        -8.688108346443173
      ],
      [
        "三十",
        -8.688637821048383
      ],
      [
        "雨",
        -8.689357543061792
      ],
      [
        "节",
        -8.689729827609003
      ],
      [
        "回来了",
        -8.689778342558084
      ],
      [
        "使",
        -8.689901422571863
      ],
      [
        "娘",
        -8.690418465763845
      ],
      [
        "听到",
        -8.690803376489276
      ],
      [
        "所有",
        -8.691490440501044
      ],
      [
        "理解",
        -8.693860925883458
      ],
      [
        "权",
        -8.69423528162618
      ],
      [
        "把你",
        -8.698550518793331
      ],
      [
        "物",
        -8.698560618946173
      ],
      [
        "应",
        -8.698947047099614
      ],
      [
        "今年",
        -8.699334271882012
      ],
      [
        "城市",
        -8.700698046773438
      ],
      [
        "婚姻",
        -8.701616977628962
      ],
      [
        "正在",
        -8.703322330783804
      ],
      [
        "不用",
        -8.705124591360685
      ],
      [
        "是谁",
        -8.705277674899119
      ],
      [
        "经",
        -8.705446931474508
      ],
      [
        "坚持",
        -8.70708391207217
      ],
      [
        " 一",
        -8.708874075631385
      ],
      [
        "网",
        -8.708883283702335
      ],
      [
        "死了",
        -8.709256592967115
      ],
      [
        "制",
        -8.710278345964953
      ],
      [
        "姐姐",
        -8.71182278121447
      ],
      [
        " 因为我",
        -8.712956395471556
      ],
      [
        "懂",
        -8.71307313421861
      ],
      [
        "或",
        -8.717595085725375
      ],
      [
        "毛",
        -8.718134867962233
      ],
      [
        "对不对",
        -8.718828421533841
      ],
      [
        "两个人",
        -8.719186163618742
      ],
      [
        "消息",
        -8.7199937016306
      ],
      [
        "不到",
        -8.720937175164268
      ],
      [
        "遇到",
        -8.722240320185403
      ],
      [
        "招",
        -8.723354235493709
      ],
      [
        "小姐",
        -8.723791632819374
      ],
      [
        "货",
        -8.724816581773796
      ],
      [
        "业",
        -8.726273616569571
      ],
      [
        "枪",
        -8.726708994096303
      ],
      [
        "待",
        -8.72761281480003
      ],
      [
        "春",
        -8.727695273734714
      ],
      [
        "嘴",
        -8.728799936913655
      ],
      [
        "那边",
        -8.72880095232589
      ],
      [
        "的小",
        -8.730762521627808
      ],
      [
        "学校",
        -8.73106511491596
      ],
      [
        "累",
        -8.7322406329208
      ],
      [
        "的那个",
        -8.732277904918353
      ],
      [
        "以为",
        -8.733049695232502
      ],
      [
        "此",
        -8.734823337407475
      ],
      [
        "不行",
        -8.735485743955604
      ],
      [
        " 我现在",
        -8.735550268621619
      ],
      [
        "研究",
        -8.737546510602044
      ],
      [
        "好不好",
        -8.737815317569108
      ],
      [
        "睡觉",
        -8.737910599304385
      ],
      [
        "证",
        -8.739100128527138
      ],
      [
        "星",
        -8.73949599204217
      ],
      [
        "曾",
        -8.740241194719278
      ],
      [
        "修",
        -8.740271881855218
      ],
      [
        "相信",
        -8.74045716726696
      ],
      [
        "来看",
        -8.740613005207592
      ],
      [
        "情绪",
        -8.74145754996104
      ],
      [
        "大人",
        -8.741859936646305
      ],
      [
        "刀",
        -8.743215468107836
      ],
      [
        "田",
        -8.744005258697653
      ],
      [
        "课",
        -8.744464466300323
      ],
      [
        "赶紧",
        -8.745937063734125
      ],
      [
        "不一样",
        -8.749536784239062
      ],
      [
        "戏",
        -8.751352782411356
      ],
      [
        "坏",
        -8.752619217177033
      ],
      [
        "这里",
        -8.753016265061774
      ],
      [
        "爱情",
        -8.753615445448117
      ],
      [
        "我都",
        -8.75512988418324
      ],
      [
        "只能",
        -8.75565969369336
      ],
      [
        "玩儿",
        -8.755876267081831
      ],
      [
        "停",
        -8.756270692115846
      ],
      [
        "抓",
        -8.75684062663826
      ],
      [
        "过了",
        -8.758762502547166
      ],
      [
        "次",
        -8.758874070422477
      ],
      [
        "并不",
        -8.76030454342775
      ],
      [
        " 然后我",
        -8.76127418532395
      ],
      [
        "谢谢",
        -8.761974838038284
      ],
      [
        " 当",
        -8.762351367263484
      ],
      [
        "读",
        -8.762636854409948
      ],
      [
        "什么时候",
        -8.763544338914155
      ],
      [
        "何",
        -8.764220132572238
      ],
      [
        "保护",
        -8.764411326802534
      ],
      [
        "同学",
        -8.765052502814179
      ],
      [
        "你自己",
        -8.765108129037174
      ],
      [
        "微信",
        -8.766750558554051
      ],
      [
        "这个人",
        -8.766887746305288
      ],
      [
        "进去",
        -8.76836693115972
      ],
      [
        " 可以",
        -8.770318322862137
      ],
      [
        "其他",
        -8.77047494151585
      ],
      [
        "则",
        -8.7708862712565
      ],
      [
        " 那就",
        -8.771085380230295
      ],
      [
        "你要",
        -8.771159864689999
      ],
      [
        "成功",
        -8.771841938463586
      ],
      [
        "逼",
        -8.772317050111015
      ],
      [
        "能力",
        -8.77292227520721
      ],
      [
        " 这样",
        -8.773498346418446
      ],
      [
        "男",
        -8.775431154736044
      ],
      [
        "也有",
        -8.778011079086546
      ],
      [
        "帮助",
        -8.778254095399992
      ],
      [
        "是在",
        -8.779427975195182
      ],
      [
        "傻",
        -8.779580661114561
      ],
      [
        " 大家",
        -8.78004951121153
      ],
      [
        "安全",
        -8.780095350136188
      ],
      [
        "条件",
        -8.780164864358223
      ],
      [
        "超",
        -8.782210540741945
      ],
      [
        "解决",
        -8.783042896594285
      ],
      [
        "电影",
        -8.783404968890803
      ],
      [
        "油",
        -8.78435891691322
      ],
      [
        "结果",
        -8.785632801866846
      ],
      [
        "你看",
        -8.787505358625317
      ],
      [
        "失",
        -8.787668086209601
      ],
      [
        "兰",
        -8.788970906158294
      ],
      [
        "也没有",
        -8.789072170217304
      ],
      [
        "步",
        -8.789477939530295
      ],
      [
        " 为了",
        -8.79139417325964
      ],
      [
        "语",
        -8.793377724414734
      ],
      [
        "一会儿",
        -8.794088118409919
      ],
      [
        "真的是",
        -8.796695257927137
      ],
      [
        "的朋友",
        -8.798064284514686
      ],
      [
        "归",
        -8.798823705354557
      ],
      [
        "天天",
        -8.800631352997943
      ],
      [
        "双",
        -8.800735164278727
      ],
      [
        "百",
        -8.800820758489024
      ],
      [
        "分手",
        -8.802084940806985
      ],
      [
        "片",
        -8.802664364087025
      ],
      [
        "烟",
        -8.802736580690981
      ],
      [
        "整",
        -8.803369258869683
      ],
      [
        "看见",
        -8.803921727039292
      ],
      [
        "汉",
        -8.804741785848995
      ],
      [
        "记",
        -8.805167399234735
      ],
      [
        " 甚至",
        -8.806571549480722
      ],
      [
        "还能",
        -8.806909201481297
      ],
      [
        "盘",
        -8.806962075915624
      ],
      [
        "害怕",
        -8.808107697840196
      ],
      [
        "不敢",
        -8.80843245280501
      ],
      [
        "商",
        -8.809912136877374
      ],
      [
        "干什么",
        -8.811011866588885
      ],
      [
        "未",
        -8.812373339177219
      ],
      [
        "确实",
        -8.812635632895406
      ],
      [
        "守",
        -8.813643884183431
      ],
      [
        "越来越",
        -8.813685792617942
      ],
      [
        "投",
        -8.81423583525441
      ],
      [
        "投资",
        -8.814438954310479
      ],
      [
        "一句话",
        -8.816492284304701
      ],
      [
        "二十",
        -8.81738150539882
      ],
      [
        "技术",
        -8.818116776423665
      ],
      [
        "腿",
        -8.8193434119516
      ],
      [
        "毒",
        -8.819445412216663
      ],
      [
        "顶",
        -8.821127924164157
      ],
      [
        "猫",
        -8.821883445897328
      ],
      [
        "堂",
        -8.823015551975011
      ],
      [
        "任何",
        -8.823215494786146
      ],
      [
        " 虽然",
        -8.82545987260219
      ],
      [
        "同志",
        -8.82603586949314
      ],
      [
        " 真的",
        -8.826629783756927
      ],
      [
        "你说",
        -8.827905098009353
      ],
      [
        " 让",
        -8.82791477492708
      ],
      [
        "衣服",
        -8.828870434594341
      ],
      [
        "信息",
        -8.829803752566956
      ],
      [
        "就要",
        -8.832562634618064
      ],
      [
        "虽然",
        -8.833320508481824
      ],
      [
        " 咱",
        -8.833635289613499
      ],
      [
        "器",
        -8.833824265045335
      ],
      [
        "股",
        -8.834806915689775
      ],
      [
        "上了",
        -8.835665780837264
      ],
      [
        "痛",
        -8.836266545904977
      ],
      [
        "问我",
        -8.836943660219822
      ],
      [
        "票",
        -8.839790939368546
      ],
      [
        " 当时",
        -8.840235223274655
      ],
      [
        "阳",
        -8.840792768087473
      ],
      [
        "不过",
        -8.842004917152305
      ],
      [
        " 你怎么",
        -8.842245279163702
      ],
      [
        "有些",
        -8.842737236475674
      ],
      [
        "就可以",
        -8.843228676321274
      ],
      [
        "都没",
        -8.844949685791342
      ],
      [
        "排",
        -8.845124988846603
      ],
      [
        "款",
        -8.847033082607005
      ],
      [
        "婚",
        -8.848053412249628
      ],
      [
        " 只是",
        -8.849085084162517
      ],
      [
        "及",
        -8.850022347879765
      ],
      [
        "管理",
        -8.850336067861381
      ],
      [
        "父亲",
        -8.852022265754124
      ],
      [
        "多了",
        -8.852674820411714
      ],
      [
        "明天",
        -8.852689997013043
      ],
      [
        "说的",
        -8.853033721435285
      ],
      [
        "银行",
        -8.85381324216821
      ],
      [
        "罗",
        -8.854655467794744
      ],
      [
        "母亲",
        -8.854985478792734
      ],
      [
        "终于",
        -8.85517355261795
      ],
      [
        "处理",
        -8.855414717793435
      ],
      [
        "武",
        -8.855661902190816
      ],
      [
        "随",
        -8.855663620648023
      ],
      [
        "州",
        -8.856813539703642
      ],
      [
        "第一次",
        -8.856919543270068
      ],
      [
        "就说",
        -8.857784453183053
      ],
      [
        "树",
        -8.859439795330116
      ],
      [
        "根",
        -8.860923508675436
      ],
      [
        "老公",
        -8.861758000436359
      ],
      [
        " 最后",
        -8.863301108247319
      ],
      [
        "北京",
        -8.864047543115444
      ],
      [
        "精",
        -8.864054116455916
      ],
      [
        "我要",
        -8.864805929829522
      ],
      [
        "布",
        -8.864844281885397
      ],
      [
        "文化",
        -8.865077739024573
      ],
      [
        "样",
        -8.866351292236399
      ],
      [
        "古",
        -8.866476048953777
      ],
      [
        "原因",
        -8.86686279812608
      ],
      [
        "不太",
        -8.866922225504046
      ],
      [
        "余",
        -8.868149225026702
      ],
      [
        "压",
        -8.868747608370013
      ],
      [
        "我想",
        -8.8695102989457
      ],
      [
        "分享",
        -8.870518195183118
      ],
      [
        "够",
        -8.871755613191471
      ],
      [
        "机会",
        -8.871873798976438
      ],
      [
        " 人家",
        -8.872216462414993
      ],
      [
        "照顾",
        -8.872553053072862
      ],
      [
        "刷",
        -8.873403472642755
      ],
      [
        "上面",
        -8.873471195349309
      ],
      [
        "好吗",
        -8.874024810604578
      ],
      [
        "补",
        -8.874266460254065
      ],
      [
        "作为",
        -8.874396693847967
      ],
      [
        "把它",
        -8.87496307739811
      ],
      [
        "完了",
        -8.874991457103654
      ],
      [
        "计划",
        -8.876087571861019
      ],
      [
        "翻",
        -8.876209273327829
      ],
      [
        "一定会",
        -8.876337297643103
      ],
      [
        "罪",
        -8.876760150182319
      ],
      [
        "百分之",
        -8.877735669538852
      ],
      [
        "领导",
        -8.879047064532982
      ],
      [
        "类",
        -8.879416700837085
      ],
      [
        "运",
        -8.879790608014547
      ],
      [
        "行动",
        -8.8804246565265
      ],
      [
        "晓",
        -8.88291832666062
      ],
      [
        "一句",
        -8.882939821874615
      ],
      [
        "的故事",
        -8.884134975672517
      ],
      [
        " 然后呢",
        -8.884437879159591
      ],
      [
        "好的",
        -8.884482285260999
      ],
      [
        " 没",
        -8.884733085986362
      ],
      [
        "上来",
        -8.885308923252321
      ],
      [
        "怪",
        -8.887697399679585
      ],
      [
        "配",
        -8.888169518128569
      ],
      [
        "跟你说",
        -8.88980326565543
      ],
      [
        "上班",
        -8.890531655351085
      ],
      [
        "念",
        -8.890538123168316
      ],
      [
        "把他",
        -8.892889975593727
      ],
      [
        "让人",
        -8.893464340661511
      ],
      [
        "怎么办",
        -8.894260018672131
      ],
      [
        " 或者",
        -8.89457700913075
      ],
      [
        "许",
        -8.895481975746545
      ],
      [
        "犯",
        -8.895603289185695
      ],
      [
        "并",
        -8.897102981518746
      ],
      [
        "丽",
        -8.898156152258576
      ],
      [
        "教育",
        -8.8982620398715
      ],
      [
        "身边",
        -8.898843368763044
      ],
      [
        "建议",
        -8.900095106436412
      ],
      [
        "了我",
        -8.900145899670253
      ],
      [
        "能不能",
        -8.900670965867867
      ],
      [
        "容易",
        -8.901090579367077
      ],
      [
        "做了",
        -8.901930787756477
      ],
      [
        "疼",
        -8.902136635446398
      ],
      [
        "服务",
        -8.90268046715682
      ],
      [
        "做的",
        -8.903105741634489
      ],
      [
        "的孩子",
        -8.905463395539327
      ],
      [
        "表达",
        -8.906423046154641
      ],
      [
        "去找",
        -8.908220944570362
      ],
      [
        " 并",
        -8.908671839275646
      ],
      [
        " 当然",
        -8.908885298978626
      ],
      [
        "人生",
        -8.910380817582965
      ],
      [
        "土",
        -8.910443608174544
      ],
      [
        "打电话",
        -8.91114811397391
      ],
      [
        "副",
        -8.911378586048095
      ],
      [
        "自我",
        -8.911513784980036
      ],
      [
        "村",
        -8.912393156859384
      ],
      [
        "告诉",
        -8.913974168257566
      ],
      [
        "清楚",
        -8.914430925016447
      ],
      [
        "认",
        -8.915020019741505
      ],
      [
        "老婆",
        -8.915081257161653
      ],
      [
        "断",
        -8.91925771462784
      ],
      [
        " 你还",
        -8.91941090196374
      ],
      [
        "参加",
        -8.919502933223539
      ],
      [
        "因",
        -8.920034837648954
      ],
      [
        "这一",
        -8.920136779946192
      ],
      [
        "服",
        -8.920354701501852
      ],
      [
        "将军",
        -8.921011382857188
      ],
      [
        "对他",
        -8.921115183484714
      ],
      [
        "各",
        -8.921436583133165
      ],
      [
        "亮",
        -8.921507501550007
      ],
      [
        "任",
        -8.921830352516853
      ],
      [
        "完成",
        -8.92196122502895
      ],
      [
        "妹妹",
        -8.92270212932971
      ],
      [
        "铁",
        -8.92277034163278
      ],
      [
        "进来",
        -8.922841303754058
      ],
      [
        "就能",
        -8.923505653558392
      ],
      [
        "对吧",
        -8.923677956644278
      ],
      [
        "短",
        -8.923689777127372
      ],
      [
        "重要",
        -8.924105174426593
      ],
      [
        "只要",
        -8.925946751212493
      ],
      [
        "不同",
        -8.926783503285474
      ],
      [
        "付出",
        -8.92772179516416
      ],
      [
        "方式",
        -8.927914757338472
      ],
      [
        "真正",
        -8.928840232429186
      ],
      [
        " 想",
        -8.930562514779655
      ],
      [
        "绝",
        -8.93162176959776
      ],
      [
        "鬼",
        -8.932301577174528
      ],
      [
        "座",
        -8.933595244579411
      ],
      [
        "在这里",
        -8.933804067283567
      ],
      [
        "学生",
        -8.934844469602224
      ],
      [
        "主播",
        -8.935866280319132
      ],
      [
        "直播",
        -8.936765765274238
      ],
      [
        "千",
        -8.937020516334522
      ],
      [
        "底",
        -8.937154027054039
      ],
      [
        "包括",
        -8.938148935612206
      ],
      [
        "男朋友",
        -8.939218519568682
      ],
      [
        "赶",
        -8.93950371755063
      ],
      [
        "偷",
        -8.939635401438437
      ],
      [
        "率",
        -8.940308409245386
      ],
      [
        "我妈",
        -8.940731889292818
      ],
      [
        "抢",
        -8.94089499857709
      ],
      [
        "背",
        -8.940971411422408
      ],
      [
        "格",
        -8.941557354004628
      ],
      [
        "哪个",
        -8.941639919168061
      ],
      [
        "支持",
        -8.941796493387036
      ],
      [
        "衣",
        -8.942704115388759
      ],
      [
        "回答",
        -8.943931322385485
      ],
      [
        "变成",
        -8.945273048404644
      ],
      [
        "看着",
        -8.945625113189635
      ],
      [
        "什么呀",
        -8.948053540060096
      ],
      [
        "三年",
        -8.948248867722812
      ],
      [
        "击",
        -8.948666807668666
      ],
      [
        "关于",
        -8.950103040500675
      ],
      [
        "那样",
        -8.951037404147348
      ],
      [
        "还在",
        -8.951348198676301
      ],
      [
        "散",
        -8.952458266966424
      ],
      [
        "各种",
        -8.952543985316948
      ],
      [
        "控制",
        -8.95396219727974
      ],
      [
        "五十",
        -8.954239453795495
      ],
      [
        " 我知道",
        -8.954477657061327
      ],
      [
        "茶",
        -8.95466984519134
      ],
      [
        "还没有",
        -8.954755993473018
      ],
      [
        "这么说",
        -8.955021288164787
      ],
      [
        "主动",
        -8.955849031926485
      ],
      [
        "都在",
        -8.956572933375913
      ],
      [
        "游",
        -8.95669187522254
      ],
      [
        "宫",
        -8.957156800577945
      ],
      [
        "哪儿",
        -8.957224758079086
      ],
      [
        "全部",
        -8.957354977156657
      ],
      [
        "代表",
        -8.957955828583179
      ],
      [
        "球",
        -8.95935131847171
      ],
      [
        "面对",
        -8.959450386299546
      ],
      [
        " 一个",
        -8.96057616512866
      ],
      [
        "是否",
        -8.961548765445928
      ],
      [
        "考虑",
        -8.9621665133633
      ],
      [
        "我现在",
        -8.965558511235175
      ],
      [
        "调查",
        -8.96572447388175
      ],
      [
        "蛋",
        -8.966027317527542
      ],
      [
        "功",
        -8.966762846435179
      ],
      [
        "伤害",
        -8.969050064990657
      ],
      [
        "若",
        -8.969500360379026
      ],
      [
        "第二",
        -8.96978054311289
      ],
      [
        "三个",
        -8.970195447950287
      ],
      [
        "媳妇儿",
        -8.971282154736878
      ],
      [
        "视",
        -8.971760786473544
      ],
      [
        "慢慢",
        -8.972068618379371
      ],
      [
        "灯",
        -8.973524136772905
      ],
      [
        "进入",
        -8.973873437762505
      ],
      [
        "咋",
        -8.973882877653706
      ],
      [
        "影",
        -8.975085402079158
      ],
      [
        "网络",
        -8.975334623649372
      ],
      [
        "日本",
        -8.975450360868106
      ],
      [
        "健康",
        -8.975546740216215
      ],
      [
        " 只有",
        -8.97565228685552
      ],
      [
        "说什么",
        -8.975915511504184
      ],
      [
        "防",
        -8.975946707705384
      ],
      [
        " 这些",
        -8.976429670448582
      ],
      [
        "不错",
        -8.97769356992215
      ],
      [
        "一位",
        -8.977889207126216
      ],
      [
        "音",
        -8.97865133533762
      ],
      [
        "母",
        -8.97885672762829
      ],
      [
        "秋",
        -8.978931811787987
      ],
      [
        "曲",
        -8.9795211489467
      ],
      [
        "我自己",
        -8.979530379612616
      ],
      [
        "就是我",
        -8.980919807929359
      ],
      [
        " 你这",
        -8.980947354300223
      ],
      [
        "政府",
        -8.981191887634985
      ],
      [
        "一场",
        -8.982109989643211
      ],
      [
        "安排",
        -8.98242337149387
      ],
      [
        "精神",
        -8.983858998103498
      ],
      [
        " 于是",
        -8.984110171050144
      ],
      [
        "猪",
        -8.984347899327169
      ],
      [
        "极",
        -8.984692167698505
      ],
      [
        "福",
        -8.985147086989775
      ],
      [
        "不管",
        -8.985210604908216
      ],
      [
        "行业",
        -8.985654339228414
      ],
      [
        "赵",
        -8.987187536120935
      ],
      [
        "俩",
        -8.988303920672294
      ],
      [
        "义",
        -8.98868434630899
      ],
      [
        "合作",
        -8.990657604403097
      ],
      [
        "骂",
        -8.991129985962766
      ],
      [
        "程",
        -8.993364128570281
      ],
      [
        "不可",
        -8.996434072592645
      ],
      [
        "就不",
        -8.996742448084474
      ],
      [
        "压力",
        -8.997384173906866
      ],
      [
        "成长",
        -8.998006804344275
      ],
      [
        "自然",
        -8.998190067956024
      ],
      [
        "级",
        -8.998399622547383
      ],
      [
        "的一些",
        -9.000028399333068
      ],
      [
        "船",
        -9.002416627451495
      ],
      [
        "回到",
        -9.002846221276899
      ],
      [
        "野",
        -9.002861541330091
      ],
      [
        "共",
        -9.003407321762495
      ],
      [
        "现",
        -9.004324759012684
      ],
      [
        "现场",
        -9.004691867013475
      ],
      [
        "静",
        -9.005589747394097
      ],
      [
        "雷",
        -9.005683519353493
      ],
      [
        "解释",
        -9.005888729392272
      ],
      [
        "谢",
        -9.006069743891267
      ],
      [
        "永远",
        -9.00754643821831
      ],
      [
        "一只",
        -9.009282837990018
      ],
      [
        " 也许",
        -9.010938455879797
      ],
      [
        "组织",
        -9.01142579473372
      ],
      [
        "后面",
        -9.01218129907284
      ],
      [
        "治",
        -9.012849963740967
      ],
      [
        "块",
        -9.014718200780862
      ],
      [
        "初",
        -9.015418569220413
      ],
      [
        "那天",
        -9.015835054237675
      ],
      [
        " 所以我",
        -9.016181362298573
      ],
      [
        "告",
        -9.016933022922998
      ],
      [
        "举",
        -9.017436895336386
      ],
      [
        "平时",
        -9.018027759989625
      ],
      [
        "鸡",
        -9.018046705855207
      ],
      [
        "家人",
        -9.018208188971652
      ],
      [
        "游戏",
        -9.019280775697595
      ],
      [
        "人员",
        -9.019376931411797
      ],
      [
        "剧",
        -9.020145545812234
      ],
      [
        "一般",
        -9.020936806436488
      ],
      [
        "女生",
        -9.021097214419378
      ],
      [
        "你是",
        -9.021189378529611
      ],
      [
        "而且",
        -9.02129728934882
      ],
      [
        "视频",
        -9.021454613054141
      ],
      [
        "新的",
        -9.021658886340433
      ],
      [
        "富",
        -9.021986865856439
      ],
      [
        "生气",
        -9.022248908810484
      ],
      [
        "这边",
        -9.022546149222848
      ],
      [
        "地说",
        -9.02276414313687
      ],
      [
        "应该是",
        -9.025025984022122
      ],
      [
        "当然",
        -9.02549980364161
      ],
      [
        "苏",
        -9.026655130666306
      ],
      [
        "活动",
        -9.02777964738509
      ],
      [
        "疫情",
        -9.027925477780464
      ],
      [
        " 你现在",
        -9.028034712069191
      ],
      [
        " 李",
        -9.028548067539308
      ],
      [
        "君",
        -9.028691556696234
      ],
      [
        "状态",
        -9.03030744756285
      ],
      [
        "弟弟",
        -9.030913649766392
      ],
      [
        " 请",
        -9.031648664773732
      ],
      [
        "胖",
        -9.032180656880307
      ],
      [
        " 反正",
        -9.03270625521204
      ],
      [
        "不得",
        -9.033403851577594
      ],
      [
        "记得",
        -9.03417749770932
      ],
      [
        "国际",
        -9.035410354280167
      ],
      [
        "麻烦",
        -9.035608092449825
      ],
      [
        "爸",
        -9.035787842375745
      ],
      [
        "上海",
        -9.03588046975395
      ],
      [
        "志",
        -9.036353744512471
      ],
      [
        "孙",
        -9.036910571776142
      ],
      [
        "料",
        -9.037009320826341
      ],
      [
        "上的",
        -9.038395998829785
      ],
      [
        " 什么",
        -9.040336977709291
      ],
      [
        "面前",
        -9.041231741134505
      ],
      [
        "成了",
        -9.042389746910503
      ],
      [
        "一段",
        -9.043389859504934
      ],
      [
        "素",
        -9.04386916364929
      ],
      [
        "思",
        -9.043947985218736
      ],
      [
        "脱",
        -9.044042444122379
      ],
      [
        "产品",
        -9.04526002225225
      ],
      [
        "马上",
        -9.045531574718165
      ],
      [
        " 他就",
        -9.045565751914454
      ],
      [
        "把这个",
        -9.046661248720067
      ],
      [
        "以及",
        -9.047206288515715
      ],
      [
        "帮你",
        -9.047406199082388
      ],
      [
        "波",
        -9.047592164711492
      ],
      [
        "会有",
        -9.048485459504544
      ],
      [
        "介绍",
        -9.048711039584571
      ],
      [
        "保持",
        -9.048902037847142
      ],
      [
        "卫",
        -9.050574278086025
      ],
      [
        "陪",
        -9.050915296822
      ],
      [
        "牌",
        -9.051066834683796
      ],
      [
        "钟",
        -9.052194695664983
      ],
      [
        " 就像",
        -9.052271381414698
      ],
      [
        "拥有",
        -9.052448101796939
      ],
      [
        "目",
        -9.052679350255001
      ],
      [
        "占",
        -9.05399154648242
      ],
      [
        "高兴",
        -9.055191810394367
      ],
      [
        "除了",
        -9.055423373856426
      ],
      [
        "产",
        -9.05568272152219
      ],
      [
        "那儿",
        -9.056024926518324
      ],
      [
        "亿",
        -9.058654180176383
      ],
      [
        "不可能",
        -9.058894317295243
      ],
      [
        "练",
        -9.059646467660595
      ],
      [
        "存",
        -9.060511077564312
      ],
      [
        "里的",
        -9.062309541826082
      ],
      [
        "喊",
        -9.06342988205299
      ],
      [
        "不够",
        -9.063447737957997
      ],
      [
        "眼睛",
        -9.06401335386373
      ],
      [
        "硬",
        -9.064412886333173
      ],
      [
        "令",
        -9.06486414967406
      ],
      [
        "切",
        -9.066181017152951
      ],
      [
        "长得",
        -9.066261657610628
      ],
      [
        "更多",
        -9.066539556687626
      ],
      [
        "抽",
        -9.066709044034933
      ],
      [
        "帅",
        -9.066827105077365
      ],
      [
        "件",
        -9.067134106718104
      ],
      [
        "最大的",
        -9.067381711214754
      ],
      [
        "害",
        -9.068109471852216
      ],
      [
        "怀",
        -9.068687872715724
      ],
      [
        "冰",
        -9.068996495337359
      ],
      [
        "顾",
        -9.069531168033498
      ],
      [
        "欠",
        -9.070735199845608
      ],
      [
        "轻",
        -9.070984916318674
      ],
      [
        "块钱",
        -9.071886114690754
      ],
      [
        "是吗",
        -9.07305681204371
      ],
      [
        "彼此",
        -9.073874249118372
      ],
      [
        " 我这",
        -9.074028437570352
      ],
      [
        "差不多",
        -9.074760061928512
      ],
      [
        "惊",
        -9.074851921935576
      ],
      [
        "漂亮",
        -9.07590333326271
      ],
      [
        "女孩子",
        -9.077302503843173
      ],
      [
        "干吗",
        -9.0798250012912
      ],
      [
        "女孩",
        -9.080483929290859
      ],
      [
        "礼",
        -9.080611274327385
      ],
      [
        "怀疑",
        -9.081879355158515
      ],
      [
        "来的",
        -9.08332014911432
      ],
      [
        "士",
        -9.083937960632987
      ],
      [
        "复",
        -9.08435431103446
      ],
      [
        "观",
        -9.084361565473632
      ],
      [
        "忘了",
        -9.085341540429383
      ],
      [
        "很好",
        -9.087192826160152
      ],
      [
        " 对于",
        -9.087766218094899
      ],
      [
        "预",
        -9.087859773138398
      ],
      [
        "笔",
        -9.087882762862533
      ],
      [
        "这么多",
        -9.088057779403984
      ],
      [
        "缺",
        -9.088321743196541
      ],
      [
        "习惯",
        -9.088344770737413
      ],
      [
        "人的",
        -9.088641393199554
      ],
      [
        "封",
        -9.089191667391114
      ],
      [
        "同事",
        -9.090329075498213
      ],
      [
        "齐",
        -9.090495457066849
      ],
      [
        "那么多",
        -9.090588688514737
      ],
      [
        "就像",
        -9.091465378476311
      ],
      [
        "的工作",
        -9.091763352446767
      ],
      [
        "一份",
        -9.092845533259197
      ],
      [
        "巴",
        -9.092976257542835
      ],
      [
        " 欢迎",
        -9.093786872458336
      ],
      [
        " 以",
        -9.093884190138121
      ],
      [
        "重新",
        -9.094038845381872
      ],
      [
        "县",
        -9.094411430063337
      ],
      [
        "都要",
        -9.094599141150043
      ],
      [
        "恩",
        -9.09544851781465
      ],
      [
        "挺好的",
        -9.095897541712052
      ],
      [
        "见过",
        -9.095949550931623
      ],
      [
        "怎么了",
        -9.09887161862538
      ],
      [
        "是一种",
        -9.099456906101508
      ],
      [
        "表",
        -9.099756803158979
      ],
      [
        "顺",
        -9.101595780287317
      ],
      [
        "休息",
        -9.10211969378565
      ],
      [
        "平台",
        -9.103136564582584
      ],
      [
        "叶",
        -9.103270379333201
      ],
      [
        "端",
        -9.103409027917802
      ],
      [
        "等等",
        -9.103433256643225
      ],
      [
        " 比如说",
        -9.103799638750697
      ],
      [
        "有很多",
        -9.103864108776076
      ],
      [
        "厉害",
        -9.104425719855481
      ],
      [
        "的方式",
        -9.104751060297277
      ],
      [
        "放弃",
        -9.104994030392026
      ],
      [
        " 也是",
        -9.105364165447062
      ],
      [
        "十年",
        -9.10558207110912
      ],
      [
        "爷",
        -9.106479175941935
      ],
      [
        "试",
        -9.106771575039543
      ],
      [
        "层",
        -9.108781700118927
      ],
      [
        "这事儿",
        -9.111102535333085
      ],
      [
        "甚至",
        -9.111339773511862
      ],
      [
        "板",
        -9.112101369085618
      ],
      [
        "跟着",
        -9.112706503756714
      ],
      [
        "一切",
        -9.11389567047246
      ],
      [
        "题",
        -9.1139205832538
      ],
      [
        "早就",
        -9.11421501187912
      ],
      [
        "拿着",
        -9.11447511758221
      ],
      [
        "夏",
        -9.114987255529341
      ],
      [
        "唐",
        -9.116271639066065
      ],
      [
        "主任",
        -9.116898179584158
      ],
      [
        " 其中",
        -9.11729969951054
      ],
      [
        "超过",
        -9.117306107889597
      ],
      [
        "按",
        -9.117662090906698
      ],
      [
        "年轻",
        -9.117679972534694
      ],
      [
        "喜",
        -9.117829841779308
      ],
      [
        "爹",
        -9.119061679595236
      ],
      [
        "抱",
        -9.11948959839409
      ],
      [
        "想想",
        -9.119603806611615
      ],
      [
        "也不会",
        -9.120256766842347
      ],
      [
        "一家",
        -9.120295276980801
      ],
      [
        " 包括",
        -9.12065063593179
      ],
      [
        "错了",
        -9.121793822411115
      ],
      [
        "联",
        -9.122143864439737
      ],
      [
        "一个月",
        -9.123133521035292
      ],
      [
        "食",
        -9.1233454506514
      ],
      [
        "虎",
        -9.12369473991038
      ],
      [
        "没事",
        -9.123815032558728
      ],
      [
        "更加",
        -9.12415370865412
      ],
      [
        "项目",
        -9.125157337732563
      ],
      [
        "给我们",
        -9.127198548192109
      ],
      [
        "室",
        -9.127387482374514
      ],
      [
        "一直在",
        -9.127571640828917
      ],
      [
        "吵",
        -9.12780326973428
      ],
      [
        "关心",
        -9.128123376446261
      ],
      [
        " 我不",
        -9.128977739007903
      ],
      [
        "做什么",
        -9.129429544098244
      ],
      [
        "实现",
        -9.12989605791023
      ],
      [
        " 你想",
        -9.130190315941327
      ],
      [
        "昨天",
        -9.131597430922078
      ],
      [
        "吵架",
        -9.133120748381861
      ],
      [
        "当年",
        -9.133220826298624
      ],
      [
        "我爸",
        -9.133391224238641
      ],
      [
        "新闻",
        -9.133402889844751
      ],
      [
        "各位",
        -9.134148160160025
      ],
      [
        "段",
        -9.134223089524044
      ],
      [
        "痛苦",
        -9.134369525676185
      ],
      [
        "去做",
        -9.135275226504074
      ],
      [
        "私",
        -9.135396379731057
      ],
      [
        "变得",
        -9.136407870824554
      ],
      [
        "客",
        -9.13760181789638
      ],
      [
        "声音",
        -9.13808067073447
      ],
      [
        "提供",
        -9.140439466563091
      ],
      [
        "才是",
        -9.14058206986598
      ],
      [
        "护",
        -9.142097256017212
      ],
      [
        "是因为",
        -9.142437833106749
      ],
      [
        " 就是说",
        -9.142921705382559
      ],
      [
        "放在",
        -9.142923262523572
      ],
      [
        "相关",
        -9.144022313623038
      ],
      [
        " 你别",
        -9.145445793442098
      ],
      [
        "打算",
        -9.145611463950205
      ],
      [
        "丈夫",
        -9.145746534202509
      ],
      [
        "是为了",
        -9.145823409079139
      ],
      [
        "厂",
        -9.145911609046149
      ],
      [
        "保证",
        -9.146078637946964
      ],
      [
        "喝酒",
        -9.146292401261777
      ],
      [
        "环境",
        -9.146536450245987
      ],
      [
        "英",
        -9.14705749570719
      ],
      [
        "的关系",
        -9.14757450492791
      ],
      [
        "说他",
        -9.148710337989396
      ],
      [
        "明白了",
        -9.14984989922921
      ],
      [
        "吴",
        -9.150142981199746
      ],
      [
        "组",
        -9.15132983347238
      ],
      [
        "原来",
        -9.151411021248073
      ],
      [
        "存在",
        -9.151416749751052
      ],
      [
        "群",
        -9.152305372455409
      ],
      [
        "相处",
        -9.152654352242946
      ],
      [
        "紧",
        -9.154258067673261
      ],
      [
        "挑",
        -9.154469063073323
      ],
      [
        "的感觉",
        -9.154804828252654
      ],
      [
        "奇",
        -9.155664480047724
      ],
      [
        "价格",
        -9.155920063804588
      ],
      [
        "温",
        -9.15685726854151
      ],
      [
        "逃",
        -9.15689951067011
      ],
      [
        "果",
        -9.15765465324286
      ],
      [
        "恋爱",
        -9.157830808421801
      ],
      [
        "宁",
        -9.158778598982458
      ],
      [
        "很难",
        -9.159211256244383
      ],
      [
        "混",
        -9.159956753914129
      ],
      [
        "到现在",
        -9.160105275692251
      ],
      [
        "的样子",
        -9.160191708440667
      ],
      [
        "支",
        -9.160192090170604
      ],
      [
        "亚",
        -9.160689129047144
      ],
      [
        "势",
        -9.161046568270468
      ],
      [
        "备",
        -9.161656130488657
      ],
      [
        " 妈妈",
        -9.164705344907116
      ],
      [
        "居",
        -9.165625644423155
      ],
      [
        "熊",
        -9.165732561070618
      ],
      [
        " 该",
        -9.165785855001227
      ],
      [
        "容",
        -9.165844320471424
      ],
      [
        "套",
        -9.167002950552094
      ],
      [
        "灵",
        -9.167695844892515
      ],
      [
        "四十",
        -9.16775759652808
      ],
      [
        "队长",
        -9.167924291282862
      ],
      [
        "在这个",
        -9.167999356728057
      ],
      [
        "现实",
        -9.169867635255013
      ],
      [
        "觉",
        -9.170757451470974
      ],
      [
        "摆",
        -9.170871640152537
      ],
      [
        "我说",
        -9.171563425075847
      ],
      [
        "望",
        -9.171597876225668
      ],
      [
        "交流",
        -9.172256714523453
      ],
      [
        " 原来",
        -9.172746789192175
      ],
      [
        "粉",
        -9.172946103559681
      ],
      [
        "纸",
        -9.173056233850733
      ],
      [
        "打开",
        -9.173672719500576
      ],
      [
        "熟",
        -9.173996190697874
      ],
      [
        "烧",
        -9.175420179726004
      ],
      [
        "迷",
        -9.175632013550743
      ],
      [
        "正常",
        -9.175901034284855
      ],
      [
        "有一些",
        -9.176336198999378
      ],
      [
        "让我们",
        -9.177538886208485
      ],
      [
        "猜",
        -9.177626451858842
      ],
      [
        "全国",
        -9.177805240534628
      ],
      [
        " 中国",
        -9.180365226261197
      ],
      [
        "恶",
        -9.180684979254846
      ],
      [
        "说过",
        -9.181373128684069
      ],
      [
        " 你可以",
        -9.18143124650784
      ],
      [
        "责任",
        -9.181743584897848
      ],
      [
        "证明",
        -9.182965474909151
      ],
      [
        " 所以说",
        -9.183026838913007
      ],
      [
        "和你",
        -9.183103204357373
      ],
      [
        "呐",
        -9.183372676122444
      ],
      [
        "依然",
        -9.183822638367959
      ],
      [
        "床",
        -9.185323522546835
      ],
      [
        "偏",
        -9.185708385332777
      ],
      [
        "吃了",
        -9.186007726496271
      ],
      [
        "胡",
        -9.188170261233047
      ],
      [
        "临",
        -9.188205997409593
      ],
      [
        "更多的",
        -9.188616886387326
      ],
      [
        "属于",
        -9.188717189308544
      ],
      [
        "一辈子",
        -9.189348838489066
      ],
      [
        "叔",
        -9.190533884988149
      ],
      [
        " 我会",
        -9.190579651492275
      ],
      [
        "科技",
        -9.190792704188548
      ],
      [
        "党",
        -9.190799674360537
      ],
      [
        "镇",
        -9.191029046776443
      ],
      [
        "兴",
        -9.191926463370432
      ],
      [
        "儿啊",
        -9.192282032787077
      ],
      [
        "干嘛",
        -9.19233347708026
      ],
      [
        "些",
        -9.193682570481016
      ],
      [
        " 快",
        -9.193886291372582
      ],
      [
        "最好的",
        -9.194010278278526
      ],
      [
        "都可以",
        -9.194336129362663
      ],
      [
        "弹",
        -9.194563191844143
      ],
      [
        "值",
        -9.195174385482034
      ],
      [
        "心理",
        -9.195836598633317
      ],
      [
        "把自己",
        -9.196907771381806
      ],
      [
        "左右",
        -9.197725968556595
      ],
      [
        "馆",
        -9.197807013201274
      ],
      [
        "设计",
        -9.198067517790596
      ],
      [
        "造",
        -9.198258186186955
      ],
      [
        "微",
        -9.198356239419338
      ],
      [
        "洞",
        -9.198436079290502
      ],
      [
        "对不起",
        -9.198887635086548
      ],
      [
        "良",
        -9.198901926840371
      ],
      [
        "一边",
        -9.200087562455996
      ],
      [
        "意思",
        -9.201018906344785
      ],
      [
        "注意",
        -9.20194077831399
      ],
      [
        "不上",
        -9.201943860850964
      ],
      [
        "自由",
        -9.202071706656305
      ],
      [
        "升",
        -9.202240816596483
      ],
      [
        "并没有",
        -9.202657333805352
      ],
      [
        "是有",
        -9.202829466113318
      ],
      [
        "境",
        -9.203506498931814
      ],
      [
        "负责",
        -9.20460498718444
      ],
      [
        "麦",
        -9.205242806940188
      ],
      [
        "获得",
        -9.205274221567262
      ],
      [
        "两年",
        -9.205568792336873
      ],
      [
        "公主",
        -9.20708152477231
      ],
      [
        "满足",
        -9.209532823175662
      ],
      [
        "姓",
        -9.209623423648132
      ],
      [
        "降",
        -9.209801128681539
      ],
      [
        "聪明",
        -9.210609769704666
      ],
      [
        "站在",
        -9.210961712021364
      ],
      [
        "可能会",
        -9.211667544476775
      ],
      [
        "你还",
        -9.212290970599987
      ],
      [
        "不愿意",
        -9.212530521382641
      ],
      [
        "发布",
        -9.213039914273327
      ],
      [
        "男生",
        -9.214033874285075
      ],
      [
        "胜",
        -9.214518046887545
      ],
      [
        "叔叔",
        -9.21540541733517
      ],
      [
        "也好",
        -9.215444461226056
      ],
      [
        "还会",
        -9.216377137255769
      ],
      [
        " 你知道",
        -9.21679825534699
      ],
      [
        "友",
        -9.216975803980928
      ],
      [
        "秀",
        -9.218158576340347
      ],
      [
        "藏",
        -9.218330320944208
      ],
      [
        "虚",
        -9.219825950996263
      ],
      [
        "凉",
        -9.21997498809266
      ],
      [
        "全球",
        -9.220300068058894
      ],
      [
        "慢",
        -9.220855089422693
      ],
      [
        "一张",
        -9.221699712919001
      ],
      [
        "阿姨",
        -9.221863848120854
      ],
      [
        "沟通",
        -9.223446611958977
      ],
      [
        "诗",
        -9.223777563775855
      ],
      [
        "紧张",
        -9.224162094203852
      ],
      [
        "骨",
        -9.226010756092515
      ],
      [
        "不起",
        -9.226431544296323
      ],
      [
        "你现在",
        -9.226710209568957
      ],
      [
        "增长",
        -9.227025885770889
      ],
      [
        "骗",
        -9.227045318683077
      ],
      [
        "你这",
        -9.22831733424947
      ],
      [
        "办法",
        -9.228497437279309
      ],
      [
        "杰",
        -9.229799705535289
      ],
      [
        "久",
        -9.230193153972724
      ],
      [
        "经过",
        -9.231035115126637
      ],
      [
        "狼",
        -9.231352405288074
      ],
      [
        "寒",
        -9.231523685010142
      ],
      [
        "奶奶",
        -9.231744357289331
      ],
      [
        "使用",
        -9.232871206963495
      ],
      [
        "都能",
        -9.233814629388993
      ],
      [
        "嫁",
        -9.233919122506235
      ],
      [
        " 哎呀",
        -9.23430646772401
      ],
      [
        "什么样的",
        -9.236035156925418
      ],
      [
        "数据",
        -9.237285909561948
      ],
      [
        " 然后就",
        -9.239671606127622
      ],
      [
        "一块",
        -9.240091545719693
      ],
      [
        "分析",
        -9.240157653896258
      ],
      [
        " 以后",
        -9.24027525953625
      ],
      [
        "报告",
        -9.240751542946787
      ],
      [
        "宋",
        -9.241027434886853
      ],
      [
        "简单",
        -9.241102144632297
      ],
      [
        "共同",
        -9.241153580976231
      ],
      [
        "恨",
        -9.241154709059998
      ],
      [
        "消费",
        -9.241273547804859
      ],
      [
        "一看",
        -9.241274882411133
      ],
      [
        "的女人",
        -9.242539784070377
      ],
      [
        "情感",
        -9.242620503353775
      ],
      [
        " 我在",
        -9.24301781150386
      ],
      [
        "也可以",
        -9.243265431224952
      ],
      [
        "同时",
        -9.243467260017496
      ],
      [
        "比如说",
        -9.245351475499035
      ],
      [
        "桥",
        -9.246122595347916
      ],
      [
        "有时候",
        -9.246432299928465
      ],
      [
        "对象",
        -9.247402335098936
      ],
      [
        "达到",
        -9.24793655066803
      ],
      [
        "去吧",
        -9.248398020457897
      ],
      [
        "夫",
        -9.248404896075378
      ],
      [
        "你好",
        -9.248942911524669
      ],
      [
        "别的",
        -9.249056685564456
      ],
      [
        "答应",
        -9.249306785352998
      ],
      [
        "经历",
        -9.249316195215513
      ],
      [
        "均",
        -9.250516302873883
      ],
      [
        "营",
        -9.250836166167323
      ],
      [
        "梁",
        -9.251215898786903
      ],
      [
        "你怎么",
        -9.2518562951206
      ],
      [
        " 能",
        -9.252823293956725
      ],
      [
        "额",
        -9.252953150298875
      ],
      [
        "五年",
        -9.25332895598262
      ],
      [
        "在家",
        -9.254086530774307
      ],
      [
        "想到",
        -9.25419466708049
      ],
      [
        "目前",
        -9.25434459120282
      ],
      [
        "那是",
        -9.254770331388794
      ],
      [
        "和他",
        -9.255164373488935
      ],
      [
        " 比如",
        -9.255412327773598
      ],
      [
        "属",
        -9.255475651604897
      ],
      [
        " 那是",
        -9.255666848479581
      ],
      [
        " 今年",
        -9.256484574406016
      ],
      [
        "下午",
        -9.257245115638042
      ],
      [
        "足",
        -9.257309220181632
      ],
      [
        "聊天",
        -9.257573538587037
      ],
      [
        "我这",
        -9.257691211409254
      ],
      [
        "盛",
        -9.257692976627286
      ],
      [
        "放下",
        -9.258026442411381
      ],
      [
        "来到",
        -9.258160785472718
      ],
      [
        "脾气",
        -9.25841925082262
      ],
      [
        "一百",
        -9.258786999359133
      ],
      [
        "警察",
        -9.259577787939392
      ],
      [
        "中心",
        -9.259641560753984
      ],
      [
        "随便",
        -9.260652579856087
      ],
      [
        "前面",
        -9.261303654734075
      ],
      [
        "旁边",
        -9.262114165981522
      ],
      [
        "松",
        -9.262131508165586
      ],
      [
        "赚",
        -9.263605389417332
      ],
      [
        "尊重",
        -9.263646439309387
      ],
      [
        "困难",
        -9.263953825169075
      ],
      [
        " 更",
        -9.264702986322154
      ],
      [
        "当初",
        -9.264855960852621
      ],
      [
        "托",
        -9.265594902987509
      ],
      [
        "会不会",
        -9.267757487622639
      ],
      [
        "下面",
        -9.26872691712417
      ],
      [
        "沉",
        -9.269059122159074
      ],
      [
        "有一天",
        -9.269153697230692
      ],
      [
        "不对",
        -9.269370562315709
      ],
      [
        "亿元",
        -9.270295623244968
      ],
      [
        "独",
        -9.271773307570587
      ],
      [
        "洋",
        -9.272478313855594
      ],
      [
        "时代",
        -9.272487808522097
      ],
      [
        "要去",
        -9.272499384404256
      ],
      [
        "凡",
        -9.27262490570768
      ],
      [
        "结束",
        -9.272760571891396
      ],
      [
        "奖",
        -9.273045503933393
      ],
      [
        "留言",
        -9.273204054622584
      ],
      [
        "愿",
        -9.273231730072292
      ],
      [
        "社",
        -9.273271927668738
      ],
      [
        "词",
        -9.273585641638071
      ],
      [
        " 既然",
        -9.27391679114685
      ],
      [
        " 都是",
        -9.274147526562329
      ],
      [
        "轮",
        -9.274579596445289
      ],
      [
        "做到",
        -9.274617167679136
      ],
      [
        "夫妻",
        -9.275942177188632
      ],
      [
        "丁",
        -9.276490190273888
      ],
      [
        "露",
        -9.276504128744683
      ],
      [
        "医",
        -9.2766406978268
      ],
      [
        "也不是",
        -9.276662126036715
      ],
      [
        " 难道",
        -9.277127812074376
      ],
      [
        "集",
        -9.277527003017843
      ],
      [
        "敬",
        -9.278107980465219
      ],
      [
        "穷",
        -9.278252267942783
      ],
      [
        "创造",
        -9.279101567823545
      ],
      [
        "鞋",
        -9.279734129463261
      ],
      [
        "不需要",
        -9.280278371244467
      ],
      [
        "买了",
        -9.280693562850075
      ],
      [
        "他就",
        -9.281413219630108
      ],
      [
        "太多",
        -9.281859965909353
      ],
      [
        "赛",
        -9.281915921329382
      ],
      [
        "专业",
        -9.282110878909382
      ],
      [
        "以来",
        -9.282417258240908
      ],
      [
        "之后呢",
        -9.282676438038486
      ],
      [
        "而已",
        -9.283031832057318
      ],
      [
        " 然后他",
        -9.284028632698575
      ],
      [
        "蓝",
        -9.284036747726972
      ],
      [
        "政策",
        -9.284683285778334
      ],
      [
        " 你也",
        -9.28510262809582
      ],
      [
        "牙",
        -9.285124130594024
      ],
      [
        "见面",
        -9.285204620816703
      ],
      [
        "闻",
        -9.285225472779171
      ],
      [
        " 这就是",
        -9.28538700988178
      ],
      [
        "问你",
        -9.285773289509638
      ],
      [
        "出来了",
        -9.288642360238317
      ],
      [
        "汤",
        -9.288720572382388
      ],
      [
        "内心",
        -9.289449393848168
      ],
      [
        "莫",
        -9.289538250463513
      ],
      [
        "同意",
        -9.289620317198656
      ],
      [
        "让她",
        -9.289660060395109
      ],
      [
        "校",
        -9.290384621918893
      ],
      [
        "感到",
        -9.290650791883257
      ],
      [
        "叫做",
        -9.290756779414513
      ],
      [
        "也不能",
        -9.291158218105366
      ],
      [
        " 真",
        -9.292288643668746
      ],
      [
        "绿",
        -9.292427675881616
      ],
      [
        "烦",
        -9.292445441589809
      ],
      [
        "职",
        -9.292498801904635
      ],
      [
        "在这",
        -9.29263803811379
      ],
      [
        "治疗",
        -9.292975170855595
      ],
      [
        "沙",
        -9.293169494255487
      ],
      [
        "我还",
        -9.293721315365108
      ],
      [
        "似的",
        -9.29372454347078
      ],
      [
        "行为",
        -9.294152689923795
      ],
      [
        "任务",
        -9.294162148655838
      ],
      [
        "谈恋爱",
        -9.29417352980104
      ],
      [
        "盖",
        -9.294415845492633
      ],
      [
        "多少钱",
        -9.294806851992776
      ],
      [
        "为你",
        -9.295396664247342
      ],
      [
        "毕业",
        -9.295505916181494
      ],
      [
        "不懂",
        -9.296327977882163
      ],
      [
        "的呀",
        -9.29664304213457
      ],
      [
        "徐",
        -9.29738600157523
      ],
      [
        "事业",
        -9.29772182092022
      ],
      [
        "没事儿",
        -9.297794633071996
      ],
      [
        "阶段",
        -9.297896494001945
      ],
      [
        "我们家",
        -9.298595211824495
      ],
      [
        "来自",
        -9.299250664484322
      ],
      [
        "吹",
        -9.2998817065478
      ],
      [
        "终",
        -9.300595577092729
      ],
      [
        " 其实我",
        -9.300809677763414
      ],
      [
        "建设",
        -9.300961325107508
      ],
      [
        " 阿",
        -9.301023679968749
      ],
      [
        "运动",
        -9.301039135745716
      ],
      [
        "接触",
        -9.301097469101727
      ],
      [
        "女性",
        -9.301335427985116
      ],
      [
        "师傅",
        -9.301604347880794
      ],
      [
        "小朋友",
        -9.301742548796653
      ],
      [
        "值得",
        -9.302199403395502
      ],
      [
        "所谓的",
        -9.302719710967104
      ],
      [
        "主要",
        -9.30276707650794
      ],
      [
        " 我就是",
        -9.303200873158383
      ],
      [
        "资金",
        -9.303202287646974
      ],
      [
        "准",
        -9.30323946957315
      ],
      [
        "见到",
        -9.303656612211775
      ],
      [
        "上去",
        -9.303723722879475
      ],
      [
        "的名字",
        -9.303968498166482
      ],
      [
        "鸟",
        -9.304033469753431
      ],
      [
        "角",
        -9.304259575847052
      ],
      [
        "中间",
        -9.305332343625821
      ],
      [
        " 我都",
        -9.30580839770505
      ],
      [
        "着急",
        -9.306216623410084
      ],
      [
        "回头",
        -9.307032271587238
      ],
      [
        "不喜欢",
        -9.307055840049978
      ],
      [
        "彩",
        -9.307330895681957
      ],
      [
        "一生",
        -9.307442573364556
      ],
      [
        "部分",
        -9.30751426264952
      ],
      [
        "日子",
        -9.307888746373848
      ],
      [
        "给自己",
        -9.30811793354057
      ],
      [
        "你也",
        -9.30846055067395
      ],
      [
        "型",
        -9.309006039259579
      ],
      [
        "争",
        -9.309168246156212
      ],
      [
        "留下",
        -9.309514819742144
      ],
      [
        "夫人",
        -9.310365027303925
      ],
      [
        "挣",
        -9.31076247087401
      ],
      [
        "通知",
        -9.311177501330896
      ],
      [
        " 除了",
        -9.311374419112756
      ],
      [
        "负",
        -9.31227926309203
      ],
      [
        "时候",
        -9.31279238602988
      ],
      [
        "哪里",
        -9.313250821045902
      ],
      [
        "确定",
        -9.313907775759475
      ],
      [
        "忍",
        -9.314225214240604
      ],
      [
        "他们的",
        -9.314368677736848
      ],
      [
        "不去",
        -9.316589853072518
      ],
      [
        "教授",
        -9.317632620229446
      ],
      [
        "旧",
        -9.317883162412567
      ],
      [
        "根本",
        -9.317885200024193
      ],
      [
        "一点儿",
        -9.318373622582106
      ],
      [
        "收入",
        -9.31837560423787
      ],
      [
        "他是",
        -9.3188770191841
      ],
      [
        "再见",
        -9.319227041851889
      ],
      [
        "的钱",
        -9.3194078195325
      ],
      [
        "爷爷",
        -9.31959317126843
      ],
      [
        "严",
        -9.319600544601679
      ],
      [
        "闲",
        -9.320260322089272
      ],
      [
        "戴",
        -9.320891053492948
      ],
      [
        "这个问题",
        -9.321990405233578
      ],
      [
        "部队",
        -9.3225852300184
      ],
      [
        "香港",
        -9.3232226940743
      ],
      [
        "出来的",
        -9.323351002299919
      ],
      [
        "批",
        -9.324491598553948
      ],
      [
        "可能是",
        -9.324950341271656
      ],
      [
        " 但是你",
        -9.32495369258115
      ],
      [
        "因为我",
        -9.325466115233317
      ],
      [
        "细",
        -9.32584098803853
      ],
      [
        "日本人",
        -9.325946155148308
      ],
      [
        "看你",
        -9.325968192974194
      ],
      [
        "妻子",
        -9.326466121182065
      ],
      [
        "第一个",
        -9.326576334819137
      ],
      [
        " 我还",
        -9.327490529643946
      ],
      [
        "感谢",
        -9.327589253103245
      ],
      [
        "形",
        -9.327930885874107
      ],
      [
        "期待",
        -9.329533620011457
      ],
      [
        "在哪儿",
        -9.329950897280305
      ],
      [
        "的那种",
        -9.330331145809005
      ],
      [
        "性的",
        -9.330690794109785
      ],
      [
        "专",
        -9.331160572804507
      ],
      [
        "手里",
        -9.331373473388851
      ],
      [
        "既然",
        -9.331447524080893
      ],
      [
        "一件",
        -9.331761643104427
      ],
      [
        "还真",
        -9.332007594713064
      ],
      [
        "必",
        -9.332809076870577
      ],
      [
        "你别",
        -9.333897931926053
      ],
      [
        "还得",
        -9.334323565625265
      ],
      [
        "脑",
        -9.33445305292101
      ],
      [
        "基本",
        -9.334492152212148
      ],
      [
        "的男人",
        -9.33454442917894
      ],
      [
        "这件事情",
        -9.335726926666645
      ],
      [
        "源",
        -9.33680215726311
      ],
      [
        "宗",
        -9.337575018854924
      ],
      [
        "关键",
        -9.338437436991374
      ],
      [
        "标",
        -9.338863342714339
      ],
      [
        "做好",
        -9.340231929187894
      ],
      [
        "折",
        -9.340594446902783
      ],
      [
        "警",
        -9.342050272088688
      ],
      [
        "撞",
        -9.3431556732476
      ],
      [
        "的原因",
        -9.343707485768721
      ],
      [
        "编",
        -9.34382812386053
      ],
      [
        "的这种",
        -9.343919781918041
      ],
      [
        " 你不",
        -9.34513100868988
      ],
      [
        "地区",
        -9.345974196577668
      ],
      [
        "表现",
        -9.346346483468146
      ],
      [
        "失败",
        -9.347365887572185
      ],
      [
        "论",
        -9.348367493241522
      ],
      [
        "按照",
        -9.348433080097475
      ],
      [
        "一千",
        -9.348475908774684
      ],
      [
        "的情况",
        -9.348829143642408
      ],
      [
        "严重",
        -9.349163649312862
      ],
      [
        " 据",
        -9.349475079359742
      ],
      [
        "响",
        -9.350615844812648
      ],
      [
        "威",
        -9.350687882104479
      ],
      [
        "密",
        -9.351114340370366
      ],
      [
        "给你们",
        -9.35158685792409
      ],
      [
        "的声音",
        -9.352088950520814
      ],
      [
        "什么呢",
        -9.35291215886696
      ],
      [
        "生产",
        -9.353213420904504
      ],
      [
        "劝",
        -9.354272774770195
      ],
      [
        " 每天",
        -9.354470825760163
      ],
      [
        " 这种",
        -9.354523747033907
      ],
      [
        "一万",
        -9.35636425200614
      ],
      [
        " 张",
        -9.35646065178761
      ],
      [
        "想法",
        -9.357018908803429
      ],
      [
        "变化",
        -9.357139999958395
      ],
      [
        "好看",
        -9.357144758243015
      ],
      [
        "例",
        -9.357539095813626
      ],
      [
        "读书",
        -9.357627085033279
      ],
      [
        "跟他说",
        -9.358578607687399
      ],
      [
        "坐在",
        -9.358834807523271
      ],
      [
        "恢复",
        -9.358957401370665
      ],
      [
        "礼物",
        -9.360737691948675
      ],
      [
        "和我",
        -9.36078282744862
      ],
      [
        "背后",
        -9.361091183033423
      ],
      [
        "大夫",
        -9.3611942912949
      ],
      [
        "国内",
        -9.361927742569499
      ],
      [
        "探",
        -9.361980391858026
      ],
      [
        "弱",
        -9.362043230551656
      ],
      [
        "稳",
        -9.363050656250294
      ],
      [
        "来讲",
        -9.364017939693493
      ],
      [
        " 他是",
        -9.364716302659815
      ],
      [
        "年龄",
        -9.365098092239878
      ],
      [
        "有多",
        -9.366269921131295
      ],
      [
        "带来",
        -9.366562949581702
      ],
      [
        "也要",
        -9.367219231773916
      ],
      [
        "贴",
        -9.367579980775686
      ],
      [
        "替",
        -9.369381802884648
      ],
      [
        "户",
        -9.369600553523778
      ],
      [
        "说说",
        -9.370042851483182
      ],
      [
        "集团",
        -9.370534153311498
      ],
      [
        "开了",
        -9.37055117841789
      ],
      [
        "糖",
        -9.370892998449992
      ],
      [
        "挂",
        -9.371192922064978
      ],
      [
        "维",
        -9.37185044237518
      ],
      [
        "不如",
        -9.372284678721417
      ],
      [
        "斗",
        -9.372566786001233
      ],
      [
        "诶",
        -9.372859600847628
      ],
      [
        "矛盾",
        -9.372860114601032
      ],
      [
        "梅",
        -9.37307218684781
      ],
      [
        "真正的",
        -9.373275187958896
      ],
      [
        "就这么",
        -9.37331553127737
      ],
      [
        " 明天",
        -9.373422977550593
      ],
      [
        "皇",
        -9.373468127937407
      ],
      [
        "让自己",
        -9.373484853414112
      ],
      [
        "等着",
        -9.373660226257464
      ],
      [
        "出门",
        -9.374207559079544
      ],
      [
        "质",
        -9.374793995504621
      ],
      [
        "味",
        -9.375439643784077
      ],
      [
        "找我",
        -9.37623174481333
      ],
      [
        "一声",
        -9.376718366267163
      ],
      [
        "基金",
        -9.377346974253177
      ],
      [
        "显示",
        -9.377387516198064
      ],
      [
        "懂得",
        -9.378734651768015
      ],
      [
        "提醒",
        -9.379165459212057
      ],
      [
        " 哦",
        -9.379879724457105
      ],
      [
        "检查",
        -9.379983067711064
      ],
      [
        "暗",
        -9.380235412239081
      ],
      [
        " 我看",
        -9.380361146219673
      ],
      [
        "乡",
        -9.380446804476296
      ],
      [
        "有关",
        -9.381216362795165
      ],
      [
        "家的",
        -9.382159283613648
      ],
      [
        "列",
        -9.382409386542793
      ],
      [
        "飞机",
        -9.382649049645604
      ],
      [
        "你们俩",
        -9.382902817930606
      ],
      [
        "还不",
        -9.383313237102419
      ],
      [
        "的意思",
        -9.383789796251857
      ],
      [
        "输",
        -9.383952770567388
      ],
      [
        "陪伴",
        -9.384214671256572
      ],
      [
        "扔",
        -9.384409863251367
      ],
      [
        "欢迎",
        -9.384645364749735
      ],
      [
        "目标",
        -9.385408754776567
      ],
      [
        " 首先",
        -9.385506287604693
      ],
      [
        " 不知道",
        -9.38596484078624
      ],
      [
        " 王",
        -9.3864368623829
      ],
      [
        " 我我",
        -9.386492760788567
      ],
      [
        "府",
        -9.38795959430907
      ],
      [
        "几天",
        -9.388270306256025
      ],
      [
        "追求",
        -9.388557969863065
      ],
      [
        "持续",
        -9.3892760291899
      ],
      [
        "沈",
        -9.389371512599922
      ],
      [
        "跟我们",
        -9.38990367659159
      ],
      [
        "帮忙",
        -9.39051159508401
      ],
      [
        "大概",
        -9.392233267596323
      ],
      [
        "除",
        -9.39295037927718
      ],
      [
        "三百",
        -9.393818508603076
      ],
      [
        "仙",
        -9.393864306682161
      ],
      [
        "天下",
        -9.39421892471232
      ],
      [
        "它的",
        -9.396296253845641
      ],
      [
        "蒙",
        -9.396513275136135
      ],
      [
        "广",
        -9.39683615325255
      ],
      [
        "创",
        -9.396897404901143
      ],
      [
        "录",
        -9.396921795541612
      ],
      [
        "娶",
        -9.39727651295065
      ],
      [
        "拒绝",
        -9.397520513233427
      ],
      [
        "份",
        -9.398408812459342
      ],
      [
        "就是你",
        -9.398772616061077
      ],
      [
        "善",
        -9.399178476733638
      ],
      [
        " 因为他",
        -9.399518361600112
      ],
      [
        "每次",
        -9.399758345318308
      ],
      [
        "巧",
        -9.400200254381364
      ],
      [
        "期间",
        -9.401884743942878
      ],
      [
        "方法",
        -9.401915470062633
      ],
      [
        "人民",
        -9.402840280069446
      ],
      [
        "景",
        -9.403044551485271
      ],
      [
        " 你说你",
        -9.403675478804331
      ],
      [
        " 这次",
        -9.404533202349679
      ],
      [
        "圈",
        -9.405217029864826
      ],
      [
        "我不",
        -9.40576466350544
      ],
      [
        "的大",
        -9.406770132883675
      ],
      [
        "是他",
        -9.407144893137447
      ],
      [
        "生命",
        -9.40717197134099
      ],
      [
        " 因为你",
        -9.407944510583532
      ],
      [
        "有钱",
        -9.407955865090626
      ],
      [
        "这句话",
        -9.408563829368878
      ],
      [
        "躲",
        -9.408678296461023
      ],
      [
        "单位",
        -9.408826119954309
      ],
      [
        " 只",
        -9.409188692000189
      ],
      [
        " 先",
        -9.409829306376935
      ],
      [
        "是这样",
        -9.410194274869763
      ],
      [
        "业务",
        -9.41020411881765
      ],
      [
        "享受",
        -9.410320938001636
      ],
      [
        "一段时间",
        -9.410546340868638
      ],
      [
        "年纪",
        -9.41060743131819
      ],
      [
        " 就算",
        -9.41076164876397
      ],
      [
        "永",
        -9.410820453142154
      ],
      [
        "引",
        -9.410820559072882
      ],
      [
        "博",
        -9.41104333359408
      ],
      [
        "咱俩",
        -9.411326215529781
      ],
      [
        "剑",
        -9.411495520502907
      ],
      [
        "卷",
        -9.411923786027533
      ],
      [
        "做出",
        -9.412396890840075
      ],
      [
        " 像",
        -9.412441774118932
      ],
      [
        "了很多",
        -9.412654689518089
      ],
      [
        "倍",
        -9.413638684599459
      ],
      [
        " 让我",
        -9.41398060309647
      ],
      [
        "智",
        -9.414481891825599
      ],
      [
        " 看",
        -9.414530546501094
      ],
      [
        "敌",
        -9.415190517786044
      ],
      [
        "五百",
        -9.415358383416828
      ],
      [
        "放心",
        -9.416496793519151
      ],
      [
        " 那我们",
        -9.417761903933759
      ],
      [
        "过年",
        -9.417834678715636
      ],
      [
        "是怎么",
        -9.418330156002863
      ],
      [
        "羊",
        -9.419239191539335
      ],
      [
        "宝宝",
        -9.420164247504953
      ],
      [
        "为什么要",
        -9.420226443576329
      ],
      [
        "汽车",
        -9.420383163798501
      ],
      [
        "签",
        -9.420502989947686
      ],
      [
        "反应",
        -9.420959927463354
      ],
      [
        "增加",
        -9.421931806668976
      ],
      [
        "演员",
        -9.42315362128457
      ],
      [
        "摸",
        -9.42342648390417
      ],
      [
        "部门",
        -9.423518641471503
      ],
      [
        "都已经",
        -9.424529572980532
      ],
      [
        " 三",
        -9.42527446448798
      ],
      [
        " 然后我就",
        -9.425586271055604
      ],
      [
        "并不是",
        -9.425590428823053
      ],
      [
        "男的",
        -9.426686189886048
      ],
      [
        "那个时候",
        -9.426795463869308
      ],
      [
        "再次",
        -9.427320744211972
      ],
      [
        "暖",
        -9.428198773179208
      ],
      [
        "一九",
        -9.428223734955054
      ],
      [
        "债",
        -9.42860425739665
      ],
      [
        "劳",
        -9.4289142435727
      ],
      [
        "爱你",
        -9.42921104313572
      ],
      [
        "生意",
        -9.429282033555488
      ],
      [
        "政",
        -9.429578157571397
      ],
      [
        "专家",
        -9.430729836013402
      ],
      [
        "不好意思",
        -9.430922400383924
      ],
      [
        "提出",
        -9.431528280565278
      ],
      [
        "父",
        -9.432015103492553
      ],
      [
        "不住",
        -9.432315393741474
      ],
      [
        "外面",
        -9.432400145849453
      ],
      [
        "十分",
        -9.432531007024636
      ],
      [
        "有可能",
        -9.432709769427536
      ],
      [
        "纳",
        -9.433389920386674
      ],
      [
        "有了",
        -9.433407716621957
      ],
      [
        "竟然",
        -9.433446401347656
      ],
      [
        "过去了",
        -9.433717062953479
      ],
      [
        " 毕竟",
        -9.434421573994976
      ],
      [
        " 妈",
        -9.434994216179273
      ],
      [
        "了一下",
        -9.435872886682047
      ],
      [
        "园",
        -9.436001636725573
      ],
      [
        "想着",
        -9.436161314273967
      ],
      [
        "峰",
        -9.437788255106453
      ],
      [
        "两千",
        -9.439289467684779
      ],
      [
        " 刘",
        -9.440303198464278
      ],
      [
        " 目前",
        -9.44030821653756
      ],
      [
        "谷",
        -9.440559192949284
      ],
      [
        "增",
        -9.440675804759152
      ],
      [
        "圆",
        -9.441617317818384
      ],
      [
        " 你觉得",
        -9.442070825373273
      ],
      [
        "看到了",
        -9.442087288759895
      ],
      [
        " 要是",
        -9.442660176290921
      ],
      [
        "系统",
        -9.442689754576408
      ],
      [
        "三点",
        -9.44292123778758
      ],
      [
        "喜马拉雅",
        -9.443080122931423
      ],
      [
        "的感情",
        -9.443164988131835
      ],
      [
        "账",
        -9.443879524919684
      ],
      [
        "扣",
        -9.4445779632082
      ],
      [
        "稳定",
        -9.444614701232805
      ],
      [
        "也就",
        -9.444646995080165
      ],
      [
        "规定",
        -9.44529091140249
      ],
      [
        "宽",
        -9.446865545790251
      ],
      [
        "历史",
        -9.447220959798152
      ],
      [
        "得很",
        -9.447762813643084
      ],
      [
        "机构",
        -9.447784607931599
      ],
      [
        "记住",
        -9.448487855006832
      ],
      [
        "人们",
        -9.448700849274786
      ],
      [
        " 最近",
        -9.44874440143902
      ],
      [
        "杯",
        -9.448814290813957
      ],
      [
        "第三",
        -9.449238834459251
      ],
      [
        "港",
        -9.44924685836769
      ],
      [
        " 陈",
        -9.449434757145134
      ],
      [
        "倒是",
        -9.449462800857168
      ],
      [
        "较",
        -9.449690767055294
      ],
      [
        "拖",
        -9.449892615726752
      ],
      [
        " 连",
        -9.450349554655286
      ],
      [
        "银",
        -9.45056323373117
      ],
      [
        "他说",
        -9.4507629712421
      ],
      [
        "不同的",
        -9.450955672284582
      ],
      [
        "实在",
        -9.45105919787482
      ],
      [
        " 嗯嗯",
        -9.45126437083843
      ],
      [
        "给大家",
        -9.451476987710112
      ],
      [
        "调整",
        -9.4519097066891
      ],
      [
        "界",
        -9.45213940026547
      ],
      [
        "岛",
        -9.452384588056677
      ],
      [
        "孤独",
        -9.45263229481684
      ],
      [
        "利用",
        -9.452656533237457
      ],
      [
        "门口",
        -9.452692434302394
      ],
      [
        "居然",
        -9.452923629350483
      ],
      [
        "小孩",
        -9.453129670820784
      ],
      [
        "比赛",
        -9.453154425971341
      ],
      [
        " 你是不是",
        -9.453203043377115
      ],
      [
        "人类",
        -9.45336442060659
      ],
      [
        "就在",
        -9.453792989115424
      ],
      [
        "中央",
        -9.454254852411491
      ],
      [
        "拼",
        -9.454775981393812
      ],
      [
        "搬",
        -9.455302547779912
      ],
      [
        "墙",
        -9.4553440812223
      ],
      [
        " 有时候",
        -9.455765055618283
      ],
      [
        "这位",
        -9.455986740238131
      ],
      [
        "知识",
        -9.45673677980258
      ],
      [
        "不少",
        -9.456792172338846
      ],
      [
        "减",
        -9.456852466596356
      ],
      [
        "印",
        -9.457667468078789
      ],
      [
        "瑞",
        -9.457944175633902
      ],
      [
        "皇上",
        -9.45806476757544
      ],
      [
        "变成了",
        -9.458220663299102
      ],
      [
        "杀了",
        -9.458500316078709
      ],
      [
        " 孩子",
        -9.458702923410879
      ],
      [
        "问他",
        -9.45915472783597
      ],
      [
        "感受",
        -9.459879898692078
      ],
      [
        "是我的",
        -9.46170188275897
      ],
      [
        "危险",
        -9.46178307035272
      ],
      [
        "了个",
        -9.46194868751661
      ],
      [
        "中的",
        -9.46199855055327
      ],
      [
        "不再",
        -9.462548284065987
      ],
      [
        "搭",
        -9.46335142757756
      ],
      [
        "过得",
        -9.463662719472051
      ],
      [
        " 叫",
        -9.463993635776712
      ],
      [
        "滚",
        -9.464007878552977
      ],
      [
        "六十",
        -9.46436262683071
      ],
      [
        "正式",
        -9.464446416410928
      ],
      [
        "瞎",
        -9.464549599723982
      ],
      [
        "架",
        -9.464593530450735
      ],
      [
        "计",
        -9.466684531769864
      ],
      [
        "范",
        -9.466951509190238
      ],
      [
        "我会",
        -9.467661296186474
      ],
      [
        " 我说你",
        -9.468387811613454
      ],
      [
        "老人",
        -9.468523771600786
      ],
      [
        "心情",
        -9.468812357683916
      ],
      [
        "下了",
        -9.469273336997734
      ],
      [
        "失去",
        -9.469695941046972
      ],
      [
        "丢",
        -9.46985176436025
      ],
      [
        "厚",
        -9.470124011030574
      ],
      [
        "参与",
        -9.470524729445813
      ],
      [
        "其中",
        -9.470807227744213
      ],
      [
        "广州",
        -9.471706826533861
      ],
      [
        "没什么",
        -9.472007042481536
      ],
      [
        "走吧",
        -9.472066855239419
      ],
      [
        " 没想到",
        -9.472160303916972
      ],
      [
        "很多人",
        -9.473048835328711
      ],
      [
        "甜",
        -9.47339757379686
      ],
      [
        "项",
        -9.47411542293107
      ],
      [
        "给她",
        -9.47480495928556
      ],
      [
        "一片",
        -9.476354300805674
      ],
      [
        "陆",
        -9.477392042693369
      ],
      [
        "正好",
        -9.477915515656676
      ],
      [
        "不断",
        -9.47832846995639
      ],
      [
        "成熟",
        -9.47882130805517
      ],
      [
        "她的",
        -9.478914636999988
      ],
      [
        "每一个",
        -9.480174073312753
      ],
      [
        "就没有",
        -9.480229885510246
      ],
      [
        "警方",
        -9.481744557241733
      ],
      [
        "距离",
        -9.482042143134628
      ],
      [
        "的日子",
        -9.482058653990038
      ],
      [
        "亏",
        -9.48246645815557
      ],
      [
        "后悔",
        -9.482581094226461
      ],
      [
        "我在",
        -9.482683133150054
      ],
      [
        "软",
        -9.482686269223
      ],
      [
        "也很",
        -9.482688514807192
      ],
      [
        "不容易",
        -9.482693861541472
      ],
      [
        "灭",
        -9.484198861598749
      ],
      [
        "方向",
        -9.484303822376587
      ],
      [
        "标准",
        -9.484463283063889
      ],
      [
        "不在",
        -9.48461480434738
      ],
      [
        "是要",
        -9.484875901808996
      ],
      [
        "易",
        -9.48602047882039
      ],
      [
        "不出",
        -9.48623538195432
      ],
      [
        "独立",
        -9.486240625817901
      ],
      [
        "做得",
        -9.486762712206339
      ],
      [
        "不说",
        -9.486836686894282
      ],
      [
        "怎么能",
        -9.48721548405872
      ],
      [
        "水平",
        -9.487462936622496
      ],
      [
        "这么大",
        -9.488069857216004
      ],
      [
        "的机会",
        -9.488490115442655
      ],
      [
        "锅",
        -9.48896258389327
      ],
      [
        "一把",
        -9.489404983631195
      ],
      [
        "不怕",
        -9.489413834115553
      ],
      [
        " 爸爸",
        -9.48962521613177
      ],
      [
        "异",
        -9.490079118942642
      ],
      [
        "态度",
        -9.491340116222732
      ],
      [
        "农",
        -9.491528232195124
      ],
      [
        "我知道",
        -9.491702544488238
      ],
      [
        "导致",
        -9.492181914418033
      ],
      [
        "暴",
        -9.492499655127144
      ],
      [
        " 是我",
        -9.49318544731317
      ],
      [
        "房间",
        -9.493348067208226
      ],
      [
        "淡",
        -9.493561953563999
      ],
      [
        "航",
        -9.494053389161206
      ],
      [
        "透",
        -9.494430070562501
      ],
      [
        "是真的",
        -9.494502529428168
      ],
      [
        "挑战",
        -9.494839217588716
      ],
      [
        "是我们",
        -9.495031651749986
      ],
      [
        "辛苦",
        -9.49569012161427
      ],
      [
        "年轻人",
        -9.495894955676068
      ],
      [
        "半年",
        -9.496102858606038
      ],
      [
        "也得",
        -9.496553762968398
      ],
      [
        "算是",
        -9.497097029474384
      ],
      [
        "名字",
        -9.497108916613282
      ],
      [
        "共产党",
        -9.497702063377236
      ],
      [
        "肯定是",
        -9.498247140495515
      ],
      [
        "发现了",
        -9.498552624144015
      ],
      [
        "臭",
        -9.498641176558056
      ],
      [
        "要不要",
        -9.498689201838516
      ],
      [
        "委屈",
        -9.499059838523502
      ],
      [
        "旅游",
        -9.499218032995234
      ],
      [
        " 当你",
        -9.49929312163638
      ],
      [
        " 不管",
        -9.499547722115608
      ],
      [
        "碰",
        -9.500077997809314
      ],
      [
        "我去",
        -9.500218046803194
      ],
      [
        "诺",
        -9.500246553563727
      ],
      [
        "患者",
        -9.500310557302686
      ],
      [
        "依",
        -9.500772622125151
      ],
      [
        "喽",
        -9.50102070866571
      ],
      [
        "没关系",
        -9.501025049528089
      ],
      [
        "那你",
        -9.50122180314488
      ],
      [
        "八月",
        -9.50136700241347
      ],
      [
        "得了",
        -9.50174614444557
      ],
      [
        "长大",
        -9.50213295246002
      ],
      [
        " 怎么了",
        -9.502367219828088
      ],
      [
        "你想",
        -9.502425746341022
      ],
      [
        "索",
        -9.502454082928564
      ],
      [
        "比你",
        -9.503508929892075
      ],
      [
        " 我妈",
        -9.503837403299379
      ],
      [
        "弟",
        -9.504475305528317
      ],
      [
        "明显",
        -9.505051097776104
      ],
      [
        "六月",
        -9.505230667973013
      ],
      [
        "觉得自己",
        -9.505375189334783
      ],
      [
        "财",
        -9.505692725758127
      ],
      [
        "才会",
        -9.50582317119132
      ],
      [
        "受到",
        -9.505920322193678
      ],
      [
        "魔",
        -9.507053865438465
      ],
      [
        "瘦",
        -9.507126880649466
      ],
      [
        "产生",
        -9.508578771981345
      ],
      [
        "肚子",
        -9.508956618110822
      ],
      [
        "没想到",
        -9.50961301269536
      ],
      [
        "秦",
        -9.509642702175706
      ],
      [
        "意义",
        -9.509773179443222
      ],
      [
        "病人",
        -9.509893017216886
      ],
      [
        "雅",
        -9.50990723952767
      ],
      [
        "舞",
        -9.511395992953194
      ],
      [
        "头发",
        -9.511422944750962
      ],
      [
        "十五",
        -9.513399495935609
      ],
      [
        "说是",
        -9.513491461469124
      ],
      [
        "酸",
        -9.513680784422768
      ],
      [
        "吉",
        -9.51387714083807
      ],
      [
        "扎",
        -9.515553015989841
      ],
      [
        "康",
        -9.516371366912754
      ],
      [
        "就把",
        -9.516707814772452
      ],
      [
        "根据",
        -9.51745282305512
      ],
      [
        " 同时",
        -9.517664767176024
      ],
      [
        "好吧",
        -9.51770055524955
      ],
      [
        "温暖",
        -9.517821248223482
      ],
      [
        " 看来",
        -9.517956458957118
      ],
      [
        "就行了",
        -9.518857895850033
      ],
      [
        "我们俩",
        -9.519659391581502
      ],
      [
        "收拾",
        -9.519841284700359
      ],
      [
        "提前",
        -9.51994333742755
      ],
      [
        "考试",
        -9.520011478142647
      ],
      [
        "一定是",
        -9.520054352461415
      ],
      [
        "症",
        -9.520800127885813
      ],
      [
        "都知道",
        -9.520882796991456
      ],
      [
        "的那",
        -9.521582148117222
      ],
      [
        " 刚才",
        -9.522029112156188
      ],
      [
        "执行",
        -9.52216270162295
      ],
      [
        "办公室",
        -9.522353673125329
      ],
      [
        "反正",
        -9.523253014803442
      ],
      [
        "致",
        -9.523835501011018
      ],
      [
        "活着",
        -9.52422127898549
      ],
      [
        "败",
        -9.524819178224185
      ],
      [
        "泡",
        -9.524971499629045
      ],
      [
        "族",
        -9.526110325280296
      ],
      [
        " 用",
        -9.52646830734319
      ],
      [
        " 我不知道",
        -9.526974124864894
      ],
      [
        "撒",
        -9.527067822022747
      ],
      [
        "川",
        -9.527476694921553
      ],
      [
        "家长",
        -9.527780606269358
      ],
      [
        "灰",
        -9.528555856321741
      ],
      [
        "妹子",
        -9.52859236925135
      ],
      [
        "梦想",
        -9.529337921649859
      ],
      [
        "适合",
        -9.529639261314895
      ],
      [
        "惹",
        -9.530001358629086
      ],
      [
        "动物",
        -9.530035326636693
      ],
      [
        "二零二零年",
        -9.530289923383226
      ],
      [
        "公子",
        -9.530857807411987
      ],
      [
        "爬",
        -9.530954517169118
      ],
      [
        "屋",
        -9.531706087859522
      ],
      [
        "在家里",
        -9.531850508544405
      ],
      [
        "操",
        -9.53188643440972
      ],
      [
        "最好",
        -9.532025021198432
      ],
      [
        "她们",
        -9.532324748179025
      ],
      [
        "摇",
        -9.53233659709008
      ],
      [
        "深圳",
        -9.532414487169731
      ],
      [
        "舒服",
        -9.533338955314559
      ],
      [
        "祖",
        -9.533516589416779
      ],
      [
        " 跟",
        -9.53378327382233
      ],
      [
        "听说",
        -9.533993692244596
      ],
      [
        "跟她",
        -9.534425124904622
      ],
      [
        "恋",
        -9.53447266972833
      ],
      [
        "棒",
        -9.534579208482736
      ],
      [
        " 等",
        -9.535000242053627
      ],
      [
        "找你",
        -9.536752821363518
      ],
      [
        "麻",
        -9.537617926606567
      ],
      [
        "看了",
        -9.537708082733786
      ],
      [
        "住了",
        -9.537800406446951
      ],
      [
        "空间",
        -9.538333682468139
      ],
      [
        " 你要是",
        -9.538463541553726
      ],
      [
        "承认",
        -9.539608837107572
      ],
      [
        "擦",
        -9.539659077481655
      ],
      [
        "进一步",
        -9.539949498941471
      ],
      [
        "二百",
        -9.541096921088663
      ],
      [
        "郭",
        -9.54115028304587
      ],
      [
        "就没",
        -9.541969230976331
      ],
      [
        "这个东西",
        -9.542023762387045
      ],
      [
        "金融",
        -9.542575075166289
      ],
      [
        "阴",
        -9.543027754888353
      ],
      [
        "学会",
        -9.543404090781648
      ],
      [
        "最终",
        -9.543486862027985
      ],
      [
        "免",
        -9.54389316030203
      ],
      [
        " 要不",
        -9.544523603800936
      ],
      [
        "去年",
        -9.544564893221363
      ],
      [
        "消",
        -9.54471390905571
      ],
      [
        "自信",
        -9.545162573156778
      ],
      [
        "围",
        -9.545260876214261
      ],
      [
        " 不用",
        -9.545587552155114
      ],
      [
        " 我告诉你",
        -9.545796685132448
      ],
      [
        "接下来",
        -9.54601525234499
      ],
      [
        "商量",
        -9.546343058640964
      ],
      [
        "风险",
        -9.546620799530569
      ],
      [
        " 希望",
        -9.546715936100407
      ],
      [
        "怎么会",
        -9.54715030756405
      ],
      [
        "我我",
        -9.547654151595722
      ],
      [
        "四年",
        -9.548119781239919
      ],
      [
        "进了",
        -9.548141332311396
      ],
      [
        " 并且",
        -9.54846237635267
      ],
      [
        "底下",
        -9.549128777734891
      ],
      [
        "租",
        -9.549739812967342
      ],
      [
        "历",
        -9.550463757032933
      ],
      [
        "找个",
        -9.551237936131711
      ],
      [
        " 是啊",
        -9.551518671472088
      ],
      [
        "走到",
        -9.551885974713628
      ],
      [
        "欢",
        -9.552260213112799
      ],
      [
        " 我真的",
        -9.553902500990837
      ],
      [
        "女的",
        -9.554140077485407
      ],
      [
        "效",
        -9.554292805491304
      ],
      [
        "鬼子",
        -9.554295297531702
      ],
      [
        "感动",
        -9.555387540772148
      ],
      [
        "苹果",
        -9.555388845344325
      ],
      [
        "大家都",
        -9.555569318441979
      ],
      [
        " 昨天",
        -9.555663446445053
      ],
      [
        "尼",
        -9.555832944277302
      ],
      [
        "陪你",
        -9.55587764891286
      ],
      [
        "太太",
        -9.55599681414568
      ],
      [
        "季",
        -9.55667909531238
      ],
      [
        " 我已经",
        -9.556794270024705
      ],
      [
        "观众",
        -9.557286743413433
      ],
      [
        "直播间",
        -9.557425359685617
      ],
      [
        " 你不是",
        -9.558024306839432
      ],
      [
        "互相",
        -9.558105347665084
      ],
      [
        "碗",
        -9.558314492663706
      ],
      [
        "句",
        -9.558455210407867
      ],
      [
        "餐",
        -9.558521075759298
      ],
      [
        "这份",
        -9.559061110548871
      ],
      [
        "分开",
        -9.559359577034256
      ],
      [
        "十二",
        -9.559684497671679
      ],
      [
        "街",
        -9.560043487596168
      ],
      [
        "这么多年",
        -9.560109156838369
      ],
      [
        "导",
        -9.560162594158747
      ],
      [
        "给您",
        -9.560757175888313
      ],
      [
        "建立",
        -9.561380858068544
      ],
      [
        "啥呀",
        -9.561664473306209
      ],
      [
        "付",
        -9.561839749788769
      ],
      [
        "叫我",
        -9.562122891376841
      ],
      [
        " 但是他",
        -9.562263455488935
      ],
      [
        " 好像",
        -9.562825122547721
      ],
      [
        "腰",
        -9.563329608027676
      ],
      [
        "在我",
        -9.564751804227626
      ],
      [
        "多大",
        -9.5649875563539
      ],
      [
        "段子",
        -9.565166737246647
      ],
      [
        "销售",
        -9.565297775099243
      ],
      [
        "一遍",
        -9.565396734786546
      ],
      [
        "这件事",
        -9.566720175196775
      ],
      [
        "寻找",
        -9.56729841221274
      ],
      [
        "播",
        -9.567646461182918
      ],
      [
        " 真是",
        -9.568113682079613
      ],
      [
        "艾",
        -9.568325871127442
      ],
      [
        "之外",
        -9.56854155001598
      ],
      [
        " 就是我",
        -9.569945766757288
      ],
      [
        " 不会",
        -9.570047869606157
      ],
      [
        "的就是",
        -9.570161421899542
      ],
      [
        "把这",
        -9.570449840337599
      ],
      [
        "坏了",
        -9.570974595692864
      ],
      [
        "掉了",
        -9.571195179980124
      ],
      [
        "表演",
        -9.571250801396502
      ],
      [
        "东北",
        -9.571916366222574
      ],
      [
        "从来没有",
        -9.572304479738161
      ],
      [
        "一步",
        -9.57292593379335
      ],
      [
        " 不能",
        -9.5738108331679
      ],
      [
        "怎么说",
        -9.574104715650545
      ],
      [
        "职业",
        -9.574107154388948
      ],
      [
        "难受",
        -9.575068752188121
      ],
      [
        "系",
        -9.575686773498697
      ],
      [
        "长期",
        -9.576002358130168
      ],
      [
        " 有人",
        -9.576081637282918
      ],
      [
        "你知道吗",
        -9.577480220581066
      ],
      [
        "攻",
        -9.577698067556483
      ],
      [
        "婆婆",
        -9.577888785642758
      ],
      [
        "首先",
        -9.577969378102175
      ],
      [
        "磨",
        -9.578099331150483
      ],
      [
        "狂",
        -9.578355615480103
      ],
      [
        "欺负",
        -9.57842122132024
      ],
      [
        "凭",
        -9.578604947700715
      ],
      [
        "重点",
        -9.578650664750405
      ],
      [
        "的时候呢",
        -9.578993895758975
      ],
      [
        "息",
        -9.580250530961163
      ],
      [
        "斤",
        -9.580666973616843
      ],
      [
        "审",
        -9.58093946555724
      ],
      [
        "打了",
        -9.581640766945354
      ],
      [
        "没有办法",
        -9.581948038765574
      ],
      [
        " 你能",
        -9.58390239382458
      ],
      [
        " 应该",
        -9.58391669080661
      ],
      [
        "比我",
        -9.584197105820218
      ],
      [
        "喜欢你",
        -9.585327929107832
      ],
      [
        "找到了",
        -9.585661088393671
      ],
      [
        "炮",
        -9.586001647617685
      ],
      [
        "忘",
        -9.586170597330891
      ],
      [
        "有所",
        -9.586457302616656
      ],
      [
        "拔",
        -9.586521884384554
      ],
      [
        "四月",
        -9.587289481752283
      ],
      [
        "瓶",
        -9.587591021086837
      ],
      [
        "别人的",
        -9.587753634530754
      ],
      [
        "本身",
        -9.588144794242627
      ],
      [
        "拜",
        -9.589435980469755
      ],
      [
        "限",
        -9.589624695956857
      ],
      [
        "告诉他",
        -9.589788197605188
      ],
      [
        "圣",
        -9.590091975071449
      ],
      [
        "工资",
        -9.590774305579211
      ],
      [
        "一块儿",
        -9.591324179966929
      ],
      [
        "那时候",
        -9.592453543063812
      ],
      [
        "需求",
        -9.593048600450448
      ],
      [
        "跌",
        -9.593620741701127
      ],
      [
        "心中",
        -9.593725257470348
      ],
      [
        "基础",
        -9.593875657650353
      ],
      [
        "伯",
        -9.594641014630444
      ],
      [
        "浪",
        -9.594719493026325
      ],
      [
        "有一种",
        -9.595996389984453
      ],
      [
        "出轨",
        -9.596159520498578
      ],
      [
        "训练",
        -9.596412303212574
      ],
      [
        "几年",
        -9.596688267870258
      ],
      [
        "团长",
        -9.597408668095692
      ],
      [
        "闺女",
        -9.597445700869107
      ],
      [
        "爸妈",
        -9.597797071191625
      ],
      [
        "宣布",
        -9.59795970012195
      ],
      [
        "难过",
        -9.59824019078587
      ],
      [
        "具体",
        -9.598851985983433
      ],
      [
        "想象",
        -9.598912301112453
      ],
      [
        "隔",
        -9.599485253904795
      ],
      [
        " 但我",
        -9.599674396292844
      ],
      [
        " 对不起",
        -9.599714471956728
      ],
      [
        "的人生",
        -9.600269863045764
      ],
      [
        "丑",
        -9.600389685891063
      ],
      [
        "狠",
        -9.600423530728559
      ],
      [
        "听听",
        -9.600704560985426
      ],
      [
        "忠",
        -9.600757577921822
      ],
      [
        "配合",
        -9.601146276742307
      ],
      [
        "开玩笑",
        -9.601334748148144
      ],
      [
        "咬",
        -9.601385527723384
      ],
      [
        "夸",
        -9.601426573725147
      ],
      [
        "助",
        -9.601452916546805
      ],
      [
        "湿",
        -9.60168038473566
      ],
      [
        "史",
        -9.602291475899106
      ],
      [
        "佛",
        -9.602352489239802
      ],
      [
        "什么都",
        -9.602568335331263
      ],
      [
        "湖",
        -9.603200310000046
      ],
      [
        "设",
        -9.603767442075917
      ],
      [
        "窝",
        -9.603995508019471
      ],
      [
        "销",
        -9.604400859770251
      ],
      [
        "太阳",
        -9.604676598665986
      ],
      [
        "您的",
        -9.60479496124109
      ],
      [
        "章",
        -9.60626069620265
      ],
      [
        "决",
        -9.60692200392387
      ],
      [
        "许多",
        -9.607500230750418
      ],
      [
        "我跟",
        -9.607553950498112
      ],
      [
        "模式",
        -9.607697073865312
      ],
      [
        "没人",
        -9.60810519880621
      ],
      [
        "臣",
        -9.608171110970503
      ],
      [
        "没办法",
        -9.608181667511825
      ],
      [
        " 以前",
        -9.608572260552657
      ],
      [
        "扬",
        -9.608786995269863
      ],
      [
        "积极",
        -9.608827374530463
      ],
      [
        "经营",
        -9.608955092183933
      ],
      [
        "迪",
        -9.609220903870797
      ],
      [
        "搜索",
        -9.609291154030284
      ],
      [
        " 无论",
        -9.609593194773904
      ],
      [
        "还可以",
        -9.60978755567761
      ],
      [
        "观察",
        -9.60980585198751
      ],
      [
        "交易",
        -9.610381095116235
      ],
      [
        "提升",
        -9.610670403268548
      ],
      [
        "唱歌",
        -9.610920585007456
      ],
      [
        "怎样",
        -9.61135538185761
      ],
      [
        "方案",
        -9.611417321485572
      ],
      [
        "了他",
        -9.611506030306288
      ],
      [
        "敌人",
        -9.611512216033612
      ],
      [
        "丝",
        -9.611695560147904
      ],
      [
        "英雄",
        -9.611896544405905
      ],
      [
        "绝对",
        -9.611932530965206
      ],
      [
        "经验",
        -9.612430486340799
      ],
      [
        "被人",
        -9.613114457405636
      ],
      [
        "误会",
        -9.613505359076004
      ],
      [
        " 谢谢你",
        -9.613517418805024
      ],
      [
        "委",
        -9.613777423389063
      ],
      [
        "闪",
        -9.614318979950799
      ],
      [
        "赌",
        -9.614370397843828
      ],
      [
        "鲁",
        -9.614443012892274
      ],
      [
        "仍",
        -9.614786336799494
      ],
      [
        "基本上",
        -9.615705306314064
      ],
      [
        "七十",
        -9.61585814546895
      ],
      [
        "或者是",
        -9.61617929656017
      ],
      [
        "手术",
        -9.616887274243382
      ],
      [
        "欧",
        -9.61740334160405
      ],
      [
        "再说",
        -9.617883079155844
      ],
      [
        "的时候啊",
        -9.618416120856839
      ],
      [
        "就好",
        -9.618872773020911
      ],
      [
        "每天都",
        -9.619672367629802
      ],
      [
        "洪",
        -9.620766566016156
      ],
      [
        "做一个",
        -9.621041664435442
      ],
      [
        "以上",
        -9.621457917518217
      ],
      [
        "挺好",
        -9.621476217489711
      ],
      [
        "温柔",
        -9.62240699213067
      ],
      [
        "看我",
        -9.62388119784459
      ],
      [
        "从小",
        -9.624000182691738
      ],
      [
        "下班",
        -9.625764217140986
      ],
      [
        "快点",
        -9.625853684510348
      ],
      [
        "哄",
        -9.626058983644088
      ],
      [
        "缩",
        -9.62658976920672
      ],
      [
        "豪",
        -9.626648254010906
      ],
      [
        "韩",
        -9.627151322812882
      ],
      [
        "我们就",
        -9.627638812083628
      ],
      [
        "提高",
        -9.628030239701761
      ],
      [
        "出现了",
        -9.6280574684385
      ],
      [
        "是这样的",
        -9.628418566287747
      ],
      [
        "照片",
        -9.628785447542892
      ],
      [
        "摔",
        -9.628806617132497
      ],
      [
        "朋友圈",
        -9.629393113406767
      ],
      [
        "吓",
        -9.629413852356814
      ],
      [
        "朱",
        -9.629637167646372
      ],
      [
        "蛮",
        -9.629885583890742
      ],
      [
        "亲自",
        -9.629924364479471
      ],
      [
        "针",
        -9.629977840780224
      ],
      [
        "不是说",
        -9.630131835956213
      ],
      [
        "立刻",
        -9.631042687705726
      ],
      [
        "扫",
        -9.631091043894038
      ],
      [
        "就好了",
        -9.631135888555102
      ],
      [
        "体验",
        -9.631438661724214
      ],
      [
        "控",
        -9.631626602029517
      ],
      [
        "欲",
        -9.631809251727695
      ],
      [
        "两位",
        -9.632499150513038
      ],
      [
        "知道了",
        -9.633081897151953
      ],
      [
        "下降",
        -9.633468647655658
      ],
      [
        "员工",
        -9.633787449300913
      ],
      [
        "就这样",
        -9.634590725931853
      ],
      [
        "结婚了",
        -9.636011056798928
      ],
      [
        "明确",
        -9.636075417424546
      ],
      [
        "吐",
        -9.63618060298766
      ],
      [
        "巨",
        -9.636343321212305
      ],
      [
        "赚钱",
        -9.636859933296018
      ],
      [
        "面子",
        -9.637141693879016
      ],
      [
        " 被",
        -9.63754223728769
      ],
      [
        "骑",
        -9.637679559700175
      ],
      [
        " 这不是",
        -9.637864849200295
      ],
      [
        "道理",
        -9.637905249689958
      ],
      [
        "中国人",
        -9.638219597792315
      ],
      [
        "做饭",
        -9.638962723548616
      ],
      [
        "事件",
        -9.639359674868802
      ],
      [
        "止",
        -9.63998367976961
      ],
      [
        "你妈",
        -9.640211540828046
      ],
      [
        "奔",
        -9.641041957777146
      ],
      [
        "网友",
        -9.642358635263859
      ],
      [
        " 根据",
        -9.642899398588202
      ],
      [
        "碰到",
        -9.643424133248239
      ],
      [
        "想起",
        -9.64453902035353
      ],
      [
        "脑子",
        -9.644601772447228
      ],
      [
        "交通",
        -9.64466096038049
      ],
      [
        "让他们",
        -9.644715438973854
      ],
      [
        "两百",
        -9.644854964139636
      ],
      [
        "跑了",
        -9.645022076090939
      ],
      [
        "不信",
        -9.645928550715277
      ],
      [
        " 可是我",
        -9.646426206052617
      ],
      [
        "性格",
        -9.647085193918883
      ],
      [
        "小心",
        -9.647150266017224
      ],
      [
        "证券",
        -9.647296690764392
      ],
      [
        "壮",
        -9.648598171720824
      ],
      [
        "随时",
        -9.648878473456634
      ],
      [
        " 最",
        -9.64889528567635
      ],
      [
        "即",
        -9.648968283924063
      ],
      [
        "净",
        -9.649194141336839
      ],
      [
        " 直到",
        -9.64941782689674
      ],
      [
        "推荐",
        -9.649699158701788
      ],
      [
        "试试",
        -9.650298504547633
      ],
      [
        " 你会",
        -9.650512292999942
      ],
      [
        "基",
        -9.650765179843958
      ],
      [
        "彻底",
        -9.650852651326865
      ],
      [
        "仔细",
        -9.65145267980688
      ],
      [
        "饿",
        -9.651910906388421
      ],
      [
        "问问",
        -9.652267906282187
      ],
      [
        "加油",
        -9.652624082411307
      ],
      [
        "看他",
        -9.65275132376523
      ],
      [
        "不知",
        -9.65298916572122
      ],
      [
        "小姑娘",
        -9.653591937979893
      ],
      [
        " 让他",
        -9.653608464183918
      ],
      [
        "将来",
        -9.654167707964746
      ],
      [
        "锁",
        -9.654686019047439
      ],
      [
        "这首歌",
        -9.654735583262976
      ],
      [
        "股份",
        -9.654788305027036
      ],
      [
        "大部分",
        -9.654809638509994
      ],
      [
        " 或者是",
        -9.655429972354288
      ],
      [
        "对自己",
        -9.656599255462726
      ],
      [
        "唯一",
        -9.656665701390942
      ],
      [
        "似乎",
        -9.656813908388795
      ],
      [
        "缘",
        -9.65724164431484
      ],
      [
        "证据",
        -9.65745265668591
      ],
      [
        "划",
        -9.65767073559035
      ],
      [
        " 他也",
        -9.657784666401698
      ],
      [
        "冬",
        -9.657857874409542
      ],
      [
        " 为",
        -9.659290066988534
      ],
      [
        "征",
        -9.659334204938332
      ],
      [
        "去看",
        -9.660354540712536
      ],
      [
        "什么的",
        -9.66035780386609
      ],
      [
        " 我跟你说",
        -9.660381146818036
      ],
      [
        "奶",
        -9.66058106398702
      ],
      [
        "月亮",
        -9.660930776185477
      ],
      [
        "功能",
        -9.661129301758187
      ],
      [
        " 我跟",
        -9.661321203152692
      ],
      [
        "四点",
        -9.661760767846841
      ],
      [
        "特别好",
        -9.662595025506938
      ],
      [
        "遇",
        -9.662763160655567
      ],
      [
        "起来了",
        -9.66279086206194
      ],
      [
        "塞",
        -9.662809943795164
      ],
      [
        " 太",
        -9.66300730671951
      ],
      [
        "好啊",
        -9.663557460491479
      ],
      [
        "暂时",
        -9.663636848811066
      ],
      [
        "价值",
        -9.66377141464365
      ],
      [
        "规模",
        -9.664610064987144
      ],
      [
        "谋",
        -9.665444163463018
      ],
      [
        "行吗",
        -9.666400665865952
      ],
      [
        "产业",
        -9.666660430253822
      ],
      [
        "用户",
        -9.667072382685664
      ],
      [
        "聚",
        -9.66738140521004
      ],
      [
        "三月",
        -9.667521552194493
      ],
      [
        "式",
        -9.668637408696714
      ],
      [
        "测",
        -9.668748070273224
      ],
      [
        "很大",
        -9.668860990690984
      ],
      [
        " 你好",
        -9.669685709319342
      ],
      [
        "郎",
        -9.669761613292849
      ],
      [
        "八十",
        -9.669791442078441
      ],
      [
        "醒",
        -9.669795981979284
      ],
      [
        "伟",
        -9.669991656429072
      ],
      [
        "耳",
        -9.670065682412703
      ],
      [
        "同样",
        -9.670125928522815
      ],
      [
        "什么事儿",
        -9.670214272258175
      ],
      [
        "搜",
        -9.670362701078059
      ],
      [
        "赔",
        -9.670528414514205
      ],
      [
        " 晚上",
        -9.670850262141453
      ],
      [
        "眼里",
        -9.671055522579342
      ],
      [
        "干净",
        -9.671578982308407
      ],
      [
        "道歉",
        -9.671797843426111
      ],
      [
        "瓜",
        -9.671996656195418
      ],
      [
        "甲",
        -9.672975601788455
      ],
      [
        "勇",
        -9.673992032753212
      ],
      [
        "鼓",
        -9.674397438168938
      ],
      [
        "惨",
        -9.674437981493174
      ],
      [
        "开车",
        -9.67455156694095
      ],
      [
        "没有什么",
        -9.674779283649539
      ],
      [
        "扯",
        -9.67487565328742
      ],
      [
        "赢",
        -9.675345980228846
      ],
      [
        " 接下来",
        -9.675588767768538
      ],
      [
        "采",
        -9.675655760859243
      ],
      [
        "相亲",
        -9.675858657528309
      ],
      [
        "中医",
        -9.67591471528573
      ],
      [
        "法律",
        -9.676341477321216
      ],
      [
        "找不到",
        -9.678079106855044
      ],
      [
        "插",
        -9.678903520475203
      ],
      [
        "这个事情",
        -9.679204322215266
      ],
      [
        "找一个",
        -9.679226454579387
      ],
      [
        "险",
        -9.679264421439111
      ],
      [
        "奥",
        -9.679462534388966
      ],
      [
        "一名",
        -9.680022965132975
      ],
      [
        " 唉呀",
        -9.68056665549155
      ],
      [
        "纠结",
        -9.680623536266907
      ],
      [
        "箱",
        -9.680627961058942
      ],
      [
        "四个",
        -9.680844143076097
      ],
      [
        "理由",
        -9.681192667458422
      ],
      [
        " 我怎么",
        -9.681252564100125
      ],
      [
        " 二",
        -9.681538811057786
      ],
      [
        "就有",
        -9.68180069042797
      ],
      [
        "回忆",
        -9.681854343274154
      ],
      [
        "从来不",
        -9.68285093828806
      ],
      [
        "三天",
        -9.683784023193201
      ],
      [
        "那里",
        -9.684182585494062
      ],
      [
        "印象",
        -9.68454569320992
      ],
      [
        "这个女人",
        -9.684614469198007
      ],
      [
        "贷款",
        -9.68486579229309
      ],
      [
        "之下",
        -9.685156561484234
      ],
      [
        "就开始",
        -9.68534879166575
      ],
      [
        "丰",
        -9.685518552234223
      ],
      [
        "俗",
        -9.686199900459506
      ],
      [
        "目的",
        -9.686354356937613
      ],
      [
        "等你",
        -9.686821750364622
      ],
      [
        " 要不然",
        -9.686870090162362
      ],
      [
        "请你",
        -9.686905382387305
      ],
      [
        "看过",
        -9.687915812959986
      ],
      [
        "咋的",
        -9.688313291260123
      ],
      [
        "单身",
        -9.688505945214747
      ],
      [
        "的心",
        -9.688641068981116
      ],
      [
        "不应该",
        -9.688975384177507
      ],
      [
        " 那就是",
        -9.689251302093282
      ],
      [
        "阳光",
        -9.689348617551818
      ],
      [
        "说得",
        -9.689571199019325
      ],
      [
        "路上",
        -9.690406901611423
      ],
      [
        "喂",
        -9.690650737735481
      ],
      [
        "需",
        -9.691373844557933
      ],
      [
        "撤",
        -9.692066283743184
      ],
      [
        "腾",
        -9.692312021195534
      ],
      [
        "承担",
        -9.692452737090752
      ],
      [
        "射",
        -9.69262095071695
      ],
      [
        "高考",
        -9.692668531790536
      ],
      [
        "脏",
        -9.69309700987429
      ],
      [
        "创新",
        -9.693846973538061
      ],
      [
        "铺",
        -9.694479207118038
      ],
      [
        "最高",
        -9.694959707008966
      ],
      [
        "郑",
        -9.695412682868714
      ],
      [
        " 我爸",
        -9.695487237018845
      ],
      [
        "置",
        -9.695502887973438
      ],
      [
        "起了",
        -9.695521509955972
      ],
      [
        "展",
        -9.695950420343944
      ],
      [
        "的想法",
        -9.696732371049183
      ],
      [
        "对待",
        -9.696764643913351
      ],
      [
        " 每",
        -9.696819681668856
      ],
      [
        "程度",
        -9.696841193772048
      ],
      [
        "豆",
        -9.69689608201315
      ],
      [
        "两天",
        -9.696946628559363
      ],
      [
        "当地",
        -9.697290133013306
      ],
      [
        "听了",
        -9.697339442253105
      ],
      [
        "看起来",
        -9.698099579610304
      ],
      [
        "我来",
        -9.698119878078522
      ],
      [
        "冒",
        -9.698282503398627
      ],
      [
        "司机",
        -9.698607671918552
      ],
      [
        "遗憾",
        -9.698682123155216
      ],
      [
        "复杂",
        -9.698776405136812
      ],
      [
        "闺蜜",
        -9.700964196951878
      ],
      [
        "物质",
        -9.700981407537723
      ],
      [
        "双方",
        -9.701421724954791
      ],
      [
        "上学",
        -9.701510060766271
      ],
      [
        "死亡",
        -9.702112768292686
      ],
      [
        "吸",
        -9.702396916647004
      ],
      [
        "砸",
        -9.702680467863164
      ],
      [
        "传统",
        -9.702838733882832
      ],
      [
        "小时候",
        -9.703119188481981
      ],
      [
        "很少",
        -9.703826026598676
      ],
      [
        "炸",
        -9.703933717282526
      ],
      [
        "珍惜",
        -9.70441069330084
      ],
      [
        " 我没",
        -9.70445102977944
      ],
      [
        "科学",
        -9.704826437285602
      ],
      [
        "十八",
        -9.70482936612801
      ],
      [
        "阵",
        -9.704867805286238
      ],
      [
        "三千",
        -9.705060044635118
      ],
      [
        "知道你",
        -9.705177770282432
      ],
      [
        "胸",
        -9.705711497674749
      ],
      [
        "就算",
        -9.706339318310878
      ],
      [
        "效果",
        -9.706391556006135
      ],
      [
        "既",
        -9.706484236858692
      ],
      [
        "师父",
        -9.706554301359743
      ],
      [
        "事实",
        -9.706605826344198
      ],
      [
        "积",
        -9.707198468498607
      ],
      [
        "我跟你说",
        -9.707435070624339
      ],
      [
        "全都",
        -9.707608192241175
      ],
      [
        " 杨",
        -9.707799453493118
      ],
      [
        " 一定要",
        -9.708340839950882
      ],
      [
        "你不",
        -9.70841688117072
      ],
      [
        " 那些",
        -9.708551396148064
      ],
      [
        "据",
        -9.708591438966764
      ],
      [
        "去看看",
        -9.710099091558714
      ],
      [
        "哼",
        -9.710156063138191
      ],
      [
        "顿",
        -9.710411384641077
      ],
      [
        "微博",
        -9.71046292061828
      ],
      [
        "什么意思",
        -9.710626231813993
      ],
      [
        "宇",
        -9.71073096738077
      ],
      [
        "还挺",
        -9.710975437680656
      ],
      [
        " 人生",
        -9.711660967981128
      ],
      [
        "庆",
        -9.711666969830176
      ],
      [
        " 我可以",
        -9.711811739239792
      ],
      [
        "意见",
        -9.711985081872406
      ],
      [
        "知道吗",
        -9.712470888537805
      ],
      [
        "哟",
        -9.713336893781063
      ],
      [
        "第",
        -9.713975658459066
      ],
      [
        "酒店",
        -9.714052473699777
      ],
      [
        "曹",
        -9.714128433061932
      ],
      [
        "魏",
        -9.714204651551333
      ],
      [
        "几乎",
        -9.714332177814937
      ],
      [
        "会议",
        -9.714546837528669
      ],
      [
        "登",
        -9.715168459742468
      ],
      [
        "说明",
        -9.715891216593715
      ],
      [
        "佳",
        -9.71610729019099
      ],
      [
        "的话呢",
        -9.716475285684776
      ],
      [
        "快递",
        -9.71670904627334
      ],
      [
        " 我不是",
        -9.716749650427712
      ],
      [
        "概念",
        -9.717133247752884
      ],
      [
        "左",
        -9.71732032685922
      ],
      [
        "务",
        -9.717343252042792
      ],
      [
        "没有任何",
        -9.717368955491139
      ],
      [
        "哥们儿",
        -9.717635799698519
      ],
      [
        "的态度",
        -9.717755558616748
      ],
      [
        "二零一九年",
        -9.718821850978301
      ],
      [
        "力量",
        -9.71985543248191
      ],
      [
        "醉",
        -9.720010691061344
      ],
      [
        "含",
        -9.720128658257284
      ],
      [
        "医疗",
        -9.720133642071701
      ],
      [
        "什么东西",
        -9.720253862677087
      ],
      [
        "也能",
        -9.720713098138312
      ],
      [
        "电脑",
        -9.721511139207365
      ],
      [
        "意外",
        -9.722225638879294
      ],
      [
        "好好的",
        -9.722302390624726
      ],
      [
        "留在",
        -9.722497622397416
      ],
      [
        "凯",
        -9.72293578942521
      ],
      [
        "成绩",
        -9.723499104012323
      ],
      [
        "吃的",
        -9.723960623716213
      ],
      [
        "之一",
        -9.723994466393886
      ],
      [
        "认真",
        -9.724006302928718
      ],
      [
        "专门",
        -9.724292908685882
      ],
      [
        "仁",
        -9.724691130352515
      ],
      [
        "领域",
        -9.724767018911969
      ],
      [
        "交给",
        -9.726189890108252
      ],
      [
        "判断",
        -9.726594747653625
      ],
      [
        "坑",
        -9.727036556624569
      ],
      [
        "环",
        -9.727225385900335
      ],
      [
        "英国",
        -9.728390590928761
      ],
      [
        "拿到",
        -9.728550631199031
      ],
      [
        "催",
        -9.728799189227633
      ],
      [
        "隐",
        -9.728961992349914
      ],
      [
        " 好好",
        -9.728997857748919
      ],
      [
        "众",
        -9.72918195516148
      ],
      [
        "遍",
        -9.729730028853979
      ],
      [
        "政治",
        -9.73014365363564
      ],
      [
        " 这位",
        -9.730206335573815
      ],
      [
        "五点",
        -9.730217748112963
      ],
      [
        "今",
        -9.730497337175368
      ],
      [
        "另外",
        -9.730506129876002
      ],
      [
        "这么做",
        -9.73209823019793
      ],
      [
        "庄",
        -9.732172800003712
      ],
      [
        "慌",
        -9.732305965737583
      ],
      [
        " 我今天",
        -9.732777546121183
      ],
      [
        "撑",
        -9.732819157022552
      ],
      [
        "有问题",
        -9.732946102059241
      ],
      [
        "尖",
        -9.733514788751288
      ],
      [
        "知道我",
        -9.733518208985593
      ],
      [
        "又是",
        -9.733526886657135
      ],
      [
        "在外面",
        -9.733573456771932
      ],
      [
        "也在",
        -9.733941840734651
      ],
      [
        " 大家好",
        -9.734365638332916
      ],
      [
        "主意",
        -9.734679591453933
      ],
      [
        "困",
        -9.734712779038478
      ],
      [
        "毛病",
        -9.734774377302754
      ],
      [
        "孩子们",
        -9.7351296503114
      ],
      [
        "宣",
        -9.735501754103657
      ],
      [
        "客户",
        -9.73573443088354
      ],
      [
        "涨",
        -9.735982740894666
      ],
      [
        "抱怨",
        -9.736028962509359
      ],
      [
        "觉得你",
        -9.736128821634335
      ],
      [
        "这样一个",
        -9.73645451222949
      ],
      [
        "作用",
        -9.73663876763517
      ],
      [
        "答案",
        -9.736929050335828
      ],
      [
        " 哪怕",
        -9.736967987201805
      ],
      [
        "花钱",
        -9.737130192122562
      ],
      [
        "评",
        -9.737332427371925
      ],
      [
        "报道",
        -9.737978309486799
      ],
      [
        "想办法",
        -9.738091467469122
      ],
      [
        "艺术",
        -9.73813285345106
      ],
      [
        "休",
        -9.738318490660255
      ],
      [
        "司令",
        -9.739239644739262
      ],
      [
        "一口",
        -9.73946649625567
      ],
      [
        "稍微",
        -9.739677963780206
      ],
      [
        "也许",
        -9.739954109122944
      ],
      [
        " 每次",
        -9.740035638346047
      ],
      [
        "就是一个",
        -9.74031765764953
      ],
      [
        "在那儿",
        -9.741275363651514
      ],
      [
        "途",
        -9.741444024832855
      ],
      [
        "常常",
        -9.742258692008622
      ],
      [
        "错误",
        -9.743229589291856
      ],
      [
        "觉得我",
        -9.743372299763072
      ],
      [
        "尾",
        -9.744094295767324
      ],
      [
        "不必",
        -9.74418289101451
      ],
      [
        "朋友们",
        -9.744792344419647
      ],
      [
        "状况",
        -9.7448397595175
      ],
      [
        "妹",
        -9.745060522337514
      ],
      [
        "再来",
        -9.745279553664666
      ],
      [
        "旅行",
        -9.745317364814252
      ],
      [
        "税",
        -9.745341699641955
      ],
      [
        "井",
        -9.745402001186005
      ],
      [
        "其他的",
        -9.745705461221675
      ],
      [
        "劲儿",
        -9.746166189197382
      ],
      [
        "干啥",
        -9.747242120196153
      ],
      [
        "造成",
        -9.747314985573599
      ],
      [
        "速",
        -9.747393707849366
      ],
      [
        "凶",
        -9.747695635598571
      ],
      [
        "供",
        -9.748237183897757
      ],
      [
        "一面",
        -9.748459549107295
      ],
      [
        "写的",
        -9.748479587351351
      ],
      [
        "讨厌",
        -9.748684039133547
      ],
      [
        "发生了",
        -9.749516688910601
      ],
      [
        "尴尬",
        -9.74959615802662
      ],
      [
        "戒",
        -9.750013578330675
      ],
      [
        "思考",
        -9.750350677643986
      ],
      [
        "指数",
        -9.751137047393776
      ],
      [
        "始终",
        -9.751730783262317
      ],
      [
        "烂",
        -9.751991387554817
      ],
      [
        "内容",
        -9.75282375809724
      ],
      [
        "信任",
        -9.753541010197518
      ],
      [
        "不像",
        -9.753787891886827
      ],
      [
        "一顿",
        -9.753877656735282
      ],
      [
        "滑",
        -9.753931993911708
      ],
      [
        "杜",
        -9.7550145711593
      ],
      [
        "的状态",
        -9.755113035744342
      ],
      [
        "安慰",
        -9.755122961545434
      ],
      [
        "尝试",
        -9.755294245855628
      ],
      [
        "狐狸",
        -9.755619197871512
      ],
      [
        "跟他们",
        -9.756243316796146
      ],
      [
        "这不是",
        -9.756283173240611
      ],
      [
        " 大哥",
        -9.75656088170506
      ],
      [
        "爆",
        -9.756916548419706
      ],
      [
        "往往",
        -9.758221776919822
      ],
      [
        "有的时候",
        -9.758797142041331
      ],
      [
        "很快",
        -9.758988293784189
      ],
      [
        "王子",
        -9.75916811898461
      ],
      [
        "伤心",
        -9.759621286303101
      ],
      [
        "记者",
        -9.760732251268259
      ],
      [
        "刑",
        -9.762269304398053
      ],
      [
        "嘉",
        -9.763417956592669
      ],
      [
        "西安",
        -9.763712436351746
      ],
      [
        "八点",
        -9.764022216369165
      ],
      [
        "有意思",
        -9.764526187771953
      ],
      [
        "仇",
        -9.764800875850515
      ],
      [
        "少爷",
        -9.765673703416635
      ],
      [
        "不舒服",
        -9.76670795107787
      ],
      [
        "细节",
        -9.766933983261126
      ],
      [
        "很重要",
        -9.766987851057621
      ],
      [
        "不是我",
        -9.768908478023299
      ],
      [
        "更好的",
        -9.769377521884929
      ],
      [
        "亲戚",
        -9.769710993173664
      ],
      [
        "简",
        -9.769721049670206
      ],
      [
        "把她",
        -9.769793059677019
      ],
      [
        "善良",
        -9.77036824853765
      ],
      [
        "脑袋",
        -9.770452048043104
      ],
      [
        "珠",
        -9.770457560354735
      ],
      [
        " 这是我",
        -9.77074346992418
      ],
      [
        "我给你",
        -9.770759349203331
      ],
      [
        "不出来",
        -9.770976022850782
      ],
      [
        "菲",
        -9.773172457084016
      ],
      [
        "羡慕",
        -9.773292074711879
      ],
      [
        "耳朵",
        -9.77360907532929
      ],
      [
        "失望",
        -9.773654727011689
      ],
      [
        "时期",
        -9.773826703652214
      ],
      [
        "不仅",
        -9.774188836179134
      ],
      [
        "生活的",
        -9.774401147376885
      ],
      [
        "公司的",
        -9.774697355483323
      ],
      [
        "不相信",
        -9.774950179141573
      ],
      [
        "赖",
        -9.775062361810683
      ],
      [
        "故",
        -9.775221342777488
      ],
      [
        "一个小",
        -9.776254104991398
      ],
      [
        "连麦",
        -9.776477591790396
      ],
      [
        "送给",
        -9.776807731646741
      ],
      [
        "炒",
        -9.776986769635487
      ],
      [
        "建筑",
        -9.777824386477143
      ],
      [
        "实际",
        -9.778210153843911
      ],
      [
        "特别的",
        -9.778514328794053
      ],
      [
        "在意",
        -9.779384684244725
      ],
      [
        "资产",
        -9.779545171412819
      ],
      [
        "优秀",
        -9.779708368172475
      ],
      [
        " 即使",
        -9.779770887198161
      ],
      [
        " 周",
        -9.780131378655671
      ],
      [
        "好朋友",
        -9.780647809110214
      ],
      [
        "答",
        -9.780787725243414
      ],
      [
        "秘密",
        -9.781285316041263
      ],
      [
        "真的很",
        -9.781421403486128
      ],
      [
        "故意",
        -9.782045534885974
      ],
      [
        "形成",
        -9.782282738159562
      ],
      [
        "星期",
        -9.782884415574696
      ],
      [
        "艺",
        -9.783135779195927
      ],
      [
        "实施",
        -9.783790168167155
      ],
      [
        "出发",
        -9.78549061161007
      ],
      [
        "其实是",
        -9.785703115794368
      ],
      [
        "到这儿",
        -9.785829551232382
      ],
      [
        "及时",
        -9.786330780145246
      ],
      [
        "杀人",
        -9.786463602702698
      ],
      [
        "我没",
        -9.786887289932778
      ],
      [
        "有一",
        -9.787053428684942
      ],
      [
        "一旦",
        -9.787357499707014
      ],
      [
        "废",
        -9.787637199246515
      ],
      [
        "身份",
        -9.78882037663232
      ],
      [
        "合适",
        -9.789044549339074
      ],
      [
        "顺利",
        -9.78932651018955
      ],
      [
        "听过",
        -9.791280858858457
      ],
      [
        "有事",
        -9.791487704873163
      ],
      [
        "仍然",
        -9.79150916740111
      ],
      [
        "厅",
        -9.79174968119101
      ],
      [
        "乔",
        -9.791785819343268
      ],
      [
        "就跟",
        -9.791860491243202
      ],
      [
        "脸上",
        -9.791921157326264
      ],
      [
        "你都",
        -9.792150521191397
      ],
      [
        "还记得",
        -9.792368766742054
      ],
      [
        "识",
        -9.792438077486867
      ],
      [
        "记录",
        -9.792511981892861
      ],
      [
        "理想",
        -9.792678683287104
      ],
      [
        "最重要的",
        -9.793053441749098
      ],
      [
        " 我当时",
        -9.793361351988288
      ],
      [
        "不明白",
        -9.794395436352918
      ],
      [
        "牺牲",
        -9.79441640994154
      ],
      [
        "嫂子",
        -9.794663403773809
      ],
      [
        "貌",
        -9.794930488603022
      ],
      [
        "非要",
        -9.79498235344506
      ],
      [
        "便宜",
        -9.79519020298076
      ],
      [
        "资",
        -9.795202255830183
      ],
      [
        "童",
        -9.795348378397764
      ],
      [
        "到最后",
        -9.79539103982767
      ],
      [
        "就是他",
        -9.796250842973365
      ],
      [
        "荣",
        -9.796269385044155
      ],
      [
        "感觉到",
        -9.796824972887283
      ],
      [
        "感染",
        -9.797223048554585
      ],
      [
        "爸爸妈妈",
        -9.797926421689592
      ],
      [
        "飘",
        -9.798191180506471
      ],
      [
        " 你先",
        -9.798590180828509
      ],
      [
        "遇见",
        -9.798610920029109
      ],
      [
        "是最",
        -9.798678743920023
      ],
      [
        "美好",
        -9.799093979169822
      ],
      [
        " 总",
        -9.799813990873636
      ],
      [
        "重要的",
        -9.799904041816681
      ],
      [
        "我告诉你",
        -9.800021903869805
      ],
      [
        " 若",
        -9.800140547661698
      ],
      [
        "听我",
        -9.800887624342124
      ],
      [
        "回复",
        -9.801283700382072
      ],
      [
        "再去",
        -9.801461643071463
      ],
      [
        " 而不是",
        -9.802245429135787
      ],
      [
        " 你说我",
        -9.802771220787037
      ],
      [
        "我是张德芬",
        -9.803648308524371
      ],
      [
        " 各位",
        -9.805707770545911
      ],
      [
        "谁都",
        -9.805753970888812
      ],
      [
        "抓住",
        -9.805849205672597
      ],
      [
        "心疼",
        -9.806459368929113
      ],
      [
        "评论",
        -9.806874363524578
      ],
      [
        "弯",
        -9.80705480265894
      ],
      [
        "获",
        -9.807270937976728
      ],
      [
        "不同意",
        -9.80753796206194
      ],
      [
        "措施",
        -9.807698619484839
      ],
      [
        "焦虑",
        -9.807701902558751
      ],
      [
        "贤",
        -9.808327472211658
      ],
      [
        "潮",
        -9.808422822166719
      ],
      [
        "每个人",
        -9.808440312562187
      ],
      [
        " 没事",
        -9.808552522474718
      ],
      [
        " 就是你",
        -9.808711656741789
      ],
      [
        "非常的",
        -9.80988848060305
      ],
      [
        "七月",
        -9.810191405857404
      ],
      [
        "琴",
        -9.810198164866097
      ],
      [
        "贼",
        -9.8102395186189
      ],
      [
        "生活中",
        -9.810666749787565
      ],
      [
        "到底是",
        -9.811044553497682
      ],
      [
        "泰",
        -9.811312937460674
      ],
      [
        " 才",
        -9.811385627210917
      ],
      [
        "本来",
        -9.81205171161652
      ],
      [
        "一大",
        -9.812122470492575
      ],
      [
        "一开始",
        -9.812625495969849
      ],
      [
        "语言",
        -9.813089113893003
      ],
      [
        "泥",
        -9.81329914670182
      ],
      [
        " 尤其是",
        -9.81334789437928
      ],
      [
        "案件",
        -9.813734196966024
      ],
      [
        "九十",
        -9.814198429097116
      ],
      [
        "四百",
        -9.814832221440748
      ],
      [
        "勤",
        -9.815331132714075
      ],
      [
        "横",
        -9.815356254903689
      ],
      [
        "眼泪",
        -9.815724301067313
      ],
      [
        "方便",
        -9.815880313131089
      ],
      [
        " 但是呢",
        -9.816204050566533
      ],
      [
        "看一下",
        -9.816769886574349
      ],
      [
        "的能力",
        -9.816961218342843
      ],
      [
        "不爱",
        -9.817011672752521
      ],
      [
        "分别",
        -9.817178686647168
      ],
      [
        "质量",
        -9.817806644229705
      ],
      [
        "司",
        -9.8183628257554
      ],
      [
        "六点",
        -9.818459954141797
      ],
      [
        "引起",
        -9.818737621098325
      ],
      [
        "这样子",
        -9.81926271460813
      ],
      [
        "不许",
        -9.819266113991844
      ],
      [
        "颜",
        -9.819482280146081
      ],
      [
        "肝",
        -9.819854976989069
      ],
      [
        "刺",
        -9.820068584483382
      ],
      [
        "汗",
        -9.820499306885974
      ],
      [
        "石头",
        -9.82065127985394
      ],
      [
        "都不会",
        -9.820894332361213
      ],
      [
        "高中",
        -9.82129120768805
      ],
      [
        "售",
        -9.821472272214734
      ],
      [
        "可爱",
        -9.821571486487015
      ],
      [
        "女孩儿",
        -9.822025603205752
      ],
      [
        "因素",
        -9.822082178465376
      ],
      [
        "给了",
        -9.822231315683503
      ],
      [
        "必须要",
        -9.822522554954524
      ],
      [
        "没有人",
        -9.822599247917317
      ],
      [
        " 我没有",
        -9.822842145575674
      ],
      [
        "怒",
        -9.823058572134475
      ],
      [
        "原则",
        -9.823300556784101
      ],
      [
        "十三",
        -9.823418599435483
      ],
      [
        "咖啡",
        -9.8239959969752
      ],
      [
        "你在",
        -9.824909451445548
      ],
      [
        "不成",
        -9.82492154651236
      ],
      [
        "笨",
        -9.825020791887408
      ],
      [
        "人才",
        -9.825547044837007
      ],
      [
        "给他们",
        -9.825954383097248
      ],
      [
        "你能",
        -9.826128524927285
      ],
      [
        " 两个人",
        -9.826212557565793
      ],
      [
        "禁",
        -9.826447904108225
      ],
      [
        "是想",
        -9.826581836019214
      ],
      [
        "青春",
        -9.82706176697193
      ],
      [
        "早上",
        -9.827313238390824
      ],
      [
        "忘记",
        -9.827815732770956
      ],
      [
        "胃",
        -9.827834881330304
      ],
      [
        "一颗",
        -9.828758690244616
      ],
      [
        "末",
        -9.829748584613972
      ],
      [
        "连续",
        -9.829818369475435
      ],
      [
        "在你",
        -9.830164368898245
      ],
      [
        "不足",
        -9.830191356421047
      ],
      [
        "是什么呢",
        -9.830259717071884
      ],
      [
        "示",
        -9.831789464323993
      ],
      [
        "冷静",
        -9.83194293783369
      ],
      [
        "你觉得",
        -9.831956528111945
      ],
      [
        "这个事儿",
        -9.832395574158738
      ],
      [
        "那我",
        -9.832505638259889
      ],
      [
        "武汉",
        -9.83256770138794
      ],
      [
        "呆",
        -9.83318171207809
      ],
      [
        " 才能",
        -9.833348878440173
      ],
      [
        "我家",
        -9.833699696478373
      ],
      [
        "一首",
        -9.834005779874264
      ],
      [
        "资源",
        -9.834528420183593
      ],
      [
        "不是你",
        -9.834548129387262
      ],
      [
        " 将",
        -9.83472371429303
      ],
      [
        "住在",
        -9.835145875186054
      ],
      [
        "伊",
        -9.83534560673158
      ],
      [
        "媒体",
        -9.8360990346931
      ],
      [
        "甘",
        -9.83672104835485
      ],
      [
        "刻",
        -9.836983532284446
      ],
      [
        "抱着",
        -9.837320874024192
      ],
      [
        "粗",
        -9.837399286022627
      ],
      [
        " 那我就",
        -9.837737027480514
      ],
      [
        "干了",
        -9.837757199362883
      ],
      [
        "俺",
        -9.838012454535324
      ],
      [
        "周围",
        -9.838028309278766
      ],
      [
        "今天的",
        -9.838575161334454
      ],
      [
        "凤",
        -9.838710708061697
      ],
      [
        "多久",
        -9.8389109877546
      ],
      [
        "中国的",
        -9.8390857648611
      ],
      [
        " 下面",
        -9.839196646226242
      ],
      [
        "资料",
        -9.840230030754634
      ],
      [
        "听见",
        -9.840511603033356
      ],
      [
        "你可以",
        -9.840558799620126
      ],
      [
        " 大家都",
        -9.841306908214687
      ],
      [
        "贝",
        -9.841319148327505
      ],
      [
        "肠",
        -9.841340177680824
      ],
      [
        "又不是",
        -9.84208729963346
      ],
      [
        "没钱",
        -9.842369279053704
      ],
      [
        "六百",
        -9.842524624485879
      ],
      [
        " 我给你",
        -9.842963471622635
      ],
      [
        "判",
        -9.843011471496457
      ],
      [
        "杂",
        -9.843083722918841
      ],
      [
        "工程",
        -9.843100299026258
      ],
      [
        "提到",
        -9.843268583108063
      ],
      [
        "千万",
        -9.843320337323846
      ],
      [
        "行不行",
        -9.843633994657495
      ],
      [
        "我看",
        -9.843652691373093
      ],
      [
        "辞",
        -9.843721741540955
      ],
      [
        "缓",
        -9.84374003496223
      ],
      [
        "伴",
        -9.84392054076064
      ],
      [
        "京",
        -9.844002137894298
      ],
      [
        "地上",
        -9.844354292230364
      ],
      [
        "一路",
        -9.844669955787339
      ],
      [
        "哎呀",
        -9.84482794327771
      ],
      [
        "的位置",
        -9.844974325995404
      ],
      [
        "平安",
        -9.845266708718292
      ],
      [
        "启",
        -9.845386568151124
      ],
      [
        "趁",
        -9.845876641800654
      ],
      [
        "贪",
        -9.84595759996525
      ],
      [
        " 你在",
        -9.84619691801656
      ],
      [
        "挤",
        -9.846618975626626
      ],
      [
        "资格",
        -9.84678343841291
      ],
      [
        "嫌",
        -9.84716530947789
      ],
      [
        "之中",
        -9.847377264329946
      ],
      [
        "这样的一个",
        -9.847470881062833
      ],
      [
        "数字",
        -9.848321089906616
      ],
      [
        "这个时候",
        -9.848852099094213
      ],
      [
        "帝",
        -9.848858941684338
      ],
      [
        "的儿子",
        -9.84947584691764
      ],
      [
        "在哪里",
        -9.849559745101482
      ],
      [
        "你们的",
        -9.84972599429106
      ],
      [
        "赏",
        -9.849902187279138
      ],
      [
        "姜",
        -9.8499323012788
      ],
      [
        "七点",
        -9.84996096491042
      ],
      [
        "购",
        -9.850452980323581
      ],
      [
        "对我们",
        -9.851286602192568
      ],
      [
        "闯",
        -9.851925787222953
      ],
      [
        "不清楚",
        -9.852010742901673
      ],
      [
        "出生",
        -9.85243425403668
      ],
      [
        "墨",
        -9.852591123217632
      ],
      [
        "妖",
        -9.852633636971687
      ],
      [
        "亿美元",
        -9.853100896208556
      ],
      [
        "好多",
        -9.853409511213684
      ],
      [
        "仅",
        -9.853423736434534
      ],
      [
        "为啥",
        -9.85356315141678
      ],
      [
        "逗",
        -9.853923124697337
      ],
      [
        "网上",
        -9.854232002658716
      ],
      [
        "还想",
        -9.854245879801043
      ],
      [
        "思想",
        -9.855147768326736
      ],
      [
        "说这个",
        -9.85528445411439
      ],
      [
        "呼",
        -9.855504403701264
      ],
      [
        "战争",
        -9.855952730141022
      ],
      [
        "年代",
        -9.856116257914794
      ],
      [
        "这一点",
        -9.856130695956514
      ],
      [
        "收听",
        -9.85699717594279
      ],
      [
        "确实是",
        -9.857141656562673
      ],
      [
        "捡",
        -9.857260911383804
      ],
      [
        "怨",
        -9.857504091864023
      ],
      [
        "团队",
        -9.857822989029165
      ],
      [
        "术",
        -9.858246418687273
      ],
      [
        "至少",
        -9.858687831666803
      ],
      [
        "我不知道",
        -9.858817819840514
      ],
      [
        "兄",
        -9.858886552160829
      ],
      [
        "这些东西",
        -9.859154996981012
      ],
      [
        "敏",
        -9.859188165674217
      ],
      [
        "八百",
        -9.85930623035684
      ],
      [
        "纯",
        -9.859646780945042
      ],
      [
        "的一种",
        -9.860582775068501
      ],
      [
        "隆",
        -9.860597482660236
      ],
      [
        "鼓励",
        -9.860613826575364
      ],
      [
        " 我去",
        -9.860649136205742
      ],
      [
        "没错",
        -9.860713785586796
      ],
      [
        "命运",
        -9.860753659569408
      ],
      [
        "邀请",
        -9.861027941678298
      ],
      [
        "赶快",
        -9.861378997027822
      ],
      [
        "经理",
        -9.8617002571665
      ],
      [
        "针对",
        -9.862366860132354
      ],
      [
        "送到",
        -9.86243718639902
      ],
      [
        "勇敢",
        -9.86284096113068
      ],
      [
        "谢谢你",
        -9.863129769944726
      ],
      [
        " 赶紧",
        -9.8634061643695
      ],
      [
        "是非常",
        -9.86388961527679
      ],
      [
        "他人",
        -9.864090613924057
      ],
      [
        "原谅",
        -9.864461331692837
      ],
      [
        "五月",
        -9.864804089940666
      ],
      [
        "导演",
        -9.865801299708476
      ],
      [
        "激动",
        -9.865841476014594
      ],
      [
        "一部分",
        -9.866332511908755
      ],
      [
        "看来",
        -9.866548909341574
      ],
      [
        "老大",
        -9.866672967086998
      ],
      [
        "相对",
        -9.866738376360264
      ],
      [
        "交代",
        -9.866933462345177
      ],
      [
        " 怎么样",
        -9.867150153920345
      ],
      [
        "辣",
        -9.867327096869781
      ],
      [
        "奇怪",
        -9.867524213686057
      ],
      [
        "小学",
        -9.867540247525993
      ],
      [
        "烈",
        -9.86826623179373
      ],
      [
        "显",
        -9.868355947099467
      ],
      [
        "尚",
        -9.86856377041849
      ],
      [
        "发行",
        -9.868720623172486
      ],
      [
        "不要再",
        -9.869039416246356
      ],
      [
        "减肥",
        -9.869443318660082
      ],
      [
        "没问题",
        -9.86994785241638
      ],
      [
        "中午",
        -9.870011484409545
      ],
      [
        "讨论",
        -9.870815530988981
      ],
      [
        "宝贝",
        -9.871302436947872
      ],
      [
        "你爸",
        -9.871349173569104
      ],
      [
        "一半",
        -9.871399830574616
      ],
      [
        "电台",
        -9.871693602283187
      ],
      [
        "抬",
        -9.872348257478734
      ],
      [
        "我已经",
        -9.873554178847389
      ],
      [
        "议",
        -9.873716391538858
      ],
      [
        "情报",
        -9.874230747510882
      ],
      [
        "吸引",
        -9.87445044657831
      ],
      [
        "动作",
        -9.875071181495816
      ],
      [
        "平常",
        -9.875072804513058
      ],
      [
        "广告",
        -9.87510431919862
      ],
      [
        "真心",
        -9.875546170781773
      ],
      [
        "尽量",
        -9.875731774147354
      ],
      [
        "里边儿",
        -9.875752116193878
      ],
      [
        " 第二",
        -9.876167984510804
      ],
      [
        "难以",
        -9.876293004427755
      ],
      [
        "一个问题",
        -9.876789920899158
      ],
      [
        "持",
        -9.876954337683676
      ],
      [
        "等待",
        -9.878027379903118
      ],
      [
        " 一个人",
        -9.878974255511086
      ],
      [
        "收到",
        -9.879396308182667
      ],
      [
        " 爸",
        -9.87940176970349
      ],
      [
        "一号",
        -9.879425864249356
      ],
      [
        "二零一八年",
        -9.879574324476867
      ],
      [
        "熬",
        -9.880383467290489
      ],
      [
        "我真的",
        -9.880826993786872
      ],
      [
        "等我",
        -9.88092661485452
      ],
      [
        "多年",
        -9.880936220548023
      ],
      [
        "智慧",
        -9.881020387824634
      ],
      [
        "零点",
        -9.882088061346103
      ],
      [
        "薄",
        -9.882312999188803
      ],
      [
        "五个",
        -9.882372274713635
      ],
      [
        "赞",
        -9.882377652604312
      ],
      [
        "跑到",
        -9.882454085176434
      ],
      [
        "在那",
        -9.8829550195564
      ],
      [
        "互联网",
        -9.883006490717058
      ],
      [
        "版",
        -9.883220366407265
      ],
      [
        "婆",
        -9.883375847465725
      ],
      [
        "懒",
        -9.883774544522009
      ],
      [
        "你知道",
        -9.883987627516326
      ],
      [
        "满意",
        -9.884413458058415
      ],
      [
        "好吃",
        -9.884865637685138
      ],
      [
        "不来",
        -9.884986821812227
      ],
      [
        "炎",
        -9.885017161980404
      ],
      [
        "档",
        -9.885146328623142
      ],
      [
        "它们",
        -9.885727384165264
      ],
      [
        "公开",
        -9.885799398276571
      ],
      [
        "劲",
        -9.886304013507523
      ],
      [
        "公布",
        -9.886335358152088
      ],
      [
        "黄金",
        -9.886474921271228
      ],
      [
        "亡",
        -9.886863761562179
      ],
      [
        " 没事儿",
        -9.886931074407077
      ],
      [
        "革命",
        -9.887207719727087
      ],
      [
        " 天",
        -9.88773367890327
      ],
      [
        "这样的话",
        -9.888768034213989
      ],
      [
        "是从",
        -9.889114851053765
      ],
      [
        "更好",
        -9.889152165529014
      ],
      [
        "垃圾",
        -9.889162572664908
      ],
      [
        "柳",
        -9.889192971015788
      ],
      [
        "瞧",
        -9.889362744929045
      ],
      [
        "为什么不",
        -9.890072005936737
      ],
      [
        "成立",
        -9.891262864889008
      ],
      [
        "颗",
        -9.891431124771147
      ],
      [
        "就得",
        -9.891609633570356
      ],
      [
        "到这里",
        -9.892852359417393
      ],
      [
        "笑话",
        -9.892905946784516
      ],
      [
        "早点",
        -9.89295736720316
      ],
      [
        "律师",
        -9.89314880569004
      ],
      [
        "接着",
        -9.893220981897935
      ],
      [
        "拿出",
        -9.893561734206259
      ],
      [
        "固",
        -9.893634688687873
      ],
      [
        "挖",
        -9.894033844821267
      ],
      [
        " 好了",
        -9.894191434232907
      ],
      [
        "加入",
        -9.894912794777118
      ],
      [
        "楚",
        -9.895009221392971
      ],
      [
        " 我不想",
        -9.895021341353285
      ],
      [
        "轻松",
        -9.895142147892933
      ],
      [
        "美元",
        -9.89546971167626
      ],
      [
        "九点",
        -9.895502762964458
      ],
      [
        "记忆",
        -9.895621341215518
      ],
      [
        "上次",
[...]
