{
  "\u00e5\u00b0\u00b1\u00e5\u0125\u0131": 2852,
  "\u0120\u00e6\u012a\u0133\u00e4\u00bb\u00ac\u00e9\u0125\u00bd\u00e6\u013a\u00af": 13487,
  "\u00e4\u00bc\u0141\u00e5\u00a4\u00a7": 9766,
  "\u0120\u00e6\u012e\u0133": 13474,
  "\u00e5\u00b0\u0131": 265,
  "\u00e5\u0138\u013f\u00e9\u0128\u012b": 11132,
  "\u00e5\u00b1\u012d\u00e9\u0129\u012e": 6862,
  "\u00e6\u00b2\u00a1\u00e5\u00bf\u0127\u00e8\u00a6\u0123": 13322,
  "\u00e4\u00b8\u012f\u00e8\u0125\u00bd\u00e5\u00a4\u0141": 11970,
  "\u00e6\u0124\u00b2": 2961,
  "\u00e5\u012c\u0141": 1101,
  "\u00e7\u00ae\u00a1\u00e6\u012a\u0133": 11246,
  "\u00e4\u00bd\u0142\u00e8\u00b7\u0141\u00e6\u012a\u0133": 11543,
  "\u00e8\u0126\u0138\u00e5\u0143\u0132": 8903,
  "\u013d\u00e4\u00b8\u012d": 4955,
  "\u0120\u00e6\u012a\u0133\u00e4\u00b8\u0122\u00e5\u00ae\u013c": 8188,
  "\u00e5\u013e\u00a8\u00e5\u0143\u00a6\u00e6\u0142\u00a1": 12432,
  "\u00e4\u00b8\u00ba\u00e4\u00bb\u0122\u00e4\u00b9\u012a\u00e4\u00b8\u012f": 4730,
  "\u0120\u00e6\u012a\u0133\u00e6\u013d\u00b4": 14656,
  "\u013c": 96,
  "\u00e5\u00bf\u0125\u00e9\u0129\u012e\u00e8\u00af\u013f": 10554,
  "\u00e6\u0136\u00be\u00e5\u0143\u00a6": 11761,
  "\u0120\u00e4\u00bd\u0142\u00e6\u0125\u00b3\u00e8\u00a6\u0123": 12890,
  "V": 28,
  "\u0120\u00e8\u00b0\u012a": 6911,
  "\u00e5\u00ab": 1030,
  "\u0120\u00e5\u0132\u00ac\u00e5\u00ae\u012e": 11715,
  "\u00e4\u00bb\u00a5\u00e5\u00a4\u0138": 7536,
  "\u00e8\u0122\u0125\u00e7\u0136\u0141": 12438,
  "\u0120\u00e8\u00bf\u0133": 5524,
  "\u00e6\u00b0\u0136\u00e4\u00ba\u0128": 10490,
  "\u00e6\u00b2\u00a1\u00e6\u0125\u00b3\u00e5\u012a\u00b0": 3572,
  "\u0120\u00e5\u00b7": 1319,
  "\u00e4\u00b8\u0143\u00e4\u00ba\u0128": 9476,
  "\u00e6\u013e\u0122\u00e6\u013e\u0122": 15537,
  "\u00e5\u0127\u00b7\u00e5\u00a4\u0129": 9012,
  "\u00e8\u0122\u0123\u00e6\u013f\u00bf": 1931,
  "\u00e5\u012a": 129,
  "\u00e4\u00ba\u012e\u00e5\u0135\u00a5": 9842,
  "\u00e5\u0131\u00a5": 765,
  "\u0120\u00e6\u0143\u00bb": 5118,
  "\u00e5\u0122\u012f": 3592,
  "\u00e5\u00b8\u00ae\u00e6\u012a\u0133": 2293,
  "\u0120\u00e6\u0136\u00bf": 7776,
  "\u00e5\u0128\u00b3\u00e5\u00bf\u0125": 6637,
  "\u00e8\u00be\u00b0": 6364,
  "\u00e5\u0136\u00a4\u00e9\u0128\u0134": 6480,
  "\u00e5\u00b0\u0136": 1634,
  "\u00e6\u0143\u00a6\u00e5\u013b\u00a8": 6609,
  "\u00e8\u0129\u00aa\u00e5\u00b7\u00b1\u00e7\u013c\u0126\u00e6\u0125\u0127\u00e7\u00bb\u00aa": 12130,
  "\u0120\u00e7\u00ae\u00a1": 7571,
  "\u00e6\u0135\u012f\u00e4\u00bd\u013e": 6601,
  "\u0120\u00e5\u00bc\u0141\u00e5\u00bc\u0141": 12936,
  "\u00e6\u012b\u0135\u00e9\u0122\u0142": 10670,
  "\u00e6\u013f\u00a5\u00e4\u00b8\u00ba\u00e6\u0124\u00a8\u00e8\u00a7\u00a3\u00e7\u0143\u0136": 14513,
  "\u00e5\u0127\u00ab\u00e5\u012f\u00a6": 10088,
  "\u0120\u00e6\u0138": 1574,
  "\u0120\u00e5\u012b\u012f\u00e6\u00ae\u00b5\u00e6\u0139\u00b6\u00e9\u0139\u00b4": 9850,
  "\u00e6\u013a\u0128\u00e4\u00bb\u0133": 14398,
  "\u00e5\u00a4\u00a7\u00e4\u00bc\u013b": 13113,
  "\u0120\u00e8\u0130\u00ab": 5911,
  "\u00e6\u012d\u0127\u00e5\u00bf\u00a7": 10627,
  "\u00e4\u00b8\u012b\u00e4\u00ba\u00bf\u00e5\u0127\u0125": 13413,
  "\u00e5\u012f\u0139\u00e9\u0125\u00bd": 4397,
  "\u00e6\u013f\u0133\u00e9\u0137\u00bf": 15215,
  "\u00e5\u0131\u012a\u00e6\u00b2\u00a1": 15436,
  "\u00e9\u0139\u00ba\u00e5\u00a5\u00b3": 4214,
  "\u00e5\u0131\u012f\u00e6\u0126\u0141": 12987,
  "\u00e5\u00ba\u0126": 3458,
  "\u00e9\u013c\u00be\u00e9\u00a2\u013a": 10955,
  "\u00e9\u0122\u013c\u00e8\u00af\u013f": 15994,
  "\u0120\u00e4\u00bb\u0138\u00e8\u00bf\u013a\u00e6\u013a\u00af": 12515,
  "\u00e7\u0136\u00b5\u00e6\u00a2\u00af": 10076,
  "\u0120\u00e5\u00ae\u00b6": 2452,
  "\u00e5\u0122\u0134\u00e6\u013a\u00af": 4403,
  "\u00e7\u013c\u0126\u00e5\u0143\u00a9\u00e5\u0143\u0132": 3262,
  "\u00e9\u0123\u0143\u00e5\u0131\u0139": 15221,
  "\u00e6\u0141\u0132\u00e6\u0141\u0132": 8566,
  "\u00e8\u00bf\u013a\u00e8\u00a1\u012e": 11680,
  "\u00e7\u00bb\u0125": 1518,
  "\u00e6\u012b\u012d\u00e6\u00ae\u00b5": 6745,
  "\u00e7\u013c\u0126\u00e7\u00a6": 5723,
  "\u00e5\u0132\u00ac\u00e4\u00bd\u0142\u00e7\u013c\u0126": 6521,
  "\u00a3": 35,
  "\u00e9\u00a1": 452,
  "\u00e7\u0132\u0132": 8212,
  "\u00e6\u00ba\u013e": 4179,
  "\u00e6\u0122\u00bb\u00e8\u00a7\u012b\u00e5\u00be\u0139": 9509,
  "\u0120\u00e4\u00bb\u0138\u00e8\u00a6\u0123": 6812,
  "\u00e7\u00bb\u013b\u00e6\u012a\u0133\u00e4\u00b9\u00b0": 12368,
  "\u00e6\u012a\u0133\u00e8\u00af\u00b4\u00e7\u013c\u0126": 9329,
  "\u00e9\u013a\u00b5\u00e5\u013e\u00b0": 12503,
  "\u00e5\u00b0\u00bd\u00e7\u00ae\u00a1": 8963,
  "\u0120\u00e5\u012f\u0142": 8087,
  "\u00e4\u00bb\u00bb\u00e4\u00bd\u0137\u00e4\u00b8\u0122\u00e4\u00b8\u00aa": 14498,
  "\u00e4\u00ba\u0128\u00e6\u012a\u0133\u00e7\u013c\u0126": 6821,
  "\u00e4\u00b9\u013f\u00e5\u0127\u0143": 3988,
  "\u00e5\u0128\u00b7\u00e7\u013c\u0126": 14035,
  "\u0120\u00e7\u013c\u0126\u00e7\u00a1\u00ae": 13344,
  "\u00e6\u013e\u0122\u00e8\u00b5\u00b7\u00e7\u0142\u0123": 8783,
  "\u00e8\u012f\u00af": 1140,
  "\u00e8\u0125\u00a1\u00e8\u00af\u00b4\u00e5\u0127\u00ab\u00e9\u0123\u0135": 12836,
  "\u00e8\u0129\u00aa\u00e4\u00bf\u00a1": 4023,
  "\u00e7\u013e\u0141\u00e8\u00af\u013c": 7403,
  "\u00e7\u0127\u012e": 11097,
  "\u00e7\u013c\u0126\u00e4\u00ba\u00ba\u00e9\u0125\u00bd": 6783,
  "\u00e5\u0130\u0141\u00e5\u013e\u00b0": 12177,
  "\u00e6\u00b5\u00b7\u00e4\u00b8\u012c": 14670,
  "\u00e6\u0123\u00a9\u00e7\u012a\u00b1": 13726,
  "\u00e6\u0123\u00b6\u00e5\u00bf\u0125": 9194,
  "\u00e6\u0142\u00b7": 268,
  "\u00e5\u00b0\u00be": 3031,
  "\u00e7\u00bb\u0135\u00e5\u00a9\u013c\u00e8\u00af\u0123": 13498,
  "\u00e5\u00b0\u00b1\u00e8\u00a1\u012e\u00e4\u00ba\u0128": 4280,
  "\u0120\u00e4\u00b8\u012f\u00e5\u00a5\u00bd": 4108,
  "\u00e6\u0138\u00b9\u00e6\u00b3\u0137": 2695,
  "\u00e4\u00bb\u00a4\u00e4\u00ba\u00ba": 6498,
  "\u00e5\u0131\u00af\u00e4\u00bb\u00a5\u00e5\u013e\u00a8": 6998,
  "\u00e5\u00b9\u00b6\u00e4\u00b8\u012f\u00e6\u013a\u00af": 3556,
  "\u00e5\u013e\u00a8\u00e5\u00ae\u00b6": 3287,
  "\u00e5\u00bc\u0122\u00e5\u0143\u00a6": 9590,
  "\u0120\u00e5\u012f\u0125": 3857,
  "\u0120\u00e6\u00b2\u00a1\u00e6\u013e\u012b\u00e6\u00b2\u00a1\u00e6\u013e\u012b": 14956,
  "\u00e9\u0122\u0122": 1654,
  "\u00e4\u00b8\u0122\u00e5\u00b9\u00b4": 2017,
  "\u00e4\u00ba\u0128\u00e8\u00b5\u00b7\u00e6\u013f\u00a5": 5717,
  "\u0120\u00e5\u0132\u00b8": 15630,
  "\u00e9\u00ba\u00bb\u00e5\u00b0\u0128": 9362,
  "\u00e5\u00b1\u0137\u00e7\u0130\u00b0": 10250,
  "\u00e5\u00a6\u00ae": 5842,
  "\u00e8\u00bf\u013b\u00e4\u00ba\u013d\u00e8\u00af\u013f": 9616,
  "\u00e6\u0122\u0130\u00e4\u00b9\u012a\u00e8\u00bf\u013b\u00e4\u00b9\u012a": 8083,
  "\u00e6\u012a\u0133\u00e6\u013a\u00af\u00e4\u00b8\u0122\u00e4\u00b8\u00aa": 9696,
  "\u00e5\u00ae\u00a2\u00e4\u00ba\u00ba": 6131,
  "\u0120\u00e5\u0131\u00af\u00e4\u00bb\u0138": 10829,
  "\u00e7\u00a9\u00b6\u00e7\u00ab\u0141": 4757,
  "\u00e6\u013d\u00b4\u00e5\u00a5\u00bd\u00e7\u013c\u0126\u00e8\u0129\u00aa\u00e5\u00b7\u00b1": 13799,
  "\u00e7\u0140\u00ac\u00e9\u0139\u00b4": 4836,
  "\u00e4\u00b8\u013c": 481,
  "\u00e8\u0141": 5286,
  "\u0120\u00e7\u00a9\u00bf": 5909,
  "\u00e6\u013f\u0133\u00e9\u0129\u012e": 9828,
  "\u00e6\u013e\u012f\u00e5\u012c\u00a1": 2208,
  "\u00e5\u012a\u00b0\u00e5\u00ba\u0137\u00e6\u013a\u00af": 7235,
  "\u00e7\u013d\u00b8\u00e5\u0131\u012f": 13118,
  "\u00e4\u00b8\u0135\u00e4\u00b8\u013c\u00e7\u013c\u0126": 7071,
  "\u00e4\u00bd\u0142\u00e8\u00b5\u00b0": 12814,
  "\u00e7\u013c\u0126\u00e6\u012a\u0133\u00e4\u00bb\u00ac": 10369,
  "\u0120\u00e5\u00a6\u0124\u00e6\u0140\u013e": 618,
  "\u00e8\u00bf\u0129\u00e5\u0130\u00bb": 1245,
  "\u00e4\u00b8\u012f\u00e5\u0132\u012e\u00e6\u0126\u0131": 5595,
  "\u00e5\u012a\u00b6\u00e7\u013c\u0126": 9551,
  "\u00e5\u013d\u0140\u00e5\u00bf\u0128": 4475,
  "\u00e5\u00b9\u00b2\u00e5\u013a\u013d\u00e5\u0133\u00a2": 9571,
  "\u00e5\u00be\u012a\u00e5\u00ae\u00b9\u00e6\u013a\u0135": 7408,
  "\u00e5\u013e\u012a\u00e5\u0126\u00bf": 8291,
  "\u00e4\u00b8\u012d\u00e8\u00bd\u00bd": 11323,
  "\u0120\u00e8\u00bf\u013a\u00e5\u00a5\u00bd": 8861,
  "\u00e5\u0127\u00ac\u00e6\u0138\u00a4": 14383,
  "\u00e6\u0125\u00b3\u00e5\u0132\u0125": 7872,
  "\u0120\u00e6\u0136\u00b9": 6025,
  "\u0120\u00e4\u00bb\u0122\u00e4\u00b9\u012a\u00e6\u0126\u0131\u00e6\u0122\u013f": 12253,
  "\u00e5\u00bd\u0135\u00e5\u012b\u012f": 11810,
  "\u00e7\u0127\u00a7\u00e6\u0142\u00b7": 14309,
  "\u00e8\u0133\u00a1": 8384,
  "\u00e5\u00bc\u00ba\u00e7\u0125\u012a\u00e7\u013c\u0126": 15230,
  "\u0120\u00e7\u012b\u00b9\u00e5\u012a\u00ab\u00e6\u013a\u00af": 6832,
  "\u00e6\u012b\u00a3": 3677,
  "\u00e5\u0127\u00ab\u00e8\u00b7\u00af": 7617,
  "\u00e6\u013a\u0130": 369,
  "\u00e6\u013c\u0139\u00e6\u0123\u012d": 14686,
  "\u00e6\u013a\u0141\u00e7\u0132\u0125\u00e4\u00bc\u013c\u00e5\u00ae\u00a2\u00e5\u0130\u0127": 7777,
  "\u00e6\u013e\u0122\u00e8\u00bf\u0133": 2090,
  "\u00e8\u00a6\u0123\u00e8\u00a6\u0123": 15123,
  "\u00e6\u013e\u0122\u00e9\u0129\u012f\u00e8\u00a6\u0123": 7880,
  "\u0120\u00e5\u00bd\u0134": 15442,
  "\u00e5\u00be\u0122\u00e5\u012b\u012f\u00e8\u00b5\u00b0": 10495,
  "\u00e9\u013d\u00b6\u00e9\u013d\u00b6": 11682,
  "\u0120\u00e5\u00a6\u00b9\u00e5\u00a6\u00b9": 9028,
  "\u0120\u00e4\u00b9\u0141\u00e8\u0125\u00bd": 11995,
  "\u00e5\u00bc\u0122\u00e4\u00ba\u0128": 2966,
  "\u00e4\u00ba\u0128\u00e4\u00b8\u0122\u00e5\u013e\u00ba": 10935,
  "\u00e8\u00af\u00b4\u00e5\u0129\u00ba\u00e6\u013f\u00a5": 7522,
  "\u00e7\u013c\u0126\u00e6\u013a\u00af\u00e4\u00b8\u0122\u00e4\u00b8\u00aa": 13119,
  "\u00e5\u0131\u00aa\u00e9\u013e\u0122\u00e8\u00a6\u0123": 10245,
  "\u00e5\u012a\u00b0\u00e5\u00a4\u0126": 6345,
  "\u00e5\u00a5\u00bd\u00e4\u00b9\u0127": 8474,
  "\u00e8\u012c\u00ac": 1934,
  "\u00e5\u013d\u013d\u00e5\u0131\u00b7": 5427,
  "\u00e7\u00ae\u00a1\u00e4\u00bb\u0138": 11434,
  "\u00e5\u0130\u0141\u00e5\u013d\u0142": 1852,
  "\u00e8\u0127\u00bf": 2272,
  "\u00e9\u00bb\u0126\u00e8\u012b\u00b2\u00e7\u013c\u0126": 11748,
  "\u00e5\u0123\u013c\u00e5\u00a5\u00bd": 3492,
  "\u0120\u00e5\u0124\u00bb": 9767,
  "\u00e5\u012f\u0123\u00e5\u012a\u0128\u00e9\u0134\u0141": 9414,
  "\u0120\u00e9\u0124\u00a3\u00e4\u00bd\u0142\u00e4\u00bb\u00ac": 7450,
  "\u0120\u00e8\u00af\u00b4\u00e4\u00bb\u0122\u00e4\u00b9\u012a": 14528,
  "\u00e5\u012f\u00b4\u00e6\u013a\u00af": 8565,
  "\u00e6\u012a\u0132\u00e4\u00b8\u00ba\u00e4\u00b8\u0122\u00e4\u00b8\u00aa": 9654,
  "\u00e4\u00b8\u012f\u00e8\u00b5\u00b7\u00e6\u013f\u00a5": 10387,
  "\u0120\u00e6\u0136\u00b9\u00e5\u0131\u013a": 15877,
  "\u00e5\u00bc\u0122\u00e6\u0136\u00be": 4493,
  "\u00e6\u00af\u0131\u00e4\u00b8\u00aa\u00e4\u00ba\u00ba": 3914,
  "\u0120\u00e5\u00ba": 1721,
  "\u00e4\u00ba\u0128\u00e4\u00bb\u0138\u00e4\u00bb\u00ac": 13900,
  "\u00e4\u00b8\u012c\u00e5\u0131\u00b0": 13957,
  "\u00e8\u00b7\u0141\u00e4\u00b8\u012c": 12398,
  "\u0120\u00e7\u012a": 1050,
  "\u00e5\u0124\u00bb\u00e5\u0133\u0122": 15600,
  "\u00e5\u00a4\u013c\u00e5\u00a5\u00bd": 11076,
  "\u00e4\u00ba\u00bf\u00e7\u00be\u0130\u00e5\u0127\u0125": 4789,
  "\u00e6\u0126\u0141\u00e6\u00bf\u0122": 8796,
  "\u0120\u00e7\u0129": 13484,
  "\u00e6\u00b8\u00a9\u00e6\u0141\u0136": 4414,
  "\u00e5\u00a5\u00bd\u00e4\u00b8\u0122\u00e7\u0124\u00b9": 11831,
  "\u00e9\u0136": 458,
  "\u00e5\u0131\u00aa\u00e6\u013a\u00af\u00e4\u00b8\u0122\u00e4\u00b8\u00aa": 9690,
  "\u00e6\u00b1\u00bd\u00e8\u00bd\u00a6": 3488,
  "\u00e5\u00b8\u00b8": 451,
  "\u00e5\u00b8\u012a\u00e5\u0127\u0126": 6948,
  "\u00e5\u013e\u0141\u00e5\u013e\u00b0": 6686,
  "\u00e6\u0136\u00af\u00e6\u012e\u0123": 2245,
  "\u00e7\u00ae": 356,
  "\u0120\u00e5\u0127\u00b6\u00e4\u00b8\u0143": 2877,
  "\u0120\u00e6\u00b8\u00b8": 9639,
  "\u0120\u00e5\u0131": 283,
  "\u00e6\u0139\u0142\u00e8\u0123\u012c": 6199,
  "\u00e5\u013e\u0141": 1810,
  "\u00e5\u0134\u00ac": 3934,
  "\u00e7\u0138\u00bc\u00e7\u0139\u013d": 12529,
  "\u00e6\u013f\u00a1\u00e4\u00bb\u00b6\u00e7\u013c\u0126": 15455,
  "\u0120\u00e5\u00b1\u0140": 7395,
  "\u00e4\u00b8\u012f\u00e9\u0122\u0124\u00e5\u0132\u012a": 9821,
  "\u00e6\u013f\u00a5\u00e8\u0129\u00aa\u00e4\u00ba\u0130": 7199,
  "\u00e7\u00ac\u00ac\u00e4\u00b8\u0122": 1419,
  "\u00e4\u00ba\u0128\u00e4\u00b8\u0122\u00e5\u00ae\u00b6": 12030,
  "\u0120\u00e6\u012a\u0133\u00e4\u00b9\u0141\u00e4\u00b8\u012f": 4810,
  "\u00e6\u00b1\u00aa": 5844,
  "\u00e5\u00b7\u00b2\u00e6\u013e\u012b": 14707,
  "\u00e5\u0129\u00ba\u00e6\u013f\u00a5\u00e4\u00ba\u0128": 2682,
  "\u00e5\u00a4\u013c\u00e5\u0132\u0125": 15018,
  "\u0120\u00e4\u00bd\u0142\u00e7\u013e\u012d\u00e6\u012a\u0133": 8774,
  "\u0120\u00e9\u0124\u00a3\u00e4\u00b8\u012f\u00e6\u013a\u00af": 7005,
  "\u0120\u00e7\u013c\u0129\u00e4\u00b8\u012c": 5738,
  "\u00e7\u0137\u013b\u00e4\u00b8\u012d": 3713,
  "\u00e4\u00b8\u0125\u00e5\u00b9\u00b4": 4217,
  "\u0120\u00e5\u0129\u012e": 12880,
  "\u0120\u00e5\u00bf\u012f": 9252,
  "\u0120\u00e5\u00af\u00b9\u00e6\u012a\u0133": 8016,
  "\u00e5\u00ae\u00a2\u00e6\u012a\u00b7": 4677,
  "\u00e6\u00af\u0131\u00e4\u00b8\u0122\u00e5\u00a4\u00a9": 10230,
  "\u00e6\u0130\u0134\u00e5\u0132\u012f": 9406,
  "\u00e5\u012f\u0139\u00e4\u00ba\u00ac": 5614,
  "\u00e4\u00b8\u0122\u00e4\u00b8\u00aa\u00e5\u00a5\u00bd": 7551,
  "\u00e4\u00ba\u00a4\u00e6\u013a\u0135": 3765,
  "\u00e6\u00b8\u00af\u00e5\u0127\u0125": 14197,
  "\u00e6\u013e\u012b\u00e7\u0124\u00b9\u00e5\u0126\u00bf": 7581,
  "\u0120\u00e6\u012a\u0133\u00e8\u00af\u00b4": 1385,
  "\u0120\u00e4\u00ba\u012e\u00e9\u013d\u00b6\u00e4\u00b8\u0122\u00e4\u00b9\u013f\u00e5\u00b9\u00b4": 6847,
  "\u00e5\u0139\u00a8": 9245,
  "\u00e5\u013d\u00bd\u00e8\u0139\u00a9": 7047,
  "\u00e5\u0133\u00b3\u00e9\u0123\u0135": 4394,
  "\u00e6\u0130\u00a8\u00e8\u012f\u0132": 4354,
  "\u00e8\u00bf\u013b\u00e6\u0142\u00b7\u00e5\u0137\u012c": 8351,
  "\u00e6\u0134\u0133": 3356,
  "\u00e6\u013e\u0139": 4232,
  "\u00e6\u00af\u0136\u00e8\u00be\u0125": 1047,
  "\u00e5\u00b0\u00b1\u00e8\u00bf\u013b\u00e4\u00b9\u012a": 4149,
  "\u00e7\u00ab\u00a5\u00e8\u00af\u013f": 8945,
  "\u00e5\u00a5\u00b3\u00e5\u0126\u00bf": 1681,
  "\u00e5\u00bc\u0137\u00e8\u00b5\u00b7\u00e4\u00ba\u0128": 15595,
  "\u00e5\u0127\u00a8\u00e7\u00bd\u0133": 14182,
  "\u00e8\u00af\u00b4\u00e4\u00b8\u012f\u00e5\u00ae\u013c": 12258,
  "\u00e5\u00ae\u012e\u00e7\u00be\u0130\u00e7\u013c\u0126": 12476,
  "\u00e8\u00b5\u00b0\u00e7\u013c\u0126\u00e6\u0139\u00b6\u00e5\u0122\u013b": 12103,
  "\u00e5\u0133\u00a2\u00e5\u0132\u0139": 13085,
  "\u00e6\u012d\u013d\u00e5\u00be\u0127": 14829,
  "\u0120\u00e6\u00af\u0136\u00e5\u00a6\u0124": 1835,
  "\u00e8\u00bf\u013d\u00e6\u013f\u00a5\u00e4\u00ba\u0128": 11907,
  "\u00e6\u0140\u0139\u00e7\u0136\u00b5\u00e5\u0131\u00b0": 13256,
  "\u00e5\u00a4\u00b4\u00e5\u0125\u0131": 11263,
  "\u00e5\u00ae\u0125\u00e6\u013a\u00af": 6417,
  "\u00e6\u012d\u00bf\u00e5\u012a\u00b0\u00e4\u00ba\u0128": 14243,
  "\u0120\u00e7\u0139": 5816,
  "\u00e9\u013b\u012f\u00e4\u00bd\u0130": 6179,
  "\u00e8\u0122\u012e\u00e8\u00a8\u0122": 5084,
  "\u00e5\u00a4\u013e\u00e4\u00b8\u012f\u00e5\u00af\u0124\u00e5\u00af\u0140": 6710,
  "\u0120\u00e4\u00b8\u012f\u00e5\u00be\u0139": 11587,
  "\u0120\u00e7\u0130\u00b0\u00e5\u00ae\u0140": 13253,
  "\u0120\u00e4\u00b9\u00a6": 9721,
  "\u0120\u00e5\u0127\u00b6\u00e6\u00ac\u00a1": 15139,
  "\u0120\u00e5\u0131\u0124\u00e5\u012c\u0142": 15274,
  "\u00e6\u0122\u00a7\u00e8\u00b4\u00a8": 13465,
  "\u00e4\u00b8\u012d\u00e6\u00bb\u0133": 10728,
  "\u00e8\u00bf\u013b\u00e4\u00b8\u00aa\u00e4\u00b8\u0138\u00e7\u0137\u012e": 7177,
  "\u0120\u00e5\u0129\u00ba": 2338,
  "\u00e6\u012c\u0138\u00e9\u0141\u00b3": 13315,
  "\u0120\u00e7\u013b\u00bd\u00e5\u00a4\u00a9": 11983,
  "\u0120\u00e6\u012a\u0133\u00e5\u0133\u012c\u00e8\u00af\u012b\u00e4\u00bd\u0142\u00e5\u0137\u012c": 9148,
  "\u00e8\u00b6\u00b3\u00e5\u00a4\u0141": 4444,
  "\u00e6\u0138\u00b0\u00e5\u0140\u012d\u00e5\u0128\u0142\u00e7\u012c\u00b6\u00e7\u0139\u0127\u00e6\u00af\u0134": 13829,
  "\u00e4\u00ba\u0128\u00e6\u012a\u0133\u00e4\u00b8\u0122\u00e7\u013e\u00bc": 15147,
  "\u00e5\u013c\u00b7\u00e5\u013c\u00b7": 14651,
  "\u00e6\u0123\u0132\u00e6\u0122\u0138": 10041,
  "\u00e4\u00b8\u0122\u00e5\u013e\u00ba": 3687,
  "\u00e6\u013e\u0122\u00e9\u0129\u012f\u00e8\u00a6\u0123\u00e7\u013c\u0126": 7421,
  "\u00e5\u00a9\u00b6": 7173,
  "\u00e4\u00b8\u012d\u00e6\u012b\u012d": 8026,
  "\u00e8\u00ae\u00b2\u00e8\u00bf\u00b0": 8561,
  "\u012f": 83,
  "\u00e5\u0139\u00af": 917,
  "\u0120\u00e4\u00b8\u0129": 2938,
  "\u00e4\u00ba\u012e\u00e5\u012f\u0123\u00e5\u013d\u013d": 4630,
  "\u00e9\u00ac\u00bc\u00e5\u0143\u0132": 3250,
  "\u00e5\u0129\u00a1": 3092,
  "\u0120\u00e7\u0142\u00b4": 12507,
  "\u00e5\u00a4\u012f\u00e5\u00b7\u00a5": 8074,
  "\u0120\u00e5\u00b0\u00b1\u00e6\u012a\u0133": 12067,
  "\u00e5\u00b0\u00b1\u00e6\u013a\u00af": 269,
  "\u00e6\u0142\u00a1\u00e5\u013d\u0143": 10555,
  "\u00e7\u012e\u00ab": 1954,
  "\u0120\u00e4\u00bb\u0122\u00e4\u00b9\u012a\u00e6\u0126\u0131\u00e6\u0122\u013f\u00e5\u0137\u012c": 14530,
  "\u0120\u00e5\u00a5\u00bd": 633,
  "\u0120\u00e5\u0138\u013e\u00e6\u00ac\u00a2\u00e6\u012a\u0133\u00e4\u00bb\u00ac\u00e7\u013c\u0126\u00e5\u0128\u0127\u00e5\u00ae\u00b9": 15605,
  "\u00e7\u013c\u0126\u00e7\u00a4": 3468,
  "\u00e8\u00b5\u00b7\u00e5\u00ba\u012c": 6777,
  "\u00e4\u00ba\u0136\u00e5\u0131\u00b7": 7306,
  "\u00e8\u0125\u00bd\u00e6\u012b\u00be\u00e5\u012a\u00b0": 12971,
  "\u00e4\u00b8\u0143\u00e9\u0139\u00b4": 3649,
  "\u00e8\u00bd\u00bb": 946,
  "\u00e7\u00a2\u012f": 4746,
  "\u0120\u00e5\u00b9\u00b4": 3583,
  "\u00e5\u0132\u012e\u00e6\u0142\u00b7": 4668,
  "\u00e4\u00b8\u012f\u00e5\u00ba\u0136\u00e8\u00af\u00a5": 6178,
  "\u0120\u00e5\u00b0\u00b1\u00e6\u013a\u00af": 491,
  "\u00e7\u0135\u00a3": 9839,
  "\u00e6\u0137\u012e": 2521,
  "\u00e6\u00b2\u012b": 2334,
  "\u00e6\u0135\u012f\u00e5\u00bf\u0125": 8077,
  "\u00e4\u00b8\u00a2": 2091,
  "\u00e4\u00bc\u013c\u00e8\u00a2\u00ab": 7620,
  "\u0120\u00e5\u0128\u012f\u00e8\u00a7\u0123": 7280,
  "\u0120\u00e5\u013d\u0142\u00e4\u00b8\u00ba\u00e4\u00bb\u0138\u00e4\u00bb\u00ac": 9007,
  "\u00e5\u00b0\u0131\u00e4\u00ba\u0128": 8464,
  "\u00e4\u00b8\u0122\u00e8\u0126\u00b8": 7903,
  "\u00e6\u012a\u00bf\u00e4\u00bb\u00b7": 11894,
  "\u00e8\u00af\u00b4\u00e6\u013a\u00af": 2496,
  "\u00e4\u00bb\u00bb\u00e4\u00bd\u0137\u00e4\u00ba\u00ba": 5507,
  "\u0120\u00e6\u012a\u0133\u00e4\u00bb\u00ac\u00e8\u00bf\u013b\u00e4\u00b8\u00aa": 14086,
  "\u00e5\u0131": 124,
  "\u00e5\u0143\u00bd": 12361,
  "\u00e9\u00a6\u0134\u00e5\u00a4\u00b4": 11239,
  "\u00e6\u012f\u00a2\u00e4\u00b8\u0122\u00e4\u00b8\u00aa": 11930,
  "\u00e5\u00a5\u00a2\u00e4\u00be\u012a": 13546,
  "\u00e9\u013c\u0132\u00e7\u0140\u0134": 9597,
  "\u00e8\u00bf\u013b\u00e4\u00b8\u00aa\u00e4\u00ba\u012d\u00e6\u0125\u0127": 5419,
  "\u00e5\u00be\u00ae": 944,
  "\u00e8\u0126": 444,
  "\u00e6\u00b0\u00b8": 1657,
  "\u00e9\u00a1\u00ba\u00e4\u00be\u00bf": 12959,
  "\u00e7\u013e\u012d\u00e8\u00a7\u0123": 1912,
  "\u00e8\u00bf\u013b\u00e4\u00b8\u00aa\u00e6\u0126\u0131\u00e6\u0122\u013f": 9642,
  "\u00e7\u0125\u0143\u00e6\u0125\u0127": 7775,
  "\u00e8\u0136\u00b7\u00e8\u0138\u0129": 11963,
  "\u00e5\u00ba\u0136\u00e5\u00af\u00b9": 7218,
  "\u00e5\u00a2\u013b": 3341,
  "\u00e5\u0127\u00a8\u00e5\u012c\u013d": 6404,
  "\u00e9\u00a9\u00b3": 9806,
  "\u00e7\u0130\u012d\u00e5\u00ba\u013e": 14716,
  "\u00e5\u00af\u00b8": 5253,
  "\u00e4\u00b8\u0143\u00e5\u00b9\u00b4": 8130,
  "\u00e4\u00ba\u0136\u00e7\u0124\u00b9": 4515,
  "\u00e5\u0131\u0133\u00e5\u00b8\u0125\u00e4\u00bc\u013c": 10629,
  "\u00e8\u00bf\u013b\u00e5\u0129\u0142\u00e5\u00a4\u00a9": 9833,
  "\u00e4\u00b8\u0122\u00e7\u0124\u00b9\u00e5\u0126\u00bf\u00e9\u0125\u00bd\u00e4\u00b8\u012f": 15747,
  "\u00e5\u0134\u012e\u00e8\u00bf\u013b\u00e4\u00b8\u00aa": 11027,
  "\u00e4\u00b8\u0122\u00e4\u00ba\u012e": 10858,
  "\u00e8\u0125\u00bd\u00e5\u012c\u013d": 1766,
  "\u00e5\u012c\u00aa\u00e5\u012c\u013d": 1605,
  "\u00e6\u0138\u00a5": 8126,
  "\u00e8\u00a7\u0124\u00e4\u00bc\u0139": 2721,
  "\u00e7\u0128\u00ac": 3624,
  "\u0120\u00e6\u013f\u00a8": 3710,
  "\u00e9\u00a6\u0138\u00e5\u0127\u012a\u00e8\u00a6\u0123": 15217,
  "\u00e4\u00b8\u012b\u00e4\u00ba\u00ba": 12298,
  "\u00e5\u00ba": 230,
  "\u0120\u00e6\u0142\u0129": 14919,
  "\u00e8\u00ae\u00a4\u00e7\u013e\u0141\u00e7\u013c\u0126": 9877,
  "\u00e9\u0125\u00bd\u00e8\u00a2\u00ab": 6043,
  "\u00e4\u00ba\u0128\u00e4\u00b8\u0122\u00e9\u00a1\u00bf": 13966,
  "\u00e6\u012d\u00bf\u00e5\u012a\u00b0": 5676,
  "\u00e5\u00a5\u00b3\u00e5\u00a3\u00ab": 5136,
  "\u00e7\u013f\u00a1\u00e4\u00ba\u0128": 7704,
  "\u0120\u00e8\u00bd\u00ac": 5787,
  "\u0120\u00e6\u0137\u00b4\u00e5\u00a4\u00a9": 13181,
  "\u00e7\u013c\u0126\u00e4\u00b8\u0122\u00e5\u00b9\u00b4": 14001,
  "\u00e5\u0132\u00ac\u00e4\u00bb\u0138": 13591,
  "\u0120\u00e9\u0124\u00a3\u00e4\u00b9\u012a\u00e5\u013e\u00a8": 10263,
  "\u00e6\u012c\u012c\u00e4\u00ba\u00ba": 10461,
  "\u00e5\u00a8\u00b6": 3322,
  "\u0120\u00e6\u013a\u00af\u00e4\u00bb\u0138": 9156,
  "\u00e6\u013a\u00a8\u00e6\u013b\u013c": 9709,
  "\u0120\u00e9\u0137\u00bf\u00e5\u00ae\u013a": 14420,
  "\u00e6\u013e\u012b\u00e7\u0139\u0127": 13643,
  "\u00e4\u00bd\u0135\u00e8\u00b4\u00b4": 11433,
  "\u00e9\u0125\u00bd\u00e4\u00b8\u0122\u00e6\u0142\u00b7": 12079,
  "\u00e9\u013d\u0128": 1334,
  "\u0120\u00e8\u00b5\u00b6\u00e7\u00b4\u00a7": 3945,
  "\u00e8\u00a2\u00ab\u00e6\u012c\u0135": 10898,
  "\u00e6\u012a\u0133\u00e8\u00a6\u0123\u00e6\u013a\u00af": 14797,
  "\u0120\u00e6\u0129\u0124": 5956,
  "\u00e5\u0131\u0124\u00e8\u00a7\u0124": 14222,
  "\u00e6\u012d\u00bf\u00e7\u013f\u0122": 3397,
  "\u00e7\u00bd\u0133\u00e7\u00ab\u013b": 8552,
  "\u00e6\u00af\u0131": 703,
  "\u00e8\u00a2": 407,
  "\u00e5\u0132\u00ac": 373,
  "\u00e5\u0132\u00b8": 2128,
  "\u00e8\u00be\u0140": 3040,
  "\u0120\u00e6\u0132\u013e": 11771,
  "\u00e8\u00af\u00b4\u00e7\u013c\u0126\u00e6\u013a\u00af": 6740,
  "\u00e5\u0137\u00a5\u00e5\u0133\u00a2": 4921,
  "\u00e6\u012a\u0133\u00e4\u00bb\u00ac\u00e5\u0130\u00bb": 8672,
  "\u0120\u00e5\u00af\u00b9\u00e6\u0138\u00b9": 6587,
  "\u00e5\u00a4\u013c\u00e6\u0125\u00b3": 15314,
  "\u00e5\u00b9\u00b4\u00e8\u00bd\u00bb\u00e7\u013c\u0126\u00e6\u0139\u00b6\u00e5\u0122\u013b": 11440,
  "\u00e8\u00af\u00a5": 467,
  "\u0120\u00e8\u00bf\u013b\u00e6\u013a\u00af\u00e6\u012a\u0133\u00e7\u013c\u0126": 9145,
  "\u0120\u00e5\u012a\u00ab\u00e5\u00bf\u013a\u00e4\u00ba\u0128": 7907,
  "\u00e5\u012a\u00b0\u00e4\u00bb\u0138": 6164,
  "\u00e7\u013c\u0126\u00e5\u00ae\u00b6": 5992,
  "\u0120\u00e5\u00b0\u0131\u00e6\u013e\u012d\u00e5\u0131\u012d\u00e4\u00bb\u00ac": 7652,
  "\u00e5\u00a4\u00b1\u00e5\u0130\u00bb": 3944,
  "\u00e5\u0131\u00af\u00e7\u0138\u0133": 12314,
  "\u00e7\u013c\u0126\u00e7\u0127\u00a7\u00e7\u012b\u0129": 5546,
  "\u00e4\u00b9\u013f\u00e9\u013d\u00b6\u00e5\u0132\u0130": 12692,
  "\u00e5\u0143\u00a3": 2058,
  "\u00e4\u00b8\u012b\u00e6\u013e\u012a": 6634,
  "\u00e6\u012a\u013a\u00e5\u00a3\u00ab": 7002,
  "\u00e5\u013d\u00b0": 1874,
  "\u00e6\u013a\u00af\u00e5\u0132\u0139": 2764,
  "\u00e6\u012a\u0133\u00e4\u00bb\u00ac": 258,
  "\u00e6\u0125\u0133": 4021,
  "\u0120\u00e7\u013e\u012d\u00e5\u012a\u00b0": 3586,
  "\u00e4\u00b8\u012f\u00e6\u0122\u0137": 5244,
  "\u00e9\u0129\u012f\u00e7\u013c\u0126": 6438,
  "\u00e7\u0141\u00a5\u00e9\u0123\u0135\u00e4\u00bb\u0138": 6591,
  "\u0120\u00e5\u013d\u0140\u00e5\u00ae\u00b6": 7738,
  "\u00e4\u00bb\u0135": 3771,
  "\u00e5\u0143\u0132\u00e4\u00ba\u0128": 7332,
  "\u00e9\u00a9\u00ac\u00e6\u012d\u012b\u00e9\u013d\u0127": 1968,
  "\u00e5\u00bc\u0142\u00e6\u013a\u0130": 7973,
  "\u00e7\u00a8\u012f\u00e7\u0143\u012b": 15518,
  "\u0120\u00e8\u00bf\u013b\u00e4\u00b8\u00aa\u00e4\u00b8\u013e\u00e8\u00a5\u00bf": 13677,
  "\u00e4\u00b8\u0122\u00e4\u00b8\u00aa\u00e5\u0143\u00a9\u00e5\u0143\u0132": 12768,
  "\u00e6\u013a\u00be\u00e8\u0133\u0139": 15964,
  "\u00e4\u00bd\u0142\u00e4\u00b8\u012f\u00e7\u0136\u00a8": 9749,
  "\u0120\u00e5\u0135\u00aa\u00e6\u0122\u0137": 3316,
  "\u00e5\u00be\u0127\u00e9\u0123\u0129": 11765,
  "\u00e5\u0132\u0130\u00e7\u013c\u0126": 4022,
  "\u00e6\u00b4\u00bb\u00e5\u013e\u00a8": 9981,
  "\u00e5\u00af\u00b9\u00e5\u0143\u00a9\u00e5\u0143\u0132": 12973,
  "\u00e5\u00a4\u00b1\u00e4\u00ba\u0128": 11230,
  "\u0120\u00e7\u0130\u012d\u00e7\u012a\u00b7": 11331,
  "\u00e6\u0141\u0132\u00e7\u00a7\u012f": 8281,
  "\u00e7\u00aa\u012f": 12619,
  "\u00e6\u012e\u00af": 4594,
  "\u00e6\u0122\u00bb\u00e7\u00bb\u0135": 7191,
  "\u00e5\u0125\u0131\u00e6\u012a\u0133\u00e4\u00bb\u00ac": 13300,
  "\u00e6\u0130\u00a5\u00e5\u0131\u0139\u00e4\u00b8\u012f\u00e4\u00ba\u0128": 10993,
  "\u0120\u00e8\u00b0\u00a2\u00e8\u00b0\u00a2": 1363,
  "\u00e4\u00ba\u00b2\u00e8\u0129\u00aa": 3974,
  "\u00e9\u013c\u0136\u00e5\u00a3\u0123": 6557,
  "\u00e7\u0130\u00a9": 800,
  "\u00e6\u012a\u0132\u00e6\u013e\u00ac": 5510,
  "\u00e4\u00ba\u012e\u00e5\u012f\u0123\u00e4\u00ba\u0136": 4835,
  "\u00e6\u013e\u0122\u00e7\u00bb\u012a": 4041,
  "\u00e6\u0130\u00a5\u00e7\u013f\u0122": 4592,
  "\u012a": 78,
  "\u0120\u00e5\u0128\u012f": 1126,
  "\u00e5\u012c\u00bf\u00e5\u012c\u013d": 11505,
  "\u00e8\u00af\u0123": 860,
  "\u00e9\u013c\u0132\u00e8\u0136\u00bd": 14257,
  "\u00e6\u00a7\u00bd": 5371,
  "\u00e7\u012e\u00b4\u00e5\u0143\u0132": 6242,
  "\u00e5\u00a4\u00a7\u00e9\u0129\u0131": 7423,
  "\u00e8\u00b0\u012a\u00e8\u00bf\u0129": 9579,
  "\u00e8\u00b7\u0141\u00e4\u00bd\u0142\u00e8\u00ae\u00b2": 10816,
  "\u0120\u00e4\u00ba\u0128\u00e8\u00a7\u00a3\u00e6\u013d\u00b4\u00e5\u00a4\u013c\u00e8\u00b4\u00a2\u00e7\u00bb\u0131\u00e8\u00b5\u0126\u00e8\u00ae\u00af": 14618,
  "\u00e5\u012a\u00ab\u00e5\u012a\u00ab": 5245,
  "\u0120\u00e6\u012a\u0133\u00e6\u0125\u00b3": 1289,
  "\u00e7\u00b3": 475,
  "\u00e5\u0128\u00a5": 10158,
  "\u00e9\u0125\u00bd\u00e5\u00a5\u00bd": 10500,
  "\u00e9\u00a9\u00b4": 5998,
  "\u00e7\u0138\u013b\u00e7\u013a\u00a9": 15438,
  "\u00e7\u013a\u00a4": 9583,
  "\u00e5\u013e\u00a8\u00e8\u00bf\u013b\u00e8\u00be\u00b9": 14534,
  "\u0120\u00e8\u00af\u00b4\u00e4\u00bd\u0142": 11112,
  "\u00e6\u00b0\u0136\u00e6\u00b0\u013d": 13219,
  "\u00e9\u00bb\u0133\u00e4\u00ba\u0128": 8591,
  "\u00e5\u0131\u0133\u00e6\u012e\u00a5": 6114,
  "\u00e7\u013e\u012d\u00e5\u00ae\u012e": 14373,
  "\u00e9\u0124\u00a3\u00e4\u00b9\u012a\u00e5\u00a4\u013c": 2322,
  "\u00e5\u0137\u012c\u00e6\u013a\u00af": 10531,
  "\u00e6\u013e\u012b\u00e4\u00ba\u00ba": 1494,
  "\u00e4\u00bd\u0142\u00e8\u00a6\u0123\u00e5\u00b9\u00b2\u00e4\u00bb\u0122\u00e4\u00b9\u012a\u00e5\u0137\u00a6": 12787,
  "\u00e8\u00bf\u0132\u00e5\u012c\u00a8": 2997,
  "\u00e4\u00bc\u013a\u00e9\u013d\u0127": 13604,
  "\u00e5\u012a\u00b0\u00e4\u00b8\u0122": 13214,
  "\u00e7\u00bb\u0135\u00e4\u00ba\u0128\u00e5\u00a9\u013c": 10322,
  "\u00e5\u0129\u0143\u00e4\u00bb\u0122\u00e4\u00b9\u012a": 5330,
  "\u00e9\u0137\u00bf\u00e6\u00b1\u0141": 12687,
  "\u00e5\u00bf\u0125": 263,
  "\u00e5\u00b1\u012a": 2836,
  "\u00e6\u00bd\u013e\u00e6\u0126\u0131\u00e8\u00af\u0128": 12997,
  "\u00e5\u012f\u0125\u00e4\u00b8\u0129\u00e4\u00b8\u012f\u00e8\u0125\u00bd": 14474,
  "\u00e5\u00a4\u00a7\u00e4\u00bc\u013c": 7566,
  "\u00e7\u012a\u00b1\u00e4\u00b8\u012c": 6705,
  "\u0120\u00e8\u00b6\u012c\u00e6\u013f\u00a5\u00e8\u00b6\u012c": 10164,
  "\u0120\u00e5\u013d\u00bd\u00e5\u0128\u0127": 11730,
  "\u00e5\u0127\u00a8\u00e9\u0125\u00bd\u00e6\u013a\u00af": 13247,
  "\u00e7\u013c\u0126\u00e5\u0132\u00a7": 4303,
  "\u00e6\u0126\u0141\u00e5\u0131\u0139\u00e5\u012a\u00b0": 7463,
  "\u00e8\u00b7\u00af\u00e7\u00ba\u00bf": 13278,
  "\u00e8\u00ae\u00a4\u00e8\u00af\u0128\u00e4\u00bb\u0138": 12904,
  "\u00e4\u00b8\u012f\u00e6\u00b8\u0127": 6376,
  "\u00e8\u00bf\u013b\u00e5\u00b0\u0131": 14799,
  "\u00e4\u00ba\u0128\u00e5\u0133\u00a2": 3173,
  "\u00e5\u00ba\u00b7": 1527,
  "\u00e6\u012b\u012f\u00e6\u013e\u012b": 8875,
  "\u00e6\u013e\u00ba\u00e6\u0140\u0126": 3382,
  "\u00e5\u00bf\u012f\u00e5\u0131\u0139": 10773,
  "\u00e6\u0135\u00a6": 3602,
  "\u00e7\u013c\u0126\u00e7\u012a\u00b6\u00e6\u00af\u012f": 11734,
  "\u00e5\u00be\u0139\u00e8\u00bf\u0129": 13522,
  "\u00e4\u00b8\u012f\u00e8\u00a1\u012e": 1511,
  "\u00e5\u0141\u0130": 877,
  "\u0120\u00e5\u00b9\u00bf\u00e4\u00b8\u013e": 6827,
  "\u00e8\u0138\u0129\u00e5\u00a7\u0132\u00e5\u00a7\u0132": 13340,
  "\u0120\u00e5\u00aa\u00b3\u00e5\u00a6\u0129": 9810,
  "\u00e6\u0139\u0142\u00e6\u0125\u0127": 14027,
  "\u0120\u00e6\u012a\u0133\u00e9\u0139\u00ae": 8748,
  "\u0120\u00e6\u0137\u0133": 6989,
  "\u00e5\u00b0\u0133\u00e7\u013c\u0126": 13840,
  "\u00e8\u00b5\u00b7\u00e6\u013f\u00a5\u00e7\u013c\u0126": 9045,
  "\u00e6\u013d\u00be\u00e5\u013d\u00bd\u00e8\u0139\u00a9": 14675,
  "\u00e4\u00b8\u012f\u00e5\u00a5\u00bd\u00e7\u013e\u012d": 15096,
  "\u0120\u00e8\u00bf\u0129\u00e4\u00ba\u0128": 9514,
  "\u00e6\u013b\u013c\u00e9\u0139\u00b4": 8892,
  "\u00e4\u00b8\u0122\u00e4\u00ba\u013d\u00e4\u00b8\u013e\u00e8\u00a5\u00bf": 15140,
  "\u00e7\u013c\u0126\u00e5\u0133\u00a2": 3194,
  "\u0120\u00e4\u00bd\u0142\u00e8\u0125\u00bd": 3128,
  "\u00e7\u013f\u0122": 251,
  "\u00e6\u00b3\u0137": 454,
  "\u00e4\u00b8\u0122\u00e6\u00ae\u00b5\u00e6\u0139\u00b6\u00e9\u0139\u00b4": 4641,
  "\u00e6\u0129": 933,
  "\u00e5\u0138": 335,
  "\u0120\u00e5\u00bd\u00a9": 13093,
  "\u00e4\u00bb\u00a5\u00e5\u0132\u0130": 739,
  "\u00e5\u0137\u0128\u00e5\u012c\u00a1": 11797,
  "\u00e8\u012a\u00b9": 2525,
  "\u0120\u00e5\u0131\u00af\u00e6\u012a\u0133": 10520,
  "\u00e8\u00bf\u013b\u00e8\u00be\u00b9": 2899,
  "\u00e6\u0130\u00a5\u00e4\u00b8\u012d\u00e6\u013f\u00a5\u00e7\u013c\u0126": 12197,
  "\u00e5\u012f\u013c\u00e5\u00a3\u00ab": 6450,
  "\u00e5\u00be\u0122\u00e5\u00be\u0122": 4165,
  "\u00e5\u00a4\u013c\u00e5\u00b0\u0131\u00e6\u0139\u00b6": 14461,
  "\u00e5\u0131\u012f\u00e8\u00bf\u0129\u00e6\u013f\u00a5": 9040,
  "\u00e8\u00b4\u0141\u00e9\u013f\u00a2\u00e6\u0125\u0127\u00e7\u00bb\u00aa": 14504,
  "\u00e8\u00bf\u0129\u00e5\u0137\u012c": 14374,
  "\u00e5\u00b0\u00b1\u00e5\u00a5\u00bd\u00e4\u00ba\u0128": 4301,
  "\u00e8\u00a1\u00a8\u00e7\u00a4\u00ba": 1656,
  "\u00e4\u00be\u012d": 1536,
  "\u00e5\u0131\u00a5\u00e8\u00af\u013f": 1231,
  "\u00e4\u00bb\u0138\u00e5\u00bf\u0125\u00e9\u0129\u012e": 12191,
  "\u00e5\u00a4\u0138\u00e8\u00a1\u00a8": 14986,
  "\u00e6\u013b\u013c\u00e9\u00a5\u0143": 10782,
  "\u00e7\u013c\u0126\u00e6\u0139\u00b6\u00e5\u0122\u013b\u00e5\u0132\u00a7": 14341,
  "\u00e5\u0135\u00a5\u00e4\u00bb\u00ac": 10918,
  "\u00e5\u0124": 1088,
  "\u00e5\u0129\u00bd": 13519,
  "\u00e5\u012a\u012c": 8441,
  "\u00e4\u00ba\u012e\u00e9\u013d\u00b6\u00e4\u00ba\u012e": 9878,
  "\u00e6\u00bc\u0128": 8678,
  "\u00e9\u00bb\u0126\u00e9\u0129\u0133": 5467,
  "\u00e4\u00ba\u00a4\u00e8\u0143\u00a6": 15632,
  "\u00e7\u00bb\u0131\u00e5\u00b8\u00b8": 1724,
  "\u00e5\u0131\u00a3": 639,
  "\u00e6\u0123\u0143\u00e5\u0138\u013e": 8376,
  "\u0120\u00e9\u013e\u012f": 14842,
  "\u00e6\u012f\u00a2\u00e4\u00b8\u00aa": 7933,
  "\u0120\u00e6\u00b4": 2945,
  "\u0120\u00e5\u013d\u0142\u00e4\u00b8\u00ba\u00e5\u013e\u00a8": 14187,
  "\u00e8\u00af": 125,
  "\u00e5\u0138\u013e\u00e6\u00ac\u00a2\u00e7\u013c\u0126\u00e4\u00ba\u00ba": 7855,
  "\u00e6\u013a\u00af\u00e4\u00b8\u012f\u00e5\u0131\u00af\u00e8\u0125\u00bd": 12597,
  "\u0120\u00e5\u0123\u00b7": 9621,
  "\u0120\u00e7\u013f": 3921,
  "\u0120\u00e9\u0129\u012f\u00e7\u0124\u00b9": 15049,
  "\u00e4\u00b8\u0122\u00e5\u00b2\u0123": 8507,
  "\u00e4\u00ba\u00ba\u00e5\u00ae\u00b6\u00e7\u013c\u0126": 13755,
  "\u00e5\u00b9\u00b6\u00e6\u00b2\u00a1\u00e6\u013e\u012b": 3308,
  "\u00e7\u00a9\u00bf\u00e4\u00b8\u012c": 9098,
  "\u00e5\u00bf\u0125\u00e6\u0122\u013f": 6105,
  "\u0120\u00e7\u00b3": 7654,
  "\u00e8\u00be\u0125\u00e5\u00a4\u00a7": 15901,
  "\u00e4\u00b9\u012d\u00e9\u0139\u00b4\u00e7\u013c\u0126": 4486,
  "\u00e6\u012b\u0135\u00e4\u00bd\u0142": 10882,
  "\u0120\u00e8\u00bf\u013b\u00e4\u00b8\u00a4\u00e4\u00b8\u00aa": 14846,
  "\u00e5\u00a1": 1683,
  "\u00e6\u012e\u00a8": 4927,
  "\u00e5\u00a4\u0138\u00e8\u00be\u00b9": 8287,
  "\u00e8\u00af\u00b4\u00e8\u0129\u00aa\u00e5\u00b7\u00b1": 7250,
  "\u00e7\u013c\u0126\u00e6\u0139\u00b6\u00e4\u00bb\u00a3": 15754,
  "\u00e5\u00bd\u0135\u00e5\u0127\u00b5": 11834,
  "\u00e4\u00b8\u00bb\u00e8\u00a6\u0123\u00e7\u013c\u0126": 14876,
  "\u00e7\u013c\u0126\u00e8\u00b7\u00af\u00e4\u00b8\u012c": 9515,
  "\u00e5\u0130\u00bb\u00e4\u00b8\u0138": 6527,
  "\u00e6\u0126\u0131\u00e8\u00af\u0128\u00e5\u012a\u00b0": 6871,
  "\u00e5\u0127\u00ab\u00e9\u0123\u0135": 11226,
  "\u00e9\u013b\u00a2\u00e9\u0129\u012e": 15727,
  "\u0120\u00e5\u00b1\u0137": 10982,
  "\u00e5\u012a\u0122": 2094,
  "\u00e8\u0124\u00a9": 4714,
  "\u00e5\u00b0\u0131\u00e9\u00be\u013b": 13613,
  "F": 12,
  "\u00e5\u00a5\u00bd\u00e4\u00ba\u012d": 8556,
  "\u00e8\u00b5\u00b0\u00e4\u00b8\u012d\u00e5\u0130\u00bb": 12048,
  "\u00e5\u013d\u013d\u00e4\u00b8\u00aa\u00e5\u0143\u0139": 9216,
  "\u0120\u00e6\u012a\u0133\u00e5\u00ab\u0124\u00e5\u0143\u0132": 13671,
  "\u00e9\u0137\u00bf\u00e4\u00b9\u0127": 8676,
  "\u00e8\u00bf\u013b\u00e6\u0142\u00b7\u00e5\u0133\u00a2": 12743,
  "\u00e4\u00b8\u012f\u00e8\u0125\u00bd\u00e8\u00ae\u00a9": 12545,
  "\u0120\u00e4\u00bd\u0142\u00e6\u012a\u0133": 12077,
  "\u00e5\u0123\u013c\u00e6\u00a2\u00a6": 7742,
  "\u0120\u00e5\u00a5\u00b9\u00e6\u013a\u00af": 9918,
  "\u00e4\u00ba\u00ba\u00e5\u0134\u012e": 8241,
  "\u00e5\u012a\u013c\u00e5\u00a5\u00bd": 7506,
  "\u00e5\u0131\u00af\u00e6\u0125\u013e": 7073,
  "\u00e5\u00a5\u00b9\u00e5\u00b0\u00b1": 10464,
  "\u00e5\u0127\u00a5\u00e7\u013f\u00a1": 15141,
  "\u0120\u00e5\u0125\u0131\u00e6\u012a\u0133": 14142,
  "\u00e5\u0131\u00aa\u00e6\u0125\u00b3": 11006,
  "\u00e9\u0124\u00a3": 157,
  "\u00e6\u012b\u0135\u00e7\u0142\u00b4": 13091,
  "\u0120\u00e5\u00a4\u00a9\u00e4\u00b8\u012d": 12961,
  "\u00e7\u0136\u0141\u00e7\u012b\u00a9": 5988,
  "\u00e9\u0139\u00b9\u00e4\u00ba\u0128": 12159,
  "\u00e5\u00b8\u00a6\u00e4\u00ba\u0128": 10900,
  "\u00e4\u00bb\u012c\u00e5\u00a4\u00a9\u00e8\u00a6\u0123": 13326,
  "\u00e9\u00a2\u0128\u00e5\u0127\u012a": 13789,
  "\u00e8\u00bf\u0129\u00e4\u00b8\u0122": 12433,
  "\u0120\u00e6\u012a\u0133\u00e6\u0122\u00bb": 13319,
  "\u00e8\u00ae\u00ae\u00e8\u00ae\u00ba": 14826,
  "\u00e6\u012f\u00b7": 7202,
  "\u0120\u00e8\u0125\u00bd\u00e5\u0132\u00ac\u00e5\u012a\u00b0": 14133,
  "\u00e6\u0122\u00bb\u00e6\u013e\u012b": 15676,
  "\u00e4\u00b9\u013f\u00e7\u013b\u00be": 6326,
  "\u00e5\u00b9\u00bb": 4713,
  "\u00e4\u00ba\u00ba\u00e5\u00ae\u00b6": 928,
  "\u00e8\u00b4\u0141": 1177,
  "\u00e8\u00bf\u013b\u00e4\u00b8\u0122\u00e5\u00a4\u00a9": 8299,
  "\u00e7\u012b\u00a9\u00e8\u00b5\u0126": 8360,
  "\u00e4\u00bb\u00b7\u00e5\u0122\u00bc\u00e8\u00a7\u0124": 11529,
  "\u00e4\u00bd\u00b3\u00e7\u0132\u00aa": 7069,
  "\u00e7\u012b\u00b9\u00e5\u00b7\u00a5": 15437,
  "\u00e5\u00bc\u0125": 1660,
  "\u00e7\u0140\u00a7\u00e7\u0140\u00a7": 13855,
  "\u00e5\u00bf\u0125\u00e7\u0138\u00bc": 4962,
  "\u00e4\u00b8\u012b\u00e6\u0139\u00a5": 8933,
  "\u00e4\u00bb\u0136": 3299,
  "\u00e4\u00b8\u012f\u00e6\u0138\u0143\u00e7\u013c\u0126": 12757,
  "\u00e6\u012c\u012c": 331,
  "\u00e5\u0132\u012a\u00e7\u00ba\u00a6": 15441,
  "\u00e6\u0126\u0131\u00e5\u00bf\u0139": 10971,
  "\u00e4\u00b8\u00be\u00e5\u012c\u00a8": 12329,
  "\u00e8\u0128\u012c": 7810,
  "\u00e8\u00bf\u013a\u00e4\u00b8\u012f\u00e5\u00a6\u0124": 10381,
  "\u00e6\u00b4\u00b2": 2909,
  "\u00e4\u00b9\u0141\u00e6\u013a\u00af\u00e6\u013e\u012b": 13880,
  "\u00e5\u0131\u0133\u00e7\u0136\u0141\u00e4\u00bb\u0122\u00e4\u00b9\u012a": 14131,
  "\u00e7\u00ae\u0122": 1401,
  "\u0120\u00e5\u0131\u0136\u00e5\u0131\u0136": 9305,
  "\u00e5\u0141\u012d\u00e6\u0122\u00a8": 13693,
  "\u00e5\u012c\u013f\u00e4\u00bd\u0142": 12231,
  "\u0120\u00e6\u0143\u00a4": 2650,
  "\u00e6\u0136\u00b9\u00e4\u00ba\u0128": 15143,
  "\u00e7\u00ac\u0133\u00e7\u013c\u0126": 13754,
  "\u00e4\u00b8\u012f\u00e7\u00bb\u0131": 15756,
  "\u00e5\u012a\u00b0\u00e5\u012e\u00bb\u00e9\u013b\u00a2": 15424,
  "\u00e8\u00bd\u00af": 2661,
  "\u00e5\u00ae\u012b\u00e8\u00a3\u0127": 14665,
  "\u00e5\u012b\u012f": 347,
  "\u00e4\u00b8\u0122\u00e8\u00b5\u00b7\u00e5\u0130\u00bb": 5491,
  "\u00e8\u00af\u00b4\u00e4\u00b8\u012f": 3161,
  "\u0120\u00e5\u0127\u00b6\u00e5\u00ae\u0140": 841,
  "\u00e5\u0123\u00b6\u00e7\u0126\u00b6": 11697,
  "\u00e5\u00a5\u00bd": 170,
  "\u00e5\u00bc\u0122\u00e6\u0140\u00aa": 8675,
  "\u00e8\u00bf\u013b\u00e5\u00b0\u00b1": 8814,
  "\u00e8\u0122\u0123\u00e5\u0127\u00ac": 1550,
  "\u00e5\u013e\u00a8\u00e4\u00ba\u0128": 3831,
  "\u00e4\u00b8\u00aa\u00e4\u00bd\u0135": 13187,
  "\u0120\u00e6\u00a2\u0127": 11754,
  "\u00e5\u0135\u00aa": 534,
  "\u00e6\u00a1\u0125\u00e5\u0143\u0132": 13690,
  "\u0120\u00e5\u012a\u00b0\u00e6\u0139\u00b6\u00e5\u0122\u013b": 5009,
  "\u0120\u00e5\u00af\u00bb": 13019,
  "\u00e5\u0131\u012a\u00e5\u013e\u00a8": 14524,
  "\u00e5\u00bb\u00ba": 941,
  "\u00e8\u00af\u00b4\u00e4\u00ba\u0128\u00e7\u00ae\u0139": 11714,
  "\u00e4\u00bb\u0138\u00e7\u013c\u0126": 715,
  "\u00e4\u00b9\u013a": 3820,
  "\u00e5\u013d\u00bd\u00e5\u00ba\u0128": 10340,
  "\u0120\u00e6\u012c\u00b1": 7856,
  "\u00e5\u00af\u00b9\u00e6\u012a\u0133\u00e6\u013f\u00a5\u00e8\u00af\u00b4": 10699,
  "\u00e7\u00b4\u0142\u00e8\u00b4\u00a8": 10345,
  "\u0120\u00e5\u00b1\u00b1": 5132,
  "\u00e7\u013c\u0126\u00e4\u00b8\u0122\u00e4\u00b8\u00aa\u00e4\u00ba\u00ba": 11718,
  "\u00e8\u012f\u0134": 4550,
  "\u00e7\u00bb\u013b\u00e4\u00bd\u0142": 722,
  "\u00e4\u00b9\u012d\u00e6\u012b\u0122\u00e4\u00bb\u00a5": 5490,
  "\u00e4\u00b8\u0138\u00e4\u00b8\u012c": 6899,
  "\u0120\u00e6\u013d\u00b4\u00e5\u00a4\u013c": 7171,
  "\u00e5\u0129\u0131\u00e5\u00b0\u0133": 5450,
  "\u00e6\u013e\u012b\u00e7\u0124\u00b9": 1220,
  "\u00e6\u0140\u013c": 7824,
  "\u0120\u00e5\u0130\u0128": 10232,
  "\u00e4\u00bb\u0128": 15386,
  "\u0120\u00e7\u00a5\u013f": 3082,
  "\u00e6\u0143\u00a3\u00e9\u013f\u00a2": 12196,
  "\u00e6\u0132\u0135": 10716,
  "\u00e6\u00b6\u00af": 7684,
  "\u0120\u00e6\u012a\u013a": 11826,
  "\u00e6\u00b1\u00a1": 6083,
  "\u0120\u00e4\u00b8\u00ba\u00e4\u00bb\u0122\u00e4\u00b9\u012a": 1350,
  "\u00e4\u00bb\u0122\u00e4\u00b9\u012a\u00e6\u0142\u00b7\u00e7\u013c\u0126\u00e4\u00ba\u00ba": 13576,
  "\u00e9\u0135\u0123": 1719,
  "\u00e5\u00bf\u0125\u00e9\u0129\u012e": 1163,
  "\u0120\u00e6\u013e\u0122\u00e8\u00bf\u0133": 3342,
  "\u00e6\u012c\u012c\u00e4\u00bd\u0142\u00e7\u013c\u0126": 7538,
  "\u00e9\u00a4\u0132\u00e9\u00a5\u00ae": 9638,
  "\u00e4\u00bd\u0128\u00e6\u013a\u00af\u00e6\u012a\u0133": 5029,
  "\u00e4\u00b8\u0129\u00e9\u0129\u012e": 15774,
  "\u00e8\u0124\u012e": 6699,
  "\u00e4\u00b8\u0122\u00e5\u013f\u0139": 2010,
  "\u0120\u00e4\u00bd\u0142\u00e7\u013e\u0141\u00e7\u013c\u0126": 6776,
  "\u00e9\u0137\u00bf\u00e5\u00ae\u013a": 6667,
  "\u00e5\u00bd\u0137\u00e5\u0125\u0131": 14728,
  "\u0120\u00e4\u00bb\u0138\u00e5\u0134\u012e": 12771,
  "\u00e5\u0127\u00ac\u00e5\u0131\u00b8\u00e7\u013c\u0126": 4002,
  "\u00e4\u00b8\u0122\u00e9\u00a6\u0138\u00e6\u0143\u012e": 9516,
  "\u00e6\u0124\u00b2\u00e5\u012b\u00a7": 14537,
  "\u00e5\u0135\u00aa\u00e6\u013e\u012b": 7384,
  "\u00e6\u013d\u00be\u00e7\u00bb\u0131": 1762,
  "\u00e9\u013b\u012a": 1367,
  "\u0120\u00e5\u0131\u0124": 6813,
  "\u0120\u00e6\u012a\u0133\u00e7\u0141\u00a5\u00e9\u0123\u0135\u00e4\u00ba\u0128": 8239,
  "\u00e6\u0125\u00b3\u00e7\u013c\u0126": 3631,
  "\u00e5\u0127\u00b3\u00e8\u0123\u0136": 15058,
  "\u00e5\u0122": 242,
  "\u00e4\u00b9\u0141\u00e6\u013a\u00af\u00e4\u00b8\u00aa": 10834,
  "\u0120\u00e8\u0122\u012e\u00e4\u00bd\u0142": 13872,
  "\u00e4\u00bd\u00a9\u00e6\u012a\u00b4\u00e5\u0131\u00a3\u00e7\u00bd\u00a9": 15458,
  "\u00e6\u013f\u00a5\u00e5\u00be\u0139": 6113,
  "\u00e7\u0141": 266,
  "\u00e6\u00b3\u00a1\u00e6\u00b3\u00a1": 10995,
  "\u00e6\u00b3\u00b3": 5299,
  "\u00e7\u013d\u00b8\u00e9\u0123\u0129\u00e5\u013e\u00a8\u00e5\u00bc\u0142\u00e5\u00be\u00b7\u00e8\u012c\u00ac\u00e7\u00a9\u00ba\u00e9\u0139\u00b4": 7857,
  "\u00e8\u00bf\u013b\u00e6\u013a\u00af": 1099,
  "\u00e4\u00ba\u0128\u00e4\u00b8\u0122\u00e5\u00a3\u00b0": 13442,
  "\u0120\u00e5\u00af\u00b9\u00e4\u00bd\u0142": 9568,
  "\u0120\u00e5\u0127\u00b3\u00e6\u00b3\u00a8": 10944,
  "\u0120\u00e5\u00a4\u00a9\u00e5\u00a4\u00a9": 5484,
  "\u00e8\u00b4\u0141\u00e9\u013f\u00a2": 8553,
  "\u00e5\u00bb\u012c": 9797,
  "\u00e4\u00b8\u00a4\u00e5\u012f\u0125": 3582,
  "\u00e7\u00bb\u012a\u00e4\u00ba\u0130": 1987,
  "\u00e6\u012d\u012b\u00e6\u012d\u012b": 15407,
  "\u00e4\u00b8\u0143\u00e5\u00a4\u00ae": 4144,
  "\u00e6\u0125\u013e": 2351,
  "\u00e9\u0125\u0123\u00e9\u0139\u00b7": 13452,
  "\u00e5\u0137\u00a5": 787,
  "\u00e5\u00a4\u012f": 967,
  "\u00e4\u00b8\u012f\u00e5\u00bc\u0125": 15196,
  "\u0120\u00e7\u00bb\u013f\u00e5\u00af\u00b9": 8580,
  "\u0120\u00e4\u00bd\u0142\u00e5\u00af\u00b9": 9587,
  "\u00e8\u00af\u00b4\u00e6\u00b8\u0127\u00e6\u00a5\u013c": 9518,
  "\u00e9\u013a\u00bb": 3640,
  "\u00e8\u00bf\u013b\u00e4\u00b8\u00aa": 217,
  "\u00e5\u0135\u0141": 3793,
  "\u00e6\u012a\u0133\u00e7\u012b\u00b9\u00e5\u012a\u00ab": 14509,
  "\u00e4\u00b9": 118,
  "\u0120\u00e5\u00b0\u00bd\u00e9\u0129\u0131": 13108,
  "\u00e4\u00b9\u012d\u00e4\u00b8\u012d": 4362,
  "\u0120\u00e5\u013a\u012b": 7828,
  "\u00e8\u0143\u00a6": 1206,
  "\u0120\u00e7\u0143": 1386,
  "\u00e4\u00bd\u0142\u00e4\u00b8\u0122\u00e4\u00b8\u00aa": 13578,
  "\u00e5\u00a4\u00a7\u00e8\u00a7\u0126\u00e6\u00a8\u00a1": 14700,
  "\u0120\u00e6\u013e\u012b\u00e4\u00b8\u0122\u00e5\u00a4\u00a9": 4560,
  "\u00e6\u012d\u013a": 8500,
  "\u00e7\u0136\u0141\u00e7\u0139\u0127": 5540,
  "\u0120\u00e8\u0124\u00af\u00e5\u00ae\u013c\u00e6\u013a\u00af": 12008,
  "\u00e9\u00ab\u013a\u00e8\u00be\u00be": 9941,
  "\u00e5\u00a5\u0129\u00e6\u0122\u00aa": 3474,
  "\u00e5\u00be\u0134": 3278,
  "\u00e5\u012d\u013a": 12929,
  "\u00e8\u00bf\u013b\u00e9\u0129\u012e\u00e6\u013a\u00af": 9018,
  "\u00e9\u00a6\u0138\u00e6\u0143\u012e": 2538,
  "\u00e8\u00af\u00be": 1540,
  "\u00e7\u00be\u00a1\u00e6\u0127\u0137": 4877,
  "\u00e4\u00ba\u00ba\u00e5\u0133\u00a2": 3414,
  "\u00e8\u00af\u00b7\u00e5\u00ae\u00a2": 14861,
  "\u0120\u00e8\u00bf\u013b\u00e9\u0134\u00b1": 14753,
  "\u00e5\u00b0\u00b1\u00e6\u013a\u00af\u00e4\u00b8\u0122\u00e4\u00b8\u00aa": 3987,
  "\u00e7\u0129\u00a5": 9314,
  "\u0120\u00e4\u00b8\u00bb\u00e4\u00bb\u00bb": 15612,
  "\u0120\u00e5\u00a4\u00aa\u00e5\u00a5\u00bd\u00e4\u00ba\u0128": 6961,
  "\u00e7\u00ac\u0136\u00e9\u0134\u00b1": 10700,
  "\u00e8\u00bf\u013d\u00e8\u00a1\u012e": 1446,
  "\u00e4\u00ba\u0128\u00e5\u00b0\u0131": 14510,
  "\u00e6\u0138\u0129\u00e5\u012e\u0138\u00e7\u013c\u0126": 15792,
  "\u00e4\u00bd\u0142\u00e4\u00b8\u0122\u00e5\u00ae\u013c\u00e8\u00a6\u0123": 14431,
  "\u0120\u00e9\u0125\u00bd\u00e5\u0131\u00af\u00e4\u00bb\u00a5": 14312,
  "\u0120\u00e7\u0124": 4171,
  "\u0120\u00e9\u013d\u00a8": 10687,
  "\u00e8\u00a7\u0134\u00e8\u0132\u00bd": 7428,
  "\u00e8\u00a1\u00b7": 7134,
  "\u00e9\u00be\u013b\u00e5\u00a4\u00b4": 11955,
  "\u00e7\u00ba\u00aa\u00e5\u00be\u012d": 12185,
  "\u00e4\u00b8\u0122\u00e7\u013b\u00be\u00e4\u00b8\u0122": 13918,
  "\u00e5\u00bf": 173,
  "\u0120\u00e6\u00bc": 6101,
  "\u00e5\u00b7\u00a5\u00e5\u00a4\u00ab": 13712,
  "\u0120\u00e6\u012a\u0133\u00e4\u00b8\u0122": 5316,
  "\u0120\u00e4\u00ba\u00ba\u00e5\u00ae\u00b6": 2226,
  "\u00e6\u013d\u00b4\u00e6\u0138\u00b0": 5883,
  "\u00e5\u0123\u00b7": 1694,
  "\u00e6\u00b2\u00b3\u00e5\u012f\u0139": 9297,
  "\u00e4\u00b8\u012b\u00e5\u00b9\u00b4\u00e4\u00ba\u0128": 15626,
  "\u0120\u00e6\u00b2\u00a1\u00e4\u00ba\u00ba": 9807,
  "\u00e5\u012f\u0131\u00e4\u00bc\u013c": 9930,
  "\u00e4\u00b8\u0122\u00e8\u00b5\u00b7\u00e9\u0123\u0129\u00e8\u00a7\u0123\u00e6\u013e\u00aa\u00e7\u0141\u00a5\u00e7\u013c\u0126\u00e8\u0129\u00aa\u00e5\u00b7\u00b1": 7308,
  "\u0120\u00e8\u00bf\u013b\u00e6\u00ac\u00a1": 3252,
  "\u00e7\u013e\u012d\u00e5\u00be\u0127": 12021,
  "\u00e6\u0137\u012a\u00e6\u0140\u013e": 4588,
  "\u00e9\u00ab\u013a\u00e4\u00ba\u0130": 12689,
  "\u00e4\u00b8\u00a4": 352,
  "\u00e4\u00b8\u0122\u00e6\u0143\u00a5\u00e4\u00b8\u0122\u00e6\u0143\u00a5": 15485,
  "\u00e6\u0139\u00b6\u00e5\u00b8\u00b8": 13904,
  "\u00e8\u00bf\u0129\u00e6\u013f\u00a5": 1121,
  "\u00e6\u0125\u00b3\u00e5\u0137\u012c": 6092,
  "\u00a1\u00e4\u00b8\u00b9": 15385,
  "\u00e6\u013e\u012b\u00e4\u00b8\u00a4": 9113,
  "\u00e5\u00b4\u00bd\u00e5\u0143\u0132": 15106,
  "\u0120\u00e6\u012a\u0133\u00e8\u00bf\u013a": 2297,
  "\u0120\u00e6\u013e\u00ac\u00e6\u013f\u00a5": 4202,
  "\u00e4\u00b9\u0141\u00e4\u00b8\u012f\u00e6\u0137\u00a2": 11782,
  "\u00e6\u012e\u0123\u00e6\u013e\u012b": 12490,
  "\u00e5\u00bf\u00b5": 1247,
  "\u0120\u00e5\u0130\u0141\u00e6\u013e\u00ac": 10739,
  "\u0120\u00e5\u0131\u0133": 2207,
  "\u00e4\u00b8\u00b9\u00e4\u00b8\u00b9": 13426,
  "\u00e8\u00bf\u013b\u00e4\u00b8\u00aa\u00e6\u013a\u00af": 9163,
  "\u00e4\u00ba\u0136\u00e5\u00a4\u00a9": 13621,
  "\u00e5\u00a4\u00a9\u00e7\u0126\u00b6": 12769,
  "\u00e6\u013f\u00be\u00e9\u00bc\u0142": 7192,
  "\u00e5\u00b9\u00b4\u00e9\u00be\u0126": 2984,
  "\u00e5\u0128\u00af": 6383,
  "\u00e6\u013e\u0122\u00e9\u00ab\u013a\u00e7\u013c\u0126": 12612,
  "\u00e8\u00b8\u00a9": 3989,
  "\u00e6\u00b5\u0123\u00e6\u00b3\u00aa": 14125,
  "\u00e5\u00b0\u00bd\u00e5\u0131\u00af\u00e8\u0125\u00bd": 15784,
  "\u00e7\u013c\u0126\u00e7\u00a2": 12049,
  "\u00e5\u0127\u012d\u00e5\u012a\u00b6": 15735,
  "\u00e5\u00a4\u00a7\u00e6\u00a6\u0124": 3075,
  "\u00e5\u0131\u012a\u00e4\u00b8\u0122\u00e6\u00ac\u00a1": 12245,
  "\u0120\u00e8\u00ae\u00b8\u00e5\u00a4\u013c": 10009,
  "\u00e4\u00ba\u012d\u00e4\u00bb\u00b6": 4457,
  "\u00e5\u00a7\u0133\u00e5\u00a7\u0133": 8704,
  "\u00e6\u0143\u00a3\u00e5\u013e\u00a8\u00e8\u0123\u0128\u00e5\u0132\u00ac": 11899,
  "\u00e4\u00b8\u012f\u00e8\u00ae\u00a9\u00e4\u00bd\u0142": 15347,
  "\u00e6\u00b4\u0139\u00e8\u00a1\u00a3": 13851,
  "\u00e6\u012d\u00ac": 1581,
  "\u00e4\u00b8\u0122\u00e5\u00b9\u00b4\u00e7\u013c\u0126": 12842,
  "\u00e5\u0135\u0130\u00e5\u0135\u0130": 15371,
  "\u00e5\u012c\u013d\u00e5\u00ba\u00a6": 8710,
  "\u00e8\u0137\u00be": 9819,
  "\u00e5\u0132\u00a6\u00e8\u00ae\u00a4": 9176,
  "\u00e8\u0122\u0123\u00e5\u0143\u0132": 8094,
  "\u0120\u00e5\u00b0\u00b1\u00e6\u013a\u00af\u00e4\u00b8\u00ba\u00e4\u00ba\u0128": 11171,
  "\u00e5\u00b7\u00ab": 9869,
  "\u00e8\u0123": 415,
  "\u00e5\u0129\u00af": 4828,
  "\u00e6\u013b\u00b0": 7424,
  "\u0120\u00e5\u0129\u0128": 4734,
  "\u00e5\u0131\u00aa\u00e6\u013e\u012b\u00e4\u00b8\u0122": 10188,
  "\u00e4\u00bb\u0122": 212,
  "\u00e8\u00bf\u0129\u00e7\u0136\u0141\u00e6\u0139\u00a5": 8918,
  "\u00e5\u00b0\u00b1\u00e6\u012c\u012c": 4893,
  "\u00e6\u00bc\u0136\u00e6\u012a\u0131": 9720,
  "\u00e6\u00b3\u00bd": 4366,
  "\u0120\u00e8\u00b5\u00b6\u00e5\u00bf\u00ab": 12262,
  "\u00e5\u0133\u012c\u00e8\u00af\u012b\u00e4\u00bd\u0142": 1411,
  "R": 24,
  "\u0120\u00e5\u00a4\u013c\u00e8\u00b0\u00a2": 10321,
  "\u00e4\u00bd\u0142\u00e8\u0125\u00bd\u00e4\u00b8\u012f\u00e8\u0125\u00bd": 13233,
  "\u00e8\u0122\u0123\u00e4\u00ba\u00ba": 4950,
  "\u013b\u00e6\u00b1\u0141": 7992,
  "\u00e9\u013a\u00b2\u00e8\u012e\u0125": 14872,
  "\u00e5\u00bd\u00bc\u00e6\u0143\u00a4\u00e7\u013c\u0126": 13947,
  "\u00e4\u00b8\u012f\u00e9\u0137\u00bf": 13433,
  "\u00e5\u0134\u0132": 7200,
  "\u0120\u00e7\u0130": 667,
  "\u00e6\u012d\u013e": 1878,
  "\u00e6\u0126\u0131\u00e6\u0122\u013f": 863,
  "\u00e4\u00bd\u0142\u00e4\u00b8\u012f\u00e6\u013a\u00af": 6565,
  "\u00e7\u013c\u0126\u00e8\u00af\u013f\u00e5\u00b0\u00b1": 9795,
  "\u00e8\u00b0\u00a6\u00e8\u013b\u013c": 15977,
  "\u00e5\u0127\u00b1\u00e5\u0127\u013c": 9175,
  "\u00e7\u0130\u012b": 2045,
  "\u00e5\u0123\u00b7\u00e5\u0123\u00b7": 5096,
  "\u00e4\u00b9\u013b": 15159,
  "\u00e7\u012a\u00b6\u00e6\u00af\u012f\u00e7\u013c\u0126": 6563,
  "\u0120\u00e7\u0143\u012b\u00e6\u012a\u0133": 6932,
  "\u00e5\u013d\u00bd\u00e6\u00b0\u0133\u00e5\u0127\u013c": 6661,
  "\u00e6\u0142\u00bc\u00e5\u00b1\u0122": 8397,
  "\u00e8\u00a3\u0124": 5079,
  "\u00e9\u013f\u0140\u00e5\u00b8\u00b8\u00e5\u00a5\u00bd": 8445,
  "\u00e7\u0136\u00b5\u00e5\u00bd\u00b1": 2042,
  "\u00e8\u00af\u00b8": 4051,
  "\u0120\u00e7\u0130\u00a9": 7492,
  "\u0120\u00e4\u00bd\u0142\u00e4\u00bb\u00ac\u00e7\u013c\u0126": 13020,
  "\u00e8\u00bf\u0133\u00e6\u0139\u00a5": 6772,
  "\u00e8\u00bf\u013b\u00e4\u00b8\u00aa\u00e4\u00ba\u00ba": 2275,
  "\u00e5\u0127\u0127\u00e5\u012a\u0128": 7041,
  "\u00e5\u00bd\u0137": 1728,
  "\u00e5\u00b0\u00b1\u00e6\u013a\u00af\u00e4\u00bb\u0138": 4453,
  "\u00e4\u00b9\u013f\u00e6\u0139\u00a5": 11363,
  "\u0120\u00e5\u0127\u00b6\u00e5\u00ae\u0140\u00e5\u00b0\u00b1\u00e6\u013a\u00af": 15682,
  "\u00e4\u00bb\u0130\u00e4\u00ba\u012d": 9308,
  "\u00e5\u00b0\u00bf": 4644,
  "\u00e7\u00be\u0130\u00e9\u00a3\u0141": 10394,
  "\u00e5\u00bb\u00b7": 5613,
  "\u00e6\u00b1\u0141": 1474,
  "\u00e9\u013f\u00a2\u00e8\u00af\u0137": 10017,
  "\u00e8\u00af\u013c\u00e6\u0126\u0131": 11371,
  "\u00e4\u00ba\u0134\u00e7\u013d\u00b8": 3978,
  "\u00e5\u00be\u00bd": 8671,
  "\u00e6\u0138\u0129\u00e5\u012e\u0138": 2547,
  "\u00e8\u00bf\u0130\u00e6\u0130\u00a5": 10361,
  "\u00e8\u013c\u0124": 7846,
  "\u00e4\u00b8\u012f\u00e8\u00b5\u00b0": 8870,
  "\u0120\u00e9\u013b\u0128": 6363,
  "\u00e6\u012a\u0138\u00e8\u0122\u0127\u00e6\u013a\u00af": 4628,
  "\u00e5\u00b7\u00b4\u00e9\u00bb\u0130": 14727,
  "\u0120\u00e5\u0135\u0130\u00e5\u0133\u0122": 3069,
  "\u00e5\u00a9\u00bf": 7813,
  "\u00e4\u00b8\u012f\u00e5\u00b0\u00b1\u00e5\u00ae\u012e\u00e4\u00ba\u0128\u00e5\u0132\u0139": 12380,
  "\u00e5\u00b0\u0131\u00e5\u00a7\u0132\u00e5\u00a7\u0132": 15426,
  "\u0120\u00e8\u00bf\u013b\u00e4\u00b8\u012f": 4545,
  "\u00e6\u012a\u0133\u00e4\u00b8\u0122\u00e5\u00ae\u013c": 11487,
  "\u00e6\u012d\u0128": 4848,
  "\u00e5\u0127\u00b1\u00e4\u00ba\u00a7\u00e5\u0127\u013c": 3725,
  "\u00e7\u012b\u00b9\u00e5\u012a\u00ab\u00e7\u012b\u00b9\u00e5\u012a\u00ab": 6662,
  "\u00e5\u00a7\u0135": 2106,
  "\u00e6\u00af\u00ab\u00e4\u00b8\u012f": 10091,
  "\u00e5\u00a4\u0131": 1971,
  "\u00e5\u00bf\u012f\u00e8\u0122\u0132": 15694,
  "\u0120\u00e5\u0129\u00af": 15483,
  "\u00e5\u00a7\u00a5\u00e5\u00a7\u00a5": 8472,
  "\u00e5\u013e\u00a8\u00e6\u0143\u00a4": 11184,
  "\u00e4\u00be\u012d\u00e5\u00a6\u0124": 13175,
  "\u00e5\u00b0\u0133": 556,
  "\u00e5\u00a5\u00b3\u00e5\u0131\u012d": 5895,
  "\u00e5\u013f\u0131": 1430,
  "\u00e7\u00bb\u00b5": 9204,
  "\u00e5\u00ba\u012c\u00e4\u00b8\u012c": 4311,
  "\u0120\u00e7\u00ab\u013b\u00e4\u00bd\u0131": 8133,
  "\u00e6\u013e\u00ba": 485,
  "\u00e7\u013e\u00bc\u00e7\u013f": 2060,
  "\u00e7\u013c\u0126\u00e4\u00bc\u0123\u00e4\u00b8\u013c": 14694,
  "\u00e5\u00bf\u012f\u00e7\u013f\u0122": 15216,
  "\u0120\u00e4\u00ba\u0130\u00e6\u013a\u00af": 2706,
  "\u00e5\u00a4\u00aa\u00e5\u0132\u013d": 15855,
  "\u00e8\u0126\u00b1\u00e4\u00ba\u0128": 14008,
  "\u0120\u00e5\u0131\u00af\u00e6\u013a\u00af\u00e4\u00bd\u0142": 7874,
  "\u00e5\u0131\u0133\u00e7\u0136\u0141\u00e7\u013c\u0126": 12255,
  "\u0120\u00e5\u00bc\u0142\u00e6\u013a\u0130": 12232,
  "\u00e8\u00bf\u013a\u00e4\u00b8\u012f\u00e6\u013a\u00af": 9053,
  "\u00e7\u013b\u00be\u00e5\u012a\u0128\u00e4\u00b9\u012d\u00e5\u013d\u013d\u00e5\u012f\u0123": 8435,
  "\u00e9\u0125\u00bd\u00e4\u00b8\u012f": 996,
  "\u00e5\u00ae\u013c\u00e4\u00b9\u012b": 9506,
  "\u0120\u00e4\u00b9\u0141\u00e4\u00b8\u012f\u00e6\u013a\u00af": 6177,
  "\u00e4\u00ba\u012e\u00e6\u012b\u012d": 13008,
  "\u00e9\u0135\u00b6\u00e8\u00a1\u012e\u00e5\u012f\u00a1": 14501,
  "\u00e4\u00bf\u013f\u00e5\u00a7\u0128": 10885,
  "\u00e5\u00b0\u00b1\u00e8\u00bf\u013b\u00e6\u0142\u00b7": 4672,
  "\u00e6\u00b7\u00b7\u00e4\u00b9\u00b1": 13228,
  "\u0120\u00e8\u00b0\u00a2\u00e8\u00b0\u00a2\u00e4\u00bd\u0142\u00e5\u0137\u012c": 13720,
  "\u00e7\u00a4\u00bc\u00e7\u012b\u00a9": 3371,
  "\u0120\u00e5\u00a5\u00bd\u00e5\u0125\u0131": 3155,
  "\u0120\u00e8\u00a5\u00bf\u00e5\u00ae\u012b": 6432,
  "\u00e5\u013e\u00a8\u00e5\u012e\u0139\u00e4\u00ba\u00ac": 7968,
  "\u00e6\u0136\u00be\u00e6\u012b\u012d": 6746,
  "\u00e9\u013c\u0136": 2330,
  "\u00e7\u013f\u0122\u00e4\u00bd\u0142": 2261,
  "\u00e5\u0128\u012f\u00e8\u00af\u00b4\u00e4\u00b8\u0122\u00e9\u0123\u012f": 11636,
  "\u00e6\u00a8\u00a1\u00e5\u00bc\u0131": 4063,
  "\u0120\u00e4\u00bd\u0128\u00e6\u013a\u00af\u00e8\u00bf\u013b\u00e4\u00b8\u00aa": 11225,
  "\u00e6\u013f\u00a5\u00e6\u00ba\u0132": 7575,
  "\u00e4\u00b8\u0143\u00e5\u0130\u0141": 12400,
  "\u00e6\u012a\u0133\u00e5\u00be\u012a": 6532,
  "\u00e6\u00b0\u0136\u00e7\u013c\u0126": 5794,
  "\u0120\u00e4\u00bd\u0128\u00e5\u0127\u00b6\u00e5\u00ae\u0140": 10880,
  "\u0120\u00e5\u00be\u0132": 6359,
  "\u00e5\u013e\u0128\u00e5\u013e\u0128": 13028,
  "\u0120\u00e7\u00ac": 1221,
  "\u00e5\u00bd\u00b9": 7099,
  "\u0120\u00e8\u00bf\u013b\u00e9\u0129\u012e": 2470,
  "\u00e7\u013c\u0126\u00e6\u0138\u0129\u00e7\u00ab\u0142": 6716,
  "\u00e7\u00ba\u00b2": 9523,
  "\u0120\u00e4\u00bd\u0142\u00e4\u00b8\u00ba\u00e4\u00bb\u0122\u00e4\u00b9\u012a\u00e8\u00a6\u0123": 10036,
  "\u00e5\u0126\u00bf\u00e5\u0133\u00a2": 6166,
  "\u00e8\u00a1\u00a1": 3792,
  "\u00e4\u00bc\u0139": 1072,
  "\u00e5\u0137\u012c\u00e5\u00b0\u00b1\u00e6\u013a\u00af": 8793,
  "\u0120\u00e5\u00bd": 653,
  "\u00e8\u00bf\u0129\u00e7\u013c\u0126": 3001,
  "\u00e6\u013e\u012d\u00e5\u0131\u012d\u00e5\u0133\u00a2": 11341,
  "\u00e5\u0132\u00ac\u00e5\u012a\u00b0": 1978,
  "\u00e5\u012f\u00bf": 7700,
  "\u00e5\u00ae\u013c\u00e7\u013c\u0126": 4903,
  "\u00e7\u0124\u00b9\u00e5\u0126\u00bf": 1831,
  "\u0120\u00e6\u012a\u0133\u00e4\u00bb\u00ac\u00e4\u00b8\u012d\u00e4\u00b8\u0122\u00e5\u012a\u00bb\u00e5\u0128\u012f\u00e8\u00a7\u0123\u00e5\u0132\u00a7": 12710,
  "\u0120\u00e9\u0124\u00a3\u00e6\u013a\u00af": 3255,
  "\u00e5\u00ae\u00b0": 10422,
  "\u0120\u00e4\u00bc\u0142": 7707,
  "\u0120\u00e5\u012b\u00af": 14067,
  "\u0120\u00e9\u0124\u00a3\u00e5\u0134\u00b1\u00e4\u00bb\u00ac": 11360,
  "\u00e8\u0124\u0142": 4758,
  "\u00e4\u00ba\u0128\u00e4\u00b8\u0122\u00e6\u00ac\u00a1": 10058,
  "\u00e4\u00bb\u00b6\u00e4\u00ba\u012d\u00e6\u0125\u0127": 4112,
  "\u00e6\u0136\u00be\u00e5\u00a4\u00a7": 13838,
  "\u00e4\u00ba\u0128\u00e8\u00a7\u00a3\u00e4\u00b8\u0122\u00e4\u00b8\u012d": 14871,
  "\u0120\u00e5\u0127\u00b3\u00e7\u00b3\u00bb": 14256,
  "\u00e6\u013b\u013c": 659,
  "\u00e5\u00be\u0139\u00e4\u00bd\u0131": 6794,
  "\u00e6\u00b3\u012c": 9836,
  "\u00e4\u00ba\u00a4\u00e5\u00be\u0122": 4731,
  "\u00e7\u0136\u0141\u00e6\u0139\u00a5\u00e5\u00bf\u00ab\u00e4\u00b9\u0132": 11554,
  "\u0120\u00e6\u0136\u00be\u00e5\u00bc\u0125": 12706,
  "\u0120\u00e8\u00bf\u013b\u00e9\u0129\u012e\u00e6\u013a\u00af": 3986,
  "\u00e9\u00ab\u013a\u00e5\u0127\u00b4": 1913,
  "\u00e9\u013c\u0128": 4253,
  "\u00e6\u012f\u00a2": 1265,
  "\u00e4\u00b8\u0122\u00e7\u013d\u00b4\u00e5\u013e\u00a8": 3039,
  "\u00e5\u0129\u00b6\u00e6\u012b\u012d": 6272,
  "\u00e4\u00ba\u0128\u00e4\u00b8\u0122\u00e6\u00ae\u00b5": 15548,
  "\u00e5\u00a1\u012e": 6709,
  "\u00e5\u00ba\u0137\u00e7\u00ba\u00bf": 7102,
  "\u00e4\u00bb\u0138\u00e4\u00bb\u00ac\u00e8\u00af\u00b4": 15856,
  "\u0120\u00e5\u00be\u0139": 3393,
  "\u00e5\u012f\u0138": 1165,
  "\u00e6\u00ae\u012c": 4101,
  "\u00e7\u013c\u0126\u00e6\u00b0\u0133": 9090,
  "\u00e8\u00ba\u00ab\u00e4\u00bd\u0135\u00e7\u013c\u0126": 13945,
  "\u00e9\u013c\u00be\u00e9\u0123\u0135": 5343,
  "\u00e6\u013b\u00ae\u00e9\u0122\u013c\u00e4\u00ba\u00ba": 13180,
  "\u0120\u00e4\u00bd\u0137\u00e5\u00bf\u0127": 11386,
  "\u0120\u00e8\u00bf\u013b\u00e4\u00b8\u0122\u00e8\u00af\u00be": 10137,
  "\u00e6\u00b9\u00bf": 3632,
  "\u00e5\u0137\u0128\u00e9\u0129\u0131\u00e4\u00b8\u0122\u00e4\u00b8\u012d": 15795,
  "\u00e9\u0129\u0133\u00e5\u0143\u0132": 14951,
  "\u00e5\u00a4\u00a7\u00e9\u013b\u0128": 11603,
  "\u00e8\u0126\u00b1\u00e5\u0131\u00a3": 12732,
  "\u00e7\u0143\u012b\u00e5\u012a\u00b0": 6762,
  "\u00e7\u00bb\u0126\u00e9\u0137\u00bf": 10719,
  "\u00e5\u013d\u0142\u00e4\u00b8\u00ba\u00e6\u012a\u0133": 3401,
  "\u00e6\u0126\u0141\u00e5\u012a\u00b0": 3392,
  "\u00e6\u0142\u00bc\u00e5\u012c\u013d": 14911,
  "\u00e5\u0141\u00ba\u00e6\u013e\u00ac": 2328,
  "\u00e5\u0133\u0128\u00e4\u00ba\u0128": 14837,
  "\u00e5\u0132\u0130\u00e9\u013f\u00a2": 3349,
  "\u00e7\u0137\u013b\u00e5\u013e\u00a8": 5193,
  "\u00e4\u00b8\u0122\u00e4\u00b8\u012d\u00e6\u012a\u0133": 13327,
  "\u0120\u00e5\u0143\u00a6\u00e7\u0136\u0141": 12161,
  "\u00e6\u0124\u00a8\u00e8\u00af\u00b4": 8258,
  "\u00e8\u00b4\u00be": 5127,
  "\u00e6\u013e\u012b\u00e5\u0127\u00b3\u00e7\u00b3\u00bb": 6997,
  "\u00e5\u00b8\u0137": 13406,
  "\u00e6\u012c\u00b1\u00e6\u0143\u012b": 9784,
  "\u00e8\u0122\u012e\u00e4\u00b8\u012f": 7539,
  "\u00e6\u00b0\u0136\u00e5\u0134\u012e": 15673,
  "\u00e6\u012a\u0132\u00e5\u00b9\u00b4\u00e4\u00ba\u00ba": 7143,
  "\u0120\u00e6\u012b\u012d": 3346,
  "\u00e6\u0136\u00b6\u00e5\u012a\u00b0": 5522,
  "\u00e5\u012f\u00b0\u00e8\u00b1\u00a1": 4137,
  "\u00e6\u0139\u00a9": 720,
  "\u00e6\u012a\u0133\u00e5\u0132\u00ac": 8791,
  "\u00e5\u00a5\u00bd\u00e8\u0129\u00aa\u00e5\u00b7\u00b1": 15662,
  "\u00e8\u013b\u013c": 2174,
  "\u00e7\u00ba\u00b3": 2575,
  "\u00e5\u0126\u00bf\u00e5\u00b0\u00b1": 15391,
  "\u0120\u00e4\u00bb\u0138\u00e7\u0130\u00b0\u00e5\u013e\u00a8": 5904,
  "\u00e8\u00bf\u013a\u00e4\u00b8\u012f\u00e5\u00a4\u0141": 10364,
  "\u00e5\u013e\u00b0\u00e6\u012c\u012c": 8348,
  "\u00e8\u012c\u0124\u00e7\u013d\u00ae\u00e7\u013c\u0126": 7660,
  "\u00e4\u00bd\u0142\u00e5\u0131\u00af\u00e8\u0125\u00bd": 12762,
  "\u00e7\u00bb\u0131\u00e5\u0130\u0128\u00e8\u00bf\u0129": 6408,
  "\u00e5\u0132\u0130\u00e9\u013f\u00a2\u00e7\u013c\u0126": 14550,
  "\u00e5\u00ae\u00b6\u00e5\u0127\u00b7": 12719,
  "\u00e6\u00a2\u00a6\u00e6\u0125\u00b3": 2994,
  "\u00e7\u0130\u00af\u00e5\u00a2\u0125": 2640,
  "\u00e7\u0139\u0137": 6935,
  "\u00e9\u00b1\u00bc": 1566,
  "\u00e4\u00ba\u012e\u00e5\u012f\u0123\u00e4\u00b8\u0122": 14279,
  "\u00e5\u00bc\u0122\u00e5\u00a7\u012d\u00e4\u00ba\u0128": 7471,
  "\u00e7\u013c\u0126\u00e6\u0138\u00b9\u00e5\u0132\u0133": 9852,
  "\u0120\u00e4\u00ba\u012d\u00e5\u00ae\u0140\u00e4\u00b8\u012c": 13611,
  "\u0120\u00e8\u00a1\u012e\u00e8\u00a1\u012e\u00e8\u00a1\u012e": 10837,
  "\u00e8\u00b4\u0141\u00e8\u0125\u00bd\u00e9\u0129\u0131": 13819,
  "\u00e4\u00be\u013d\u00e7\u00bb\u013b": 15037,
  "\u00e4\u00bb\u00ac\u00e5\u0126\u00bf": 3245,
  "\u00e7\u012a\u00b1": 403,
  "\u0120\u00e7\u00ba": 2663,
  "\u00e4\u00b8\u0125\u00e6\u013e\u012a": 6358,
  "\u0120\u00e5\u0141\u00ba\u00e6\u013e\u00ac\u00e4\u00b8\u012c": 7275,
  "\u00e7\u00bb\u0131\u00e8\u0132\u00a5": 4052,
  "\u0120\u00e6\u013e\u012b\u00e4\u00b8\u0122\u00e4\u00b8\u00aa": 4121,
  "\u00e6\u012c\u00a4\u00e4\u00ba\u00ba\u00e5\u0133\u013a": 14598,
  "\u00e5\u013f\u00a1": 5496,
  "\u00e4\u00be\u013f\u00e6\u0139\u00a7": 7744,
  "\u00e6\u00b8\u00af\u00e6\u00be\u00b3": 9900,
  "\u00e5\u0131\u0124\u00e8\u00b0\u012d": 7226,
  "\u00e8\u00b7\u0141\u00e5\u00a4\u00a7\u00e5\u00ae\u00b6": 3615,
  "\u00e6\u013e\u012b\u00e8\u00bf\u013b\u00e4\u00b9\u012a": 9227,
  "\u00e5\u0132\u0125\u00e7\u013c\u0126": 2892,
  "\u00e8\u00b4\u00a7\u00e5\u00b8\u0123\u00e6\u0136\u00bf\u00e7\u0143\u0138": 13694,
  "\u00e4\u00ba\u00b2\u00e5\u012a\u0129": 15063,
  "\u00e5\u00a5\u00a5": 3837,
  "\u00e8\u00af\u00b4\u00e7\u013c\u0126\u00e8\u00af\u013f": 5945,
  "\u00e4\u00b8\u00ba\u00e5\u00a4\u00a7\u00e5\u00ae\u00b6": 8242,
  "\u00e6\u0137\u00b4\u00e6\u0137\u00b4": 8457,
  "\u00e7\u00ba\u00b7\u00e7\u00ba\u00b7": 7228,
  "\u0120\u00e4\u00bd\u0142\u00e8\u0122\u0123\u00e5\u0127\u00ac": 11205,
  "\u00e7\u00ba\u00bd\u00e7\u00ba\u00a6": 13695,
  "\u00e5\u013e\u00a8\u00e6\u012a\u0133\u00e8\u00ba\u00ab\u00e4\u00b8\u012c": 14729,
  "\u00e9\u0139\u00ae": 339,
  "\u00e5\u00bd\u0135\u00e5\u00ae\u00b6": 13744,
  "\u00e4\u00ba\u00a4\u00e6\u00b5\u0123\u00e5\u0134\u012e": 7268,
  "\u00e4\u00b8\u012c\u00e9\u013f\u00a2\u00e7\u013c\u0126": 15163,
  "\u0120\u00e5\u00ae\u00a3": 14029,
  "\u00e7\u013e\u012d\u00e7\u013f\u0122": 2074,
  "\u00e7\u00bb\u00bc\u00e5\u0132\u012a": 5708,
  "\u00e8\u00ba\u00ab\u00e8\u00be\u00b9\u00e7\u013c\u0126\u00e4\u00ba\u00ba": 8975,
  "\u00e4\u00b8\u0125\u00e4\u00b8\u00aa": 9915,
  "\u00e7\u012b\u00b9\u00e5\u012a\u00ab": 718,
  "\u0120\u00e5\u00b9\u00b6": 1537,
  "\u0120\u00e6\u0123\u00b0": 11770,
  "\u00e5\u0127\u012a\u00e6\u012c\u012c": 12106,
  "\u00e9\u013a\u00bf\u00e6\u012d\u012b": 15146,
  "\u00e8\u00b8": 1428,
  "\u00e8\u00a6\u0123\u00e7\u013c\u0126": 12636,
  "\u00e5\u00ae\u0123": 2312,
  "\u00e4\u00b8\u012f\u00e4\u00b8\u012c": 2333,
  "\u00e9\u0124\u00a3\u00e6\u012a\u0133\u00e5\u00b0\u00b1": 10600,
  "\u00e7\u013c\u0126\u00e4\u00b8\u0122\u00e4\u00ba\u013d": 2733,
  "\u00e9\u0124\u0122": 3463,
  "\u00e7\u012a\u00b8\u00e5\u00a6\u012a": 3057,
  "\u00e7\u013c\u0126\u00e5\u0132\u0139": 2075,
  "\u00e9\u0136\u013b\u00e7\u013c\u0126": 9650,
  "\u00e9\u00bc\u0135\u00e5\u012c\u00b1": 4825,
  "\u00e5\u00be\u012a\u00e5\u00a5\u00bd\u00e5\u00a5\u0129": 15744,
  "\u00e7\u00bf\u00bb\u00e8\u00af\u0133": 10119,
  "\u00e6\u00bc\u0136\u00e8\u00ae\u00b2": 11397,
  "\u00e4\u00bb\u00bb\u00e4\u00bd\u0137": 1405,
  "\u00e9\u0141\u00b3\u00e9\u00a2\u0133": 5274,
  "\u00e6\u00b3\u0137\u00e5\u00ae\u013a": 13246,
  "\u0120\u00e4\u00bb\u0138\u00e5\u00b0\u00b1\u00e6\u013a\u00af": 5576,
  "\u00e8\u0129\u00aa\u00e6\u0126\u00bf": 13586,
  "\u00e7\u00a6\u0131\u00e5\u00bb\u00ba": 13532,
  "\u00e6\u00b5\u00b7\u00e6\u00b4\u012d": 9083,
  "\u00e6\u012c\u013d": 4530,
  "\u00e4\u00b8\u00a5": 1416,
  "\u0120\u00e5\u00bc\u0139": 12825,
  "\u00e5\u00ae\u00b4": 6515,
  "\u00e8\u0125\u00bd\u00e4\u00b8\u012f": 12313,
  "\u00e5\u00a5\u00bd\u00e5\u0132\u0125": 5600,
  "\u00e6\u013a\u00af\u00e9\u013e\u0122\u00e8\u00a6\u0123": 14334,
  "\u00e4\u00b9\u013f\u00e5\u00b9\u00b4": 2804,
  "\u0120\u00e6\u00a2": 4156,
  "\u00e8\u00ae\u00b0": 603,
  "\u00e6\u0134\u0134\u00e8\u00b0\u0130": 8912,
  "\u0120\u00e8\u00a5\u00bf": 5494,
  "\u00e5\u00ae\u012d": 3121,
  "\u00e5\u00bd\u0135\u00e7\u013f\u0122": 11705,
  "\u00e7\u013d\u00b8\u00e5\u00a4\u0126": 3105,
  "\u00e8\u00bf\u0129\u00e5\u0132\u0139": 6756,
  "\u00e5\u00a6\u00a5": 5116,
  "\u00e7\u00a1\u00ae\u00e8\u00ae\u00a4": 6672,
  "\u00e6\u0142\u00aa": 14807,
  "\u00e5\u0138\u013e\u00e6\u00ac\u00a2\u00e4\u00bb\u0138": 6380,
  "\u00e6\u0123\u00b0": 4388,
  "\u00e5\u00bc\u0142\u00e5\u00be\u00b7": 2211,
  "\u0120\u00e5\u0135": 619,
  "\u00e4\u00b8\u012d\u00e4\u00b8\u0122": 5407,
  "\u00e7\u0143\u0136\u00e5\u00ba\u0136\u00e4\u00bd\u0142": 11508,
  "\u0143": 103,
  "\u00e8\u012c\u00af": 10298,
  "\u00e4\u00ba\u012e\u00e5\u012f\u0123\u00e5\u013d\u013d\u00e5\u00b0\u0131\u00e6\u0139\u00b6": 8628,
  "\u00e4\u00bb\u00a3\u00e6\u013d\u00bf": 12777,
  "\u00e8\u00a5\u00bf\u00e5\u00ae\u012b\u00e5\u00b8\u0124": 10575,
  "\u00e4\u00b8\u0125\u00e7\u013b\u00be": 5585,
  "\u00e8\u00ae\u00a9\u00e5\u00a5\u00b9": 3659,
  "\u00e8\u0125\u013e": 2222,
  "\u00e4\u00b8\u012f\u00e7\u00ae\u00a1\u00e6\u013a\u00af": 15041,
  "\u00e6\u013b\u013c\u00e4\u00b8\u012c": 1160,
  "\u00e6\u012a\u0133\u00e4\u00bc\u013c": 3321,
  "\u00e9\u0134\u00b1\u00e7\u013c\u0126": 7372,
  "\u00e7\u00a7\u00af": 1995,
  "\u0120\u00e5\u0131\u00a6\u00e5\u00a4\u0138": 4198,
  "\u00e8\u00bf\u0140\u00e9\u00ba\u00a6": 3154,
  "\u00e6\u012a\u0133\u00e4\u00b8\u0122\u00e7\u013d\u00b4": 9169,
  "\u00e5\u00ae\u0140\u00e5\u013e\u00a8": 2422,
  "\u00e5\u00a6\u0128": 4058,
  "\u00e4\u00b8\u0143": 273,
  "\u00e5\u00bd\u00bb\u00e5\u00ba\u0137": 4496,
  "\u0120\u00e7\u00b4\u00a7": 9539,
  "\u00e6\u012b\u00b9": 1942,
  "\u00e4\u00bd\u0142\u00e7\u013c\u0126\u00e5\u00bf\u0125": 15770,
  "\u00e5\u013e\u00a8\u00e8\u00bf\u013b\u00e9\u0129\u012e": 2937,
  "\u00e6\u0138\u0143\u00e4\u00ba\u0128": 6779,
  "\u0120\u00e5\u0136\u012b\u00e5\u0135\u0141": 12598,
  "\u0120\u00e8\u00a6\u0123\u00e4\u00b8\u012f\u00e6\u013a\u00af": 8018,
  "\u00e8\u0133\u00a3": 2923,
  "\u00e4\u00b8\u012f\u00e5\u00a4\u013c": 2534,
  "\u00e5\u0129\u0142\u00e5\u00b2\u0123": 13871,
  "\u0120\u00e6\u0136\u00be\u00e4\u00b8\u012d": 12705,
  "\u0120\u00e7\u00bb\u0131\u00e6\u00b5\u0130": 11218,
  "\u00e5\u013e\u00a8\u00e8\u012c\u0124\u00e7\u013d\u00ae": 15714,
  "\u00e4\u00bc\u00ba\u00e5\u0122\u013b": 7446,
  "\u00e5\u00a4\u00b1\u00e8\u0132\u00bd": 12878,
  "\u00e4\u00b8\u012f\u00e5\u00a4\u0141": 3014,
  "\u00e6\u013e\u0141\u00e9\u013b\u0132": 12693,
  "\u00e8\u00bd\u00af\u00e4\u00bb\u00b6": 6851,
  "\u0120\u00e8\u00bf\u013d\u00e6\u013f\u00a5": 10741,
  "\u0120\u00e4\u00bd\u0142\u00e5\u00bf\u0125\u00e9\u0129\u012e": 10530,
  "\u0120\u00e6\u013a\u00af\u00e5\u013e\u00a8": 11662,
  "\u00e9\u0129\u012f\u00e4\u00ba\u0128": 11862,
  "\u0120\u00e5\u00a6\u0124\u00e6\u0140\u013e\u00e4\u00b8\u012f\u00e6\u013a\u00af": 13220,
  "\u00e5\u00b0\u0131\u00e5\u00b0\u0131": 6516,
  "\u00e4\u00b8\u0130\u00e4\u00ba\u00ba": 8512,
  "\u0120\u00e8\u00bf\u013b\u00e4\u00b8\u0122\u00e5\u00a4\u00a9": 13612,
  "\u0120\u00e4\u00b8\u00bb": 3906,
  "\u00e8\u013f\u00b4\u00e8\u013f\u00b6": 10292,
  "\u00e6\u012c\u0135\u00e7\u00b4\u00a7": 7524,
  "\u00e8\u00a7\u00a3\u00e7\u0143\u0136": 4934,
  "\u0120\u00e7\u00bc": 5702,
  "\u00e6\u012a\u0133\u00e7\u0141\u00a5\u00e9\u0123\u0135": 3612,
  "\u0120\u00e8\u00bf\u013a\u00e6\u013e\u012b": 1067,
  "\u0120\u00e5\u012c": 1739,
  "\u0134": 88,
  "\u00e6\u0136\u00b6\u00e8\u00b4\u00b9": 9678,
  "\u00e8\u00bf\u0140\u00e7\u00ba\u00bf": 4124,
  "\u00e5\u00af\u012e": 1813,
  "\u00e8\u013a\u0133": 9111,
  "\u0120\u00e4\u00bb\u012c\u00e5\u00b9\u00b4": 2999,
  "\u00e7\u013f\u0122\u00e4\u00bb\u0138\u00e7\u013c\u0126": 14297,
  "\u0120\u00e5\u0133\u00a8": 3019,
  "\u00e9\u00ba\u00bb\u00e7\u0125\u00a6": 2271,
  "\u00e6\u012d\u00bf\u00e9\u0134\u00b1": 11865,
  "\u0120\u00e4\u00bd\u0142\u00e4\u00bb\u00a5\u00e5\u0132\u0130": 14019,
  "\u00e5\u013e\u00b0\u00e9\u0135\u0123": 7354,
  "\u00e6\u013a\u00af\u00e4\u00b8\u00ba\u00e4\u00ba\u0128": 4249,
  "\u00e5\u012f\u0125\u00e5\u00b9\u00b4": 14819,
  "\u0120\u00e5\u00a5": 395,
  "\u00e5\u00b1\u0137": 1093,
  "\u00e8\u00a1\u00a5\u00e5\u0123\u00bf": 10306,
  "\u00e7\u0139\u0127\u00e4\u00ba\u0128": 9210,
  "\u0120\u00e5\u013d\u0142\u00e4\u00b8\u00ba\u00e8\u00bf\u013b\u00e4\u00b8\u00aa": 11309,
  "\u00e5\u012f\u013c": 1770,
  "\u00e8\u00a1\u00a3\u00e6\u013e\u012f": 1664,
  "\u00e6\u0137\u012a": 1785,
  "\u0120\u00e4\u00bd\u0142\u00e4\u00bb\u00ac\u00e4\u00b8\u00a4\u00e4\u00b8\u00aa": 8395,
  "\u00e5\u012b\u00b2": 6475,
  "\u00e5\u0143\u00a6\u00e7\u013c\u0126": 5415,
  "\u0120\u00e7\u00a2": 7839,
  "\u00e6\u00b1\u00a1\u00e6\u0141\u0135": 11483,
  "\u00e6\u013a\u0130\u00e7\u013b\u00bd\u00e5\u0132\u0139": 4655,
  "\u00e6\u013e\u012a\u00e4\u00b8\u012b\u00e5\u012f\u0123\u00e5\u0131\u00b7": 11805,
  "\u0120\u00e5\u0123\u013c\u00e5\u00a5\u00bd": 10855,
  "\u00e5\u0129\u0128\u00e6\u0139\u00b6": 13844,
  "\u00a6\u0128": 5628,
  "\u00e7\u00a7\u012d": 2483,
  "\u00e7\u00bb\u013e": 2243,
  "\u00e8\u00b4\u0141\u00e6\u012d\u0127": 7484,
  "\u0120\u00e5\u0133\u00bd": 10754,
  "\u0120\u00e8\u00b7\u0141": 1917,
  "\u00e4\u00b8\u012c\u00e5\u00a4\u00a9": 10532,
  "\u00e4\u00b8\u00a4\u00e4\u00b8\u00aa": 746,
  "\u00e9\u0134\u0135\u00e9\u00b1\u00bc": 14365,
  "\u00e6\u00b3\u00bd\u00e4\u00b8\u013e": 11320,
  "\u00e9\u0122\u013c\u00e5\u00b8\u00b8": 6478,
  "\u00e6\u0142\u00b8\u00e9\u0127\u00b8": 13920,
  "\u0120\u00e5\u00a6\u0124\u00e4\u00bb\u012c": 5091,
  "\u00e5\u0127\u00ab": 551,
  "\u00e8\u00bf\u0129\u00e5\u00ba\u00a6": 9462,
  "\u00e4\u00b8\u0122\u00e4\u00b8\u012d\u00e5\u00b0\u00b1": 10813,
  "\u0120\u00e4\u00bb\u012c\u00e6\u013b\u013c": 4645,
  "\u0120\u00e5\u012f\u00b0": 13361,
  "\u00e4\u00b8\u00ba": 193,
  "\u00e6\u013a\u00a8\u00e5\u00a4\u00a9\u00e6\u013b\u013c\u00e4\u00b8\u012c": 6780,
  "\u0120\u00e5\u0133\u012c": 4329,
  "\u0137\u00e8\u00bf\u00b9": 14040,
  "\u00e7\u013c\u0126\u00e8\u00ae\u00a1\u00e5\u012a\u0134": 13230,
  "\u00e6\u00b6\u00a8\u00e5\u0123\u013e": 6484,
  "\u00e5\u00ab\u0124": 2553,
  "\u00e5\u00b8\u00ae\u00e4\u00bd\u0142": 2687,
  "\u00e5\u012f\u0125\u00e9\u013d\u00b6\u00e4\u00b8\u0122\u00e5\u00a4\u013e": 13753,
  "\u00e5\u00be\u0132": 3319,
  "\u00e8\u012c\u00b1\u00e8\u00b4\u00b9": 15675,
  "\u00e4\u00ba\u00ba\u00e4\u00b8\u00ba": 13672,
  "\u00e7\u00ab\u012d\u00e9\u00a9\u00ac": 7240,
  "\u00e6\u013e\u00ac\u00e6\u013f\u00a5": 2978,
  "\u00e5\u013d\u0140\u00e5\u0130\u00bb": 1421,
  "\u00e7\u0138\u00ab": 1787,
  "\u00e7\u00bb\u013b": 247,
  "\u00e5\u00bf\u00ab": 517,
  "\u00e8\u00bf\u013b\u00e4\u00b8\u00aa\u00e6\u013e\u00ba\u00e4\u00bc\u013c": 14483,
  "\u0120\u00e4\u00bb\u0138\u00e4\u00b8\u0122": 12974,
  "\u0120\u00e8\u00af\u00b4": 770,
  "\u00e7\u0124\u0143": 13275,
  "\u00e4\u00b8\u012b\u00e5\u012f\u0123\u00e4\u00b8\u0129": 12823,
  "\u00e5\u0132\u0126": 914,
  "\u00e5\u0137\u012c": 158,
  "\u0120\u00e8\u00b0\u00a2\u00e8\u00b0\u00a2\u00e5\u0137\u012c": 7967,
  "\u00e6\u012c\u0137\u00e7\u00a5\u00a8": 8490,
  "\u00e4\u00b8\u0138\u00e7\u00ba\u00aa": 6959,
  "\u00e6\u013a\u00af\u00e5\u00a5\u00b9": 10048,
  "\u00e9\u0135\u00b6": 1545,
  "\u0120\u00e5\u0123\u0131": 13847,
  "\u00e7\u00b0": 10577,
  "\u0120\u00e7\u00a5": 2304,
  "\u00e5\u00a4\u00a7\u00e8\u00ae\u00b2\u00e5\u0142\u0124": 7944,
  "\u0120\u00e4\u00bd\u0142\u00e5\u00ae\u00b6": 11774,
  "\u00e5\u0131\u00aa\u00e5\u00a5\u00bd": 7863,
  "\u0120\u00e4\u00bd\u0142\u00e8\u00bf\u013b": 2050,
  "\u0120\u00e5\u0127\u0125": 12271,
  "\u00e6\u013e\u013d": 658,
  "\u00e9\u00a6\u013b": 1368,
  "\u00e8\u013c\u0124\u00e8\u013c\u0123": 8318,
  "\u00e4\u00b8\u00ba\u00e4\u00bd\u0142": 3521,
  "\u00ab\u00e7\u0133\u00b0": 7578,
  "\u00e6\u013a\u00af\u00e4\u00b8\u0122\u00e5\u013e\u00ba": 12955,
  "\u00e8\u0122\u0123\u00e5\u00a4\u00a9": 10952,
  "\u00e9\u013e\u012b": 7129,
  "\u00e7\u0132\u0128": 428,
  "\u00e5\u0129\u00ba\u00e8\u00ba\u00ab": 11562,
  "\u00e7\u013c\u0126\u00e9\u0122\u012b\u00e6\u012d\u00a9": 11446,
  "D": 10,
  "\u00e6\u0140\u013e": 366,
  "\u0120\u00e4\u00bd\u0142\u00e8\u00bf\u013b\u00e6\u013a\u00af": 5375,
  "\u0120\u00e4\u00bc\u013c\u00e4\u00b8\u012f\u00e4\u00bc\u013c": 7369,
  "\u00e5\u00a4\u00a7\u00e7\u012a\u00b7": 5800,
  "\u0120\u00e8\u00bf\u0129\u00e6\u013f\u00a5": 9409,
  "\u00e6\u013c\u0124": 3126,
  "\u00e5\u00bf\u013a\u00e4\u00ba\u0128": 2403,
  "\u0120\u00e6\u012a\u0133\u00e9\u0125\u00bd": 2490,
  "\u00e7\u012a\u00bd": 5078,
  "\u00e8\u0125\u013e\u00e5\u012a\u00a9": 5873,
  "\u0120\u00e4\u00bd\u0142\u00e5\u00b8\u00ae\u00e6\u012a\u0133": 12562,
  "\u00e8\u00be\u00b9": 433,
  "\u00e6\u012a\u0133\u00e7\u013c\u0126\u00e8\u012c\u0124\u00e7\u013d\u00ae": 15993,
  "\u00e8\u00b5\u00b0\u00e7\u013f\u0122": 9492,
  "\u00e4\u00bb\u0138\u00e4\u00b9\u0141": 5442,
  "\u00e7\u013c\u0126\u00e5\u013e\u00b0": 3667,
  "\u00e4\u00b8\u0122\u00e5\u013d\u0140": 6244,
  "\u0120\u00e4\u00b9\u0141\u00e5\u00b8\u012e\u00e6\u013e\u013d": 10142,
  "\u00e8\u012a\u0127": 3759,
  "\u0120\u00e6\u012a\u0133\u00e4\u00bb\u00ac\u00e7\u013c\u0126": 3778,
  "\u00e5\u00a4\u00a7\u00e5\u013e\u00b0": 10013,
  "\u00e8\u00b8\u0131\u00e8\u00b8\u0131\u00e5\u00ae\u0140": 13451,
  "\u00e7\u00bb\u00a7\u00e7\u00bb\u0143": 1275,
  "'": 6,
  "\u00e6\u0136\u00be\u00e7\u013c\u0126": 15812,
  "\u0120\u00e6\u012a\u0133\u00e7\u012a\u00b9": 13111,
  "\u00e5\u00bd\u00a9\u00e7\u00a4\u00bc": 10150,
  "\u00e5\u012a\u00b0\u00e5\u0135\u00aa\u00e5\u0126\u00bf": 9561,
  "\u00e6\u012b\u0122\u00e9\u0137\u00bf": 15470,
  "\u00e6\u012a\u0133\u00e6\u0122\u0130\u00e4\u00b9\u012a": 4685,
  "\u00e5\u0127\u00ac\u00e5\u00b8\u0125": 4996,
  "\u00e5\u00ae\u013c\u00e4\u00bd\u012f": 9757,
  "\u00e8\u0129\u00aa\u00e5\u012f\u0133": 7009,
  "\u00e6\u0130\u012e\u00e6\u0131\u00a1": 5441,
  "\u00e6\u00a2": 821,
  "\u00e6\u012a\u013a\u00e5\u00bd\u00b9": 10992,
  "\u00e6\u0126\u0131\u00e6\u0138\u013b": 15991,
  "\u00e4\u00ba\u0136\u00e4\u00b8\u00aa": 5504,
  "\u00e4\u00bd\u0142\u00e4\u00bf\u00a9": 7111,
  "\u0120\u00e5\u0135\u00a6": 2858,
  "\u0120\u00e6\u012a\u0133\u00e8\u00ae\u00b0\u00e5\u00be\u0139": 5319,
  "\u00e4\u00ba\u012d\u00e4\u00ba\u0128": 4338,
  "\u0120\u00e8\u00bf\u013b\u00e6\u0142\u00b7\u00e7\u013c\u0126": 5017,
  "\u00e6\u012c\u00a5\u00e8\u0143\u00a6": 6629,
  "\u00e4\u00b8\u012b\u00e5\u00a4\u00a7": 10746,
  "\u00e7\u012a\u00b8": 533,
  "\u00e7\u00ac\u00ac\u00e4\u00b8\u012b\u00e4\u00b8\u00aa": 12985,
  "\u0120\u00e9\u0125\u00bd\u00e6\u013a\u00af": 2139,
  "\u00e5\u0132\u0125\u00e5\u00be\u0139": 10215,
  "\u0120\u00e4\u00b8\u0122\u00e5\u00ae\u013c": 2144,
  "\u00a1": 33,
  "\u0120\u00e5\u00a5\u00bd\u00e5\u00a5\u00bd\u00e5\u00a5\u00bd": 5269,
  "\u00e9\u0123\u00b5": 6263,
  "\u00e7\u0143\u0138": 2026,
  "\u0120\u00e4\u00bd\u0142\u00e6\u013f\u00a5": 7209,
  "\u00e4\u00bc\u013c\u00e7\u013c\u0126": 6005,
  "\u00e4\u00ba\u0128\u00e4\u00b8\u0122\u00e5\u00b9\u00b4": 10429,
  "\u00e7\u00ba\u00af\u00e7\u00b2\u00b9": 11982,
  "\u0120\u00e6\u00ac\u00a2\u00e8\u00bf\u0130\u00e6\u013f\u00a5\u00e5\u012a\u00b0": 5825,
  "\u00e5\u00a5\u00b9\u00e7\u013c\u0126": 2316,
  "\u00e5\u0123\u013c\u00e8\u00bf\u013b\u00e4\u00b8\u00aa": 9398,
  "\u00e4\u00ba\u0128\u00e4\u00b8\u0122\u00e7\u013b\u00be": 8909,
  "\u00e7\u013d\u00bc": 6047,
  "\u00e8\u0126\u00be\u00e6\u00b0\u0136": 2819,
  "\u00e9\u00a1\u00be\u00e8\u013b\u0133": 14314,
  "\u00e9\u00a1\u00bf": 2232,
  "\u00e5\u012a\u00a9\u00e6\u0123\u00af": 13881,
  "\u00e7\u0124\u00b9": 254,
  "\u00e4\u00be\u013f\u00e8\u00b5\u0138": 7599,
  "\u00e7\u00a5": 587,
  "\u00e5\u00af\u00b9": 239,
  "\u00e8\u00b5\u00b0\u00e5\u0132\u00a7": 3282,
  "\u00e5\u013e\u00b0\u00e7\u013c\u0126": 4994,
  "\u00e6\u012a\u0132\u00e8\u00bf\u013b\u00e6\u0142\u00b7": 6524,
  "\u00e6\u0139\u00b6\u00e9\u0139\u00b4\u00e5\u0134\u012e": 15398,
  "\u0120\u00e7\u0139\u0127": 9472,
  "\u00e5\u00a4\u00a7\u00e5\u00ae\u013f": 14974,
  "\u00e7\u00af\u0129": 3305,
  "\u00e5\u00bb\u00ba\u00e7\u0143\u0133": 4797,
  "\u00e6\u012d\u00bf\u00e8\u00bf\u013b\u00e4\u00b8\u00aa": 15947,
  "\u00e4\u00be\u013f\u00e6\u00b3\u0137": 9953,
  "\u00e7\u013c\u0126\u00e5\u0126\u00bf\u00e5\u0143\u0132": 7920,
  "\u00e8\u0122\u0123\u00e7\u0130\u012d": 9589,
  "\u00e6\u013a\u00af\u00e6\u013e\u0122": 4170,
  "\u00e4\u00b8\u0122\u00e7\u00b1\u00b3": 9234,
  "\u00e4\u00bd\u0128\u00e6\u013a\u00af\u00e4\u00bd\u0142": 10018,
  "\u00e8\u00bf\u013b\u00e4\u00bb\u00b6\u00e4\u00ba\u012d\u00e6\u0125\u0127": 3517,
  "\u00e5\u013f\u0130\u00e5\u0126\u00bf": 15564,
  "\u0120\u00e4\u00bb\u0138\u00e4\u00b9\u0141\u00e4\u00b8\u012f": 12661,
  "\u0120\u00e6\u0139\u00a9\u00e7\u0124\u00b9": 15071,
  "\u0120\u00e4\u00bd\u0142\u00e8\u00bf\u013a\u00e6\u013a\u00af": 6133,
  "\u00e6\u0137\u013b\u00e5\u0127\u00bb": 12465,
  "\u00e7\u013c\u0126\u00e7\u0127\u00a7": 4552,
  "\u00e8\u00a7\u00a6": 2213,
  "\u00e5\u00ae\u00b6\u00e4\u00ba\u00ba": 2003,
  "\u00e6\u00b7\u013a\u00e6\u00b1\u00b0": 13731,
  "\u00e6\u0140\u013e\u00e7\u0126\u00b6": 7404,
  "\u00e8\u00bf\u013b\u00e4\u00b9\u012a": 459,
  "\u00e5\u0130\u0137\u00e6\u012b\u0122": 4941,
  "\u0120\u00e6\u0143\u00a6\u00e6\u00b1\u012b": 13734,
  "\u00e6\u00a7\u013d": 13692,
  "\u00e6\u0138\u00bd": 1956,
  "\u00e4\u00b8\u0122\u00e5\u00af\u00b9": 7829,
  "\u00e6\u012a\u012a": 12310,
  "\u0120\u00e8\u00bf\u013b\u00e5\u00b0\u0131\u00e5\u0143\u0132": 15765,
  "\u00e5\u00bc\u0122\u00e8\u00bd\u00a6": 4566,
  "\u00e8\u00b6\u00b3\u00e5\u00a4\u0141\u00e7\u013c\u0126": 11070,
  "\u00e8\u0123\u012c": 844,
  "\u0120\u00e5\u00a4\u0126": 6287,
  "\u00e4\u00bc\u013c\u00e4\u00b8\u012f\u00e4\u00bc\u013c": 3800,
  "\u0120\u00e6\u0137\u013b\u00e8\u0124\u00b2": 12965,
  "\u00e4\u00bd\u0142\u00e5\u00aa\u00b3\u00e5\u00a6\u0129\u00e5\u0126\u00bf": 13516,
  "\u012b": 79,
  "\u00e8\u00bf\u013b\u00e6\u0142\u00b7\u00e4\u00ba\u0128": 10257,
  "\u00e6\u013e\u012a\u00e4\u00b8\u012b\u00e5\u012f\u0123": 5793,
  "\u00e7\u013f\u00a1\u00e7\u013f\u0122": 8922,
  "\u00e6\u013a\u00af\u00e4\u00bb\u0122\u00e4\u00b9\u012a\u00e6\u0142\u00b7": 12594,
  "\u00e5\u0128\u00b7\u00e6\u00bc\u0142": 11799,
  "\u00e8\u00a2\u00ab\u00e5\u012c\u00a8": 12820,
  "\u0120\u00e4\u00bb\u012c\u00e6\u013b\u013c\u00e5\u00b0\u00b1\u00e5\u0134\u012e\u00e6\u0124\u00a8\u00e5\u012a\u0128\u00e4\u00ba\u00ab\u00e5\u012a\u00b0\u00e8\u00bf\u013b\u00e9\u0129\u012e": 15231,
  "\u00e8\u0134\u00b8": 8417,
  "\u00e5\u0135\u0143\u00e7\u013f\u0122": 10939,
  "\u00e5\u00b9\u00b6\u00e9\u013f\u0140": 8298,
  "\u00e5\u0128\u013d\u00e7\u00bb\u0141": 11327,
  "\u00e6\u012c\u012c\u00e6\u012a\u0133\u00e7\u00bb\u013b": 12905,
  "\u0120\u00e6\u012d\u00bf": 3038,
  "\u00e8\u0133\u013d": 5864,
  "\u00e4\u00b8\u012b\u00e6\u00ac\u00a1": 8003,
  "\u00e5\u00a5\u00bd\u00e5\u0137\u00a6": 13320,
  "\u00e8\u00bf\u013b\u00e6\u013a\u00af\u00e4\u00bb\u0122\u00e4\u00b9\u012a": 14447,
  "\u00e4\u00b8\u00be\u00e6\u0130\u00aa": 14640,
  "\u0120\u00e6\u0122": 651,
  "\u0120\u00e5\u0132\u0130\u00e6\u013f\u00a5\u00e5\u0133\u00a2": 14781,
  "\u00e5\u0131\u0136": 1300,
  "\u00e6\u0139\u00a5\u00e7\u013c\u0126": 10202,
  "\u00e4\u00bd\u0142\u00e6\u013e\u012b": 3417,
  "\u00e5\u00a4\u00a7\u00e5\u0133\u0122": 14748,
  "\u00e7\u00bb\u013b\u00e4\u00bd\u0142\u00e7\u013c\u0126": 4361,
  "\u0120\u00e8\u00b5\u00b0": 1988,
  "\u00e4\u00b8\u0122\u00e5\u012a\u00bb": 3107,
  "\u00e5\u00a4\u00a9\u00e5\u0135\u00aa": 15083,
  "\u00e5\u00a4\u00a7\u00e5\u00ae\u00b6\u00e9\u0125\u00bd": 4879,
  "\u00e5\u012e\u0127\u00e5\u0143\u0132": 9427,
  "\u00e9\u013c\u0131\u00e7\u013f\u0122": 5067,
  "\u00e6\u00ac\u00a2\u00e4\u00b9\u0132": 9962,
  "\u00e6\u0138\u0143": 1194,
  "\u00e4\u00b9\u013f": 559,
  "\u00e7\u0143\u00b9": 5120,
  "\u0120\u00e9\u013c\u0131\u00e7\u013f\u0122": 5727,
  "\u00e5\u0129\u00ba\u00e7\u0130\u00b0": 1498,
  "\u00e5\u00b8\u00a6\u00e4\u00bb\u0138": 12486,
  "\u00e5\u0133\u00a8\u00e4\u00ba\u0136": 10161,
  "\u00e6\u012d\u0127\u00e4\u00bb\u00bb": 10695,
  "\u00e6\u013a\u00af\u00e4\u00b8\u0122\u00e4\u00b8\u00aa\u00e9\u013f\u0140\u00e5\u00b8\u00b8": 13101,
  "\u00e5\u0136": 666,
  "\u00e5\u0134\u012e\u00e5\u00a4\u00a7": 10270,
  "\u00e6\u00a3\u00ba": 14308,
  "\u00e4\u00bb\u0138\u00e5\u013e\u00a8": 3456,
  "\u00e5\u00be\u012a\u00e4\u00b8\u012f": 7984,
  "\u0120\u00e4\u00bd\u0142\u00e5\u00a5\u00bd\u00e4\u00bd\u0142\u00e5\u00a5\u00bd": 7601,
  "\u00e5\u0133\u00bd\u00e4\u00ba\u0128": 15899,
  "\u00e8\u00a1\u00a8\u00e5\u00bc\u0141": 13328,
  "\u00e7\u012d\u0139": 1582,
  "\u0120\u00e7\u0143\u012b": 1476,
  "\u00e7\u012a\u00aa\u00e5\u0143\u0132": 15920,
  "\u0120\u00e5\u012f\u0138": 7698,
  "\u00e7\u00b4\u00a7\u00e5\u00bc\u0142": 3324,
  "\u00e5\u0131\u00aa\u00e4\u00bc\u013c": 5691,
  "\u00e5\u00b0\u00b1\u00e6\u013a\u00af\u00e4\u00b8\u0122": 8528,
  "\u00e4\u00b8\u00b8\u00e5\u0143\u0132": 6789,
  "\u00e7\u013c\u0126\u00e7\u00a9\u00ba": 4777,
  "\u00e5\u00af\u00bc\u00e6\u0134\u0143\u00e6\u013a\u00af\u00e5\u012f\u0138": 10984,
  "\u00e6\u00b7\u00b3": 15210,
  "\u00e4\u00bf\u0132": 14847,
  "\u00e6\u00b2\u00a1\u00e6\u013e\u012b\u00e6\u0125\u00b3\u00e5\u012a\u00b0": 9643,
  "\u0120\u00e6\u012a\u0133\u00e7\u013e\u012d\u00e4\u00bd\u0142": 12005,
  "\u00e6\u0130\u00a2\u00e7\u00b4\u00a2": 6347,
  "\u00e9\u013f\u00a2\u00e4\u00b8\u00b4": 5151,
  "\u00e6\u0126\u0141\u00e6\u0125\u0127": 1325,
  "\u00e5\u00be\u012a\u00e7\u00ae\u0122\u00e5\u012f\u0137": 7170,
  "\u0120\u00e4\u00ba\u012e\u00e6\u013a\u00af": 12530,
  "\u00e5\u00b0\u00b1\u00e6\u013a\u00af\u00e6\u012a\u0133": 2291,
  "\u00e4\u00b8\u012f\u00e5\u0130\u00bb\u00e4\u00ba\u0128": 12604,
  "\u00e5\u012c\u012a": 9822,
  "\u00e6\u012c\u012c\u00e8\u00bf\u013b\u00e4\u00b8\u00aa": 2593,
  "\u0120\u00e4\u00b8\u0125\u00e6\u013e\u012a": 14013,
  "\u00e8\u013b": 595,
  "\u00e5\u00b8\u0127\u00e5\u0135\u00a5": 10104,
  "\u00e5\u0131\u012f\u00e9\u00a6\u012a": 14910,
  "\u00e5\u00bc\u0124\u00e5\u013e\u00b0\u00e6\u0123\u012d": 12632,
  "\u0120\u00e8\u00af\u00b4\u00e5\u00ae\u012e": 7013,
  "\u0120\u00e4\u00bb\u0138\u00e6\u013a\u00af\u00e4\u00b8\u0122\u00e4\u00b8\u00aa": 14755,
  "\u00e6\u00b4\u00bb": 457,
  "\u00e7\u0133\u013e": 12229,
  "\u00e7\u0142\u0136": 1584,
  "\u00e5\u013d\u0140\u00e5\u00ae\u00b6\u00e4\u00ba\u0128": 6972,
  "\u00e4\u00bd\u013b": 1958,
  "\u00e5\u012a\u00a9\u00e7\u013d\u012c": 5001,
  "\u00e9\u013c\u00be\u00e5\u00be\u0139": 8612,
  "\u00e6\u0127\u00a2\u00e6\u0127\u00a2": 2326,
  "\u00e6\u0125\u00b3\u00e8\u00bf\u0129": 3437,
  "\u00e4\u00b8\u0125\u00e5\u012f\u0125": 9593,
  "\u00e4\u00b8\u00ba\u00e5\u0137\u00a5": 6354,
  "\u00e5\u013f\u0130": 7438,
  "\u00e5\u00a5\u00bd\u00e4\u00ba\u00ba": 5980,
  "\u00e5\u00b0\u0131\u00e5\u00bf\u0125\u00e7\u00bf\u00bc\u00e7\u00bf\u00bc": 12707,
  "\u00e8\u0132\u00a5\u00e9\u0136\u0122": 13568,
  "\u0120\u00e7\u012b\u00b9\u00e5\u012a\u00ab": 2825,
  "\u0120\u00e6\u0138\u0129": 4771,
  "\u00e8\u0136\u0135\u00e5\u00bb\u00b6": 15005,
  "\u00e8\u00ba\u00ab\u00e4\u00b8\u012c\u00e7\u013c\u0126": 7383,
  "\u00e8\u00af\u00b4\u00e4\u00b8\u0122\u00e4\u00b8\u00aa": 13349,
  "\u00e6\u00b2\u00a1\u00e4\u00ba\u012d\u00e6\u00b2\u00a1\u00e4\u00ba\u012d": 15150,
  "\u00a8\u0122": 895,
  "\u00e6\u013a\u00af\u00e8\u00bf\u013b\u00e6\u0142\u00b7": 3766,
  "\u00e6\u012e\u00ba\u00e5\u00a5\u00bd\u00e7\u013c\u0126": 2895,
  "\u00e7\u00ac\u00ac\u00e4\u00ba\u0136": 11709,
  "\u0120\u00e7\u00a6": 3234,
  "\u00e5\u00a4\u013c\u00e4\u00b9\u0127\u00e4\u00ba\u0128": 11353,
  "\u00e9\u013a\u00b4\u00e5\u00bd\u00b1": 9512,
  "\u00e6\u0124\u00a8\u00e5\u00a5\u00bd": 7356,
  "\u00e4\u00ba\u00ba\u00e5\u0133\u013a": 2221,
  "\u00e6\u013a\u0130\u00e7\u013b\u00bd\u00e4\u00ba\u0128\u00e5\u0132\u0139": 10785,
  "\u00e4\u00bd\u0135\u00e7\u013c\u0126": 6318,
  "\u00e6\u0137\u013b\u00e4\u00bc\u013c": 15902,
  "\u00e9\u00bc\u00bb": 3337,
  "\u00e6\u00b6\u012b": 3395,
  "\u00e8\u00b5\u00ab": 7636,
  "\u00e5\u00b7\u00a5\u00e4\u00bd\u013e\u00e5\u00ae\u00a4": 15948,
  "\u0120\u00e9\u0124\u00a3\u00e9\u0129\u012e": 14937,
  "\u00e8\u00bd\u00a8": 3012,
  "\u0120\u00e7\u00aa\u0123": 3553,
  "\u00e4\u00bd\u0142\u00e4\u00b8\u0122\u00e4\u00b8\u00aa\u00e4\u00ba\u00ba": 13700,
  "\u00e7\u0136\u00a8\u00e4\u00bb\u0122\u00e4\u00b9\u012a": 15088,
  "\u00e9\u013a\u00b4\u00e8\u00b0\u012d": 12831,
  "\u00e8\u00ae\u00a9\u00e4\u00bd\u0142\u00e4\u00bb\u00ac": 6974,
  "\u00e5\u00a5\u00b3\u00e5\u0143\u0132": 6121,
  "\u00e6\u012a\u0133\u00e7\u013e\u0141\u00e7\u013c\u0126": 5730,
  "\u00e5\u00a5\u00b3\u00e6\u0122\u00a7": 3830,
  "\u00e5\u013d\u0140\u00e4\u00ba\u0128": 5436,
  "\u0120\u00e7\u00a7\u00a6": 6970,
  "\u00e8\u00b7\u0141\u00e5\u00a4\u00a7\u00e5\u00ae\u00b6\u00e5\u012a\u0128\u00e4\u00ba\u00ab": 6398,
  "\u00e4\u00bd\u0142\u00e7\u013c\u0126\u00e9\u0139\u00ae\u00e9\u00a2\u013a": 15359,
  "\u00e7\u013b\u00be\u00e4\u00b8\u0129": 8198,
  "\u00e6\u012b\u012b": 11220,
  "\u00e4\u00bb\u0138\u00e5\u00b0\u00b1": 2341,
  "\u00e8\u0128": 2143,
  "\u00e7\u013c\u0126\u00e7\u00bf": 11453,
  "\u00e8\u00b9\u00b2": 6969,
  "\u00e7\u0132\u0128\u00e8\u00a7\u00a3": 1760,
  "\u0120\u00e5\u00b8\u012e\u00e6\u013e\u013d\u00e4\u00bd\u0142": 12862,
  "\u00e6\u00b5\u0128": 12028,
  "\u0120\u00e5\u0127\u0143": 3892,
  "\u0120\u00e7\u012b\u00a9": 9298,
  "\u00e8\u00af\u00b4\u00e8\u00af\u00b4\u00e8\u00af\u013f": 14934,
  "\u00e7\u013c\u0126\u00e4\u00b8\u012d": 9385,
  "\u0120\u00e4\u00bd\u013e\u00e8\u0122\u0127": 6323,
  "\u00e8\u0122\u0137": 11876,
  "\u00e6\u013f\u00a5\u00e7\u013f\u0122": 7312,
  "\u00e5\u00ae\u0140\u00e8\u00af\u013f": 2619,
  "\u0120\u00e5\u00b8\u012a\u00e7\u012a\u00b6": 6215,
  "\u00e5\u00a4\u013c\u00e7\u013c\u0126": 1383,
  "\u00e5\u00be\u0134\u00e5\u00bc\u0141": 6872,
  "\u00e9\u013f\u00a2\u00e5\u012b\u012f": 2429,
  "\u00e9\u013b\u0137": 4462,
  "\u00e7\u012b\u00b9": 516,
  "\u00e6\u00b8\u0127\u00e9\u0128\u0134": 9057,
  "\u00e5\u00b0\u00b1\u00e6\u00b2\u00a1": 3246,
  "\u00e6\u0125\u00b3\u00e5\u0123\u013c": 12081,
  "\u0120\u00e5\u013d\u0140\u00e5\u0130\u00bb": 8331,
  "\u0120\u00e6\u00b2\u00a1\u00e6\u013e\u012b\u00e4\u00bb\u0122\u00e4\u00b9\u012a": 8250,
  "\u00e8\u00b0\u012a\u00e6\u0123\u012d\u00e7\u012a\u00b1": 3439,
  "\u00e6\u012c\u012c\u00e5\u00ae\u0125": 2572,
  "\u00e7\u013e\u012d\u00e7\u013f\u0122\u00e6\u012a\u0133": 7929,
  "\u00e5\u00b0\u0131\u00e5\u0135\u00a5": 13960,
  "\u00e6\u013f\u00a5\u00e4\u00b8\u012f\u00e5\u0131\u012c\u00e4\u00ba\u0128": 14792,
  "\u00e6\u012c\u00a5\u00e7\u00ba\u00b8": 8936,
  "\u0120\u00e8\u00bf\u013b\u00e8\u00bf\u013b\u00e8\u00bf\u013b": 14621,
  "\u0120\u00e8\u00bf\u013b\u00e4\u00b8\u0122\u00e5\u012a\u0129": 12305,
  "\u00e5\u013d\u00bd\u00e5\u0128\u013d": 13377,
  "\u00e5\u0130\u00bf": 2495,
  "\u0120\u00e6\u00af": 650,
  "\u00e5\u0128\u00a4\u00e6\u0140\u012b": 8939,
  "\u00e5\u00ba\u00a6\u00e8\u00bf\u0129": 6764,
  "\u0120\u00e5\u012f\u0139\u00e6\u0138\u00b9\u00e9\u0125\u00bd\u00e5\u00b8\u0124\u00e6\u012c\u00a5": 8043,
  "\u00e5\u012a\u00ab\u00e4\u00ba\u00ba\u00e7\u013c\u0126": 2969,
  "\u00e8\u00af\u0137\u00e4\u00b8\u0122\u00e8\u00af\u0137": 14821,
  "\u0120\u00e9\u0124\u00a3\u00e6\u013a\u00af\u00e5\u013d\u0142\u00e4\u00b8\u00ba": 11494,
  "\u00e5\u0127\u00a8\u00e4\u00b8\u0138\u00e7\u0137\u012e": 6189,
  "\u00e8\u012f\u00b7": 6618,
  "\u00e5\u00a4\u0138\u00e8\u00b5\u0126": 12949,
  "\u0120\u00e5\u00a6\u0124\u00e6\u0140\u013e\u00e4\u00bd\u0142": 1701,
  "\u0120\u00e5\u00a6\u0124\u00e6\u0140\u013e\u00e6\u012a\u0133\u00e4\u00bb\u00ac": 8027,
  "\u00e6\u00ac\u0142": 2821,
  "\u00e8\u0126\u0133\u00e8\u00a2\u012d": 4540,
  "\u00e5\u00be\u0139\u00e6\u013d\u00b4": 8114,
  "\u00e4\u00bb\u00a5": 206,
  "\u00e6\u013a\u00a5\u00e8\u012c\u0124": 7625,
  "\u00e9\u0125\u00a8\u00e4\u00bd\u012f": 12800,
  "\u00e6\u0130\u00a2": 2266,
  "\u00e5\u012a\u0128\u00e9\u0127\u012f": 10748,
  "\u00e4\u00ba\u00a7\u00e5\u0135\u0123": 2777,
  "\u00e5\u00bd\u0135\u00e5\u012a\u013f": 3331,
  "\u00e7\u013e\u00bc": 679,
  "\u00e7\u0123\u00ab\u00e7\u0123\u00be": 15029,
  "\u00e5\u0128\u013e\u00e6\u00b0\u0133": 7686,
  "\u00e8\u012f\u00a1": 4159,
  "\u00e5\u0128\u013b\u00e5\u0143\u0139": 14282,
  "\u00e6\u00a1\u012e\u00e5\u0143\u0132\u00e4\u00b8\u012c": 14143,
  "\u00e5\u0132\u00b9": 2792,
  "\u00e5\u00bf\u013a\u00e8\u00ae\u00b0": 3997,
  "\u00e7\u013d\u0132": 5789,
  "\u00e8\u00ae\u00be\u00e7\u00bd\u00ae": 9109,
  "\u00e8\u012f\u00a3\u00e8\u0122\u0122": 12423,
  "\u00e7\u0138\u0133": 1437,
  "\u00e4\u00b8\u012f\u00e5\u00ae\u012b": 8355,
  "\u00e7\u0138\u00af\u00e7\u012d\u0124": 8686,
  "\u00e9\u013a\u00b3": 1210,
  "\u00e5\u0134\u00b1\u00e5\u00b0\u00b1": 10713,
  "\u00e6\u00b2\u00a1\u00e5\u00ae\u012e": 13060,
  "\u00e5\u00b0\u0131\u00e7\u00b1\u00b3": 14900,
  "\u00e8\u0134\u012d\u00e4\u00bb\u012d": 11255,
  "\u00e7\u013c\u0126\u00e7\u0139\u0137\u00e8\u00bf\u00b9": 14259,
  "\u00e7\u00b2\u00be\u00e5\u012c\u013d": 7796,
  "\u00e5\u012f\u012c\u00e8\u00be\u012a\u00e5\u0143\u0132": 15293,
  "\u00e6\u0136\u00b9\u00e9\u0122\u0142": 7405,
  "\u00e6\u00b3\u012b": 5487,
  "\u0120\u00e5\u00b0\u0128\u00e5\u0128\u013d": 8437,
  "\u00e7\u00af": 2318,
  "\u00e4\u00bd\u0142\u00e5\u00bf\u00ab": 11772,
  "\u00e5\u013d\u0140\u00e5\u00a4\u012f": 4918,
  "\u00e5\u0131\u0138\u00e6\u00b6\u012a": 6785,
  "\u00e9\u00a1\u00b9": 1529,
  "\u00e5\u0131\u0142": 9120,
  "\u0120\u00e7\u00a8\u012d": 11556,
  "\u00e7\u00b2\u00be\u00e8\u0129\u00b4": 12902,
  "\u00e9\u0125\u00bd\u00e7\u00bb\u013b\u00e4\u00bd\u0142": 14514,
  "\u00e4\u00bd\u0142\u00e8\u0129\u00aa\u00e5\u00b7\u00b1\u00e7\u013c\u0126": 7579,
  "\u00e7\u013d\u0134": 4518,
  "\u00e4\u00ba\u0128\u00e4\u00b8\u0122\u00e5\u00a4\u00a7": 8937,
  "\u00e5\u0132\u00a8": 7708,
  "\u00e5\u00b8\u00a6\u00e7\u013f\u0122": 2198,
  "\u00e8\u00b5\u00b6\u00e5\u00bf\u00ab": 4823,
  "\u00e6\u0125\u00ab": 8610,
  "\u00e5\u00b1\u0123": 2805,
  "\u00e5\u0135\u0123": 852,
  "\u0120\u00e4\u00ba\u012e\u00e9\u013d\u00b6\u00e4\u00b8\u0122": 3220,
  "\u00e4\u00b9\u012d\u00e9\u0139\u00b4": 1440,
  "\u00e5\u00b7\u00b2\u00e7\u00bb\u0131\u00e6\u013e\u012b": 8600,
  "\u00e5\u00a5\u00b9\u00e4\u00bb\u00ac": 4887,
  "\u00e5\u00ba\u013b": 7223,
  "\u00e6\u00b0\u0136\u00e8\u00b4\u00a8": 9805,
  "\u00e8\u00af\u0137\u00e8\u00af\u0137": 4147,
  "\u00e5\u00bd\u0135\u00e5\u013e\u00b0": 4091,
  "\u0120\u00e5\u012f\u00b4": 1870,
  "\u0120\u00e5\u00b1\u0140\u00e4\u00ba\u0130": 15045,
  "\u00e6\u00be": 2450,
  "\u0120\u00e6\u013a\u00a8\u00e5\u00a4\u00a9\u00e6\u013b\u013c\u00e4\u00b8\u012c": 7303,
  "\u00e9\u00a2\u0133\u00e9\u0123\u0135": 7593,
  "\u0120\u00e5\u00a4\u012f": 10412,
  "\u00e7\u00ae\u00a1\u00e4\u00ba\u0128": 10395,
  "\u00e6\u00b5\u00aa\u00e6\u00bc\u00ab": 6057,
  "\u00e8\u00af\u00a5\u00e5\u00a6\u0124\u00e4\u00bd\u0137": 11079,
  "\u00e5\u0130\u0128\u00e5\u0131\u00b2": 2866,
  "\u0120\u00e5\u0138\u0126": 10206,
  "\u0120\u00e6\u00ac\u00a2\u00e8\u00bf\u0130\u00e5\u0132\u0126\u00e4\u00bd\u012f": 11931,
  "\u00e8\u00b6\u012d\u00e5\u012c\u00bf": 8125,
  "\u00e5\u012b\u0138": 15536,
  "\u00e6\u0132\u00ba": 7982,
  "\u00e8\u00bf\u013b\u00e6\u00ae\u00b5": 4599,
  "\u00e5\u0135\u00aa\u00e5\u0126\u00bf\u00e6\u013f\u00a5\u00e7\u013c\u0126": 15825,
  "\u00e8\u00bd\u00ac\u00e5\u0131\u0133": 8513,
  "\u00e7\u00ba\u00b5": 5308,
  "\u00e5\u00a5\u00bd\u00e5\u0129\u0142": 6119,
  "\u0120\u00e6\u012d\u00bc": 11975,
  "\u0120\u00e9\u0124\u00a3\u00e7\u0130\u00b0\u00e5\u013e\u00a8": 9890,
  "\u00e5\u00a3\u0123": 3885,
  "\u00e6\u013e\u012b\u00e4\u00bb\u00bb\u00e4\u00bd\u0137": 7377,
  "\u0120\u00e7\u0143\u012b\u00e4\u00bd\u0142": 8309,
  "\u00e7\u00ac\u00ac": 652,
  "\u00e6\u012b\u00a9": 4090,
  "\u0120\u00e5\u00a6\u00bb": 10751,
  "\u00e6\u013a\u00af\u00e4\u00bb\u0138\u00e7\u013c\u0126": 10985,
  "\u0120\u00e6\u0130\u012e": 10595,
  "\u00e5\u012a\u00a9": 824,
  "\u00e4\u00b8\u012f\u00e5\u00a5\u00bd\u00e5\u0137\u012c": 10622,
  "\u00e8\u00b7\u0141\u00e4\u00bd\u0142\u00e4\u00bb\u00ac": 5470,
  "\u00e4\u00bd\u0142\u00e6\u012b\u012f": 14228,
  "\u00e4\u00ba\u0128\u00e5\u0133\u0122": 4495,
  "\u00e5\u00a6\u00a8": 6985,
  "\u0123\u00e8\u00ae\u00b8": 4374,
  "\u0120\u00e4\u00bb\u0138\u00e4\u00b9\u0141\u00e6\u013a\u00af": 14899,
  "\u00e5\u00b0\u00b1\u00e5\u00ae\u012e\u00e4\u00ba\u0128": 9032,
  "\u00e7\u00be\u0130\u00e5\u0127\u0125": 3142,
  "\u00e8\u012b\u00b3": 6276,
  "\u00e6\u0138\u0129\u00e7\u00ab\u0142": 3089,
  "\u0120\u00e5\u0128\u0127": 5393,
  "\u0120\u00e5\u0123\u013c\u00e4\u00b8\u0122\u00e4\u00b8\u00aa": 15598,
  "\u00e6\u00b6\u012b\u00e5\u0131\u012c": 7801,
  "\u00e4\u00bd\u0142\u00e6\u013a\u00af": 1618,
  "\u00e6\u00b5\u00b4": 8795,
  "\u00e8\u00be\u00a3\u00e6\u00a4\u0134": 9902,
  "\u00e7\u00bb\u00aa": 1658,
  "\u00e7\u00bc\u013c": 14307,
  "\u0120\u00e4\u00b8\u012f\u00e6\u013a\u00af": 1052,
  "\u00e4\u00b8\u012d\u00e5\u0130\u00bb\u00e5\u0132\u00a7": 14448,
  "\u00e4\u00bb\u00aa": 3769,
  "\u00e6\u0130\u0134": 1254,
  "\u00e5\u0129\u00ba\u00e4\u00bb\u0122\u00e4\u00b9\u012a": 9121,
  "\u00e4\u00b9\u00b3": 7136,
  "\u00e5\u00af\u0128\u00e9\u013d\u0128": 15905,
  "\u00e9\u0123\u0129\u00e5\u012a\u00b0": 1980,
  "\u00e4\u00be\u00ae\u00e8\u00be\u00b1": 14226,
  "\u0120\u00e4\u00bb\u00a5\u00e4\u00b8\u012c\u00e5\u00b0\u00b1\u00e6\u013a\u00af\u00e4\u00bb\u012c\u00e5\u00a4\u00a9\u00e7\u013c\u0126": 10291,
  "\u00e7\u00b4\u00a7": 943,
  "\u00e6\u013a\u00af\u00e6\u012a\u0133\u00e7\u013c\u0126": 4086,
  "\u00e5\u0132\u00ac\u00e7\u013f\u0122": 6538,
  "\u00e7\u012c\u00b6": 1488,
  "\u00e8\u0125\u0138\u00e4\u00ba\u0128": 15151,
  "\u00e6\u012f\u0141": 2639,
  "\u00e4\u00bb\u00bd": 924,
  "\u00e4\u00b8\u012f\u00e5\u0129\u00ba\u00e6\u013f\u00a5": 4205,
  "\u00e5\u00bd\u00a2\u00e6\u012a\u0132": 4793,
  "\u00e9\u013a\u00b1": 14382,
  "\u00e6\u0122\u0130\u00e4\u00b9\u012a\u00e6\u0142\u00b7\u00e5\u0133\u00a2": 12569,
  "\u00e5\u0132\u0125\u00e4\u00ba\u0131": 11661,
  "\u00e6\u012a\u0133\u00e5\u00ae\u00b6": 5820,
  "\u00e8\u0139\u0131": 1850,
  "\u00e5\u0128\u012f\u00e5\u0130\u00bb": 4352,
  "\u00e4\u00b8\u0133": 4033,
  "\u00e5\u00b0\u00b1\u00e6\u013a\u00af\u00e4\u00b8\u00ba\u00e4\u00ba\u0128": 8101,
  "\u00e8\u0132\u013f": 5618,
  "\u00e5\u00af\u00b9\u00e4\u00bd\u0142": 2115,
  "\u00e4\u00b8\u012f\u00e5\u0123\u013c": 10311,
  "\u00e8\u012c\u00b1\u00e5\u0126\u00bf": 8404,
  "\u0120\u00e7\u00b2": 4764,
  "\u0120\u00e5\u0137\u012c\u00e5\u0137\u012c": 15957,
  "\u00e7\u0131\u0143\u00e7\u012b\u013b": 14720,
  "\u00e6\u0137\u00b0\u00e7\u013c\u0126": 15292,
  "\u00e5\u012e\u0138": 815,
  "\u00e5\u00b1\u0127": 1479,
  "\u00e5\u0127\u012b\u00e6\u013a\u0130": 8248,
  "\u00e9\u00a1\u00ba": 1487,
  "\u00e5\u012f\u00b3\u00e4\u00be\u00bf": 12931,
  "\u0120\u00e8\u00bf\u0129\u00e5\u00b9\u00b4": 13264,
  "\u00e8\u00bf\u013b\u00e6\u0142\u00b7\u00e5\u0143\u0132": 5732,
  "\u00e6\u00a2\u00a6": 1270,
  "\u00e8\u0126\u0133\u00e5\u0143\u0132": 4204,
  "\u00e6\u0122\u00a5": 1159,
  "\u00e4\u00b8\u0122\u00e9\u013a\u00b5": 6626,
  "\u00e8\u00aa\u012b": 5996,
  "\u00e6\u012b\u012d\u00e4\u00b8\u012c": 6488,
  "\u00e5\u013d\u0140\u00e5\u012f\u0129": 15989,
  "\u00e6\u0139\u00b6\u00e5\u0127\u012b\u00e7\u0127\u00ae\u00e9\u013d\u00a8": 12785,
  "\u00e7\u0135\u00b6\u00e5\u0143\u0132": 12556,
  "\u00e5\u0132\u012e\u00e5\u0143\u00a6": 1892,
  "\u00e5\u0134\u012e\u00e6\u012a\u0133\u00e6\u013e\u012b\u00e6\u013d\u00b4\u00e5\u00a4\u013c\u00e7\u013c\u0126": 7549,
  "\u0120\u00e6\u013b\u00ae": 10854,
  "\u00e7\u0123\u00b5\u00e6\u00b4\u00bb": 15692,
  "\u0120\u00e5\u012f\u0125\u00e4\u00b8\u0129\u00e4\u00b8\u012f\u00e8\u00a6\u0123": 9065,
  "\u00e7\u013f\u0122\u00e6\u012a\u0133": 1804,
  "\u0120\u00e9\u0139\u00ae\u00e9\u00a2\u013a": 9202,
  "\u00e6\u00b2\u00a1": 204,
  "\u00e5\u012f\u0123\u00e4\u00ba\u0136\u00e7\u0124\u00b9": 12882,
  "\u00e8\u012b": 590,
  "\u00e5\u00b9\u00b3": 656,
  "\u00e5\u013e\u00b0\u00e5\u0126\u00bf": 9776,
  "\u00e5\u0143\u00a6\u00e6\u0142\u00a1\u00e7\u013c\u0126": 12073,
  "\u00e6\u0141\u00b1": 6195,
  "\u00e8\u00bf\u013b\u00e7\u00a7\u012f\u00e4\u00ba\u00ba": 10116,
  "\u00e4\u00bd\u0142\u00e6\u013a\u00af\u00e4\u00b8\u012f\u00e6\u013a\u00af": 7270,
  "\u0120\u00e4\u00bd\u0142\u00e4\u00b9\u0141\u00e5\u012a\u00ab": 14571,
  "\u00e6\u00bb\u00a5": 12462,
  "\u00e8\u00ae\u00a4\u00e7\u013e\u0141": 3575,
  "\u00e9\u00bb\u013a\u00e9\u00bb\u013a\u00e5\u013e\u00b0": 9433,
  "\u00e8\u00bf\u0141\u00e5\u012a\u00b0\u00e4\u00ba\u0128": 15517,
  "\u0120\u00e5\u013e\u00a8\u00e4\u00b8\u012d": 13652,
  "\u00e8\u00ae\u00a4\u00e8\u00af\u0128\u00e4\u00ba\u0128": 11503,
  "\u0120\u00e5\u0141\u00ba\u00e6\u013e\u00ac": 5710,
  "\u00e7\u013c\u0126\u00e8\u00a6\u0123": 11700,
  "\u00e5\u0127\u0143\u00e7\u013b\u00be": 4727,
  "\u00e5\u012b\u00bf": 10073,
  "\u00e8\u0136": 2485,
  "\u0120\u00e4\u00b8\u0135\u00e5\u00ae\u00b6": 13953,
  "\u00e6\u013f\u0124": 2571,
  "\u00e9\u0122\u013c\u00e7\u0141\u00a5": 3141,
  "\u00e4\u00b8\u012f\u00e9\u0122\u013c": 7053,
  "\u0120\u00e4\u00b8\u012f\u00e5\u0132\u012e": 11060,
  "\u00e5\u00b7\u00a5\u00e5\u013e\u00b0": 14025,
  "\u0120\u00e6\u012a\u0133\u00e8\u00bf\u013b": 2086,
  "\u0120\u00e5\u00b0\u013f": 14701,
  "\u00e4\u00b8\u012f\u00e5\u0129\u00ba": 3903,
  "<PAD>": 1,
  "\u00e4\u00bb\u012c": 379,
  "\u00e7\u012d\u00ac\u00e5\u00a4\u0126": 15593,
  "\u00e4\u00b8\u0122\u00e6\u013f\u00af": 6311,
  "\u00e9\u013c\u00be\u00e4\u00ba\u0128": 7480,
  "\u0120\u00e6\u012a\u0133\u00e8\u00bf\u013b\u00e4\u00b8\u00aa": 6085,
  "\u00e8\u012f\u00af\u00e7\u012b\u00a9": 7818,
  "\u00e8\u00b7\u0141\u00e7\u013f\u0122": 3476,
  "\u00e4\u00b8\u0122\u00e5\u0133\u00a8": 9451,
  "\u00e5\u0133\u012c\u00e8\u00af\u012b\u00e8\u0129\u00aa\u00e5\u00b7\u00b1": 14987,
  "\u00e8\u012a\u00aa\u00e5\u00a4\u00a9": 13607,
  "\u00e5\u0134\u012e\u00e6\u012a\u0133\u00e6\u013e\u012b\u00e6\u013d\u00b4\u00e5\u00a4\u013c\u00e7\u013c\u0126\u00e4\u00ba\u00a4\u00e6\u00b5\u0123\u00e5\u0134\u012e\u00e4\u00ba\u0134\u00e5\u012c\u00a8": 7550,
  "\u00e9\u0124\u00a3\u00e9\u0129\u012e": 4619,
  "\u00e7\u013d": 232,
  "\u00e5\u013d\u0140": 315,
  "\u0120\u00e6\u012a\u0133\u00e6\u00b1\u0124": 13517,
  "\u00e8\u00a6\u0123\u00e7\u00b4\u00a7": 14893,
  "\u00e5\u00be\u0122\u00e5\u00a4\u0138": 10799,
  "\u00e6\u00b7\u00a1\u00e5\u00ae\u013c": 13177,
  "\u00e5\u00b8\u0124\u00e5\u0122\u00bc": 7733,
  "\u00e9\u00aa\u00a8": 2280,
  "\u00e8\u0122\u012e\u00e5\u00b7\u00b2": 3253,
  "\u00e6\u0122\u0137\u00e4\u00bd\u0142": 8737,
  "\u00e5\u00ae\u012a\u00e5\u0122\u013b": 10681,
  "\u0120\u00e7\u0130\u00af": 11046,
  "\u00e5\u0132\u0125\u00e5\u00ae\u012e": 6866,
  "\u0120\u00e9\u0124\u00a3\u00e4\u00bb\u0138": 5090,
  "\u00e8\u00bf\u0129\u00e5\u00be\u0122": 11187,
  "\u00e9\u00a9\u00ac\u00e4\u00b8\u012c\u00e5\u00b0\u00b1": 7124,
  "\u00e8\u00a3\u0127\u00e4\u00bf\u00ae": 8056,
  "\u00e7\u013b\u00bb": 2788,
  "\u00e5\u00a5\u00bd\u00e5\u00a5\u00bd\u00e5\u013e\u00b0": 6842,
  "\u0120\u00e6\u00ac\u00a2\u00e8\u00bf\u0130\u00e6\u013f\u00a5\u00e5\u012a\u00b0\u00e5\u0138\u013e\u00e9\u00a9\u00ac\u00e6\u012d\u012b\u00e9\u013d\u0127": 13431,
  "\u00e7\u00be\u0130\u00e7\u013c\u0126": 5430,
  "\u0120\u00e5\u012a\u013c\u00e5\u00a5\u00bd": 13821,
  "\u0120\u00e6\u012a\u0133\u00e8\u00a7\u012b\u00e5\u00be\u0139\u00e8\u00bf\u013b": 12468,
  "\u00e7\u012a\u00b8\u00e7\u012a\u00b8\u00e5\u00a6\u012a\u00e5\u00a6\u012a": 5230,
  "\u00e5\u00af\u00b9\u00e8\u00af\u013f": 8046,
  "\u00e5\u00be\u0139\u00e7\u00bd\u00aa": 7911,
  "\u00e6\u00b2\u013b": 2151,
  "\u00e4\u00b8\u012f\u00e8\u00bf\u0129\u00e6\u013a\u00af": 9680,
  "\u00e5\u013e\u00a8\u00e5\u0135\u00aa\u00e5\u0126\u00bf\u00e5\u0133\u00a2": 12446,
  "\u00e5\u0128\u013b\u00e4\u00bd\u013e": 11747,
  "\u00e6\u013a\u00af\u00e4\u00bb\u0122\u00e4\u00b9\u012a\u00e5\u0133\u00a2": 5165,
  "\u00e9\u0136\u00a6": 4689,
  "\u00e9\u0139\u00ae\u00e4\u00bd\u0142": 1930,
  "\u00e5\u0143\u013f\u00e6\u0137\u00ac": 15699,
  "\u00e5\u0131\u00aa\u00e6\u013e\u012b": 1782,
  "\u00e9\u0122\u0123\u00e4\u00bd\u0142": 5144,
  "\u00e9\u0125\u00bd\u00e8\u00bf\u013b\u00e4\u00b9\u012a": 10931,
  "\u0120\u00e6\u0133": 4972,
  "\u0120\u00e5\u013d\u00bd\u00e7\u0130\u012d": 11318,
  "\u0120\u00e6\u0137\u00a2": 8681,
  "\u00e8\u00af\u00a5\u00e6\u0122\u0130\u00e4\u00b9\u012a": 4700,
  "\u00e7\u00b2\u012b\u00e4\u00b8\u013f": 6081,
  "\u00e6\u0138\u0133": 8070,
  "\u00e6\u0138\u00af": 1506,
  "\u00e6\u012a\u0133\u00e4\u00bb\u00ac\u00e8\u00a6\u0123": 4520,
  "\u00e7\u00ac\u0133\u00e8\u00af\u013f": 5012,
  "\u0120\u00e6\u00af\u0131\u00e4\u00b8\u00aa": 8168,
  "\u00e5\u0132\u012e\u00e6\u0139\u00b6": 2734,
  "\u00e6\u012b\u00a7\u00e6\u00b3\u0137": 15486,
  "\u0120\u00e8\u00bf\u013b\u00e9\u00a6\u0138\u00e6\u0143\u012e": 12514,
  "\u00e5\u00a4\u013c\u00e4\u00b9\u0127": 3600,
  "\u00e5\u00b0\u00b8": 4383,
  "\u0120\u00e6\u013b": 1780,
  "\u00e5\u00a8\u0125": 3410,
  "\u00e9\u0136\u0123": 3284,
  "\u00e5\u013e": 131,
  "\u00e7\u00bf\u00bc\u00e7\u00bf\u00bc": 10997,
  "\u00e5\u00bf\u0125\u00e6\u0125\u0127": 3181,
  "\u00e5\u00bf\u00ab\u00e8\u00ae\u00af": 15022,
  "\u0120\u00e6\u00a2\u00a6": 8867,
  "\u0120\u00e6\u0125\u00b3": 1145,
  "\u00e8\u0130\u0140": 12926,
  "\u0120\u00e5\u0131\u00b3": 15168,
  "\u00e5\u0127\u00b7": 1575,
  "\u00e6\u013a\u00af\u00e4\u00bd\u0142\u00e8\u0129\u00aa\u00e5\u00b7\u00b1": 11693,
  "\u00e6\u00a2\u0123": 3459,
  "\u00e4\u00ba\u012e\u00e9\u013d\u00b6\u00e4\u00b8\u0122\u00e5\u0127\u0143\u00e5\u00b9\u00b4": 14286,
  "\u00e9\u0123\u00a3": 9687,
  "\u00e9\u0124\u00aa": 5839,
  "\u00e5\u00af\u00bc": 1009,
  "\u00e6\u012a\u0133\u00e7\u013c\u0126\u00e5\u00bf\u0125": 14389,
  "\u00e4\u00b9\u00be": 9906,
  "\u00e5\u0125\u0131\u00e4\u00bd\u0142": 7019,
  "\u0120\u00e6\u0122\u00aa": 7986,
  "\u00e7\u00ba\u00aa\u00e5\u00bf\u00b5": 8425,
  "\u00e5\u012f\u00a7": 5857,
  "\u00e5\u012a\u0128\u00e6\u012b\u012d\u00e4\u00ba\u0128": 6625,
  "\u00e5\u00be\u00ae\u00e4\u00bf\u00a1\u00e5\u0127\u00ac\u00e4\u00bc\u0139\u00e5\u0131\u00b7\u00e5\u00bc\u0142\u00e5\u00be\u00b7\u00e8\u012c\u00ac\u00e7\u00a9\u00ba\u00e9\u0139\u00b4": 6945,
  "\u00e7\u0136\u0141\u00e6\u0143\u00bb": 8346,
  "\u00e8\u00bf\u013d\u00e5\u0127\u00a5\u00e5\u012a\u00b0": 13981,
  "\u00e4\u00bd\u0142\u00e7\u013c\u0126\u00e6\u0139\u00b6\u00e5\u0122\u013b": 15236,
  "\u00e6\u013e\u012b\u00e7\u0124\u00b9\u00e5\u00a4\u00aa": 15330,
  "\u00e7\u013b\u00bd\u00e4\u00ba\u0128": 8120,
  "\u00e5\u00bd\u0135\u00e4\u00b8\u012d": 7892,
  "\u00e9\u00bb\u013a\u00e9\u00bb\u013a": 4851,
  "\u00e7\u013c\u0126\u00e8\u00af\u013f\u00e6\u012a\u0133": 12127,
  "\u0120\u00e6\u013f\u00a5\u00e6\u013f\u00a5": 15783,
  "\u00e5\u00b0\u0131\u00e7\u012e\u00aa": 12295,
  "\u00e7\u00b3\u00bb": 594,
  "\u0120\u00e6\u012a\u0133\u00e6\u00b2\u00a1": 3171,
  "\u00e5\u00af\u00b9\u00e6\u012a\u0133": 1984,
  "\u00e4\u00bc\u00b0\u00e5\u0122\u00bc": 9666,
  "\u00e9\u00a2\u0126\u00e6\u013e\u0141": 6664,
  "\u00e6\u013e\u012b": 132,
  "\u00e9\u0122\u013c": 580,
  "\u00e5\u0131\u00ab": 572,
  "\u0120\u00e5\u00b9": 806,
  "\u00e4\u00bb\u012c\u00e5\u00a4\u00a9\u00e6\u013a\u00af": 6535,
  "\u00e6\u012b\u0135\u00e5\u00bc\u0122\u00e4\u00ba\u0128": 13155,
  "\u00e7\u00ab\u0143": 10988,
  "\u00e5\u012f\u00a7\u00e5\u00ae\u00a4": 11334,
  "\u00e8\u00af\u00b4\u00e4\u00bd\u0142\u00e6\u013a\u00af": 15258,
  "\u0120\u00e7\u00b4\u00a2": 15304,
  "\u00e5\u00b9\u00ba": 3880,
  "\u00e4\u00ba\u00ba\u00e6\u00b0\u0133": 2321,
  "\u00e7\u00be\u00a4\u00e4\u00bc\u0139": 6950,
  "\u00e6\u00b8\u0127\u00e6\u013b\u00b0": 7937,
  "\u00e8\u0139\u0131\u00e7\u013f\u0122": 11464,
  "\u00e6\u012b\u012d\u00e8\u012b\u00ba": 12819,
  "\u00e5\u0130\u0141\u00e6\u013f\u00a5": 3566,
  "\u00e8\u00a1\u00a8\u00e7\u013b\u00bd": 7246,
  "\u00e5\u012c\u00a8\u00e4\u00bd\u013e": 5148,
  "\u00e8\u00a1\u00a5\u00e8\u00b4\u00b4": 8491,
  "\u00e6\u0127\u00a2\u00e6\u0127\u00a2\u00e5\u013e\u00b0": 8884,
  "\u00e7\u013c": 106,
  "\u0120\u00e8\u00b5\u00b7\u00e6\u013f\u00a5": 10844,
  "\u00e5\u0127\u012a\u00e5\u012a\u00ab": 15940,
  "\u00e6\u013e\u012b\u00e8\u0129\u00aa\u00e5\u00b7\u00b1\u00e7\u013c\u0126": 11515,
  "\u0120\u00e5\u0130\u0141\u00e6\u013f\u00a5\u00e6\u013a\u00af": 13664,
  "\u00e7\u00a6\u0131": 1132,
  "\u00e7\u013c\u0126\u00e6\u0139\u00b6\u00e5\u0122\u013b\u00e6\u012a\u0133": 5567,
  "\u00e6\u012a\u0133\u00e4\u00bb\u00ac\u00e8\u00bf\u013b": 11451,
  "\u0120\u00e5\u00bd\u0135\u00e5\u013e\u00b0": 10851,
  "\u00e4\u00b8\u012c\u00e6\u013f\u00a5\u00e8\u00af\u00b4": 11922,
  "\u00e6\u0136\u00af\u00e5\u0129\u00ba": 13285,
  "\u00e7\u00a6\u00bb\u00e5\u00a9\u013c\u00e7\u013c\u0126": 15597,
  "\u00e8\u00a1\u0122\u00e6\u00b6\u00b2": 13603,
  "\u00e7\u0141\u00a5\u00e9\u0123\u0135\u00e5\u0132\u00a7": 11340,
  "\u00e5\u00b0\u00b1\u00e6\u013a\u00af\u00e5\u00b0\u00b1\u00e6\u013a\u00af": 9803,
  "\u00e6\u012b\u0135\u00e6\u012a\u0133": 8010,
  "\u00e6\u013b\u00ae\u00e9\u0122\u013c": 3183,
  "\u00e7\u0143\u012b\u00e6\u012a\u0133": 4992,
  "\u0120\u00e6\u012a\u0133\u00e4\u00b9\u0141\u00e6\u013a\u00af": 5435,
  "\u00e5\u0143\u013f": 3972,
  "\u00e6\u012e\u0129\u00e5\u00af\u00bc": 6419,
  "\u00e8\u00ae\u00b2\u00e8\u00a7\u00a3": 8625,
  "\u00e5\u00b0\u00b1\u00e8\u00af\u00b4": 2025,
  "\u00e8\u013d": 1118,
  "\u00e7\u013c\u0126\u00e5\u00b0\u00b1\u00e6\u013a\u00af": 2147,
  "\u00e7\u013c\u0126\u00e5\u0132\u012f": 8851,
  "\u00e6\u00b6\u012a\u00e5\u012e\u0138": 9511,
  "\u00e6\u00b2\u00a1\u00e8\u0125\u00bd": 13436,
  "\u00e5\u0130\u00a8": 3760,
  "\u00e5\u012f\u0123\u00e4\u00b8\u0122\u00e6\u013e\u012a": 8913,
  "\u00e6\u00b8\u00b8\u00e6\u00b3\u00b3": 7286,
  "\u00e6\u0136\u00b6\u00e7\u013d\u013a": 9781,
  "\u00e9\u0123\u0135\u00e5\u00be\u00b7": 7150,
  "\u0120\u00e5\u00bd\u0135\u00e6\u012a\u0133": 8997,
  "\u00e7\u013b\u0138": 15624,
  "\u0120\u00e5\u0134\u00b1\u00e4\u00bb\u00ac": 1426,
  "\u00e5\u00b8\u00a6": 585,
  "\u00e8\u013b\u00bd": 5983,
  "\u00e7\u00bc\u00ba\u00e5\u00b0\u0133": 11788,
  "\u00e7\u013a": 2244,
  "\u00e6\u013e\u0122\u00e5\u00a4\u00a7\u00e7\u013c\u0126": 2987,
  "\u00e8\u00be\u013d\u00e8\u00be\u013d\u00e8\u012d\u00a6\u00e8\u012d\u00a6": 14171,
  "\u00e6\u012c\u012c\u00e6\u0131\u00a1": 6545,
  "\u00e5\u012b\u012f\u00e4\u00b8\u00a4\u00e5\u00a4\u00a9": 7194,
  "\u00e6\u012a\u0133\u00e5\u00b0\u00b1\u00e6\u013a\u00af": 4319,
  "\u00e5\u0134\u012e\u00e5\u00a4\u00a7\u00e5\u00ae\u00b6": 4827,
  "\u00e7\u013e\u0141\u00e5\u00a5\u00bd": 8063,
  "\u00e5\u0128\u0142\u00e7\u012c\u00b6\u00e7\u0139\u0127\u00e6\u00af\u0134": 10912,
  "\u00e7\u013d\u00b4": 490,
  "\u00e6\u0143\u00a4": 735,
  "\u00e5\u00a4\u00b4\u00e7\u013c\u0126": 6482,
  "\u00e5\u012a\u00b6\u00e5\u00ba\u00a6": 5021,
  "\u0120\u00e6\u0137": 1391,
  "\u0120\u00e6\u012a\u0133\u00e7\u012b\u00b9\u00e5\u012a\u00ab": 8779,
  "\u00e5\u0132\u00b5": 1621,
  "\u00e7\u0131\u0143\u00e4\u00b8\u00bb\u00e4\u00bb\u00bb": 14467,
  "\u0120\u00e7\u00ae\u0122\u00e5\u012f\u0137": 12835,
  "\u00e4\u00b8\u00aa\u00e5\u00a5\u00bd": 7847,
  "\u00e4\u00b8\u00a4\u00e4\u00b8\u00aa\u00e5\u0143\u00a9\u00e5\u0143\u0132": 10204,
  "\u00e5\u0131\u0133\u00e8\u00a1\u00a8": 7963,
  "\u00e7\u012a\u0128\u00e7\u0124\u00b8": 7671,
  "\u00e7\u0132\u00b3": 5520,
  "\u00e7\u0137\u00a5": 2629,
  "\u00e5\u00ae\u013f\u00e8\u00b4\u013f\u00e4\u00bb\u00ac": 11275,
  "\u0120\u00e8\u0122\u0125": 6873,
  "\u00e6\u00b4\u00bb\u00e5\u012c\u00a8": 2798,
  "\u00e8\u00b4\u0143\u00e7\u012b\u00a9": 9116,
  "\u00e5\u0134\u012e\u00e4\u00bd\u0142\u00e4\u00b8\u0122\u00e8\u00b5\u00b7": 6337,
  "\u0120\u00e8\u00bf\u0129": 3125,
  "\u00e5\u012a\u00b6": 892,
  "\u0120\u00e7\u0143\u0136": 9837,
  "\u0120\u00e4\u00b8\u0122\u00e4\u00bd\u012f": 8487,
  "\u0120\u00e6\u0126\u0131\u00e6\u0122\u013f": 14883,
  "\u00e6\u0126\u0131\u00e8\u00af\u0128": 3147,
  "\u00e4\u00bf\u013f\u00e5\u0143\u013a": 13418,
  "\u00e5\u00b8\u00bd": 8780,
  "\u0120\u00e9\u0124\u00a3\u00e4\u00b9\u012a": 1066,
  "\u00e5\u0143\u00a3\u00e5\u00ba\u00a6": 4077,
  "\u0120\u00e6\u012a\u0133\u00e6\u013f\u00a5": 4576,
  "\u0120\u00e6\u013a\u00a5": 5207,
  "\u0120\u00e5\u0127\u00b7\u00e4\u00bd\u0135": 7934,
  "\u00e8\u0130\u0135": 13222,
  "\u00e5\u0131\u0133\u00e7\u0136\u0141\u00e4\u00ba\u0128": 4150,
  "\u00e6\u013f\u00a5": 153,
  "\u00e4\u00b8\u0125\u00e7\u0124\u00b9": 2849,
  "\u0120\u00e5\u00b0\u0128": 2346,
  "\u00e6\u013e\u012b\u00e4\u00bb\u0122\u00e4\u00b9\u012a\u00e7\u0136\u00a8": 13718,
  "\u00e5\u012f\u0123\u00e4\u00b9\u013f": 6332,
  "\u00e5\u0123\u013c\u00e4\u00ba\u00ba": 9437,
  "\u0120\u00e8\u00ae\u00a9\u00e5\u00a5\u00b9": 9594,
  "\u00e4\u00bd\u0142\u00e8\u00af\u00b4": 1712,
  "\u00e6\u013f\u0133": 1512,
  "\u00e5\u0133\u00a8\u00e5\u013d\u00b4": 5473,
  "\u0120\u00e7\u0130\u012b": 7760,
  "\u00e4\u00b8\u0122\u00e9\u00a1\u00bf": 5289,
  "\u00e4\u00ba\u0128\u00e5\u00a4\u013c\u00e5\u00b0\u0133": 10269,
  "\u0120\u00e4\u00bd\u0142\u00e4\u00b9\u0141\u00e5\u0131\u00af\u00e4\u00bb\u00a5": 14140,
  "\u00e7\u00ac\u00ac\u00e4\u00b8\u0122\u00e6\u00ac\u00a1": 2455,
  "\u00e6\u0122\u00bb": 677,
  "\u00e6\u0141\u0132": 1520,
  "\u00e6\u0124\u00a8\u00e6\u0136\u00be\u00e5\u00bf\u0125": 15629,
  "\u00e7\u00b3\u0138": 3026,
  "\u00e6\u013d\u00bc": 5228,
  "\u00e9\u0125\u00bd\u00e6\u013a\u00af": 557,
  "\u00e5\u00b0\u00b1\u00e6\u013a\u00af\u00e6\u012a\u0133\u00e7\u013c\u0126": 9726,
  "\u00e6\u012c\u012c\u00e9\u0124\u00a3\u00e4\u00b8\u00aa": 7729,
  "\u00e5\u00be\u0139\u00e5\u00a4\u00aa": 4474,
  "\u00e8\u00ae\u00b0\u00e8\u00bd\u00bd": 10591,
  "\u00e8\u00ae\u00be\u00e8\u00ae\u00a1\u00e7\u013c\u0126": 14575,
  "\u00e6\u0130\u00a8\u00e8\u00bf\u013d": 7467,
  "\u00e4\u00ba\u012e\u00e5\u012f\u0123\u00e5\u00b9\u00b4": 10444,
  "\u0120\u00e9\u0123\u0135": 11119,
  "\u00e4\u00bf\u00a1\u00e5\u0131\u00b7": 7162,
  "\u00e4\u00b8\u012f\u00e5\u0122\u00bc": 11677,
  "\u00e7\u013c\u0126\u00e4\u00ba\u012d\u00e5\u0126\u00bf": 1651,
  "\u00e5\u0129": 180,
  "\u00e5\u0134\u00b1\u00e4\u00bb\u00ac\u00e4\u00bf\u00a9": 10624,
  "\u00e6\u013a\u00af\u00e5\u00a4\u013c\u00e5\u00b0\u0133": 14174,
  "\u00e5\u0131\u00af\u00e4\u00bb\u00a5": 389,
  "\u0120\u00e8\u00bf\u013b\u00e6\u00ae\u00b5\u00e6\u0139\u00b6\u00e9\u0139\u00b4": 12846,
  "\u00e9\u0135": 743,
  "\u00e8\u00af\u00b8\u00e8\u0133\u013d": 13156,
  "\u00e6\u013a\u00af\u00e4\u00bb\u0122\u00e4\u00b9\u012a": 1219,
  "\u00e5\u0137\u00a5\u00e6\u0126\u0131\u00e6\u0122\u013f": 13997,
  "\u00e5\u0141\u00b9\u00e8\u00ae\u0143": 6645,
  "\u0120\u00e7\u00a5\u013f\u00e6\u0124\u00a8\u00e6\u013b\u013c\u00e5\u00ae\u012b": 9368,
  "\u00e7\u0141\u00a5\u00e5\u00b7\u00b1": 15500,
  "\u00e5\u013e\u00a8\u00e5\u012e\u00bb\u00e9\u013b\u00a2": 13405,
  "\u0120\u00e5\u013a\u00b4": 8637,
  "\u0120\u00e6\u012a\u0133\u00e5\u00b0\u00b1\u00e6\u013a\u00af\u00e6\u0125\u00b3": 10721,
  "\u00e6\u012e": 305,
  "\u00e4\u00b8\u00bb\u00e4\u00bd\u0135": 14809,
  "\u00e8\u00a1\u012e\u00e4\u00ba\u0128": 2360,
  "\u00e5\u012e\u00ba": 878,
  "\u00e4\u00b9\u0141\u00e6\u013a\u00af\u00e5\u013e\u00a8": 14246,
  "\u00e5\u0127\u00b0\u00e5\u0127\u012d": 12420,
  "\u0120\u00e6\u0141\u00a5": 8579,
  "\u0120\u00e4\u00bd\u0142\u00e8\u0122\u0123": 15531,
  "\u00e7\u00ab\u0141": 1403,
  "\u00e6\u0137\u013b": 864,
  "\u0120\u00e5\u0133\u012c\u00e8\u00af\u012b": 4971,
  "\u00e5\u00b1\u00b1\u00e4\u00b8\u012c": 9633,
  "\u0120\u00e7\u00a8\u012f": 9149,
  "\u00e5\u013d\u0140\u00e6\u012c\u00a5": 6896,
  "\u00e4\u00ba\u00a4\u00e6\u00b5\u0123": 3010,
  "\u00e5\u00b7\u00ae\u00e5\u00bc\u0124": 11212,
  "\u00e7\u0124": 240,
  "\u00e7\u00af\u00ae\u00e7\u0132\u0125": 12075,
  "\u00e7\u0124\u00ab": 8942,
  "\u00e4\u00b8\u012f\u00e6\u0129\u0124\u00e5\u00be\u0139": 15794,
  "\u00e6\u00b2\u0125": 13240,
  "\u00e5\u0130\u012d": 1343,
  "\u00e7\u0134": 3569,
  "\u00e7\u013b\u00be\u00e5\u012a\u0128\u00e4\u00b9\u012d": 1010,
  "\u00e8\u00ae\u00a8\u00e5\u0130\u012e": 3963,
  "\u00e4\u00bb\u0138\u00e8\u0125\u00bd": 7478,
  "\u00e7\u013c\u0126\u00e7\u00bc": 4819,
  "\u00e7\u00b4\u00af\u00e7\u013c\u0126": 12990,
  "\u00e4\u00b8\u012f\u00e5\u00b0\u0133": 3361,
  "\u00e8\u0122\u0125\u00e8\u00af\u0137": 3705,
  "\u00e4\u00bb\u00bb\u00e5\u012c\u00a1": 2412,
  "\u00e6\u012a\u0133\u00e7\u0130\u00b0\u00e5\u013e\u00a8": 2790,
  "\u00e6\u0132\u0131": 9107,
  "\u00e8\u0133\u00ac": 6919,
  "\u00e9\u0124\u00a3\u00e5\u00b0\u00b1": 5112,
  "\u0120\u00e4\u00bd\u0142\u00e8\u00b7\u0141": 4618,
  "\u00e5\u00a4\u0131\u00e9\u013d\u00a8": 9365,
  "\u00e6\u0143\u00a4\u00e5\u012a\u00bb\u00e6\u0143\u00a3\u00e5\u013e\u00a8\u00e8\u0123\u0128\u00e5\u0132\u00ac\u00e7\u013c\u0126\u00e4\u00bd\u0142": 12290,
  "\u00e5\u00bf\u0125\u00e7\u0136\u013a\u00e6\u0125\u0127\u00e6\u0126\u00bf": 11878,
  "\u00e8\u0129\u00aa\u00e5\u00b7\u00b1\u00e6\u0125\u00b3\u00e8\u00a6\u0123": 13961,
  "\u00e9\u013b\u0128\u00e7\u00bb\u0143": 10136,
  "\u00e8\u00bf\u013b\u00e5\u013d\u0140": 10239,
  "\u00e6\u00a3\u0122\u00e6\u0141\u00a5": 3623,
  "\u00e9\u0125\u00bd\u00e6\u013a\u00af\u00e4\u00b8\u00ba\u00e4\u00ba\u0128": 11681,
  "\u00e5\u0134\u0138": 4161,
  "\u00e9\u013f\u0140\u00e5\u00b8\u00b8\u00e9\u0129\u012f\u00e8\u00a6\u0123\u00e7\u013c\u0126": 14866,
  "\u0120\u00e8\u00af\u00b6": 9384,
  "\u00e7\u013c\u0126\u00e5\u0132\u0130": 13698,
  "\u00e7\u013c\u0126\u00e6\u0126\u0141\u00e8\u00a7\u012b": 3495,
  "\u0120\u00e5\u00a5\u00bd\u00e5\u0125\u0131\u00e6\u013a\u00af": 14012,
  "\u00e6\u012b\u00be\u00e6\u012b\u00be": 10538,
  "\u00a2\u00e5\u00a4\u012f": 3423,
  "\u00e5\u012f\u013c\u00e7\u012b\u00a9": 9535,
  "\u0120\u00e4\u00bd\u0128\u00e4\u00bb\u0138": 5623,
  "\u00e6\u0139\u0142\u00e5\u00bf\u00a7": 14184,
  "\u00e7\u00bb\u0131\u00e9\u00aa\u012e": 3378,
  "\u00e7\u0130\u012d\u00e5\u0127\u00ab": 12387,
  "\u00e8\u0132\u013f\u00e5\u012f\u013e": 7208,
  "\u00bc\u00e5\u00be\u0139": 6901,
  "\u00e4\u00b8\u012f\u00e8\u00ae\u00b0\u00e5\u00be\u0139": 11560,
  "\u0120\u00e8\u00b0\u0123\u00e7\u0141\u00a5\u00e9\u0123\u0135": 13224,
  "\u00e9\u0137\u00bf": 341,
  "\u00e8\u013b\u00be": 6857,
  "\u0120\u00e6\u012a\u0133\u00e8\u00bf\u0140": 11534,
  "\u00e6\u0122\u0130\u00e4\u00b9\u012a\u00e4\u00bc\u013c": 5092,
  "\u0120\u00e5\u0135\u00a6\u00e5\u00af\u00b9\u00e4\u00ba\u0128": 15873,
  "\u00e6\u0129\u00b5": 8504,
  "\u0120\u00e8\u00af\u00b4\u00e6\u013a\u0130": 8480,
  "\u00e5\u00bd\u0135\u00e5\u00bd\u0135": 15932,
  "\u00e6\u00b4\u00bb\u00e8\u00b7\u0125": 10272,
  "\u00e9\u0143\u0131": 4257,
  "\u00e8\u00b5\u0126": 693,
  "\u0120\u00e5\u0131\u00aa\u00e8\u00a7\u0123": 12747,
  "\u00e6\u0123\u00b0\u00e6\u0123\u00b0": 10963,
  "\u00e7\u0123\u00b0\u00e7\u012d\u00bc": 14964,
  "\u00e5\u00be\u0139\u00e6\u012a\u0133": 8550,
  "\u00e5\u00bd\u00a9": 1925,
  "\u0120\u00e8\u00a3\u0127": 10514,
  "\u00e6\u0134\u0143\u00e5\u0129\u00ba": 10766,
  "\u00e7\u012b\u00b9\u00e5\u012a\u00ab\u00e5\u00a5\u00bd": 4583,
  "\u00e7\u00bb\u0135\u00e5\u00a9\u013c": 1105,
  "\u00e8\u0130": 827,
  "\u00e5\u0123\u013c\u00e4\u00ba\u0128": 2393,
  "\u00e9\u00bb\u0126\u00e8\u012b\u00b2": 13286,
  "\u00e5\u00a5\u00bd\u00e5\u00a4\u013c\u00e4\u00ba\u0128": 15124,
  "\u00e5\u00b0\u013c": 3445,
  "\u00e9\u00a2": 324,
  "\u0120\u00e4\u00b8\u0122\u00e5\u00ae\u013c\u00e6\u013a\u00af": 10839,
  "\u00e7\u013c\u0126\u00e5\u013e\u00b0\u00e6\u0138\u00b9": 1862,
  "\u0120\u00e6\u012a\u0133\u00e4\u00bb\u00ac\u00e7\u0130\u00b0\u00e5\u013e\u00a8": 6757,
  "\u0120\u00e5\u0130\u00bb\u00e5\u0132\u00a7": 12135,
  "\u00e6\u00b9\u0138": 2524,
  "\u00e8\u0124\u00ba": 2856,
  "\u00e8\u0123\u012c\u00e5\u00a4\u00a9": 2227,
  "\u0120\u00e5\u00a2": 5291,
  "\u00e7\u0142\u0136\u00e7\u00a9\u00b6\u00e6\u012b\u0122": 14684,
  "\u00e8\u0122\u0123\u00e7\u013b\u00be\u00e5\u00a7\u0135": 6402,
  "\u00e5\u00b9\u00b4\u00e8\u00bd\u00bb\u00e7\u013c\u0126": 10432,
  "\u00e6\u00b8\u00a9": 1505,
  "\u00e6\u012c\u0122\u00e5\u00b7\u00a7": 10557,
  "\u00e5\u012f\u0123": 271,
  "\u00e6\u012a\u0133\u00e5\u0134\u012e": 6839,
  "\u0120\u00e5\u00bf\u00ab\u00e5\u00bf\u00ab\u00e5\u00bf\u00ab": 11695,
  "\u0120\u00e6\u013e\u012b\u00e7\u013c\u0126\u00e6\u0139\u00b6\u00e5\u0122\u013b": 6125,
  "\u0120\u00e5\u00b8\u00b8": 5891,
  "\u00e4\u00b8\u012f\u00e8\u00ae\u00b8": 8439,
  "\u00e5\u0127\u012f\u00e8\u00b4\u00b9": 6564,
  "\u00e5\u0127\u00b1\u00e5\u0132\u012e": 3411,
  "\u0120\u00e4\u00b8\u00a4": 2410,
  "\u00e7\u00be\u0130\u00e6\u013e\u00af": 13817,
  "\u00e8\u00ae\u00b2\u00e7\u013c\u0126\u00e6\u0137\u0127\u00e4\u00ba\u012d": 10273,
  "\u00e5\u00b9\u00b4\u00e5\u00a4\u00b4": 14940,
  "\u00e7\u00b2\u00be\u00e7\u00a5\u0140": 2857,
  "\u00e5\u0135\u00aa\u00e6\u0122\u0137": 6617,
  "\u0120\u00e6\u013e\u013f": 12509,
  "\u0120\u00e5\u0131\u00ab\u00e5\u0123\u013c": 9596,
  "\u00e5\u00bc\u012c": 10826,
  "\u00e5\u0122\u00bc\u00e7\u0131\u0143": 7472,
  "\u00e5\u00ae\u00a1\u00e7\u00be\u0130": 15831,
  "\u00e6\u012c\u012c\u00e8\u00bf\u013b": 3327,
  "\u0120\u00e7\u013d\u00b4\u00e6\u0130\u00a5": 5275,
  "\u00e7\u013c\u0126\u00e4\u00b8\u0143\u00e5\u013d\u00bd": 10033,
  "\u00e6\u00b8\u00b8\u00e5\u00ae\u00a2": 8232,
  "\u00e8\u0136\u00ac\u00e8\u0131\u013e": 10911,
  "\u00e8\u00a6\u0123\u00e6\u013f\u00a5": 13058,
  "\u00e4\u00bc\u0142\u00e8\u00af\u00b4": 9580,
  "\u00e8\u00a6\u0123\u00e9\u0134\u00b1": 12362,
  "\u00e8\u00ae\u00b2\u00e7\u00a9\u00b6": 7931,
  "\u00e7\u0140\u0127": 6118,
  "\u00e6\u013b\u0135": 2508,
  "\u00e8\u0122\u0123\u00e8\u00af\u013f": 13934,
  "\u00e6\u012b\u00be\u00e5\u00b7\u00a5\u00e4\u00bd\u013e": 12436,
  "\u00e4\u00b8\u0122\u00e5\u00ae\u013c\u00e6\u013e\u012b": 12412,
  "\u0120\u00e5\u0135\u00a5": 3416,
  "\u00e6\u012b\u00bf\u00e5\u0131\u0139": 6280,
  "\u00e8\u00a7\u0128": 1058,
  "\u00e5\u00a5\u00b3\u00e6\u0138\u00b9": 14981,
  "\u00e9\u0122\u0136\u00e4\u00b8\u0143": 14363,
  "\u00e5\u0127\u00b1\u00e6\u013e\u012b": 12325,
  "\u00e4\u00b9\u0141\u00e6\u00b2\u00a1\u00e4\u00bb\u0122\u00e4\u00b9\u012a": 9381,
  "\u00e7\u013c\u0129\u00e5\u0132\u0130": 9861,
  "\u00e4\u00bb\u0130\u00e6\u013f\u00a5": 1943,
  "\u00e8\u00bf\u0140": 745,
  "\u0120\u00e7\u00bb\u013b\u00e6\u012a\u0133": 3813,
  "\u0120\u00e5\u00ae\u0140\u00e5\u013e\u00a8\u00e6\u013a\u00af": 13636,
  "\u00e4\u00ba\u00b2\u00e7\u012a\u00b1\u00e7\u013c\u0126\u00e5\u00b0\u0131": 8935,
  "\u00e9\u0122\u0142\u00e6\u012a\u0132\u00e7\u013c\u0126": 11276,
  "\u00e7\u00bb\u0126": 1246,
  "\u0120\u00e6\u012a\u0133\u00e8\u00b5\u00b0\u00e4\u00ba\u0128": 15711,
  "\u0120\u00e6\u012b\u0122\u00e4\u00bb\u00a5\u00e4\u00bd\u0142": 7064,
  "\u0120\u00e5\u00a4\u00aa\u00e5\u0143\u0132": 15646,
  "\u00e7\u013c\u0126\u00e9\u0125\u00bd": 8682,
  "\u00e7\u013e\u012d\u00e7\u013e\u012d\u00e5\u0132\u00a7": 13882,
  "\u0120\u00e4\u00bb\u012c\u00e6\u013b\u013c\u00e5\u00b0\u00b1": 7572,
  "\u00e6\u0134\u0129": 10712,
  "\u00e4\u00bd\u0137": 687,
  "\u00e5\u0132\u0125\u00e4\u00b8\u012f": 10200,
  "\u00e5\u0143\u00a3\u00e8\u012c\u0124": 9313,
  "\u00e4\u00b8\u0122\u00e5\u012a\u0129": 2719,
  "\u00e8\u0133\u00b5": 14991,
  "\u00e4\u00b9\u00b0\u00e4\u00b9\u00b0": 13968,
  "\u00e9\u00a6\u00a8": 11081,
  "\u00e4\u00b8\u012f\u00e5\u0130\u00bb": 2883,
  "\u00e7\u0125\u0124": 3832,
  "\u00e8\u0125\u012e\u00e4\u00b8\u012c": 12054,
  "\u0120\u00e6\u00b9": 8007,
  "\u00e5\u0130\u00bb\u00e8\u00a7\u0123": 11638,
  "\u00e8\u00b5\u0131": 3157,
  "\u00e6\u0122\u00a5\u00e4\u00ba\u0128": 11384,
  "\u00e9\u00ba\u00bb": 1542,
  "\u00e8\u00b7\u00af\u00e4\u00ba\u0128": 11845,
  "\u00e5\u00bf\u00bd": 4167,
  "\u0120\u00e4\u00bd\u0142\u00e6\u0139\u00a2\u00e7\u0126\u00b6": 14081,
  "\u00e4\u00ba\u0128\u00e5\u0129\u0142": 5674,
  "\u00e4\u00bd\u0142\u00e8\u00a6\u0123\u00e5\u00b9\u00b2\u00e4\u00bb\u0122\u00e4\u00b9\u012a": 11668,
  "\u00e5\u0129\u00ba\u00e4\u00b8\u0122\u00e4\u00b8\u00aa": 8243,
  "\u00e4\u00bd\u0142\u00e5\u012a\u00ab": 3094,
  "\u00e4\u00b8\u012f\u00e5\u0129\u00ba\u00e5\u0130\u00bb": 10967,
  "\u00e8\u00ae\u00bf\u00e8\u0122\u0127": 11802,
  "\u0120\u00e6\u0124\u00a8\u00e7\u013c\u0126": 10717,
  "\u0120\u00e4\u00bd\u0142\u00e5\u0131\u012a": 5147,
  "\u00e5\u013f\u0129": 2580,
  "\u00e7\u0124\u00bc": 4415,
  "\u00e8\u00b6\u012c\u00e5\u00a5\u00bd": 9728,
  "\u00e7\u013e\u012d\u00e4\u00ba\u0128\u00e4\u00b8\u0122": 13585,
  "\u00e6\u0126\u0131\u00e5\u0133\u00b3\u00e7\u013f\u0122": 5293,
  "\u00e6\u013e\u012d\u00e5\u0131\u012d\u00e7\u013c\u0126": 8163,
  "\u00e5\u012c\u00a9": 1323,
  "\u00e7\u013c\u0126\u00e4\u00ba\u00ba\u00e5\u0137\u012c": 7669,
  "\u0120\u00e4\u00bd\u0142\u00e5\u012a\u00b0\u00e5\u00ba\u0137": 5903,
  "\u0124": 72,
  "\u0120\u00e5\u00a6\u0124\u00e6\u0140\u013e\u00e4\u00b8\u012f": 15547,
  "\u00e4\u00bb\u0122\u00e4\u00b9\u012a\u00e6\u0142\u00b7\u00e5\u0143\u0132": 11322,
  "\u00e4\u00bb\u0138\u00e4\u00b8\u012f\u00e4\u00bc\u013c": 15883,
  "\u00e6\u0142\u00b8\u00e5\u00bf\u0125": 6038,
  "\u00e8\u0129\u0124": 7806,
  "\u00e6\u013d\u00be": 1183,
  "\u0120\u00e6\u012d\u013d": 11462,
  "\u00e5\u00ae\u00b3\u00e6\u0122\u0137": 2529,
  "\u00e6\u0139\u0123": 2263,
  "\u00e6\u012c\u00a5\u00e5\u00a4\u012f": 8289,
  "\u00e6\u00ac\u00be": 1606,
  "\u0120\u00e5\u00a4\u00a7\u00e4\u00ba\u00ba": 5790,
  "\u0120\u00e6\u0122\u0130\u00e4\u00b9\u012a\u00e8\u00af\u00b4\u00e5\u0133\u00a2": 10343,
  "\u00e9\u013b\u0126": 2988,
  "\u00e8\u00a7\u0126\u00e8\u012e\u0125": 9108,
  "\u0120\u00e5\u0131\u00af\u00e8\u0125\u00bd": 1565,
  "\u00e5\u00b0\u0131\u00e5\u00b0\u0131\u00e7\u013c\u0126": 7668,
  "\u00e6\u012a\u00b4\u00e4\u00b8\u012c": 14070,
  "\u00e8\u0124\u00a5\u00e8\u0125\u0138": 13208,
  "\u00e6\u00a1\u012a\u00e4\u00be\u012d": 8773,
  "\u0120\u00e4\u00b8\u012f\u00e7\u00ae\u00a1\u00e6\u013a\u00af": 8042,
  "\u00e5\u00a6\u013b": 3036,
  "\u00e4\u00bd\u0142\u00e4\u00bb\u00ac\u00e5\u00ae\u00b6": 6396,
  "\u00e4\u00b8\u012f\u00e5\u00a4\u013c\u00e4\u00ba\u0128": 8389,
  "\u00e5\u0129\u0142\u00e4\u00b8\u00aa\u00e5\u00b0\u0131\u00e6\u0139\u00b6": 15213,
  "\u00a6\u00e6\u0123\u00bc": 12291,
  "\u00e5\u012a\u00a4": 2177,
  "\u00e6\u012c\u00bd\u00e7\u0125\u0141": 8274,
  "\u00e5\u00b9\u00b2\u00e4\u00ba\u0128": 5219,
  "\u00e5\u0134\u012d\u00e5\u013e\u00b0": 13227,
  "\u00e7\u013c\u0126\u00e7\u00b2\u00be\u00e5\u012c\u013d": 13544,
  "\u00e8\u00a1\u012e\u00e4\u00ba\u012d": 14235,
  "\u00e6\u00b5\u013b\u00e6\u00b1\u0141": 10551,
  "\u00e5\u00ae\u00b6\u00e4\u00bc\u013b": 5218,
  "\u00e5\u0123\u013c\u00e5\u00ae\u012e": 10550,
  "\u0120\u00e5\u0143\u013a": 13126,
  "\u00e6\u013a\u0141\u00e5\u00ba\u00a7": 15686,
  "\u00e9\u0125\u00bd\u00e4\u00b8\u012f\u00e8\u00a6\u0123": 11004,
  "\u00aa\u00e5\u012c\u013d": 1492,
  "\u00e5\u0129\u00ba\u00e8\u00a1\u012e": 8661,
  "\u00e6\u00b5\u012d\u00e8\u00af\u0137": 7843,
  "\u00e8\u0125\u0130": 3999,
  "\u00e8\u00ae\u00a4\u00e9\u0136\u013b": 12343,
  "\u00e5\u0127\u00b4": 1161,
  "\u00e7\u0127": 799,
  "\u00e4\u00bf\u0140": 12817,
  "\u00e5\u00ba\u0128": 2482,
  "\u00e7\u0132\u00a2\u00e7\u00a3\u00a8": 5123,
  "\u0120\u00e5\u00b0\u00bd\u00e7\u00ae\u00a1": 6241,
  "\u00e5\u0135\u0133": 9545,
  "\u00e9\u00a3\u0130\u00e9\u013d\u00a8": 8456,
  "\u00e4\u00b8\u0122\u00e7\u0135\u00b6": 13296,
  "\u00e8\u0125\u0128": 3150,
  "\u00e6\u0137\u0131\u00e6\u0126\u0141": 7131,
  "\u00e5\u00a4": 120,
  "\u00e4\u00b9\u0141\u00e4\u00b8\u012f\u00e9\u0136\u013b": 13562,
  "\u00e8\u0138\u0129\u00e8\u0138\u0129": 15224,
  "\u00e7\u0136\u0141\u00e7\u013c\u0126": 1966,
  "\u00e5\u00ae\u00a3\u00e4\u00bc\u0142": 6063,
  "\u00e8\u00be\u012a\u00e5\u0143\u0132": 1901,
  "\u0120\u00e7\u0138": 5057,
  "\u00e7\u013c\u0126\u00e4\u00b8\u0122\u00e7\u00a7\u012f": 3925,
  "\u00e7\u0137\u013b": 872,
  "\u00e9\u0139\u0143\u00e5\u013a\u00b4": 8667,
  "\u00e6\u0133\u0129\u00e5\u00a4\u00b4": 9884,
  "\u00e4\u00bc\u013b\u00e5\u0143\u0132": 5646,
  "\u00e4\u00bb\u0138\u00e9\u0125\u00bd": 10370,
  "\u00e4\u00ba\u0128\u00e5\u0132\u00a7": 1316,
  "\u00e8\u00b0\u00a6": 6078,
  "\u00e5\u00af\u00b9\u00e4\u00b8\u012f\u00e4\u00bd\u0131": 15084,
  "\u00e7\u013c\u0126\u00e5\u00a4\u00a9": 6039,
  "\u00e8\u0123\u0136\u00e5\u0124\u00a8": 7723,
  "\u00e6\u00b6\u012a\u00e9\u013a\u00b2": 11436,
  "\u0120\u00e4\u00bd\u0142\u00e7\u0141\u00a5\u00e9\u0123\u0135\u00e6\u012a\u0133": 12859,
  "\u00e4\u00ba\u0128\u00e4\u00b9\u012d\u00e5\u0132\u0130": 6342,
  "\u00e8\u0122\u00b3\u00e6\u013e\u00ba": 9290,
  "\u00e6\u012a\u0132\u00e7\u00ab\u012d": 5235,
  "\u00e7\u00a9\u00bf": 1388,
  "\u00e4\u00bd\u0142\u00e6\u013a\u00af\u00e4\u00b8\u00aa": 12652,
  "\u0120\u00e4\u00ba\u012b\u00e5\u0131\u0138": 15490,
  "\u00e5\u0131\u012e\u00e6\u0138\u00b9": 5666,
  "\u00e4\u00ba\u0128\u00e4\u00b8\u0122\u00e5\u012f\u012c": 15776,
  "A\u00e8\u0124\u00a1": 12734,
  "\u00e4\u00b8\u012f\u00e8\u00a1\u012e\u00e4\u00ba\u0128": 10305,
  "\u00e8\u00b2": 3340,
  "\u0120\u00e5\u0127\u00b6\u00e5\u00ae\u0140\u00e4\u00bb\u0138": 15779,
  "\u0120\u00e8\u00bf\u013b\u00e5\u0131\u00a5\u00e8\u00af\u013f": 9075,
  "\u00e8\u0130\u00ab\u00e5\u0132\u012f\u00e5\u0127\u00b6": 11445,
  "\u00e9\u013a\u00b5": 2673,
  "\u00e8\u0140\u012f\u00e8\u00b5\u0126": 7499,
  "\u00e4\u00b8\u012b\u00e5\u012f\u0123\u00e5\u00a4\u013c": 14392,
  "\u00e7\u00a7\u013a\u00e4\u00b9\u00a6": 8148,
  "\u00e7\u013c\u00b1": 10613,
  "\u00e9\u00a2\u0133\u00e7\u0130\u0129": 14642,
  "\u0120\u00e7\u0143\u012b\u00e7\u0143\u012b": 11177,
  "\u0120\u00e5\u00af\u00b9\u00e4\u00b8\u012f\u00e5\u00af\u00b9": 6738,
  "\u0120\u00e6\u012a\u0133\u00e5\u0122\u0134\u00e6\u013a\u00af": 15758,
  "\u00e5\u0123\u013c\u00e4\u00ba\u0128\u00e4\u00bb\u0122\u00e4\u00b9\u012a": 14502,
  "\u00e6\u013e\u00af": 1208,
  "\u00e5\u00ba\u0141\u00e8\u00af\u013f": 6451,
  "\u00e5\u00bd\u0137\u00e9\u0141\u00b3": 7015,
  "\u00e4\u00ba\u00a7\u00e6\u013f\u0125": 15997,
  "\u00e6\u0139\u00b6\u00e5\u0127\u012b": 4160,
  "\u0120\u00e4\u00b8\u0122\u00e6\u0138\u00b9\u00e9\u013f\u00a2": 12690,
  "\u00e7\u013e\u0142": 3803,
  "\u00e6\u013a\u0130\u00e6\u013e\u012a": 13616,
  "\u00e4\u00b8\u012d\u00e5\u00b1\u00b1": 10601,
  "\u00e5\u00b0\u0131\u00e6\u013e\u012d\u00e5\u0131\u012d": 4602,
  "\u00e5\u00bc\u0131": 926,
  "\u00e8\u00bf\u0129\u00e4\u00bd\u0142": 5267,
  "\u00e6\u0122\u0130\u00e6\u0142\u00b7": 4438,
  "\u00e5\u012f\u00b0\u00e5\u00ba\u00a6": 8155,
  "\u00e5\u0135\u00a5\u00e7\u013c\u0126": 11344,
  "\u00e4\u00b8\u00b0": 3025,
  "\u00e6\u0143\u00a3": 464,
  "\u0120\u00e5\u012d\u0129": 13081,
  "\u0120\u00e4\u00bd\u0128\u00e6\u013a\u00af\u00e4\u00bd\u0142\u00e8\u00a6\u0123": 15942,
  "\u00e9\u013c\u013e\u00e7\u00a2\u012f": 8636,
  "\u00e8\u0124": 354,
  "\u00e5\u00be\u0139\u00e4\u00bb\u00a5": 13034,
  "\u00e7\u00ba\u00a6\u00e5\u00ae\u013c": 10906,
  "\u00e5\u0127\u0143\u00e4\u00b8\u0129": 14710,
  "\u00e4\u00bc\u013c\u00e6\u013d\u00b4": 11186,
  "\u0120\u00e6\u012a\u0133\u00e6\u012b\u012f": 5654,
  "\u00e4\u00b9\u0141\u00e9\u0125\u00bd\u00e6\u013a\u00af": 14803,
  "\u0120\u00e5\u00a6\u0124\u00e6\u0140\u013e\u00e4\u00bd\u0142\u00e6\u0125\u00b3": 6001,
  "\u00e5\u00b7\u00a8": 2841,
  "\u00e8\u00bf\u013a\u00e9\u013e\u0122\u00e8\u00a6\u0123": 11585,
  "\u00e5\u00af\u00a1": 8036,
  "\u00e9\u013f\u0140\u00e6\u00b4\u00b2": 8691,
  "\u00e7\u00bb\u0135\u00e6\u013f\u0141": 2439,
  "\u00e5\u00bd\u00b1\u00e5\u0143\u0132": 9634,
  "\u00e5\u0127\u0127\u00e7\u0136\u00b5": 15907,
  "\u00e5\u0134\u00b1": 702,
  "\u00e6\u012a\u0132\u00e4\u00ba\u00b2": 15131,
  "\u00e8\u0122\u0132\u00e5\u00bf\u0125": 6994,
  "\u00e8\u00af\u0137\u00e7\u013f\u0122": 9417,
  "\u0120\u00e5\u00a5\u00bd\u00e5\u0137\u012c": 6988,
  "\u00e4\u00bd\u0142\u00e5\u00b0\u00b1\u00e5\u012a\u00ab": 11461,
  "\u00e7\u0143": 351,
  "\u00e5\u00a5\u00b3\u00e4\u00ba\u00ba": 1146,
  "\u0120\u00e6\u00b1": 2509,
  "\u00e8\u00bf\u013b\u00e5\u0126\u00bf": 961,
  "\u0120\u00e6\u00b1\u012b": 10367,
  "\u00e8\u00bf\u013e\u00e6\u0138\u00b9": 10817,
  "\u00e6\u0131\u0134": 4443,
  "\u00ac\u00e9\u0139\u00b4": 3931,
  "\u00e7\u0125\u0143\u00e7\u0124\u00b9\u00e8\u00b4\u00a2\u00e7\u00bb\u0131\u00e8\u00b5\u0126\u00e8\u00ae\u00af\u00e4\u00b8\u0122\u00e5\u012a\u00bb\u00e5\u013e\u00a8\u00e6\u0124\u00a8\u00e8\u00ba\u00ab\u00e8\u00be\u00b9": 13269,
  "\u0120\u00e9\u0124\u00a3\u00e6\u013a\u00af\u00e4\u00bd\u0142": 15245,
  "\u00e5\u012e\u00bb\u00e9\u013b\u00a2\u00e7\u013c\u0126": 13103,
  "\u00e6\u012b\u00a7\u00e8\u00a1\u012e": 3939,
  "\u00e7\u013c\u0126\u00e4\u00ba\u012d\u00e5\u0126\u00bf\u00e5\u0137\u012c": 10980,
  "\u00e6\u013a\u00a5": 1422,
  "\u00e7\u00a8\u012d": 952,
  "\u00e6\u00b4": 337,
  "\u00e5\u0135\u0134": 7912,
  "\u00e6\u012a\u0133\u00e4\u00b9\u0141\u00e4\u00b8\u012f": 6175,
  "\u00e4\u00b8\u00a4\u00e4\u00b8\u0129": 7217,
  "\u00e6\u0124\u00ac\u00e5\u00b4\u0138": 13763,
  "\u00e5\u00bc\u0122\u00e5\u00b1\u0137": 6147,
  "\u00e7\u0136\u00a8\u00e6\u012b\u012d": 14486,
  "\u00e4\u00b8\u012f\u00e6\u013a\u00af\u00e4\u00bb\u0122\u00e4\u00b9\u012a": 12541,
  "\u00e5\u00af\u0141\u00e8\u00a7\u012b": 13472,
  "\u00e5\u00ae\u0129\u00e5\u00ae\u013b": 9750,
  "\u0120\u00e6\u00b5\u00b7": 4260,
  "\u00e8\u00b0\u0125\u00e8\u00b0\u0125": 8308,
  "\u00e9\u013a\u00bf": 1091,
  "\u0120\u00e4\u00ba\u0130\u00e6\u013a\u00af\u00e4\u00bb\u0138": 13795,
  "\u00e9\u013f\u0142\u00e8\u0129\u00aa\u00e5\u00b7\u00b1": 15452,
  "\u00e5\u00ae\u0142\u00e7\u012b\u00a9": 12629,
  "\u00e5\u0125\u0131\u00e4\u00b8\u0122\u00e4\u00b8\u00aa": 14465,
  "\u0120\u00e6\u00af\u0131\u00e4\u00b8\u0122\u00e6\u00ac\u00a1": 12593,
  "\u00e8\u00a3\u013b\u00e5\u0143\u0132": 10210,
  "\u00e7\u0125\u00a6": 1497,
  "\u00e5\u00b9\u00b3\u00e5\u013f\u0129": 6583,
  "\u00e5\u0124\u00bb\u00e4\u00ba\u0128": 13946,
  "\u00e5\u0136\u00b1\u00e7\u012b\u0129": 13333,
  "\u00e5\u012b\u012f\u00e8\u00be\u012a": 10653,
  "\u00e6\u012e\u0129\u00e8\u00b4\u00a3": 8073,
  "\u00e8\u00bf\u013b\u00e4\u00b8\u012b": 11965,
  "\u00e8\u00b5\u0140\u00e5\u012c\u00a9": 15559,
  "\u00e5\u0131\u00af\u00e8\u0125\u00bd\u00e5\u013e\u00a8": 13596,
  "\u00e7\u013c\u0126\u00e4\u00b8\u0122\u00e9\u013f\u00a2": 12806,
  "\u00e5\u00bf\u013a\u00e8\u00ae\u00b0\u00e4\u00ba\u0128": 11180,
  "\u00e7\u0137\u013b\u00e8\u00a8\u0122\u00e8\u00af\u00b4": 14165,
  "\u00e7\u013c\u0126\u00e7\u00bd\u00aa": 9195,
  "\u00e5\u00b0\u00b1\u00e6\u013a\u00af\u00e8\u00af\u00b4": 1576,
  "\u00e8\u0125\u00bd\u00e6\u013e\u012b": 12239,
  "\u00e4\u00b8\u012f\u00e8\u00a6\u0123\u00e8\u0126\u00b8": 10491,
  "\u00e9\u0122\u0123": 833,
  "\u00e5\u00b4": 2131,
  "\u0120\u00e5\u013a": 3657,
  "\u00e6\u0140\u0137": 7451,
  "\u00e6\u013e\u012b\u00e4\u00bb\u0122\u00e4\u00b9\u012a\u00e5\u00a5\u00bd": 13283,
  "\u00e8\u00af\u0123\u00e6\u012f\u00ae": 3523,
  "\u00e4\u00bb\u0138\u00e4\u00bf\u00a9": 9259,
  "\u00e7\u013e\u012d\u00e7\u013f\u0122\u00e4\u00bb\u0138": 14358,
  "\u00e4\u00b8\u012d\u00e7\u0131\u0143": 4609,
  "\u00e6\u013d\u00b4\u00e5\u012c\u0142": 2920,
  "\u00e7\u013f\u0122\u00e8\u0129\u00aa\u00e5\u00b7\u00b1\u00e7\u013c\u0126": 13706,
  "\u0120\u00e8\u00bf\u013b\u00e6\u013a\u00af\u00e4\u00b8\u0122\u00e4\u00b8\u00aa": 7029,
  "\u00e7\u00a7\u00af\u00e7\u00b4\u00af": 8385,
  "\u00e4\u00b8\u012f\u00e8\u00bf\u0129": 1939,
  "\u00e9\u00a6\u0128": 2224,
  "\u00e8\u00b5\u00b7\u00e4\u00ba\u0128": 3243,
  "\u0120\u00e5\u012a\u00b0\u00e5\u00ba\u0137": 4491,
  "\u00e5\u0133\u00a8\u00e5\u00b9\u00b4": 14820,
  "\u0120\u00e7\u00b2\u00be": 6781,
  "\u00e7\u013c\u0126\u00e7\u012a\u00b8\u00e7\u012a\u00b8": 14479,
  "\u00e7\u00a7\u0123": 1860,
  "\u00e4\u00bb\u0130\u00e4\u00bb\u0138": 15667,
  "\u00e4\u00b9\u012d\u00e5\u012b\u012f": 1080,
  "\u00e6\u012a\u0133\u00e8\u00b5\u00b0": 13857,
  "\u00e7\u012a\u00ac": 3358,
  "\u00e4\u00ba\u0136\u00e6\u013e\u012a\u00e4\u00ba\u012e\u00e5\u012f\u0123": 15020,
  "\u00e8\u00a1\u0139\u00e5\u00a4\u00b4": 12284,
  "\u00e9\u0124\u00a3\u00e4\u00bd\u012f": 9715,
  "\u0120\u00e7\u0140\u00a7": 10724,
  "\u00e6\u0122\u0130": 2939,
  "\u00e4\u00ba\u00a4\u00e6\u012f\u00a2": 11063,
  "\u00e7\u0136\u0141\u00e6\u00b4\u00bb\u00e7\u013c\u0126": 4402,
  "\u00e6\u00b8\u00a3\u00e7\u0136\u00b7": 8777,
  "\u0120\u00e6\u0134": 6292,
  "\u0120\u00e5\u00ae\u012b\u00e5\u0127\u00a8": 14882,
  "\u00e6\u012d\u0136": 3865,
  "\u00e4\u00b8\u00aa\u00e5\u0126\u00bf": 6523,
  "\u00e4\u00bb\u0127\u00e4\u00bb\u0127": 5848,
  "\u00e7\u013e\u0141\u00e7\u013c\u0126": 554,
  "\u00e5\u00a6\u0138": 3699,
  "\u00e7\u00a6\u00bb\u00e5\u00a9\u013c": 1802,
  "\u00e4\u00bb\u0138\u00e7\u0130\u00b0\u00e5\u013e\u00a8": 7065,
  "\u00e5\u012a\u00a9\u00e7\u013c\u0126": 9480,
  "\u0120\u00e5\u013d\u0140\u00e5\u012a\u00b0": 11158,
  "\u00e6\u0143\u00a6\u00e6\u0140\u0139": 15102,
  "\u0120\u00e6\u012a\u0133\u00e8\u0129\u00aa\u00e5\u00b7\u00b1": 5525,
  "\u0120\u00e5\u0137\u0128": 7714,
  "\u00e5\u00bf\u0125\u00e5\u012c\u00a8": 12025,
  "\u00e5\u00a6\u0124\u00e6\u0140\u013e": 1038,
  "\u00e6\u013a\u00af\u00e4\u00bb\u0122\u00e4\u00b9\u012a\u00e6\u0142\u00b7\u00e7\u013c\u0126": 8075,
  "\u00e4\u00b8\u012f\u00e8\u00a6\u0123\u00e5\u0128\u012f": 5707,
  "\u00e6\u00b2\u013b\u00e5\u0131\u0133\u00e4\u00b8\u012c": 12733,
  "\u00e9\u013d\u00b7": 2390,
  "\u00e5\u00be\u00ae\u00e5\u012f\u013c": 3399,
  "\u00e5\u00be\u00b7": 1076,
  "\u0120\u00e5\u00ae\u0140": 2468,
  "\u00e6\u013f\u0132": 2292,
  "\u00e4\u00bc\u013b\u00e4\u00bc\u00b4\u00e4\u00bb\u00ac": 9886,
  "\u0120\u00e5\u00ae\u0125\u00e7\u013c\u0126": 6900,
  "\u00e6\u012e\u00ba\u00e6\u013e\u012b": 14953,
  "\u0120\u00e4\u00b8\u012f\u00e7\u00ae\u00a1": 2274,
  "\u00e9\u0123\u0129\u00e4\u00b8\u012c": 13363,
  "\u0120\u00e5\u0127\u012a\u00e7\u0136\u0141": 6730,
  "\u0120\u00e6\u013e\u012b\u00e6\u0125\u00b3\u00e8\u00bf\u0140\u00e7\u00ba\u00bf\u00e7\u013c\u0126\u00e6\u013e\u012d\u00e5\u0131\u012d": 11945,
  "\u00e9\u013c\u00be\u00e7\u013c\u0126": 9309,
  "\u00e6\u013e\u0122\u00e5\u0132\u0130\u00e4\u00b8\u0122": 8207,
  "\u00e4\u00b8\u0129\u00e4\u00b8\u0122": 5700,
  "\u0120\u00e7\u0126\u00b6\u00e5\u0132\u0130\u00e8\u00bf\u013b\u00e4\u00b8\u00aa": 9843,
  "\u00e7\u00a7\u012f\u00e5\u0143\u0132": 9374,
  "\u00e6\u012c\u00a5\u00e5\u0133\u012c": 3068,
  "\u00e5\u00ae\u012b\u00e6\u0130\u0134": 2546,
  "\u00e7\u00b1\u00bb\u00e5\u0140\u012d": 11346,
  "\u00e4\u00ba\u012e\u00e5\u012f\u0123\u00e5\u0127\u00ab": 6635,
  "\u00e6\u0126\u0141\u00e6\u0123\u00a9": 7433,
  "\u0120\u00e8\u00af\u00b4\u00e5\u00be\u0139": 11523,
  "\u00e6\u013e\u012a\u00e5\u0127\u012b": 15576,
  "\u00e6\u00a1": 607,
  "\u00e6\u012a\u0133\u00e5\u00b0\u00b1\u00e6\u0125\u00b3": 7816,
  "\u0120\u00e4\u00bd\u0142\u00e5\u0128\u012f": 4873,
  "\u0120\u00e7\u00bb\u0135\u00e5\u00a9\u013c": 5934,
  "\u00e8\u013b\u00b9": 5527,
  "\u00e4\u00b8\u012f\u00e9\u00ab\u013a": 12429,
  "\u00e5\u0138\u013a": 7841,
  "\u0120\u00e9\u0122\u013c\u00e7\u0141\u00a5": 14426,
  "\u00e7\u00bb\u013b\u00e6\u012a\u0133\u00e6\u012b\u0135\u00e7\u0136\u00b5\u00e8\u00af\u013f": 7040,
  "\u00e4\u00bc\u0123\u00e4\u00b8\u013c\u00e7\u013c\u0126": 11088,
  "\u00e8\u00a1\u012e\u00e4\u00b8\u012f\u00e8\u00a1\u012e": 4595,
  "\u00e4\u00bf\u013f\u00e5\u00ae\u012a": 14121,
  "\u00e7\u013c\u0126\u00e7\u00be\u0130": 3555,
  "\u00e5\u0127\u00a5": 717,
  "\u0120\u00e7\u00b4\u0142": 13182,
  "\u00e4\u00bb\u0138\u00e5\u0131\u012a": 9235,
  "\u00e7\u013e\u012d\u00e8\u00bf\u013b\u00e4\u00b8\u00aa": 12686,
  "\u00e5\u0138\u013e\u00e5\u012b\u00a7": 11243,
  "\u00e5\u00bf\u0125\u00e5\u0137\u012c": 10071,
  "\u00e7\u0137\u00aa": 4036,
  "\u0120\u00e6\u00b7\u00b1\u00e5\u013e\u00b3": 9487,
  "\u00e6\u013f\u00a1\u00e4\u00bb\u00b6": 2123,
  "\u00e8\u00bf\u013b\u00e4\u00b9\u012a\u00e5\u0123\u013c": 4932,
  "\u00e5\u00ab\u0123": 2325,
  "\u0120\u00e8\u00b5\u00b7\u00e7\u0142\u0123": 15660,
  "\u00e6\u013a\u0130\u00e6\u013a\u00be": 3577,
  "\u00e5\u0132\u0130": 209,
  "\u00e4\u00b8\u00ba\u00e4\u00bb\u0122\u00e4\u00b9\u012a\u00e4\u00bc\u013c": 6868,
  "\u0120\u00e8\u00bf\u013b\u00e4\u00b8\u0122\u00e6\u00ac\u00a1": 8347,
  "\u0120\u00e6\u012a\u0133\u00e5\u00aa\u00b3\u00e5\u00a6\u0129\u00e5\u0126\u00bf": 9672,
  "\u00e6\u012b\u0123": 15281,
  "\u00e6\u00b2\u00a1\u00e4\u00ba\u012d\u00e5\u0132\u00a7": 6185,
  "\u00e9\u0125\u00bd\u00e5\u00b8\u0124\u00e6\u012c\u00a5": 3275,
  "\u00e4\u00ba\u00b2\u00e5\u00af\u0128": 5105,
  "\u00e7\u0132\u00bc": 13710,
  "\u00e5\u013e\u00a8\u00e4\u00ba\u0130": 6095,
  "\u00e8\u0122\u0123\u00e5\u00b8\u012a\u00e5\u0137\u012c": 9990,
  "\u00e7\u0140\u0130": 3515,
  "\u00e7\u013c\u0126\u00e8\u00ba\u00ab\u00e4\u00bd\u0135": 12063,
  "\u00e4\u00b8\u0122\u00e5\u00a5\u0139": 6978,
  "\u00e6\u012e\u00bd\u00e5\u013d\u0140": 7193,
  "\u00e4\u00bd\u0142\u00e4\u00b8\u00aa": 15708,
  "\u00e8\u00b5\u00a2\u00e4\u00ba\u0128": 8706,
  "\u0120\u00e4\u00b9\u0136": 10052,
  "\u00e5\u00af\u00b9\u00e4\u00bb\u0138\u00e7\u013c\u0126": 7348,
  "\u0120\u00e6\u012b\u0122\u00e6\u013e\u012b": 4833,
  "\u00e5\u00a4\u00b4\u00e5\u0131\u0133": 3998,
  "\u00e9\u0124\u00a3\u00e7\u00a7\u012f\u00e6\u0126\u0141\u00e8\u00a7\u012b": 11202,
  "\u00e9\u0123\u0139": 2332,
  "\u0120\u00e4\u00bd\u0142\u00e4\u00bb\u00ac\u00e6\u013a\u00af": 11746,
  "\u00e7\u0123\u00bf\u00e7\u0125\u0124": 13268,
  "\u0120\u00e6\u0125\u0127\u00e7\u00bb\u00aa": 10723,
  "\u00e5\u00a7\u012d": 694,
  "\u00e8\u00bf\u013a\u00e6\u00b2\u00a1": 2022,
  "\u00e6\u013f\u0143\u00e5\u00b7\u0140": 6971,
  "\u00e7\u013c\u0126\u00e7\u0130\u00af\u00e5\u00a2\u0125": 9611,
  "\u00e6\u00b4\u013d": 5155,
  "\u0120\u00e5\u0127\u012b": 5454,
  "\u00e8\u00ae\u00bf\u00e8\u00b0\u012a": 13921,
  "\u00e7\u0141\u00a5\u00e9\u0123\u0135\u00e5\u0132\u0139": 4542,
  "\u00e5\u0134\u0136": 12241,
  "\u00e6\u0143\u00bb\u00e4\u00ba\u00a1": 4627,
  "\u00e6\u0137\u00a3": 1972,
  "\u00e6\u0142\u0129\u00e5\u00bf\u0139": 10907,
  "\u00e4\u00b8\u012b\u00e7\u013b\u00be": 2853,
  "\u00e8\u00bf\u013d\u00e5\u0141\u0130": 13117,
  "\u00e5\u00a3\u00b0": 796,
  "\u00e5\u0123\u013e\u00e4\u00b8\u012d\u00e6\u013f\u00a5": 11648,
  "\u00e4\u00b9\u0141\u00e5\u013e\u00a8": 4103,
  "\u00e5\u0131\u00a6\u00e4\u00b8\u0122\u00e5\u012f\u012c": 10028,
  "\u00e4\u00ba\u0128\u00e9\u0124\u00a3": 6245,
  "\u00e4\u00b8\u012f\u00e9\u00ab\u013a\u00e5\u0127\u00b4": 8496,
  "\u00e5\u00a2\u0140\u00e9\u0137\u00bf\u00e7\u013b\u00be\u00e5\u012a\u0128\u00e4\u00b9\u012d": 4952,
  "\u00e4\u00b8\u012f\u00e4\u00ba\u0128\u00e4\u00ba\u0128": 7865,
  "\u00e5\u00a4\u00a7\u00e6\u00b5\u00b7": 6890,
  "\u00e5\u0122\u00be\u00e8\u00af\u012b": 10181,
  "\u00e7\u013c\u0126\u00e6\u0138\u00b9\u00e5\u00bc\u0131": 3377,
  "\u00e4\u00b8\u012f\u00e5\u00b7\u00b2": 14202,
  "\u00e6\u0139\u00a9\u00e4\u00b8\u012c": 2810,
  "\u00e4\u00bc\u0142\u00e6\u0141\u0135": 8481,
  "\u00e4\u00ba\u00ba\u00e5\u00bf\u0125": 7277,
  "\u0120\u00e8\u00bf\u013a\u00e8\u00a6\u0123": 4938,
  "\u00e9\u00b8\u00a1\u00e6\u00af\u013d": 11506,
  "\u00e4\u00bc\u00a4\u00e5\u0131\u00a3": 8279,
  "\u00e4\u00b8\u012f\u00e7\u0136\u013a\u00e5\u00bf\u0125": 13901,
  "\u00e4\u00b8\u0122\u00e7\u0140\u00ac\u00e9\u0139\u00b4": 15755,
  "\u00e6\u013b\u00b4": 6814,
  "\u0120\u00e5\u013f": 2384,
  "\u00e9\u013b\u00b7\u00e5\u0127\u00a5": 5737,
  "\u0120\u00e5\u00be\u012a\u00e9\u00ab\u013a\u00e5\u0127\u00b4": 13468,
  "\u0120\u00e4\u00b8\u012d\u00e4\u00b8\u0122\u00e5\u012a\u00bb\u00e5\u0128\u012f\u00e8\u00a7\u0123\u00e5\u0132\u00a7": 8800,
  "\u00e5\u0130\u00bb\u00e5\u0137\u012c": 4208,
  "\u00e8\u0135\u013f\u00e8\u012b\u00b2": 12007,
  "\u00e6\u012a\u0133\u00e4\u00bb\u00ac\u00e6\u013a\u00af": 5558,
  "\u00e7\u013c\u0126\u00e7\u00aa\u0123": 13396,
  "\u0120\u00e7\u0125\u0143\u00e7\u0124\u00b9": 8986,
  "\u00e7\u013c\u0126\u00e5\u0132\u00ac\u00e4\u00bc\u0139": 11121,
  "\u0120\u00e6\u012a\u0133\u00e4\u00bb\u00ac\u00e5\u00ae\u00b6": 6493,
  "\u00e5\u0130\u0127": 2367,
  "\u00e7\u013d\u00b8\u00e8\u00a7\u0123": 13749,
  "\u00e8\u00bf\u013b\u00e6\u013f\u00a1\u00e8\u00b7\u00af": 14579,
  "\u00e7\u0143\u0136\u00e9\u00a2\u013a": 13467,
  "\u00e7\u00a5\u013f": 3195,
  "\u00e8\u00a1\u00a5\u00e5\u0127\u0127": 7605,
  "\u00e6\u012a\u0133": 111,
  "\u00e7\u0143\u0138\u00e7\u0137\u00a5": 9287,
  "\u00e5\u00a6": 218,
  "\u00e8\u00a2\u012f": 12272,
  "\u0120\u00e5\u00b0\u00b1\u00e4\u00b8\u012f": 13277,
  "\u00e6\u012a\u0133\u00e6\u00b2\u00a1\u00e6\u013e\u012b": 4755,
  "\u00e8\u00ae\u00ba": 1048,
  "\u00e9\u00a2\u013a\u00e6\u013f\u0132": 15943,
  "\u0120\u00e9\u0124\u00a3\u00e9\u0124\u00a3": 6719,
  "\u00e8\u0126\u013c": 1541,
  "\u00e5\u00b7\u00a5": 465,
  "\u00e6\u00b2\u00a1\u00e8\u00a7\u0123": 15617,
  "\u0120\u00e6\u013a\u0130": 2985,
  "\u00e6\u012a\u0131\u00e5\u012b\u00a7": 14350,
  "\u00e8\u00b4\u00a7": 1705,
  "\u0120\u00e6\u012a\u0133\u00e4\u00b9\u0141": 1251,
  "\u00e7\u0136\u00bb": 1376,
  "\u00e7\u0136\u0141\u00e5\u00ae\u00b6\u00e5\u00ba\u0143": 14206,
  "\u0120\u00e6\u012a\u0133\u00e5\u0132\u00ac": 3838,
  "\u00e6\u0139\u00b6\u00e9\u0139\u00b4\u00e6\u00ae\u00b5": 14560,
  "\u00e5\u0142\u0124\u00e5\u0142\u0124": 14682,
  "\u00e6\u0130\u00a5\u00e8\u00bf\u0133": 5534,
  "\u00e5\u00b1\u0140\u00e4\u00ba\u0130": 2550,
  "\u00e7\u013e\u012d\u00e4\u00b8\u0122\u00e7\u013e\u012d": 7647,
  "\u00e5\u00af\u00b9\u00e5\u0132\u00a7": 2665,
  "\u00e4\u00ba\u00ba\u00e5\u00a4\u013c": 11299,
  "\u00e4\u00bc\u0132": 8803,
  "\u00e5\u012b\u012f\u00e4\u00bb\u00bb": 8380,
  "\u00e4\u00b8\u012f\u00e5\u0128\u012f": 3897,
  "\u00e9\u00aa\u0139\u00e6\u012a\u0133": 10027,
  "\u00e6\u012a\u0133\u00e4\u00bb\u00ac\u00e5\u00ae\u00b6": 3415,
  "\u0120\u00e7\u00be\u0130\u00e5\u013d\u00bd": 4508,
  "\u00e5\u013d\u00bd\u00e5\u0128\u0127": 3917,
  "\u0120\u00e5\u0139": 14429,
  "\u0120\u00e8\u00a6\u0123\u00e7\u0141\u00a5\u00e9\u0123\u0135": 15550,
  "\u00e8\u00af\u0137": 990,
  "\u00e4\u00b8\u012c\u00e7\u0123\u00ab": 14338,
  "\u00e6\u0122\u0130\u00e4\u00b9\u012a\u00e5\u012c\u0140": 1636,
  "\u00e7\u0138\u0139\u00e6\u0126\u012a": 5696,
  "\u00e8\u0123\u0136\u00e7\u00bb\u013e": 8664,
  "\u00e6\u013a\u00af\u00e4\u00b8\u0122\u00e7\u00a7\u012f": 3225,
  "\u0120\u00e4\u00bd\u0142\u00e5\u0131\u00af\u00e4\u00bb\u00a5": 2773,
  "\u00e4\u00b8\u0122\u00e5\u0131\u00b7": 3462,
  "\u00e7\u00bb\u00b3": 7083,
  "\u00e5\u00bd\u0135\u00e5\u00b9\u00b4": 3386,
  "\u00e9\u00ab\u013a\u00e4\u00ba\u0128": 9081,
  "\u00e4\u00b8\u0122\u00e4\u00b8\u00aa\u00e6\u013e\u012d\u00e5\u0131\u012d": 12454,
  "\u00e6\u0131\u0132\u00e5\u012b\u012f": 4116,
  "\u00e6\u012b\u00be\u00e5\u012a\u00b0\u00e6\u012a\u0133": 12375,
  "\u00e5\u00b0\u00b1\u00e8\u00a6\u0123": 2047,
  "\u0120\u00e8\u00ae\u00b2": 7477,
  "\u00e6\u00bd\u013e\u00e5\u012c\u013d": 15002,
  "\u00e5\u0127\u00ab\u00e5\u00b9\u00b4\u00e7\u013c\u0126": 15439,
  "\u0120\u00e6\u0130\u00a5": 2398,
  "\u0120\u00e5\u0126\u00bf\u00e5\u0143\u0132": 6505,
  "\u0120\u00e5\u0143\u00a4": 10772,
  "\u00e8\u00bf\u013b\u00e4\u00b8\u00aa\u00e5\u00a5\u00b3\u00e4\u00ba\u00ba": 5981,
  "\u00e8\u00a7\u0123\u00e9\u013f\u00a2": 2950,
  "\u00e6\u012f\u012b": 6032,
  "\u00e5\u00bc\u0122\u00e4\u00bc\u013c": 7279,
  "\u0120\u00e8\u00bf\u013b\u00e6\u013a\u00af\u00e6\u012a\u0133": 4087,
  "\u00e4\u00bd\u0142\u00e4\u00bb\u00ac\u00e5\u013e\u00a8": 14386,
  "\u00e8\u00bf\u013b\u00e5\u0131\u00aa": 12681,
  "\u0120\u00e6\u013a\u0130\u00e7\u013b\u00bd\u00e4\u00ba\u0128": 14075,
  "\u0120\u00e4\u00bb\u0138\u00e9\u0125\u00bd": 9959,
  "\u00e7\u013c\u0126\u00e7\u00bb\u0131\u00e6\u00b5\u0130": 12602,
  "\u00e5\u0134\u012e\u00e6\u012a\u0133\u00e4\u00bb\u00ac": 8478,
  "\u00e7\u013c\u0126\u00e5\u0130\u00bb": 4878,
  "\u00e5\u00a7\u0136\u00e5\u0133\u013a\u00e4\u00bc\u013c": 8224,
  "\u0120\u00e9\u00a1\u00ba": 6892,
  "\u00e4\u00ba\u00b2\u00e7\u0136\u0141": 8653,
  "\u0120\u00e8\u00bf\u013b\u00e6\u0142\u00b7\u00e5\u0132\u00a7": 11349,
  "\u00e5\u00b7\u00b1": 278,
  "\u00e5\u00be\u0139\u00e6\u012e\u00ba": 13084,
  "\u00e7\u012b\u00a7": 7292,
  "\u00e8\u0122\u0123\u00e5\u00a6\u012a": 8393,
  "\u00e4\u00bb\u00a5\u00e4\u00b8\u012c\u00e7\u013c\u0126": 9300,
  "\u00e7\u00a4\u00bc": 1358,
  "\u00e6\u012a\u0132\u00e5\u012c\u0141\u00e7\u013c\u0126": 8615,
  "\u00e5\u013e\u00a8\u00e5\u013e\u00b0\u00e4\u00b8\u012c": 10295,
  "\u00e5\u013f\u0131\u00e4\u00ba\u0128": 3847,
  "\u00e6\u0122\u0130\u00e4\u00b9\u012a\u00e5\u013d\u0140\u00e4\u00ba\u012d": 7101,
  "\u00e6\u013a\u00af\u00e5\u0123\u013c": 15493,
  "\u00e6\u012a\u0133\u00e6\u013e\u0122": 14508,
  "\u00e6\u00ac\u00a7\u00e6\u00b4\u00b2": 6435,
  "\u00e7\u012b\u00b9\u00e5\u012c\u00a1": 7947,
  "\u00e7\u013c\u0126\u00e5\u00b0\u0131": 1204,
  "\u0120\u00e4\u00bd\u0142\u00e6\u00b2\u00a1": 5662,
  "\u00e7\u00a7\u0123\u00e6\u012a\u00bf": 12571,
  "\u00e4\u00ba\u013d": 320,
  "\u0120\u00e4\u00ba\u0130\u00e6\u013a\u00af\u00e6\u012a\u0133": 15218,
  "\u0120\u00e4\u00bc\u00a4": 12358,
  "\u00e9\u0137\u0129\u00e4\u00b8\u012c": 12933,
  "\u00e5\u00ae\u00b6\u00e9\u0129\u012e\u00e8\u00be\u00b9": 9061,
  "\u0120\u00e8\u00bf\u013b": 249,
  "\u00e6\u0123\u00a9": 2214,
  "\u00e5\u012a\u00b0\u00e4\u00bb\u0122\u00e4\u00b9\u012a": 10668,
  "\u00e6\u0126\u0141\u00e5\u012c\u00a8": 4045,
  "\u00e6\u013a\u00af\u00e5\u00af\u00b9\u00e7\u013c\u0126": 14611,
  "\u00e6\u00b2\u013b\u00e5\u0131\u0133": 6963,
  "\u00e5\u0127\u0126": 1274,
  "\u00e8\u00bf\u013d\u00e4\u00ba\u0128": 3493,
  "\u00e6\u0139\u0131": 2195,
  "\u00e5\u00a4\u00a7\u00e7\u013c\u0126": 949,
  "\u0120\u00e4\u00bb\u0138\u00e8\u0129\u00aa\u00e5\u00b7\u00b1": 11166,
  "\u00e4\u00b8\u0130\u00e4\u00bd\u0142": 12132,
  "\u00e6\u013e\u012b\u00e7\u0124\u00b9\u00e5\u0125\u0131": 14599,
  "\u00e5\u00ba\u00a6\u00e7\u013c\u0126": 5617,
  "\u0120\u00e7\u013d\u0133": 14033,
  "\u0120\u00e5\u00a6\u0124\u00e6\u0140\u013e\u00e5\u00a4\u00a7\u00e5\u00ae\u00b6\u00e5\u00af\u00b9\u00e4\u00b8\u0143\u00e5\u012e\u00bb\u00e4\u00b8\u0143\u00e8\u012f\u00af\u00e6\u013e\u012b\u00e4\u00bb\u00bb\u00e4\u00bd\u0137": 14615,
  "\u00e5\u00a6\u012a\u00e5\u00a6\u012a\u00e7\u013c\u0126": 7215,
  "\u00e6\u0125\u00b3\u00e4\u00b8\u0122\u00e6\u0125\u00b3": 6811,
  "\u00e8\u00bf\u013b\u00e4\u00b8\u012f\u00e6\u013a\u00af": 6284,
  "\u00be": 61,
  "\u00e4\u00be\u00af": 4458,
  "\u00e4\u00b8\u012f\u00e4\u00b8\u012f\u00e4\u00b8\u012f": 12676,
  "\u00e5\u00ae\u012a\u00e6\u012c\u00a4": 9418,
  "\u0120\u00e5\u012a\u00b7": 12589,
  "\u00e6\u013f\u00af\u00e5\u0143\u0132": 12860,
  "\u00e4\u00ba\u00a4": 686,
  "\u00e7\u013c\u0126\u00e8\u00af\u013f\u00e9\u00a2\u013a": 7063,
  "\u00e5\u00af\u00b9\u00e4\u00bb\u013a": 7726,
  "\u00e8\u00bf\u013b\u00e4\u00b9\u012a\u00e5\u00a4\u013c\u00e7\u013c\u0126": 13439,
  "\u00e5\u012b\u00a7": 1808,
  "\u0124\u00a8": 874,
  "\u00e5\u012f\u0125\u00e4\u00b8\u0129\u00e5\u012a\u00ab": 5985,
  "\u00e9\u0141\u00b3\u00e9\u00a2\u0133\u00e6\u0139\u00a9\u00e9\u00a4\u0132": 6338,
  "\u00e4\u00bc\u0133\u00e6\u0123\u00af\u00e4\u00b8\u0122\u00e4\u00b8\u012d": 14999,
  "\u00e5\u00be\u012a\u00e5\u00a4\u00a7\u00e7\u013c\u0126": 4503,
  "\u00e5\u00be\u0139\u00e4\u00ba\u0128": 2605,
  "\u00e6\u013e\u00b5\u00e6\u013e\u00b5": 12653,
  "\u00e9\u0122\u0131\u00e8\u00bf\u0129": 15107,
  "\u00e5\u00a5\u00b9\u00e7\u0136\u00b7\u00e6\u013e\u012d\u00e5\u0131\u012d": 15767,
  "\u00e4\u00b8\u012c\u00e4\u00b8\u012d": 7257,
  "\u00e5\u0143\u00a6\u00e9\u0139\u00ae": 14851,
  "\u00e6\u013a\u00af\u00e6\u013f\u00a5": 15492,
  "\u00e5\u00b0\u00b1\u00e8\u00b7\u0133": 13644,
  "\u00e5\u00b8\u012a\u00e7\u012a\u00b6": 4525,
  "\u00e8\u00b0\u012c": 7755,
  "\u00e4\u00b9\u0141\u00e5\u00b0\u00b1": 3482,
  "\u00e9\u00aa\u00a8\u00e5\u00a4\u00b4": 8659,
  "\u00e7\u00bd\u0133\u00e4\u00b8\u012c": 3737,
  "\u00e6\u0131\u00a1": 2941,
  "\u0120\u00e6\u013f\u00b0": 13804,
  "\u00e6\u012b\u00be\u00e5\u012a\u00b0\u00e4\u00b8\u0122\u00e4\u00b8\u00aa": 14134,
  "\u0120\u00e4\u00b8\u00ba\u00e5\u0137\u00a5": 12858,
  "\u0120\u00e4\u00bd\u0142\u00e8\u00b5\u00b6\u00e7\u00b4\u00a7": 9519,
  "\u00e8\u00ba\u00ab\u00e5\u0143\u0132": 9173,
  "\u00e8\u00b6\u00b4": 7114,
  "\u00e5\u0127\u0136": 2761,
  "\u0120\u00e5\u00b8\u00ae": 4218,
  "\u00e7\u013e\u00bc\u00e9\u0137\u013e": 8469,
  "\u00e8\u00a2\u00ab\u00e6\u012a\u0133": 8421,
  "\u00e5\u0129\u00ba": 248,
  "\u0120\u00e8\u00bf\u013b\u00e4\u00b8\u0122\u00e5\u012a\u00bb": 5875,
  "\u00e7\u013c\u0126\u00e9\u0124\u00a3\u00e4\u00b8\u0122\u00e5\u012a\u00bb": 11980,
  "\u00e6\u013e\u012b\u00e5\u0137\u012c": 14932,
  "\u00e5\u0131\u00b0\u00e9\u013a\u00b6": 15068,
  "\u00e9\u00a5\u00ba": 7906,
  "\u00e6\u013e\u00ba\u00e7\u00a5\u00a8": 12981,
  "\u00e5\u012c\u00b2\u00e5\u0126\u00bf": 4168,
  "\u0120\u00e6\u012a\u0133\u00e4\u00bb\u00ac\u00e5\u00b0\u0128": 12796,
  "\u00e6\u012a\u013a\u00e7\u0137\u00a5": 5679,
  "\u00e5\u00b0\u0131\u00e4\u00bc\u013b\u00e4\u00bc\u00b4": 14661,
  "\u00e4\u00b8\u012f\u00e8\u00a7\u0123\u00e4\u00ba\u0128": 7626,
  "\u00e5\u0123\u013c\u00e4\u00b8\u0122\u00e4\u00ba\u013d": 8431,
  "\u00e6\u00b3\u0126": 5282,
  "\u00e9\u0124\u00a3\u00e5\u00b0\u00b1\u00e6\u013a\u00af": 8956,
  "\u00e8\u0136\u00b7": 11917,
  "\u0120\u00e5\u0136\u0132": 5660,
  "\u00e4\u00b8\u00b4\u00e6\u0139\u00b6": 6605,
  "\u00e7\u00a7\u0133\u00e6\u013b\u00ae": 10922,
  "\u00e4\u00bd\u0142\u00e8\u00af\u00b4\u00e4\u00bd\u0142": 10421,
  "\u00e5\u013d\u013d\u00e5\u012f\u0123\u00e4\u00ba\u0136": 13104,
  "\u00e6\u012b\u012f\u00e5\u0131\u0133\u00e7\u0130\u00b0": 9189,
  "\u00e5\u0127\u00ab\u00e4\u00b9\u013f": 9069,
  "\u0120\u00e5\u0127\u00a8": 1965,
  "\u0120\u00e4\u00bb\u0138\u00e4\u00bb\u00ac\u00e4\u00bc\u013c": 10767,
  "\u00e5\u00a4\u00b1\u00e6\u0130\u00a7": 15177,
  "\u00e5\u00bb\u00ba\u00e8\u00ae\u00ae": 2430,
  "\u00e4\u00b8\u0143\u00e7\u013c\u0126": 1997,
  "\u0120\u00e6\u012a\u0133\u00e4\u00bc\u013c\u00e5\u0134\u012e\u00e4\u00bd\u0142\u00e4\u00b8\u0122\u00e8\u00b5\u00b7\u00e6\u012a\u0132\u00e9\u0137\u00bf": 8984,
  "\u0120\u00e6\u012a\u0132": 3693,
  "\u00e8\u00af\u00b4\u00e5\u0132\u00a7": 5512,
  "\u00e6\u013e\u012b\u00e6\u00b2\u00a1\u00e6\u013e\u012b": 1557,
  "\u0120\u00e5\u00bf\u013b": 9983,
  "\u0120\u00e9\u0124\u00a3\u00e4\u00ba\u013d": 3511,
  "\u00e5\u0137\u00a1": 4245,
  "\u00e6\u0142\u0133\u00e4\u00b8\u012c": 9214,
  "\u00e7\u00bb\u013b\u00e4\u00bd\u0142\u00e5\u0132\u00ac": 13993,
  "\u00e6\u00ae\u00b5": 782,
  "\u00e4\u00bc\u0133": 1662,
  "\u00e5\u00a1\u00ab": 5764,
  "\u00e8\u00bf\u013b\u00e6\u0142\u00b7\u00e5\u0132\u0139": 15506,
  "\u00e5\u012c\u0142\u00e5\u0127\u00a5": 5422,
  "\u00e5\u0131\u00af\u00e7\u012a\u00b1": 4500,
  "\u00e4\u00bd\u0142\u00e6\u013e\u012b\u00e4\u00bb\u0122\u00e4\u00b9\u012a": 12238,
  "\u00e8\u00bf\u013a\u00e8\u00a6\u0123": 2032,
  "\u00e7\u0138\u00af": 3325,
  "\u00e7\u013c\u0126\u00e9\u0124\u00a3\u00e4\u00b8\u0122\u00e5\u00a4\u00a9": 13891,
  "\u00e5\u00b1\u012d\u00e5\u0143\u0132\u00e9\u0129\u012e": 15829,
  "\u00e4\u00bc\u0123\u00e4\u00b8\u013c\u00e5\u00ae\u00b6": 12626,
  "\u00e6\u0136\u00be\u00e5\u013e\u00a8": 2910,
  "\u00e6\u012a\u0132\u00e4\u00ba\u00ba": 13868,
  "\u0120\u00e5\u012b\u00a9\u00e4\u00b8\u012d": 13828,
  "\u0120\u00e4\u00bb\u012c\u00e6\u0139\u00a5": 10598,
  "\u00e7\u0132": 353,
  "\u00e7\u0142\u00b4": 1366,
  "\u00e9\u013f\u00a2\u00e7\u00a7\u00af": 7794,
  "\u00e4\u00b8\u0135\u00e9\u00a1\u00b9": 11154,
  "\u00e5\u00b0\u0131\u00e7\u0128\u012c": 15315,
  "\u00e5\u0131\u0133\u00e6\u013a\u0130": 12402,
  "\u00e6\u00b6\u012e": 8414,
  "\u00e5\u0127\u00ab\u00e6\u0139\u00a5": 9301,
  "\u00e4\u00ba\u00ba\u00e8\u00a6\u0123": 13956,
  "\u0120\u00e7\u0137\u0127\u00e9\u0136\u0122": 13316,
  "\u0120\u00e8\u00bf\u0133\u00e6\u013e\u0141": 13950,
  "\u00e7\u013c\u0126\u00e5\u0127\u00ac\u00e5\u0131\u00b8": 12017,
  "\u0120\u00e6\u012b\u0122\u00e4\u00bb\u00a5": 605,
  "\u00e5\u0123\u013c\u00e4\u00b8\u0122\u00e4\u00b8\u00aa": 4399,
  "\u00e5\u00b8\u00a6\u00e9\u00a2\u0128": 9302,
  "\u0120\u00e6\u012a\u0133\u00e9\u0124\u00a3\u00e4\u00b8\u00aa": 13833,
  "\u00e7\u00bb\u013b\u00e6\u012a\u0133\u00e4\u00bb\u00ac\u00e7\u0137\u013b\u00e8\u00a8\u0122": 12673,
  "\u00e5\u0123\u013c\u00e4\u00b8\u00aa": 6742,
  "\u0120\u00e8\u0131\u013e": 15922,
  "\u00e5\u00ba\u00a7\u00e7\u013c\u0126": 11667,
  "\u00e6\u0139\u00a5\u00e8\u00ae\u00b0": 11908,
  "\u00e5\u00be\u012a\u00e6\u013e\u012b\u00e5\u0131\u00af\u00e8\u0125\u00bd": 12385,
  "\u00e6\u00b2\u0141\u00e9\u0122\u013c": 3251,
  "\u00e4\u00b8\u0135\u00e8\u00be\u0133": 3508,
  "\u00e6\u013e\u0122\u00e7\u012a\u00b1": 11241,
  "\u00e7\u012e\u00ac": 11537,
  "\u00e6\u00b3": 310,
  "\u0120\u00e6\u012a\u0138\u00e8\u0122\u0127\u00e8\u00af\u00b4\u00e6\u013a\u00af": 15643,
  "\u00e6\u013e\u012b\u00e5\u00a5\u00bd": 9412,
  "\u00e5\u00a2": 709,
  "\u00e7\u012d\u0142\u00e7\u012d\u0142\u00e5\u013e\u00b0": 15233,
  "\u00e9\u00aa\u013c\u00e6\u012b\u00b0": 12012,
  "\u00e4\u00bb\u00bb\u00e6\u0122\u00a7": 11345,
  "\u00e6\u0142\u00bc\u00e5\u00a4\u0138": 14347,
  "\u00e9\u013a\u0130": 15132,
  "\u0120\u00e5\u00a6\u0124\u00e6\u0140\u013e\u00e6\u013a\u00af": 8602,
  "\u0120\u00e5\u0134\u00b1": 985,
  "\u00e5\u00bd\u0135\u00e5\u00ae\u00b6\u00e7\u013c\u0126": 14485,
  "\u00e5\u0127\u00b4\u00e8\u00b6\u00a3": 3733,
  "\u00e5\u0143\u00a4": 2361,
  "\u00e6\u0142\u00b7\u00e5\u0143\u0132": 1773,
  "\u0120\u00e7\u013e\u0141\u00e6\u0143\u00a3": 6393,
  "\u00e5\u012f\u012c": 916,
  "\u00e6\u0122\u00a7": 643,
  "\u0120\u00e5\u0131\u00aa\u00e8\u0125\u00bd": 4447,
  "\u00e7\u0131\u0143\u00e7\u013c\u0126": 12667,
  "\u00e5\u0128\u0127\u00e5\u0132\u0133": 14862,
  "\u00e4\u00ba\u0128\u00e4\u00bb\u0138\u00e7\u013c\u0126": 8670,
  "\u00e9\u0125\u00a8\u00e9\u013a\u0141": 3323,
  "\u00e5\u0134\u012e\u00e5\u012a\u00ab\u00e4\u00ba\u00ba": 12976,
  "\u00e6\u00b2\u00a1\u00e8\u00a7\u0123\u00e8\u00bf\u0129": 9345,
  "\u00e7\u012b\u00b9\u00e8\u012b\u00b2": 10356,
  "\u00e4\u00ba\u0128\u00e4\u00b8\u0122\u00e6\u013f\u00a1": 6836,
  "\u00e8\u0129\u00aa\u00e5\u00b7\u00b1\u00e7\u013c\u0126\u00e4\u00ba\u00ba": 15852,
  "\u00e8\u00bf\u013b\u00e4\u00b8\u0122\u00e6\u00ac\u00a1": 5771,
  "\u00e6\u0122\u00a1": 7401,
  "\u0120\u00e6\u012a\u0133\u00e4\u00b9\u0141\u00e4\u00b8\u012f\u00e4\u00bc\u013c": 14129,
  "\u0120\u00e6\u012a\u0133\u00e7\u0130\u00b0\u00e5\u013e\u00a8": 1922,
  "\u00e5\u00ae\u013a\u00e6\u0138\u00b9\u00e4\u00b9\u013f\u00e5\u0127\u0143": 8495,
  "\u00e8\u0124\u00a5": 2865,
  "\u00e5\u0128\u0142": 3479,
  "\u00e5\u00be\u0122": 807,
  "\u00e8\u00bf\u013b\u00e4\u00bb\u00b6": 2068,
  "\u00e4\u00b8\u012d\u00e5\u00bf\u0125": 15803,
  "\u00e4\u00b8\u0122\u00e5\u012a\u00b0": 7419,
  "\u00e4\u00ba\u00ba\u00e6\u0122\u00a7": 14658,
  "\u00e7\u013c\u0126\u00e6\u013a\u00af\u00e5\u0132\u00a7": 8880,
  "\u00e5\u0128\u00ac": 2787,
  "\u00e8\u0126\u0133": 1260,
  "\u0120\u00e5\u012c\u0142\u00e6\u00b2\u00b9": 7525,
  "\u00e5\u0124\u00bb\u00e5\u0143\u0132": 9497,
  "\u00e4\u00bc\u0142\u00e6\u012b\u00bf": 9985,
  "\u00e7\u012c\u00b9\u00e8\u00b1\u00ab": 6180,
  "\u00e8\u00bf\u013a\u00e6\u013e\u012b\u00e5\u00be\u012a\u00e5\u00a4\u013c": 11367,
  "\u00e5\u0132\u00af": 3021,
  "\u00e6\u00b2\u00bb\u00e7\u0132\u0128": 10302,
  "\u00e4\u00b8\u00a4\u00e5\u00a4\u00a9": 1851,
  "\u00e5\u0127\u00b6\u00e4\u00bb\u0138": 2015,
  "\u0120\u00e5\u00a9\u013c": 5340,
  "\u00e5\u00b0\u00b1\u00e6\u013a\u00af\u00e8\u00af\u00b4\u00e6\u012a\u0133": 11324,
  "\u00e5\u00a2\u0125\u00e5\u0128\u0127": 15373,
  "\u00e7\u0136\u00b7\u00e6\u0138\u00b9": 14525,
  "\u00e8\u00bf\u0132": 1018,
  "\u00e4\u00b8\u0122\u00e8\u0129\u00b4": 7264,
  "\u0120\u00e5\u00b8": 1015,
  "\u00e8\u00b0\u00b7": 3387,
  "\u00e5\u012f\u0123\u00e4\u00b8\u0129": 4787,
  "\u00e6\u013e\u012b\u00e5\u00be\u012a\u00e5\u00a4\u013c\u00e4\u00ba\u00ba": 15914,
  "\u00e4\u00b8\u0122\u00e6\u0142\u00b7\u00e4\u00ba\u0128": 15067,
  "\u0120\u00e7\u0136\u00b5": 14616,
  "\u0120\u00e4\u00bb\u0138\u00e5\u00a6\u012a": 10055,
  "\u00e9\u0139\u00b4\u00e7\u013c\u0126": 11833,
  "\u00e6\u012a\u0133\u00e8\u00ae\u00b0\u00e5\u00be\u0139": 12679,
  "\u00e5\u00b8\u0123": 2781,
  "\u00e7\u013c\u0126\u00e9\u0137\u00bf": 11920,
  "\u00e6\u013e\u00ac\u00e8\u012c\u0124\u00e7\u013d\u00ae\u00e7\u0136\u00b1": 7980,
  "\u00e5\u00ae\u012b\u00e5\u00bf\u0125": 8631,
  "\u00e8\u00b4\u00b8\u00e6\u013a\u0135": 6203,
  "\u00e4\u00b9\u00a6": 850,
  "\u00e4\u00bb\u0138\u00e5\u0134\u012e": 15052,
  "\u00e6\u00b5\u0123\u00e5\u0127\u00a5": 10079,
  "\u00e9\u0122\u0122\u00e4\u00bc\u0133": 8514,
  "\u00e4\u00ba\u0130": 371,
  "\u00e6\u013e\u012b\u00e6\u012b\u0122": 4347,
  "\u0120\u00e7\u00ac\u00ac": 1324,
  "\u00e8\u00b1\u00aa": 3696,
  "\u00e6\u012b\u00be\u00e4\u00b8\u0122": 12645,
  "\u00e4\u00bd\u0131\u00e5\u0137\u012c": 14816,
  "\u00e4\u00bb\u0138\u00e4\u00bb\u00ac\u00e4\u00b8\u00a4\u00e4\u00b8\u00aa": 12244,
  "\u0120\u00e5\u0139\u00af\u00e6\u012a\u0133": 9762,
  "\u0120\u00e6\u00af\u012f\u00e4\u00ba\u00b2": 7319,
  "\u00e7\u012b\u012a": 3483,
  "\u0120\u00e5\u0129\u0122": 12495,
  "\u00e7\u00bf\u00b0": 10677,
  "\u00e5\u012f\u0123\u00e4\u00b8\u00aa": 7741,
  "\u0120\u00e9\u013a\u00bf": 2814,
  "\u00e7\u0143\u012b\u00e7\u0143\u012b": 2613,
  "\u00e9\u0122\u0124\u00e5\u0132\u012a": 3058,
  "\u00e8\u00b5\u00b7\u00e8\u00af\u012b": 9333,
  "\u00e7\u00bb\u013b\u00e4\u00bb\u0138\u00e5\u0131\u0133": 13683,
  "\u0120\u00e5\u0133\u0125\u00e6\u012a\u0133": 15453,
  "\u0120\u00e5\u0131\u0138": 8768,
  "\u00e7\u013d\u00b4\u00e6\u0134\u0143\u00e9\u0139\u00b4": 3363,
  "\u0120\u00e4\u00b8\u012f\u00e8\u00bf\u0129": 1532,
  "\u0120\u00e5\u00b0\u00b1\u00e8\u00bf\u013b\u00e4\u00b9\u012a\u00e7\u00ae\u0122\u00e5\u012f\u0137": 15418,
  "\u00e5\u0129\u00ba\u00e7\u0136\u0141": 5408,
  "\u0120\u00e5\u00af\u00b9\u00e5\u00af\u00b9\u00e5\u00af\u00b9": 4386,
  "\u00e5\u013a": 426,
  "\u0120\u00e5\u0142": 12479,
  "\u00e4\u00b8\u0122\u00e4\u00b8\u00aa\u00e5\u0131\u00ab": 15499,
  "\u00e5\u012c\u0140\u00e7\u0132\u0128": 9963,
  "\u00e5\u00a4\u00aa\u00e5\u00a4\u00a7\u00e4\u00ba\u0128": 9260,
  "\u0120\u00e7\u00bd\u0133\u00e7\u00bb\u013e": 13341,
  "\u00e6\u012b\u00be\u00e4\u00ba\u0128\u00e4\u00b8\u0122\u00e4\u00b8\u00aa": 12894,
  "\u00e9\u0122\u012b\u00e6\u012d\u00a9\u00e4\u00ba\u0128": 6754,
  "\u0120\u00e5\u00b0\u0131\u00e5\u00a7\u0132": 7232,
  "\u0120\u00e8\u00ba\u00ab": 6137,
  "\u0120\u00e8\u0122\u012e\u00e4\u00b8\u0136\u00e6\u012a\u0133": 11898,
  "\u00e7\u012c\u00ac": 8378,
  "\u00e5\u0131\u0133\u00e7\u0130\u00b0\u00e8\u0129\u00aa\u00e5\u00b7\u00b1": 8249,
  "\u00e8\u0124\u00a9\u00e8\u0128\u0122": 9712,
  "\u00e4\u00b8\u012f\u00e8\u00ae\u00a9": 6748,
  "\u00e4\u00b9\u0141\u00e6\u00af\u0136\u00e8\u00be\u0125": 13521,
  "\u00e8\u012a\u00b0": 8784,
  "\u00e4\u00bd\u013e\u00e4\u00b8\u00ba\u00e4\u00b8\u0122\u00e4\u00b8\u00aa": 6490,
  "\u0120\u00e5\u00be\u00ae\u00e4\u00bf\u00a1": 12188,
  "\u00e5\u0134\u012e\u00e6\u012a\u0133": 2574,
  "\u00e5\u0132\u012f\u00e4\u00b8\u0143\u00e5\u012e\u00bb": 8164,
  "\u00e5\u0133\u012c\u00e8\u00af\u012b\u00e4\u00bd\u0142\u00e5\u0137\u012c": 15408,
  "\u00e8\u0125\u0125": 3620,
  "\u00e7\u012b\u00b9\u00e5\u00be\u0123": 9190,
  "\u00e7\u00bd\u00aa": 1826,
  "\u00e8\u00ae\u00b2\u00e5\u0142\u0124": 7832,
  "\u00e8\u0131": 973,
  "\u00e5\u012f\u00b3\u00e4\u00bd\u00bf": 8911,
  "\u00e4\u00b8\u012d\u00e9\u013d\u00a8": 5952,
  "\u00e5\u012b\u00a7\u00e6\u013e\u00ac": 10193,
  "\u00e6\u013a\u00af\u00e4\u00b8\u012f\u00e8\u0125\u00bd": 14401,
  "\u00e5\u012f\u00b1\u00e6\u013e\u00ba": 6386,
  "\u00e9\u0143\u0126": 10923,
  "\u00e4\u00bf\u00ba": 3507,
  "\u0120\u00e6\u013e\u012b\u00e5\u0131\u00af\u00e8\u0125\u00bd": 13217,
  "\u00e6\u013f\u00a5\u00e5\u00bd\u00a2\u00e5\u00ae\u00b9": 13808,
  "\u00e4\u00bd\u013e\u00e8\u0122\u0127": 3436,
  "\u0120\u00e8\u00ba\u00ab\u00e8\u00be\u00b9": 11940,
  "\u00e4\u00b8": 104,
  "\u00e5\u0135\u0139": 10827,
  "\u00e6\u00bf\u0122\u00e6\u0125\u0127": 10642,
  "\u00e8\u00bd\u00a9": 5744,
  "\u00e7\u013e\u012d\u00e5\u012a\u00b0\u00e4\u00bb\u0138": 11691,
  "\u00e4\u00b8\u012f\u00e7\u0126\u00b6": 11514,
  "\u0120\u00e6\u012a\u0133\u00e7\u0136\u00a8": 12917,
  "\u00e6\u0128\u012d": 5445,
  "\u00e5\u00b0\u00bd\u00e5\u00a4\u00b4": 14316,
  "\u00e8\u0127\u00bb": 6303,
  "\u00e7\u0139\u0127\u00e6\u00af\u0134": 3773,
  "\u00e6\u0136\u00b6\u00e7\u013d\u012c": 6548,
  "\u00e9\u0122\u012b\u00e6\u012d\u00a9\u00e7\u013c\u0126": 12956,
  "\u00e7\u013c\u0126\u00e5\u00a4\u0138": 9353,
  "\u0120\u00e5\u00b0\u0131\u00e4\u00bc\u013b\u00e5\u0143\u0132": 13938,
  "\u00e9\u0127\u0134\u00e7\u00b2\u00be": 15729,
  "\u0120\u00e5\u00b0\u0131\u00e9\u00bb\u0133": 12745,
  "\u00e8\u012a\u00aa\u00e7\u00a9\u00ba": 6687,
  "\u00e5\u013e\u00b0\u00e9\u0139\u00ae": 9076,
  "\u00e6\u012d\u00be": 3119,
  "\u00e7\u013e\u012d\u00e5\u00be\u0139": 5706,
  "\u00e4\u00ba\u012e\u00e4\u00bb\u00a3": 15429,
  "\u00e5\u0138\u013e\u00e6\u00ac\u00a2\u00e4\u00bd\u0142": 4200,
  "\u00e7\u0138\u00ab\u00e6\u0125\u0127\u00e5\u00bd\u00b1\u00e5\u0135\u012f": 12907,
  "\u00e5\u00b9\u00b3\u00e5\u0131\u00b0": 2736,
  "\u00e4\u00ba\u012e\u00e5\u0131\u00b7": 5658,
  "\u00e9\u0125\u00a8": 604,
  "\u00e5\u012f\u0139\u00e6\u0138\u00b9\u00e9\u0125\u00bd\u00e5\u00b8\u0124\u00e6\u012c\u00a5\u00e8\u00ae\u00b0\u00e8\u0122\u0127": 15379,
  "\u00e6\u013e\u012a\u00e4\u00ba\u00ae": 4227,
  "\u00e4\u00b8\u012f\u00e4\u00b8\u012d\u00e5\u0130\u00bb\u00e4\u00ba\u0128": 8901,
  "\u00e5\u0132\u0133\u00e4\u00bd\u0142": 5641,
  "\u00e4\u00b8\u012f\u00e6\u0138\u0143": 2973,
  "\u00e5\u012a\u013f\u00e4\u00b8\u0143": 7918,
  "\u00e4\u00ba\u00a7\u00e7\u0136\u0141": 3217,
  "\u00e5\u0138\u0126\u00e4\u00ba\u0130": 14917,
  "\u00e8\u00af\u0140": 6002,
  "\u0120\u00e4\u00bc\u00af": 12838,
  "\u00e4\u00bd\u0131\u00e6\u012a\u00bf": 9745,
  "\u00e8\u00af\u00b7": 654,
  "\u00e9\u00ab\u013a\u00e5\u00ba\u00a6": 8140,
  "\u00e5\u0138\u013e\u00e6\u00ac\u00a2": 641,
  "\u00e8\u00ba\u00ab\u00e4\u00b8\u00ba": 12316,
  "\u0120\u00e4\u00bd\u0142\u00e5\u0131\u00af\u00e5\u012a\u00ab": 15796,
  "\u00e5\u013f\u0142": 10425,
  "\u00e6\u012b\u0135\u00e5\u00b7\u00a5": 5754,
  "\u00e4\u00b8\u00ba\u00e4\u00bd\u0137": 6486,
  "\u00e4\u00b8\u0122\u00e7\u00ac\u0133": 10386,
  "\u00e5\u0125\u00a7": 10609,
  "\u00e6\u012a\u0133\u00e4\u00b9\u0141": 1341,
  "\u00e6\u013e\u0122\u00e5\u00a4\u00a7": 4669,
  "\u00e5\u00b0\u00b1\u00e6\u013d\u00b4": 11165,
  "\u00e5\u012e\u00bb\u00e7\u0136\u0141\u00e7\u013c\u0126": 10975,
  "\u0120\u00e6\u0137\u00a3": 15332,
  "\u00e5\u00a4\u00a7\u00e4\u00ba\u012d\u00e5\u0126\u00bf": 14896,
  "\u00e6\u013c\u00b4\u00e5\u012c\u013d": 7666,
  "\u00e5\u00b0\u0131\u00e9\u013d\u00aa": 13412,
  "\u00e5\u0143\u00a9\u00e5\u0143\u0132": 496,
  "\u00e5\u00b7\u00b4\u00e6\u0130\u012e": 9554,
  "\u00e5\u013e\u00a8\u00e5\u0138\u013e\u00e9\u00a9\u00ac\u00e6\u012d\u012b\u00e9\u013d\u0127": 8453,
  "\u0120\u00e8\u00a6\u0123\u00e4\u00b9\u012a": 5711,
  "\u00e4\u00b8\u012f\u00e5\u0131\u00af\u00e4\u00bb\u00a5": 5119,
  "\u00e6\u012a\u0133\u00e8\u00bf\u013a": 2914,
  "\u0120\u00e4\u00b8\u00a4\u00e4\u00ba\u00ba": 9995,
  "\u00e8\u012a\u00b9\u00e4\u00b8\u012c": 15972,
  "\u00e5\u00ae\u012b\u00e6\u0127\u00b0": 4649,
  "\u0120\u00e6\u013f\u00a5\u00e5\u0132\u00a7": 12954,
  "\u00e4\u00b9\u012d\u00e4\u00b8\u0122": 4960,
  "\u00e5\u00bf\u0125\u00e9\u0129\u012e\u00e9\u013f\u00a2": 7437,
  "\u00e7\u00bb\u013b\u00e6\u012a\u0133\u00e5\u0131\u0133": 8259,
  "\u00e6\u00af\u0123": 3748,
  "\u00e6\u013a\u00af\u00e4\u00bb\u00a5": 14227,
  "\u00e7\u00be\u0130\u00e5\u00ae\u00b9": 15817,
  "\u0120\u00e4\u00b8\u012f\u00e5\u00a6\u0124": 5346,
  "\u00e6\u0126\u0131\u00e4\u00b9\u012b\u00e4\u00b8\u012c": 15971,
  "\u00e6\u0124\u0126\u00e6\u0124\u0126\u00e5\u013e\u00b0": 12966,
  "\u0120\u00e7\u0141\u00a5\u00e9\u0123\u0135\u00e4\u00ba\u0128": 10044,
  "\u00e4\u00bb\u0130\u00e5\u00b0\u0131\u00e5\u00b0\u00b1": 13030,
  "\u0120\u00e5\u0131\u00aa\u00e8\u00a6\u0123": 1843,
  "\u00e5\u00b9\u00b4\u00e8\u00bd\u00bb\u00e4\u00ba\u00ba": 4136,
  "\u00e4\u00b8\u0122\u00e6\u00ac\u00a1": 816,
  "\u00e9\u013c": 378,
  "\u0120\u00e6\u012a\u0133\u00e5\u012a\u013c\u00e5\u012a\u013c": 10156,
  "\u00e6\u013e\u012a\u00e5\u012f\u0123": 2448,
  "\u00e5\u0131\u00aa\u00e5\u012b\u00a9\u00e4\u00b8\u012d": 12458,
  "\u00e5\u0127\u0143\u00e5\u012f\u0123\u00e4\u00ba\u0136": 6707,
  "\u00e5\u00a9\u00b4\u00e5\u0126\u00bf": 12631,
  "\u00e7\u012a\u0128\u00e5\u0131\u0133": 7093,
  "\u00e7\u0124\u00b9\u00e7\u0124\u00b9": 6424,
  "\u00e5\u00b1\u0127\u00e4\u00bd\u0131": 11232,
  "\u00e4\u00b8\u0122\u00e9\u00a6\u0138": 6320,
  "\u00e7\u0127\u0130": 8052,
  "\u00e7\u012b\u00ba\u00e7\u012b\u00b2": 4840,
  "\u00e4\u00b9\u0140": 12139,
  "\u00e4\u00bd": 110,
  "\u00e6\u013a\u00af\u00e4\u00b8\u00aa": 1842,
  "\u00e6\u00a5\u00bc\u00e4\u00b8\u012d": 7736,
  "\u0120\u00e4\u00bd\u0142\u00e5\u00b7\u00b2\u00e7\u00bb\u0131": 9673,
  "\u00e5\u012c\u0141\u00e5\u012c\u00b3": 12226,
  "\u00e8\u00af\u00b4\u00e6\u013a\u0130": 3895,
  "\u00e4\u00bd\u0142\u00e4\u00b8\u012f": 1784,
  "\u00e7\u00bb\u0135\u00e8\u00ae\u00ba": 10590,
  "\u00e5\u00af\u0134": 3053,
  "\u00e5\u0131\u0133\u00e5\u00b0\u0126": 13352,
  "\u00e6\u013f\u00a5\u00e5\u012a\u00b0\u00e4\u00ba\u0128": 7449,
  "\u00e5\u0137\u012c\u00e9\u0125\u00bd": 13931,
  "\u0120\u00e7\u00be\u0130\u00e8\u0123\u0136\u00e5\u0124\u00a8": 14572,
  "\u00e4\u00b8\u012f\u00e9\u0136\u013b\u00e5\u0137\u012c": 14320,
  "\u00e9\u00bc": 1187,
  "\u00e7\u00bb\u0135\u00e5\u0132\u012a": 5693,
  "\u0120\u00e5\u0127\u00b6\u00e5\u00ae\u0140\u00e6\u012a\u0133\u00e4\u00b9\u0141": 15950,
  "\u00e8\u00b0\u0130\u00e8\u00a8\u0122": 12477,
  "\u00e7\u00ac\u0133\u00e4\u00ba\u0128": 6149,
  "\u00e5\u0141\u00ba\u00e6\u013e\u00ac\u00e4\u00b8\u012c": 4259,
  "\u00e7\u0138\u00be\u00e7\u0139\u0127": 5961,
  "\u00e6\u0137\u00b0\u00e5\u0143\u00a6": 7894,
  "\u00e8\u00ae\u00b2\u00e5\u00ae\u012e\u00e4\u00ba\u0128": 15065,
  "\u00e8\u00bf\u013b\u00e4\u00b8\u00aa\u00e6\u0139\u00b6\u00e5\u0122\u013b": 5168,
  "\u00e7\u0124\u00b9\u00e4\u00bb\u0122\u00e4\u00b9\u012a": 7443,
  "\u00e5\u0132\u0125\u00e9\u0128\u012d": 15089,
  "\u00e5\u00a4\u00a7\u00e7\u00ac\u0133": 11991,
  "\u00e6\u012b\u0135\u00e4\u00b8\u0122": 14209,
  "\u00e5\u0136\u0142": 3565,
  "\u00e8\u00b7\u013f": 2940,
  "\u00e5\u00b1\u012d": 2055,
  "\u00e6\u00b1\u0142": 4114,
  "\u00e8\u00b0\u012a\u00e8\u00b0\u012a": 8714,
  "\u00e5\u00bb\u00ba\u00e6\u012a\u0132": 15865,
  "\u00e5\u00a5\u00bd\u00e5\u0125\u0131\u00e6\u013a\u00af": 9114,
  "\u00e6\u012a\u0132\u00e6\u0125\u00b3": 13778,
  "\u00e7\u0125\u0143\u00e7\u013c\u0126": 11031,
  "\u00e8\u00bf\u0129\u00e4\u00bb\u0138": 6590,
  "\u00e6\u012a\u0133\u00e5\u00b0\u00b1\u00e4\u00b8\u012f": 7633,
  "\u00e5\u00b8\u00a6\u00e6\u013f\u00a5\u00e7\u013c\u0126": 5632,
  "\u0120\u00e6\u012b\u012f\u00e8\u0125\u00bd": 4105,
  "\u00e6\u00a4\u0127\u00e5\u0143\u0132": 14225,
  "\u00e4\u00b8\u0122\u00e5\u00b8\u00a6": 11489,
  "\u00e9\u013b\u0126\u00e5\u00b1\u0140": 11821,
  "\u00e5\u012a\u0128\u00e6\u013a\u0130": 14662,
  "\u00e7\u0124\u00ae": 3823,
  "\u00e6\u00b5\u0123\u00e5\u012c\u00a8": 8019,
  "\u00e6\u012b\u00be\u00e7\u013c\u0126": 13012,
  "\u00e4\u00be\u00bf\u00e5\u012a\u00a9": 12726,
  "\u00e5\u013d\u00a2\u00e4\u00bc\u013b": 14637,
  "\u00e5\u0127\u00ac\u00e5\u0127\u00b1": 6134,
  "\u0120\u00e6\u012a\u0133\u00e4\u00bb\u00ac\u00e4\u00b9\u0141": 7244,
  "\u00e6\u013f\u00a5\u00e5\u0130\u00bb": 10873,
  "\u00e6\u00a3\u013c": 9945,
  "\u00e8\u0126\u012b": 5025,
  "\u00e4\u00b9\u00b1\u00e4\u00ba\u0128": 11213,
  "\u00e7\u013c\u0126\u00e7\u00bd": 4287,
  "\u00e7\u00a3\u0137": 6644,
  "\u00e4\u00bd\u0133": 5855,
  "\u00e5\u0132\u0125\u00e5\u0132\u00a7": 7426,
  "\u00e4\u00be\u00a6\u00e5\u00af\u0141": 13051,
  "\u0120\u00e4\u00bb\u0122\u00e4\u00b9\u012a\u00e4\u00ba\u012d": 14722,
  "\u00e5\u0133\u00a2\u00e4\u00b9\u0141": 14586,
  "\u00e7\u0138\u0133\u00e6\u0125\u0133": 13849,
  "\u0120\u00e4\u00b9\u012d\u00e5\u0132\u0130": 7141,
  "\u00e4\u00ba\u0134\u00e8\u0123\u0136": 4650,
  "\u00e4\u00bc\u00bc\u00e7\u013c\u0126": 3104,
  "\u00e7\u00ab\u00a5": 2459,
  "\u00e8\u00bf\u013b\u00e5\u00b8\u00ae": 9177,
  "\u00e4\u00ba\u00ba": 142,
  "\u0120\u00e4\u00b8\u0122\u00e8\u012a\u00ac": 5098,
  "\u00e7\u00bf\u0123": 10289,
  "\u00e7\u0136\u0141\u00e8\u0124\u00b2": 14936,
  "\u00e7\u0136\u0141\u00e7\u0136\u0141": 13411,
  "\u00e6\u0136\u00be\u00e5\u00bf\u0125": 1849,
  "\u00e6\u0124\u00a8\u00e8\u00bf\u013b": 11780,
  "\u00e5\u0132\u0126\u00e7\u00a7\u012f\u00e5\u0132\u0126": 7687,
  "\u00e5\u0132\u0140": 6349,
  "\u0120\u00e8\u00bf\u013b\u00e7\u00a7\u012f": 2461,
  "\u0120\u00e4\u00be\u013f\u00e7\u0126\u00b6": 7972,
  "\u00e7\u013c\u0126\u00e8\u012d\u00a6": 14268,
  "\u00e7\u013d\u00b8\u00e5\u0132\u012e": 8711,
  "\u00e6\u00b0\u0133\u00e4\u00b8\u00bb": 12222,
  "\u0120\u00e4\u00ba\u00ba\u00e7\u0136\u0141": 4060,
  "\u00e8\u00a6\u0123\u00e6\u0125\u00b3": 10757,
  "\u00e9\u0123": 226,
  "\u00e9\u00a9\u00bc": 11500,
  "\u00e9\u013c\u00be\u00e4\u00bb\u00a5": 5170,
  "\u00e6\u012a\u0133\u00e5\u00b7\u00b2\u00e7\u00bb\u0131": 4832,
  "\u0120\u00e7\u013b\u00bd": 3407,
  "\u00e6\u012b\u0135\u00e5\u0132\u00ac": 7567,
  "\u00e5\u00bf\u00ab\u00e9\u0122\u0134": 4741,
  "\u00e5\u0130\u00bb\u00e8\u00b7\u0141": 10372,
  "\u0120\u00e6\u0143\u00a3\u00e5\u00a6\u0124": 11465,
  "\u00e5\u00b0\u00b1\u00e6\u013a\u00af\u00e4\u00bd\u0142": 3610,
  "\u00e6\u00a1\u012a\u00e7\u013c\u0126": 12620,
  "\u00e5\u012d\u0134": 5559,
  "\u00e9\u00a3\u0130\u00e6\u013b\u00af": 7470,
  "\u00e6\u0143\u00a3\u00e5\u00b8\u00b8\u00e7\u013c\u0126": 7287,
  "\u00e4\u00b8\u012f\u00e5\u00b9\u00b3": 15346,
  "\u00e8\u0122\u012e\u00e6\u013a\u00af": 12519,
  "\u00e8\u0138\u013d": 7007,
  "\u00e7\u013e\u012d\u00e7\u0136\u00b5\u00e5\u00bd\u00b1": 11621,
  "\u00e6\u013c\u00b4": 2286,
  "\u0120\u00e7\u0141\u0143": 9352,
  "\u00e5\u012f": 161,
  "\u00e9\u00a9\u00ac\u00e8\u00b7\u00af\u00e4\u00b8\u012c": 15400,
  "\u00e5\u00be\u012d": 1789,
  "\u00e7\u00ac\u00a6": 4038,
  "\u00e7\u012a\u00b1\u00e5\u0132\u0125": 9375,
  "\u00e5\u0131\u012f\u00e5\u00bc\u00b9": 12224,
  "\u00e5\u00bc\u0122\u00e5\u00a7\u012d": 785,
  "\u00e8\u00bf\u013b\u00e4\u00b9\u012a\u00e5\u00bf\u00ab": 11838,
  "\u00e8\u00be\u00ab": 14977,
  "\u00e7\u00bb\u012a": 1021,
  "\u00e5\u00a2\u0140\u00e5\u00bc\u00ba": 12826,
  "\u00e6\u00ae\u012d\u00e5\u00bf\u012f": 12119,
  "\u0120\u00e6\u012a\u0133\u00e4\u00bb\u00ac\u00e5\u00b0\u00b1": 5060,
  "\u00e6\u0139\u0142\u00e8\u0125\u00bd": 9319,
  "\u00e8\u012c\u00b8": 11208,
  "\u00e4\u00bd\u0142\u00e5\u0131\u00af": 6375,
  "\u00e5\u0135\u0143": 1410,
  "\u00e6\u0138\u00b9": 334,
  "\u00e4\u00b9\u012d\u00e9\u013b\u0127": 13910,
  "\u0120\u00e6\u012a\u0133\u00e6\u013a\u0130\u00e5\u00a4\u00a9": 15757,
  "\u0120\u00e5\u0131\u00a6\u00e4\u00b8\u0122\u00e6\u0138\u00b9\u00e9\u013f\u00a2": 14198,
  "\u00e5\u00a6\u013b\u00e7\u013c\u0126": 9183,
  "\u00e8\u012b\u00ba\u00e6\u013e\u00af\u00e5\u00ae\u00b6": 13211,
  "\u00e8\u00b8\u0131\u00e5\u00ae\u0140": 5157,
  "\u00e6\u00a3\u0122\u00e6\u00b5\u012d": 5183,
  "\u00e6\u00af\u0131\u00e5\u00b9\u00b4": 7301,
  "\u00e7\u00be\u0130\u00e4\u00b8\u00bd": 4097,
  "\u00e5\u0127\u00b7\u00e4\u00bd\u0135": 4194,
  "\u00e8\u0124\u00af\u00e5\u00ae\u013c": 1133,
  "\u00e4\u00b8\u012c\u00e6\u013f\u00a5": 2711,
  "\u00e4\u00b8\u00ba\u00e4\u00bb\u0122\u00e4\u00b9\u012a": 668,
  "\u00e9\u013b\u00aa\u00e4\u00bd\u0142": 3694,
  "\u00e7\u00bb\u00bf\u00e8\u012b\u00b2": 9683,
  "\u00e8\u00af\u00b4\u00e5\u0137\u012c": 2493,
  "\u00e8\u00bf\u013b\u00e4\u00b8\u00aa\u00e9\u0139\u00ae\u00e9\u00a2\u013a": 3991,
  "\u00e6\u013a\u0130\u00e7\u013b\u00bd\u00e4\u00ba\u0128": 3655,
  "\u00e6\u012f\u0140": 8413,
  "\u00e5\u0132\u00ac\u00e6\u0129\u0124": 8349,
  "\u00e9\u0139\u00b7": 4019,
  "\u00e6\u012b\u0143": 4854,
  "\u00e6\u012b\u00be\u00e5\u012a\u00b0\u00e4\u00ba\u0128": 4320,
  "\u00e8\u00bf\u0129\u00e4\u00ba\u0130": 6466,
  "\u0120\u00e6\u00b2\u00b3": 8288,
  "\u00e4\u00bb\u00b6\u00e4\u00ba\u012d\u00e5\u0126\u00bf": 7021,
  "\u00e6\u013a\u0141\u00e6\u013a\u0141": 5205,
  "\u00e6\u0127\u00a2": 1075,
  "\u00e5\u00bf\u0125\u00e6\u0125\u0127\u00e4\u00b8\u012f\u00e5\u00a5\u00bd": 11052,
  "\u0120\u00e4\u00bd\u0142\u00e8\u00b7\u0141\u00e4\u00bd\u0142": 15885,
  "\u0120\u00e7\u0141\u00a5\u00e9\u0123\u0135\u00e5\u0132\u0139": 14604,
  "\u00e7\u0136\u0141\u00e5\u0133\u00bd\u00e7\u013c\u0126": 8169,
  "\u00e5\u0133\u00a2\u00e5\u0137\u012c": 6906,
  "\u00e4\u00bb\u0138\u00e4\u00ba\u00ba": 4557,
  "\u0120\u00e4\u00b8\u012f\u00e8\u00ae\u00b8": 9924,
  "\u00e5\u00b0\u0138": 4426,
  "\u00e5\u012c\u00a9\u00e7\u0132\u0128": 8819,
  "\u00e4\u00b8\u0122\u00e5\u0132\u0133": 13234,
  "\u00e7\u00b3\u0139\u00e4\u00ba\u012d\u00e6\u0134\u0143\u00e6\u012c\u00a5": 8011,
  "\u00e5\u0127\u00ac\u00e6\u00b0\u0133": 14628,
  "\u00e9\u0127\u012f\u00e5\u0132\u012a": 4043,
  "\u00e8\u00bf\u013b\u00e7\u00a7\u012f\u00e6\u0138\u00b9\u00e5\u00bc\u0131": 14718,
  "\u0120\u00e6\u012a\u0133\u00e4\u00bb\u00ac": 382,
  "\u00e8\u0125\u012e": 1342,
  "\u00e5\u013d\u00be": 1632,
  "\u00e7\u012b\u00b9\u00e7\u0124\u00b9": 6441,
  "\u00be\u0130": 1751,
  "\u00e8\u0129\u00aa\u00e8\u00a7\u012b": 13005,
  "\u00e4\u00bc\u0142\u00e6\u0134\u0143": 7006,
  "\u00e8\u00af\u0137\u00e9\u00aa\u012e": 7556,
  "\u00e4\u00bc\u0133\u00e6\u0123\u00af\u00e5\u0132\u00a7": 10162,
  "\u00e5\u012a\u00b0\u00e4\u00bd\u012f": 12918,
  "\u00e5\u0131\u012a\u00e4\u00b8\u012f": 7732,
  "\u0120\u00e8\u00af\u00b8": 10032,
  "\u00e5\u00ae\u00b6\u00e4\u00b9\u00a1": 10223,
  "\u00e4\u00bb\u0138\u00e5\u0133\u0122": 8932,
  "\u00e5\u00a9\u013c\u00e5\u00a7\u00bb": 1863,
  "\u00e6\u0130\u0134\u00e6\u0138\u00a5": 15641,
  "\u00e9\u013d\u00aa": 1666,
  "\u00a4\u00e9\u0127\u0134": 10610,
  "\u00e7\u00a8\u0122": 5401,
  "\u00e7\u0139\u0127": 789,
  "\u00e6\u00a1\u0133": 6788,
  "\u0120\u00e4\u00b9\u0141\u00e6\u00b2\u00a1\u00e6\u013e\u012b": 5482,
  "\u00e7\u0139\u0127\u00e5\u0137\u012c": 9157,
  "\u00e5\u013e\u00a8\u00e7\u00bd\u0133\u00e4\u00b8\u012c": 8543,
  "\u00e8\u00be\u0125\u00e4\u00b8\u00ba": 14596,
  "\u00e6\u012b\u0135\u00e4\u00b8\u00aa\u00e7\u0136\u00b5\u00e8\u00af\u013f": 7803,
  "\u0120\u00e4\u00b8\u0122\u00e4\u00b8\u00aa\u00e4\u00ba\u00ba": 3955,
  "\u00e9\u00a5\u00ae\u00e6\u0138\u013b": 9471,
  "\u00e9\u00ba\u00a6": 1603,
  "\u00e5\u0132\u00b8\u00e6\u0136\u00b6": 11934,
  "\u00e8\u00be\u0140\u00e4\u00ba\u0128": 12138,
  "\u00e4\u00bf\u013f\u00e7\u0137\u013b": 9916,
  "\u0120\u00e6\u013a\u00af\u00e6\u012a\u0133": 3311,
  "\u0120\u00e6\u012f": 1871,
  "\u00ac": 44,
  "\u00e5\u0123\u00a5\u00e8\u00ba\u00ab": 6652,
  "\u00e7\u012b\u00b5": 3465,
  "\u00e7\u00bf": 1280,
  "\u00e6\u013d\u00be\u00e8\u00af\u00b4": 12901,
  "\u00e4\u00b9\u0141\u00e7\u0141\u00a5\u00e9\u0123\u0135": 10243,
  "\u00e4\u00b9\u00b0\u00e4\u00ba\u0128": 3968,
  "\u00e7\u0138\u0139": 1765,
  "\u00e7\u013e\u0141\u00e5\u00ae\u0140": 3146,
  "\u00e5\u00b0\u0131\u00e5\u012e\u00ba": 5861,
  "\u00e5\u0130\u00bb\u00e8\u00bf\u0129": 8226,
  "\u00e4\u00b8\u00a4\u00e4\u00b8\u00aa\u00e4\u00ba\u00ba\u00e7\u013c\u0126": 9527,
  "\u00e8\u0126\u00b8": 1134,
  "\u00e8\u0124\u0125": 6161,
  "\u0120\u00e5\u0127\u00b3\u00e4\u00ba\u0130": 5394,
  "\u0120\u00e5\u012a\u00b0\u00e7\u0130\u00b0\u00e5\u013e\u00a8": 8785,
  "\u00e9\u00a9\u00b1": 6616,
  "\u00e7\u0138\u0133\u00e9\u0139\u00ae": 13174,
  "\u0120\u00e5\u00a4\u00a7\u00e5\u00a4\u013c\u00e6\u0137\u00b0": 12174,
  "\u00e9\u0139\u00ae\u00e9\u00a2\u013a\u00e7\u013c\u0126": 6468,
  "\u00e6\u013e\u012b\u00e4\u00bb\u0122\u00e4\u00b9\u012a\u00e6\u0142\u00b7\u00e7\u013c\u0126": 13444,
  "\u0120\u00e5\u00ae\u00b3\u00e6\u0122\u0137": 12014,
  "\u00e5\u0133\u00a6": 4134,
  "\u0120\u00e5\u00be\u012a\u00e5\u00bf\u00ab": 8030,
  "\u00e4\u00bd\u0131\u00e9\u013b\u00a2": 8325,
  "\u0120\u00e7\u0126\u00b6\u00e5\u0132\u0130\u00e5\u00b0\u00b1": 3032,
  "\u00e6\u0124\u00ac": 6291,
  "\u00e9\u0129\u0129\u00e5\u0131\u0138": 5387,
  "\u00e5\u0127\u00b0": 2189,
  "\u00e5\u0125\u0131": 509,
  "\u0120\u00e5\u0131\u00b0": 12401,
  "\u00e6\u0125\u00a9\u00e7\u00bd\u013c": 8720,
  "\u00e4\u00b8\u0122\u00e6\u0136\u00af": 11513,
  "\u00e8\u00bd\u00bf": 12818,
  "\u00e8\u0124\u013c": 2756,
  "\u00e8\u012f\u00a3\u00e5\u00b9\u00b8": 13853,
  "\u0120\u00e9\u0137\u00bf\u00e5\u00a4\u00a7": 14451,
  "\u0120\u00e4\u00bd\u0142\u00e8\u00bf\u013b\u00e4\u00b9\u012a": 7342,
  "\u00e4\u00b8\u013e": 486,
  "\u00e5\u012a\u0125": 14176,
  "\u00e7\u00bd\u0133\u00e6\u0123\u012d": 15820,
  "\u00e5\u00b1\u012c": 5686,
  "\u0120\u00e6\u0139\u0142\u00e8\u00ae\u00ba\u00e6\u013a\u00af": 9064,
  "\u00e7\u0126\u00a6": 3862,
  "\u0120\u00e5\u012a\u00ab\u00e4\u00ba\u00ba": 4692,
  "\u00e5\u0132\u00ac\u00e6\u012a\u0133": 5085,
  "\u00e4\u00ba\u00ba\u00e6\u013a\u00af": 6888,
  "\u00e6\u0122\u013f\u00e8\u0122\u0125": 4220,
  "\u00e6\u00ac\u00b2": 3209,
  "\u00e9\u00ba\u00a6\u00e5\u0127\u012d\u00e9\u00a3\u0130": 7769,
  "\u00e5\u00ae\u0140\u00e5\u013e\u00a8\u00e6\u013a\u00af": 5265,
  "\u00e4\u00ba\u00a4\u00e7\u00bb\u013b\u00e4\u00bd\u0142": 9229,
  "\u0120\u00e6\u012a\u0133\u00e6\u013a\u00af\u00e4\u00b8\u012f\u00e6\u013a\u00af": 11082,
  "\u00e6\u00be\u0126": 15653,
  "\u0120\u00e5\u00b0\u0131": 622,
  "\u00e4\u00ba\u012e\u00e7\u013b\u00be": 3815,
  "\u00e7\u012d\u00ac": 1397,
  "\u00e8\u00bf\u013d\u00e6\u013f\u00a5\u00e7\u013c\u0126": 12742,
  "\u00e6\u00b2\u00bb\u00e6\u0126\u012a": 9360,
  "\u00e5\u0132\u0132": 3144,
  "\u0120\u00e8\u00af\u00bb": 13054,
  "\u00e8\u012d": 479,
  "\u0133": 87,
  "\u0120\u00e5\u013e\u00a8\u00e8\u00bf\u013b\u00e4\u00b8\u00aa": 5456,
  "\u00e5\u0131\u0133\u00e5\u00b1\u0137": 1602,
  "\u00e6\u00b8\u0127\u00e7\u0132\u0128": 11572,
  "\u0120\u00e8\u0122\u0123\u00e7\u012a\u00b7": 7259,
  "\u00e8\u00b9\u00a6": 5355,
  "\u00e8\u00a7\u0123\u00e8\u00bf\u0129": 2264,
  "\u00e9\u0139\u00aa\u00e9\u0139\u00aa": 14576,
  "\u00e6\u00b8\u00a9\u00e5\u00ba\u00a6": 9623,
  "\u00e6\u0124\u012b": 3403,
  "\u00e4\u00ba\u0137": 4390,
  "\u00e5\u00b0\u0131\u00e7\u013c\u0126\u00e6\u0139\u00b6\u00e5\u0122\u013b": 8369,
  "\u00e5\u013e\u00a8\u00e4\u00b8\u0122\u00e5\u013f\u0139\u00e5\u0126\u00bf": 8801,
  "\u00e7\u0139\u0129": 2380,
  "\u00e9\u00a2\u013e\u00e8\u012b\u00b2": 5514,
  "\u00e7\u00ab\u013b\u00e8\u00b5\u00b7\u00e6\u013f\u00a5": 8883,
  "\u00e4\u00b8\u012f\u00e5\u013d\u0140": 14292,
  "\u00e5\u013e\u00a8\u00e9\u0124\u00a3\u00e9\u0129\u012e": 6500,
  "\u00e4\u00ba\u012d\u00e5\u00ae\u0140": 3839,
  "\u0120\u00e6\u00af\u00ab": 13967,
  "\u00e9\u00a3\u0141": 1271,
  "\u0120\u00e4\u00bb\u0138\u00e4\u00bf\u00a9": 11411,
  "\u0120\u00e6\u012b\u0135\u00e5\u00bc\u0122": 10472,
  "\u0120\u00e6\u012a\u0133\u00e5\u0130\u00bb": 3385,
  "\u0120\u00e7\u0136\u00bb": 12788,
  "\u00e8\u0122\u0123\u00e7\u012a\u00b7\u00e4\u00bb\u00ac\u00e5\u0126\u00bf": 11698,
  "\u0120\u00e7\u0141\u00a5\u00e9\u0123\u0135": 2976,
  "\u00e8\u00a1\u012e\u00e7\u013c\u0126": 4532,
  "\u00e8\u00bf\u013a\u00e6\u00b2\u00a1\u00e6\u013e\u012b": 2837,
  "\u00e6\u0137\u013b\u00e5\u00ae\u00a4": 10553,
  "\u00e5\u013f\u0132\u00e4\u00b8\u012d": 6837,
  "\u00e6\u013d\u00a6": 8370,
  "\u00e6\u00a1\u0132": 14666,
  "\u0120\u00e8\u00af\u00b4\u00e5\u00ae\u0140\u00e8\u00af\u013f": 7120,
  "\u00e6\u012a\u0133\u00e9\u0124\u00a3": 11105,
  "\u00e9\u0129\u012e": 246,
  "\u00e6\u013a\u00af\u00e5\u0132\u00a6": 3475,
  "\u00e6\u0123\u012d\u00e7\u012a\u00b1": 2073,
  "\u00e5\u00b0\u0133\u00e7\u012a\u00b7": 4321,
  "\u00e5\u00bf\u00ab\u00e5\u013e\u00b0": 12342,
  "\u00e7\u013c\u0126\u00e4\u00ba\u00ba\u00e4\u00bb\u00ac": 13355,
  "\u00e7\u0135\u00b7": 10450,
  "\u0120\u00e8\u00bf\u013b\u00e4\u00b8\u012d": 9871,
  "\u00e5\u0137\u0128": 1011,
  "\u00e5\u00b8\u0125\u00e7\u00bd\u00ae": 11526,
  "\u0120\u00e6\u013e\u012b\u00e4\u00ba\u013d\u00e4\u00ba\u00ba": 8985,
  "\u00e5\u0132\u012e\u00e5\u00b1\u0127": 13356,
  "\u00e6\u012a\u0133\u00e5\u013e\u00a8": 2109,
  "\u00e5\u00be\u012a\u00e9\u0129\u012f\u00e8\u00a6\u0123": 5743,
  "\u00e8\u0125\u00bd\u00e5\u0123\u013c\u00e5\u012a\u00b0": 15351,
  "\u00e5\u00be\u0139": 194,
  "\u00e9\u0125\u00bd\u00e8\u00af\u00b4": 5070,
  "\u00e5\u013f\u012c": 7205,
  "\u00e7\u013c\u0126\u00e7\u0139": 2732,
  "\u00e8\u0123\u012c\u00e5\u00a4\u00a9\u00e8\u00ae\u00b0\u00e5\u00bd\u0137": 15413,
  "\u00e4\u00b8\u012f\u00e7\u012a\u00b1": 4843,
  "\u0120\u00e4\u00bb\u012c\u00e5\u00a4\u00a9\u00e6\u012a\u0133\u00e4\u00bb\u00ac": 8260,
  "\u00e9\u00b8\u00a1\u00e8\u013d\u012d": 5898,
  "\u00e4\u00b8\u0125\u00e6\u0139\u00a5": 9982,
  "\u00e9\u00a2\u0128\u00e5\u0141\u0141": 4409,
  "\u00e5\u00b7\u00a1": 5731,
  "\u00e7\u0136\u00a8\u00e8\u00bf\u013b\u00e4\u00b8\u00aa": 10897,
  "\u00e6\u0130\u012a": 2778,
  "\u00e5\u013e\u00a8\u00e4\u00b8\u0122\u00e5\u013f\u0139": 13835,
  "\u00e9\u0135\u00be\u00e6\u0130\u00a5": 6928,
  "\u00e7\u013c\u0126\u00e7\u00a6\u00bb": 9449,
  "\u00e4\u00b9\u012d\u00e5\u00bf\u0125": 10460,
  "\u00e7\u0143\u012b\u00e5\u00be\u0127": 5420,
  "\u00e5\u012e\u00bb\u00e7\u00a7\u0133\u00e5\u00a4\u00a7\u00e5\u0143\u00a6": 15420,
  "\u00e6\u0136\u00af\u00e6\u0131\u00b4": 13100,
  "\u00e9\u0143\u0124": 3604,
  "\u00e7\u00bb\u0131": 312,
  "\u00e8\u012c\u0124\u00e7\u013d\u00ae\u00e7\u0136\u00b1": 6663,
  "\u0120\u00e5\u0143\u0136": 13151,
  "\u00e8\u00b5\u00b6\u00e4\u00b8\u012c": 10024,
  "\u00e5\u00a4\u00a7\u00e5\u00ab\u0124": 12767,
  "\u00e5\u012a\u00b0\u00e4\u00bd\u0142": 4332,
  "\u00e4\u00bd\u0142\u00e7\u013e\u0141": 12311,
  "\u00e6\u013d\u00b4\u00e6\u013e\u012b": 8502,
  "\u00e7\u0142\u0136\u00e5\u0131\u0133": 9969,
  "\u00e7\u0130\u012d\u00e7\u012a\u00b7": 6778,
  "\u00e4\u00bb\u0122\u00e4\u00b9\u012a\u00e9\u0125\u00bd": 3819,
  "\u00e7\u013c\u0126\u00e7\u00a6\u0131": 9557,
  "\u00e5\u00a4\u013e\u00e4\u00b8\u012f": 6132,
  "\u0120\u00e5\u0129\u0128\u00e5\u00a4\u0129": 5302,
  "\u00e5\u00b0\u00ba": 6725,
  "\u00e4\u00b8\u0125\u00e5\u012f\u0123\u00e4\u00ba\u0136": 15064,
  "\u00e8\u00bf\u013b\u00e4\u00b9\u012a\u00e5\u00a4\u013c\u00e4\u00ba\u00ba": 15649,
  "\u00e6\u012c\u00ab\u00e9\u013e\u00b2": 9558,
  "\u00e7\u013f\u0122\u00e5\u00a4\u00a7": 10951,
  "\u00e6\u00a3\u00b5": 6360,
  "\u0120\u00e7\u012d\u00ac": 8524,
  "\u0120\u00e6\u012a\u0133\u00e5\u00a5\u00bd": 7848,
  "\u00e8\u0124\u00af\u00e5\u00ae\u013c\u00e4\u00bc\u013c": 6729,
  "\u00e8\u012a\u00b1": 11550,
  "\u00e8\u0122\u0123\u00e5\u00a9\u0128": 2093,
  "\u00e4\u00b8\u0122\u00e5\u0131\u00a5\u00e8\u00af\u013f": 2822,
  "\u00a7": 39,
  "\u00e5\u00a5\u0138\u00e9\u0129\u0133": 15335,
  "\u00e5\u00af\u00b9\u00e7\u013c\u0126": 8651,
  "\u00e6\u0130\u00a2\u00e7\u00b4\u00a2\u00e5\u0132\u00a7": 15702,
  "\u00e5\u012c\u0141\u00e5\u00a4\u00ab": 6639,
  "\u00e6\u00b2\u012a\u00e9\u013a\u00b3": 10222,
  "\u00e5\u00b8\u013a": 15199,
  "\u00e6\u012d": 259,
  "\u00e6\u013e\u0122\u00e5\u0132\u0130": 1339,
  "\u0120\u00e5\u013d": 424,
  "\u00e7\u00b4\u0142": 2036,
  "\u00e6\u00b2\u00b3\u00e8\u00be\u00b9": 12730,
  "\u0120\u00e4\u00bd\u0142\u00e6\u013a\u0130\u00e7\u013b\u00bd\u00e5\u0132\u0139": 14892,
  "\u00e4\u00b8\u012f\u00e8\u00b6\u0127\u00e8\u00bf\u0129": 14229,
  "\u00e7\u0142": 689,
  "\u00e7\u013c\u0126\u00e6\u00b5\u00b7": 13317,
  "\u00e6\u0137\u00b7": 8872,
  "\u00e5\u013d\u0140\u00e5\u012a\u00b0\u00e5\u00ae\u00b6": 8718,
  "\u00e4\u00b8\u0122\u00e4\u00b8\u00aa\u00e9\u0139\u00ae\u00e9\u00a2\u013a": 5616,
  "\u00e8\u00bf\u013e\u00e7\u00a6\u00bb": 11573,
  "\u00e5\u00a1\u0136": 5259,
  "\u00e8\u00bf\u013a\u00e7\u013e\u0141": 5424,
  "\u0120\u00e6\u012a\u0133\u00e4\u00b8\u012f\u00e7\u00ae\u00a1": 13885,
  "\u00e6\u0139\u0142\u00e5\u00a5\u012a": 7300,
  "\u0120\u00e6\u013a\u00af\u00e6\u0125\u00b3": 15935,
  "\u00e6\u0126\u00a7\u00e7\u0138\u013c": 11294,
  "\u00e4\u00bd\u0142\u00e5\u00b0\u00b1\u00e4\u00bc\u013c": 14497,
  "\u0120\u00e6\u012a\u0133\u00e7\u013c\u0126\u00e5\u00a4\u00a9\u00e5\u0135\u00aa": 14614,
  "\u0120\u00e5\u0135\u00aa\u00e4\u00b8\u00aa": 9087,
  "\u00e6\u0126\u00a3": 6426,
  "\u0120\u00e7\u00bb\u013b\u00e6\u012a\u0133\u00e4\u00bb\u00ac": 14319,
  "\u00e4\u00bb\u00a3\u00e7\u0132\u0128": 10569,
  "\u00e6\u0142\u00b9": 1097,
  "\u0120\u00e7\u0126\u00b6\u00e5\u0132\u0130\u00e8\u00af\u00b4": 15469,
  "\u00e6\u00b5\u0123": 925,
  "\u0120\u00e5\u013d\u00bd": 2413,
  "\u00e6\u0136\u00be\u00e5\u012a\u00b0": 7946,
  "\u00e4\u00bb\u0122\u00e4\u00b9\u012a\u00e5\u0132\u0139": 13138,
  "\u0120\u00e4\u00bb\u0138\u00e5\u00b0\u00b1": 2446,
  "\u00e5\u0123\u013c\u00e4\u00bb\u0122\u00e4\u00b9\u012a": 2993,
  "\u00e5\u0131\u0139\u00e4\u00bc\u00a4": 4479,
  "\u00e6\u0123\u00a8": 2722,
  "\u00e7\u013d\u00b8\u00e5\u00ba\u0136": 15939,
  "\u00e5\u00b0\u0128\u00e4\u00ba\u0130": 11645,
  "\u00e8\u00a1\u012e\u00e4\u00ba\u0128\u00e8\u00a1\u012e\u00e4\u00ba\u0128": 12230,
  "\u00e9\u00a9\u00ac\u00e9\u00be\u013b": 14770,
  "\u00e8\u0122\u012e\u00e5\u0128\u012f\u00e5\u0128\u012f": 14591,
  "\u0120\u00e5\u0137\u012c\u00e5\u00b0\u00b1\u00e6\u013a\u00af": 15366,
  "\u00e8\u00b4\u00b5": 1593,
  "\u00e7\u0130\u012d\u00e5\u0143\u0132": 5378,
  "\u0120\u00e9\u0129\u012f\u00e8\u00a6\u0123\u00e7\u013c\u0126\u00e6\u013a\u00af": 12427,
  "\u00e7\u0143\u0136\u00e5\u00ba\u0136\u00e6\u012a\u0133": 12909,
  "\u0120\u00e8\u00b5\u00b7": 8451,
  "\u00e7\u013d\u013a\u00e5\u0143\u0132": 15908,
  "\u0120\u00e6\u012c\u012c\u00e4\u00bb\u0138": 9060,
  "\u00e6\u012a\u0133\u00e5\u00b0\u00b1": 742,
  "\u0120\u00e5\u00a6": 477,
  "\u00e6\u0135": 1491,
  "\u00e7\u013c\u0126\u00e6\u0139\u00a5\u00e5\u0143\u0132": 4688,
  "\u00e4\u00b8\u012c\u00e5\u0143\u00a6": 3924,
  "\u00e6\u012c\u00b1": 1489,
  "\u0120\u00e5\u012e": 1305,
  "\u00e7\u013c\u0126\u00e5\u00af\u00b9": 5396,
  "\u0120\u00e6\u012a\u0133\u00e8\u00bf\u013b\u00e5\u0126\u00bf": 13768,
  "\u0120\u00e7\u0132": 4548,
  "\u00e8\u0123\u012c\u00e4\u00b8\u0122\u00e8\u0123\u012c": 7341,
  "\u00e8\u00bf\u0129\u00e5\u0130\u00bb\u00e7\u013c\u0126": 7735,
  "\u00e8\u00a1\u00a8\u00e6\u0125\u0127": 5967,
  "\u00e9\u00a5\u0143": 814,
  "\u00e6\u0132\u0140\u00e6\u00b8\u0127\u00e6\u00a5\u013c": 14601,
  "\u0120\u00e6\u012a\u0133\u00e7\u013c\u0126": 1465,
  "\u00e5\u012c\u0142\u00e5\u00bc\u00ba": 7108,
  "\u00e8\u00af\u00b7\u00e6\u0124\u00a8": 10567,
  "\u00e5\u0130\u00bb\u00e5\u0132\u0125": 12080,
  "\u00e7\u013f\u0122\u00e5\u0132\u00a7": 8080,
  "\u00e5\u0138\u00b5": 7614,
  "\u00e6\u012a\u0133\u00e5\u00b8\u012e\u00e6\u013e\u013d": 15010,
  "\u00e7\u012a\u00b1\u00e5\u00a5\u00b9": 15541,
  "\u0120\u00e6\u012a\u0133\u00e8\u00bf\u013b\u00e6\u013a\u00af": 12480,
  "\u0120\u00e9\u0123\u0129\u00e5\u012a\u00b0": 7991,
  "\u00e5\u012e\u00bb\u00e5\u00b8\u012a": 12249,
  "\u00e8\u00bf\u013b\u00e4\u00b8\u0122\u00e5\u00b9\u00b4": 12326,
  "\u00e5\u013e\u00a8\u00e5\u00a4\u0138\u00e9\u013f\u00a2": 6314,
  "\u00e6\u012e\u0129\u00e6\u0142\u0129": 8900,
  "\u00e5\u00b0\u00b8\u00e4\u00bd\u0135": 8054,
  "\u00e6\u00af\u013d\u00e9\u0134\u00b1": 13225,
  "\u00e8\u00bf\u013b\u00e4\u00b9\u012a\u00e5\u00a4\u013c": 2012,
  "\u00e6\u012d\u00bf\u00e4\u00bd\u0142": 12746,
  "\u00e7\u013e\u0123": 1412,
  "\u0120\u00e7\u0123\u00ab": 7243,
  "\u00e4\u00b8\u00aa\u00e4\u00ba\u00ba": 1119,
  "\u00e7\u00bb\u0141": 1353,
  "\u00e7\u013d\u00b8\u00e4\u00bf\u00a1\u00e4\u00bd\u0142": 11818,
  "\u00e8\u00ae\u0143\u00e7\u00bb\u0125": 4024,
  "\u00e6\u012a\u0133\u00e5\u0131\u00ab": 7836,
  "\u00e9\u00a5\u00bf": 2963,
  "\u0120\u00e7\u00a6\u0131": 11092,
  "\u00e6\u013a\u00af\u00e4\u00bd\u0142\u00e7\u013c\u0126": 5362,
  "\u0120\u00e6\u00bc\u0124": 15003,
  "\u00e7\u013b\u00be\u00e5\u012a\u0128\u00e4\u00b9\u012d\u00e4\u00b8\u0125\u00e5\u012f\u0123": 11608,
  "\u00e4\u00ba\u012d\u00e7\u013c\u0126": 6295,
  "\u00e5\u00a3\u00ab\u00e5\u0127\u00b5": 10362,
  "\u00e7\u013c\u0126\u00e6\u0126\u0131\u00e4\u00b9\u012b": 9150,
  "\u00e6\u0137\u0133\u00e6\u00b2\u00bb": 14779,
  "\u00e4\u00bd\u0142\u00e5\u0123\u013c": 11617,
  "\u00e5\u0131\u0133\u00e5\u00b8\u0125": 2423,
  "\u00e6\u013e\u0122\u00e5\u012a\u013f": 10588,
  "\u00e5\u00b8\u00a6\u00e6\u013f\u00a5\u00e4\u00ba\u0128": 7678,
  "\u0120\u00e5\u012a\u00ab\u00e5\u012c\u00a8": 11098,
  "\u00e6\u0143\u00a3\u00e5\u00b8\u00b8": 2084,
  "\u00e6\u013a\u00af\u00e4\u00bb\u0122\u00e4\u00b9\u012a\u00e6\u0139\u00b6\u00e5\u0122\u013b": 14723,
  "\u00e5\u013e\u00b0\u00e5\u013e\u00a8": 10652,
  "\u0120\u00e4\u00bb\u0130\u00e8\u0122\u012e": 9324,
  "\u00e9\u0125\u00bd": 183,
  "\u00e8\u013d\u0129": 5255,
  "\u0120\u00e8\u0129\u00aa\u00e5\u00b7\u00b1\u00e7\u013c\u0126": 10122,
  "\u00e4\u00bb\u00a3": 811,
  "\u00e8\u00bf\u013a\u00e6\u013a\u00af\u00e6\u012e\u00ba": 12744,
  "\u0120\u00e4\u00bd\u0142\u00e5\u0131\u00aa": 14480,
  "\u00e6\u013e\u0122\u00e6\u0138\u00b0": 8836,
  "\u0120\u00e6\u00b2\u00a1\u00e6\u0125\u00b3\u00e5\u012a\u00b0": 3567,
  "\u00e7\u013c\u0126\u00e6\u013a\u00af\u00e4\u00bb\u0122\u00e4\u00b9\u012a": 4885,
  "\u00e6\u00a8\u00b1": 9992,
  "\u00e5\u0143\u0132\u00e4\u00b8\u012c": 5041,
  "\u00e7\u0123\u00b5": 1549,
  "\u00e9\u00a2\u0126\u00e6\u00b5\u012d": 11403,
  "\u00e5\u0129\u00ba\u00e5\u0127\u00a5": 14975,
  "\u0120\u00e9\u0124\u00a3\u00e6\u0122\u0130\u00e4\u00b9\u012a": 10167,
  "\u00e5\u00b0\u0131\u00e4\u00bc\u013b\u00e5\u0143\u0132": 8920,
  "\u00e8\u00ba\u00ab\u00e7\u013c\u0126": 8544,
  "\u0120\u00e6\u012a\u0133\u00e7\u00bb\u013b": 12560,
  "\u0120\u00e6\u0123\u0132\u00e6\u0122\u0137": 7035,
  "\u00e5\u0132\u012c": 6074,
  "\u00e4\u00bb\u0122\u00e4\u00b9\u012a\u00e5\u0133\u0122": 2311,
  "\u00e5\u0133\u00a8\u00e4\u00b8\u0122": 12225,
  "\u00e4\u00bb\u012c\u00e5\u00b9\u00b4\u00e7\u013c\u0126": 10552,
  "\u00e6\u013d\u00b9\u00e6\u0135\u012f": 12534,
  "\u00e7\u013c\u0126\u00e6\u013a\u00af\u00e4\u00b8\u012f\u00e6\u013a\u00af": 11552,
  "\u00e7\u0124\u00b9\u00e4\u00b8\u012c": 13907,
  "\u00e7\u013e\u0141\u00e7\u012a\u00b1": 11304,
  "\u00e6\u0122\u0142": 15886,
  "\u0120\u00e4\u00b8\u00ba\u00e4\u00bb\u0122\u00e4\u00b9\u012a\u00e4\u00bc\u013c": 14677,
  "\u0120\u00e6\u012a\u0133\u00e9\u0124\u00a3": 10094,
  "\u00a1\u00ac": 10843,
  "\u00e9\u0136\u013b\u00e8\u00af\u00af": 3788,
  "\u00e4\u00bb\u0138\u00e5\u00a6\u012a": 1981,
  "\u00e7\u012b\u00a2": 4384,
  "\u00e9\u0127\u00bf": 11997,
  "\u00e9\u013f\u00a2\u00e6\u013f\u00a1": 15892,
  "\u0120\u00e6\u0139\u0123\u00e8\u00be\u00b9": 10338,
  "\u00e7\u00a4\u00be\u00e4\u00bc\u013c": 1916,
  "\u00e6\u0138\u0129\u00e7\u012b\u00a9": 9311,
  "\u0120\u00e4\u00bd\u0142\u00e4\u00b8\u012f": 1727,
  "\u00e6\u00ac\u00a1\u00e6\u0137\u00b0": 13038,
  "\u00e5\u0129\u00ba\u00e4\u00ba\u012d": 12023,
  "\u0120\u00e4\u00bd\u0142\u00e8\u0124\u00af\u00e5\u00ae\u013c": 15053,
  "\u00e4\u00bc\u00aa": 5166,
  "\u0120\u00e4\u00b8\u0122\u00e7\u00a7\u012f": 9165,
  "\u00e4\u00b8\u0122\u00e4\u00bb\u00b6\u00e4\u00ba\u012d\u00e5\u0126\u00bf": 11901,
  "\u0120\u00e5\u0129\u00ba\u00e9\u0139\u00a8": 12861,
  "\u0120\u00e5\u00b8\u012e\u00e6\u013e\u013d": 2420,
  "\u00e7\u00b2\u013a": 9817,
  "\u00e7\u0136\u00a8\u00e6\u013f\u00a5": 6743,
  "\u00e8\u00b7\u012d": 15573,
  "\u00e5\u00ae\u0140\u00e8\u00b7\u00b5": 11414,
  "\u0120\u00e4\u00bd\u0142\u00e7\u012a\u00b8": 7887,
  "\u00e6\u013e\u012b\u00e4\u00bd\u0142": 8108,
  "\u00e5\u00b0\u00b1": 140,
  "M": 19,
  "\u00e7\u013c\u0126\u00e6\u0125\u0127\u00e5\u0128\u00b5": 2806,
  "\u00e5\u0127\u0143\u00e5\u00b9\u00b4": 4516,
  "\u00e4\u00b8\u0143\u00e6\u00af\u0134": 11546,
  "\u00e5\u012d\u0129\u00e6\u00b0\u0136": 4593,
  "\u00e5\u00bd\u0135\u00e7\u0126\u00b6": 2127,
  "\u0120\u00e6\u00b2": 536,
  "\u00e6\u00b6\u012a\u00e5\u00a4\u00b1": 4959,
  "\u00e6\u013e\u012d\u00e5\u0131\u012d\u00e8\u00af\u00b4": 11994,
  "\u00e5\u0132\u0133\u00e6\u0124\u00a8": 7791,
  "\u0120\u00e5\u0128\u012f\u00e6\u013f\u00a5": 14062,
  "\u00e5\u012b\u012f\u00e7\u0136\u00b7\u00e5\u0131\u012d": 11042,
  "\u00e5\u00a4\u00b1\u00e8\u00b4\u00a5\u00e4\u00ba\u0128": 13210,
  "\u00e7\u0131\u0143\u00e9\u0137\u00bf": 9124,
  "\u00e4\u00ba\u00ae\u00e4\u00ba\u00ae": 15734,
  "\u0120\u00e5\u012f\u0139": 2449,
  "\u00e9\u0122\u0134": 2735,
  "\u00e6\u0130\u0132": 11146,
  "\u0120\u00e7\u0137": 8460,
  "\u00e8\u0130\u012b": 3781,
  "\u0120\u00e4\u00b8\u012f\u00e4\u00bb\u0127": 5194,
  "\u00e5\u00b0\u0131\u00e5\u0143\u00a9": 3214,
  "\u00e6\u012d\u012f\u00e6\u0133\u0126": 9255,
  "\u0120\u00e8\u00bf\u013a\u00e8\u00ae\u00b0\u00e5\u00be\u0139": 12544,
  "\u00e6\u013e\u012a\u00e5\u012f\u0123\u00e5\u0127\u0143\u00e5\u0131\u00b7": 14603,
  "\u00e7\u0143\u012b": 513,
  "\u00e6\u00b1\u0141\u00e5\u012f\u0139": 12390,
  "\u00e5\u0134\u012e\u00e4\u00bd\u0142\u00e5\u012a\u0128\u00e4\u00ba\u00ab": 12501,
  "\u00e6\u00b0\u00b4": 662,
  "\u00e5\u0132\u012e\u00e6\u00a1\u012e": 13041,
  "\u0120\u00e6\u0143\u00a3\u00e5\u00a5\u00bd": 5974,
  "\u00e8\u012b\u00ba": 1887,
  "\u00e7\u013c\u0126\u00e4\u00b8\u012c": 13805,
  "\u00e6\u00bb\u0133": 3822,
  "\u00e8\u013b\u00ab": 4535,
  "\u00e5\u00a4\u00a7\u00e8\u0129\u00a3": 12396,
  "\u0120\u00e5\u00b7\u00a5": 3594,
  "\u00e6\u00a2\u00af": 4231,
  "\u00e5\u0127\u00b3\u00e6\u00b3\u00a8\u00e6\u012a\u0133\u00e7\u013c\u0126": 11870,
  "\u00e5\u0127\u012b\u00e4\u00ba\u0128": 8693,
  "\u00e5\u0134\u012e": 277,
  "\u00e7\u0130\u00af": 1547,
  "\u00e7\u012c\u00af\u00e7\u00bd\u00aa\u00e5\u00ab\u012e\u00e7\u0138\u0133\u00e4\u00ba\u00ba": 14397,
  "\u00e5\u013d\u00b0\u00e6\u0125\u0133": 11541,
  "\u00e5\u00be\u0139\u00e7\u012b\u00b9\u00e5\u012a\u00ab": 11300,
  "\u00e6\u00b2\u013d": 13809,
  "\u00e5\u00a4\u00b4\u00e9\u00b9\u00b0": 14410,
  "\u00e5\u00b9\u0137": 3690,
  "\u00e5\u00b0\u0131\u00e5\u00a7\u0132": 2102,
  "\u00e5\u0134\u00b1\u00e4\u00bb\u00ac\u00e5\u00ae\u00b6": 10887,
  "\u00e7\u00ac\u00ac\u00e4\u00b8\u0122\u00e4\u00b8\u00aa": 3500,
  "\u00e5\u012c\u00a8": 416,
  "\u0120\u00e5\u00be\u012a\u00e5\u00a4\u013c\u00e4\u00ba\u00ba": 5211,
  "\u00e4\u00ba\u012e\u00e5\u012f\u0123\u00e4\u00b8\u0125": 8000,
  "\u00e5\u0133\u00b5\u00e5\u0133\u00b5": 15521,
  "\u00e4\u00b8\u012f\u00e9\u00a1\u00be": 9330,
  "\u00e5\u0127\u0126\u00e5\u00bc\u0141": 1738,
  "\u00e4\u00b8\u00ba\u00e6\u012a\u0133": 5773,
  "\u00e8\u00b7\u0141\u00e8\u00b8\u00aa": 10125,
  "\u00e5\u013a\u0140": 4897,
  "\u00e4\u00bb\u00a5\u00e5\u0132\u0130\u00e5\u00b0\u00b1": 12131,
  "\u00e6\u0139\u0142\u00e9\u013b\u0132": 9238,
  "\u00e5\u00a4\u00a7\u00e5\u00a4\u013c\u00e6\u0137\u00b0": 6770,
  "\u0120\u00e9\u013f\u0140\u00e8\u00a6\u0123": 13639,
  "\u00e4\u00ba\u012d\u00e5\u012c\u00a1": 12099,
  "\u00e6\u0125\u0127\u00e4\u00ba\u00ba\u00e8\u012c\u0124": 13510,
  "\u00e5\u0129\u0128\u00e5\u00a4\u0129": 1345,
  "\u0120\u00e8\u00a6\u0123\u00e6\u0125\u00b3": 10783,
  "\u0120\u00e8\u0122\u0123": 873,
  "\u0120\u00e4\u00bb\u0138\u00e5\u012f\u00b4": 13708,
  "\u00e8\u00b7\u00af\u00e7\u013c\u0126": 12647,
  "\u0120\u00e6\u00b7\u00b7": 11790,
  "\u00e9\u013f\u00a9\u00e5\u0133\u00bd": 4919,
  "\u0120\u00e8\u00ae\u00a9\u00e4\u00bb\u0138\u00e4\u00bb\u00ac": 7508,
  "\u0120\u00e4\u00bc\u00b0\u00e8\u00ae\u00a1": 7185,
  "\u00e4\u00b8\u0122\u00e5\u012c\u00a8": 11735,
  "\u00e4\u00ba\u00a9": 13515,
  "\u0120\u00e6\u013a\u00af\u00e8\u00bf\u013b\u00e6\u0142\u00b7\u00e7\u013c\u0126": 10373,
  "\u00e6\u00b9\u00be": 3422,
  "\u00e9\u0129\u012f\u00e9\u0129\u012f": 13527,
  "\u00e8\u00a7\u0128\u00e9\u00a2\u0133": 2742,
  "\u00e4\u00bc\u013b": 1493,
  "\u00e6\u012a\u0133\u00e8\u00a6\u0123": 1977,
  "\u00e5\u00b7\u00a5\u00e8\u012b\u00ba": 14945,
  "\u00e5\u00a5\u00b3\u00e7\u0136\u0141": 3087,
  "\u00e9\u013a\u00b6\u00e6\u00ae\u00b5": 3289,
  "\u0120\u00e5\u0123\u0129\u00e5\u00a6\u0124": 6593,
  "\u00e7\u0141\u00ae": 9317,
  "\u00e5\u0131\u00af\u00e4\u00b9\u0132": 10283,
  "\u0120\u00e4\u00bf\u00ae": 12508,
  "\u00e8\u012b\u00ba\u00e4\u00ba\u00ba": 12004,
  "\u00e4\u00b8\u012f\u00e5\u0131\u012c": 4201,
  "\u00e5\u0130\u00bb\u00e8\u00af\u00b4": 9870,
  "\u00e5\u00bd\u00a9\u00e8\u013b\u00b9": 11069,
  "\u0120\u00e8\u012d\u00a6": 14654,
  "\u00e5\u0123\u00a5\u00e5\u00ba\u00b7\u00e7\u013c\u0126": 14831,
  "\u00e8\u00af\u0137\u00e4\u00b8\u0122\u00e4\u00b8\u012d": 11267,
  "\u00e5\u0128\u0142\u00e5\u0128\u013d": 8185,
  "\u00e6\u00b0\u00b4\u00e9\u0129\u012e": 10959,
  "\u0120\u00e6\u013e\u012b\u00e4\u00ba\u0128": 8119,
  "\u00e8\u0133\u00a9": 10853,
  "\u00e5\u0143\u0132\u00e5\u00a5\u00b3": 9237,
  "\u00e7\u013e\u012d": 215,
  "\u00e6\u0139\u00a9\u00e6\u0139\u00a5": 13495,
  "\u00e6\u012a\u0133\u00e5\u00b8\u00ae\u00e4\u00bd\u0142": 14927,
  "\u0120\u00e9\u0122\u013c\u00e8\u00bf\u0129": 4922,
  "\u00e5\u00b9\u00bf\u00e5\u013e\u00ba": 10696,
  "\u00e6\u0122\u0137\u00e4\u00bb\u0138": 13279,
  "\u0120\u00e6\u013a\u00af\u00e4\u00b8\u00aa": 9893,
  "\u00e6\u0137\u00b0\u00e6\u012f\u00ae": 2435,
  "\u00e4\u00b8\u0122\u00e5\u012f\u0123": 9500,
  "\u0120\u00e7\u0130\u00b0\u00e5\u013e\u00a8\u00e6\u012a\u0133\u00e4\u00bb\u00ac": 12178,
  "\u00e6\u0130\u0134\u00e7\u00bb\u0125": 13974,
  "\u00e5\u0137\u012c\u00e6\u012a\u0133": 2616,
  "\u00e6\u013e\u012b\u00e6\u0126\u0131\u00e6\u0122\u013f": 5124,
  "\u00e5\u00ae\u0140\u00e7\u013c\u0126": 9187,
  "\u00e8\u00af\u00b4\u00e5\u00ae\u012e": 6957,
  "\u00e7\u00bf\u00bc": 5122,
  "\u00e8\u00af\u00af": 1640,
  "\u0120\u00e8\u00b7\u00b3": 11428,
  "\u00e4\u00bd\u0142\u00e4\u00bd\u0142": 2355,
  "\u00e8\u00b5\u0126\u00e6\u013e\u00ac\u00e5\u00b8\u0124\u00e5\u013e\u00ba": 13428,
  "\u00e6\u012b\u0122\u00e8\u00b0\u0135": 2417,
  "\u00e4\u00be\u013d\u00e5\u00ba\u0136": 7236,
  "\u00e6\u013a\u00af\u00e4\u00b8\u0122\u00e4\u00bd\u012f": 14220,
  "\u00e9\u013b\u00aa\u00e5\u013e\u00a8\u00e6\u0124\u00a8\u00e8\u00ba\u00ab\u00e8\u00be\u00b9": 13147,
  "\u0120\u00e5\u0136\u00af": 5656,
  "\u00e4\u00ba\u0133\u00e5\u012f\u0139": 9653,
  "\u0120\u00e7\u0125\u00a7": 15305,
  "\u00e7\u012a\u00b6": 764,
  "\u00e6\u012e\u0124\u00e4\u00ba\u0128": 10740,
  "\u0120\u00e5\u00b0\u00b1\u00e6\u013a\u00af\u00e5\u013d\u0142\u00e4\u00b8\u00ba": 6446,
  "\u00e5\u00b0\u00b1\u00e6\u013a\u00af\u00e5\u013d\u0142\u00e4\u00b8\u00ba": 5682,
  "\u00e5\u0131\u00af\u00e8\u0125\u00bd\u00e5\u00b0\u00b1\u00e6\u013a\u00af": 8587,
  "\u00e5\u012f\u00ab\u00e7\u0136\u0141": 3887,
  "\u00e6\u0131\u0131": 5051,
  "\u00e6\u013d\u00b4\u00e5\u00a4\u00a7\u00e7\u013c\u0126": 8899,
  "\u00e8\u0124\u012e\u00e8\u0124\u012b": 10842,
  "\u0120\u00e6\u013d": 1266,
  "\u0120\u00e5\u013d\u00a2\u00e9\u0137\u00bf": 11071,
  "\u0120\u00e7\u012b\u013d": 8310,
  "\u00e8\u00b1\u00b9": 7609,
  "\u00e5\u00b7\u00a5\u00e4\u00bd\u013e": 736,
  "\u0120\u00e6\u013a\u0130\u00e7\u013b\u00bd\u00e5\u0132\u0139": 6021,
  "\u00e9\u00ab": 434,
  "\u00b5": 52,
  "\u00e4\u00bc\u013c\u00e8\u00a7\u012b\u00e5\u00be\u0139": 7953,
  "\u00e5\u00b1\u00b1\u00e7\u013c\u0126": 8684,
  "\u00e7\u013f\u00a1\u00e5\u0132\u00a7": 12805,
  "\u00e5\u012e\u0138\u00e5\u0143\u00a6": 12618,
  "\u00e4\u00bd\u0142\u00e8\u00bf\u013b\u00e4\u00b9\u012a": 5827,
  "\u00e6\u0131\u0132\u00e8\u00b5\u00b7": 8646,
  "\u00e5\u00b9\u00b2\u00e5\u013a\u013d": 2636,
  "\u00e4\u00ba\u012e": 306,
  "\u00e4\u00ba\u00bf": 1235,
  "\u00e6\u0125\u00b3\u00e8\u00b5\u00b7\u00e6\u013f\u00a5": 7905,
  "\u00e9\u0135\u00b6\u00e8\u00a1\u012e\u00e7\u013c\u0126": 15742,
  "\u0120\u00e6\u00b2\u00a1\u00e5\u0127\u00b3\u00e7\u00b3\u00bb": 6366,
  "\u00e5\u0127\u00a2": 15051,
  "\u00e6\u013a\u0130\u00e7\u0131\u0142": 14299,
  "\u00e8\u00a1\u00b0": 7045,
  "\u0120\u00e4\u00bd\u0142\u00e7\u0130\u00b0\u00e5\u013e\u00a8": 2523,
  "\u0120\u00e5\u00b8\u0125": 12467,
  "\u00e5\u00b7\u00b4\u00e5\u00b7\u00b4": 10006,
  "\u00e5\u0129\u00bb\u00e6\u012a\u0138\u00e8\u0122\u0127\u00e5\u0131\u012e\u00e5\u0129\u00bb": 13125,
  "\u00e4\u00b8\u00bd": 1600,
  "\u00e5\u00b4\u00a9": 4900,
  "\u00e7\u012e": 791,
  "\u0120\u00e6\u012b\u00a7": 15357,
  "\u00e5\u00a4\u00a9\u00e6\u00b6\u00af": 14620,
  "\u00e6\u0136\u00bb": 2683,
  "\u00e9\u0135\u013e": 6549,
  "\u00e4\u00bb\u0122\u00e4\u00b9\u012a\u00e4\u00ba\u0128": 6692,
  "\u00e6\u012a\u00b4": 2315,
  "\u00e8\u0124\u00a4": 4177,
  "\u0120\u00e6\u0122\u0130\u00e4\u00b9\u012a\u00e6\u0142\u00b7": 3842,
  "\u00e5\u0123\u013c\u00e9\u0136\u013b\u00e4\u00ba\u0128": 12794,
  "\u00e9\u0137\u00bf\u00e7\u013d\u00b8": 10126,
  "\u00e5\u0132\u00b1": 11000,
  "\u0120\u00e8\u00bf\u013b\u00e4\u00b8\u00aa\u00e4\u00b8\u0138\u00e7\u0137\u012e": 14858,
  "\u00e7\u0136\u00b5\u00e8\u00a7\u0128\u00e5\u0131\u00b0": 11902,
  "\u00e6\u0143\u00a6\u00e8\u00a3\u0127": 13447,
  "\u00e4\u00ba\u012d\u00e6\u0125\u0127": 624,
  "\u00e6\u0124": 363,
  "\u00e5\u0127\u00ac\u00e4\u00bc\u0139\u00e5\u00be\u00ae\u00e4\u00bf\u00a1": 7845,
  "\u00e5\u00b0\u0128": 699,
  "\u0120\u00e6\u013e\u0122\u00e8\u00b5\u00b7\u00e7\u0142\u0123": 8576,
  "\u00e6\u013b\u013c\u00e4\u00ba\u0128": 5905,
  "\u00e5\u00ae\u012e\u00e6\u0137\u00b4\u00e7\u013c\u0126": 14331,
  "\u00e9\u0124\u00a3\u00e5\u00a4\u00a9": 2762,
  "\u00e5\u00b0\u00b1\u00e6\u013a\u00af\u00e5\u00be\u012a": 15129,
  "\u00e6\u0133\u0126\u00e5\u0125\u0131": 12475,
  "\u0120\u00e6\u013e\u012b\u00e7\u013c\u0126": 7316,
  "\u00e6\u013d\u00b4\u00e6\u013a\u00af": 7554,
  "\u00e9\u013c\u0131\u00e5\u0132\u0130": 14095,
  "\u00e7\u013c\u0126\u00e7\u0139\u0129": 12995,
  "\u00e5\u0127\u013c\u00e7\u013c\u0126": 13334,
  "\u00e5\u0131\u00af\u00e4\u00bb\u00a5\u00e5\u0137\u012c": 13554,
  "\u0120\u00e7\u0136\u013c\u00e8\u0129\u00b3": 2063,
  "\u0120\u00e8\u0125\u00bd\u00e5\u00a4\u0141": 4139,
  "\u0120\u00e4\u00bd\u0142\u00e8\u00bf\u013b\u00e4\u00b8\u00aa": 4143,
  "\u0120\u00e5\u0135\u00aa\u00e9\u0129\u012e": 12183,
  "\u00e5\u0127\u00a8\u00e6\u013a\u00af": 6898,
  "\u00e8\u00b7\u0141\u00e4\u00bb\u0138\u00e4\u00bb\u00ac": 5028,
  "\u00e6\u0143\u0129": 5402,
  "\u00e5\u0130\u00bb\u00e5\u012e\u00bb\u00e9\u013b\u00a2": 8461,
  "\u00e5\u00b1\u00a5": 9505,
  "\u00e8\u00b5\u0126\u00e4\u00ba\u00a7": 4558,
  "\u00e4\u00bd\u0142\u00e5\u00b0\u00b1\u00e6\u013a\u00af": 6775,
  "\u00e5\u0127\u00ab\u00e4\u00b8\u0129": 12108,
  "\u00e6\u013e\u012f\u00e4\u00bb\u0130": 13251,
  "\u00e6\u0139\u00a9\u00e6\u013b\u00a8": 8798,
  "\u00e4\u00ba\u012e\u00e9\u013d\u00b6\u00e9\u013d\u00b6": 5733,
  "\u00e5\u0129\u00ba\u00e9\u013f\u00a2": 15851,
  "\u00a9\u00e5\u00ba\u0131": 10437,
  "\u00e7\u013c\u0126\u00e4\u00b8\u0122\u00e4\u00b8\u00aa\u00e5\u00b0\u0131": 15731,
  "\u00e7\u0136\u013a\u00e5\u00bf\u0125": 7853,
  "\u00e7\u013e\u012d\u00e4\u00b8\u012f\u00e8\u00a7\u0123": 8698,
  "\u00e5\u0131\u00b7\u00e7\u0142\u0123": 7948,
  "\u00e8\u0143\u00a6\u00e5\u0133\u012c": 9097,
  "\u00e6\u00bb\u00b4": 3782,
  "\u0120\u00e8\u00bf\u013b\u00e4\u00b8\u00aa\u00e7\u0136\u00b7\u00e4\u00ba\u00ba": 14443,
  "\u00e5\u0133\u00bd\u00e7\u013c\u0126": 9729,
  "\u00e4\u00b8\u012b\u00e5\u012f\u0123\u00e4\u00b9\u013f": 15590,
  "\u00e5\u013e\u00a8\u00e5\u00a5\u00b9": 14891,
  "\u0120\u00e8\u00bf\u013b\u00e4\u00b9\u012a\u00e8\u00af\u00b4": 13978,
  "\u00e5\u00b8\u0124\u00e5\u013e\u00ba\u00e7\u013c\u0126": 8183,
  "\u00e4\u00b8\u012c\u00e7\u013e\u012d": 15425,
  "\u00bf": 62,
  "\u00e5\u013e\u00a8\u00e7\u00ba\u00bf": 13861,
  "\u00e7\u00a5\u0138\u00e5\u013d\u00bd": 15303,
  "\u00e6\u012a\u0133\u00e8\u00af\u00b4\u00e6\u012a\u0133": 13432,
  "\u00e5\u0131\u0133\u00e8\u00a8\u0122": 6093,
  "\u0120\u00e4\u00bd\u0142\u00e5\u0125\u0131": 13930,
  "\u00e4\u00b8\u012b\u00e5\u012a\u0128\u00e9\u0134\u0141": 8782,
  "\u00e5\u00a4\u012f\u00e4\u00b9\u0142": 13629,
  "\u00e7\u00ab\u0140": 4010,
  "\u00e6\u012d\u012e": 15202,
  "\u00e8\u0138\u0126": 4909,
  "\u00e6\u0137\u0133\u00e5\u0133\u00bd": 12000,
  "\u0120\u00e7\u013e\u0141\u00e7\u013c\u0126\u00e5\u0132\u0139": 13537,
  "\u00e7\u00b1": 854,
  "\u00e4\u00b8\u012d\u00e6\u00a5\u00bc": 15763,
  "\u00e6\u0138\u0129\u00e5\u0143\u00a6": 9468,
  "\u00e6\u0143\u012e\u00e6\u012b\u012d": 7679,
  "\u00e5\u012f\u0125": 751,
  "\u00e4\u00bc\u013a\u00e8\u00b4\u00a8": 13445,
  "\u00e6\u0143\u00bb\u00e5\u013e\u00a8": 12646,
  "\u0120\u00e6\u012a\u0133\u00e4\u00bb\u00ac\u00e4\u00b8\u012d\u00e6\u013e\u0141": 7475,
  "\u00e5\u00aa": 1173,
  "\u0120\u00e8\u00bf\u013b\u00e4\u00b8\u00aa\u00e6\u0137\u0127\u00e4\u00ba\u012d": 11843,
  "\u00e6\u0143\u00a5": 984,
  "\u00e6\u00b2\u00a6": 12065,
  "\u0120\u00e4\u00bd\u0142\u00e8\u00af\u00b4\u00e4\u00bd\u0142": 3294,
  "\u00e4\u00ba\u0136\u00e5\u00b9\u00b4": 3248,
  "\u00e4\u00b9\u013f\u00e5\u012f\u0123\u00e4\u00b9\u013f": 10290,
  "\u0120\u00e4\u00b9\u0141\u00e8\u00af\u00b7": 12896,
  "\u00e5\u012f\u0123\u00e5\u00b9\u00b4\u00e7\u013c\u0126": 8109,
  "\u00e7\u013f\u0122\u00e7\u013e\u00bc\u00e7\u013f\u013d": 15201,
  "\u00e9\u0139\u0143\u00e4\u00b8\u012c": 8927,
  "\u00e9\u0122\u0124\u00e5\u00bd\u0135\u00e7\u013c\u0126": 14566,
  "\u00e4\u00b8\u0122\u00e5\u0132\u012f": 5015,
  "\u00e5\u00b8\u00a6\u00e5\u00a5\u00b9": 14711,
  "\u00e5\u00a6\u0124\u00e5\u0132\u012e": 11028,
  "\u00e5\u0129\u0142\u00e7\u013b\u00be": 10089,
  "\u00e6\u00a1\u012a\u00e5\u0143\u0132": 5574,
  "\u00e5\u00a5\u0129\u00e5\u00a6\u013b": 8505,
  "\u00e9\u0122\u00bb\u00e8\u00be\u0133": 7388,
  "\u00e8\u00bf\u012a": 6298,
  "\u00e6\u013d\u00be\u00e7\u00bb\u0131\u00e8\u00af\u00b4\u00e8\u00bf\u0129": 15264,
  "\u0120\u00e9\u013a\u00bf\u00e5\u00a7\u00a8": 6313,
  "\u00e5\u0141\u0141": 2568,
  "\u00e8\u00bf\u013b\u00e4\u00b8\u00aa\u00e9\u0134\u00b1": 12240,
  "\u00e5\u0131\u00b7\u00e5\u0134\u012e": 15361,
  "\u00e7\u013c\u0126\u00e8\u00a6\u0123\u00e6\u00b1\u0124": 9226,
  "\u0120\u00e4\u00bd\u0142\u00e8\u00af\u00b4\u00e4\u00bb\u0122\u00e4\u00b9\u012a": 8171,
  "\u00e7\u013d\u00be": 3235,
  "\u00e9\u013b": 284,
  "\u00e8\u0124\u0129": 14590,
  "\u00e7\u0136\u0141\u00e4\u00ba\u0128": 6864,
  "\u0120\u00e4\u00bb\u0138\u00e7\u0141\u00a5\u00e9\u0123\u0135": 15128,
  "\u0120\u00e8\u00b6\u012c": 4006,
[...]
