{
  "好吧": 11092,
  "第二次": 16864,
  "▁verder.": 18873,
  "▁choose": 13878,
  "醺": 5768,
  "▁这要是": 37246,
  "▁verkeers": 16197,
  "▁cupcakes": 41095,
  "▁zet": 7422,
  "无需": 27419,
  "ze": 8408,
  "munt": 39981,
  "馊": 6159,
  "ת": 274,
  "▁truck.": 9639,
  "▁sure": 7312,
  "融入": 28989,
  "▁因为我们": 13585,
  "僻": 1264,
  "▁你还是": 17242,
  "嬅": 2105,
  "三百六十五天天天": 29412,
  "传统": 13088,
  "▁party,": 45274,
  "应该有": 23971,
  "▁onderdelen": 13830,
  "那儿": 8740,
  "玫瑰花": 37993,
  "给人家": 23936,
  "▁'kay": 31913,
  "▁maria": 10468,
  "▁*chi:\t[pull": 47518,
  "55": 23335,
  "逢": 5652,
  "婆": 2074,
  "zsa": 17333,
  "越多": 20080,
  "▁gevormd": 14360,
  "▁omgeving": 11890,
  "还不能": 27725,
  "我们这边": 31519,
  "ж": 210,
  "▁*chi:\tyup": 10800,
  "踹": 5522,
  "sometimes": 38621,
  "▁*mot:\tew": 39207,
  "▁katja": 34288,
  "▁genomineerd": 38196,
  "秆": 4278,
  "▁*mot:\thooray": 41142,
  "心跳": 31998,
  "▁*mot:\ti've": 10643,
  "拿到了": 29456,
  "...": 6515,
  "将就": 31353,
  "▁daarom": 7169,
  "消灭": 22766,
  "\tikke": 25013,
  "楼梯": 23848,
  "平衡": 15722,
  "点上": 30487,
  "▁persoonlijk": 27939,
  "▁natuurkundige": 42376,
  "▁tanks": 43418,
  "eh.": 17516,
  "▁今晚就和大家分享到这": 24910,
  "认证": 44927,
  "fase": 32004,
  "追上": 33979,
  "别急": 26185,
  "adrianus": 13582,
  "cre": 18436,
  "衣裳": 39388,
  "很可能": 20849,
  "▁这儿": 28331,
  "大涨": 37571,
  "▁brother's": 39384,
  "街头": 25797,
  "药业": 45177,
  "▁alternative": 33871,
  "还剩": 37718,
  "▁dobbelsteen": 47474,
  "▁knvb": 47846,
  "cirkel": 34534,
  "哽": 1689,
  "3-15": 23038,
  "▁red.": 11148,
  "揭晓": 46160,
  "▁toename": 18453,
  "面膜": 32612,
  "▁ervoor": 8257,
  "频道": 24555,
  "▁sneeuw": 9717,
  "的那种感觉": 34630,
  "一共": 14893,
  "vlek": 44903,
  "▁verschillende": 6884,
  "▁changed.": 42659,
  "想见": 28558,
  "ier": 11701,
  "这个女人": 11797,
  "貉": 5400,
  "really": 47547,
  "▁problem": 10259,
  "▁bedroom": 15368,
  "▁这里有": 29901,
  "喹": 1756,
  "好办法": 39366,
  "▁[shakes": 20851,
  "tion": 19966,
  "▁y'": 14857,
  "karel": 46806,
  "企业": 7776,
  "▁moeder": 7067,
  "▁最起码": 20004,
  "解": 5247,
  "你看这": 31214,
  "▁wherever": 31397,
  "蔓": 5020,
  "college": 42569,
  "万元": 12332,
  "▁splashing": 40312,
  "ala": 17908,
  "擢": 2899,
  "▁pear.": 38206,
  "lijn": 9570,
  "\tdaar": 8958,
  "戴": 2651,
  "谢谢你": 13208,
  "苷": 4883,
  "▁'em.": 12671,
  "▁dust": 26361,
  "五岁": 21301,
  ".\nna": 34190,
  "▁koninkrijk.": 30563,
  "▁eat.": 10767,
  "▁我是彼岸": 32053,
  "那个东西": 39743,
  "会影响": 30528,
  "▁zestig": 21387,
  "▁因为在": 29839,
  "7.000": 39474,
  "▁lettergrepen": 43677,
  "plein": 15690,
  "有女朋友": 35874,
  "▁gary": 30745,
  "▁*mot:\tthis": 7148,
  "▁*chi:\tchair.": 43386,
  "▁course": 7961,
  "ballen": 22549,
  "▁然后他就": 15621,
  "才对": 35977,
  "▁beet": 22107,
  "▁bevolkingsgroep": 39506,
  "▁droegen": 30135,
  "一点儿都不": 25210,
  "▁kerncentrale": 42788,
  "▁offers": 34901,
  "▁rugzak": 26682,
  "▁fotosynthese": 42532,
  "▁laarzen": 34573,
  "这个钱": 19153,
  "零零": 26591,
  "妻": 2029,
  "老头儿": 32228,
  "▁*cds:\twhere": 35286,
  "来不及了": 26912,
  "到头来": 39640,
  "搬": 2857,
  "孔": 2113,
  "现代": 13914,
  "距": 5497,
  "▁schaam": 33106,
  "经理": 11614,
  "塑造": 23496,
  "学科": 36611,
  "86": 21143,
  "▁*mot:\tball.": 39886,
  "假如": 28287,
  "▁begon": 7740,
  "季节": 20718,
  "的核心": 27320,
  "垄断": 45770,
  "淘汰": 29818,
  "莜": 4943,
  "饿了": 16580,
  "▁doof": 34656,
  "▁没成想": 35178,
  "辉": 5575,
  "平庸": 32743,
  "\thier.\n*": 42011,
  "ierse": 25249,
  "盛": 4099,
  "▁regel": 10819,
  "▁tover": 15830,
  "▁popped": 21881,
  "sproductiviteit": 42607,
  "在这种情况下": 45902,
  "verandering": 16832,
  "▁burst": 46522,
  "▁lekker": 7416,
  "▁*chi:\tclimb": 46415,
  "构成": 23544,
  "▁strafrecht": 45004,
  "▁opname": 28744,
  "当务之急": 44121,
  "▁laken": 32390,
  "▁[starts": 19852,
  "0": 23,
  "不爱听": 43056,
  "▁schoonmaken": 29314,
  "▁gecontroleerd": 30843,
  "说的": 8534,
  "weliswaar": 41823,
  "▁weather": 17548,
  "▁noord-holland": 24326,
  "▁mumbles": 30985,
  "▁*chi:\tgood.": 22741,
  "▁rush": 27886,
  "一致": 14654,
  "查": 3132,
  "love": 39264,
  "▁hormonen": 42783,
  "keltische": 41515,
  "说句不好听的": 30891,
  "▁tv]": 17277,
  "▁126": 27469,
  "▁heette": 13104,
  "sters": 19164,
  "辕": 5582,
  "兴奋": 17637,
  "▁*chi:\tmo": 35585,
  "身体健康": 32270,
  "▁然后我说": 37945,
  "▁geschikte": 37519,
  "▁weerbericht": 44716,
  "▁zwart": 10558,
  "感知": 38865,
  "▁haarlem": 26215,
  "▁oneerlijk": 41821,
  "乞": 1028,
  "please": 24307,
  "&": 13,
  "▁waterleiding": 46663,
  "▁verwijderen": 25240,
  "也一样": 27559,
  "路": 5503,
  "看见": 8442,
  "疤": 4005,
  "珍贵": 20256,
  "▁hello,": 35272,
  "▁doll": 9272,
  "不敢": 8532,
  "发": 1528,
  "▁*mar:\ti'm": 41256,
  "▁doin'?": 13740,
  "户外": 42321,
  "▁*mot:\tbuzz": 38486,
  "实在是太": 22892,
  "▁*chi:\t[grunts]": 23415,
  "人生中": 31175,
  "▁vera": 28504,
  "篾": 4419,
  "过分": 15084,
  "ub": 18606,
  "十几": 22100,
  "立足": 46858,
  "濛": 3666,
  "moderne": 39446,
  "花样": 34608,
  "▁lastig": 12963,
  "▁hebben?": 33320,
  "设立": 26064,
  "47": 19154,
  "我一定": 22524,
  "♦": 846,
  "ព": 482,
  "▁krispies": 38656,
  "15": 13206,
  "没有任何关系": 47522,
  "▁medicijnen": 17409,
  "跟我说": 7937,
  "▁ns": 26279,
  "▁cilinder": 36217,
  "\tzeg": 32618,
  "唠叨": 33863,
  "莫斯科": 47693,
  "身边的": 20184,
  "▁verkeerd": 19035,
  "▁kristallen": 45563,
  "来自": 10665,
  "从来没": 15864,
  "▁beker": 14189,
  "▁commitment": 44588,
  "▁socks": 13096,
  "里面的": 19731,
  "频": 6102,
  "物理": 23642,
  "要找": 19627,
  "▁bugger": 47094,
  "着他": 16931,
  "▁issue": 16825,
  "▁foods": 34627,
  "▁[sound": 18184,
  "▁ezel": 18263,
  "▁欢迎你": 28087,
  "一位": 8851,
  "▁gingerbread": 32306,
  "首席": 26139,
  "▁fund": 29284,
  "▁weggehaald": 37171,
  "购买": 13239,
  "涔": 3508,
  "天津": 18765,
  "▁顾": 812,
  "ad": 10912,
  "omme": 28933,
  "trui": 43978,
  "▁*chi:\twh": 37493,
  "▁38": 19591,
  "▁emissie": 39979,
  "▁spin": 12353,
  "这句话": 10529,
  "逾": 5661,
  "▁ras": 21217,
  "▁genomen": 13537,
  "▁狐狸": 23767,
  "▁1913": 44053,
  "顿时": 30614,
  "泣": 3440,
  "传说中的": 38907,
  "多大": 11863,
  "或者": 7480,
  "▁parlement.": 30966,
  "貂": 5398,
  "▁prof": 30811,
  "tank": 30689,
  "▁'daar": 14177,
  "精彩": 13942,
  "▁voorwaarde": 29426,
  "▁verslaggever": 26423,
  "羟": 4615,
  "▁stop": 7600,
  "▁*inv:\thm": 16403,
  "▁此时": 21499,
  "原谅我": 24311,
  "▁dolfijn": 33611,
  "▁tomaat": 44281,
  "很强": 23968,
  "馐": 6163,
  "铁路": 16090,
  "▁wendy": 22926,
  "😭": 6428,
  "眼皮": 38461,
  "被告人": 40216,
  "lepel": 33650,
  "▁goofy": 32080,
  "▁70": 15231,
  "您别": 29517,
  "喱": 1752,
  "▁woord.": 25536,
  "▁ob": 26453,
  "▁*chi:\tco": 33666,
  "▁while": 7487,
  "平日里": 46541,
  "న": 351,
  "不睡觉": 34356,
  "走廊": 37819,
  "▁looking": 7070,
  "▁*inv:\the": 10581,
  "邬": 5700,
  "▁long": 7016,
  "▁*mot:\tbe": 10484,
  "机械": 24638,
  "恹": 2537,
  "▁erom": 35224,
  "進": 5655,
  "-orthodoxe": 45818,
  "▁mot": 7058,
  "▁bepaalde": 8450,
  "群体": 21573,
  "无非就是": 34740,
  "basis": 26498,
  "所说": 25524,
  "chloride": 28239,
  "我媳妇": 31009,
  "捆": 2781,
  "透明": 33357,
  "茫": 4901,
  "tell": 14088,
  "蜍": 5118,
  "▁geboren.": 24349,
  "▁store.": 18151,
  "fort": 30654,
  "环比": 21901,
  "▁purdie": 12541,
  "把它": 8209,
  "不早了": 33746,
  "▁fluit": 22461,
  "▁luchtvaart": 25994,
  "全程": 30461,
  "▁这个是": 15194,
  "头发": 10740,
  "的笑容": 36106,
  "俄罗斯": 20787,
  "霸王": 36706,
  "艺人": 22159,
  "▁juf": 8942,
  "maan": 29393,
  "瞭": 4158,
  "groei": 17034,
  "破绽": 46812,
  "▁我把": 16034,
  "韶": 6080,
  "▁zaterdag": 13343,
  "要吃": 25786,
  "▁vormen.": 31007,
  "住": 1140,
  "▁*mot:\tthese": 12454,
  "酱": 5751,
  "▁[1.2": 31222,
  "清华大学": 46760,
  "宫殿": 45510,
  "新官肺炎疫情": 31104,
  "▁leefde": 15513,
  "▁*mot:\t⌊": 33675,
  "一次机会": 26236,
  "自己的生活": 23500,
  "工资": 10783,
  "▁*chi:\tcan": 7386,
  "▁0,9": 39075,
  "▁man]": 22206,
  "▁guy.": 16912,
  "闸": 5927,
  "思念": 22979,
  "plicht": 34908,
  "▁verlaten": 18188,
  "你一个人": 23601,
  "信用卡": 24967,
  "进程": 39881,
  "▁北京": 18956,
  "▁*chi:\tgood": 14102,
  "三个": 8684,
  "梳": 3200,
  "▁[whispers].": 15938,
  "芸": 4859,
  "▁iphone": 44595,
  "lijnen": 22701,
  "但是他": 29260,
  "荷兰": 43405,
  "肯定是": 10075,
  "涨幅": 15816,
  "▁honest": 23712,
  "匪": 1455,
  "▁syndroom": 41314,
  "its": 17820,
  "uv": 39159,
  "▁*obs:\t": 39247,
  "▁fit": 8219,
  "婺": 2087,
  "▁hengel": 44279,
  "mensen": 20142,
  "傻子": 18908,
  "𝗔": 6387,
  "▁*par:\tso": 18982,
  "waaruit": 15807,
  "▁beep.": 22809,
  "quack": 45955,
  "▁gouda": 43661,
  "▁subsidie": 30031,
  "▁jongere": 21865,
  "filter": 45150,
  "囵": 1843,
  "klasse": 21952,
  "ung": 17454,
  "er,": 24213,
  "伤感": 39611,
  "lengte": 31282,
  "我们已经": 28942,
  "while": 40456,
  "▁mix": 12806,
  "▁ontstaat.": 34279,
  "▁opgeruimd": 41348,
  "reclame": 47153,
  "▁zomervakantie": 32128,
  "▁prettig": 24986,
  "yn": 16124,
  "难受": 10481,
  "▁ruimtestation": 45847,
  "还行吧": 37157,
  "rain": 23831,
  "gebouwd": 23302,
  "第三方": 42872,
  "地板": 34205,
  "听节目": 34735,
  "筹码": 47433,
  "喟": 1750,
  "▁crawls": 22703,
  "休息": 9023,
  "身旁": 31846,
  "特派员": 28058,
  "两条": 21034,
  "深情": 28557,
  "在这个": 9207,
  "相互": 12467,
  "zel": 16372,
  "▁*chi:\t[sneezes]": 35534,
  "▁(148": 40584,
  "无赖": 45851,
  "克斯": 32366,
  "不可": 8906,
  "▁golf": 11242,
  "会出现": 16368,
  "很多": 7123,
  "痛": 4030,
  "▁daisy.": 20414,
  "拒绝": 9568,
  "蔵": 5026,
  "▁coughing": 39061,
  "惑": 2567,
  "orgel": 41210,
  "▁intend": 44057,
  "悲痛": 46833,
  "▁circus.": 46215,
  "▁meant": 12944,
  "西红柿": 43858,
  "脑": 4740,
  "▁verlaat": 32939,
  "憋屈": 40534,
  "喔": 1745,
  "袈": 5189,
  "猛": 3841,
  "▁*chi:\toff": 47967,
  "mol": 32814,
  "歘": 3303,
  "小姨": 32744,
  "▁beslissen": 23229,
  "都不是": 16713,
  "▁hits": 16089,
  "雯": 6021,
  "积蓄": 33756,
  "▁ambulance": 15021,
  "ち": 907,
  "想让你": 23622,
  "biologische": 26703,
  "▁gent": 24992,
  "试过": 35467,
  "▁decennia": 44817,
  "▁greep": 21086,
  "▁verpakking": 25077,
  "▁*chi:\tuhhuh.": 8917,
  "浠": 3492,
  "tig": 17489,
  "芳": 4857,
  "fabrieken": 38857,
  "训": 5276,
  "▁etalage": 46171,
  "干吗呀": 14328,
  "不小心": 14877,
  "▁但是现在": 18785,
  ".\n*mother:\tde": 19880,
  "▁*chi:\t[laughs]": 7102,
  "▁stacker": 22368,
  "求你": 20221,
  "▁everything,": 45868,
  "额度": 38319,
  "钤": 5806,
  "至今": 15428,
  "的美": 26882,
  "eren,": 31485,
  "6-10": 23236,
  "▁grijpen": 34412,
  "管理": 8304,
  "▁geb": 28228,
  "把这个": 8877,
  "鳖": 6271,
  "▁task": 25388,
  "不要": 7170,
  "张": 2411,
  "旯": 2974,
  "wachter": 31406,
  "▁%add:\tchi": 8446,
  "▁weight": 19678,
  "/making": 47962,
  "鬟": 6229,
  "老是": 14101,
  "▁strakke": 44415,
  "磋": 4230,
  "▁gieren": 46771,
  "正经": 17555,
  "▁*gma:\tlook": 45727,
  "▁你快": 19999,
  "▁我跟你": 19855,
  "张爱玲": 44836,
  "▁如果你觉得": 39941,
  "▁救命啊": 34343,
  "\tdie": 7452,
  "▁log": 14132,
  "▁publicatie": 40342,
  "把我们": 15481,
  "去追求": 37784,
  "喜欢吃": 18028,
  "▁68": 36030,
  "\tkan": 11332,
  "▁pvv": 26931,
  "▁*chi:\twhoa": 29244,
  "▁aangeboden": 24829,
  "漉": 3623,
  "男人和女人": 45772,
  "驮": 6175,
  "▁harry": 12285,
  "▁arm.": 14924,
  "▁financien": 38677,
  "▁*chi:\tshe's": 11067,
  "▁*chi:\tbeep": 31249,
  "快起来": 35256,
  "审理": 38779,
  "当我": 17421,
  "▁*chi:\tdrink": 32765,
  "▁buitenkant": 25892,
  "▁jochem": 23924,
  "▁migranten": 30267,
  "和他们": 27809,
  "fil": 41290,
  "升级": 16575,
  "咔": 1636,
  "你的": 6922,
  "▁tai": 35617,
  "▁eyes]": 42906,
  "▁said.": 14669,
  "▁send": 11746,
  "▁tights": 40848,
  "如今": 13533,
  "砂": 4181,
  "▁stairs.": 18699,
  "▁*chi:\tha": 18701,
  "▁vriendjes": 39312,
  "▁milieu": 11113,
  "说得好": 25911,
  "碰": 4222,
  "括": 2742,
  "▁binding": 42555,
  "璃": 3933,
  "偷袭": 45236,
  "家中": 21633,
  ".\n*father:\tmaar": 36984,
  "锨": 5877,
  "gaf": 44236,
  "市场": 7495,
  "▁zenuwachtig": 25325,
  "大概有": 33128,
  "仪": 1097,
  "buiten": 25549,
  "渴望": 12883,
  "▁*hhh:\t": 41050,
  "▁fei": 41327,
  "懒": 2628,
  "逍遥": 34320,
  "诳": 5334,
  "爱上": 14692,
  "▁height": 42603,
  "▁reading]": 46189,
  "讽": 5289,
  "▁还好": 21501,
  "\nbuurtschappen:": 44349,
  "演讲": 22691,
  "▁warmte": 12970,
  "▁protesten": 24506,
  "meisje": 32060,
  "▁*par:\tand": 11934,
  "端": 4350,
  "注": 3442,
  "占领": 32695,
  "▁voice]": 13145,
  "plak": 45041,
  "▁dear.": 7682,
  "▁doet": 7003,
  "无私": 44420,
  "▁*mot:\tfor": 11427,
  "健康": 8799,
  "▁grootte": 16929,
  "瓜": 3946,
  "▁*chi:\tdoggie": 29728,
  "bei": 43815,
  "▁economy": 35668,
  "一直没有": 24149,
  "▁cream?": 29770,
  "再一次": 19935,
  "便利": 34231,
  "▁*chi:\tthis.": 19151,
  "▁nobody's": 40615,
  "▁emergency": 38389,
  "▁goud": 9619,
  "nie": 14003,
  "▁pech": 27533,
  "▁invest": 46839,
  "怕他": 23418,
  "▁rattle": 18857,
  "ʲ": 165,
  "跳舞": 15013,
  "▁democratisch": 35830,
  "▁*chi:\tmhm.": 7332,
  "▁train.": 9835,
  "砍": 4183,
  "▁都": 805,
  "kosten": 13245,
  "▁hospital": 13146,
  "win": 18577,
  "▁akkers": 32247,
  "oloog": 34567,
  "偏": 1239,
  "▁candy.": 28167,
  "哐": 1669,
  "删掉": 36545,
  "▁*exp:\t": 7393,
  "做成": 22025,
  "▁workshop": 41809,
  "▁*chi:\thim": 31290,
  "▁afgevaardigden": 30750,
  "▁speeksel": 35210,
  "▁brengt": 13378,
  "▁geladen": 37699,
  "奢侈品": 40976,
  "▁aanraken": 47384,
  "▁chapter": 38394,
  "鑫": 5787,
  "operatie": 43616,
  "成为": 7710,
  "▁quiet": 11464,
  "给我们带来": 44081,
  "一层": 19268,
  "▁*inv:\tanything": 17896,
  "部长": 18460,
  "▁gezegd": 9687,
  "▁doorsnede": 33503,
  "▁gebak": 43433,
  "皇子": 33416,
  "glo": 32024,
  "▁veronderstel": 35344,
  "▁sugar": 11828,
  "的表现": 15240,
  "得好好": 26221,
  "差异": 23985,
  "焗": 3736,
  "受不了了": 30418,
  "▁monet": 43701,
  "分享一下": 30791,
  "▁这里是星球会客厅": 45105,
  "▁geldt": 10815,
  "明玉": 36883,
  "▁problem.": 19309,
  "于": 1043,
  "▁bladzijde": 12945,
  "工作上": 24328,
  "▁tweetal": 36993,
  "洲": 3468,
  "haai": 31072,
  "▁whoops": 39206,
  "找到一个": 29782,
  "访": 5291,
  "▁gebruikt": 6982,
  "火焰": 33677,
  "▁*jen:\t": 11155,
  "仍然": 11315,
  "外国": 21302,
  "▁*lau:\tokay": 40551,
  "ice": 12690,
  "▁traan": 44148,
  "▁quack.": 21920,
  "guh.": 45519,
  "据": 2796,
  "▁will": 6660,
  "kasteel": 42812,
  "▁i'": 36492,
  "揄": 2829,
  "烬": 3726,
  "这样说": 21591,
  "一些问题": 29332,
  "▁barbara": 22952,
  "挨": 2772,
  "▁onhandig": 39770,
  "▁waarschuwt": 38672,
  "现在就是": 19162,
  "境": 1934,
  "▁vangen": 18588,
  "▁skirt": 25243,
  "▁bob": 9112,
  "吵醒": 46496,
  "▁fed": 23052,
  "结构": 13960,
  "▁于是": 8651,
  "我也想": 30408,
  "▁happy.": 17558,
  "right": 17132,
  "s'": 16452,
  "在我面前": 28158,
  "▁geschreven": 9741,
  "▁areas": 16865,
  "▁avond": 10711,
  "单位": 9599,
  "沮": 3418,
  "血管": 28574,
  "▁tassen": 38358,
  "电商": 25782,
  "▁*chi:\tye": 45490,
  "三千块钱": 41496,
  "找回": 32531,
  "为什么呢": 26548,
  "▁dry": 11605,
  "学霸": 30497,
  "▁eikel": 47012,
  "▁*mot:\twasn't": 42236,
  "▁five": 6949,
  "晦": 3016,
  "▁reptielen": 28503,
  "开头": 33965,
  "纠正": 43270,
  "▁[no": 16597,
  "▁seven": 7845,
  "▁你刚才": 22046,
  "蒸": 5005,
  "es?": 35606,
  "其实挺": 39742,
  "改变了": 23326,
  "droog": 41144,
  "▁rebecca": 37377,
  "▁plantaardig": 42983,
  "▁nina.": 38081,
  "\tja!\n*": 46328,
  "▁high": 8281,
  "贫穷": 33441,
  "▁lamp": 12159,
  "说什么了": 30587,
  "在路边": 42313,
  "温和": 32133,
  "duwde": 27293,
  "翘": 4630,
  "▁micro": 19804,
  "▁hard.": 11615,
  "▁一开始": 23071,
  "其实是": 12050,
  "▁voortplantings": 41827,
  "灯光": 31447,
  "▁*mot:\tif": 8412,
  "spons": 41364,
  "▁*mot:\tsix": 36335,
  "长的": 20674,
  "gestuurd": 27816,
  "▁*mot:\ttoday": 37967,
  "拒绝了": 22709,
  "把我给": 28312,
  "不不不": 19504,
  "▁jongens": 8470,
  "翱": 4636,
  "霸道": 36651,
  "eisen": 42809,
  "巨人": 37708,
  "准确": 16128,
  "二零二零": 36488,
  "ip": 14290,
  "▁trick": 20031,
  "麝": 6327,
  "我们这个": 16576,
  "4]": 13801,
  "大多数人": 27061,
  "▁carried": 20396,
  "▁aanvoerder": 47095,
  "▁setting": 26742,
  "▁[he": 16336,
  "▁*chi:\tblack.": 43333,
  "▁你这": 8493,
  "▁winky": 34781,
  "羞": 4614,
  "▁(4": 23841,
  "寂静": 45351,
  "▁stripes": 28375,
  "找个地方": 45612,
  "又如何": 37321,
  "▁*gra:\t": 8520,
  "▁plezier": 16195,
  "应该不会": 33198,
  "刺": 1386,
  "保住": 27750,
  "你这么": 21399,
  "初期": 38712,
  "▁zoals": 6799,
  "▁engine?": 37045,
  "6.000": 36506,
  "946)": 37030,
  "▁car,": 20159,
  "3-4": 39176,
  "其中": 11680,
  "▁'nou": 11899,
  "在郑州": 42267,
  "tamelijk": 45060,
  "解释一下": 28168,
  "真心话": 43444,
  "活下来": 41023,
  "▁那么这个": 28622,
  "▁correctly": 44098,
  "昏迷": 30410,
  "▁laad": 34903,
  "▁*chi:\tjwww": 20464,
  "该不该": 34603,
  "nneke": 33151,
  "▁nederlands": 8489,
  "▁terrible.": 38379,
  "▁poging": 24890,
  "¨": 109,
  "▁vezels": 44235,
  "全民": 39530,
  "treinen": 38911,
  "▁com": 13883,
  "充实": 32915,
  "过了": 8126,
  "▁*chi:\tdraw": 32624,
  "▁也不知道": 17584,
  "▁bestudeer": 32313,
  "▁duurt": 10190,
  "▁gabriel": 26734,
  "酱油": 40427,
  "蜮": 5129,
  "▁picnic": 21003,
  "最新": 16374,
  "不愧是": 37988,
  "▁gebruikmaken": 26240,
  "就说": 8660,
  "搜": 2853,
  "▁football": 11334,
  "▁shi": 21830,
  "▁*chi:\tsausage": 47395,
  "▁哎你": 12521,
  "color": 45723,
  "▁spent": 19793,
  "点一下": 33377,
  "platen": 32074,
  "okee": 40334,
  "▁nintendo": 31650,
  "人民医院": 38823,
  "世间": 17385,
  "▁attention]": 45285,
  "▁adelaar": 47418,
  "茎": 4894,
  "市场的": 22429,
  "▁stroom": 10404,
  "ok": 17539,
  "传媒": 30704,
  "两千块钱": 37228,
  "▁zaden": 20923,
  "▁48": 21382,
  "▁stayed": 16217,
  "▁missing": 13524,
  "▁我这": 9003,
  "精神病": 34978,
  "▁carefully.": 37455,
  "没听过": 40227,
  "感觉到": 11918,
  "▁voorganger": 39999,
  "4.": 41867,
  "▁did": 6568,
  "▁advance": 28235,
  "⠀": 865,
  "糟糕": 16880,
  "▁league": 15460,
  "people": 47821,
  "蛀": 5092,
  "很多朋友": 33854,
  "教导": 23663,
  "巢": 2302,
  "▁你会": 10653,
  "出事": 24390,
  "ve": 7736,
  "steef": 47954,
  "▁kinderen:\n\n": 40917,
  "cc": 26745,
  "付出了": 26459,
  "ville": 19814,
  ".\n*mother:\tnu": 42629,
  "眈": 4111,
  "套路": 18426,
  "lz.": 21008,
  "nationaal": 47984,
  "摄入": 46679,
  "对你说": 35103,
  "midden": 37438,
  "▁dy": 29869,
  "▁europeanen": 35267,
  "▁toolbox": 38393,
  "▁janneke": 15487,
  "▁zaak": 17169,
  "▁pencil": 16256,
  "寰": 2190,
  "李梅": 45475,
  "▁pion": 47558,
  "崇拜": 26050,
  "还不是": 18977,
  "是一个很": 17981,
  "▁afleiding": 22857,
  "morgen": 22686,
  "跟踪": 20121,
  "▁*bud:\t": 45794,
  "nos": 33443,
  "▁cuddle.": 45160,
  "▁black.": 21661,
  "▁body.": 31283,
  "lid": 15954,
  "▁你怎么了": 29975,
  "▁psycho": 35216,
  "▁(voor": 25014,
  "▁*chi:\tgr": 43997,
  "▁zebra.": 27767,
  "侠": 1177,
  "places": 26166,
  "▁*chi:\tball.": 20321,
  "有什么用啊": 31528,
  "qui": 23810,
  "▁本节目由": 36478,
  "▁stove": 22070,
  "住房": 23208,
  "五万块钱": 40827,
  "每月": 34157,
  "target_child:\teh": 36893,
  "▁spoon": 11156,
  "哈": 1664,
  "这这这": 27224,
  "▁*tea:\tnow": 32877,
  "▁conclusies": 38745,
  "地上": 12356,
  "下午": 9512,
  "beeld": 14699,
  "▁eyes": 8687,
  "分享的文章": 42092,
  "丰盛": 46291,
  "▁*mot:\tmolly": 42021,
  "▁vooruit": 13858,
  "他不": 21410,
  "送上": 30452,
  "▁我都": 9340,
  "往来": 30923,
  "五十块钱": 39671,
  "傻傻": 45556,
  "ah!": 32938,
  "▁*sis:\tyeah": 17885,
  "在他的": 18041,
  "▁jeremy": 35034,
  "齊": 6355,
  "小人": 26352,
  "31)": 24850,
  "锭": 5878,
  "篌": 4408,
  "珑": 3887,
  "▁*chi:\tyellow.": 20828,
  "相伴": 34317,
  "▁crying.": 15321,
  "娅": 2055,
  "有种": 30964,
  "▁geoefend": 45826,
  "遁": 5662,
  "暄": 3027,
  "▁fosfor": 45901,
  "我想": 8437,
  "▁*mot:\tcareful": 17095,
  "面试": 21400,
  "adres": 42866,
  "房贷": 30500,
  "▁你别": 9069,
  "当着": 18766,
  "疑似": 42556,
  "苑": 4868,
  "vi": 11036,
  "▁debate": 23997,
  "改变不了": 37329,
  "看电视": 21042,
  "cat": 34397,
  "演绎": 39483,
  "▁box.]": 26544,
  "七十": 10916,
  "▁pages.": 34355,
  "▁italie.": 28589,
  "▁很多": 13754,
  "有序": 34363,
  "▁metalen": 16793,
  "光彩": 43564,
  "桶": 3185,
  "试卷": 42990,
  "▁plant": 9174,
  "▁*mot:\tthat'll": 37645,
  "▁*chi:\tmu": 45086,
  "是对": 25285,
  "只需": 46747,
  "▁weekend.": 34604,
  "▁remember.": 17857,
  "吹牛": 33708,
  "ol": 9825,
  "▁add": 14230,
  "▁terugkeer": 37953,
  "▁[sitting": 46626,
  "▁natuurgebieden": 38846,
  "几年": 10925,
  "▁太阳": 26924,
  "▁gentle.": 43065,
  "▁这都是": 19055,
  "kopen": 26470,
  "洹": 3470,
  "许": 5285,
  "▁insuline": 41116,
  ".\n\n\"": 38413,
  "饽": 6151,
  "▁oke": 23465,
  "莉": 4939,
  "传承": 21321,
  "郑州": 25093,
  "子女": 20113,
  "▁mess.": 14318,
  "▁geleidelijk": 40190,
  "▁hakken": 39648,
  "离婚": 7515,
  "▁vase": 41591,
  "▁mini-": 47768,
  "benjy": 45206,
  "▁*fat:\tthis": 15592,
  "▁本次": 22827,
  "▁voed": 36446,
  "蝙": 5140,
  "▁kathryn": 44007,
  "hc": 41852,
  "dood": 36354,
  "4-8": 27486,
  "十几个": 39404,
  "写字": 28822,
  "饰演": 46888,
  "▁*mot:\tuse": 33132,
  "车祸": 24382,
  "鞍": 6065,
  "明显": 10915,
  "geef": 18895,
  "▁[talking": 21224,
  "▁aantekeningen": 34358,
  "通话": 33454,
  "所以说": 19930,
  "▁koets": 31168,
  "脚印": 37341,
  "三十岁": 12912,
  "▁vliegveld": 17193,
  "niks": 47119,
  "写完": 34472,
  "▁roer": 24594,
  "舰": 4819,
  "?\nin": 28460,
  "▁aankoop": 34112,
  "▁makkelijk": 10830,
  "▁geholpen": 19479,
  "𝗩": 6396,
  "等候": 40595,
  "▁roof": 14430,
  "▁*mch:\the": 27025,
  "睡衣": 44315,
  "一个故事": 26186,
  "academie": 47246,
  "这位朋友": 35727,
  "好想你": 42032,
  "▁metingen": 34393,
  "▁civil": 30097,
  "内裤": 42625,
  "▁comite": 40881,
  "▁fors": 42882,
  "▁super": 8166,
  "-2": 20190,
  "▁joods": 34885,
  "▁(ver": 21037,
  "跟他结婚": 40419,
  "▁onderste": 28860,
  "教主": 38225,
  "噶": 1817,
  "republiek": 44178,
  "▁sisters": 24677,
  "▁trillingen": 43808,
  "誓言": 43400,
  "▁shovel": 35991,
  "▁sunny": 25010,
  "那里": 10639,
  "▁bestemmingen": 44136,
  "一晚上": 23063,
  "▁ijzererts": 45021,
  "▁我记得": 12978,
  "的发展": 13424,
  "位": 1138,
  "选举": 44185,
  "粑": 4434,
  "▁counts": 39691,
  "▁opgegeten": 26422,
  "achtige": 13506,
  "通过": 7382,
  "houders": 43591,
  "▁twelve,": 45782,
  "66": 20858,
  "▁hook": 18923,
  "心理学": 16727,
  "▁timmy": 47720,
  "gat": 19344,
  "▁schudde": 19951,
  "ievoorschrift": 16940,
  "二季度": 31128,
  "给你送": 32167,
  "spring": 40200,
  "gezin": 39244,
  "摸": 2872,
  "▁wore": 37445,
  "载": 5567,
  "参见": 39864,
  "罪名": 33535,
  "▁lowers": 43154,
  "liefde": 44861,
  "▁betaling": 30740,
  "▁陈": 809,
  "事啊": 21971,
  "▁opgevangen": 30856,
  "sta": 14441,
  "房屋": 26384,
  "▁kennen": 13077,
  "咱家": 18995,
  "▁广州": 23704,
  "▁ontdekken": 20680,
  "▁stall": 32826,
  "名儿": 22292,
  "说出来": 13382,
  "之处": 18485,
  "逐": 5640,
  "好久没": 30002,
  "mag": 19224,
  "\nha": 41181,
  "粥": 4442,
  "tanden": 25915,
  "▁bezwaren": 46431,
  "▁'hallo": 41405,
  "▁下面我们": 40719,
  "过年的时候": 35810,
  "的生命": 15885,
  "选择": 7173,
  "▁*mot:\t[silence]": 10033,
  "▁dicht": 8203,
  "年纪大了": 37507,
  "haven": 20871,
  "专门": 10970,
  "公布了": 31477,
  "\n\n19": 36530,
  "填": 1932,
  "▁58": 33996,
  "▁vader.": 16324,
  "犯法": 43327,
  "economie": 31015,
  "▁*mot:\tthen": 9528,
  "自己也": 23522,
  "▁*fat:\txxx": 11688,
  "▁millimeter": 36288,
  "人间": 16507,
  "▁needed": 16824,
  "奋": 1986,
  "lieden": 34331,
  "▁regio's": 22891,
  "6-4": 42596,
  "你是不是": 15311,
  "另一种": 32296,
  "▁到最后": 28501,
  "▁(v": 16016,
  "ƒ": 140,
  "▁tonight?": 23724,
  "▁*chi:\twatch.": 26449,
  "戒指": 20824,
  "▁rice.": 39496,
  "指导": 15534,
  "他就": 9591,
  "醒过来": 29722,
  "▁pruik": 32906,
  "希望自己": 31541,
  "[imit": 40983,
  "woning": 34890,
  "意见": 10867,
  "是这样的": 12751,
  "呢": 1613,
  "承担": 11236,
  "电影": 8614,
  "dracht": 35911,
  "▁*sis:\tthe": 43770,
  "▁brackets": 47890,
  "spreken": 35134,
  "▁zoo.": 17794,
  "▁opvoeding": 34552,
  "pik": 39025,
  "▁edelen": 35171,
  "有关部门": 45668,
  "琵": 3916,
  "政": 2913,
  "产": 1059,
  "工作室": 32809,
  "▁klimt": 23680,
  "像你": 15578,
  "و": 304,
  "皇军": 25996,
  "▁jamie": 24981,
  "▁inside?": 26387,
  "▁bus.": 10941,
  "▁据": 728,
  "▁cra": 36245,
  "剪": 1402,
  "▁seventy": 11571,
  "做家务": 40458,
  "▁song.": 17623,
  "▁afgenomen": 29405,
  "▁onduidelijk": 21738,
  "▁fabrieken": 15529,
  "▁achtbaan": 22839,
  "puerto": 34880,
  "较劲": 34213,
  "▁mend": 40481,
  "▁曾经": 13542,
  "吾": 1601,
  "leu": 31709,
  "▁thr": 35912,
  "s.]": 24242,
  "塘": 1930,
  "▁lokken": 41901,
  "跟我在一起": 32477,
  "▁parken": 26990,
  "还好意思": 46091,
  "表现出": 27242,
  "▁ziel": 32101,
  "▁我想": 7320,
  "问你": 9506,
  "\tpas": 46834,
  "▁approved": 47104,
  "南都记者": 31631,
  "▁starts": 8407,
  "考古": 22693,
  "prijs": 12810,
  "🙏": 6431,
  "▁attend": 44453,
  "慈善": 35621,
  "锉": 5862,
  "▁recorder]": 23096,
  "行事": 28423,
  "伉": 1108,
  "bie": 18442,
  "几句": 17219,
  "我也": 7716,
  "▁mopper": 32242,
  "▁existing": 32422,
  "上周": 30591,
  "发现了一个": 39633,
  "每日": 27145,
  "plac": 43166,
  "商": 1711,
  "▁verhuizen": 19165,
  "werd": 44179,
  "▁goodbye": 24742,
  "▁vervullen": 46972,
  "▁action": 15712,
  "\tnou": 7872,
  "▁verbinden": 38767,
  "无效": 41329,
  "瞅瞅": 37315,
  "祎": 4246,
  "▁porridge": 37702,
  "~": 101,
  "从这个": 23459,
  "▁spaans": 20593,
  "▁front.": 26348,
  "▁powder": 26096,
  "称号": 43374,
  "再来": 12625,
  "▁kapitaal": 32176,
  "▁vaak": 6816,
  "▁persoonlijke": 19233,
  "▁grof": 44168,
  "送送": 42590,
  "这个样子": 14740,
  "这部电影": 41945,
  "▁bolivia": 41746,
  "佣": 1155,
  "▁是不是": 7745,
  "▁slowakije": 35701,
  "呼呼": 34019,
  "▁happen.": 31618,
  "▁*chi:\tchocolate": 32299,
  "▁blast": 46276,
  "太过于": 41535,
  "▁*chi:\tback": 29430,
  "虐": 5065,
  "得差不多了": 43453,
  "ノ": 950,
  "那天呢": 39373,
  "▁sister": 10626,
  "collectieve": 42468,
  "▁gebied.": 30736,
  "▁mind,": 38289,
  "叨叨": 26639,
  "收益率": 30436,
  "▁*inv:\t⌊mhm⌋": 22578,
  "▁optredens": 39242,
  "▁historici": 34756,
  "▁belg": 41022,
  "▁rug": 9826,
  "▁有一个": 13166,
  "▁南方都市报记者": 20180,
  "▁(115": 14502,
  "搞定": 26764,
  "不用担心": 20512,
  "mar": 11994,
  "▁ervaring": 19865,
  "显示": 9745,
  "▁'em?": 25766,
  "了一些": 17240,
  "▁*mot:\thello": 10838,
  "▁亲爱的": 15563,
  "misda": 39663,
  "中文": 23183,
  "▁absolute": 46136,
  "143": 38082,
  "▁destijds": 32710,
  "▁playgroup": 28783,
  "▁vest": 19927,
  "▁strawberry.": 35488,
  "macht": 22590,
  "发生了什么": 33718,
  "▁为什么呢": 21328,
  "▁volle": 15638,
  "差": 2309,
  "看他": 10927,
  "▁konijntje": 36578,
  "▁oud": 8417,
  "▁zusje": 19312,
  "ɑ": 142,
  "▁won't.": 29224,
  "鹄": 6302,
  "朝鲜": 29714,
  "▁its": 10028,
  "的愿望": 22804,
  "残疾": 34283,
  "女人": 7368,
  "洗手": 32294,
  "E": 44,
  "▁right.": 6712,
  "宪": 2161,
  "ប": 481,
  "▁letting": 30870,
  "不准": 16722,
  "▁sneeuwpop": 36413,
  "liggen": 47508,
  "eduard": 15841,
  "▁心灵": 16693,
  "probleem": 31789,
  "纱": 4498,
  "▁breath": 22961,
  "商人": 26878,
  "would": 18915,
  "▁varieert": 47758,
  "▁bleek": 10878,
  "▁*mot:\teat": 16774,
  "钥": 5807,
  "澎": 3656,
  "深度": 23728,
  "知乎": 28775,
  "koek": 22895,
  "▁你怎么不": 28190,
  "▁neck?": 47088,
  "▁fle": 36957,
  "我跟你说": 12200,
  "的脚步": 36797,
  "傀": 1248,
  "继续": 7232,
  "的欲望": 32357,
  "不起来": 26284,
  "▁parliament": 34637,
  "▁genoemde": 19970,
  "▁onderwerpen": 19408,
  "kali": 46722,
  "▁walk": 8214,
  "不管他": 30303,
  "俩": 1206,
  "▁hieruit": 35305,
  "▁temperatuur": 9640,
  "س": 289,
  "▁unesco": 45827,
  "大将军": 32132,
  "▁middelste": 42624,
  "不是什么": 27154,
  "▁*chi:\tpop": 35828,
  "一年级": 44776,
  "oo.": 16594,
  "瓮": 3951,
  "了个": 10765,
  "宇": 2138,
  "抱怨": 11028,
  "▁kaak": 46824,
  "如果真的": 30700,
  "hen": 30608,
  "▁*sc:\t": 18628,
  "▁schijf": 23688,
  "▁reuzen": 23972,
  "mickey": 47178,
  "城": 1909,
  "boerderij": 40414,
  ")\nde": 30784,
  "贺": 5434,
  "▁bedoeld": 10758,
  "▁vroeger": 7940,
  "▁ze": 6473,
  "回应": 13857,
  "▁(g": 29865,
  "▁sweep": 31257,
  "▁truck": 9247,
  "arts": 22666,
  "▁quite": 7085,
  "▁korting": 27439,
  "▁dynamo": 46617,
  "寻常": 35799,
  "▁planeten": 24156,
  "很多东西": 24691,
  "越来越": 8320,
  "▁*chi:\tdinosaur": 44311,
  ".\n*target_child:": 6477,
  "▁ach": 27502,
  "什么事儿啊": 24137,
  "很棒": 28900,
  "▁blue?": 33554,
  "了半天": 15842,
  "▁stomme": 19429,
  "韩信": 45046,
  "▁bru": 20368,
  "▁off]": 17343,
  "gekeerd": 46799,
  "▁duizend": 14974,
  "▁咱": 684,
  "bouw": 10610,
  "生日快乐": 32203,
  "sturen": 27933,
  "▁schep": 23196,
  "蚊": 5080,
  "▁inspiratie": 29644,
  "的标准": 22450,
  ": ": 28588,
  "▁staan": 6874,
  "跨": 5500,
  "▁milkshake": 46685,
  "▁*rrr:\t": 46817,
  "▁safe.": 38269,
  "见一面": 46495,
  "剖": 1398,
  "抓紧时间": 21384,
  "▁那他": 12395,
  "▁'niks": 42158,
  "▁bolle": 34089,
  "嫌疑人": 15654,
  "庄": 2361,
  "我刚": 23744,
  "▁himself.": 22041,
  "看透": 44217,
  "▁deck": 47641,
  "真的假的": 31925,
  "缓": 4568,
  "太阳": 11519,
  "▁utrecht.": 28915,
  "定期": 33260,
  "naarmate": 35214,
  "draaien": 36996,
  "烫": 3725,
  "▁这一次": 20618,
  "8-4": 28432,
  "耶": 4656,
  "▁afbeeldingen": 13196,
  "自拍": 39637,
  "企图": 35482,
  "公益": 32673,
  "tussen": 24490,
  "[moving": 23438,
  "▁uitgegeven": 22950,
  "▁verkocht.": 21839,
  "▁artsen": 28467,
  "▁你老公": 28297,
  "有一句话": 20908,
  "厥": 1514,
  "▁nick": 15064,
  "绿色": 22177,
  "完美": 12842,
  "▁*urs:\twhat": 24876,
  "▁plates": 19279,
  "anything": 41788,
  "吆": 1564,
  "▁shelves": 47390,
  "▁而他": 28449,
  "你就是": 24509,
  "▁bijnaam": 26749,
  "不满意": 22193,
  "▁thee": 11100,
  "癞": 4063,
  "▁komst": 19739,
  "▁maakte": 7787,
  "doorn": 33858,
  "达成": 19100,
  "高明": 32467,
  "把你": 8086,
  "komt": 16590,
  "▁slide.": 17983,
  "▁eighth": 45088,
  "烈士": 44003,
  "▁maaltijd": 25885,
  "▁verwarren": 42205,
  "ologische": 43397,
  "硌": 4201,
  "看不到": 13876,
  "▁varianten": 41565,
  "▁pia": 46951,
  "▁其": 661,
  "noteer": 22838,
  "二十五号": 27430,
  "洞": 3464,
  "还有很多": 20026,
  "▁ready": 7861,
  "在朋友圈": 36891,
  "þ": 133,
  "begin": 24488,
  "▁记住": 24004,
  "▁熊": 756,
  "▁我要去": 30197,
  "就要": 8130,
  "▁they?": 7181,
  "▁encyclopedie": 42921,
  "你别": 9662,
  "hil": 23349,
  "▁duitsers": 13451,
  "sterren": 33590,
  "▁*chi:\tc": 17115,
  "▁knokker": 40981,
  "magische": 38565,
  "公布的": 32837,
  "p": 87,
  "▁hidden": 41471,
  "采": 5769,
  "ger": 9478,
  "',": 8574,
  "▁vaardigheden": 38065,
  "▁champions": 29825,
  "▁*fat:\tare": 15251,
  "ring": 9429,
  "▁plenty": 17675,
  "这笔": 38663,
  "▁*urs:\tyes": 46314,
  "给了我": 18856,
  "群": 4617,
  "ᅡ": 436,
  "不认识": 13198,
  "▁*mot:\tgood": 7488,
  "钗": 5795,
  "▁inspector": 44014,
  "▁coo": 43796,
  "si": 10447,
  "筒": 4379,
  "▁*chi:\thelp": 17854,
  "ڬ": 311,
  "闾": 5932,
  "▁smashed": 43566,
  "敞开": 33893,
  "▁child": 7939,
  "▁voegen": 27796,
  "讽刺": 42294,
  "联系了": 27880,
  "酋": 5735,
  "▁onderling": 28066,
  "求你了": 32935,
  "编": 4571,
  "▁door:": 16846,
  "▁jeans": 35655,
  "byebye": 45678,
  "掌": 2808,
  "箔": 4394,
  "欧巴": 46316,
  "'ll": 7804,
  "作业": 13038,
  "move": 33736,
  "der": 7852,
  "present": 44212,
  "在我们的": 27488,
  "真的是": 8084,
  "去接": 21031,
  "▁wand]": 23429,
  "唏": 1694,
  "2.000": 33618,
  "再看看": 34720,
  "▁least": 10534,
  "足": 5483,
  "nagel": 43303,
  "跺": 5507,
  "▁tref": 36404,
  "▁laag": 9707,
  "栗": 3153,
  "嘬": 1795,
  "▁milk": 8202,
  "▁stretch": 33570,
  "漕": 3627,
  "找找": 20487,
  "辐": 5579,
  "▁basis": 8631,
  "▁listening.": 46376,
  "▁有想连线的朋友": 27253,
  "▁*mot:\tadam": 39057,
  "▁leeuw": 14226,
  "▁verslagen": 19145,
  "了这么多年": 33699,
  "▁对": 708,
  "完了之后": 18680,
  "日本鬼子": 40463,
  "▁changed": 13062,
  "你怎么来了": 33881,
  "万亿": 34137,
  "▁trump": 16382,
  "名字": 10338,
  "▁*tea:\tlet's": 43401,
  "掸": 2827,
  "来来来": 19464,
  "ɬ": 154,
  "▁examines": 29767,
  "百分之五十": 16992,
  "像我这样": 34531,
  "grijs": 38598,
  "三毛": 37526,
  ".\n*mother:\tdit": 26409,
  "小学生": 36425,
  "zo'n": 34177,
  "proces": 19204,
  "🔥": 6417,
  "▁[clears": 37364,
  "老李": 33101,
  "算": 4396,
  "▁gieter": 44718,
  "▁geregeld": 21030,
  "这封信": 37305,
  "▁[d": 11523,
  "happy": 35689,
  "就不": 8939,
  "都需要": 25585,
  "▁wanden": 43120,
  "▁grondstof": 36308,
  "选择了": 14933,
  "truck": 46456,
  "\nop": 12095,
  "锥": 5875,
  "▁enigszins": 38050,
  "▁huishoud": 47807,
  "▁glucose": 19059,
  "31-": 26179,
  "出轨": 11424,
  "弓": 2405,
  "▁[tony": 25133,
  "▁oorspronkelijke": 16371,
  "▁national": 11807,
  "afgelegen": 45504,
  "ug": 13453,
  "大家一起": 22095,
  "lak": 26032,
  "▁2000-gebied": 45653,
  "丹丹": 29764,
  "太远": 32583,
  "▁smoke": 17500,
  "在你的": 16547,
  "表白": 15763,
  "场比赛": 39868,
  "▁song": 9882,
  "▁gewoonte": 32111,
  "▁premie": 33986,
  "▁mineraal": 35170,
  "▁nummers": 9868,
  "▁*col:\twhat": 40711,
  "算什么": 21040,
  "▁overgewicht": 47047,
  "▁applaus": 43012,
  "▁suppose": 9770,
  "?\n*mother:\t": 8063,
  "橘": 3278,
  "从此": 22626,
  "auw": 16346,
  "▁beschikbaar": 19250,
  "同样的": 19834,
  "▁propose": 46382,
  "▁single": 11583,
  "▁*bro:\tyes": 44302,
  "▁controller": 45797,
  "关了": 27198,
  "我们先": 29800,
  "▁equipment": 21072,
  "低调": 29440,
  "ang": 15042,
  "▁78": 38421,
  "▁schadelijke": 38281,
  "▁*mot:\td": 16126,
  "▁throat]": 37327,
  "锚": 5869,
  "埋怨": 28346,
  "到底是怎么回事": 35631,
  "法院": 13074,
  "进屋": 22565,
  "▁hoofdpersoon": 33427,
  "▁vaders": 34725,
  "▁[$=": 46527,
  "玄": 3861,
  "交": 1056,
  "钒": 5793,
  "▁*mot:\ti'll": 7887,
  "餐饮": 21440,
  "▁mandy": 37270,
  "▁ros": 29633,
  "▁heerst": 35742,
  "▁gehoord": 15222,
  "▁lean": 33013,
  "什么样子": 29724,
  "只要": 8386,
  "块钱": 11299,
  "▁lion": 12533,
  "dus": 11854,
  "坪": 1887,
  "▁*inv:\tyep": 46249,
  "▁wereldberoemd": 29471,
  "▁naamwoord": 25261,
  "傅红雪": 29758,
  "骸": 6216,
  "怨": 2510,
  "共党": 18595,
  "韵": 6079,
  "▁nana": 19293,
  "▁这样吧": 24763,
  "▁你自己": 12203,
  "死去的": 41137,
  "▁talking": 7177,
  "sum": 25353,
  "▁loo": 21076,
  "跪": 5501,
  "倏": 1218,
  "nice": 31386,
  "▁既然你": 20959,
  "▁bedroom?": 32397,
  "十五": 11185,
  "▁uitvoering": 23975,
  "▁berlin": 42994,
  "ie": 7379,
  "▁stijgt": 16845,
  "▁*inv:\tnow": 11412,
  "▁也是": 8994,
  "▁pension": 27005,
  "管控": 47082,
  "▁bicycle.": 41498,
  "酩": 5745,
  "sher": 30470,
  "男女朋友": 42951,
  "就会被": 31431,
  "香蕉": 34324,
  "▁persoonsvorm": 17835,
  "▁ap": 28032,
  "蕴": 5039,
  "▁table": 7783,
  "▁[may": 39552,
  "mm": 9812,
  "程度": 12543,
  "hal": 14154,
  "我错了": 18929,
  "▁pien": 45959,
  "lift": 31408,
  "▁ruine": 43320,
  "山羊": 29918,
  "▁five,": 13212,
  "不许": 13368,
  "看得见": 39653,
  "echt": 17736,
  "▁dead.": 26401,
  "bal": 10613,
  "工地": 25175,
  "诠释": 46150,
  "的女人": 9083,
  "▁*chi:\tbook.": 37695,
  "iseerd": 27460,
  "臼": 4801,
  "▁peaches": 46688,
  "攀升": 47176,
  "要命": 34626,
  "冶": 1328,
  "你得": 14785,
  "脚": 4744,
  "я": 234,
  "垃圾": 12461,
  "总有一天": 28836,
  "轧": 5554,
  "心态": 12686,
  "▁怎么说呢": 25147,
  "法宝": 39598,
  "就是个": 14145,
  "湛": 3581,
  "▁analysis": 46293,
  "臾": 4802,
  "▁put...": 36564,
  "▁zusjes": 42585,
  "没有钱": 20188,
  "我答应你": 35176,
  "▁keen": 34028,
  "组织": 8830,
  "▁你咋": 18320,
  "▁所谓": 20092,
  "▁ireland": 40709,
  "▁spoons.": 34512,
  "▁opgewekt": 29239,
  "▁members": 12077,
  "▁dienst": 12605,
  "medische": 34927,
  "筷": 4388,
  "964-": 28967,
  "▁13": 7866,
  "三岁": 16756,
  "▁*mot:\tcan": 6774,
  "▁aanzienlijk": 31593,
  "our": 14482,
  "对你们": 31113,
  "现状": 24398,
  "▁magnetic": 43928,
  "▁而不是": 12163,
  "▁tikt": 29822,
  "愿意为": 39175,
  "第十": 20950,
  "今年多大": 42635,
  "▁zoo?": 28079,
  "厄": 1502,
  "▁duckie": 36632,
  "pee": 41705,
  "▁shoe.": 15209,
  "▁gedood": 27877,
  "▁ooievaar": 39345,
  "森林里": 23343,
  "▁mening": 9535,
  "预算": 39353,
  "▁behoorlijk": 15226,
  "在他面前": 47161,
  "善意": 25912,
  "认识我": 28690,
  "doel": 18330,
  "关闭": 23931,
  "必": 2466,
  "到我家": 45002,
  "▁sprake": 10377,
  "▁ddr": 39409,
  "😅": 6422,
  "消防": 21724,
  "▁bomb": 31612,
  "就就就": 30670,
  "否": 1583,
  "▁alexandra": 46673,
  "hoek": 11834,
  "性质": 28610,
  "▁*exp:\tyeah": 15255,
  "▁noodzakelijk": 26546,
  "buis": 26979,
  "▁heilig": 27754,
  "睚": 4131,
  "足够": 13581,
  "金银": 41965,
  "糯": 4462,
  "nacht": 23863,
  "一百七十": 28699,
  "▁woke": 15535,
  "▁eighteen": 14269,
  "在哪儿啊": 27070,
  "▁bunny.": 16734,
  "▁wegrennen": 45209,
  "黑色的": 35007,
  "熙": 3762,
  "团": 1835,
  "蜘蛛": 30348,
  "调理": 32286,
  "磺": 4236,
  "不见不散": 25153,
  "▁verzorgers": 40409,
  "反正": 10629,
  "培": 1914,
  "在干什么": 33256,
  "▁gebeurd": 11534,
  "moedig": 32863,
  "▁woonwijk": 37487,
  "😬": 6427,
  "▁congress": 38559,
  "▁'eh": 46484,
  "▁donderdag": 20025,
  "▁bestand": 24943,
  "▁versta": 47553,
  "顶着": 37815,
  "得知": 18500,
  "十秒": 38187,
  "说谎": 28340,
  "▁arch": 45305,
  "▁drops": 10987,
  "▁h2": 39168,
  "▁noemde": 17195,
  "面前": 8640,
  "▁*jer:\t": 26537,
  "这三个": 27066,
  "zuur": 13593,
  "▁keith": 38707,
  "▁comic": 46567,
  "相似": 23200,
  "想不通": 32200,
  "的员工": 31584,
  "绘": 4528,
  "格局": 17430,
  "▁feyenoord": 22911,
  "我没说": 42025,
  "bakken": 34540,
  "▁随着": 13563,
  "▁ochtendjournaal": 27450,
  "柒": 3124,
  "▁tafel": 8894,
  "deeltjes": 27710,
  "助": 1416,
  "喵喵": 46510,
  "的女孩子": 23021,
  "▁burgemeester": 10856,
  "大声": 15745,
  "陌生的": 32566,
  "努力": 7406,
  "逼迫": 45385,
  "出现": 7613,
  "▁rooms-katholiek": 41343,
  "▁luchthaven": 17587,
  "的小朋友": 29741,
  "旁人": 36076,
  "ん": 929,
  "喜鹊": 25578,
  "▁(51": 37491,
  "▁咱俩": 12381,
  "▁standard": 24640,
  "▁*chi:\twow.": 30639,
  "伤口": 19111,
  "这张专辑": 27531,
  "最新的": 28804,
  "▁soldaten": 10887,
  "▁gebit": 35962,
  "要是": 8204,
  "▁helft": 10081,
  "能接受": 26062,
  "犟": 3810,
  "▁afvalwater": 41216,
  "▁gisteravond": 19850,
  "e": 76,
  "一行": 24199,
  "▁*exp:\twait": 42886,
  "富有": 35162,
  "▁真的吗": 30286,
  "说了一句": 23340,
  "万吨": 44048,
  "ati": 36873,
  "▁dj": 22104,
  "▁logo": 28288,
  "可怕的": 23374,
  "鸡腿": 47727,
  "erfelijke": 46154,
  "च": 328,
  "单身": 10782,
  "47)": 18281,
  "som": 22796,
  "▁*mot:\tthat's": 6586,
  "ku": 15177,
  "▁喂": 691,
  "动力": 14919,
  "▁droge": 20442,
  "束": 3085,
  "境界": 24524,
  "都是为了": 24993,
  "鉴": 5781,
  "▁kikker.\n*": 42592,
  "·": 120,
  "以为我": 20780,
  "8.000": 36586,
  "▁家里": 15836,
  "▁anderen": 9406,
  "佃": 1136,
  "▁*sis:\twe": 43610,
  "▁gram": 11909,
  "▁kubus": 38483,
  "▁lachend": 23737,
  "不必要的": 44936,
  "▁rivier": 8626,
  "la": 8360,
  "▁hergebruik": 47596,
  "的嘛": 16277,
  "▁vlecht": 42857,
  "knap": 43680,
  "rang": 20867,
  "所谓的": 9561,
  "▁mass": 42879,
  "怕我": 20932,
  "▁dada": 22846,
  "▁*mot:\tour": 41014,
  "eerden": 25619,
  "朋友啊": 25882,
  "咱俩": 9608,
  "witch": 41787,
  "point": 26076,
  "bet": 22009,
  "stralen": 44572,
  "▁[1.": 43080,
  "会因为": 31196,
  "缸": 4591,
  "▁当我": 17939,
  "▁ellie": 19020,
  "▁horen.": 14479,
  "戒掉": 44989,
  "▁(170": 43024,
  "07": 23986,
  "见你": 19093,
  "▁*tra:\t": 19734,
  "▁*fat:\tyep": 46936,
  "▁hecht": 44156,
  "周六": 40817,
  "稍微": 11616,
  "01": 13811,
  "悸": 2560,
  "techniek": 34940,
  "争夺": 35679,
  "吟": 1581,
  ".\n*mother:\tweet": 28314,
  "哀家": 38847,
  "六百": 12757,
  "etnische": 47278,
  "6-6": 28635,
  "▁instituut": 32252,
  "98-": 38704,
  "▁verbazing": 31023,
  "套餐": 47214,
  "▁我叫": 17506,
  "仟": 1092,
  "▁details": 20310,
  "▁hamer": 21429,
  "不可思议": 39588,
  "师爷": 34446,
  "面": 6056,
  "▁nomi": 38116,
  "走着": 33368,
  "▁*chi:\tjeannine": 44045,
  "蜢": 5127,
  "▁ ": 630,
  "▁ja": 6846,
  "ល": 487,
  "▁vernieuwd": 45111,
  "肌": 4682,
  "是不会": 16589,
  "▁pens": 37574,
  "空气": 13717,
  "人呐": 23070,
  "dat": 11466,
  "lage": 33337,
  "懂了": 22400,
  "▁meerdere": 9544,
  "▁slovenie": 37406,
  "▁tegengestelde": 43004,
  "▁squirrel": 32927,
  "▁temperaturen": 29513,
  "\nook": 38487,
  "▁mo": 9082,
  "kin": 16557,
  "▁block]": 30215,
  "▁draw": 8066,
  "▁*mot:\tbyebye": 36956,
  "here": 18471,
  "▁battery": 25266,
  "▁lovely.": 12854,
  "也不": 7431,
  "近距离": 45211,
  "itie": 24864,
  "▁monnik": 37810,
  "▁kitten": 32309,
  "弄丢了": 43292,
  "▁busje": 41894,
  "皖": 4079,
  "▁我愿意": 22353,
  "▁palm": 20317,
  "说了一句话": 37576,
  "▁*nan:\ti": 18916,
  "西班牙": 32349,
  "曹操": 20995,
  "▁driver": 15196,
  "▁喜马拉雅等平台陪您度过美满健康": 40912,
  "就是因为我": 41084,
  "行动": 8468,
  "▁meegemaakt": 35285,
  "粽": 4450,
  "▁uitgevoerd.": 36170,
  "算了算了": 43604,
  "▁voordeur": 34509,
  "▁simply": 19521,
  "这一刻就是这些": 14019,
  "苦": 4880,
  "守护": 19706,
  "峒": 2268,
  "在国外": 23967,
  "魉": 6237,
  "▁sixty,": 46640,
  "加班": 13124,
  "ϕ": 201,
  "▁zaten": 11018,
  "▁food]": 43490,
  "防备": 42333,
  "▁stress": 18304,
  "▁*chi:\tten": 42111,
  "烟": 3719,
  "村": 3081,
  "篮球": 23994,
  "尝尝": 18487,
  "field": 15018,
  "▁如": 702,
  "变得更加": 37291,
  "很深": 28579,
  "▁*bro:\tthe": 43960,
  "揉": 2830,
  "kken": 13676,
  "▁monkey": 11055,
  "肯定不是": 37092,
  "▁potter": 14746,
  "好听": 14884,
  "▁franz": 42136,
  "▁按照": 14481,
  "▁gevonden": 8764,
  "▁bemanning": 33422,
  "▁*mot:\twe": 6942,
  "40%": 39599,
  "▁herkent": 34476,
  "erend": 33423,
  "到底是谁": 21674,
  "▁fit.": 18707,
  "▁uitbreiding": 22611,
  "商场": 20323,
  "▁bol": 12708,
  ".\n*father:\txxx": 25183,
  "▁slotte": 20293,
  "▁o2": 43179,
  "▁lose": 13586,
  "抓获": 35774,
  "▁simpele": 41541,
  "一把": 10049,
  "▁mustn't": 18696,
  "一大早": 25521,
  "收拾收拾": 41808,
  "还会": 9723,
  "做": 1241,
  "▁*y:\t": 36681,
  "tolerant": 37626,
  "▁klassieke": 17070,
  "弟妹": 39658,
  "waard": 27519,
  "▁staatsgreep": 39915,
  "撷": 2888,
  "像个": 15664,
  "▁dragen": 12841,
  "非常非常": 16578,
  "▁succes": 11373,
  "▁dna-": 34468,
  "拍拍": 36231,
  "舍": 4807,
  "点播": 42153,
  "语文": 27530,
  "敦": 2927,
  "框架": 40321,
  "▁bril": 15984,
  "你老公": 15416,
  "▁viii": 9744,
  "▁tenen": 29163,
  "三个孩子": 39173,
  "illa": 22186,
  "zeil": 30954,
  "▁voorzetsel": 47378,
  "相比": 13992,
  "补补": 46590,
  "graad": 25387,
  "不是这样的": 33490,
  "▁river.": 42608,
  "恒": 2521,
  "onder": 16317,
  "reactie": 17941,
  "▁helaas": 15753,
  "▁快来": 29443,
  "你刚才": 24685,
  "陪着我": 35547,
  "▁*ren:\t": 47266,
  "▁[throws": 23045,
  "▁loft": 24848,
  "ui": 19332,
  "▁rustling]": 14321,
  "▁mustard": 39125,
  "▁*chi:\tsee": 8092,
  "▁regenten": 39711,
  "▁*mot:\tlike": 8708,
  "把事情": 29301,
  "ធ": 479,
  "▁我刚才": 14729,
  "涡": 3515,
  "▁girl": 7492,
  "mut": 42035,
  "▁*chi:\tnana": 28075,
  "小黄": 27255,
  "他们是": 26395,
  "▁koen.": 32272,
  "▁child]": 33933,
  "3)": 23578,
  "▁junk": 46831,
  "当成": 13838,
  "把你给": 34958,
  "▁eating?": 25828,
  "成功": 8005,
  "希望能够": 27243,
  "▁migration": 45795,
  "▁hop": 12636,
  "瘢": 4051,
  "仗": 1087,
  "统": 4535,
  "▁breken": 20741,
  "爹爹": 36622,
  "化": 1448,
  "檄": 3285,
  "▁platen": 17287,
  "▁*chi:\tmommy.": 13691,
  "▁*mot:\twanna": 8858,
  "▁care": 10012,
  "▁weet": 6882,
  "自己内心": 38755,
  "tych": 41942,
  "▁*sis:\tno": 21152,
  "\nbij": 20491,
  "▁description": 42581,
  "▁跟": 798,
  "▁say...": 46905,
  "▁marcell": 21801,
  "bronzen": 40849,
  "▁kolonisten": 33110,
  "▁twente": 23561,
  "▁more": 6619,
  "▁我跟他": 21441,
  "蛛": 5102,
  "▁done": 6963,
  "▁epi": 27313,
  "▁antwoordblad": 18098,
  "cut": 28757,
  ".\n*mother:\twat": 8267,
  "▁imp": 32489,
  "ᅦ": 439,
  "▁opgezet": 41505,
  "茉": 4892,
  "他那个": 22995,
  "▁witch.": 44214,
  "\tyyy.\n*mother:\t": 43410,
  "办案": 35175,
  "当中呢": 26914,
  "▁*chi:\tby": 38160,
  "墙上": 26661,
  "儿臣": 35675,
  "▁laugh": 14725,
  "对未来": 36197,
  "▁grill": 28877,
  "▁所以说": 8859,
  "踏": 5512,
  "▁kwam": 6924,
  "▁yucky": 33740,
  "▁今天我": 16523,
  "原油": 28280,
  "▁sand.": 33075,
  "龇": 6360,
  "\n*mother:\tnou": 43466,
  "lat": 24400,
  "▁sh": 13033,
  "▁informatiebron": 11660,
  "▁正是": 21777,
  "一下我": 22272,
  "执行任务": 44615,
  "学校": 7989,
  "看书": 19367,
  "▁pret": 40743,
  "茬": 4902,
  "▁mum,": 28750,
  "▁account": 16011,
  "▁你这样": 23458,
  "势": 1424,
  "▁oorlogs": 18811,
  "▁goose": 36635,
  "▁*mot:\tnana": 37485,
  "绝对不": 32496,
  "▁pyr": 43887,
  "就不是": 21781,
  "烷": 3729,
  "▁(stad)\n": 47041,
  "▁aardolie": 25920,
  "▁likt": 34346,
  "▁karl": 30301,
  "▁samenvatting": 17267,
  "personen": 46193,
  "al": 6935,
  "▁hielden": 21393,
  "▁ontwerp": 13255,
  "▁program": 21595,
  "▁*fat:\tall": 31053,
  "昭": 2995,
  "▁donau": 39984,
  "秘书": 20229,
  "engels": 41148,
  "啫": 1724,
  "▁*mot:\tmm": 9086,
  "▁cal": 15746,
  "benodigdheden": 44759,
  "▁deeltjes": 22277,
  "不当": 30324,
  "▁1904": 42704,
  "机关": 18614,
  "”.": 9806,
  "之心": 21220,
  "灯泡": 42444,
  "客气": 13843,
  "跟我们说": 37002,
  "▁*jw:\t": 14954,
  "▁moskee": 35928,
  "▁verschijnen": 28313,
  "▁他们在": 28648,
  "潍": 3639,
  "凝": 1343,
  "▁balkon": 36493,
  "▁*fat:\tm": 31820,
  "▁*mot:\tgoodbye": 45329,
  "▁i": 613,
  "▁robben": 41741,
  "▁otter": 42170,
  "陈深": 35885,
  "▁也就是说": 12484,
  "▁cry.": 19645,
  "▁就算我": 34787,
  "▁都是": 9246,
  "▁degrees": 37139,
  "▁*cat:\toh": 30601,
  "▁kopjes": 33656,
  "▁hygi": 40001,
  "▁dollar": 12900,
  "▁magazine": 27797,
  "无疑": 29155,
  "▁dorp.": 32572,
  "圓": 1855,
  "▁rutte": 26872,
  "眙": 4115,
  "▁ride.": 22500,
  "▁*mar:\tthe": 47021,
  "▁holiday.": 32748,
  "▁environmental": 29572,
  "▁outside.": 9869,
  "这套": 28146,
  "▁d'you": 46542,
  "kers": 13659,
  "▁这是我": 11485,
  "是": 2996,
  "▁当": 716,
  "'ve": 9779,
  "vallen": 13209,
  "▁*chi:\tahhah": 41236,
  "璧": 3941,
  ".\n*mother:\theb": 18573,
  "zeven": 38085,
  "▁kantine": 30419,
  "公": 1290,
  "▁'as": 7854,
  "▁kicked": 36458,
  "蚝": 5085,
  "af": 8039,
  "▁verloren": 12852,
  "本月": 43273,
  "不了解": 17732,
  "▁turf": 31616,
  "▁stemmen": 7827,
  "见过": 8970,
  "▁cone": 21443,
  "投机": 41777,
  "会造成": 40389,
  "right.": 27908,
  "你们": 6628,
  "last": 16313,
  "事业": 10065,
  "▁*mot:\tof": 27850,
  "杳": 3094,
  "遭到": 22548,
  "截止": 27000,
  "现实生活中": 39283,
  "▁locaties": 44078,
  "装作": 35242,
  "▁hasn't": 8396,
  "忍耐": 32825,
  "▁essential": 44272,
  "宏观": 35185,
  "dik": 34557,
  "▁laboratorium": 29097,
  "nen.": 27957,
  "率": 3862,
  "mest": 38192,
  "溉": 3588,
  "▁bouwt": 37411,
  "▁brug": 10254,
  "恢复": 10115,
  "▁*chi:\tuhhuh": 13695,
  "彧": 2430,
  "▁(23": 26713,
  "焰": 3743,
  "▁minuut": 14664,
  "▁*mot:\tround": 35325,
  "肅": 4677,
  "▁*zoe:\t": 42106,
  "▁blanket.": 22229,
  "÷": 131,
  "▁lijstje": 25320,
  "容忍": 29316,
  "徕": 2452,
  "饥饿": 47064,
  "再加": 37615,
  "的照片": 14587,
  "▁slakken": 30055,
  "▁因此": 13484,
  "▁arbeidsmarkt": 31081,
  "殴": 3328,
  "bui": 24933,
  "那天": 8767,
  "▁selection": 46912,
  "第一步": 26778,
  "静": 6051,
  "▁zetel": 21119,
  "▁look.": 7409,
  "刚刚": 7896,
  "听听": 11873,
  "aaa": 27830,
  "嗦": 1771,
  "说道": 17706,
  "用心": 14644,
  "▁thought": 6987,
  "峋": 2267,
  "▁就在": 12093,
  "▁gekoppeld": 36464,
  "▁你不是": 10142,
  "▁然后嗯": 27359,
  "parkiet": 45078,
  "▁*mch:\too": 47398,
  "尸": 2217,
  "▁gordijnen": 37376,
  "痈": 4022,
  "几位": 21339,
  "▁韩": 811,
  "你没事吧": 31236,
  "▁prijs": 8645,
  "▁dillon": 34990,
  "▁感谢": 15736,
  "▁machine.": 24182,
  "▁dad.": 12272,
  "▁girls.": 25735,
  "偶": 1244,
  "再去": 11689,
  "的朋友们": 30222,
  "咤": 1643,
  "▁cooper": 40828,
  "▁他没有": 23910,
  "▁krachtig": 35999,
  "▁你只要": 25185,
  "nner": 19979,
  "紧紧": 33381,
  "▁'de": 9299,
  "筚": 4382,
  "▁magnetisch": 45922,
  "▁forty": 9011,
  "▁*inv:\tyour": 30866,
  "噻": 1818,
  "▁所以我": 8744,
  "▁maybe": 7392,
  "用于": 20764,
  "▁doodstil": 44672,
  "▁pvda": 17653,
  "小龙": 32931,
  "迂": 5601,
  "窃": 4323,
  "9": 32,
  "▁god,": 33387,
  "▁us,": 20261,
  "耸": 4658,
  "▁naam": 7103,
  "宠爱": 41824,
  "▁opdrachten.": 37608,
  "▁algebra": 44153,
  "pla": 31518,
  "起": 5473,
  "铩": 5842,
  "物": 3798,
  "说如果": 27164,
  "▁giraffe.": 28171,
  "▁⌈": 639,
  "▁machinist": 47844,
  "教养": 25963,
  "有个好梦": 42187,
  "霜": 6040,
  "▁*gma:\tthat": 46959,
  "劲儿": 12652,
  "领证": 33703,
  "▁picture]": 9084,
  "▁commissie": 18676,
  "vermogen": 25916,
  "的性命": 33993,
  "tentoonstelling": 36057,
  "▁*chi:\tone.": 13708,
  "▁suggesting": 44172,
  "▁(156": 33287,
  "不提": 29982,
  "▁children": 7970,
  "▁eye?": 37846,
  "也是个": 21460,
  "▁amount": 13431,
  "▁vingers": 14005,
  "又开始": 25823,
  "▁zaklamp": 42764,
  "可以选择": 29317,
  "▁costs": 20987,
  "▁snakes": 30644,
  "▁labour": 13795,
  "雹": 6026,
  "赶走": 33830,
  "嫁给我": 31637,
  "▁aangetast": 39035,
  "▁mike]": 28324,
  "▁want...": 20626,
  "6%": 18922,
  "鹚": 6312,
  "▁violence": 45478,
  "▁pub": 27759,
  "▁begrippen": 19403,
  "▁derwood": 32408,
  "箕": 4395,
  "▁toys": 7440,
  "二零一九": 30485,
  "▁clown's": 44764,
  "▁misdaad": 34408,
  "▁snel": 7154,
  "▁*chi:\tden": 38417,
  "▁tour": 18305,
  "▁*sss:\t": 34009,
  "搐": 2850,
  "moeder": 23771,
  "▁jump": 9641,
  "▁难道": 9453,
  "▁je": 6462,
  "▁hands.": 11541,
  "一笔钱": 46628,
  "最关键的": 30472,
  "▁tired": 9622,
  "钢": 5804,
  "▁verkiezings": 40221,
  "▁if": 6550,
  "是哪": 24927,
  "\thad": 43231,
  "不定": 23254,
  "▁*fat:\tlet": 20665,
  "▁aantal": 7015,
  "▁liever": 11717,
  "█": 815,
  "▁beide": 7795,
  "▁afloop": 12962,
  "▁democratische": 16104,
  "lamp": 24613,
  "提议": 28473,
  "ziekte": 16993,
  "▁huh?": 7336,
  "▁service.": 42606,
  "不愿": 20924,
  "hai": 24571,
  "碟": 4218,
  "鸡毛": 37566,
  "此刻": 18361,
  "▁set": 8114,
  "太大": 16860,
  "▁costa": 36552,
  "cellen": 14867,
  "撅": 2875,
  "▁beelden": 11476,
  "▁*chi:\tlove": 46751,
  "▁tussentijd": 45136,
  "▁schuilplaats": 47514,
  "▁beer": 10226,
  "醪": 5766,
  "▁concrete": 39561,
  "▁*chi:\tmiss": 28851,
  "衫": 5179,
  "▁klauwen": 41593,
  "涨停": 14696,
  "ties": 15545,
  "▁那么我们": 21093,
  "-tabel": 36695,
  "蜒": 5119,
  "▁herhaalt": 45107,
  "keren": 25725,
  "▁*fat:\t": 6763,
  "涂": 3501,
  "▁siren": 31886,
  "你也": 9499,
  "严重的": 19265,
  "葬": 4994,
  "赝": 5457,
  "▁superman": 41394,
  "555": 40705,
  "elke": 45522,
  "▁tekeningen": 14115,
  "burger": 21247,
  "▁说说": 24591,
  "骂": 6191,
  "▁slow.": 42315,
  "干燥": 47463,
  "サ": 938,
  "复杂": 12843,
  "▁left.": 16211,
  "笄": 4356,
  "▁stal": 19285,
  "五百块钱": 36504,
  "离职": 33332,
  "▁gene": 19744,
  "阻碍": 35020,
  "▁pieces?": 47469,
  "表现得": 27209,
  "▁open?": 29925,
  "▁israel": 12354,
  "看了": 10578,
  "▁cartoons": 41984,
  "▁alarm": 15328,
  "▁哦": 687,
  "去改变": 30860,
  "▁leefden": 16342,
  "▁grappen": 35012,
  "嗅": 1759,
  "前不久": 38228,
  "蚯": 5090,
  "▁一切": 20739,
  "带孩子": 17797,
  "▁cwww": 13503,
  "超过": 9042,
  "真是": 7901,
  "▁sat": 11244,
  "仔细地": 40635,
  "▁skate": 27112,
  "民": 3350,
  "▁*a3:\tit": 41113,
  "▁aye": 12525,
  "挑剔": 35241,
  "到目前为止": 47291,
  "▁mum?": 17418,
  "gele": 31653,
  "贾": 5437,
  "▁sophie": 18768,
  "金鱼": 41718,
  "▁careful.": 11560,
  "ސ": 322,
  "op": 8102,
  "ל": 262,
  "slepen": 32563,
  "黍": 6335,
  "苏联": 18892,
  "鹫": 6318,
  "一千零一夜": 27703,
  "▁couch]": 34075,
  "linden": 35615,
  "的答案": 19318,
  "▁plug": 25546,
  "一斤": 39948,
  "▁pot]": 38148,
  "▁verraden": 39229,
  "▁如此": 30612,
  "犹豫": 15327,
  "rs": 14995,
  "是吗": 8793,
  "▁boston": 34348,
  "▁杨": 744,
  "▁jar.": 34980,
  "334": 44609,
  "▁trapped": 38976,
  "正确": 14260,
  "秦岭": 47309,
  "▁strips": 35225,
  "拿出": 11846,
  "一门": 33878,
  "▁is": 6453,
  "外国人": 30714,
  "▁tend": 20426,
  "▁oost-": 17973,
  "▁pretend.": 22763,
  "snede": 45396,
  "▁failliet": 40684,
  "研究院": 24373,
  "▁noord-ierland": 36593,
  "保健": 29112,
  "意思": 12380,
  "瘙": 4048,
  "星期五": 45282,
  "没多久": 31520,
  "▁马": 813,
  "▁from": 6593,
  "操": 2895,
  "▁owl": 15418,
  "▁achterpoten": 47762,
  "▁其实我觉得": 24024,
  "▁dragon": 17959,
  "ء": 276,
  "▁51": 24987,
  "其实也": 22633,
  "▁singapore": 35127,
  "厮": 1518,
  "嘘": 1786,
  "▁grap": 22318,
  "家": 2167,
  "vond": 33698,
  "真好": 14350,
  "▁便": 656,
  "响起": 32899,
  "▁opgedeeld": 47375,
  "俺": 1214,
  "走过来": 29098,
  "千里": 25965,
  "篝": 4411,
  "▁luis": 45395,
  "keer": 23582,
  "▁point,": 37632,
  "孝顺": 20239,
  "▁*chi:\talright.": 17687,
  "日益": 44756,
  "▁aardkorst": 37204,
  "▁lecture": 39063,
  "欸": 3294,
  "面条": 31395,
  "岘": 2254,
  "▁不管是": 15310,
  "智商": 19007,
  "▁sword": 38689,
  "▁schrijfster": 24851,
  "可真": 14660,
  "否则": 36878,
  "年少": 25212,
  "有两种": 36089,
  "5-11": 23898,
  "▁plaster": 34376,
  "▁ka": 10124,
  "和大家分享": 40313,
  "snap": 25101,
  "公道": 41147,
  "▁*mar:\tyeah": 14747,
  "▁*chi:\txxx": 6709,
  "一种方式": 33371,
  "▁wipe": 14716,
  "▁serg": 15987,
  "▁老公": 13938,
  "没听": 32434,
  "▁*mot:\ther": 21726,
  "▁us?": 23709,
  "-dynastie": 35506,
  "▁stormen": 40421,
  "xxx": 8979,
  "▁response": 15930,
  "▁again]": 10152,
  "▁it'll": 9286,
  "heilig": 42858,
  "跌停": 44854,
  "▁可惜": 18712,
  "zaam": 20005,
  "樊": 3265,
  "▁tsaar": 31744,
  "▁yay": 34027,
  "nemen": 27178,
  "▁spaar": 23247,
  "魂": 6233,
  "▁effort": 22209,
  "▁bevrucht": 38043,
  "▁dou": 47965,
  "凭啥": 37013,
  "▁selby": 46205,
  "下半年": 28202,
  "▁trom": 42268,
  "▁*fat:\twow.": 42131,
  "控制不住": 34062,
  "贸易": 14242,
  "决策": 29819,
  "if": 9563,
  "▁staat.": 14871,
  "▁part.": 21945,
  "404": 44390,
  "累计": 13461,
  "▁winkels": 13680,
  "总量": 36587,
  "▁bourgondie": 41289,
  "▁拿着": 25571,
  "愚": 2595,
  "▁leun": 28884,
  "oorlog": 18335,
  "▁afkomst": 35329,
  "糗": 4457,
  "死者": 15957,
  "67": 14966,
  "den.": 15541,
  "▁addition": 42837,
  "heel": 15941,
  "▁sporters": 31325,
  "▁carpet": 18957,
  "▁drankje": 31705,
  "级别": 25525,
  "▁hungry": 10676,
  "严肃": 19482,
  "偏见": 38060,
  "対": 2196,
  "历史上": 20840,
  "▁ducky": 46076,
  "▁min": 10161,
  "?\n*": 10421,
  "61": 24950,
  "▁years,": 22718,
  "大规模": 25760,
  "▁vlekken": 29558,
  "塑": 1928,
  "直线": 45870,
  "▁treasure": 27316,
  "离开了": 14517,
  "▁wie": 6988,
  "痔": 4027,
  "ki": 13908,
  "夫妻": 9877,
  ".\n*mother:\tmag": 27619,
  "▁helper": 42518,
  "给你打电话": 27184,
  "悉": 2544,
  "释放": 15601,
  "▁gezellig": 13984,
  "▁km": 10431,
  "墓地": 37676,
  "佚": 1148,
  "▁legislation": 40775,
  "▁[takes": 9460,
  "还有个": 22786,
  "领取": 38431,
  "▁belangrijk.": 26035,
  "目的地": 33898,
  "▁halt": 43974,
  "ʌ": 161,
  "坐在": 9660,
  "这人": 15768,
  "周旋": 41176,
  "▁grafieken": 31588,
  "▁voorkeur": 22187,
  "旨": 2969,
  "▁作为": 12666,
  "lling": 35093,
  "▁bericht": 17294,
  "▁[9": 36252,
  "小刺猬": 37502,
  "▁*chi:\tpiece": 45824,
  "缺失": 30476,
  "不能这么说": 43665,
  "俱乐部": 34094,
  "▁fan": 13903,
  "▁gelezen": 17664,
  "▁misses": 43391,
  "▁wit'": 43388,
  "▁你怎么这么": 36048,
  "都不愿意": 31280,
  "\tkijk.\n*": 44366,
  "▁bulb": 43813,
  "▁应该是": 15420,
  "辈": 5574,
  "pakket": 27483,
  "朱": 3067,
  "▁fragment": 12161,
  "▁spees": 43189,
  "▁si": 10318,
  "▁*fch:\txxx": 25114,
  "▁tart": 35273,
  "笨": 4369,
  "一下": 6729,
  "时候": 9282,
  "西北": 21534,
  "▁bedankt": 24830,
  "神秘": 17074,
  ")": 16,
  "▁我就想": 15632,
  "▁(55": 43334,
  "target_child:\tda": 41250,
  "外头": 38903,
  "謇": 5261,
  "▁stoeltje": 41238,
  "▁*chi:\tall": 8797,
  "▁由": 765,
  "▁gha": 41873,
  "▁estland": 34239,
  "照镜子": 42554,
  "▁talking.": 33943,
  "▁only": 6827,
  "▁gele": 12458,
  "▁compare": 47483,
  "▁liegen": 36347,
  "靴": 6060,
  "▁谢谢各位": 38409,
  "无论如何": 23113,
  "▁cacao": 33194,
  "▁much": 6869,
  "这叫": 25053,
  "从来都没有": 27561,
  "曰": 3040,
  "▁kermit": 42071,
  "▁spreken.": 33918,
  "小鸭子": 35775,
  "▁*bro:\twhy": 42156,
  "▁wachten.": 22536,
  "▁这叫": 22313,
  "▁common": 18743,
  "瞬间": 12830,
  "▁tegel": 42855,
  "▁*kel:\t": 37659,
  "甩": 3964,
  "▁slow": 17984,
  "▁creche": 30547,
  "撂": 2874,
  "的地位": 28899,
  "▁monsters": 22133,
  "外在": 30805,
  "那个样子": 36237,
  "去问": 23050,
  "删": 1374,
  "▁studies": 47092,
  "边境": 41501,
  "一点五": 31286,
  "私人": 23932,
  "腭": 4763,
  "贛": 5406,
  "▁anton": 25710,
  "浪漫": 13776,
  "▁*mot:\taren't": 17161,
  "和大家说再见了": 44833,
  "在美国": 18660,
  "▁opbrengsten": 43412,
  "添加": 18546,
  "\tiris": 39154,
  "一定要记得": 44948,
  "▁tent": 13102,
  "▁gebruikgemaakt": 46677,
  "lash": 37878,
  "浒": 3486,
  "▁kaarsen": 44570,
  "▁grandma.": 26381,
  "扼": 2683,
  "引领": 37115,
  "▁backwards.": 25587,
  "🧵": 6446,
  "▁*nan:\twhat": 14642,
  "资质": 39013,
  "▁lente": 18838,
  "▁snoring": 47186,
  "▁generally": 24245,
  "的女儿": 12829,
  "▁'een": 11290,
  "▁beside": 17052,
  "▁samenhang": 46736,
  "半个小时": 20305,
  "老头": 19661,
  "没有错": 30695,
  "小丽": 36810,
  "▁winnen.": 20977,
  "下班回家": 46635,
  "干部": 17945,
  "▁*kar:\t": 15869,
  "deze": 20280,
  "▁pols": 35077,
  "柠檬": 42902,
  "▁said...": 36391,
  "▁country,": 40448,
  "做音乐": 39600,
  "▁verzorging": 36279,
  "随便": 9596,
  "▁[investigator]": 40309,
  "▁everyday": 34586,
  "▁zorgen": 8184,
  "▁makers": 32312,
  "也得": 10347,
  "幼": 2357,
  "▁drill": 33327,
  "襟": 5228,
  "擅自": 36410,
  "地产": 25776,
  "做出来": 33028,
  "▁sausage": 19357,
  "不死": 24322,
  "▁passengers": 36415,
  "▁werkschrift": 44699,
  "沉默": 14199,
  "同期": 34562,
  "▁是吗": 29425,
  ".\n*mother:\twe": 26788,
  "▁penseel": 44257,
  "▁afvoer": 38328,
  "▁till": 9863,
  "▁(109": 28991,
  "是谁": 8162,
  "scherm": 28120,
  "不能够": 24940,
  "椭": 3224,
  "on.": 14658,
  "帮我把": 41489,
  "▁francis": 43349,
  "pakken": 18376,
  "reddingswerkers": 46729,
  "▁table?": 16627,
  "侄女": 26565,
  "groen": 22610,
  "如果他": 32755,
  "活成": 31658,
  "▁realized": 25465,
  "sfeer": 43916,
  "▁stil": 10232,
  "觉": 5240,
  "sens": 42944,
  "▁vermoedelijk": 38284,
  "勝": 1434,
  "可笑": 29522,
  "▁mouth.": 11547,
  "▁cabinet": 30319,
  "▁wortel": 19321,
  "▁verkocht": 11663,
  "娶她": 39731,
  "▁*par:\twhat": 11929,
  "的日子里": 39736,
  "▁gezet": 14821,
  "▁[reads": 32622,
  "得到了": 17148,
  "普通话": 33823,
  "级": 4490,
  "出什么事了": 33839,
  "罩": 4603,
  "inne": 47455,
  "▁*jas:\t": 33870,
  "▁democracy": 47711,
  "客官": 43076,
  "▁1981": 28480,
  "▁eye.": 16956,
  "▁zoete": 33715,
  "▁lopen.": 13534,
  "▁march": 21488,
  "▁petrol": 28865,
  "▁geloven": 14344,
  "媚": 2090,
  "夜班": 41350,
  "▁geef": 7261,
  "最基本的": 32295,
  "▁·\n199": 23011,
  "▁buurt.": 35401,
  "姓名": 38729,
  "▁只要": 8445,
  "▁tenten": 32235,
  "▁guinea": 42391,
  "rry": 24896,
  "▁camping": 14796,
  "流传": 30143,
  "咩": 1647,
  "▁hollandse": 31994,
  "富贵": 29834,
  "笔记本": 41388,
  "kampioenschap": 32458,
  "坐飞机": 40592,
  "好好地": 14064,
  "wieler": 47229,
  "▁*chi:\tfrom": 27598,
  "赢了": 17549,
  "▁nodig.": 11826,
  "▁gestegen": 28037,
  "▁chromosomen": 43801,
  "逛逛": 46868,
  "▁lance": 44364,
  "oor": 15078,
  "▁haak": 24153,
  "▁bonk": 27386,
  "复婚": 29082,
  "你你你": 19796,
  "▁pier": 28392,
  "effect": 24298,
  "呼噜": 36378,
  "▁kopje": 14047,
  "龈": 6361,
  "huizen": 13113,
  "schop": 36501,
  "en.": 6760,
  "▁blanke": 30570,
  "▁dagje": 35050,
  "斩": 2949,
  "▁oc": 25189,
  "▁belangrijk": 7848,
  "quick": 46774,
  "赶到": 20196,
  "奸": 2003,
  "他也": 12361,
  "zaag": 39183,
  "犯罪嫌疑人": 23193,
  "一百": 9497,
  "▁melden": 35475,
  "▁opvang": 25420,
  "佳慧": 33370,
  "悲伤": 17044,
  "▁no": 6572,
  "老爷": 14546,
  "最可怕的": 46897,
  "▁2,0": 41102,
  "▁*exp:\txxx": 29113,
  "▁spoons": 23216,
  "梵": 3201,
  "▁rica": 37420,
  "本来想": 36477,
  "▁*gma:\tyou": 17427,
  "▁swim": 16564,
  "事项": 37982,
  "不仅仅是": 20161,
  "hoven": 20636,
  "姜": 2042,
  "▁有一回": 41009,
  "豪华": 43148,
  "▁brood": 10873,
  "轮椅": 44977,
  "坐坐坐": 28710,
  "▁[c": 9117,
  "carriere": 45861,
  "高速": 19626,
  "ani": 20425,
  "▁inwoner": 36901,
  "带我": 19617,
  "好好好好": 31989,
  "▁hoog.": 23484,
  "▁for": 6485,
  "▁architect": 20576,
  "897)": 27882,
  "▁香港": 25417,
  "谁": 5346,
  "▁*chi:\tpurdie": 35021,
  "▁politiebureau": 46805,
  "▁religieuze": 25878,
  "住在一起": 33896,
  "武林": 31504,
  "▁ate": 8469,
  "▁*chi:\twhere": 7234,
  "自知": 41103,
  "ミ": 956,
  "今天下午": 39933,
  "摄影师": 44961,
  "plek": 29061,
  "跋": 5490,
  "berg": 10523,
  "一本书": 26026,
  "就更": 19454,
  "▁还得": 22181,
  "▁corruptie": 46878,
  "文章": 14608,
  "▁poem": 47391,
  "商标": 37705,
  "寄": 2174,
  "今天是": 22049,
  "▁rat": 15469,
  "klas": 43396,
  "洗干净": 41994,
  "▶": 820,
  "▁aangepast": 18576,
  "e's": 35632,
  "▁ruff": 47590,
  "▁(147": 36605,
  "雁": 6006,
  "树下": 35338,
  "▁gri": 19570,
  "是属于": 23464,
  "厂长": 24143,
  "泄": 3428,
  "▁label": 31090,
  "大多": 23762,
  "▁wiki": 45894,
  "▁zullen": 8136,
  "▁hartslag": 38211,
  "▁notice": 15643,
  "45)": 18952,
  "▁dolphin": 42912,
  "咦": 1644,
  "▁*sis:\tyes": 37292,
  "同学聚会": 41989,
  "▁shell": 31679,
  "麻木": 40945,
  "▁containers": 36081,
  "▁*a1:\toh": 46844,
  "睡着了": 14322,
  "样子": 17681,
  "ussen": 38968,
  "辋": 5577,
  "不是很好": 33585,
  "娘们儿": 35961,
  "▁here.": 6635,
  "▁gekweekt": 35507,
  "写信": 32799,
  "软件": 15492,
  "▁opvallend": 23718,
  "舆论": 36667,
  "从小就": 18122,
  "▁[low": 33018,
  "▁*chi:\tapple.": 35165,
  "椎": 3221,
  "的电话": 15851,
  "anders": 25104,
  "脊": 4736,
  "的这种": 9498,
  "▁来自南方都市报播报": 18279,
  "邀": 5686,
  "请": 5338,
  "▁harde": 13790,
  "吸毒": 46707,
  "te.": 26420,
  "找一个": 11190,
  "小宝": 28421,
  "zinnen": 34935,
  "▁berekening": 8699,
  "住院": 17579,
  "分工": 42050,
  "扪": 2673,
  "▁*par1:\tand": 11087,
  "▁oefent": 47815,
  "▁knew": 9756,
  "之前我": 24961,
  "▁(": 588,
  "跑了": 10712,
  "一模一样": 20373,
  "怎么怎么": 23825,
  "滋": 3605,
  "▁verf": 12950,
  "▁ontploffing": 47571,
  "上天": 21107,
  "公务": 41157,
  "▁*chi:\twhat...": 45217,
  "娜": 2062,
  "▁meestal": 7546,
  "985-": 44331,
  "▁uitstekend": 29287,
  "▁formula": 38566,
  "▁ondernemers": 43977,
  "▁kantoor": 20302,
  "▁hun": 6631,
  "一时": 12392,
  "-b": 19526,
  "挺": 2777,
  "▁mcdonald's": 33358,
  "▁dealing": 32010,
  "在一起的时候": 28159,
  "▁olivia": 43226,
  "真的": 6898,
  "屋": 2231,
  "ation": 9631,
  "ธ": 365,
  "可不是": 15036,
  "说法": 16653,
  "糅": 4452,
  "赁": 5439,
  "▁mid": 18821,
  "狠狠地": 26759,
  "▁fourth": 20949,
  "▁alright.": 8774,
  "▁只要有": 34502,
  "▁faith": 33952,
  "信念": 19632,
  "levering": 38217,
  "阵地": 25891,
  "▁pronounced": 45281,
  "▁kingdom": 29978,
  "碴": 4225,
  "▁'heb": 19794,
  "2-3": 34546,
  "粹": 4448,
  "唱歌": 10430,
  "没": 3410,
  "▁belgie.": 24416,
  "▁big": 6642,
  "放弃": 8683,
  "\tgoed": 15761,
  "reuze": 36569,
  "▁dirty.": 20705,
  "▁*inv:\tno": 10964,
  "▁[moves": 15227,
  "▁jacobus": 21293,
  "▁pillow.": 29748,
  "然然": 41971,
  "军队": 15785,
  "关键": 12104,
  "▁*inv:\talright": 33290,
  "▁text": 39818,
  "▁yo": 12526,
  "划算": 47651,
  "▁reflect": 44093,
  "一点儿也不": 35965,
  "日夜": 34335,
  "▁'sorry": 30210,
  "ant.": 47673,
  "▁*fat:\twhich": 25750,
  "▁[ben": 39095,
  "配方": 45323,
  "上级": 18308,
  "献": 3850,
  "防疫": 24888,
  "那男的": 39460,
  "偻": 1246,
  "▁babietje": 47849,
  "▁感觉": 15026,
  "各界": 47627,
  "ua": 30763,
  "两三年": 37145,
  "▁expeditie": 40121,
  "▁tol": 21353,
  "避免": 13247,
  "▁joined": 34362,
  "▁gosh.": 30193,
  "就是你的": 31680,
  "侉": 1170,
  "詹": 5253,
  "radio": 35528,
  "▁address": 18503,
  "客服": 41500,
  "▁betekent": 7622,
  "▁zat": 7909,
  "once": 39810,
  "▁bends": 26574,
  ".\n*mother:\toeh": 44909,
  "▁以及": 13681,
  "▁mensenrechten": 39201,
  "▁bedenkt": 26740,
  "财": 5411,
  "everybody": 32787,
  "谁谁谁": 46451,
  "▁*exp:\twhat": 12811,
  "streep": 38956,
  "想听听": 43598,
  "▁nail": 23421,
  "利用": 9767,
  "も": 921,
  "嘿": 1803,
  "▁huwelijk": 15182,
  "倩": 1229,
  "比方说": 29219,
  "▁*fat:\tn": 43483,
  "八零": 37256,
  "毫": 3346,
  "清理": 23829,
  "▁remmen": 34002,
  "▁*chi:\tum": 6954,
  "打折": 36177,
  "医师": 36236,
  "垂": 1892,
  "▁我一直": 15399,
  "le.": 26623,
  "▁crayon": 8498,
  "▁supper?": 46901,
  "bewijs": 35168,
  "▁cows": 21416,
  "slagader": 29083,
  "▁invloed": 9116,
  "从小": 11630,
  "专注": 22929,
  "▁早": 732,
  "▁cijfers": 11723,
  "围着": 28605,
  "茶": 4908,
  "▁*chi:\tno-no": 39509,
  "ready": 34374,
  "儿呢": 22072,
  "▁jos": 17932,
  "说着": 18382,
  "井": 1049,
  "bia": 34403,
  "▁objects": 14842,
  "alsjeblieft": 39290,
  "▁voorstelling": 15350,
  "▁fris": 31216,
  "▁he'll": 10273,
  "▁我就不": 27732,
  "▁wo": 11973,
  "杯": 3091,
  "▁keizer": 9964,
  "▁oefening": 28863,
  "▁juice": 9200,
  "▁container": 15463,
  "赅": 5443,
  "\tmaar": 9803,
  "▁weggaan": 46871,
  "背景音乐": 44730,
  "▁wand": 11256,
  "▁gehad.": 19638,
  "▁lijkt": 7643,
  "共军": 21788,
  "▁go!": 22173,
  "▁gui": 35711,
  "称为": 27257,
  "▁strategy": 35994,
  "franc": 31480,
  "吹牛逼": 43516,
  "相": 4106,
  "▁voeden": 33733,
  "\nzijn": 46485,
  "▁*chi:\t[chi": 6925,
  "听不懂": 17868,
  "俘": 1199,
  "狼狈": 37979,
  "▁*mot:\t'": 26380,
  "ტ": 418,
  "鹃": 6301,
  "▁enthousiast": 18842,
  "▁sticking": 18834,
  "▁along": 8709,
  "蝶": 5143,
  "▁diet": 32231,
  "干嘛呀": 19693,
  "▁这是": 6999,
  "▁best.": 38316,
  "▁tro": 15818,
  "▁1995": 17302,
  "▁*mot:\tsorry": 12491,
  "见了": 14464,
  "▁showing": 15244,
  "▁carter": 43329,
  "调调": 19036,
  "是什么呢": 12262,
  "也是一个": 19536,
  "beurs": 37529,
  "▁printer": 39279,
  "▁itself.": 39441,
  "▁一个月": 23844,
  "不承认": 24475,
  "案件": 11708,
  "▁letter?": 38426,
  "▁grandfather": 43648,
  "▁echt": 7027,
  "!": 8,
  "laden": 37650,
  "▁peter": 7900,
  "给我们": 8956,
  "抱抱": 30393,
  "▁companies": 24256,
  "职责": 30288,
  "lijk": 10649,
  "▁25.000": 47236,
  "凿": 1357,
  "天性": 37537,
  "▁*pat:\toh": 23357,
  "89-1": 42334,
  "嚅": 1820,
  "wah": 47565,
  "▁33": 15594,
  "广告": 11760,
  "vlees": 22900,
  "▁*fat:\t[laughs]": 18282,
  "焊": 3733,
  "▁%add:\tsoa": 18129,
  "婚姻里": 39995,
  "ი": 412,
  "▁supper": 23492,
  "▁sleeve": 38071,
  "这批": 28497,
  "每年都": 43911,
  "▁bezorgd": 20102,
  "睨": 4138,
  "汁": 3370,
  ".\n*mother:\tgeef": 45326,
  "卷": 1498,
  "该死": 36627,
  "服务员": 16828,
  "靡": 6055,
  "az": 21878,
  "军统": 21368,
  "⠻": 872,
  "▁going?": 10400,
  "不确定": 24700,
  "一生": 10199,
  "靳": 6059,
  "▁*chi:\tmark": 46441,
  "那么简单": 25130,
  "一般": 8771,
  "滕": 3610,
  "▁r": 621,
  "实力": 14399,
  "𝒦": 6385,
  "忙活": 26949,
  "▁[nina": 10550,
  "劣": 1414,
  "▁appels": 23426,
  "60.000": 43703,
  "helemaal": 35163,
  "▁3": 596,
  "istische": 16715,
  "▁mouse?": 31288,
  "ika": 30667,
  "校": 3154,
  "笏": 4360,
  "excuse": 36922,
  "要有": 16180,
  "也是一样": 34918,
  "▁export": 16113,
  "▁towel]": 24566,
  "etus": 20638,
  "▁exclusief": 38396,
  "就不要再": 34395,
  "婚后": 22486,
  "教堂": 39862,
  "▁hammer": 17594,
  "讲了": 18099,
  "▁wonder": 8259,
  "土壤": 42660,
  "丘": 986,
  "商家": 28264,
  "C": 42,
  "ld": 15704,
  "ɪ": 153,
  "山洞": 43427,
  "▁hek": 18285,
  "单身狗": 30119,
  "▁forum": 37223,
  "▁choos": 23520,
  "▁herzegovina": 40554,
  "超出": 32090,
  "▁*chi:\tnice.": 39822,
  "▁[at": 33315,
  "▁home?": 10841,
  "▁licence": 44767,
  "debbie": 36807,
  "跟我一样": 33396,
  "效力": 45692,
  "蔼": 5030,
  "围巾": 41159,
  "▁前面": 25070,
  "辨": 5592,
  "都不重要": 33271,
  "▁当然是": 29311,
  "6.": 34035,
  "lagen": 34372,
  "zes": 38369,
  "证券": 10596,
  "▁hoe": 6664,
  "▁gegeven.": 20669,
  "▁afgedrukt.\n": 43285,
  "▁*mot:\thad": 47449,
  "▁*bro:\tthat's": 42953,
  "高三": 24050,
  "突然间": 25099,
  "▁vulkaan": 17072,
  "▁say?": 7728,
  "不满": 19124,
  "上厕所": 21888,
  "忙着": 16965,
  "▁bepaald": 9396,
  "▁news.": 44932,
  "憩": 2620,
  "棘": 3209,
  "他他": 20484,
  "boog": 35369,
  "下边": 27398,
  "▁sanne": 20607,
  "艺术": 11039,
  "heid,": 25593,
  "全世界都": 44164,
  "拣": 2736,
  "能力": 7984,
  "▁*mot:\tshould": 10814,
  "浄": 3477,
  "走到今天": 44176,
  "私": 4276,
  "▁freud": 27493,
  "▁*chi:\twith": 13611,
  "你就": 7524,
  "祜": 4251,
  "蕉": 5033,
  "▁[cries].": 20916,
  "不容易": 10942,
  "谒": 5359,
  "藉": 5050,
  "礁": 4237,
  "▁放心吧": 15981,
  "富强": 39759,
  "▁bend": 23745,
  "tenschappelijke": 25418,
  "门口": 10492,
  "下雨": 12032,
  "家里人": 17733,
  "▁bakken": 19601,
  "乡下": 27868,
  "疫": 4007,
  "▁*mot:\tshe's": 8361,
  "冬天": 12117,
  "一听": 15581,
  "▁percentage": 13528,
  "▁bezitten": 46702,
  "人士": 14325,
  "比": 3340,
  "▁他说他": 15431,
  "还用": 24650,
  "枢": 3109,
  "▁lonen": 34370,
  "下定决心": 35864,
  "▁我也不知道": 14429,
  "走": 5468,
  "▁interesting.": 25730,
  "▁stroke": 29164,
  "闪光": 44161,
  "▁wood.": 27297,
  "▁loudly": 25407,
  "▁head].": 44694,
  "▁*bro:\ti": 10541,
  "\nzo": 42760,
  "宓": 2144,
  "蕤": 5036,
  "▁不许": 24432,
  "▁...van": 26105,
  "忽悠": 31322,
  "就会有": 24862,
  "无人": 17859,
  "娓": 2060,
  "屁股": 13092,
  "琐事": 36758,
  "蜜蜂": 28832,
  "希望我": 24204,
  "不足": 11537,
  "随口": 38859,
  "'\n": 35207,
  "不是很": 19555,
  "58)": 13442,
  "▁arm]": 38884,
  "keuring": 34203,
  "▁development": 14595,
  "▁bath.": 12866,
  "kering": 36915,
  "▁nederland:": 17082,
  "今儿": 17093,
  "▁jackson": 17638,
  "ram": 26976,
  "xxii": 44305,
  "行业": 8629,
  "▁cheque": 36828,
  "lijm": 38776,
  "▁themselves.": 43952,
  "those": 32832,
  "就问他": 24768,
  ".\n\nonder": 44950,
  "拖延": 30352,
  "袅": 5188,
  "▁*mch:\toh": 26770,
  "▁'help": 41323,
  "▁*nan:\tthat": 29712,
  "很累": 21041,
  "殡": 3327,
  "▁ontwierp": 35651,
  "▁*fat:\tlike": 43597,
  "一带": 32335,
  "▁snake?": 37805,
  "count": 33749,
  "▁help?": 21058,
  "会议": 12281,
  "▁mummie.": 39767,
  "▁verzameld": 23134,
  "▁verkoop": 14550,
  "我相信": 18871,
  "▁eco": 30800,
  "胧": 4722,
  ".\nschrijf": 42058,
  "掏出": 23034,
  "无条件": 34086,
  "刘烨": 45896,
  "▁enter": 27378,
  "▁into": 6743,
  "传奇": 29177,
  "怪怪的": 47990,
  "苜": 4875,
  "ture": 35362,
  "▁*chi:\td.": 47552,
  "1-5": 34248,
  "▁begrijpen": 15233,
  "nacl": 40255,
  "▁vlakbij": 21277,
  "一个新的": 23639,
  "▁terrific": 40779,
  "▁bear": 8187,
  "含": 1587,
  "汪": 3388,
  "▁finale": 10666,
  "有很多的": 22240,
  "闫": 5916,
  "瞎": 4148,
  "▁immediately": 27044,
  "\txxx": 6599,
  "keep": 24772,
  "吸收": 25533,
  "隋": 5990,
  "anda": 26074,
  "▁pretend": 9244,
  "觊": 5241,
  "▁ontevreden": 40405,
  "▁holding]": 40275,
  "▁唤醒": 16577,
  "考验": 14525,
  ".\n*mother:\tmama": 29328,
  "▁akkoord": 20125,
  "▁啊对对对": 44704,
  "▁winnen": 12744,
  "▁vvd": 17229,
  ".\n*mother:\tzo.\n*": 47814,
  "桧": 3182,
  "蹼": 5541,
  "转弯": 47497,
  "什么关系": 26794,
  "▁woo": 22327,
  "梦见": 30257,
  "\nveel": 28753,
  "日常": 17089,
  "luc": 37172,
  "▁leuk": 7458,
  "zer": 16049,
  "西部": 32461,
  "▁*chi:\tisn't": 31864,
  "▁pur": 38380,
  "这么大的": 16943,
  "▁ballet": 13213,
  "▁shapes.": 44583,
  "长颈鹿": 34483,
  "▁lord": 12707,
  "▁sonia": 33633,
  "▁我保证": 31655,
  "▁hawai": 24568,
  "▁pictures.": 16648,
  "▁*mot:\tvery": 9680,
  "无可": 37059,
  "效应": 30713,
  "▁dak": 10642,
  "▁staten.": 13825,
  "▁middellandse": 22260,
  "查到": 28785,
  "▁dvd": 29958,
  "por": 42754,
  "这部": 29172,
  "▁*val:\tyou": 40470,
  "在前面": 29592,
  "▁*mot:\tlove": 42897,
  "▁east": 16786,
  "曾经的": 24047,
  "尽了": 28192,
  "▁calls": 15911,
  "▁bijenkorf": 37923,
  "ril": 20076,
  "▁cool": 11231,
  "我都不知道": 24200,
  "几乎没有": 42761,
  "四月份": 31700,
  "▁georgie": 32002,
  "▁beter": 7378,
  "概念": 12549,
  "reis": 14404,
  "进出": 36880,
  "尾": 2222,
  "宵夜": 46214,
  "gelijk": 19277,
  "髌": 6220,
  "九六": 15303,
  "自然会": 34609,
  "oefening": 42410,
  "想一想": 14233,
  "龌": 6364,
  "▁enters": 26235,
  "鹭": 6320,
  "▁muisje": 39882,
  "未经": 41156,
  "犬": 3811,
  "▁dumpty": 34504,
  "▁enzymen": 37631,
  "▁helped": 20999,
  "队友": 36086,
  "▁opa.": 25244,
  "▁ajax": 13379,
  "相当": 14721,
  "馋": 6160,
  "碰撞": 41514,
  "老王": 21324,
  "皈": 4074,
  "疸": 4014,
  "满": 3614,
  "典": 1300,
  "▁voorstellingen": 42838,
  "小路": 34602,
  "▁slikt": 41600,
  "圈子": 16563,
  "willem-alexander": 29045,
  "▁sticks": 17394,
  "大": 1968,
  "▁ervaringen": 32788,
  "▁bakker": 17257,
  "持有": 20547,
  "嘁": 1781,
  "看得": 14624,
  "▁我感觉": 15125,
  "盯着": 13021,
  "mummie": 42445,
  "▁get...": 35172,
  "▁我今年": 24132,
  "八十": 12137,
  ".\n*mother:\tpeter": 47016,
  "\tallemaal": 28912,
  "展览": 39695,
  "缅": 4562,
  "▁angry": 24532,
  "▁fractie": 29460,
  "一群": 15861,
  "▁voorbereid": 38624,
  "想什么呢": 35057,
  "藜": 5055,
  "提出了": 21101,
  "sma": 22573,
  "▁pancake": 39329,
  "▁open": 6859,
  "▁card.": 20213,
  "▁box,": 31319,
  "▁geheimzinnig": 37031,
  "▁wreck": 45238,
  "▁coalitie": 34941,
  "▁qua": 14597,
  "算了吧": 25160,
  "▁bult": 32421,
  "扩": 2672,
  "▁crayons]": 28411,
  "periodiek": 30047,
  "phone": 26159,
  "▁(deels)": 31600,
  "这么说": 9312,
  "▁reach.": 45721,
  "土豆": 21481,
  "brand": 13690,
  "▁science": 23394,
  "▁hi": 8431,
  "003)": 34268,
  "核": 3158,
  "▁rollen": 16253,
  "共产党员": 47726,
  "uma": 34064,
  "毛衣": 38146,
  "par": 17833,
  "贵州茅台": 40113,
  "ga": 8530,
  "女儿": 7646,
  "plaatjes": 36763,
  "8-3": 42978,
  "侏": 1173,
  "物业": 36529,
  "▁一般": 15790,
  "▁spaarrekening": 44342,
  "▁boxes.": 28656,
  "给了你": 34827,
  "▁zegt:": 11451,
  "谍": 5354,
  "再说": 11157,
  "▁你们都": 17884,
  "▁salad.": 24146,
  "第一时间": 18088,
  "\nmi": 39265,
  "▁cit": 43614,
  "▁yes!": 17750,
  "▁animal": 10597,
  "▁gym": 16373,
  "▁recente": 40094,
  "想要": 7376,
  "▁waarin": 7640,
  "▁levensduur": 43515,
  "▁television?": 46436,
  "▁terras": 35307,
  "▁keeps": 13777,
  "▁him?": 9234,
  "老太太": 11970,
  "bahn": 45289,
  "弹": 2419,
  "\taap": 38552,
  "弟弟": 8805,
  "▁*mot:\tthank": 7645,
  "▁shaped": 35697,
  "▁sticky.": 40901,
  "generator": 42449,
  "heen": 21541,
  "能找到": 18849,
  "▁kinderarbeid": 34951,
  "多少钱呢": 33647,
  "▁uitvindingen": 39143,
  "拿回来": 35042,
  "▁pond": 17238,
  "▁但是我们": 15986,
  "糖": 4456,
  "▁veiling": 42296,
  "膀": 4774,
  "探讨": 28404,
  "彭": 2434,
  "两个小时": 21693,
  "亲情": 18441,
  "▁[trying": 23067,
  "se": 7119,
  "▁stemde": 40245,
  "▁uitgang": 34040,
  "相逢": 36964,
  "参": 1521,
  "▁oktober": 9145,
  "帼": 2339,
  "▁aangetrokken": 40807,
  "▁mou": 45126,
  "妖": 2017,
  "最好的": 9158,
  "总理": 22028,
  "▁medicine": 19825,
  "▁*chi:\the's": 7838,
  "onze": 38452,
  "▁*mot:\t[gasps]": 8781,
  "▁*chi:\tboom": 41598,
  "档案": 30299,
  "小薇": 35896,
  "▁*chi:\tle": 39357,
  "▁thousand,": 44470,
  "▁tongue": 17486,
  "▁how": 6645,
  "ramp": 24581,
  "▁danny": 25649,
  "▁vruchtbaar": 40791,
  "▁liet": 8371,
  "▁(engels:": 32692,
  "▁beweerd": 37605,
  "▁describe": 34743,
  "的小": 8157,
  "在什么地方": 30046,
  "▁所以就": 24067,
  "mother:\n*child:": 35366,
  "陽": 5987,
  "▁moslim": 40136,
  "▁对呀": 17049,
  "▁gebroken": 20192,
  "0-2": 24231,
  "十九号": 25222,
  "▁continues]": 36620,
  "▁mine?": 21953,
  "都这么": 25647,
  "▁不好意思": 16623,
  "▁[singing": 23436,
  "▁maak": 7303,
  "\tuit": 18713,
  "▁afspraken": 19025,
  "疲": 4011,
  "▁而且呢": 29667,
  "golf": 34443,
  "合作": 8521,
  "▁tower]": 45443,
  "▁sociaal-": 37501,
  "违反": 24875,
  "认真地": 23272,
  "刚开始的时候": 43637,
  "ү": 242,
  "樹": 3272,
  "潦": 3646,
  "▁avonds": 16842,
  "▁floor]": 8491,
  "verder": 36892,
  "收到了": 24348,
  "装置": 40594,
  "只管": 41439,
  "▁(zie": 9839,
  "▁book,": 20725,
  "▁responds": 34748,
  "]\n\n": 36085,
  "▁getroffen": 22894,
  "▁%add:\tinv": 14122,
  "▁day": 7116,
  "玩意儿": 26325,
  "怠": 2505,
  "好事儿": 24753,
  "回到家里": 43687,
  "▁afraid.": 44898,
  "叱": 1550,
  "▁introduction": 45996,
  "▁legende": 34494,
  "火车": 16188,
  "两句话": 29939,
  "生态环境": 45777,
  "kim": 28560,
  "血压": 36626,
  "olympisch": 33219,
  "▁ogen.": 18321,
  "eddie": 35824,
  "▁gest": 39517,
  "▁其实我也": 36257,
  "▁4000": 34633,
  "一年": 7952,
  "地道": 34489,
  "脑子": 10563,
  "什么叫做": 34155,
  "▁melanie": 33795,
  "少奶奶": 30983,
  "▁strijd": 10823,
  "派出": 33806,
  "▁schiet": 13970,
  "▁koers": 21558,
  "福气": 27686,
  "是一个人": 31342,
  "▁brother?": 41222,
  "▁banaan": 22033,
  "▁string": 14109,
  "唯一": 10511,
  "岑": 2250,
  "天大的": 40528,
  "▁de": 6447,
  "▁komen.": 8571,
  "▁loop": 9896,
  "留下来": 14046,
  "就变成了": 34096,
  "▁defence": 40640,
  "o,": 21861,
  "昂": 2980,
  "份": 1105,
  "的中国": 25017,
  "深圳": 12984,
  "天": 1969,
  "拍卖": 28807,
  "▁taken": 8884,
  "就冲": 37198,
  "资料显示": 38493,
  "穷": 4318,
  "▁aanschaf": 35650,
  "▁army": 24938,
  "总监": 25170,
  "▁highly": 44308,
  "拭": 2743,
  "▁occasionally": 37761,
  "▁*gfa:\t": 42689,
  "▁mean,": 9788,
  "业绩": 13570,
  "巳": 2312,
  "tisha": 41990,
  "▁stikstof": 18036,
  "智慧": 13197,
  "局限": 40795,
  "▁supermarkt": 15359,
  "▁她说她": 43991,
  "撞到": 40555,
  "俺们": 45312,
  "▁druppels": 40725,
  "▁[fa": 45706,
  "廓": 2388,
  "奴": 2001,
  "▁maat": 14632,
  "oet": 26540,
  "哪来的": 30392,
  "我们几个": 40129,
  "家乡": 17453,
  "▁hoofdkantoor": 35059,
  "意义上": 36321,
  "▁opgenomen.": 29926,
  "▁快走": 24372,
  "😱": 6429,
  "▁oranje": 9270,
  "▁*mch:\ta": 35326,
  "▁*mot:\tthey'll": 40671,
  "▁到时候": 12360,
  "胃": 4707,
  "▁wangen": 30075,
  "是非常": 12190,
  "▁*mot:\tbee": 43373,
  "pillen": 33367,
  "囱": 1841,
  "▁handdoek": 33932,
  "▁goes": 6759,
  "骨子里": 36271,
  "▁stad.": 13803,
  "▁weg.": 9235,
  "▁ontmoeting": 36430,
  "鄙视": 41629,
  "祥": 4257,
  "愧疚": 24169,
  "▁kittens": 35713,
  "盼望": 44900,
  "▁nachtmerrie": 45828,
  "▁bloedsomloop": 39838,
  "▁screen": 25799,
  "▁coat": 12004,
  "培养": 12507,
  "▁*mot:\tpa": 44614,
  "▁mhm.": 8132,
  "▁leen": 17118,
  "chy": 46108,
  "张扬": 36222,
  "▁yum.": 21004,
  "▁*par1:\tthat's": 43595,
  "▁stof": 8612,
  "掏钱": 38833,
  "▁duur": 12583,
  "aap": 24302,
  "▁schudt": 19949,
  "▁娘": 704,
  "▁*mot:\tpeter": 36490,
  "▁cobra": 41595,
  "▁*chi:\tstand": 44804,
  "▁visje": 39874,
  "▁8": 601,
  "▁huilen.": 24405,
  "▁aanmerking": 45829,
  "前任": 16899,
  "胸口": 37178,
  "办公": 21587,
  "▁zie": 6886,
  "bussen": 42195,
  "korps": 37651,
  "屐": 2235,
  "▁hadden.": 26814,
  "▁span": 27951,
  "▁今晚要和您分享的文章是": 47829,
  "▁chickens": 31266,
  "▁turken": 35470,
  "▁jenny": 15088,
  "▁shirt?": 31228,
  "大老远": 42680,
  "成就感": 38408,
  "▁overlast": 35653,
  "衡量": 25456,
  "四号": 22558,
  "▁我还以为": 25709,
  "▁marine": 20810,
  "▁heet": 7466,
  "▁stoot": 31827,
  "有限公司": 19724,
  "▁before.": 12017,
  "从头到尾": 32731,
  "记得": 9254,
  "▁zit.": 20210,
  "媒体报道": 38087,
  "▁noemt": 13403,
  "▁后来他": 25429,
  "▁sock.": 37669,
  "▁krul": 35919,
  "▁*fat:\twhere's": 20064,
  "▁katholiek": 30465,
  "▁ways": 19980,
  "▁delicious.": 31243,
  "给他发": 34895,
  "▁tweede": 7000,
  "▁verwachtte": 47424,
  "🔓": 6416,
  "获得了": 20499,
  "▁根据": 10562,
  "▁lap.": 30679,
  "ch.": 31248,
  "阻拦": 45067,
  "\tniet": 13139,
  "远近": 42291,
  "蹰": 5537,
  "▁blessure": 43776,
  "聊聊": 12498,
  "▁knob": 42308,
  "▁bbp": 45906,
  "▁现在你": 26995,
  "的一种": 12051,
  "▁(c": 12796,
  "密码": 15779,
  "就把他": 32473,
  "交叉": 45382,
  "途中": 35608,
  "矿": 4178,
  "▁*mot:\t[laughs]": 7046,
  "▁bezorg": 43101,
  "▁vermoorden": 28809,
  "▁www.": 27219,
  "▁bevel": 24075,
  "法庭": 25716,
  "褶": 5225,
  "王府": 32372,
  "六十岁": 39533,
  "我这就去": 41006,
  "小妹": 16737,
  "▁pony.": 44813,
  "三次": 17186,
  "entie": 27369,
  ".\ndoor": 26371,
  "▁risico's": 39872,
  "t:": 24845,
  "▁delta": 31110,
  "炳": 3704,
  "▁waved": 37032,
  "poppen": 45532,
  "▁received": 33240,
  "是为你好": 46853,
  "vormige": 23981,
  "▁broeder": 32885,
  "▁有什么可以帮到您的": 18425,
  "▁ends": 26904,
  "停止": 14997,
  "ira": 26320,
  "哆": 1662,
  "遗忘": 36679,
  "↔": 557,
  "▁heleboel": 16807,
  "十九点": 33068,
  "▁christmas": 8434,
  "我带你去": 36039,
  "▁be": 6498,
  "▁*loi:\toh": 25037,
  "▁noises.]": 24663,
  "逸": 5658,
  "冰箱": 20183,
  "o": 86,
  "▁mirror.": 24595,
  "▁minstens": 14473,
  "▁eraan": 12987,
  "一百个": 32137,
  "生活当中": 18449,
  "不好的": 25630,
  "质": 5417,
  "▁utrecht": 11140,
  "▁sanders": 41377,
  "boten": 25567,
  "暇": 3028,
  "禾": 4274,
  "领": 6094,
  "▁lion.": 16330,
  "levisieprogramma": 37276,
  "\tanders": 39132,
  "▁mint": 45916,
  "菡": 4964,
  "▁*exp:\tdid": 37375,
  "二零一二年": 37587,
  "michael": 46511,
  "▁hasta": 10965,
  "棉": 3204,
  "▁我觉得这个": 25176,
  "场面": 26229,
  "pier": 47562,
  "21)": 22200,
  "▁brussel": 14353,
  "的一个": 7158,
  "▁*chi:\tcow.": 36991,
  "在大街上": 42769,
  "▁*tur:\tyou": 25098,
  "▁yep": 28695,
  "要学会": 17935,
  "▁gang.": 28760,
  "▁horrible": 23648,
  "▁uitnodiging": 37207,
  "▁你可以": 8968,
  "▁cold": 8792,
  "▁beginnen": 9711,
  "▁else.": 10686,
  "关心你": 31597,
  "ping": 11501,
  "▁josse": 27230,
  "▁flour": 29929,
  "实习": 20941,
  "▁似乎": 25003,
  "稽": 4311,
  "gebouwen": 41966,
  "▁*mot:\tmhm.": 7369,
  "▁我说你": 9897,
  "▁thousand.": 46503,
  "▁*mot:\tnum": 47706,
  "▁*chi:\tsun": 45948,
  "⁣": 515,
  "周": 1616,
  "krans": 42457,
  "苹": 4884,
  "▁crawling": 29077,
  "低于": 23791,
  "安排": 8394,
  "定了": 18394,
  "大大的": 24159,
  "▁pause": 14096,
  "本书": 29635,
  "二爷": 42636,
  "partij": 14828,
  "▁nevertheless": 47512,
  "▁did.": 9077,
  "情歌": 38429,
  "绳子": 29372,
  "▁saturday": 12128,
  "钮": 5812,
  "刁难": 46308,
  "ement": 30896,
  "▁duo": 39676,
  "严厉": 29391,
  "gij": 35573,
  "育": 4699,
  "▁pickle": 33477,
  "▁snorrebaard": 44916,
  "沫": 3416,
  "▁confederatie": 47117,
  "篡": 4412,
  "kinder": 43234,
  "▁dropping": 36574,
  "‘": 502,
  "捧着": 39696,
  "些什么": 15213,
  "軍": 5552,
  "件衣服": 30058,
  "▁agat": 39593,
  "两天": 11175,
  "regen": 25124,
  "金属": 32768,
  "▁dominant": 30712,
  "\nka": 45863,
  "明星": 13150,
  "丢了": 13677,
  "少不了": 40088,
  "mper": 28249,
  "慷慨": 42413,
  "オ": 933,
  "现在这个": 21521,
  "▁haken": 46939,
  "▁robbie": 13466,
  "▁straling": 24163,
  "▁我相信你": 27134,
  "▁paper?": 23022,
  "人格": 17509,
  "▁只有": 8351,
  "▁*inv:\tshe's": 16802,
  "有多么": 22847,
  "很喜欢": 12416,
  "提到": 12639,
  "锱": 5882,
  "座": 2378,
  "轶": 5564,
  "初中": 17734,
  "神": 4253,
  "▁deurtje": 41358,
  "客人": 14022,
  "两岁": 24932,
  "近": 5608,
  "▁se": 8499,
  "记性": 33506,
  "很清楚": 20620,
  "开口": 15198,
  "investigator:\tga": 32044,
  "▁doelgroep": 35570,
  "捉": 2782,
  "兜": 1285,
  "办公室": 11278,
  "▁langzamerhand": 35990,
  "rian": 25030,
  "▁colleagues,": 42452,
  "▁enorm": 10225,
  "▁activity": 16337,
  "▁goed.\n*": 29300,
  "和你在一起": 23715,
  "▁spellen": 30074,
  "平米": 34837,
  "▁[child": 7981,
  "▁populaire": 15612,
  "稀罕": 36041,
  "写着": 26136,
  "岫": 2259,
  "▁过了一会儿": 41068,
  "▁你就说": 31018,
  "▁*unk:\tno": 41527,
  "石头": 12144,
  "▁died": 18779,
  "\tzit": 21563,
  "在北京": 13481,
  "▁stammen": 24813,
  ".\nwelk": 18424,
  "▁aangewezen": 36802,
  "▁doodgeschoten": 46796,
  "▁ijstijd": 39436,
  "▁movies": 38647,
  "▁cigarettes": 46869,
  "▁shoulders": 30874,
  "▁course.": 23042,
  "讲到这里": 41775,
  "不是因为": 20044,
  "去世了": 28632,
  "▁ss": 30256,
  "\tmag": 12508,
  "蹈": 5526,
  "▁eeuwen": 20951,
  "珅": 3881,
  "▁*mot:\tmilk": 39200,
  "▁time,": 11559,
  "▁你看我": 14406,
  "▁juiste": 8673,
  "▁foto's": 9655,
  "▁toothpaste": 40846,
  "农村": 12584,
  "全都": 10865,
  "进出口": 45569,
  "指定": 31622,
  "▁spot": 12528,
  "▁pr": 18626,
  "回来了": 7934,
  "▁reken": 12586,
  "火柴": 43650,
  "网络上": 32723,
  "打死你": 37932,
  "某某": 19338,
  "▁grass": 14497,
  "▁verdienen": 15397,
  "tochten": 42623,
  "可疑": 26780,
  "▁peas": 17163,
  "▁momenten": 34341,
  "▁*fat:\twe're": 38650,
  "▁speel": 12108,
  "▁some": 6542,
  "▁hello!": 40287,
  "▁carries": 32358,
  "▁alle": 6771,
  "结构性": 39898,
  "亿港元": 46221,
  "陪在您身边": 29116,
  "tegenwoordigers": 43919,
  "\tschaap": 47130,
  "沌": 3403,
  "▁非常感谢": 22332,
  "▁appel": 12057,
  "回来的": 18578,
  ".\n\ndoor": 34697,
  "▁biting": 35976,
  "klachten": 46277,
  "失恋": 18949,
  "的东西": 7364,
  "所有人都": 14807,
  "肩膀": 21582,
  "企业家": 26506,
  "▁hood": 29666,
  "茆": 4891,
  "肓": 4683,
  "▁track.": 19843,
  "断": 2950,
  "▁*inv:\tuhoh": 24994,
  "做了": 8215,
  "一个家庭": 37739,
  "▁meewerken": 43088,
  "我姐": 21453,
  "▁bestelling": 42276,
  "▁kraag": 45197,
  "还年轻": 42527,
  "▁ruil": 20246,
  "▁speakers": 41732,
  "中秋": 39299,
  "▁resultaat": 14246,
  "喉咙": 47419,
  "有钱": 9593,
  "▁vlag": 10690,
  "liberaal": 43860,
  "给我": 6773,
  "▁expecting": 40003,
  "他是个": 32238,
  "▁proof": 47817,
  "保存": 27405,
  "▁yes.": 6915,
  "ful": 14668,
  "脘": 4743,
  "target_child:\tga": 44123,
  "tv": 27014,
  "▁d": 609,
  "zodra": 16068,
  "一一": 19048,
  "▁built": 14079,
  "找到": 7746,
  "▁youtube\n\n": 31767,
  "quo": 43827,
  "手套": 30229,
  "漂泊": 42792,
  "到底是不是": 41914,
  "十倍": 38969,
  "配": 5737,
  "一举": 30813,
  "荡": 4924,
  ".\n*father:\teen": 45689,
  "▁occur": 43266,
  "▁kenmerken": 11227,
  "▁*ch:\t": 19413,
  "▁[looking": 13980,
  "jammer": 43215,
  "到处": 14248,
  "养生": 22841,
  "能理解": 21213,
  "吮": 1590,
  "▁bovenkant": 30399,
  "麦当劳": 47061,
  "凰": 1349,
  "▁hands]": 15376,
  "蹭": 5536,
  "灵": 3682,
  "▁splash.": 34799,
  "▁honourable": 37336,
  "▁ouders.": 33348,
  "感谢大家": 34644,
  "▁verst": 32316,
  "▁*kl:\t": 44006,
  "▁dunne": 17676,
  "939)": 36798,
  "03": 20888,
  "▁hoofdstuk": 15433,
  "嫉": 2097,
  "展": 2237,
  "痉": 4023,
  "\tkoffie": 44523,
  "regeling": 44009,
  "[whispering]": 37142,
  "屯": 2242,
  "宝贝们": 21851,
  "▁territorium": 32995,
  "▁sorry!": 39522,
  "-de-": 40060,
  "▁smile": 25366,
  "▁tracks": 38462,
  "▁alvast": 28078,
  "匾": 1460,
  "错误": 11544,
  "▁*chi:\tyellow": 21821,
  "根儿": 36888,
  "▁再": 662,
  "₫": 531,
  "164": 43966,
  "房价": 24807,
  "▁*mot:\tla": 45631,
  "▁秦": 770,
  "▁oranges": 27527,
  "▁she": 6540,
  "评委": 39959,
  "▁nappy": 34255,
  "-ma": 33085,
  "▁overeen": 27458,
  "▁tower": 13716,
  "▁*chi:\tgreen": 20897,
  "看到了": 9738,
  "口头禅": 47694,
  "▁working": 8701,
  "绒": 4524,
  "▁daar": 6623,
  "▁我真是": 29433,
  "▁*chi:\thurt": 43819,
  "▁optreden": 12547,
  "▁cage.": 40384,
  "▁systems": 40337,
  "乐队": 17855,
  "巡": 2301,
  "▁report.": 39162,
  "materiaal": 20109,
  "他就说": 35133,
  "▁whatever,": 43967,
  "▁eigenschap": 30738,
  "▁*chi:\tshe": 8110,
  "▁*mot:\tsit": 10845,
  "荣幸": 30529,
  "▁'zie": 29477,
  "伤人": 29404,
  "▁dammen": 43369,
  "黄": 6334,
  "棺": 3216,
  "娑": 2059,
  "愤怒": 13854,
  "放": 2912,
  "富二代": 37886,
  "难免": 24259,
  "woon": 34025,
  "▁zakken": 19157,
  "密切": 19543,
  "▁draad": 17064,
  "陣": 5978,
  "▁1815": 39102,
  "的风景": 32298,
  "疱": 4010,
  "\tkun": 47525,
  "不出": 10169,
  "▁dinosaurs.": 36820,
  "▁uit": 6494,
  "iale": 39356,
  "所以我觉得": 37162,
  "▁tool": 27436,
  "▁mole": 38940,
  "不大": 14282,
  "up": 10456,
  "情况来看": 39958,
  "的苦": 26257,
  "ម": 484,
  "在意": 12994,
  "▁evenaar": 33339,
  "希望能": 32411,
  "为我": 13667,
  "shirt": 31756,
  "藻": 5058,
  "尽": 2221,
  "漪": 3631,
  "▁*exp:\tum": 15174,
  "▁kinds": 16028,
  "报复": 17962,
  "却是": 15641,
  "▁gewonnen": 12622,
  "第六": 24712,
  "▁[aft": 9290,
  "本来就": 18085,
  "▁container]": 19959,
  "roepen": 40193,
  "▁cirkel": 12803,
  "▁=": 603,
  "头条": 25144,
  "缈": 4565,
  "▁seconden": 12379,
  "houden": 14932,
  "▁kleine": 7163,
  "教育部": 31250,
  "▁*fri:\toh": 45417,
  "▁finger.": 21887,
  "深夜": 18976,
  "▁他现在": 15239,
  "怅": 2494,
  "▁你不会": 17528,
  "▁bezem": 35587,
  "ⵉ": 880,
  "▁iv": 7734,
  "过生日": 19001,
  "反过来": 20346,
  "hield": 25539,
  "▁bell.": 29211,
  "▁wheel.": 22185,
  "射": 2199,
  "梧": 3195,
  "▁*exp:\twhat's": 38391,
  "did": 12948,
  "五块钱": 37849,
  "统一": 15041,
  "▁bathroom?": 38109,
  "着急": 9816,
  "烃": 3712,
  "炒作": 46571,
  "就再也": 36894,
  "▁verschrikkelijk": 17314,
  "¤": 106,
  "▁gates": 45589,
  "placing": 27075,
  "▁*mot:\tanother": 15455,
  "▁schoolkrant": 39712,
  "▁aandoen": 34896,
  "▁*inv:\twill": 25284,
  "动静": 21467,
  "一个问题": 13565,
  "▁koning": 7295,
  "徐": 2450,
  "流泪": 30211,
  "辣椒": 21966,
  "probably": 42545,
  "国": 1846,
  "照顾好": 21694,
  "瑞": 3926,
  "▁tijdschriften": 35410,
  "▁uitgelegd": 30171,
  "般的": 28267,
  "arium": 35920,
  "腹": 4768,
  "不适合": 16010,
  "记载": 22754,
  "心存": 41044,
  "谡": 5369,
  "geschakeld": 40632,
  "zijdig": 34966,
  "搞": 2854,
  "▁radio-": 39697,
  "有必要": 25040,
  "朝": 3058,
  "闵": 5925,
  "靼": 6062,
  "▁chocolates": 35771,
  "▁astronauten": 31219,
  ".\n*father:\tdie": 41407,
  "▁要不我": 31189,
  "绚": 4530,
  "▁falled": 38499,
  "蜻蜓": 45336,
  "huisje": 30230,
  "tevens": 15588,
  "▁2010": 10419,
  "▁mis": 9988,
  "四亿元": 32678,
  "疗": 3997,
  "苣": 4878,
  "र": 341,
  "心肠": 44958,
  "voort": 40799,
  "▁herinnering": 37714,
  "▁chest": 23834,
  "录音": 15246,
  "发生了": 11318,
  "这个男的": 19596,
  "茏": 4895,
  "不一样的": 21406,
  "记住": 11811,
  "▁stel": 10176,
  "▁nationaliteit": 43176,
  "上哪儿": 37649,
  "▁我马上": 30640,
  "▁uitgever": 41957,
  ".\nwaarom": 41667,
  "▁praatte": 43673,
  "呻": 1623,
  "任务": 9471,
  "从来都是": 44783,
  "▁rende": 15806,
  "\ttoen": 9401,
  "▁barbie": 19101,
  "▁但我觉得": 39827,
  "绝对": 10471,
  "铃声": 47689,
  "▁alternatief": 32649,
  "走出": 15287,
  "▁...": 6665,
  "▁investment": 29815,
  "小公主": 26349,
  "♪": 848,
  "▁boys.": 23182,
  "e)": 16042,
  "▁wins": 44945,
  "▁later?": 46675,
  "bescherming": 29265,
  "尚未": 28999,
  "▁(65": 41613,
  "vor": 26353,
  "▁mill": 17588,
  "绿茶": 38057,
  "▁dynastie": 41270,
  "▁samenwerken": 18841,
  "oid": 45875,
  ".\n*sister:\t": 25437,
  "♡": 842,
  "▁dresses": 45229,
  ".\nvoor": 19981,
  "oortje": 47939,
  "?\nde": 24130,
  "皲": 4083,
  "磁": 4227,
  "▁belangrijker": 23965,
  "▁neus.": 26998,
  "▁totdat": 16922,
  "▁uitspraken": 12304,
  "的优势": 33999,
  "▁eiland": 8423,
  "▁behang": 46487,
  "▁wedstrijd": 8776,
  "三公子": 42557,
  "受": 1531,
  "▁roofdieren": 36471,
  "细心": 28537,
  "▁一定": 18493,
  "长什么样": 41075,
  "人类": 10504,
  "积极": 10418,
  "女友": 21774,
  "▁pela": 28279,
  "▁noise,": 36637,
  "发觉": 43888,
  "▁waarschuwen": 27585,
  "路口": 23103,
  "喂": 1735,
  "拟": 2734,
  "规范": 20288,
  "翻": 4638,
  "merk": 21536,
  "任何": 8245,
  "喙": 1747,
  "oei": 19580,
  "戕": 2641,
  "!\n*mother:\t": 10058,
  "伦敦": 39787,
  "姹": 2049,
  "borden": 39180,
  "▁facing": 19416,
  "▁koningshuis": 47052,
  "▁tl": 44491,
  "▁[no].": 29738,
  "▁belangrijkste": 8390,
  "易": 2986,
  "全球经济": 46841,
  "缚": 4574,
  "自己的内心": 40757,
  "为": 1006,
  "簌": 4422,
  "▁我可以": 11152,
  "麦": 6329,
  "lad": 41567,
  "可以说": 26342,
  "duizend": 17374,
  "▁lip": 18353,
  "▁paris": 24510,
  "▁toevallig": 23336,
  "▁ziektes": 29646,
  "▁[kay": 44890,
  "角": 5245,
  "▁eeuw": 7438,
  "配套": 38311,
  "▁staken": 30676,
  "▁*mot:\tlooks": 14110,
  "圣诞": 35512,
  "zak": 14147,
  "▁[picture": 24356,
  "▁brulde": 42248,
  "绝不能": 38783,
  "feest": 13267,
  "▁morning,": 18357,
  "结婚": 7168,
  "大门": 20813,
  "没出息": 41288,
  "途": 5643,
  "▁burp": 27636,
  "虐待": 41490,
  "▁commentaar": 35209,
  "deeltje": 44599,
  "▁dialecten": 37930,
  "听你": 14864,
  "车主": 28524,
  "西藏": 34304,
  "▁vervolg": 14528,
  "▁fish.": 11683,
  "eerd": 10029,
  "▁sunday.": 30938,
  "开门": 12505,
  "特质": 33060,
  "▁web": 21099,
  "▁relatively": 42701,
  "▁krullen": 40495,
  "不要太": 26906,
  "one": 10050,
  "than": 42875,
  "▁他把": 20151,
  "建立": 10202,
  "▁studeren": 21002,
  "▁verplaatst": 23013,
  "厕所": 14898,
  "▁wig": 40889,
  "重新开始": 32106,
  "国外": 14593,
  "牛肉": 23201,
  "817": 41032,
  "产业": 10669,
  "\tjij": 11841,
  "gedrongen": 46615,
  "症": 4021,
  "寂": 2173,
  "是什么样的": 16384,
  "他没有": 23363,
  "▁tilde": 34724,
  "伺": 1133,
  "▁bears.": 29044,
  "▁hap": 15292,
  "vloer": 40576,
  "𝗦": 6393,
  "oc": 16998,
  "▁december": 8636,
  "▁buis": 19337,
  "▁[book]": 38998,
  "▁clock": 13399,
  "▁2017": 11223,
  "我才": 19087,
  "▁kangaroo": 26123,
  "▁bout": 43641,
  "▁groepjes": 26604,
  "▁...ze": 34271,
  "的对象": 21273,
  "zojuist": 39755,
  "▁sloot": 14357,
  "コ": 937,
  "坚": 1877,
  "▁*chi:\tdrop": 47883,
  "▁gotten": 29789,
  "免疫": 32392,
  "▁miljoen": 7815,
  "趣": 5482,
  "二零一": 43664,
  "▁non-": 21884,
  "三号": 18247,
  "▁nettowinst": 39833,
  "组建": 32761,
  "▁opleiding": 14270,
  "▁knowing": 42851,
  "draden": 36097,
  "zijn": 12322,
  "▁jet": 42868,
  "属于自己的": 27678,
  "私募": 39590,
  "其中的": 31359,
  "▁咋": 683,
  "大熊": 33837,
  "\ndeze": 30890,
  "喊着": 31812,
  "▁keer.": 19686,
  "▁office": 13251,
  "乜": 1026,
  "rick": 23778,
  "▁姐姐": 17020,
  "▁sail": 30945,
  "▁*fat:\tit's": 10606,
  "让你去": 29408,
  "▁computer": 8413,
  "物品": 22748,
  "▁kwast": 35302,
  ".\n*father:\tja": 11856,
  "▁*chi:\tmom": 9733,
  "▁刘": 664,
  "签订": 37436,
  "予": 1039,
  "珥": 3891,
  "瘟": 4049,
  "▁vrijdag": 14281,
  "030": 42179,
  "浚": 3490,
  "悌": 2545,
  "▁*mot:\tbye.": 30766,
  "粉红色": 46480,
  "温馨": 31688,
  "36": 25551,
  "▁throw": 8080,
  "▁mona": 42400,
  "▁vaststellen": 47319,
  "工作者": 35597,
  "▁ship": 19807,
  "玉凤": 47746,
  "υ": 195,
  "个股": 25021,
  "▁*fat:\ttell": 28256,
  "拉开": 31832,
  "▁wend": 38361,
  "▁彼此": 29192,
  "预计": 16803,
  "植": 3220,
  "▁gekregen": 10895,
  "▁outer": 44872,
  "魅": 6235,
  "rad": 19607,
  "▁duisternis": 45191,
  "▁aardewerk": 40560,
  "讹": 5286,
  "山坡": 45517,
  "一百多": 24707,
  "有十": 35293,
  "敞": 2924,
  "▁welcome.": 17182,
  "刹车": 41177,
  ".\nin": 8116,
  "我送你": 23853,
  "🏻": 6406,
  "什么原因": 28468,
  "就是这样": 13352,
  "▁fault": 30052,
  "好兄弟": 36992,
  "答应了": 18658,
  "▁orleans": 36522,
  "▁geschiedenis": 9473,
  "第一天": 19953,
  "揭": 2841,
  "的性格": 15360,
  "⠓": 869,
  "▁tijn": 34947,
  "多了": 8385,
  "▁agreed": 20403,
  "掐": 2810,
  "▁bell]": 30561,
  "▁*fat:\twhat's": 11432,
  "往哪儿": 38008,
  "▁leert": 13848,
  "懂事": 21826,
  "▁我会和你": 19813,
  "stedelijke": 32894,
  "▁staats": 22694,
  "▁locatie": 23938,
  "▁stable": 38275,
  "attractie": 40751,
  "▁gotta": 7061,
  "对不住": 23552,
  "认识你": 22257,
  "十二月": 12675,
  "也会有": 30201,
  "哭得": 33393,
  "▁*mot:\taah": 30155,
  "减肥": 11721,
  "▁marky": 18742,
  "naam": 13325,
  "▁scooter": 25535,
  "▁hey.": 35680,
  "体面": 29040,
  "▁schapen": 17635,
  "▁cups.": 29002,
  "不被": 22843,
  "畔": 3982,
  "▁要": 788,
  "一说": 24119,
  "▁zelfbestuur": 44359,
  "的时代": 26465,
  "找借口": 45462,
  "▁share": 12522,
  "▁meters": 37834,
  "▁*mot:\taye": 30317,
  "電": 6027,
  "▁heat": 22490,
  "揖": 2835,
  "在一个": 12813,
  "lappen": 31192,
  "▁prefer": 24935,
  "一点儿": 9356,
  "断了": 15414,
  "鼹鼠": 37977,
  "▁fast.": 15228,
  "那你": 10966,
  "小事": 17102,
  "▁gift": 37754,
  "女同事": 31002,
  "▁video": 8135,
  "损害": 32784,
  "▁goal": 19839,
  "▁patrick": 19343,
  "把这些": 17906,
  "看一看": 12919,
  "▁一方面": 30170,
  "ata": 24431,
  "机票": 27187,
  "之下": 11429,
  "情人节": 26286,
  "1700)": 42438,
  "takel": 29933,
  "▁*chi:\t⌊": 25173,
  "▁progress": 33478,
  "租界": 39115,
  "▁sent": 12964,
  "深圳市": 42825,
  "平等": 19370,
  "▁o'clock.": 16303,
  "铰": 5846,
  "▁meid": 36230,
  "顺利": 11305,
  "▁was": 6465,
  "▁allerlei": 9067,
  "过得": 9797,
  "▁rent": 10716,
  "进门": 32671,
  "釉": 5770,
  "▁*mot:\twhere's": 7210,
  "吵吵": 34721,
  "谁敢": 31047,
  "▁feiten": 21081,
  "▁*fat:\thm": 18048,
  "闺": 5929,
  "▁*jen:\twhat": 36010,
  "不就完了吗": 25579,
  "科普": 39894,
  "捋": 2783,
  "▁several": 15555,
  "的老": 15942,
  "要靠": 36369,
  "▁anastasi": 17253,
  "太监": 42775,
  "▁noises.": 44550,
  "▁你在": 12388,
  "▁[laugh].": 13192,
  "追查": 44827,
  "跑": 5493,
  ".\n*mother:\tik": 9881,
  "买菜": 24903,
  "▁aller": 16902,
  "▁*chi:\tthere.": 8048,
  "发微信": 37853,
  "contract": 38436,
  "晁": 3001,
  "▁hersen": 19174,
  "暗中": 32073,
  "▁aim": 37442,
  "▁zelfstandige": 33325,
  "▁joyce": 38441,
  "ឃ": 472,
  "▁bui": 26786,
  "poeder": 33773,
  "▁shops": 17344,
  "▁tussen": 6716,
  "▁bonaire": 43356,
  "苁": 4862,
  "!\n*mother:\tnou": 45493,
  "▁dit": 6528,
  "▁*par1:\tmhm": 16478,
  "▁books": 8795,
  "▁smeer": 32161,
  "一片": 9848,
  "稚": 4302,
  "巩": 2307,
  "▁pretty?": 36990,
  "▁知道": 18133,
  "▁别动": 27571,
  "œ": 139,
  "新浪微博": 40029,
  "想象的": 23165,
  "飲": 6129,
  "[nonspeech]": 19612,
  "毕": 3341,
  "▁duurzaam": 37915,
  "put": 11704,
  "多家": 31645,
  "▁kruisje": 15960,
  "▁whale": 32534,
  "不不不不": 35688,
  "提着": 38040,
  "问一下": 15826,
  "▁schoen": 15520,
  "▁1923": 40786,
  "ronde": 30692,
  "▁harrogate": 42873,
  "小微企业": 46412,
  "▁bood": 38464,
  "-zuid": 44983,
  "▁margaret": 22937,
  "ari": 17878,
  "▁hoofd": 7290,
  "▁broccoli": 32234,
  "▁no,": 7241,
  "▁misbruik": 41191,
  "▁prepare": 40361,
  "我喜欢": 21439,
  "见见": 30282,
  "-": 20,
  "▁*mot:\tme": 17729,
  "▁cutting": 15344,
  "▁now.": 6780,
  "交易": 11016,
  "▁toetsenbord": 44192,
  "另一边": 39188,
  "▁basket.": 23043,
  "嫁": 2095,
  "▁woord": 7135,
  "▁reminds": 28035,
  "fire": 38463,
  "▁two...": 38397,
  "▁朋友": 19068,
  "润": 3518,
  "ale": 11883,
  "▁kraken": 44484,
  "▁姑娘": 20774,
  "▁color]": 45069,
  "▁*chi:\tyou're": 11617,
  "大头": 27063,
  "▁network": 45384,
  "同伙": 46989,
  "二十八": 16867,
  "leuk": 35022,
  "喝点水": 39040,
  "7-8": 16454,
  "有两": 22953,
  "▁judith": 47955,
  "▁heren": 21417,
  "▁ernstige": 23293,
  "▁现在我们": 25565,
  "▁feeling": 12170,
  "科主任": 40928,
  "lic": 20289,
  "juist": 39649,
  "▁onderwerp": 7222,
  "▁betekend": 43823,
  "draad": 21906,
  "在我看来": 35766,
  "羁": 4608,
  "▁suffer": 46666,
  "-6": 17109,
  "▁suitcase": 33493,
  "怪兽": 31555,
  "▁与其": 19709,
  "braak": 27872,
  "▁parkeer": 39857,
  "搭": 2858,
  "地面": 23047,
  "ᄉ": 428,
  "▁vermoed": 37879,
  "urban": 44465,
  "61)": 15867,
  "故事": 7683,
  "▁onderkant": 26156,
  "你怎么不": 37126,
  "[giggles].": 45729,
  "▁*lau:\toh": 45874,
  "872)": 43572,
  "▁boat": 11050,
  "simon": 47445,
  "▁live?": 31731,
  "哺": 1687,
  "▁(31": 27263,
  "▁swap": 38974,
  "干的": 15029,
  "▁dierentuinen": 43527,
  "▁landschap": 14848,
  "giggle": 40386,
  "▁gesteld": 16606,
  "▁open.": 9620,
  "意大利": 24171,
  "▁pakjes": 41255,
  "▁punk": 35268,
  "▁nakomelingen": 38538,
  "已经开始": 21994,
  "▁klonk": 15205,
  "▁张": 715,
  "▁(145": 28142,
  "啸": 1730,
  "▁strak": 22482,
  "奧": 1999,
  "▁suggest": 21679,
  "ates": 46943,
  "爹妈": 17985,
  "▁sitting": 7844,
  "第三次": 33514,
  "▁newton": 42482,
  "▁diepte": 22906,
  "就应该": 14367,
  "▁不": 643,
  "优惠": 23781,
  "▁slapen.\n*": 30656,
  "88-1": 42253,
  "▁snee": 41704,
  "不甘心": 18345,
  "乐趣": 30044,
  "支援": 27708,
  "民谣": 42674,
  "都给你": 28164,
  "mother": 44812,
  "胡闹": 33009,
  "基": 1915,
  "▁regulations": 46775,
  "▁trouwden": 46440,
  "ル": 964,
  "▁[": 605,
  "▁alone.": 20635,
  "▁lee": 14384,
  "底气": 25773,
  "gas": 15357,
  "有办法": 21242,
  "▁*inv:\tit": 11274,
  "市长": 21050,
  "𝓐": 6386,
  "歹": 3312,
  "ee.": 21468,
  "▁press": 10849,
  "▁aanbieding": 44820,
  "▁但如果": 22806,
  "hedendaagse": 34339,
  "断绝": 45421,
  "又何必": 42505,
  "小小熊": 41012,
  "▁kapitein": 18240,
  "▁verleden": 13023,
  "挺喜欢": 32439,
  "▁stort": 34220,
  "窦": 4338,
  "疑惑": 26822,
  "▁nodig": 7377,
  "▁没有啊": 26523,
  "8-6": 36808,
  "▁*mot:\twould": 8307,
  "▁noord": 13362,
  "▁*adu:\tit": 39927,
  "▁chi's": 10163,
  "▁grenzen": 18211,
  "吃醋": 29352,
  "屎": 2233,
  "▁doing": 6785,
  "江苏": 21736,
  "▁acid": 31780,
  "▁[in": 12425,
  "这项": 31806,
  "▁tuck": 42286,
  "ce": 8848,
  "▁heiden": 46849,
  "子弹": 21267,
  "▁vriendelijk": 21291,
  "³": 118,
  "停": 1242,
  "▁jo": 9748,
  "许诺": 36858,
  "▁50.000": 38259,
  "逛街": 17657,
  "挣点钱": 46569,
  "▁eh...": 40492,
  "四个人": 28367,
  "堰": 1924,
  "▁goodbye.": 43259,
  "樽": 3274,
  "⁵": 518,
  "▁gestolen": 19212,
  "追赶": 47703,
  "-168": 45256,
  "▁snowman": 29704,
  "▁favorite.": 29357,
  "颌": 6099,
  "[laughs]": 35849,
  "▁things": 6817,
  "▁*chi:\tup": 13721,
  "得过": 28550,
  "▁fla": 19879,
  "▁herkend": 44942,
  "罔": 4597,
  "绑": 4523,
  "忽然": 17170,
  "▁dinner]": 44466,
  "刷": 1383,
  "𝗘": 6388,
  "吵": 1595,
  "▁(19": 9892,
  "▁strong.": 29333,
  "苕": 4872,
  "▁*glo:\twhat": 39246,
  "▁milan": 31466,
  "小王": 33772,
  "▁laptop": 35265,
  "试验": 16911,
  "有不同的": 34695,
  "牧": 3797,
  "示弱": 42068,
  "国内": 10843,
  "哪个地方": 42069,
  "▁result": 20989,
  "与你": 25436,
  ".\n*father:\t": 8488,
  "▁microwave": 33770,
  "一阵子": 29065,
  "▁*mot:\tread": 39203,
  "krijgen": 44433,
  "▁positie": 13916,
  "▁driehoek": 20745,
  "▁behouden": 25574,
  "▁roep": 25060,
  "▁tijdelijke": 38183,
  "roller": 47645,
  "腿": 4773,
  "三年级": 47330,
  "▁breekt": 26815,
  "beek": 25590,
  "▁(\"": 11603,
  "及其": 28824,
  "洪": 3466,
  "中的": 10238,
  "早就": 9856,
  "▁typen": 27197,
  "场所": 22244,
  "▁senior": 32804,
  "duiken": 42259,
  "攫": 2906,
  "信赖": 46725,
  "豁": 5386,
  "▁verpleegster": 46891,
  "ำ": 384,
  "世上": 21487,
  "▁luchtdruk": 32917,
  "▁grafiek": 10544,
  "汴": 3391,
  "haw": 41034,
  "▁streek": 19861,
  "▁carefully": 26677,
  "▁zucht.": 31521,
  "▁*mot:\tso...": 44955,
  "替我": 15496,
  "重逢": 44035,
  "不再是": 28914,
  "不下去了": 19991,
  "▁trots": 13961,
  "每每": 43070,
  "▁*fat:\tuhhuh.": 21478,
  "等你哦": 37642,
  "▁okay,": 10714,
  "▁ontbreken": 24151,
  "▁braaf": 39511,
  "▁dat": 6463,
  "▁forward": 11062,
  "deed": 27772,
  "103": 30664,
  "ling": 8548,
  "获奖": 45065,
  "不答应": 32469,
  "druppel": 39694,
  "▁[laughing]?": 47654,
  "▁drake": 25702,
  "那么严重": 45846,
  "鬼": 6231,
  "收留": 42295,
  "的方法": 12998,
  "\nhe": 36911,
  "爪": 3776,
  "blauwe": 40516,
  "费用": 16182,
  "退市": 45608,
  "▁created": 45838,
  "▁quickly": 12672,
  "beest": 35750,
  "▁question,": 39255,
  "振": 2775,
  "川": 2299,
  "缺陷": 34741,
  "蔡": 5023,
  "没有必要": 17415,
  "bius": 40644,
  "▁islam": 20517,
  "▁gefilmd": 43432,
  "作": 1150,
  "▁d66": 25316,
  "▁box": 7127,
  "憨": 2619,
  "父皇": 25501,
  "▁faces": 25072,
  "▁*chi:\tow": 20134,
  "▁gebracht.": 14307,
  "▁korenwolf": 45900,
  "▁zestien": 30435,
  "照顾你": 23916,
  "抱着": 11556,
  "八零后": 35261,
  "▁milk]": 36539,
  "耦": 4654,
  "▁oogsten": 40223,
  "▁chr": 36737,
  "▁veroverde": 31346,
  "929)": 43181,
  "▁我们就": 12764,
  "▁miljard": 13479,
  "不超过": 30070,
  "▁*par2:\twhat": 30342,
  "▁fantasie": 22144,
  "▁vleermuizen": 39210,
  "▁napkin": 29101,
  "▁vieze": 20601,
  "当中的": 22374,
  "我去": 10651,
  "次": 3289,
  "₯": 534,
  "▁vals": 28246,
  ".\nwat": 14518,
  "?\n*mother:\tnou": 19798,
  "▁don't...": 29715,
  "欲": 3293,
  "着": 4127,
  "ณ": 360,
  "▁*mot:\tduck": 34314,
  "▁breiden": 47234,
  "这么简单": 27115,
  "▁hotels": 28362,
  "属于那种": 30543,
  "奂": 1981,
  "宠": 2154,
  "▁tir": 44352,
  "oo,": 40417,
  "▁route": 12233,
  "灸": 3684,
  "▁gevoerd": 28357,
  "侄": 1167,
  "▁mention": 22196,
  "垒": 1896,
  "▁1890": 43307,
  "推迟": 41052,
  "▁bodies": 44010,
  "俨": 1205,
  "▁collect": 20388,
  "mannetje": 36899,
  "▁yells": 39741,
  "一套房子": 41871,
  "导播": 30696,
  "节课": 42841,
  "▁1900": 19160,
  "▁race.": 41659,
  "▁好我": 24669,
  "名义": 43747,
  "▁puls": 47940,
  "能想到": 37068,
  "▁boy.": 7531,
  "回落": 29894,
  "▁genotype": 45652,
  "▁lou": 24367,
  "▁behaviour": 44291,
  "▁answer": 10969,
  "似乎": 12076,
  "▁sv": 42977,
  "▁groen.": 34100,
  "lla": 28068,
  "▁glove": 38286,
  "▁bladeren": 13419,
  "▁uitwerking": 42776,
  "▁business": 12308,
  "▁dronken": 33229,
  "的印象": 26275,
  "珊": 3883,
  "沏": 3404,
  "上海市": 41226,
  "▁spandoek": 46433,
  "[wants": 33883,
  "▁sigaret": 43925,
  "blue": 39806,
  "▁fine": 13019,
  "0-5": 39837,
  "一人": 12445,
  "▁hearing": 32300,
  "鄢": 5730,
  "beeldbank": 7709,
  "惜": 2571,
  "吵架了": 27962,
  "▁harder": 13157,
  "▁ondergrond": 33105,
  "▁seaside": 43913,
  "让大家": 18293,
  "▁urine": 21998,
  "▁strook": 40214,
  "ask": 38025,
  "赏": 5449,
  "hear": 45683,
  "老师您": 36336,
  "纳": 4500,
  "报应": 39670,
  "": 6371,
  "9-16": 33531,
  "▁kreeft": 38617,
  "▁vochtig": 34685,
  "▁chick": 36500,
  "噤": 1811,
  "keizerlijke": 47307,
  "▁swear": 46984,
  "▁roept": 7724,
  "▁survey": 32644,
  "▁ahead.": 15189,
  "▁objective": 42116,
  "rf": 39228,
  "蔚": 5022,
  "get": 12710,
  "站住": 22996,
  "islamitische": 25238,
  "▁*mot:\tquack": 37085,
  "减轻": 31501,
  "▁halve": 12489,
  "晰": 3021,
  "▁broad": 38073,
  "▁love.": 21654,
  "孩子": 6795,
  "大多数": 16879,
  "-sa": 44347,
  "▁honing": 21603,
  "▁overleden": 15163,
  "▁bioscoop": 20836,
  "sporen": 28484,
  "▁rock": 9824,
  "链接": 25117,
  "▁over": 6490,
  "旭": 2972,
  "广播": 22231,
  "的成长": 24805,
  "臀": 4788,
  "30%": 40451,
  "今后": 17146,
  "中介": 33599,
  "佑": 1142,
  "脚踏实地": 46411,
  "▁sittin'": 34310,
  "[involuntary]": 10921,
  "▁*lll:\t": 30686,
  "噜": 1809,
  "公务员": 36580,
  "自己的情绪": 25826,
  "颦": 6115,
  "▁那么你": 29078,
  "strand": 40602,
  "▁so": 6524,
  "▁you're": 6648,
  "▁*chi:\tgo.": 37143,
  "gra": 15697,
  "▪": 818,
  "▁werden": 6829,
  " ·": 14907,
  "▁ra": 11824,
  "跟你商量": 41207,
  "期节目": 37873,
  "不动": 14008,
  "不需要去": 38711,
  "说的对": 39718,
  "draag": 39706,
  "州": 2300,
  "健身": 17787,
  "嘴": 1799,
  "▁*par1:\tthey": 38503,
  "▁我们可以": 16293,
  "▁*mot:\tnice": 17798,
  "▁repeats": 32213,
  "▁played": 9993,
  "▁我们会": 21404,
  "攻": 2911,
  "上升": 15043,
  "▁ark": 29940,
  "稍微有点": 44618,
  "崩溃": 16144,
  "▁described": 44788,
  "▁naald": 25447,
  "咪咪": 39685,
  "▁pastoor": 37476,
  "製": 5215,
  "酸奶": 40324,
  "高达百分之": 47361,
  "八卦": 25671,
  "很多事情": 18244,
  "值班": 29544,
  "没见": 25258,
  "04-1": 33614,
  "▁slice": 16125,
  "▁voor": 6475,
  "足球": 22121,
  "dle": 34440,
  "▁middelpunt": 31538,
  "waren": 34726,
  "structuurformule": 21363,
  "raan": 44404,
  "作者": 12165,
  "流行": 15184,
  "tekst": 14037,
  "侵权": 44244,
  "▁*chi:\tpop.": 46340,
  "daarom": 33411,
  "心甘情愿": 24238,
  "▁您看": 24370,
  "australische": 33001,
  "愤": 2599,
  "turtle": 40279,
  "的错误": 24652,
  "逐步": 21307,
  "祝你": 27114,
  "世人": 36935,
  "提升": 10521,
  "▁*mot:\tyeah.": 6703,
  "是一种": 8974,
  "我说": 9482,
  "▁ongezond": 36198,
  "▁heeft": 6537,
  "呛": 1611,
  "𝐄": 6383,
  "有钱人": 29719,
  "1846": 38176,
  "cake": 44329,
  "▁brievenbus": 47135,
  "电信": 32656,
  "你刚才说": 28778,
  "\nopgave": 14069,
  "地方": 7962,
  "▁非": 810,
  "酌": 5736,
  "害怕": 8129,
  "▁ontzettend": 16857,
  "痿": 4045,
  "leur": 31227,
  "男的": 10496,
  "上哪儿去": 43881,
  "▁bed,": 36382,
  "•": 507,
  "▁senaat": 23151,
  "▁artis": 33044,
  "4.000": 35244,
  "▁[sits": 36652,
  "烙": 3717,
  "来了一句": 32835,
  "scheiding": 36149,
  "▁*att:\t": 13167,
  "▁mor": 13076,
  "辣": 5591,
  "大脑": 16340,
  "▁verbrand": 20704,
  "▁ridders": 30525,
  "▁*gma:\tlet's": 47951,
  "位于": 19577,
  "▁opgewonden": 30708,
  "每": 3337,
  "▁tram": 19313,
  "▁now?": 7265,
  "▁在这里": 13751,
  "spits": 42480,
  "一路": 12607,
  "般配": 47237,
  "▁cleaner": 28901,
  "▁voortgezet": 35596,
  "▁ontdekten": 38603,
  "什么态度": 40943,
  "▁thanks": 13954,
  "澡": 3658,
  "身后": 17211,
  "▁lichter": 33686,
  "爱的": 14649,
  "▁kinda": 10726,
  "gras": 31120,
  "▁*chi:\tsure.": 38133,
  "捕": 2788,
  "禽": 4273,
  "▁najaar": 40866,
  "倒了": 22406,
  "交给你": 25487,
  "你看我": 23538,
  "怎么处理": 38484,
  "55)": 12971,
  "好坏": 36098,
  "胳膊": 17629,
  "出自": 38444,
  "僵": 1263,
  "ⵢ": 889,
  "跟他在一起": 15974,
  "就好": 10991,
  "tan": 21946,
  "研报": 41715,
  "▁rupsen": 38759,
  "▁karton": 33924,
  "▁shuttle": 46233,
  "低谷": 39308,
  "理解不了": 32368,
  "闪闪": 43310,
  "六个月": 29837,
  "▁platina": 45845,
  "▁have": 6482,
  "▁matter?": 12309,
  "为主": 17569,
  "阳气": 31409,
  "▁files": 27820,
  "unie": 40927,
  "▁bridge": 12831,
  "雪": 6020,
  "其实并不": 41381,
  "的那一刻": 25559,
  "哄": 1661,
  "▁februari": 10146,
  "▁[e": 13530,
  "▁'be": 24822,
  "▁interpretatie": 39211,
  "\tvarken": 46318,
  "▁jaar.": 10650,
  "▁shake.": 33865,
  "▁woonplaats": 31268,
  "▁*mot:\tmoo": 43129,
  "▁draag": 26481,
  "幸福": 7723,
  "rijn": 29545,
  "ter.": 37990,
  "▁[singing].": 8323,
  "管家": 33179,
  "▁而我": 19435,
  "还有什么": 16717,
  "有些人": 17920,
  "遮": 5681,
  "▁rooms": 36265,
  "▁kreun": 37492,
  "享": 1062,
  "意志": 23276,
  "▁proberen": 9698,
  "不要忘了": 35014,
  "激励": 30183,
  "\tdeze": 10017,
  "ช": 359,
  "保定": 41889,
  "两年前": 35106,
  "▁ladybug": 45127,
  "▁curious": 45879,
  "about": 32451,
  "▁mirjam": 35987,
  "▁daarvan": 10297,
  "▁[points]": 19762,
  "告诉南都记者": 42428,
  "糙": 4458,
  "丢人": 18127,
  "▁kara": 37965,
  "随即": 44297,
  "jar": 42808,
  "▁betaalt": 19786,
  "全家人": 37334,
  "绺": 4554,
  "逊": 5637,
  "圈儿": 24411,
  "▁form": 12755,
  "肢体": 47067,
  "很抱歉": 46498,
  "knop": 26201,
  "信托": 40565,
  "争议": 36494,
  "▁barrette": 44994,
  "▁*gma:\toh": 11454,
  "诗人": 32124,
  "ⵏ": 883,
  "speel": 24340,
  "▁myself.": 15049,
  "行啊": 20072,
  "跟着我": 18130,
  "▁highlight": 46724,
  "礼仪": 44807,
  "高效": 44224,
  "▁massive": 33872,
  "▁happen?": 25854,
  "▁muggen": 34463,
  "粮": 4444,
  "一瓶": 19945,
  "全球": 9948,
  "嘲笑": 22097,
  "▁*mot:\tpo": 32533,
  "解释": 8597,
  "▁kruis": 10380,
  "这样下去": 31712,
  ".\n*father:\tkijk": 46525,
  "厘米": 36939,
  "▁hadn't": 13071,
  "▁36": 16190,
  "搬出去": 44346,
  "▁veroveraar": 46003,
  "▁bedoelen": 43242,
  "▁所以才": 25910,
  "▁[baby": 20480,
  "gius": 25935,
  "▁*ken:\t": 27135,
  "讲过": 27431,
  "▁*sis:\tokay.": 42971,
  "▁kopen": 9600,
  "天堂": 38981,
  "红烧肉": 47166,
  "zette": 43370,
  "一带一路": 39686,
  "成果": 19278,
  "942)": 43058,
  "▁vanwege": 9376,
  "峪": 2274,
  "▁来人": 31978,
  "你快": 25253,
  "这么大": 10309,
  "▁quinn": 41818,
  "我真的": 12402,
  "男士": 42817,
  "弟子": 18772,
  "▁[ids.": 47035,
  "颊": 6098,
  "ba": 10820,
  "不至于": 20841,
  "toeristische": 36213,
  "▁vecht": 26415,
  "你应该": 19660,
  "气愤": 42109,
  "春秋": 34052,
  "▁cuddle": 23864,
  "膝": 4782,
  "出色": 31930,
  "▁vierkante": 29063,
  "▁vloeibaar": 34578,
  "自动": 18332,
  "▁amerikanen": 13351,
  "▁ie": 7023,
  "延": 2392,
  "▁如果您": 24329,
  "随": 5992,
  "八点": 11252,
  "today": 34229,
  "停车场": 46950,
  "?\n*father:\t": 11580,
  "酒吧": 19291,
  "查明": 39751,
  "les": 8441,
  "揶": 2843,
  "▁stick]": 32208,
  "互相": 10187,
  "▁carrots.": 34373,
  "疠": 4002,
  "▁garage.": 25305,
  "谈过": 26836,
  "ဗ": 405,
  "带上": 18651,
  "汾": 3396,
  "▁zonlicht": 27901,
  "hond": 19904,
  "▁ambacht": 42362,
  "▁pause.": 24190,
  "跤": 5499,
  "kov": 37373,
  "▁refers": 23115,
  "▁zal": 6981,
  "▁gelukt": 21689,
  "▁relaties": 35842,
  "▁discussie": 14538,
  "建成": 31034,
  "▁我们两个": 27215,
  "ldes/childes_na/": 20315,
  "巩固": 42539,
  "多少次": 28779,
  "▁telde": 27449,
  "▁wiggle": 47151,
  "迟到": 24166,
  "▁1988": 22280,
  "俭": 1208,
  "▁fur": 25102,
  "▁already?": 42681,
  "otten": 44628,
  "musical": 42853,
  "▁instead.": 41676,
  "时时刻刻": 43016,
  "你的女朋友": 34424,
  "wijken": 29231,
  "oide": 39587,
  "我一直": 19957,
  "历程": 43879,
  "应该做的": 32470,
  "verschuiving": 45307,
  "▁快": 718,
  "万人": 25488,
  "▁zoet": 17619,
  "▁我估计": 22513,
  "才有": 16291,
  "莞": 4944,
  "舞台上": 27251,
  "麦克风": 23379,
  "▁flo": 19540,
  "在外面": 10997,
  "▁huur": 15569,
  "否认": 24384,
  "王": 3864,
  "▁russisch": 18108,
  "▁van.": 26632,
  "▁voelde": 11694,
  "江山": 29441,
  "▁voedings": 21029,
  "叔叔阿姨": 39043,
  "▁mile": 25575,
  "▁retired": 42881,
  "▁mas": 25542,
  "iedereen": 32720,
  "将会": 14900,
  "想清楚": 32806,
  "▁pitch": 29151,
  "blokken": 43278,
  "照顾好自己": 36738,
  "▁passie": 40192,
  "不知道怎么": 18571,
  "找对象": 25541,
  "叮嘱": 36854,
  "他人": 12734,
  "▁*chi:\tsomeone": 39678,
  "▁hall": 14551,
  "▁jezelf": 13653,
  "壮": 1951,
  "▁naar": 6502,
  "乳": 1035,
  "in'.": 21485,
  "▁committed": 44008,
  "儆": 1265,
  "承诺": 15058,
  "更多的人": 34550,
  "▁succesvol": 23166,
  "▁waaien": 45415,
  "kleed": 29498,
  "仄": 1074,
  "了那么多": 26769,
  "▁struiken": 24841,
  "怕你": 15985,
  "俪": 1207,
  "▁buh": 35556,
  "属下": 31483,
  "▁inge": 18371,
  "stukjes": 46228,
  "▁leed": 38123,
  "ℳ": 544,
  "vijf": 28225,
  "▁*chi:\tother": 39261,
  "捧": 2794,
  "▁blanket]": 44210,
  "吃过": 16130,
  "忑": 2472,
  "▁productie": 10530,
  "极了": 16612,
  "▁我应该": 26192,
  "putten": 47498,
  "何苦": 45278,
  "media": 33622,
  "蕨": 5037,
  "总要": 33934,
  "*target_child:\t": 47293,
  "汜": 3379,
  "有没有什么": 22521,
  "▁guess.": 16329,
  "亲切": 31934,
  "可以通过": 24409,
  "别打了": 46015,
  "正确的": 25131,
  "▁anyway,": 17250,
  "▁'doe": 22725,
  "▁stevig": 14854,
  "帮帮我": 38654,
  "每天早上": 31029,
  "▁ten": 7024,
  "pelt": 47346,
  "▁让我": 9716,
  "再次": 9818,
  "▁ooster": 32842,
  "ers": 7358,
  "cia": 21969,
  "▁cough.": 44780,
  "▁shock": 27201,
  "mb": 15606,
  "▁1948": 23364,
  "在深圳": 37300,
  "典礼": 41950,
  "还在": 8373,
  "排斥": 33438,
  "在自己的": 28369,
  "是因为": 9078,
  "小野": 35166,
  "一天天": 35276,
  "▁handjes": 44763,
  "▁我来": 18167,
  "▁*a3:\tthey": 41021,
  "搡": 2855,
  "500": 17976,
  "golven": 47414,
  "▁evidence": 22434,
  "逐渐": 12676,
  "婚姻": 8339,
  "信用": 25367,
  "uele": 44101,
  "ほ": 918,
  "出来": 6911,
  "素": 4466,
  "看一下": 11434,
  "▁eye": 11880,
  "▁[$dis": 22789,
  "▁toys]": 12148,
  "soep": 31351,
  "▁azteken": 47481,
  "▁大家都": 11759,
  "▁想必": 35346,
  "▁vries": 22784,
  "辞职": 14942,
  "▁*chi:\ttalk": 43472,
  "▁that'll": 13833,
  "▁*chi:\thello.": 12295,
  "public": 45546,
  "kust": 36182,
  "▁swimming": 11017,
  "▁tijdschrift": 19925,
  "这个女的": 20938,
  "全面": 12320,
  "ian": 15659,
  "▁dorst": 34454,
  "▁kindjes": 35720,
  "脉": 4735,
  "漂": 3621,
  "▁125": 37479,
  "▁wrench": 40776,
  "晚安妈妈": 29937,
  "\twelke": 44516,
  "骆": 6194,
  "他俩": 15324,
  "即使": 19039,
  "▁[whispers]": 20100,
  "尽力": 18239,
  "劝我": 31026,
  "▁airplanes": 46946,
  "▁brushed": 45079,
  "▁centimeter": 14633,
  "intensiteit": 41117,
  "tz": 30027,
  "旌": 2959,
  "hoeve": 46859,
  "▁ophalen": 27227,
  "▁gezien": 7905,
  "柩": 3133,
  "har": 14812,
  "▁music": 10295,
  "始": 2033,
  "▁哪有": 19610,
  "评": 5296,
  "▁glas": 10086,
  "▁lap": 15452,
  "赧": 5465,
  "年轻人": 9895,
  "イ": 932,
  "縄": 4481,
  "▁enjoyed": 23274,
  "荒唐": 41502,
  "海外": 19708,
  "世界": 7575,
  "不怕": 10656,
  "tuin": 15537,
  "脑海里": 41747,
  "李老师": 36613,
  "望着": 24105,
  "▁arabisch": 35055,
  "下跌": 18154,
  "篇": 4407,
  "户口本": 44735,
  "猫": 3848,
  "▁你真": 20457,
  "锲": 5883,
  "▁twelve.": 28624,
  "leeuw": 37366,
  "▁*chi:\twhose": 42622,
  "经典": 17949,
  "▁gericht": 16213,
  "书房": 33571,
  "▁unie": 11331,
  "▁gesloopt": 36401,
  "▁gewassen": 22511,
  "说了算": 25801,
  "▁sandwich.": 13519,
  "缺少": 21617,
  "那一天": 20014,
  "inheemse": 26457,
  "only": 32186,
  "▁*mot:\tchi": 15584,
  "verkoop": 43904,
  "▁bid": 25627,
  "been": 23339,
  "黄金": 11822,
  "lleke": 45914,
  "target_child:\tpa": 45275,
  "target_child:\tik": 12219,
  "▁bisschop": 29150,
  "sneeuw": 39298,
  "▁spoorlijn": 17365,
  "▁verwond": 38032,
  "▁gevaarlijk": 11539,
  "小声": 28722,
  "往往是": 29555,
  "▁winston": 45685,
  "▁geestelijke": 42375,
  "围剿": 46672,
  "一号": 12298,
  "你自己": 7969,
  "spot": 36325,
  "▁1922": 38428,
  "running": 46513,
  "娥": 2066,
  "▁*mot:\tanything": 32774,
  "vlaamse": 18986,
  "▁finished": 8308,
  "▁就当": 30617,
  "ido": 35148,
  "盾": 4109,
  "真正的": 9530,
  "九岁": 34148,
  "▁teken": 9841,
  "赃": 5441,
  "拉黑": 30398,
  "₺": 538,
  "▁[.8": 22767,
  "▁reply": 35150,
  "ben": 13100,
  "4-17": 33562,
  "▁m": 617,
  "针对": 13522,
  "半句": 47348,
  "▁jeep": 37220,
  "▁kenia": 30322,
  "▁romeins": 46050,
  "▁magnet]": 34030,
  "🇫": 6397,
  "▁opstand": 13254,
  "▁drink.": 13153,
  "▁view.": 46872,
  "干扰": 29952,
  "▁butler": 19428,
  "going": 33350,
  "▁leave": 7497,
  "相对来说": 42464,
  "豹": 5396,
  "▁mol": 10899,
  "▁koop": 12404,
  "▁het": 6452,
  "▁joep": 15599,
  "没有机会": 35219,
  "▁have...": 28530,
  "锦": 5876,
  "▁ethiopie": 43754,
  "▁bruikbaar": 39147,
  "▁ieke": 34396,
  "let": 9984,
  "▁glimmen": 41585,
  "▁poep": 19539,
  "▁bil": 15623,
  "磕": 4232,
  "重视": 14873,
  "▁*fat:\tmm": 32706,
  "น": 366,
  "inging/babbling]": 46529,
  "▁there.": 6597,
  "▁*chi:\tduck.": 31907,
  "▁完全": 30764,
  "▁lab": 45643,
  "慰": 2611,
  "专业的": 19886,
  "▁pool.": 22916,
  "▁baa.": 45507,
  "这个时间": 25555,
  "wens": 47015,
  "▁scared": 11968,
  "到北京": 34645,
  "照顾": 8818,
  "▁frozen": 40950,
  "ten": 7255,
  "嬴": 2108,
  "ה": 256,
  "防": 5955,
  "之内": 14056,
  "uch": 24619,
  "steve": 46332,
  "后边": 18207,
  "▁\"ja": 38169,
  "解开": 25155,
  "▁toespraak": 27175,
  "很多地方": 45316,
  "这样的话": 14285,
  "礼貌": 16611,
  "')": 25007,
  "干涉": 31011,
  "▁0,6": 41700,
  "大海": 12886,
  "▁brul": 40430,
  "抢": 2701,
  "▁nest.": 40004,
  "降价": 45013,
  "▁clients": 43380,
  "▁oh.": 8770,
  "▁actually.": 15322,
  "▁uefa": 36219,
  "▁verliest": 26674,
  "▁prop": 19819,
  "▁liggen": 7923,
  "不说了": 18763,
  "grond": 17322,
  "oostenrijk": 41371,
  "莴": 4949,
  "▁perfect": 14684,
  "▁formos": 41497,
  "▁bezoek": 11798,
  "▁wereld.": 10839,
  "禀": 4264,
  "▁lastname": 37652,
  "▁belongs": 23990,
  "▁kandidaten": 23175,
  "简直": 17028,
  "lio": 44978,
  "▁之前": 16442,
  "▁figuur": 7236,
  "战士": 18334,
  "▁roosmarijn": 24061,
  "▁*fat:\there": 16433,
  "▁nickel": 35398,
  "戍": 2635,
  "▁我是一个": 28761,
  "▁[handing": 38893,
  "\n*child:\n*child:": 11594,
  "我妈妈": 23345,
  "就别": 15523,
  "蓉": 5011,
  "▁overijssel": 27128,
  "结实": 40588,
  "的名字叫": 31075,
  "▁puppies": 40392,
  "↫": 559,
  "惆": 2564,
  "公公": 15146,
  "▁openings": 43001,
  "殷": 3330,
  "▁kwart": 18297,
  "▁answering": 46264,
  "僧": 1260,
  "煎熬": 32429,
  "▁我希望你": 27131,
  "跬": 5502,
  "叠": 1536,
  "的未来": 20132,
  "▁pressing": 44533,
  "▁amen": 45867,
  "拖": 2728,
  "▁mei": 8426,
  "羚": 4613,
  "▁schippers": 47413,
  "移动": 18164,
  "▁havens": 35892,
  "▁(158": 35290,
  "收入": 10458,
  "▁*chi:\t[babbles]": 9120,
  "▁beautiful.": 19986,
  "▁第一次": 20041,
  "▁*adu:\tyou": 17601,
  "ooh.": 42985,
  "▁wiskunde": 21598,
  "帮您": 34012,
  "他媳妇儿": 29938,
  "oxy": 41306,
  "staten": 33155,
  "籍": 4429,
  "▁solid": 45536,
  "▁verstandig": 27705,
  "陶": 5985,
  "plaatsen": 19410,
  "▁gert": 41428,
  "其实也是": 35972,
  "宇宙": 19877,
  "▁engines": 37369,
  "▁western": 40486,
  "▁schouders": 14905,
  "里边": 8115,
  "": 6370,
  "▁vraagt": 7491,
  "▁*fat:\tdo": 9712,
  "所在的": 31985,
  "ll": 10277,
  "管我": 23855,
  "▁producent": 40910,
  "抵达": 28645,
  "▁*tea:\twho": 41010,
  "▁moeten": 6854,
  "坚定地": 40730,
  "て": 909,
  "▁air": 9595,
  "美股": 30558,
  "到他": 19379,
  "\n": 6,
  "▁愿": 723,
  "有什么事儿": 21409,
  "小白": 18374,
  "▁*chi:\t[hums]": 32879,
  "中年人": 39128,
  "▁sister]": 33258,
  "飒": 6119,
  "▁*sis2:\t": 19806,
  "人生": 8297,
  "撒娇": 24916,
  "这里边": 20622,
  "es/childes_na/n": 28693,
  "庭": 2379,
  "▁tha": 28496,
  "▁beach": 14009,
  "▁camera's": 36200,
  "纶": 4502,
  "▁nam": 9566,
  "▁diersoorten": 33167,
  "一事": 24692,
  "𝗝": 6390,
  "▁verscheen": 16234,
  "▁neerzetten": 45565,
  "elo": 33710,
  "▁crunchy": 42896,
  "apparaat": 29466,
  "▁opgesteld": 30165,
  "举手": 33891,
  "吃饭吧": 29129,
  "▁*chi:\ton": 8937,
  "快递员": 43103,
  "背着": 17955,
  "应该说是": 42150,
  "学": 2125,
  "▁我以为": 18096,
  "十八岁": 17215,
  "追": 5629,
  "▁[reads]": 46991,
  "固定": 18343,
  "▁called?": 9850,
  "▁slagen": 33897,
  "▁werkplaats": 39595,
  "改了": 30114,
  "▁max": 11365,
  "从容": 26859,
  "141": 46744,
  "roy": 30850,
  "来讲": 9584,
  "你来": 18567,
  "\n\nin": 30973,
  "澈": 3654,
  "偌": 1237,
  "的历史": 21810,
  "landelijke": 33382,
  "监": 4093,
  "▁lovely!": 36324,
  "wee": 26746,
  "琢磨": 17165,
  "▁gedichten": 25636,
  "▁wijze": 13162,
  "亲戚": 12016,
  "▁anneke": 43090,
  "唁": 1690,
  "镇上": 25146,
  "▁dear,": 30072,
  "▁him,": 15047,
  "▁exchange": 35223,
  "突发": 28378,
  ".\n*mother:\tkijk": 14465,
  "▁feathers": 31673,
  "pu": 20363,
  "▁countries": 28703,
  ".\n\nlater": 40803,
  "▁circa": 37924,
  "涯": 3524,
  "pels": 35294,
  "bur": 24381,
  "得怎么样了": 38773,
  "▁beneden": 9726,
  "5-8": 21601,
  "wald": 37106,
  "▁bekendste": 11964,
  "攻打": 39459,
  "▁'dan": 11535,
  "another": 40436,
  "▁advocaat": 28702,
  "zw": 16332,
  "▁klaver": 36487,
  "真的好": 26812,
  "垛": 1897,
  "突然想起": 38864,
  "哪怕": 14556,
  "马上": 8616,
  "佝": 1151,
  "slanden": 46392,
  "▁*rac:\t": 23608,
  "比我更": 42190,
  "长": 5908,
  "▁we'll": 7071,
  "▁mooier": 29206,
  "▁5%": 32196,
  "小羊": 37521,
  "▁vloek": 32450,
  "▁stiekem": 17239,
  "▁*exp:\tright": 32498,
  "▁rails": 32054,
  "钾": 5821,
  "▁cross.": 34759,
  "战斗": 14380,
  "wapen": 24684,
  "在我身边": 29146,
  "皂": 4070,
  "85)": 13483,
  "37": 21473,
  "goud": 35935,
  "▁her": 6557,
  "长大后": 43346,
  "减持": 22589,
  "接着说": 29854,
  "多大岁数": 36684,
  "វ": 488,
  "双双": 40604,
  "▁ix": 10071,
  "▁ya.": 15334,
  "▁top": 7005,
  "兽": 1304,
  "那个什么": 20217,
  "▁redelijk": 20467,
  "▁oplossen": 23627,
  "▁oma.": 21150,
  "豌": 5390,
  "dwong": 45920,
  "听懂了吗": 39151,
  "▁(13": 9999,
  "▁comes.": 24260,
  "汹": 3393,
  "透了": 27566,
  "▁verliezen": 18157,
  "筋": 4375,
  "砾": 4198,
  "▁jasje": 35144,
  "▁dress": 11802,
  "▁magma": 42423,
  "▁[hold": 10744,
  "▁今天是": 21112,
  "▁can't": 6639,
  "▁papieren": 28454,
  "隆家": 38922,
  "▁(be": 25610,
  "▁liber": 26625,
  "▁dinosaur?": 39452,
  "▁knocking": 27193,
  "指导员": 41697,
  "▁corn": 12611,
  "▁*mot:\tthink": 13748,
  "回家": 7227,
  "V": 61,
  "▁ruud": 41355,
  "▁我问你": 15061,
  "挂在": 28461,
  "中秋节": 43394,
  "预约": 26200,
  "▁veroordeeld": 22914,
  "▁*mot:\tsomebody": 26474,
  "さ": 901,
  "无比": 19920,
  "▁randen": 42932,
  "▁*ela:\t": 13459,
  "也没有": 8147,
  "有一点点": 31013,
  "▁really": 6686,
  "锟": 5870,
  "加上": 17507,
  "泳": 3449,
  "穿得": 34928,
  "▁lezen.": 15530,
  "憎": 2615,
  "耽": 4660,
  "▁sorting": 40328,
  "侍": 1172,
  "▁boomstam": 39149,
  "赌": 5447,
  "steen": 16343,
  "▁winke": 21748,
  "更多内容请": 43859,
  "⌉": 576,
  "别客气": 40700,
  "▁words.": 22384,
  "▁​​": 21083,
  "宅": 2137,
  "▁*chi:\tgonna": 25076,
  "不喜欢": 9534,
  "砸了": 29264,
  "总结": 14535,
  "除此之外": 35863,
  "▁ploeg": 20588,
  "▁lifted": 43344,
  "愎": 2592,
  "目光": 36700,
  "警方": 10663,
  "▁fantasy": 41726,
  "▁*chi:\tokay.": 7367,
  "严峻": 43393,
  "很高兴和你相遇在张德芬空间": 41626,
  "▁*mot:\tnin": 43358,
  "▁complain": 45402,
  "埃": 1907,
  "▁mooie": 8537,
  "直接": 7676,
  "▁boing": 37835,
  "他们的": 9676,
  "哪里": 10177,
  "▁duurste": 41851,
  "心": 2465,
  "免": 1279,
  "▁sem": 35253,
  "▁*mot:\t[sings]": 41366,
  "▁goedkope": 42448,
  "▁breuk": 26244,
  "▁responsible": 33869,
  "▁wakker": 11977,
  "▁*chi:\tball": 31706,
  "痤": 4034,
  "▁should've": 45751,
  "一道": 14034,
  "火箭": 31850,
  "蝴蝶": 22816,
  "北上": 34957,
  "会变成": 25237,
  "黯": 6346,
  "车厢": 40331,
  "kant": 15891,
  "▁tiktok": 25580,
  "那么": 6888,
  "▁cellulose": 42447,
  "绀": 4510,
  "▁所以我就": 21926,
  "洗衣": 45530,
  "遵循": 45637,
  "▁clown": 11637,
  "甫": 3965,
  "▁*chi:\tthey're": 9251,
  "凳子": 40515,
  "心理医生": 41231,
  "▁sier": 36978,
  "个头": 33824,
  "▁toy]": 16932,
  "合格": 29250,
  "再多": 16484,
  "▁mohammed": 32009,
  "多次": 14874,
  "二零一六年": 20628,
  "▁line':": 28594,
  "▁normandie": 45551,
  "krijgt": 41563,
  "盖": 4096,
  "心痛": 41520,
  "ylalanyl": 41711,
  "溏": 3589,
  "多吃点": 33475,
  "bil": 23184,
  "▁kistje": 47524,
  "扑通": 42012,
  "▁sho": 30228,
  "▁⌈and": 42517,
  "▁aange": 24353,
  "张老师": 30542,
  "命运": 14055,
  "▁zuilen": 46100,
  "星期六": 47454,
  "verkiezingen": 28615,
  "的知识": 28987,
  "协调": 26246,
  "▁family.": 22407,
  "▁drag": 45474,
  "▁boord": 17704,
  "▁sheep.": 17282,
  "说这话": 26641,
  "▁bouwde": 31690,
  "▁ingesteld": 35656,
  "▁慢慢的": 31178,
  "联邦": 43136,
  "十九": 14244,
  "▁对我": 22289,
  "▁place": 8058,
  "踏踏实实": 29757,
  "不放心": 22207,
  "▁*mot:\tblack": 40643,
  "▁handle]": 25496,
  "▁lag": 9325,
  "主持人": 14545,
  "缨": 4582,
  "▁哪个": 25531,
  "▁trash": 46210,
  "粤": 4441,
  "▁pleister": 41611,
  "▁ski": 15299,
  "▁book": 7010,
  "夏老师": 38938,
  "漫画": 36549,
  "▁martel": 44332,
  "▁sun": 9408,
  "褂": 5216,
  "转向": 36055,
  "▁verbond": 41658,
  "▁villa": 23407,
  "▁日本人": 30881,
  "▁bankbiljetten": 43763,
  "解答": 15118,
  "▁presenteerde": 43526,
  "▁10%": 26265,
  "影响力": 32131,
  "白雪": 36075,
  "没事了": 21113,
  "▁include": 37450,
  "▁zang": 22117,
  "▁insect": 27992,
  "并肩": 44379,
  "睡醒": 39965,
  "ster": 7715,
  "官司": 26160,
  "有毛病": 36358,
  "问题是": 17862,
  "▁answer.": 42637,
  "▁messed": 40812,
  "抠": 2699,
  "忍不住": 13156,
  "れ": 926,
  "杂": 3073,
  "▁原来是": 18543,
  "纷": 4503,
  "▁*pat:\ti": 28062,
  "▁say": 6630,
  "两个": 7429,
  "▁next?": 19836,
  "病情": 22043,
  "来临": 31254,
  "吃点东西": 47502,
  "lag": 44152,
  "▁doughnut": 45624,
  "罹": 4607,
  "▁klasgenoot": 36409,
  "▁*chi:\tdad": 15857,
  "naast": 34214,
  "▁motorcycle.": 45423,
  "未来的": 15320,
  "能": 4732,
  "▁tr": 17419,
  "▁awfully": 42057,
  "▁zuidoost-azie": 39565,
  "漂亮的": 14204,
  "柘": 3127,
  "不适": 33244,
  "身心": 23469,
  "▁belasting": 13448,
  "▁camera]": 14843,
  "洒": 3460,
  "汪汪": 46549,
  "璜": 3938,
  "▁auto": 7120,
  "▁stond.": 31699,
  "▁beth": 43150,
  "长得像": 39458,
  "▁vervoeren": 26937,
  "呵": 1620,
  "▁mine's": 41447,
  "姆": 2031,
  "▁knecht": 41900,
  "▁gemaakt.": 8920,
  "态度": 10461,
  "▁vos": 14125,
  "▁werkboek": 32834,
  "producent": 44923,
  "▁relatief": 20332,
  "龟": 6369,
  "▁negen": 11529,
  "▁lynn": 31444,
  "结果": 8019,
  "▁很多人都": 29024,
  "铃": 5825,
  "▁vracht": 27474,
  "▁language": 16703,
  "▁pig": 14466,
  "▁*inv:\ta": 12247,
  "▁digitale": 18251,
  "▁*chi:\ttrain": 33062,
  "ing": 6591,
  "▁thomas": 8018,
  "枭": 3114,
  "▁sing.": 36109,
  "之间的感情": 45979,
  "▁jane": 20749,
  "▁*bro:\ti'm": 29622,
  "我走了": 25361,
  "樱花": 41286,
  "min": 12038,
  "▁motorcycle": 29105,
  "服用": 34774,
  "▁*chi:\tdear": 44223,
  "cla": 29500,
  "\neen": 7331,
  "13-": 37056,
  "页": 6081,
  "hangen": 21507,
  "不够": 8689,
  "▁twaalf": 12328,
  "优质": 29765,
  "▁nil": 40266,
  "释": 5771,
  "▁rain": 12317,
  "▁he": 6481,
  "▁verdieping": 25127,
  "体验": 10520,
  "▁bulldozer": 43121,
  "‎": 497,
  "ique": 25765,
  "登录": 30245,
  "▁billen": 37551,
  "▁prima": 14286,
  "看待": 20494,
  "▁dialoog": 44431,
  "ave": 17648,
  "叫": 1544,
  "防治": 45244,
  "东京": 30056,
  "▁jager": 30917,
  "▁klimmen": 17709,
  "▁sunday": 11581,
  "▁snelle": 18404,
  "可能要": 28867,
  "\n\nlinks": 31004,
  "▁*chi:\tfor": 12494,
  "昨晚": 19315,
  "钰": 5813,
  "▁terechtkomen": 41282,
  "*chi:\t[vocalize]": 9807,
  "04)": 21904,
  "▁today": 7978,
  "bacterien": 41796,
  "▁pass": 12673,
  "-3": 34652,
  "▁通过": 14033,
  "逅": 5634,
  "▁verdampt": 40878,
  "媒": 2089,
  "▁kon": 6985,
  "▁*chi:\tokay": 8443,
  "安抚": 38373,
  "▁y": 626,
  "▁所以你": 12362,
  "槛": 3260,
  "▁什么时候": 17624,
  "▁cda": 20279,
  "督察": 42064,
  "下一次": 29594,
  "扎": 2662,
  "馅儿": 36240,
  "ɕ": 144,
  "糍": 4454,
  "eigen": 30857,
  "▁(144": 43162,
  "▁elftal": 18264,
  "▁pawn": 44743,
  "我看你": 30446,
  "▁lust": 20515,
  "药": 4932,
  "归宿": 44724,
  "▁testament": 44818,
  "plat": 32573,
  "见我": 23758,
  "▁*chi:\tdad.": 33842,
  "▁kersen": 44944,
  "很危险": 32871,
  "▁1903": 46896,
  "▁paw": 45669,
  "资": 5442,
  "▁kra": 17290,
  "▁air.": 19720,
  "咋的呀": 36535,
  "浴": 3498,
  "耙": 4653,
  "▁seconde": 18054,
  "八万": 22613,
  "三哥": 33027,
  "就给我": 26056,
  "▁negatief": 22422,
  "▁voorkomt": 19328,
  "维": 4549,
  "就是说": 7816,
  "负责任": 25267,
  "的技术": 27144,
  "很严重": 36757,
  "旗": 2963,
  "ຂ": 390,
  "只是个": 33050,
  "箭": 4401,
  "natuurlijk": 33623,
  "▁fc": 12838,
  "1]": 12862,
  "说话了": 26130,
  "er's": 36872,
  "▁or...": 29898,
  "▁dwang": 46804,
  "▁oil": 19810,
  "谣言": 35341,
  "髋": 6219,
  ":\t": 22264,
  "95": 19874,
  "へ": 917,
  "搁": 2846,
  "劝": 1409,
  "▁medewerker": 37858,
  "媳妇儿": 8782,
  "蜕": 5121,
  "▁happy": 8007,
  "女的": 11202,
  "▁pitcher]": 30774,
  "▁kwww": 27997,
  "▁atelier": 42203,
  "戴口罩": 34173,
  "想得": 20856,
  "▁kennen.": 28430,
  "▁uitge": 13055,
  "坑": 1875,
  "买什么": 35702,
  "家伙": 15994,
  "▁47": 27403,
  "▁...zijn": 45988,
  "保养": 36995,
  "堪": 1923,
  "五六": 19946,
  "讼": 5288,
  "就没": 11084,
  "椿": 3228,
  "掌柜的": 28711,
  "leven": 12825,
  "彼岸": 34820,
  "会产生": 28381,
  "▁patty": 42670,
  "成败": 44221,
  "vv": 22760,
  "▁人民网陪你阅读我是": 34666,
  "真是太": 21639,
  "证明自己": 31103,
  "▁hoorde": 10364,
  "▁*mal:\t": 38388,
  "edmund": 44288,
  "新疆": 25209,
  "hey": 21364,
  "terwijl": 7435,
  "在这个时候": 23066,
  "▁child's": 22238,
  "穿了": 26153,
  "一辆": 15242,
  "可乐姐姐": 37043,
  "avi": 30271,
  "▁beesten": 28575,
  "类似": 20097,
  "▁kust": 9893,
  "抵抗": 24518,
  "wedstrijden": 19014,
  "▁*chi:\tmummy": 9360,
  "庄子": 39821,
  "▁colors.": 18101,
  "圾": 1866,
  "这边请": 44824,
  "\twas": 27637,
  "154": 44981,
  "機": 3280,
  "证监会": 34738,
  "▁*mot:\t[gasp]": 19114,
  "▁andere": 6618,
  "睡前故事": 45071,
  "▁vertrok": 25491,
  "▁john": 8615,
  "已经不是": 35139,
  "▁pappa": 26963,
  "芊": 4839,
  "▁grass.": 18928,
  "▁*chi:\topen": 13933,
  "▁fighting": 23245,
  "头晕": 42289,
  "该如何": 22785,
  "▁bor": 19177,
  "▁我才": 19633,
  "称赞": 42439,
  "桌子": 17763,
  "带了": 20185,
  "▁trunk.": 34730,
  "you": 9594,
  "▁shouldn't": 10674,
  "在生活当中": 37731,
  "▁*fat:\tbe": 42256,
  "▁wespen": 44870,
  "还是想": 34168,
  "身边": 8575,
  "\tjaja": 43104,
  "president": 41630,
  "▁*chi:\twoof.": 46242,
  "▁doggie?": 37904,
  "瓶子": 21197,
  "充分": 14652,
  "转告": 35330,
  "que": 12417,
  "主体": 26969,
  "mp": 11121,
  "▁...be": 37489,
  "▁*mch:\tmy": 47769,
  "两位": 11364,
  "我嫂子": 25706,
  "痒": 4026,
  "▁sla": 13636,
  "有名的": 28109,
  "当年": 9317,
  "的人": 6614,
  "▁anthony": 37357,
  "▁1940": 22617,
  "怎么又": 23949,
  "chee": 44652,
  "▁*gra:\twhat": 26069,
  "▁rug]": 42103,
  "装逼": 41578,
  "▁puppy.": 23108,
  "▁*chi:\tcut": 30275,
  "永远": 8472,
  "换来": 22676,
  "衙门": 40167,
  "▁gevolgd": 19600,
  "破坏": 13394,
  "你心里": 22758,
  "▁[yells]": 47916,
  "▁interaction": 35996,
  "ops": 47263,
  "▁今晚": 19641,
  "罚": 4600,
  "垩": 1902,
  "轻微": 47466,
  "先后": 24811,
  "指责": 17276,
  "▁*tea:\tit's": 36126,
  "amsterdam": 33222,
  "➡": 864,
  "▁bee.": 24657,
  "▁sar": 22336,
  "opper": 36268,
  "▁我是不是": 29784,
  "犹": 3816,
  "没带": 34810,
  "▁presidentschap": 31091,
  "研": 4185,
  "威": 2052,
  "▁betrouwbaar": 39337,
  "针": 5788,
  "幺幺": 37179,
  "59": 18254,
  "ф": 223,
  "▁see,": 12227,
  "肉": 4680,
  "chen": 25031,
  "▁ride": 9446,
  "▁也不是": 16540,
  "▁bevroren": 35449,
  "▁baasje": 22945,
  "有三": 27548,
  "yll": 39048,
  "在你": 11820,
  "▁100.000": 28979,
  "▁rietje": 47626,
  "▁eggs": 14222,
  "▁wou": 12216,
  "▁year.": 12951,
  "▁bevinden": 17416,
  "▁fossielen": 40250,
  "鹗": 6311,
  "不断": 9840,
  "▁laatste": 7214,
  "▁tractor?": 38784,
  "三十五": 22140,
  "▁my...": 27560,
  "周五": 37567,
  "▁增长百分之": 47140,
  "▁zwijnen": 46654,
  "对我": 7929,
  "到最后": 13040,
  "▁play.": 12996,
  "第一件事": 47358,
  "百亿元": 42766,
  "▁bieden": 19426,
  "刊": 1363,
  "▁你愿意": 24790,
  "▁bouwwerk": 44509,
  "一个女人": 12087,
  "京东": 26524,
  "▁mumbling": 45265,
  "▁hierin": 13991,
  "现实中": 31287,
  "aha": 30927,
  "蜡": 5126,
  "孤单": 16534,
  "ek": 9701,
  "友情": 21704,
  "▁aangelegd.": 37298,
  "▁rapper": 31164,
  "裁员": 37324,
  "bury": 45691,
  "严": 995,
  "▁organize": 47259,
  "▁taylor": 18815,
  "buh": 44685,
  "▁pockets": 37257,
  "▁shirt.": 16973,
  "▁*chi:\tmm.": 8467,
  "▁uitbrengen": 44622,
  "grote": 16060,
  "可以直接": 37019,
  "骏": 6200,
  "刚才我": 31889,
  "liedjes": 38002,
  "城外": 38339,
  "▁happen": 11172,
  "▁maan": 10367,
  "呈现": 18747,
  "不管你": 24316,
  "▁*chi:\that": 44933,
  "▁capital": 18639,
  "vrije": 33203,
  "俞": 1202,
  "rust": 26999,
  "鹳": 6322,
  "▁liberalen": 33158,
  "▁*nan:\tshe": 46470,
  "▁blocks": 10770,
  "▁know": 6514,
  "▁vegetable": 34796,
  "speak": 44913,
  "at": 7593,
  "dur": 30041,
  "▁[whispering].": 25981,
  "一个道理": 37127,
  "也就是说": 26333,
  "▁moord": 20654,
  "▁*ste:\tthat": 42755,
  "▁carl": 11133,
  "▁pagina": 12013,
  "囡": 1834,
  "一个小小的": 31754,
  "干啥呢": 22044,
  "▁mummy's": 9764,
  "▁fin": 22417,
  "▁leef": 24185,
  "很快就会": 28727,
  "🚨": 6433,
  "▁vin": 22036,
  "▁onderneming": 22323,
  "不要着急": 42669,
  "▁verstand": 30668,
  "的记忆": 22607,
  "▁wolkenkrabbers": 42401,
  "▁*mot:\t[eating": 21000,
  "警": 5264,
  "s:": 16666,
  "的想法": 10779,
  "▁(173": 40158,
  "▁*mot:\tbut": 6966,
  "董": 4991,
  "▁piece.": 18812,
  "成年": 23926,
  "头像": 23057,
  "▁lin": 14336,
  "m²": 44886,
  "▁times,": 42382,
  "▁情绪": 34256,
  "市民": 20292,
  "ille": 17694,
  "咨": 1646,
  "▁resolution": 33868,
  "gekenmerkt": 43670,
  "▁versterken": 39036,
  "▁1969": 27109,
  "这段感情": 15106,
  "了自己的": 18830,
  "▁pizza": 11258,
  "▁*fat:\thi": 31659,
  "你": 1154,
  "▁comments": 19384,
  "是如何": 22954,
  "av": 32596,
  "▁troost": 46653,
  "咻": 1656,
  "椽": 3227,
  "▁emoties": 25635,
  "ገ": 459,
  "▁cliff": 38914,
  "了他": 11141,
  "组成": 17627,
  "▁puber": 37949,
  "不干了": 31964,
  "必有": 30071,
  "cra": 26903,
  "▁那既然": 39892,
  "middelen": 25908,
  "趸": 5485,
  "效果": 12321,
  "▁2-1": 45455,
  "吃亏": 22915,
  "的表情": 23598,
  "耐": 4648,
  "夏季": 39461,
  "▁kwak": 31331,
  "▁ibrahim": 46879,
  "跟你讲": 23805,
  "饿死": 26222,
  "▁lees": 7297,
  "▁balloon.": 16905,
  "▁不是说": 18086,
  "屉": 2229,
  "能够": 6961,
  "▁*fat:\tuhhuh": 38781,
  "▁assume": 33988,
  "飞行": 21299,
  "▁goedkoop": 30554,
  "use": 25956,
  "▁schieten.": 37952,
  "ju": 13810,
  "玩游戏": 18227,
  "海底": 30959,
  "methyl": 37060,
  "想说": 18206,
  "⌉.": 8876,
  "▁strike": 30334,
  "涂山": 39425,
  "那么大的": 33873,
  "▁[m": 8365,
  "verschillen": 39212,
  "群里": 28183,
  "▁iedereen": 7300,
  "❀": 861,
  "殿下": 14006,
  "▁随后": 23234,
  "▁fietspad": 44115,
  "▁*jes:\toh": 34034,
  "▁veluwe": 33636,
  "带回去": 41859,
  "买衣服": 31039,
  "给自己": 9302,
  "▁passen": 11641,
  "久等了": 38615,
  "看完": 19544,
  "▁gaan": 6666,
  "簋": 4421,
  "盹": 4107,
  "▁robber": 44483,
  "谎": 5355,
  "吸引力": 34614,
  "teelt": 34526,
  "鲍": 6250,
  "▁isotoop": 47759,
  "758": 47889,
  "扶": 2681,
  "tekort": 29562,
  "远远": 16419,
  "乒": 1020,
  "▁当然": 8503,
  "test": 20193,
  "▁krijg": 8864,
  "▁hill.": 30180,
  "▁schilderkunst": 41354,
  "七七": 38138,
  "埠": 1913,
  "▁statement": 21705,
  "▁prestatie": 37099,
  "恐龙": 23495,
  "controle": 36112,
  "nor": 24011,
  "圪": 1861,
  "▁阿姨": 16070,
  "罚款": 27506,
  "▁'on": 36672,
  "▁*mot:\top": 46593,
  "▁down]": 8784,
  "oto": 26383,
  "regime": 40764,
  "oranje": 47245,
  "误解": 29823,
  "讧": 5271,
  "▁hypothe": 36148,
  "雕": 6017,
  "▁vriend": 10491,
  "▁groeten": 38943,
  "英子": 36002,
  "柄": 3120,
  "ng": 10654,
  "▁bolt": 36224,
  "▁guy's": 39614,
  "▁*mot:\ti": 6552,
  "号码": 22705,
  "跌倒": 44114,
  "她老公": 14141,
  "coco": 41587,
  "▁elektro": 34829,
  "▁*chi:\t[sings]": 15318,
  "▁leid": 41868,
  "▁o'clock,": 45709,
  "▁trip.": 43735,
  "▁dus": 6784,
  "替他": 21936,
  "water": 9927,
  "▁useful": 24610,
  "▁verdriet": 27953,
  "愿": 2602,
  "码头": 27487,
  "▁000": 25002,
  "▁spaceship": 35684,
  "詩": 5252,
  "▁bought": 8760,
  "李未央": 47610,
  "▁benelux": 44103,
  "甭管": 31980,
  "受益": 31089,
  "在一起了": 19676,
  "▁ijssel": 26586,
  "▁vervolgd": 37957,
  "▁exercise": 21421,
  "漫漫": 46324,
  "杭州": 15730,
  "▁vloed": 41976,
  "可言": 40539,
  "▁%int:\t": 9380,
  "▁operatie": 18261,
  "掂": 2804,
  "一口气": 21423,
  "蹋": 5529,
  "子孙": 38102,
  "▁tri": 13928,
  "ro": 8399,
  "mon": 12066,
  "dan": 13191,
  "火星": 36889,
  "▁*mot:\tpush": 15724,
  "▁sale": 24337,
  "正准备": 34091,
  "▁/": 592,
  "▁美国": 12046,
  "婚": 2078,
  "兵团": 41221,
  "渔": 3559,
  "氛围": 25984,
  "百分之五": 30746,
  "boon": 47980,
  "阚": 5948,
  "uhuh": 39148,
  "▁slikken": 39438,
  "催": 1254,
  "方便": 11622,
  "没人": 11553,
  "▁metaal": 14885,
  "湮": 3583,
  "ョ": 960,
  "多想": 25512,
  "商量商量": 32529,
  "滔": 3609,
  "▁silly": 10148,
  "▁meel": 29492,
  "▁你已经": 27349,
  "挂了": 18919,
  "先把": 16110,
  "▁koffie": 9434,
  "没有资格": 38675,
  "就是这么": 32250,
  "金钱": 17567,
  "你听我说": 21652,
  "ney": 14647,
  "▁phoned": 27679,
  "的时间": 7420,
  "▁wow": 18545,
  "一份工作": 33804,
  "小松鼠": 25369,
  "☺": 836,
  "▁bepaal": 35451,
  "bijvoeglijk": 27801,
  "▁(100": 22653,
  "▁tea.": 11104,
  "此生": 39813,
  "▁*inv:\tmhm.": 11597,
  "找了一个": 25510,
  "▁divisie": 22526,
  "▁bovendien": 12257,
  "方法": 9549,
  "▁kamperen": 43471,
  "▁gemist": 41675,
  "›": 511,
  "▁value": 22984,
  "连累": 31861,
  "daal": 32227,
  "▁slaan": 16048,
  "生命的": 19134,
  "what's": 19501,
  "的权利": 21876,
  "▁peppa": 40563,
  "ttle": 31819,
  "嗽": 1779,
  "黄河": 26566,
  "也许": 11443,
  "ho": 9946,
  "碗面": 43360,
  "baas": 31708,
  "暂": 3026,
  "cha": 6997,
  "loon": 27389,
  "暴跌": 47923,
  "倪": 1230,
  "▁tries": 9768,
  "▁oxford": 18719,
  "都给我": 22554,
  "▁boerderij": 14454,
  "verbindingen": 26638,
  "▁likely": 20244,
  "▁engels": 10087,
  "▁unit": 21397,
  "▁potatohead": 46006,
  "▁wondered": 31537,
  "[comes": 46657,
  "▁vandaan.": 34696,
  "结了婚": 22899,
  "盟主": 38386,
  "hul": 32072,
  "▁winner": 37339,
  "▁*mot:\t\"": 7021,
  "\tleuk": 37255,
  "老大": 13318,
  "你都不知道": 38824,
  "▁amalia": 44022,
  "微笑着": 44031,
  "ische": 8565,
  "▁because...": 40032,
  "▁veeg": 32400,
  "虎": 5063,
  "很多人": 9791,
  "饮食": 15940,
  "न": 336,
  "▁waardoor": 7397,
  "▁supermarket": 38165,
  "二零一九年": 10937,
  "跟您说": 25107,
  "big": 28903,
  "\n\nstation": 36208,
  "raw": 45124,
  "▁27": 10627,
  "▁stalin": 24071,
  "▁massachusetts": 45898,
  "▁person": 8653,
  "ving": 16440,
  "决赛": 37691,
  "▁noord-afrika": 44969,
  "概": 3241,
  "不给": 22553,
  "夏天": 11942,
  "皮鞋": 46383,
  "老娘": 25774,
  "▁啥": 690,
  "坚持下去": 39883,
  "▁home": 7188,
  "本质": 38530,
  "前提是": 38223,
  "▁populairste": 25599,
  "ified": 35301,
  "矾": 4177,
  "▁tegenstanders": 17993,
  "▁help.": 17751,
  "niveau": 19202,
  "▁[pretend": 24429,
  "融资": 16517,
  "想过": 12715,
  "商品": 14811,
  "▁floor": 7831,
  "宋": 2141,
  "investigator:\to": 18848,
  "▁knikker": 35001,
  "娃娃": 18009,
  "▁papa.": 31548,
  "花生": 31349,
  "▁hay": 22255,
  "▁buiten.": 16839,
  "例行": 41897,
  "基地": 17848,
  "▁那接下来": 28874,
  "魄": 6234,
  "许可": 39473,
  "pardon?": 18886,
  "帐": 2324,
  "wood": 17477,
  "▁me?": 7275,
  "群众": 15860,
  "▁nadruk": 35231,
  "▁neon": 42484,
  "▁er,": 7189,
  "▁piglet": 32244,
  "一名": 11083,
  "▁tarwe": 33920,
  "面上": 17131,
  "的前提下": 34932,
  "お": 895,
  "stel": 12349,
  "▁“i": 37721,
  "向我": 19845,
  "▁wonnen": 25116,
  "▁lock": 16571,
  "▁tape": 7930,
  "▁·\n189": 47049,
  "▁然后又": 22844,
  "▁oekraiens": 46014,
  "摔倒": 32689,
  "▁都怪我": 43087,
  "面儿": 20427,
  "跟人家": 20164,
  "核心": 15677,
  "(iii)": 35211,
  "▁*mot:\twhere": 6936,
  "▁'hier": 19188,
  "宁愿": 19950,
  "ink": 13588,
  "\ndit": 22512,
  "有趣": 18990,
  "▁jammer": 14166,
  "闻到": 33711,
  "馍": 6161,
  "▁hours.": 37275,
  "▁egyptenaren": 33195,
  "▁tekst.": 19908,
  "▁二零一八年": 23550,
  "城墙": 42540,
  "\n*mother:\the": 42091,
  "▁knap": 18819,
  "个大": 20307,
  "▁noises].": 8265,
  "强奸": 46944,
  "张明": 19456,
  "待了": 28812,
  "▁*fat:\twow": 43497,
  "▁luier": 30095,
  "▁fay": 47724,
  "denemarken": 47899,
  "静华": 38325,
  "折磨": 17263,
  "▁国内": 29158,
  "▁renaissance": 24162,
  "病": 4020,
  "▁看样子": 47443,
  "cyclus": 38602,
  "你今天": 22943,
  "▁而且我": 16219,
  "歃": 3298,
  "更快": 34972,
  "\n*mother:\n*": 29672,
  "缭": 4585,
  "▁[sis": 22064,
  "▁你先": 11753,
  "依旧": 15329,
  "▁1932": 32587,
  "认真": 10959,
  "▁west-": 18187,
  "▁helpt": 11893,
  "髡": 6223,
  "一分钟": 18366,
  "名为": 31841,
  "service": 47190,
  "啊什么的": 27869,
  "三年": 8806,
  "满足": 9187,
  "▁*mot:\tyep.": 13489,
  "过程": 11801,
  "老朋友": 28308,
  "▁ontmoette": 30217,
  "-2005)\n": 43756,
  "起身": 33551,
  "▁bits.": 40077,
  "舀": 4803,
  "领域": 10976,
  "▁*chi:\tstill": 47026,
  "▁increase": 18535,
  "▁hiermee": 11836,
  "热水": 24074,
  "▁至少": 16207,
  "试试": 11360,
  "▁living": 9709,
  "▁bedoeling": 14007,
  "欢呼": 42799,
  "▁ging": 6801,
  "▁vrijkomt": 43368,
  "到什么程度": 35094,
  "授权": 41386,
  "热点新闻": 40116,
  "借款": 44412,
  "gezet": 25602,
  "医院": 7744,
  "drie": 21254,
  "▁sing?": 36571,
  "legde": 20370,
  "▁checking": 29133,
  "找着": 22637,
  "提过": 34151,
  "▁mis.": 35798,
  "▁looptijd": 44211,
  "从小到大": 21256,
  "撩": 2882,
  "▁estate": 33480,
  "▁gardening": 46695,
  "▁kap": 20166,
  "榈": 3244,
  "讲的": 13632,
  "寨": 2188,
  "馁": 6154,
  "▁thirty.": 37309,
  ".\n*adult:\twat": 35905,
  "▁aquarium": 26646,
  "▁0,1": 26876,
  "代理": 23338,
  "ℰ": 543,
  "不开心": 12614,
  "功课": 30369,
  "传染": 25623,
  "nnen": 17271,
  "▁all": 6517,
  "▁capaciteit": 38156,
  "打了个": 40645,
  "箴": 4403,
  "▁bird's": 38887,
  "schrijving": 40944,
  "七百": 15050,
  "对面": 16951,
  "克制": 31012,
  "身边的朋友": 33946,
  "▁hunt": 36676,
  "lli": 36418,
  "▁koekje": 18803,
  "▁eu-": 41995,
  "▁football?": 36491,
  "🌌": 6403,
  "▁pas": 7381,
  "饬": 6138,
  "▁trade": 13994,
  "才": 2661,
  "▁telephone": 12064,
  "▁comp": 22496,
  "玩手机": 22746,
  "馒": 6164,
  "那小子": 36416,
  "action": 30756,
  "▁ontsnapte": 41365,
  "ieren": 28298,
  "惭愧": 38691,
  "纪律": 26233,
  "▁*mot:\tthey've": 22782,
  "开玩笑": 10993,
  "▁recording": 14245,
  "L": 51,
  "▁clean": 8638,
  "three": 25156,
  "▁*bro:\tmommy": 31514,
  "▁stuff.": 10282,
  "胃口": 31140,
  "嫌我": 37477,
  "▁bekken": 43153,
  "gue": 26023,
  "十二年": 37857,
  "任": 1104,
  "▁aparte": 18070,
  "冷静": 13509,
  "说的是": 15471,
  "没听见": 38548,
  "kans": 42869,
  "▁site": 11645,
  "ell": 15139,
  "白色": 26863,
  "▁mexico": 13561,
  "▁gekapt": 37801,
  "劳动": 15754,
  "情书": 40081,
  "分成": 34477,
  "叫我": 10218,
  "闺蜜": 11435,
  "特别的": 11488,
  "▁leidt": 13911,
  "ant": 11805,
  "竖": 4342,
  "这个世界": 12615,
  ".\n*mother:\txxx": 10035,
  "▁two,": 11268,
  "独处": 27582,
  "诬": 5328,
  "▁dansen": 13567,
  "▁torens": 38671,
  "不知道": 7408,
  "▁*inv:\taye": 29014,
  "媲": 2093,
  "可控": 46964,
  "绵": 4550,
  "#": 10,
  "▁ontslagen": 31171,
  "库": 2367,
  "勉": 1427,
  "撤退": 33836,
  "HELLO": 36852,
  "干嘛呢": 19560,
  "▁tot": 6594,
  "溢": 3594,
  "谴": 5383,
  "簟": 4423,
  "糊": 4453,
  "▁groenland": 27837,
  "vraag": 16103,
  "朋友们": 13480,
  "皇家": 41224,
  "斐": 2937,
  "知足": 31313,
  "▁*mot:\tsarah": 35545,
  "▁bern": 32547,
  "▁[read]": 8033,
  "▁*chi:\thot.": 37943,
  "也别": 20070,
  "▁binden": 38376,
  "▁eraf": 21848,
  "知晓": 43195,
  "?\n*investigator:": 7076,
  "▁*chi:\tlast": 42740,
  "鸡汤": 27776,
  "▁laten": 7121,
  "尘": 2209,
  "▁recommendations": 46083,
  "主": 1007,
  "▁data": 35979,
  "捣": 2793,
  "frans": 46265,
  "close": 44043,
  "▁trapt": 43196,
  "▁[is": 33725,
  "▁omroep": 16644,
  "▁*chi:\twanna": 13638,
  "woo": 28630,
  "三只": 27177,
  "竿": 4354,
  "▁bam": 34037,
  "▁1921": 45011,
  "▁*mot:\treally": 18035,
  "gekleurde": 24295,
  "▁feestdagen": 44915,
  "gordel": 37663,
  "不了你": 27890,
  "长大了": 13643,
  "jullie": 16036,
  "债务": 23192,
  "▁onver": 21834,
  "▁tall": 14471,
  "▁具体": 19261,
  "▁差不多": 26463,
  "什么玩意儿": 30376,
  "前两天": 16263,
  "▁dried": 29497,
  "的勇气": 23563,
  "依然": 9266,
  "南山": 39646,
  "民警": 20006,
  "耿": 4661,
  "一会儿就": 24709,
  "▁praktische": 40163,
  "[raspberry]": 42699,
  "▁ionen": 21306,
  "▁*chi:\tthink": 20832,
  "vruchtbare": 42941,
  "kortweg": 40382,
  "篑": 4409,
  "气温": 33317,
  "oordeel": 38244,
  "▁dip": 30162,
  "▁有个": 19564,
  "▁haar": 6567,
  "▁genre": 27786,
  "不在意": 34115,
  "?\n*mother:\thee": 46585,
  "可以": 6662,
  "▁stuart": 21968,
  "▁rechtvaardig": 42151,
  "和她": 21259,
  "磕碜": 45101,
  "▁uitkomst": 20119,
  "▁website": 12055,
  "▁那些": 10930,
  "▁beads.": 42316,
  "▁bezig": 9124,
  "▁pushed": 17492,
  "ク": 936,
  "灿烂": 26824,
  "▁dom": 13219,
  "散了": 21622,
  "多少钱": 10224,
  "staven": 41227,
  "海边": 29220,
  "困境": 23879,
  "▁ademhaling": 41660,
  "▁jezus": 16677,
  "是为了": 9415,
  "▁krap": 35873,
  "▁gul": 45240,
  "胡": 4719,
  "舅舅": 19297,
  "geschiedenis": 23748,
  "升起": 42735,
  "pen": 8502,
  "ela": 29685,
  "▁verkiezing": 37670,
  "[picks": 8244,
  "zij": 16997,
  "aki": 44954,
  "▁20.000": 36338,
  "技巧": 23173,
  "investigator:\tik": 26575,
  "尔": 2206,
  "▁pillows": 43659,
  "吃顿饭": 36436,
  "▁slimme": 27741,
  "▁douglas": 31332,
  "▁behandelen": 32081,
  "就剩": 33252,
  "▁cho": 28070,
  "公里": 13939,
  "捞": 2789,
  "▁hoofddoek": 47223,
  "▁*mot:\t[sharp": 34139,
  "▁klooster": 20757,
  "▁aflossing": 43510,
  "册": 1310,
  "席": 2334,
  "▁docent": 22811,
  "▁cheerio": 42599,
  "▁zo": 6553,
  "▁piloot": 27161,
  "▁politie.": 34297,
  "▁*mot:\tbear": 44100,
  "▁ouders": 7903,
  "早已": 15685,
  "够了": 14778,
  "▁*mot:\tc": 16394,
  "失控": 31961,
  "▁californie": 22559,
  "不用不用": 32538,
  "▁dekker": 33456,
  "▁lemon": 26651,
  "▁spul": 46378,
  "▁starfish": 42221,
  "出的": 21611,
  "灾": 3686,
  "▁tekstfragment": 25085,
  "浙": 3489,
  "仇恨": 33183,
  "▁mel": 26760,
  "有期徒刑": 47692,
  "kinderen": 17717,
  "▁clara": 38948,
  "弈": 2400,
  "羊肉": 29630,
  "万辆": 46629,
  "原": 1512,
  "▁reduce": 40225,
  "kes": 20153,
  "▁nice": 6850,
  "▁voortaan": 22145,
  "▁bocht": 23310,
  "倨": 1228,
  ".\n*mother:\tgoed": 19748,
  "▁vierde": 12837,
  "▁*mad:\t": 13107,
  "灰": 3681,
  "洛": 3463,
  "86)": 33313,
  "▁*mot:\twoah": 40724,
  "▁midden-": 31603,
  "相继": 42341,
  "桃": 3165,
  "殄": 3317,
  "莫名的": 47767,
  "es/childes_uk/m": 23856,
  "再看": 31842,
  "▁against": 9665,
  "车里": 29205,
  "舫": 4817,
  "▁barrel": 26019,
  "iet": 20266,
  "▁%add:\t": 13220,
  "标准": 9933,
  "发起": 20535,
  "▁rijkdom": 33641,
  "\tweet": 17705,
  "▁1,0": 22301,
  "▁ebbie": 24720,
  "过几天": 27482,
  "ܐ": 313,
  "有个朋友": 42658,
  "没有找到": 29305,
  "▁screws": 40541,
  "010": 35964,
  "▁doos": 12412,
  "1889": 47805,
  "▁*chi:\tl": 25970,
  "发呆": 43314,
  "▁没错": 16721,
  "▁bears": 18674,
  "▁唯有": 28131,
  "牌": 3788,
  "挺挺": 38292,
  "等待": 12415,
  "▁*chi:\t[screams]": 22079,
  "▁lois]": 36095,
  "finish": 45817,
  "▁politieke": 8292,
  "已经知道了": 45279,
  "▁paniek": 22543,
  "▁uh...": 17462,
  "▁gier": 35141,
  "▁uitbrak": 46250,
  "▁*exp:\tsure": 39729,
  "我跟": 10898,
  "▁'of": 33853,
  "ies": 9607,
  "董明珠": 45223,
  "▁adult": 9255,
  "拙": 2731,
  "▁不是我": 14276,
  "收音机": 42903,
  "▁brain": 29686,
  "▁helicopter.": 30717,
  "在我身上": 30662,
  "協": 1477,
  "▁cyprus": 34165,
  "▁surprise": 19857,
  "▁*mot:\te.": 44775,
  "▁*chi:\tdoo": 38157,
  "许久": 44641,
  "▁camel": 37252,
  "▁gelegd.": 38765,
  "64-1": 39824,
  "向你": 14882,
  "▁derek": 37205,
  "该怎么办呢": 33998,
  "▁zeg": 7823,
  "elle": 25395,
  "▁kloosters": 41360,
  "▁deliver": 24814,
  "▁modellen": 25902,
  "五百万": 35555,
  "算账": 37524,
  "▁pil": 25767,
  "▁kiem": 43544,
  "生活里": 29884,
  "我已经": 11920,
  "koud": 45242,
  "▁我当时": 11916,
  "▁vastgesteld": 27665,
  "▁jeep]": 43970,
  "▁经常": 16607,
  "明年": 15675,
  "▁cave": 39569,
  "结尾": 42815,
  "▁pram": 33521,
  "▁beslissingen": 30885,
  "战术": 37621,
  "▁won": 8240,
  "的伤": 30390,
  "▁aside": 35743,
  "就能": 8601,
  "出门": 10002,
  "▁*chi:\tswing": 44678,
  "优秀的": 17731,
  "▁或许": 12904,
  "态": 2491,
  "▁omzet": 16914,
  "▁orders": 38496,
  "▁six": 7349,
  "⧼": 873,
  "五个月": 39867,
  "▁koolaid": 42958,
  "秦": 4288,
  "第二个": 13752,
  "总得": 20527,
  "▁ooh,": 33729,
  "▁tu": 12941,
  "▁california": 41681,
  "▁consumenten": 19784,
  "认识": 7782,
  "▁colors": 11094,
  "▁liep": 8603,
  "未能": 36394,
  "彦": 2429,
  "提供了": 27734,
  "▁wal": 11996,
  "▁*chi:\tdada": 32828,
  "▁steenkool": 27691,
  "那么大": 16242,
  "އ": 319,
  "翻了": 25460,
  "所有的事情": 35992,
  "我当时": 18539,
  "▁bescherming": 19998,
  "▁froggie": 37151,
  "▁准备": 20364,
  "▁fitness": 46258,
  "▁pajamas": 20985,
  "▁opzij": 19123,
  "▁·\n": 7146,
  "threon": 40244,
  "走一走": 47878,
  "以上": 10410,
  "▁version": 36826,
  "▁climbed": 23528,
  "afstand": 30799,
  "给我滚": 39578,
  "▁*mot:\tpat": 46390,
  "▁linker": 17785,
  "▁*fat:\tmm.": 23037,
  "▁museum": 8985,
  ".\n*mother:\twww.": 42883,
  "▁purse.": 23959,
  "朵": 3069,
  "▁birmingham": 33527,
  "▁...je": 33207,
  "▁thema": 13081,
  "病了": 22477,
  "▁aha": 28076,
  "▁voorwerp": 14478,
  "上来": 8326,
  "▁hurts": 25115,
  "天亮": 26956,
  "不用": 8507,
  "车站": 28636,
  "elijke": 12921,
  "迸": 5627,
  "▁reden": 8865,
  "▁stra": 29295,
  "▁schakel": 31693,
  "来源": 21430,
  "司法": 27875,
  "am.": 35318,
  "踪": 5518,
  "▁*exp:\tuhhuh.": 29494,
  "beroepsbevolking": 45585,
  "▁oekraine.": 35315,
  "▁lookin'": 21540,
  "▁teeth?": 24364,
  "豇": 5388,
  "民众": 27375,
  "yeah": 18972,
  "▁*nan:\tso": 44429,
  "的好朋友": 23401,
  "热血": 34022,
  "不过是": 18547,
  "左": 2304,
  "马甲": 41791,
  "-hongarije": 38754,
  "▁welk": 7460,
  "喜欢他": 15033,
  "ros": 16639,
  "谢谢": 8435,
  "观念": 18275,
  "▁[adult": 45697,
  "▁4:": 31344,
  "那女的": 34325,
  "▁ewww": 25194,
  "瑾": 3931,
  "▁barn": 14554,
  "▁bouncing": 28697,
  "▁schuim": 33444,
  "下辈子": 39267,
  "ara": 16690,
  "的一句话": 27932,
  "▁razend": 41740,
  "▁horen": 8050,
  "▁christus": 13345,
  "烹": 3730,
  "▁gelovigen": 46759,
  "青少年": 41645,
  "▁*inv:\tuh": 17390,
  "答复": 41952,
  "target_child:\tum": 36093,
  "女子": 13182,
  "▁ɨ": 633,
  "驶": 6181,
  "▁*chi:\tcookie": 42617,
  "贩": 5418,
  "▁selectie": 25876,
  "▁steady": 32831,
  "文学": 18219,
  "▁invoering": 27396,
  "妈": 2012,
  "▁...voor": 43663,
  "拜见": 43133,
  "有什么事情": 30804,
  "跟你说话": 28216,
  "呐": 1607,
  "pg": 45990,
  "▁pupil": 38554,
  "▁我知道了": 18511,
  "▁ieder": 8895,
  "▁drukken": 21054,
  "ᄎ": 431,
  "▁450": 45567,
  "支撑": 15154,
  "嗟": 1767,
  "▁*nan:\tmhm.": 23231,
  "▁overgedragen": 39804,
  "▁bird]": 25409,
  "小子": 15679,
  "▁africa": 36799,
  "疖": 3996,
  "这些话": 18620,
  "▁co": 8517,
  "▁好啊": 17671,
  "▁*a3:\tthe": 40176,
  "▁heilige": 13290,
  "十二号": 22505,
  "▁morgen": 9796,
  "泉": 3429,
  "骄傲": 14420,
  "谟": 5368,
  "rinkel": 38688,
  "多大了": 17761,
  "邻": 5709,
  "之间的": 13122,
  "汛": 3378,
  "▁happens": 9410,
  "和一个": 30636,
  "▁fietsers": 44177,
  "达不到": 43857,
  "我也不想": 42834,
  "已经在": 21847,
  "掀": 2803,
  "只是": 7412,
  "▁zinnen.": 19910,
  "▁*mot:\tlots": 19883,
  "muizen": 42661,
  "桃子": 21555,
  "十七号": 24319,
  "留着": 15401,
  "一块儿": 10750,
  "▁postman": 12769,
  "▁words": 9992,
  "感觉好像": 43390,
  "凡": 1345,
  "communistische": 20404,
  "▁londen": 13523,
  "▁你看你": 13160,
  "blijven": 17948,
  "▁bags.": 34500,
  "▁来来来": 14526,
  "spannen": 30579,
  "▁sinterklaas": 13649,
  "▁oostzee": 45025,
  "▁ans": 41390,
  "隔着": 32789,
  "苛刻": 42175,
  "▁begrip": 14327,
  "▁brianna": 45024,
  "反抗": 27296,
  "遣": 5677,
  "thank": 15614,
  "▁*mot:\tand": 6562,
  "▁*mot:\tsix.": 41553,
  "优秀的人": 35778,
  "抹": 2709,
  "授": 2806,
  "▁brushes": 41555,
  "一定是": 10365,
  "等会儿": 15566,
  "investigator:\tze": 45391,
  "真的就是": 35773,
  "▁pv": 42877,
  "hydroxide": 42981,
  "新生": 29043,
  "▁oogst": 27961,
  "老板娘": 24459,
  "那边": 7993,
  "▁bekeken": 14012,
  "心情": 9822,
  "▁recorder": 14915,
  "▁lying": 14062,
  "高考": 10798,
  "▁dem": 18691,
  "\tvoor": 22351,
  "主席": 14513,
  "这世界上": 43914,
  "hij": 16896,
  "▁breakfast.": 13237,
  "lantaarn": 38540,
  "味": 1619,
  "▁gina.": 23614,
  "蜃": 5113,
  "三年了": 31209,
  "二十四小时": 22596,
  "眼里": 12643,
  "▁moer": 40859,
  "币": 2317,
  "▁funny.": 11047,
  "▁*nic:\t": 16311,
  "▁float": 36865,
  "deel": 13303,
  "▁wetenschappers": 13603,
  "▁advert": 46814,
  "说再见": 35762,
  "昆仑": 31626,
  "▁michel": 33902,
  "¬": 111,
  "▁elevator": 41974,
  "men": 8374,
  "speed": 41312,
  "美妙": 36445,
  "west": 27214,
  "dolph": 47254,
  "不知不觉": 27096,
  "▁hee.": 39534,
  "包里": 31865,
  "喜欢的": 17907,
  "先行": 35788,
  "我告诉你": 12655,
  "▁hongersnood": 47275,
  "bath": 31777,
  "圣诞节": 40625,
  "cola": 37806,
  "▁white.": 17018,
  "发育": 34862,
  "高跟鞋": 38174,
  "kerndoel": 45428,
  "贪婪": 46810,
  "▁burnt": 38101,
  "凶": 1351,
  "▁fire.": 17633,
  "▁doctors": 24103,
  "▁port": 17235,
  "▁controleert": 44055,
  "👎": 6411,
  "▁davis": 37226,
  "latijnse": 29613,
  "▁vermoord.": 34498,
  "▁*chi:\tjuice": 25438,
  "所有的": 7667,
  "\tgaan": 22667,
  "▁organiseert": 44341,
  "▁landbouwgrond": 46798,
  "▁mont": 22973,
  "▁(52": 24693,
  "▁awful": 13373,
  "▁pointing": 13922,
  "不解": 34189,
  "种": 4281,
  "▁luuk": 35829,
  "▁godin": 26541,
  "sensor": 43958,
  "蒡": 5003,
  "您放心": 25005,
  "完善": 19008,
  "▁colombia": 31646,
  "陀": 5962,
  "取": 1530,
  "想表达": 42967,
  "▁如果我": 12162,
  "▁nederland": 6769,
  "off": 17392,
  "侮辱": 31304,
  "\ntoen": 33264,
  "韧": 6074,
  "▁won't": 6977,
  "child:\n*mother:": 23360,
  "绅": 4513,
  "▁[coughs]": 39287,
  "▁gekocht": 16328,
  "toren": 15580,
  "打呼噜": 46077,
  "▁deur.": 23280,
  "浔": 3488,
  "致敬": 47987,
  "一个男人": 13268,
  "很简单": 12376,
  "比谁都": 43115,
  "▁冯": 663,
  "▁hamburg": 44596,
  "▁我去": 12040,
  "姐": 2034,
  "yellow": 47029,
  "不住": 10370,
  "▁korter": 22724,
  "▁tele": 20009,
  "指": 2756,
  "thing": 36210,
  "target_child:\tja": 10671,
  "viel": 21874,
  "▁bacterien": 12788,
  "▁dog": 7425,
  "食疗": 46469,
  "gespoeld": 42573,
  "今天你要干什么啦": 29341,
  "起飞": 38327,
  "▁怎么了": 9901,
  "让自己": 10280,
  "红": 4485,
  "houdende": 44521,
  "一而再再而三": 32425,
  "都知道": 11053,
  "▁leggen.": 25082,
  "直白": 41934,
  "oom": 26847,
  "坐这儿": 38777,
  "▁fireworks": 39961,
  "schip": 16132,
  "方案": 10753,
  "▁letter": 7632,
  "▁scale": 20003,
  "馈": 6158,
  "塞进": 47106,
  "▁何况": 37120,
  "dicht": 25048,
  "活跃": 22261,
  "▁sentence": 19075,
  "拖着": 27589,
  "毕业": 10250,
  "亢": 1055,
  "漫": 3632,
  "roei": 23774,
  "救了": 16836,
  "▁zwaarder": 25229,
  "大叔": 14247,
  "▁broom": 30912,
  "mom": 31556,
  "垃圾桶": 32354,
  "▁grandad": 17305,
  "中学": 22560,
  "随随便便": 47059,
  "▁babylon": 47212,
  "▁claus.": 43529,
  "爱心": 26072,
  "新股": 38744,
  "恨": 2527,
  "▁尽管": 14542,
  "▁kritisch": 24136,
  "⌋.": 11998,
  "▁deftig": 38527,
  "识": 5298,
  "三点四": 47543,
  "▁*mot:\tmama": 23510,
  "▁geleefd": 43013,
  "黢": 6345,
  "他们两个人": 36489,
  "▁*chi:\tshoe.": 40788,
  "▁papegaai": 31898,
  "▁spelletje": 21665,
  "▁liedje": 12469,
  "▁makes": 7428,
  "▁*chi:\t'cause": 8141,
  "▁create": 35490,
  "▁purpose": 23409,
  "简": 4391,
  "vrijheid": 44670,
  "的支持": 19131,
  "literatuur": 44330,
  "▁lorry.": 19978,
  "呜": 1612,
  "哎哎": 28169,
  "洞里": 35201,
  "大葱": 37758,
  "▁*mot:\tm": 19699,
  "▁你这个": 13123,
  "ly,": 21899,
  "就业": 16935,
  "中毒": 24976,
  "放手": 14029,
  "50.000": 35245,
  "较为": 31302,
  "▁rinse": 38799,
  "替": 3047,
  "不留": 29609,
  "▁*mot:\tbread": 47737,
  "新型": 28351,
  "▁north": 11770,
  "▁gesp": 44852,
  "▁*par2:\t": 9322,
  "齐": 6356,
  "▁engelsen": 26868,
  "检讨": 38902,
  "减": 1340,
  "▁110": 35460,
  "hong": 26940,
  "睐": 4129,
  "▁materialen": 15289,
  "▁*a3:\ta": 24552,
  "跟你说": 8262,
  "▁有时候": 9830,
  "▁cot": 32274,
  "▁library": 20129,
  "ony": 30474,
  "▁swallow": 39098,
  "▁getoond": 40347,
  "虽然": 8438,
  "ab": 13985,
  "ette": 14253,
  "▁啊那": 28151,
  "▁kadootje": 37592,
  "公示": 45255,
  "▁deugd": 38062,
  "▁front": 7456,
  "▁*chi:\trun": 40364,
  "▁long.": 19790,
  "▁[participant": 43629,
  "▁*inv:\tyou": 7356,
  "▁gebeurd.": 22275,
  "▁afgelegd": 45524,
  "吼": 1600,
  "刻意": 22387,
  "▁drink?": 15729,
  "▁所有的": 15524,
  "▁juffrouw": 13473,
  "▁verhuisden": 44285,
  "ᄆ": 426,
  "▁chinezen": 31165,
  "出了一个": 31800,
  "▁spiderman": 44889,
  "瘪": 4055,
  "发烧": 21479,
  "ː": 171,
  "klink": 42078,
  ".v.": 33595,
  "gedrukte": 43903,
  "抱": 2707,
  "到医院": 27764,
  "paleis": 36476,
  "kt": 12080,
  "writing": 47008,
  "越来越少": 32703,
  "胄": 4708,
  "▁collection": 36406,
  "▁names": 13482,
  "▁*gra:\toh": 27592,
  "\tboot": 36659,
  "▁whistle": 28587,
  "▁*gai:\twhat": 36119,
  "▁pruisen": 21505,
  "▁dock": 41094,
  "▁dat?": 11992,
  "▁voorlezen": 24730,
  "▁droeg": 20389,
  "彼此之间": 40749,
  "ps": 16031,
  "如果我": 22645,
  "找她": 29600,
  "乏": 1018,
  "芎": 4842,
  "炯": 3703,
  "▁leggen": 10755,
  "gekocht": 44000,
  "▁vriendschap": 26630,
  "▁brengen.": 14959,
  "▁hoewel": 9071,
  "▁那我们": 9696,
  "▁idee": 8642,
  "咱": 1652,
  "▁这事儿": 15011,
  "azie": 27664,
  "▁就像我": 25186,
  "为您值班今天是": 33586,
  "they're": 13670,
  "▁provided": 33720,
  "▁afterwards.": 44229,
  "▁lacht.": 30974,
  "▁calling": 15283,
  "▁zwart-wit": 47208,
  "🇷": 6401,
  "▁working?": 46648,
  "▁werkelijk": 19982,
  "tickle": 47132,
  "▁ages": 22750,
  "▁wekker": 38219,
  "他爸妈": 30741,
  "二点二": 44710,
  "不能让": 18584,
  "爱情": 8222,
  "驾驶": 19029,
  "辩": 5593,
  "▁poppen": 19896,
  "▁blew": 29540,
  "lijkheid": 42120,
  "而言": 12553,
  "小兔": 38291,
  "▁house,": 19598,
  "▁spongebob": 46399,
  "▁kitt": 46995,
  "订阅": 20521,
  "岗": 2253,
  "▁hongkong": 32507,
  "je.": 11115,
  "俐": 1196,
  "一杯咖啡": 46078,
  "科目": 34313,
  "▁gepubliceerd": 22239,
  "zucht": 41316,
  "二点零": 47999,
  "怪": 2511,
  "简单": 9432,
  "▁kick": 13414,
  "schoon": 36675,
  "▁*roz:\tyou": 46860,
  "▁alright": 8519,
  "冥": 1321,
  "▁illustratie": 40933,
  "pjes": 22325,
  "见到了": 33364,
  "▁ex-": 37740,
  "▁content": 43959,
  "杠杆": 45104,
  "▁onge": 14191,
  "柚": 3128,
  "▁wan": 22975,
  "个": 997,
  "▁towel": 11445,
  "vakantie": 24388,
  "▁levert": 14408,
  "告诉她": 26494,
  "▁italiaanse": 14711,
  "▁piepen": 42686,
  "哙": 1674,
  "▁closely": 32989,
  "▁quack": 15316,
  "▁verband": 10417,
  "找人": 21450,
  "hhh": 30710,
  "贰": 5425,
  "▁patients": 35195,
  "▁wetten": 15805,
  "窖": 4330,
  "▁bevolking": 8761,
  "的行为": 12556,
  "mail": 39843,
  "▁我可是": 30674,
  "▁page]": 8241,
  "▁room.]": 32282,
  "▁ali": 22404,
  "矫情": 30010,
  "▁bug.": 36662,
  "稣": 4305,
  "不合": 21712,
  "逞": 5649,
  "▁you": 6451,
  "▁*inv:\tthere's": 14124,
  "喝点": 22632,
  "eren.": 15625,
  "三点八": 44543,
  "里有": 18855,
  "▁*adu:\tcan": 46732,
  "▁peg": 21683,
  "▁vergelijkt": 40043,
  "▁suspect": 39659,
  "▁*mot:\ttell": 11389,
  "▁buigt": 41119,
  "▁'in": 17823,
  "▁*fat:\tokay.": 8763,
  "有效": 13617,
  "vest": 31146,
  "▁does.": 12109,
  "▁pie": 16574,
  "!\n\n": 20163,
  "111": 43781,
  "强子": 34848,
  "sse": 24374,
  "▁klikken": 39320,
  "出口": 14758,
  "▁*exp:\twhy": 37753,
  "亲自": 10507,
  "7,5": 39503,
  "▁1.3": 39370,
  "sluiting": 25329,
  "▁这位观众朋友说": 41625,
  "▁toernooi": 14992,
  "▁[after": 38625,
  "▁zichtbaar": 17351,
  "的身影": 32311,
  "▁x-as": 32339,
  "符": 4368,
  "平静": 16570,
  "你呀": 22333,
  "清华": 38544,
  "▁gang": 10311,
  "▁winterslaap": 42610,
  ".\n*mother:": 10451,
  "之时": 24292,
  "▁下次": 26327,
  "▁yeah.": 6633,
  "ᄀ": 422,
  "nny": 12968,
  "欢迎": 9971,
  "▁kareltje": 22183,
  "▁slank": 41749,
  "▁snowman.": 40028,
  "▁·\n193": 25582,
  "低": 1139,
  "welk": 32737,
  "琮": 3912,
  "以下": 15877,
  "测量": 46172,
  "▁(nu": 41279,
  "铜": 5835,
  "geel": 30613,
  "躺在": 16502,
  "推测": 39292,
  "洗脸": 39918,
  "霭": 6042,
  "▁南都记者从": 34983,
  "前往": 15914,
  "業": 3236,
  "▁bologna": 44436,
  "这个事儿": 11467,
  "▁elise": 31132,
  "压力太大": 47794,
  "ella": 15958,
  "▁identiteit": 22423,
  "▁[teacher].": 32487,
  "皇后": 23939,
  "ggy": 26369,
  "理科": 41779,
  "▁gedachten": 18913,
  "▁months.": 27285,
  "roos": 29338,
  "?\n*mother:\twil": 47279,
  "贱": 5426,
  "▁yum": 14914,
  "▁foot]": 47225,
  "上次": 11850,
  "依然是": 20507,
  "▁*mot:\task": 38030,
  "▁dames": 26779,
  "排": 2811,
  "▁tafels": 39317,
  "瞒着": 33841,
  "洗衣机": 40920,
  "去追": 29873,
  "将": 2200,
  "吞": 1580,
  "习": 1030,
  "身亡": 41194,
  "▁body": 12336,
  "▁tank": 11711,
  "▁cow.": 13856,
  "脑袋": 12256,
  "狂": 3817,
  "▁ago.": 15804,
  "不尽": 33648,
  "▁tesco": 38807,
  "完全不一样": 34945,
  "▁pins": 44220,
  "▁cont": 43947,
  "▁name]": 30038,
  "你不要": 16069,
  "▁stijf": 39486,
  "完全可以": 22825,
  "叫醒": 45839,
  "▁clowns": 41368,
  "33": 19903,
  "哪儿来的": 28020,
  "咋的": 13950,
  "骨肉": 45823,
  "这次来": 34164,
  "▁brooklyn": 41041,
  "▁bijten": 28069,
  "想你": 23318,
  "▁dave": 13496,
  "▁ch": 13377,
  "▁torch": 44075,
  "或者说": 21500,
  "喃": 1736,
  "▁taal": 8415,
  "▁2001": 12697,
  "▁manhattan": 43546,
  "▁worry": 13358,
  "那我就": 23384,
  "vlo": 28174,
  "▁drukte": 21583,
  "▁here!": 13355,
  "...een": 26207,
  "▁stik": 39260,
  "▁再说": 15825,
  "▁kregen": 8880,
  "纪念日": 39526,
  "叫什么名字": 25264,
  "都非常": 29790,
  "▁blah": 31957,
  "▁gehele": 15082,
  "\nvoor": 20656,
  "▁nadelen": 23862,
  "▁shampoo": 38789,
  "觉知": 47873,
  "環": 3943,
  "手指头": 36814,
  "笺": 4372,
  "钛": 5797,
  "晕": 3010,
  "geweld": 45759,
  "▁tor": 24263,
  "palestijnse": 32278,
  "责备": 47593,
  "▁schotland": 19058,
  "做完": 18754,
  "各类": 29530,
  "也是一种": 23592,
  "手术": 10454,
  "▁*chi:\twhoops": 44351,
  "▁*mot:\talthough": 43710,
  "麻醉": 47439,
  "气儿": 29179,
  "▁covers": 24097,
  "乱七八糟的": 27384,
  "扔了": 28883,
  ".\n": 6803,
  "鸣": 6284,
  "徭": 2460,
  "▁plagen": 41064,
  "走吧走吧": 43468,
  "踏实": 18609,
  "赠": 5459,
  "▁rups": 31516,
  "▁被": 787,
  "来访者": 39266,
  "年龄段": 47733,
  "▁tub.": 46851,
  "▁gelet": 34131,
  "spreuk": 40753,
  "小哥": 31455,
  "干爹": 36307,
  "了解更多": 29590,
  "pius": 10023,
  "▁filosofie": 26621,
  "▁comedy": 47102,
  "粟": 4440,
  "▁谢谢你啊": 32395,
  "▁uur": 7313,
  "想起": 10598,
  "密切接触者": 42538,
  "▁曹": 736,
  "梦想": 10182,
  "▁including": 30007,
  "▁little...": 43945,
  "为了保护": 43971,
  "破案": 41564,
  "▁somewhere.": 16361,
  "zien": 15558,
  "二十五岁": 23400,
  "▁*par1:\tyou": 17894,
  "▁[8": 28077,
  "翻身": 44868,
  "▁dirt": 31021,
  "▁nieuwswekker": 15479,
  "出事了": 25481,
  "▁*chi:\tdoing": 45791,
  "▁wobbly": 47707,
  "在那里": 14361,
  "白费": 40109,
  "▁做好": 30482,
  "来得及": 24412,
  "▁hield": 9853,
  "ricius": 40064,
  "betaling": 46986,
  "诶": 5337,
  "derde": 30778,
  "卖": 1479,
  "mers": 24674,
  "神奇": 20522,
  "▁general": 11458,
  "性的": 9583,
  "▁有时": 21312,
  "不打": 23224,
  "achtigen": 24203,
  "-ionen": 37186,
  "先别": 28506,
  "读": 5341,
  "小伙伴": 19666,
  "叩": 1542,
  "▁must": 7335,
  "谢": 5370,
  "▁swing.": 21706,
  "▁turns": 7684,
  "▁botsing": 28387,
  "▁trolley": 27998,
  "下次再": 39997,
  "回不去": 34101,
  "▁kleenex": 44201,
  "泌": 3431,
  "▁19": 8182,
  "▁pra": 31804,
  "倍": 1217,
  "售": 1702,
  "ante": 39318,
  "andy": 39142,
  "▁especially": 17788,
  "一些小": 31049,
  "▁*par2:\tyeah": 30568,
  "▁kelder": 27344,
  "▁great.": 12738,
  "▁fragmenten": 41646,
  "宿舍": 15044,
  "zuren": 43581,
  "嘶": 1800,
  "▁team": 9491,
  "自": 4795,
  "充满了": 21127,
  "▁norman": 47677,
  "▁macau": 44264,
  "你千万别": 38147,
  "渐": 3556,
  "上瘾": 38491,
  "▁game.": 11356,
  "狗熊": 47295,
  "二十七岁": 33403,
  "▁videoclip": 43600,
  "撞": 2880,
  "▁palestijnen": 41663,
  "瞩": 4155,
  "意味着什么": 44002,
  "▁dancing": 15795,
  "揣": 2838,
  "▁reagan": 36602,
  "说这些": 24921,
  "那句话": 15009,
  "疏": 3993,
  "36-2": 43207,
  "▁agap": 28464,
  "夷": 1977,
  "基本": 9592,
  "▁mammoet": 31139,
  "乎乎": 30021,
  "▁就是我们": 18170,
  "十多年": 24732,
  "得非常好": 45940,
  "▁higher": 17613,
  "▁visit": 10992,
  "给出": 26700,
  ".\n*": 7830,
  "体重": 18457,
  "霖": 6039,
  "▁werkzaamheden": 38669,
  "十六": 13964,
  "忡": 2479,
  "wissel": 30164,
  "控": 2818,
  "▁*chi:\tbaby.": 15307,
  "▁hokjes": 40660,
  "等于是": 35989,
  "真情": 33907,
  "经济发展": 37180,
  "▁haiti": 39150,
  "▁packet": 21905,
  "打听": 15973,
  "▁choo.": 21208,
  "▁afterwards": 30126,
  "▁graffiti": 45187,
  "鱿": 6246,
  "课": 5343,
  "▁belgisch": 36912,
  "垠": 1898,
  "liederen": 40401,
  "▁dinner.": 12613,
  "elen": 11733,
  "感觉": 7276,
  "▁*chi:\tooh.": 14157,
  "霞": 6041,
  "说一句": 20488,
  "胞": 4718,
  "信息": 8231,
  "▁中国": 8944,
  "▁veranderde": 14682,
  "▁cel": 13639,
  "▁gekozen.": 26722,
  "的家人": 22221,
  "▁kus": 26314,
  "▁onderaan": 32525,
  "▁(28": 39586,
  "笠": 4366,
  "▁schuift": 32011,
  "▁*chi:\tna": 30975,
  "你能不能": 21769,
  "有男朋友": 35278,
  "▁monkeys": 29442,
  "遍了": 23747,
  "▁0,5": 29447,
  "拗": 2729,
  "▁甚至说": 24690,
  "▁uithalen": 44407,
  "勰": 1437,
  "必须得": 14434,
  "遴": 5682,
  "桌": 3170,
  "▁zodanig": 34044,
  "te": 6845,
  "▁beschouwen": 36898,
  "▁speaker": 25087,
  "的妻子": 17642,
  "讲故事": 15485,
  "▁laugh]": 14209,
  "\nonder": 30330,
  "▁luidt": 40418,
  "农业": 21212,
  "mijnen": 46574,
  "下水": 30872,
  "听说": 11328,
  "zal": 16801,
  "ificatie": 44424,
  "导演": 11698,
  "困": 1840,
  "这个女孩儿": 23190,
  "▁cafe": 15325,
  "八月份": 33684,
  "▁coat?": 47385,
  "▁dare": 34267,
  "▁sweetheart": 43044,
  "▁maatschappelijk": 23623,
  "▁unintelligible": 46146,
  "▁rosa": 22440,
  "有什么区别": 34798,
  "两个人都": 35248,
  "isten": 13598,
  "私自": 42561,
  "嗯嗯": 22024,
  "棣": 3212,
  "▁elephants.": 44893,
  "vel": 12303,
  "▁oplossingen": 25991,
  "薛平贵": 45635,
  "权益": 24283,
  "▁halfuur": 36979,
  "镁": 5888,
  "板": 3098,
  "ヒ": 952,
  "▁prehistorie": 34082,
  "▁scoorde": 24696,
  "▁*tea:\tcome": 39860,
  "表": 5177,
  "吻": 1599,
  "一千四百": 39951,
  "▁*chi:\tmrs": 46129,
  "▁rijk": 8523,
  "y!": 33567,
  "是用来": 40164,
  "0-16": 31001,
  "段": 3329,
  "褐": 5217,
  "an'": 20822,
  "...\"": 19568,
  "床": 2364,
  "这道题": 42570,
  "gezakt": 43708,
  "▁london.": 42379,
  "▁goedgekeurd": 41962,
  "没看": 30597,
  "欢迎各位": 44569,
  "baar": 8482,
  "▁airport.": 45511,
  "魅力": 17889,
  "▁*inv:\tmhm": 7680,
  "▁*mot:\tbaa": 40716,
  "▁neat": 18067,
  "▁为什么": 7636,
  "起步": 40280,
  "mate": 39136,
  "▁weergeeft": 45072,
  "geven": 16119,
  "▁bloedgroep": 42598,
  "nationale": 47244,
  "▁verzon": 43645,
  "lei": 34048,
  "▁th": 8938,
  "▁*a1:\t": 15633,
  "极大的": 33004,
  "▁twice": 21520,
  "▁gestraft": 43258,
  "▁bags": 18324,
  "▁bob.": 34515,
  "长相": 20537,
  "一辈子都": 32464,
  "想和你": 41786,
  "带你去": 27740,
  "s.\n\n": 28269,
  "▁lijken": 11304,
  "▁edge": 18420,
  "▁afgerond": 32830,
  "coo": 42186,
  "\n*mother:\t": 10138,
  "吃啊": 18202,
  "meneer": 46551,
  "▁zoenen": 34842,
  ".\n*unidentified:": 16944,
  "三十九": 35433,
  "▁sahara": 36220,
  "hm": 23003,
  "○": 826,
  "▁taal.": 32159,
  "▁moe": 11730,
  "的病人": 27481,
  "峭": 2275,
  "▁我们今天": 29967,
  "│": 580,
  "vork": 47188,
  "▁antwerpen": 16549,
  "▁grandma": 9934,
  "▁*chi:\tcar.": 20375,
  "▁math": 40378,
  "空白": 36443,
  "▁就是为了": 28029,
  "▁vel": 13103,
  "说到这儿": 28098,
  "天天": 8104,
  "累了": 14251,
  "netjes": 35252,
  "制品": 45686,
  "▁geintroduceerd": 42117,
  "采购": 28692,
  "聆听": 19659,
  "▁rep": 23312,
  "▁*tur:\twhat": 30422,
  "图片": 27158,
  "▁product": 11173,
  "险": 5981,
  "在那个": 15356,
  "为人": 16743,
  "▁tocht": 27031,
  "嫂": 2096,
  "的命运": 26888,
  "▁schoof": 28887,
  "▁milkshake.": 46591,
  "在公司": 27020,
  "貔": 5402,
  "▁每天": 9629,
  "这个问题": 10070,
  "▁middelbare": 14911,
  "▁*fat:\tdid": 12864,
  "▁*bro:\tyeah": 19317,
  "▁voer": 19225,
  "表态": 38793,
  "▁rif": 35649,
  "字儿": 14788,
  "接受不了": 22000,
  "▁行我": 37049,
  "的心意": 34815,
  "▁knipt": 42242,
  "▁eiwitten": 24017,
  "ふ": 916,
  "▁lichaams": 19524,
  "▁abc": 26152,
  "▁*mot:\tdear": 47192,
  "仰": 1100,
  "椅子": 28431,
  "▁bakkerij": 41983,
  "▁我就知道": 28299,
  "▁tiger": 11874,
  "舅妈": 37910,
  "邑": 5692,
  "向他": 24495,
  "▁voorwerpen": 15124,
  "感触": 34369,
  "▁[pet": 40099,
  "立法": 40262,
  "▁district": 12724,
  "他就是": 18113,
  "宫里": 28384,
  "▁boats": 33604,
  "同一个": 25358,
  "▁*fat:\twell": 10680,
  "▁agency": 46398,
  "▁motorbike": 42692,
  "麻辣烫": 42649,
  "1-4": 26889,
  "rie": 12387,
  "魯": 6243,
  "▁ingestort": 44259,
  "▁*adu:\toh": 23759,
  "▁fork": 20981,
  "\n\nop": 40010,
  "▁opzetten": 34070,
  "箩": 4399,
  "▁has": 6661,
  "▁crown": 33321,
  "roem": 41151,
  "▁achternaam": 33969,
  "▁sailing": 43387,
  "▁*mot:\twhatcha": 30551,
  "倒是": 10283,
  "一大堆": 29895,
  "这么多钱": 38272,
  "▁fraser.": 13683,
  "这一个": 19310,
  "▁combineren": 47200,
  "okken": 25363,
  "▁kleed": 28278,
  "省委": 46680,
  "处": 1957,
  "在": 1859,
  "▁afgesproken": 21366,
  "处于": 12241,
  "含有": 39153,
  "▁*chi:\thiding": 43634,
  "的车": 15647,
  "▁teddy": 8998,
  "▁inzetten": 35125,
  "▁grab": 17988,
  "砣": 4189,
  "\tlaat": 38800,
  "太难了": 18935,
  "▁diploma": 21454,
  "▁ontmoeten": 31863,
  "哭了起来": 46080,
  "▁meals": 43495,
  ".\n\nverder": 46968,
  "杨光": 40063,
  "奶油": 46187,
  "穗": 4314,
  "鹤": 6314,
  "娣": 2065,
  "ɩ": 152,
  "▁them?": 9001,
  "maal": 16063,
  "份额": 37249,
  "sign": 45232,
  "团的": 25668,
  "▁祝你好运": 23486,
  "✍": 856,
  "▁dwww": 22672,
  "\n*child:\tyyy": 37146,
  "▁*mot:\tstill": 42722,
  "巧克力": 26367,
  "肯定不会": 28448,
  "mis": 22155,
  "▁*chi:\tmummie.": 23006,
  "▁slot": 10786,
  "巴西": 44806,
  "▁diepe": 21984,
  "▁lijk": 29293,
  "同事": 9416,
  "▁market": 14320,
  "▁erachter": 14447,
  "▁hoofd.": 11572,
  "慎重": 32675,
  "三个小时": 37353,
  "土匪": 18826,
  "男孩子": 14488,
  "是由": 19182,
  "▁graeme": 19557,
  "74-": 42774,
  "模式": 10413,
  "濒": 3665,
  "bron": 18032,
  "铸": 5850,
  "有一句": 34344,
  "莆": 4938,
  "▁500": 13651,
  "▁onzichtbaar": 43839,
  "wijzen": 28749,
  "▁zwanger": 26776,
  "鼹": 6351,
  "v)": 35786,
  "乐哥": 39220,
  "▁drinken.": 24154,
  "ure": 15784,
  "外部": 33608,
  "才是": 9228,
  "▁*mot:\tbrooklyn": 35368,
  "四十": 9445,
  "▁friesland": 19916,
  "▁point": 7792,
  "▁glijden": 35463,
  "▁plato": 40977,
  "regio": 31836,
  "▁aangeeft": 38632,
  "tak": 22373,
  "▁channel": 17677,
  "房东": 32484,
  "▁zwijn": 40600,
  "▁friends.": 16764,
  "熊猫": 28349,
  "と": 910,
  "▁grenst": 23366,
  "zon": 19219,
  "▁kennelijk": 34521,
  "rate": 40026,
  "保安": 14976,
  "鄞": 5729,
  "搭理": 24766,
  "相当于": 17542,
  "▁*ste:\toh": 46148,
  "宰": 2163,
  "法官": 26027,
  "vloeistof": 40174,
  "一毛钱": 47429,
  "哪儿都": 34175,
  "▁baas": 10483,
  "不错的": 24872,
  "▁ijskoud": 41672,
  "常常": 11057,
  "▁incredible": 46999,
  "▁giraffes": 43321,
  "sie": 10939,
  "paar": 38980,
  "跟我聊": 40966,
  "▁bevond": 33164,
  "▁diegene": 43719,
  "笑了笑": 44665,
  "际": 5965,
  "▁*a3:\twhat": 12845,
  "▁sense": 15127,
  "▁rolan'": 41684,
  "让人家": 27048,
  "▁1.1": 38644,
  "▁*mot:\tpardon.": 32741,
  "拼命": 16763,
  "婷婷": 39484,
  "闹得": 29161,
  "▁name": 7299,
  "不太合适": 44539,
  "悱": 2557,
  "▁blijft": 7942,
  "▁sorted": 27323,
  "社长": 41217,
  "去上班": 28090,
  "这个行业": 25616,
  "▁hoekje": 31674,
  "就意味着": 30043,
  "▁lays": 38310,
  "风险": 10234,
  "召集": 37894,
  "ვ": 410,
  "趾": 5486,
  "哼": 1688,
  "extra": 38771,
  "勐": 1429,
  "🤨": 6437,
  "▁schoonheid": 29234,
  "▁verzamelen": 17327,
  "▁man?": 17568,
  "▁behoort": 15341,
  "板块": 12581,
  "肚子疼": 46783,
  "小妹儿啊": 29100,
  "▁bal": 7704,
  "德国": 16267,
  "化学": 25257,
  "▁furry": 30362,
  "▁拜拜": 29115,
  "▁costume": 36204,
  "▁用": 763,
  "说什么呢": 19817,
  "▁sector": 17141,
  "理解": 7917,
  "▁mommy,": 45712,
  "▁verfilmd": 39085,
  "▁hiccups": 36985,
  "帷": 2337,
  "方": 2953,
  "件事": 19302,
  "疫情期间": 35959,
  "雳": 6023,
  "▁*fat:\tlook": 14249,
  "▁book.": 7603,
  "▁不就是": 22397,
  "商店": 32100,
  "▁lukt": 13127,
  "rondom": 16539,
  "▁malen": 32868,
  "陪陪": 30910,
  "看不起": 25670,
  "▁*gai:\t": 17666,
  "▁(14": 12848,
  "没别的": 33147,
  "宦": 2160,
  "▁deelstaat": 30377,
  "▁sticks.": 44706,
  "叽": 1560,
  "答": 4380,
  "蔷薇": 26588,
  "完全是": 24915,
  "namen": 19303,
  "▁neighbor": 37385,
  "袜子": 21506,
  "傅": 1249,
  "▁impact": 30163,
  "▁那你就": 12242,
  "五年": 9354,
  "▁control": 15267,
  "▁don't": 6488,
  "保姆": 22930,
  "▁mick": 31102,
  "点心": 30742,
  "▁站住": 18623,
  "▁sheep?": 36562,
  "窍": 4326,
  "▁*fat:\tyou": 7595,
  "在我": 10408,
  "▁babies.": 16631,
  "▁*mot:\toops": 14689,
  "▁stemming": 33250,
  "▁specifieke": 32747,
  "主观": 41956,
  "▁你是": 7741,
  "蹴": 5539,
  "饨": 6136,
  "懂你": 33855,
  "▁investeringen": 35800,
  "出去玩": 29576,
  "▁cheaper": 31087,
  "▁going": 6559,
  "厕": 1508,
  "▁trunk": 25188,
  "昨天晚上": 14847,
  "▁though?": 22283,
  "▁*fat:\tbecause": 28669,
  "并没有": 8955,
  "捐赠": 45768,
  "▁*chi:\they.": 13818,
  "▁passage": 39500,
  "做出": 10293,
  "▁*chi:\twhy": 7239,
  "自杀": 16164,
  "ability": 44128,
  "▁children's": 29263,
  "受到了": 23694,
  "▁*chi:\t[shouts]": 22386,
  "奴才": 23599,
  "面粉": 39608,
  "矜": 4166,
  "钢琴": 21155,
  "聚集": 23448,
  "鬓": 6228,
  "哎呀": 11596,
  "▁neutraal": 33076,
  "eck": 38708,
  "▁victor": 13562,
  "镜": 5900,
  "▁tire": 27515,
  "寻找": 10902,
  ".\n*father:\tik": 42575,
  "▁nationaal": 13361,
  "▁rake": 46287,
  "喜欢听": 36761,
  "哧": 1680,
  "桐": 3172,
  "▁vrouwen": 8133,
  "corn": 42193,
  "bob": 24502,
  "▁drawer": 26287,
  "▁toevoeging": 44428,
  "▁0,8": 44904,
  "▁coins": 40955,
  "▁saturday.": 28827,
  "▁opzet": 35635,
  "▁making": 7281,
  "gevoerd": 28188,
  "▁him": 6670,
  "义务": 18494,
  "complex": 35646,
  "瑭": 3928,
  "疼爱": 38841,
  "轮流": 44423,
  "▁eaten": 15546,
  "鸡蛋": 13692,
  "▁mus": 18033,
  "骥": 6211,
  "▁vereist": 27794,
  "我们学校": 39135,
  "▁ijzer": 10173,
  "是是是": 30808,
  "▁yellow": 7568,
  "棂": 3203,
  "▁hurry": 18443,
  "呵呵": 31294,
  "▁matter": 9612,
  "velle": 42751,
  "ᆫ": 450,
  "▁daddy?": 10980,
  "▁wageningen": 45381,
  "▁towel.": 26321,
  "▁也不会": 25307,
  "▁vermoeden": 37129,
  "跟其他": 36367,
  "几百": 23389,
  "▁huh": 11966,
  "新四军": 31307,
  "noten": 40400,
  "凉": 1337,
  "勤快": 46133,
  "▁lollipop.": 47453,
  "▁那你还": 32608,
  "股市": 26116,
  "我做的": 33576,
  "▁arrive": 42934,
  "▁3000": 27610,
  "▁secretary": 19218,
  "奔": 1990,
  "...dan": 44462,
  "▁duidelijk": 8330,
  "▁clouds": 30762,
  "到这里": 14016,
  "▁snoer": 43758,
  "rub": 20973,
  "duidelijk": 47331,
  "en": 6471,
  "▁portretten": 44206,
  "grot": 45883,
  "小心点儿": 45786,
  "▁spiegel": 14192,
  "\"ik": 12593,
  "▁cute.": 20328,
  "餐": 6131,
  "▁flew": 19414,
  "评判": 31241,
  "▁metal": 18717,
  "▁scheikunde": 32650,
  "lem": 26533,
  "▁cooking": 16668,
  "▁minute.": 8082,
  "▁industrie": 12969,
  "蜚": 5124,
  "▁nederlanders": 10227,
  "脆": 4734,
  "物质": 11186,
  "▁controle": 13392,
  "something": 34847,
  "▁ambulance.": 32861,
  "仙": 1089,
  "犊子": 42312,
  "▁kabinet": 13434,
  "▁line?": 46875,
  "elftal": 44278,
  "捭": 2795,
  "leave": 35661,
  "的那些": 13253,
  "敌": 2916,
  "▁cat": 7882,
  "▁好的": 14531,
  "▁taperecorder.": 33000,
  "▁oost": 18461,
  "sowieso": 40272,
  "淤": 3541,
  ".\ntekst": 31856,
  "▁*roz:\t": 13080,
  "▁once.": 35129,
  "的留言": 30081,
  "▁hin": 32164,
  "richt": 33326,
  "▁[17": 33994,
  "二十二岁": 32389,
  "▁pouring": 24817,
  "水平": 9900,
  "▁servie": 18451,
  "多少": 7764,
  "▁既然": 9458,
  "▁irrigatie": 45199,
  "▁arbeiders": 13978,
  "新的一年": 45028,
  "强调": 13229,
  "huis": 8289,
  "▁beweringen": 21528,
  "▁decent": 42696,
  "▁fireman.": 29376,
  "▁blaft": 47864,
  "研究": 8210,
  "▁*mot:\tlift": 46218,
  "▁zingt": 20962,
  "▁mot]": 7675,
  "▁*inv:\tso": 8692,
  "room": 14508,
  "▁要是": 10197,
  "诅咒": 45096,
  "▁suppose.": 45971,
  "嫌疑": 21515,
  "▁pattern": 24401,
  "慢走": 32611,
  "一座": 13231,
  "秃": 4277,
  "▁inkomsten": 25884,
  "ess": 37747,
  "蕲": 5038,
  "一千六百": 45810,
  "肯定有": 27330,
  "▁lege": 18640,
  "▁muurtje": 45487,
  "著作": 46777,
  "▁*sis:\ti": 10061,
  "▁speed": 20191,
  "▁bum": 27628,
  "▁omgezet": 15077,
  "趟": 5481,
  "▁rijp": 30221,
  "逃走": 33987,
  "成人": 24899,
  "▁garden": 11295,
  "▁minutes": 9537,
  "拜年": 41794,
  "here's": 24922,
  "▁doll?": 40652,
  "炅": 3689,
  "宕": 2145,
  "不停地": 15759,
  "▁kasteel": 9815,
  "我们一起": 22654,
  "▁grasland": 45327,
  "在座的": 42831,
  "很长": 21486,
  "敏": 2917,
  "▁geleerden": 43613,
  "普及": 34524,
  "脱离": 26171,
  "▁page.": 10208,
  "he's": 20829,
  "▁currently": 44042,
  "妒": 2015,
  "▁1974": 30082,
  "直": 4105,
  "国企": 39390,
  "拜托": 25018,
  "▁kritiek": 11601,
  "外表": 25561,
  "▁like...": 19799,
  "分居": 38423,
  "▁breathing": 30036,
  "stuur": 42083,
  "▁stars": 22022,
  "不见得": 41321,
  "▁*chi:\tlady": 44607,
  "暂时": 10667,
  "▁加上": 25538,
  "▁我就说": 18055,
  "寂寞": 14392,
  "违背": 35098,
  "▁*fat:\tmaybe": 27207,
  "抬头": 19477,
  "瞒": 4150,
  "l": 83,
  "▁know?": 9675,
  "◢": 829,
  "▁paal": 31473,
  "▁often": 11470,
  "▁far.": 36114,
  "缠着": 36584,
  "ima": 25084,
  "▁kooi": 19300,
  "厌恶": 41836,
  "▁scheveningen": 46351,
  "rol": 13083,
  "▁我再": 14572,
  "down": 20724,
  "tim": 19569,
  "说明": 10935,
  "秤": 4287,
  "▁wonen.": 13438,
  "ing].": 29041,
  "歼": 3314,
  "orde": 29663,
  "大嫂": 20021,
  "▁genoemd.\n\n": 33080,
  "handelaren": 35603,
  "弄得": 18472,
  "hydr": 29204,
  "\"dat": 24725,
  "foor": 44213,
  "▁sturen": 14403,
  "▁desert": 45374,
  "▁boos.": 17654,
  "的需求": 17522,
  "target_child:\ten": 7443,
  "溥": 3595,
  "▁an'": 7749,
  "东方": 16936,
  "▁*inv:\tdon't": 29762,
  "亲生": 20208,
  "踞": 5514,
  "▁europese": 7851,
  "小分队": 37119,
  "▁daarnaast": 8983,
  "▁2005": 11358,
  "长得": 9697,
  "▁procedure": 35868,
  "椟": 3223,
  "▁[singing]": 14639,
  "ⵔ": 885,
  "典型": 39185,
  ".\n*sister:": 19078,
  "▁爸妈": 30919,
  "▁root": 37390,
  "谈恋爱": 9657,
  "▁cigarette": 46538,
  "cky": 34887,
  "it's": 11132,
  "▁1795": 46013,
  "层": 2226,
  "ent": 10962,
  "控股": 25834,
  "反思": 24673,
  "▁*chi:\tspider": 46016,
  "舛": 4811,
  "长得帅": 45597,
  "▁animals.": 12588,
  "▁annie": 29670,
  "你没有": 21226,
  "▁stelt": 10949,
  "晓敏": 44616,
  "交流": 8889,
  "不想让": 23817,
  "▁kaken": 44320,
  "▁zomer": 9091,
  "一至": 35126,
  "▁fouten": 22269,
  "看": 4113,
  "马克": 33030,
  "▁[laugh]": 17810,
  "探长": 36038,
  "\n*mother:\tnee": 32093,
  "资管": 38410,
  "▁alinea": 8376,
  "▁*glo:\t": 14196,
  "▁factory": 27605,
  "长安": 18389,
  "▁places": 10210,
  "9-15": 34825,
  "▁litouwen": 33241,
  "拂": 2714,
  "廷": 2393,
  "羞耻": 44124,
  "纾": 4508,
  "▁chicago": 33005,
  "两百": 12419,
  "▁*mot:\tclever": 18847,
  "來": 1168,
  "▁*sis:\tit's": 31784,
  "▁himself": 12220,
  "▁edilio": 37863,
  "noot": 31997,
  "▁coal": 22439,
  "up.": 42626,
  ".\nverklaar": 30304,
  "ult": 23777,
  "gaande": 23311,
  "塾": 1933,
  "抓住": 12620,
  "咸": 1655,
  "[noises]": 38714,
  "boek.": 31669,
  "▁zekerheid": 23222,
  "咋的了": 30127,
  "铀": 5822,
  "bakker": 45405,
  "指示": 21309,
  "▁skelet": 24427,
  "▁aandacht": 10198,
  "零五": 31440,
  "穿": 4321,
  "收集": 25145,
  "▁noodweer": 45095,
  "▁*mom:\t": 30728,
  "患者": 9961,
  "▁zeldzame": 25297,
  "uk": 11078,
  "▁wood": 13002,
  "荫": 4931,
  "▁questions.": 37328,
  "十足": 32315,
  "wei": 27546,
  "\ndocent_": 47974,
  "綱": 4476,
  "是什么时候": 33694,
  "▁kl": 18532,
  "肚子": 10439,
  "▁我们一起": 27372,
  "手机": 7482,
  "数量": 12754,
  "忿": 2489,
  "▁*adu:\tyeah": 38516,
  "▁zwemt": 34852,
  "▁gebruikt.": 10713,
  "bruin": 22651,
  "元宵": 38844,
  "喝多了": 17523,
  "▁cat]": 27008,
  "▁*mot:\tpurdie": 32398,
  "▁toilet": 13822,
  "鸟儿": 34066,
  "▁waarom?": 21897,
  "白菜": 32042,
  "本质上": 41476,
  "油": 3422,
  "不是为了": 19156,
  "▁besides": 34290,
  "▁turner": 40440,
  "▁rides": 30152,
  "▁zorgden": 31882,
  "睡不着": 17701,
  "橱": 3282,
  "kampen": 38282,
  "踱": 5520,
  "▁trading": 47922,
  "▁wadden": 42796,
  "你知不知道": 36655,
  "▁signaal": 23933,
  "滴滴": 24324,
  "玺": 3877,
  "倔强": 39597,
  "虽": 5075,
  "ham": 10498,
  "结果显示": 46473,
  "换一个": 23121,
  "fix": 47065,
  "缄": 4561,
  "可以让": 26849,
  "▁vrachtwagen": 17116,
  "▁duiken": 28798,
  "不动了": 32440,
  "情": 2563,
  "▁meal.": 33997,
  "脂肪": 32025,
  "stem": 18897,
  "嘚": 1787,
  "▁concierge": 44503,
  "▁heks": 14611,
  "-speler": 47441,
  "不要去": 25208,
  "▁achtste": 32466,
  "▁stroomsterkte": 33984,
  "全力以赴": 44832,
  "一米八": 46241,
  "金牌": 35948,
  "link": 18365,
  "▁generaties": 44558,
  "▁fields": 36786,
  "阿姨": 9090,
  "▁pictures": 9859,
  "▁italianen": 44256,
  "旅程": 38488,
  "▁fun": 9041,
  "▁hierboven": 15782,
  "ogram": 33402,
  "▁foot?": 25310,
  "的游戏": 26656,
  "你不是": 15953,
  "其他的": 11831,
  "pl": 29015,
  "▁sausage.": 43912,
  "oud": 25869,
  "lachen": 30730,
  "▁confidence": 43619,
  "年度": 26805,
  "加拿大": 35079,
  "增": 1940,
  "▁2006": 11618,
  "扑": 2663,
  "摧毁": 36942,
  "接受": 8009,
  "▁sammy": 38568,
  "▁这可": 26312,
  "▁[giggles]": 26328,
  "臬": 4796,
  "▁doo.": 38224,
  "▁sprekers": 44226,
  "▁leiding": 13571,
  "▁car.": 7584,
  "表姐": 22699,
  "▁sound].": 18533,
  "▁radboud": 46616,
  "杉": 3077,
  "▁sint-petersburg": 42363,
  "▁'waar": 15459,
  "40)": 16530,
  "▁muddy": 45704,
  "▁flying": 13272,
  "还行": 20630,
  "saw": 36283,
  "▁particular": 11010,
  "▁vannacht": 21514,
  "tray]": 37693,
  "▁真": 768,
  "砖头": 45311,
  "▁*mot:\tafter": 24760,
  "这支": 35097,
  "tru": 36881,
  ".'": 6646,
  "▁zendt": 44648,
  "▁moeilijke": 21653,
  "▁[$=2": 45485,
  "▁sas": 18137,
  "帅": 2320,
  "▁恭喜": 21669,
  "▁公主": 21564,
  "拓": 2726,
  "▁floor?": 19653,
  "体温": 33559,
  "▁wake": 11404,
  "▁henry": 14470,
  "不好听": 32209,
  "stom": 41451,
  "▁collega's": 35716,
  "琶": 3917,
  "咛": 1641,
  "泽": 3455,
  "观": 5235,
  "丧": 996,
  "▁volk": 10435,
  "▁*tea:\twhat": 13955,
  "独": 3830,
  "睁开眼睛": 45098,
  "瑜伽": 42653,
  "班级": 38425,
  "▁bodem": 11158,
  "▁zijn:": 17778,
  "▁diamant": 40989,
  "讨论": 11731,
  "▁alleen": 6706,
  "auto": 13003,
  "每一天": 25921,
  "▁onderzoeken": 12234,
  "\ttrein": 38246,
  "ez": 13367,
  "铤": 5841,
  "district": 47534,
  "▁relevant": 32681,
  "▁spelers": 13654,
  "北平": 15380,
  "▁zeggen": 7418,
  "▁pizza.": 19097,
  "patroon": 42255,
  "种种": 20380,
  "隔壁老王": 45225,
  "▁raketten": 36179,
  "▁recht": 8924,
  "第一句话": 40500,
  "大象": 19026,
  "蝇": 5134,
  "韩": 6075,
  "▁weggelaten": 40506,
  "san": 24219,
  "▁re-": 26748,
  "分泌": 35878,
  "那你就": 38256,
  "凑合": 26652,
  "的人生": 10996,
  "▁*bro:\tcan": 43569,
  "*chi:\tstrawberry": 47808,
  "▁tv.": 19033,
  "▁*inv:\toch": 23919,
  "▁[undercurrent": 22291,
  "合": 1565,
  "▁七点早知道新闻快讯": 41833,
  "es,": 20789,
  "▁bankje": 34915,
  "station": 22088,
  "▁finishing": 39374,
  "▁meester": 7871,
  "小女孩": 19460,
  "\neerste": 35440,
  "▁krijgen": 7352,
  "锆": 5860,
  "▁leeuwarden": 30709,
  "辟": 5590,
  "违法": 24467,
  "🥵": 6443,
  "\teh": 13870,
  "▁*chi:\tlemme": 39865,
  "straffen": 45158,
  "那个女的": 28323,
  "好些": 40408,
  "▁minor": 43536,
  "eurs": 39226,
  "▁tre": 19742,
  "▁generaal": 16877,
  "▁he?\n*mother:\t": 22338,
  "本人": 16040,
  "来说一说": 27876,
  "在哪": 16680,
  "未曾": 42727,
  "不出去": 29605,
  "▁*chi:\toh,": 15837,
  "讷": 5284,
  "▁lighter": 46762,
  "说一句话": 31843,
  "这首": 27507,
  "kh": 37065,
  "▁那你觉得": 35030,
  "▁*chi:\tbaba": 38474,
  "电话": 7794,
  "▁*nan:\tthe": 42279,
  "贫困": 30407,
  "眼眶": 47699,
  "条件": 8238,
  "▁pressed": 41531,
  "真心实意": 41475,
  "渡": 3564,
  "有急事": 42987,
  "镂": 5889,
  "厢": 1513,
  "涨价": 37036,
  "翻脸": 35848,
  "月二日": 46739,
  "上小学": 37828,
  "▁register": 29606,
  "▁lijst": 9740,
  "▁overlap": 43639,
  "推断": 44411,
  "燃烧": 29472,
  "▁duiven": 32606,
  "ologie": 19396,
  "wormen": 38966,
  "en.\n\n": 19382,
  "che": 11676,
  "▁repeat": 34391,
  "▁dinosaur.": 19968,
  "慕": 2607,
  "▁count": 10415,
  "▁willie": 30432,
  "▁meegenomen": 18138,
  "姒": 2036,
  "经营": 10420,
  "7-11": 21780,
  "▁*mot:\tha": 19009,
  "痛哭": 43617,
  "▁quickly.": 27841,
  "🟢": 6434,
  "vloed": 38648,
  "▁kostbaar": 43716,
  "一个女生": 33913,
  "ma": 7862,
  "ty.": 35687,
  "▁opgave": 7892,
  "的姑娘": 15922,
  "椒": 3222,
  "▁daarover": 23053,
  "▁mest": 21772,
  "回娘家": 37816,
  "▁*exp:\twho": 41605,
  "janeiro": 44182,
  "鞣": 6069,
  "▁leerlingen": 8221,
  "▁giet": 35046,
  "▁...op": 25669,
  "▁difficulty": 34381,
  "▁maart": 9746,
  "ich": 20079,
  "キ": 935,
  "▁zoe": 19066,
  "思想": 11579,
  "政策": 9201,
  "一千": 11794,
  "▁然后就": 9118,
  "▁好了好了": 24978,
  "彩": 2431,
  "hulp": 24656,
  "▁bevindt": 13320,
  "but": 12689,
  "▁inleiding": 17252,
  "▁zus": 12288,
  "▁nods": 21690,
  "▁iii": 7338,
  "▁平时": 15204,
  "▁classroom": 34651,
  "▁hippopotamus": 40847,
  "\tja?\n*": 27473,
  "pers": 14701,
  "bevolking": 30798,
  "吃饱了": 30595,
  "verklaring": 43081,
  "▁schilder": 15539,
  "货物": 34758,
  "▁question": 9831,
  "别的男人": 44070,
  "果子": 33852,
  "▁erbij.": 23555,
  "▁conor": 46304,
  "买了一个": 39687,
  "▁*chi:\tthomas.": 45525,
  "见过面": 35862,
  "泪": 3443,
  "▁presentation": 36907,
  "▁right!": 15815,
  "▁mabel": 30178,
  "▁pis": 32889,
  "▁(1740-1": 41710,
  "这种事情": 22528,
  "does": 17991,
  "怎么了": 9055,
  "▁[crying]": 42929,
  "▁immigranten": 27980,
  "champ": 46224,
  "factor": 22665,
  "投奔": 44869,
  "▁conservatieve": 33232,
  "的感情": 9947,
  "▁1870": 37267,
  "鉦": 5780,
  "▁*mot:\tstop": 13974,
  "▁*chi:\tuhoh.": 16202,
  "▁lening": 17329,
  "▁*mot:\thop": 45778,
  "▁什么叫": 17762,
  "gesplitst": 38322,
  "\np": 23461,
  "▁it,": 7224,
  "▁verbeteren.": 32194,
  "三点": 17996,
  "▁badge": 35407,
  "▁*mot:\tsing": 37715,
  "颜色": 14048,
  "航": 4816,
  "vreemd": 36615,
  "好好学习": 28455,
  "▁黄": 814,
  "▁populair": 11255,
  "▁*car:\tmm": 45708,
  "从什么时候开始": 45638,
  "▁plan": 8123,
  "也不能": 9799,
  "杀人": 11568,
  "民政局": 47168,
  "值": 1233,
  "▁after": 7026,
  "胜": 4717,
  "▁facilities": 42105,
  "我男朋友": 28447,
  "▁waited": 47255,
  "▁whispers": 29904,
  "二货": 41100,
  "▁real": 7767,
  "p.": 14175,
  "▁dingen": 7510,
  "应该就是": 34618,
  "▁toy": 7283,
  "▁*joa:\t": 40075,
  "钣": 5805,
  "音频": 29489,
  "▁zeer": 9161,
  "诚信": 41459,
  "▁weg": 6805,
  "▁每次": 11165,
  "▁sneezes]": 46967,
  "觑": 5244,
  "▁1).": 30960,
  "▁apparently": 19473,
  "▁vlaggen": 33346,
  "最快": 27381,
  "▁head]": 11744,
  "▁voorzichtig": 11892,
  "第二天": 13411,
  "ສ": 397,
  "文物": 20312,
  "也比较": 27714,
  "对不对": 7949,
  "▁1,3": 43570,
  "郜": 5715,
  "▁come": 6610,
  "▁诶": 792,
  "蛋": 5097,
  "使劲儿": 35312,
  "▁laurens": 35625,
  "▁hiding.": 28741,
  "then": 26519,
  "▁mobieltje": 25205,
  "抓捕": 30213,
  "蚊子": 27102,
  "讲到": 25831,
  "早年": 41183,
  "这点": 14219,
  "结过婚": 35791,
  "▁gray": 43688,
  "den": 7013,
  "怨气": 39638,
  "▁gordijn": 30117,
  "可以在": 22889,
  "的粉丝": 26514,
  "▁xxx.\n*": 14931,
  "惴": 2585,
  "火": 3678,
  "▁verplicht": 15170,
  "劾": 1423,
  "厩": 1517,
  "▁*mot:\thm.": 9628,
  "▁spreekwoorden": 44907,
  "鐸": 5786,
  "庙": 2372,
  "构建": 37105,
  "▁crayon]": 12367,
  "▁mythe": 36007,
  "一帮": 30609,
  "丹尼": 39305,
  "▁tijdje": 12286,
  "▁hongarije": 20023,
  "▁shop,": 47055,
  "plannen": 46753,
  "▁kettle": 31058,
  "gelegen": 34722,
  "佰": 1160,
  "▁melissa": 19576,
  "出血": 31142,
  "▁*mot:\tauntie": 41687,
  "▁abel": 23294,
  "▁bench": 30320,
  "▁magazine.": 44738,
  "▁mister": 11275,
  "落下": 23289,
  "▁meeste": 7441,
  "▁groep": 7307,
  "▁我会": 8951,
  "▁ed": 16295,
  "normaal": 45030,
  "▁*inv:\twere": 46479,
  "▁neither": 33091,
  "这两": 16489,
  "▁*tea:\tyeah": 24966,
  "桥梁": 46948,
  "我女朋友": 26455,
  "▁christopher": 24945,
  "mie": 13918,
  "很大": 11081,
  "千万不要": 16833,
  "▁*exp:\tmm": 29695,
  "angel": 33430,
  "▁看到": 12023,
  "幸福感": 32332,
  "▁tee": 24179,
  "说什么": 9024,
  "▁doen?": 9862,
  "给你的": 22624,
  "▁concurrent": 33288,
  "的选择": 15173,
  "队": 5950,
  "二十一号": 29740,
  "回应称": 43540,
  ".\ntoon": 19018,
  "通知": 9403,
  "父子": 25061,
  "▁你有没有": 18350,
  "别动": 26391,
  "▁嗯那": 20714,
  "▁zil": 37453,
  "澜": 3657,
  "溜达": 35531,
  "▁lemonade": 41573,
  "小仙女": 44617,
  "▁*chi:\tman": 19599,
  "挈": 2757,
  "▁package": 24877,
  "▁fixed": 17310,
  "87": 18042,
  "uitgaven": 40740,
  "秣": 4286,
  "▁为什么要": 19848,
  "slide": 43669,
  "stand": 10495,
  "▁phone": 8628,
  "▁box?": 12752,
  "▁aangehouden": 35228,
  "\nze": 39537,
  "▁mezelf": 23621,
  "▁pakken.": 21533,
  "实行": 19034,
  "驾照": 33602,
  "是这么说的": 33820,
  "抛": 2698,
  "犯罪": 14258,
  "钺": 5818,
  "崛起": 35426,
  "箏": 4393,
  "做错了": 24055,
  "▁krabbel": 20633,
  "吓唬": 22436,
  "太大了": 19846,
  "一样的": 14720,
  "▁beton": 27183,
  "984)": 43589,
  "先回去": 31872,
  "▁ziekten": 34228,
  "▁lijm": 25182,
  "\tben": 29356,
  "list": 21845,
  "ℹ": 545,
  "▁veroorzaken": 27440,
  "londen": 34902,
  "裆": 5202,
  "肴": 4700,
  "在外头": 40261,
  "9-17": 36297,
  "morele": 42870,
  "想找一个": 42250,
  "▁mice": 33566,
  "▁kikker": 9851,
  "涉及": 19547,
  "前": 1394,
  "不放": 27341,
  "▁veroverd": 22391,
  "▁directe": 24413,
  "▁zilveren": 22416,
  "aziatische": 25221,
  "的观点": 17485,
  "▁alphen": 47670,
  "的主意": 32934,
  "请大家": 29450,
  "be": 7404,
  "廿": 2395,
  "▁hurt.": 16460,
  "手段": 16447,
  "不对": 9469,
  "▁camera": 9236,
  "▁elbow": 36654,
  "奏": 1988,
  "缪": 4584,
  "▁*chi:\tthomas": 19350,
  "▁scottish": 46098,
  "▁fifteen": 11792,
  "兴": 1296,
  "jump": 41069,
  "你要是": 17811,
  "▁*mot:\this": 16223,
  "担当": 21575,
  "硬币": 41947,
  "isn't": 18807,
  "eh": 19444,
  "铠": 5837,
  "▁[.5": 29872,
  "▁homo": 27160,
  "pil": 30026,
  "▁swa": 31707,
  "▁locked": 22614,
  "▁2011": 11197,
  "观测": 47872,
  "柔软": 30649,
  "spellen": 40222,
  "\n\nm": 37110,
  "back": 16604,
  "she": 14941,
  "留住": 37961,
  "赚": 5455,
  "896)": 28458,
  "▁gracht": 43783,
  "纸": 4504,
  "又没有": 31278,
  "从来没有": 10502,
  "▁minst": 31022,
  "yo": 25764,
  "在那": 11978,
  "没有想过": 38049,
  "煤气": 47613,
  "▁letters": 8188,
  "▁box.": 8551,
  "▁nacht": 9064,
  "▁*mot:\torange.": 41186,
  "歪": 3311,
  "藕": 5054,
  "▁*chi:\twhee.": 32387,
  "05)": 17363,
  "有个": 7552,
  "▁netwerk": 22622,
  "▁nixon": 35622,
  "短暂": 34840,
  "小心": 11791,
  "病毒": 12350,
  "▁verwachting": 23297,
  "▁hevig": 40511,
  "gevoelig": 46087,
  "▁thingy": 45644,
  "okay": 20855,
  "首先": 10231,
  "▁hij/zij": 34352,
  "人才": 12406,
  "正面": 21335,
  "非常的": 11728,
  "▁twijfel": 21348,
  "支持": 8451,
  "▁antwoorden": 9063,
  "anti": 31362,
  "▁boodschappen": 17877,
  "▁tempel": 18698,
  "▁grade": 28888,
  "summer": 46827,
  "terrein": 27151,
  "val": 8891,
  "蓦": 5016,
  "的时候就": 15275,
  "▁我们现在": 16844,
  "▁game?": 18363,
  "𝐍": 6384,
  "▁waren": 6720,
  "几个人": 15980,
  "裂": 5200,
  "▁verdiende": 41120,
  "▁gist": 37113,
  "三十五岁": 33333,
  "gever": 32929,
  "还得": 9350,
  "▁langste": 26311,
  "▁[noise": 30979,
  "▁barber": 44796,
  "戮": 2649,
  "ک": 310,
  "老师说": 24854,
  "bell": 28909,
  "iemand": 25445,
  "▁verbinding": 17695,
  "鈴": 5779,
  "的日子": 10260,
  "▁peer": 24499,
  "▁pirate": 31530,
  "▁哎对了": 30477,
  "▁annoying": 30015,
  "▁100": 8777,
  "▁inkomens": 23065,
  "▁prik": 25957,
  "▁gehouden.": 15250,
  "▁democratie": 13397,
  "▁lit": 42234,
  "▁vrij": 7955,
  "瞎说": 30386,
  "click": 35444,
  "▁system": 12213,
  "▁coa": 44566,
  "亓": 1047,
  "▁onderweg": 16273,
  "▁indianen": 21180,
  "表示": 7403,
  "听到": 7850,
  "▁award": 20577,
  "▁compagnie": 41877,
  "β": 176,
  "▁meeting": 12656,
  "fi": 16284,
  "eg": 10361,
  "▁[getting": 37194,
  "▁roundabout": 38028,
  "▁uniform": 20905,
  "▁*pat:\tit's": 40605,
  "moed": 44180,
  "这么回事": 29428,
  "项目": 9074,
  "▁时间": 16518,
  "潜入": 44769,
  "已经是": 14765,
  "尸体": 21290,
  "▁junction": 42777,
  "slak": 38542,
  "▁verkopen": 14094,
  "▁oorlog": 7573,
  "工作人员": 14677,
  "余生": 26315,
  "▁(een": 12099,
  "▁sesame": 32452,
  "▁*pat:\tokay": 40195,
  "16)": 23212,
  "提前": 10031,
  "lk": 26362,
  "他他他": 35955,
  "根本就": 15881,
  "▁xxx...": 10837,
  "▁然后那个": 26358,
  "▁dichtbij": 17375,
  "▁marianne": 42476,
  "因此": 16553,
  "很聪明": 40360,
  "kring": 36965,
  "这房子": 27733,
  "心里有数": 47991,
  "说到": 16799,
  "▁duw": 30092,
  "相反": 22771,
  "非常好": 15760,
  "外面": 10678,
  "眼看": 26263,
  "心想": 21492,
  "不安": 17925,
  "意义": 11953,
  "有许多": 33463,
  "▁medelijden": 34764,
  "膝盖": 41042,
  "▁loud.": 23431,
  "▁-": 591,
  "▁farmers": 36731,
  "club": 15909,
  "▁ademen": 37520,
  "▁che": 18080,
  "本地": 21593,
  "我们中国": 29863,
  "▁klas": 8383,
  "▁*bro:\tmom": 36332,
  "gor": 26547,
  "poo": 38825,
  "市场上": 33597,
  "胭": 4724,
  "▁gesproken": 11543,
  "▁teachers": 16816,
  "这家": 20186,
  "▁drugs": 14674,
  "▁drogen": 36259,
  "夫妇": 22921,
  "写作业": 28144,
  "▁*mot:\tyes": 7194,
  "▁你以为": 19418,
  "敛": 2922,
  "经历过": 14117,
  "▁rusland.": 26280,
  "▁gemiddeld": 11009,
  "▁你就": 7579,
  "不是说了吗": 46344,
  "班主任": 22153,
  "悄悄地": 22494,
  "▁bloot": 36087,
  "▁aliens.": 37825,
  "你们两个": 16377,
  "▁dark.": 24145,
  "追问": 43186,
  "M": 52,
  "▁background]": 11249,
  "▁sja": 37303,
  "就好了": 10559,
  "星球": 27303,
  "的那个人": 18064,
  "▁noordwesten": 40055,
  "▁hoop": 9565,
  "▁saksen": 29997,
  "▁koper": 13266,
  "映": 2991,
  "▁he...": 37265,
  "非洲": 18843,
  "都是这样": 32887,
  "▁file": 17839,
  "ph": 22010,
  "▁aardappel": 23023,
  "▁doors": 16818,
  "▁whisky": 43295,
  "灞": 3677,
  "▁klok": 13682,
  "▁*chi:\t[opens": 45371,
  "▁wapens": 16406,
  "特别有意思": 46046,
  "tui": 36305,
  "▁天天": 14395,
  "希望你能够": 33962,
  "吃苦": 26933,
  "年华": 42019,
  "▁whom": 39331,
  "voorraden": 47887,
  "▁想": 722,
  "霸气": 42729,
  "▁*loi:\tit": 32920,
  "毒": 3338,
  "招呼": 24607,
  "和他在一起": 35532,
  "▁quiet.": 19351,
  "古": 1538,
  "guess": 38190,
  "▁dishes": 21594,
  "创新": 11298,
  "总是会": 37902,
  "▁facebook": 34942,
  "periode": 19584,
  "\tmoeke": 41045,
  "▁mouth]": 13898,
  "▁farmer": 16791,
  "▁i'm": 6603,
  "▁legenda": 28300,
  "▁pole": 33680,
  "9-2": 26989,
  "两下": 35577,
  "▁bestudeerd": 39304,
  "\nik": 39362,
  "▁vissen": 10462,
  "▁koor": 28207,
  "会议室": 47636,
  "近期": 18523,
  "恪": 2529,
  "▁有些人": 18486,
  "美美": 32488,
  "手表": 36190,
  "上下": 18722,
  "voetbal": 25763,
  "饯": 6141,
  "就像": 8787,
  "来说": 7402,
  "乙": 1025,
  "▁woonden": 14257,
  "承载": 43721,
  "辛": 5587,
  "▁*chi:\tfour": 25351,
  "倔": 1220,
  "邵": 5705,
  "-12": 29604,
  "▁goat.": 42547,
  "▁opeens": 11134,
  "▁heavy": 13446,
  "蔷": 5027,
  "cause": 31474,
  "x.": 33407,
  "▁baby!": 30552,
  "地区的": 29626,
  "无声": 40105,
  "卫星": 25043,
  "自家": 29732,
  "r": 89,
  "▁dada.": 27238,
  "▁kite": 31954,
  "▁ideologie": 34639,
  "▁最近": 9785,
  "听我节目": 44345,
  "▁你怎么来了": 25873,
  "咋了": 30878,
  "听清楚": 38619,
  "▁*fat:\tcome": 25469,
  "▁report,": 45973,
  "的判断": 31114,
  "▁pan.": 30490,
  "土地": 13099,
  "又不是": 12026,
  "maximale": 19286,
  "wash": 40650,
  "为什么会": 12995,
  "observes": 36830,
  "▁*chi:\tsometimes": 25143,
  "▁gam": 41298,
  "hagen": 38835,
  "▁ball]": 9073,
  "常": 2338,
  "▁impressed": 45595,
  "▁vrijwillig": 34398,
  "汽油": 45891,
  "▁请你": 16362,
  "▁*chi:\tfirst": 25463,
  "夏雨": 25315,
  "mer": 11164,
  "学会了": 18963,
  "▁argentinie": 22848,
  "侧": 1182,
  "河": 3420,
  "茫茫": 38803,
  "拜访": 34172,
  "sson": 38300,
  ".\n*father:\tmoet": 44846,
  "▁stan": 25727,
  "有事儿": 14303,
  "▁uitvinding": 26144,
  "▁michigan": 43064,
  "以为是": 29678,
  "当初": 9138,
  "bewust": 44586,
  "▁steven": 11023,
  "▁rooie": 35136,
  "▁同时也": 28855,
  "spuit": 43375,
  "三角": 29162,
  "这一切": 14770,
  "沱": 3419,
  "...op": 46694,
  "气氛": 23210,
  "▁laatst": 19207,
  "干": 2350,
  "换个": 15208,
  "琦": 3908,
  "▁sleeping.": 18645,
  "▁'bij": 38875,
  "▁zeespiegel": 39395,
  "比喻": 42432,
  "▁ontstaan.": 16868,
  "▁bucket.": 34438,
  "就好比": 42264,
  "▁radio.": 44454,
  "扔掉": 30205,
  "▁produceren": 17639,
  "▁joop": 40758,
  "▁columbus": 31896,
  "下次": 16552,
  "接触": 9861,
  "▁soup": 19239,
  "煲": 3755,
  "堺": 1926,
  "nobody": 43289,
  "▁lampje": 26397,
  "焚": 3739,
  "就是一种": 32070,
  "tegen": 16979,
  "接下来": 10135,
  "▁*chi:\ttell": 27302,
  "不允许": 19158,
  "能明白吗": 31195,
  "抢救": 24045,
  "在场": 26308,
  "ソ": 942,
  "cast": 37680,
  "岗位": 18488,
  "钴": 5816,
  "▁voerde": 22184,
  "bomen": 19753,
  "▁purdie's": 27350,
  "完了": 8325,
  "嗨": 1772,
  "委": 2038,
  "▁time": 6726,
  "银": 5849,
  "▁*mot:\touch": 27480,
  "▁[crayon]": 32454,
  "▁woordenboek": 20436,
  "废话": 13595,
  "republikein": 42601,
  "▁daartoe": 30384,
  "roer": 35544,
  "daar": 15780,
  "▁blijken": 25485,
  "▁bereikt": 16573,
  "▁所以我想": 37751,
  "▁standaard": 14691,
  "回到了": 21044,
  "离过婚": 37781,
  "letjes": 25837,
  "奇怪": 11789,
  "的这个": 7423,
  "过后": 16154,
  "就跟我": 28886,
  "舆": 4805,
  "▁hart": 8677,
  "卦": 1489,
  "为什么不": 15037,
  "五日": 39904,
  "精灵": 25440,
  "你就别": 22881,
  "缶": 4590,
  "▁knife.": 24628,
  "几句话": 26223,
  "醒": 5763,
  "▁bulgarije": 26067,
  "haalt": 45758,
  "▁aanpak": 29587,
  "跟他一起": 39878,
  "觉得": 6897,
  "▁%add:\tgeo": 22015,
  "也特别": 31377,
  "另": 1540,
  "turn": 22631,
  "rijden": 16387,
  "▁griezel": 36121,
  "▁gebeurtenissen": 13892,
  "▁uitgestorven": 28759,
  "真的挺": 38532,
  "▁[tries": 18022,
  "同意": 9217,
  "▁bladzijden": 46720,
  "▁cousins": 41468,
  "▁bedtime": 27948,
  "延期": 40839,
  "▁motief": 34699,
  "▁betrapt": 38052,
  "▁uitmaakt": 46612,
  "制度": 12134,
  "对": 2192,
  "в": 206,
  "废": 2376,
  "搭配": 33249,
  "筹备": 38181,
  "▁ren": 19041,
  "▁schrok": 23437,
  "▁*chi:\twha": 33117,
  "跛": 5496,
  "▁domme": 30318,
  "▁他总是": 33662,
  "▁enquete": 39800,
  "一战": 34746,
  "▁income": 23167,
  "▁而你": 22591,
  "鹩": 6317,
  "▁departement": 29579,
  "调皮": 31535,
  "盟": 4100,
  "府": 2374,
  "了几": 20997,
  "杠": 3086,
  "▁boerderijen": 34930,
  "▁梁": 746,
  "▁你应该": 16434,
  "把自己的": 19424,
  "▁那你们": 17280,
  "就不能": 12716,
  "▁waarom": 7036,
  "醋": 5760,
  "孔雀": 32659,
  "▁eerste": 6731,
  "▁outta": 42318,
  "骑着": 29099,
  "▁最后": 8121,
  "的高度": 34933,
  "远处": 26304,
  "未来哥哥": 38056,
  "▁pigs": 31126,
  "▁apparatuur": 43347,
  "允": 1271,
  "four": 31595,
  "▁else?": 8226,
  "▁*chi:\tyep": 21513,
  "奉命": 47826,
  "胶": 4729,
  "很久了": 32117,
  "自责": 28982,
  "motor": 18381,
  "rest": 22793,
  "▁euro": 8043,
  "▁opgenomen": 13722,
  "警戒": 46163,
  "招聘": 25855,
  "▁universiteit": 10588,
  "▁yep.": 18208,
  "ylalanylalanyl": 36947,
  "work": 20268,
  "⁠": 514,
  "▁merk": 14648,
  "₮": 533,
  "使命": 22108,
  "cm": 40804,
  "▁huishoudens": 31945,
  "四点五": 44671,
  "▁hoofdstad": 8823,
  "▁falls]": 37512,
  "▁revolutie": 11628,
  "lees": 21237,
  "▁·\nb": 37510,
  "强烈的": 26795,
  "片子": 28222,
  "扩张": 29348,
  "畅销": 25894,
  "将继续": 37191,
  "犊": 3807,
  "尊严": 20806,
  "site": 35634,
  "十九岁": 26534,
  "▁*mot:\tbunny": 41403,
  "sloeg": 46394,
  "stamp": 41538,
  "▁breng": 27056,
  "▁[david": 25860,
  "▁shops.": 37911,
  "麦克": 36432,
  "offer": 32087,
  "对不起我": 31894,
  "这时候": 18961,
  "薪酬": 47592,
  "生日": 15776,
  "中心": 9308,
  "重要的": 13370,
  "▁albums": 32503,
  "▁*chi:\tp": 14490,
  "最终": 10130,
  "▁helemaal": 7042,
  "好好想想": 20960,
  "▁minimal": 45882,
  "▁beau": 47803,
  "收盘": 26407,
  "▁saying": 7445,
  "▁developed": 37956,
  "看到": 7100,
  "噔": 1806,
  "二月份": 37508,
  "▁house.": 7401,
  "▁yours?": 18586,
  "坐火车": 47956,
  "▁noticed": 17807,
  "cmon": 44219,
  "▁clicking": 40403,
  "表明": 17603,
  "篳": 4417,
  "▁*chi:\tmore": 12502,
  "学姐": 34204,
  "▁d's": 42394,
  "behandeling": 41529,
  "▁stereo": 33817,
  "▁*chi:\tsix": 39630,
  "dreigde": 39252,
  "湃": 3575,
  "▁just": 6534,
  "▁concentrate": 34293,
  "女娲": 46669,
  "▁小": 710,
  "▁nauw": 25434,
  "一件事儿": 18292,
  "▁punten": 7468,
  "\tja.\n*mother:\ten": 26820,
  "▁ondersteunen": 31601,
  "▁bypass": 47405,
  "▁la.": 47011,
  "缓缓": 35502,
  "矬": 4172,
  "▁barok": 36624,
  "阱": 5954,
  "▁guus": 24600,
  "banana": 47786,
  "ظ": 294,
  "▁tel": 17524,
  "▁domestic": 47812,
  "停了": 30628,
  "🤯": 6438,
  "有这么": 20775,
  "劝劝": 32585,
  "canadese": 29878,
  "▁middeleeuwen": 13059,
  "▁bread": 10078,
  "breek": 36882,
  "▁kar": 11477,
  "▁*mot:\tjuice": 39529,
  "走了": 7294,
  "malige": 32888,
  "▁gulp": 46159,
  "▁schoon": 11288,
  "⅘": 548,
  "检验": 28839,
  "▁[from": 42054,
  "▁是不是你": 30819,
  "百分之十五": 40022,
  "一组": 21183,
  "▁verbeterd": 33269,
  "dio": 43694,
  "▁antenna": 33780,
  "▁tropisch": 19196,
  "▁then": 6546,
  "▁florence": 47760,
  "target_child:\tm": 40760,
  "▁strawberries": 19056,
  "▁konden": 7870,
  "▁bedtime.": 46226,
  "询": 5319,
  "gebergte": 34497,
  "茭": 4903,
  "▁深圳": 27549,
  "▁thread": 44194,
  "ch": 7591,
  "鲜花": 27057,
  "举行": 14495,
  "▁fuss": 34821,
  "这个案子": 25054,
  "还以为": 28023,
  "▁kerstmis": 44926,
  "▁teacher": 10737,
  "枸": 3119,
  "饭馆": 42942,
  "ར": 403,
  "化妆": 18589,
  "▁plain": 24849,
  "heet": 42479,
  "▁keuken": 10356,
  "sleutel": 31617,
  "或者是": 10453,
  "袂": 5186,
  "▁*mot:\tbig": 13435,
  "▁sparta": 41596,
  "▁kevin": 19505,
  "spectrum": 44027,
  "▁ontwikkeld": 14213,
  "▁mega": 21925,
  ".\n*mother:\the": 12422,
  "▁kijken": 7215,
  "书店": 35660,
  "aria": 32178,
  "▁pakte": 12378,
  "▁har": 13618,
  "的形象": 24797,
  "mevrouw": 45949,
  "▁however": 26768,
  "是什么人": 25553,
  "ious": 36809,
  "rina": 33026,
  "▁growing": 19132,
  "最想": 25734,
  "流星": 43106,
  "燧": 3773,
  "印度": 15096,
  "骑车": 44469,
  "▁[whispered]": 21619,
  "▁%int:\thigh": 21245,
  "全网最专业的情感频道": 38475,
  "▁could've": 45760,
  "就跟我说": 25223,
  "▁就是说": 9357,
  "▁*fat:\tand": 8120,
  "▁vormde": 31137,
  "▁%add:\tall": 36074,
  "高兴了": 30531,
  "坚信": 37429,
  "单纯的": 24680,
  "▁*exp:\thm.": 45440,
  "▁chased": 43493,
  "利亚": 27475,
  "▁busy.": 36833,
  "▁mat": 11349,
  "望远镜": 46668,
  "▁*mot:\tfind": 31470,
  "形成": 11271,
  "▁*mch:\tthe": 41373,
  "皑": 4077,
  "▁poppe": 44538,
  "往往会": 41401,
  "圆": 1851,
  "榨": 3250,
  "改编": 38840,
  "▁voedingsstoffen": 23830,
  "▁pinch": 32462,
  "▁matching": 42970,
  "▁whole": 7857,
  "手中": 17296,
  "▁squared": 32916,
  "▁anyway": 9954,
  "▁treatment": 39911,
  "▁thing?": 13115,
  "▁beloofd": 26855,
  "▁gelderland": 19535,
  "▁*mch:\tno.": 34286,
  "问": 5918,
  "▁hersteld": 29156,
  "leen": 26692,
  "趙": 5480,
  "▁hoest": 43158,
  "▁permanent": 30248,
  "楚": 3231,
  "说起": 18824,
  "landschap": 29009,
  "▁*exp:\thi": 36653,
  "▁*att:\tcom": 42910,
  "▁expression": 35306,
  "给他打电话": 26751,
  "800": 33216,
  "▁你小子": 29511,
  "▁wees": 13428,
  "▁doorlopen": 41911,
  "饷": 6148,
  "😂": 6420,
  "▁我跟": 10828,
  "▁slo": 23580,
  "笔": 4362,
  "▁tekens": 36723,
  "触": 5249,
  "▁christenunie": 37593,
  "瘦了": 29171,
  "▁instructie": 33471,
  "lou": 36722,
  "愠": 2597,
  "▁ziet": 7228,
  "活了": 24590,
  "郫": 5721,
  "自我价值": 44681,
  "▁laughing.": 34760,
  "矛": 4165,
  "割": 1404,
  "开花": 33130,
  "▁beweging": 11405,
  "我给您": 35140,
  "炸弹": 25629,
  "▁*fat:\toh,": 17570,
  "ai": 10396,
  "你到底想": 45445,
  "▁bou": 18195,
  "出发": 11218,
  "▁mij": 7157,
  "▁ooh.": 29810,
  "▁drijft": 42938,
  "▁yesterday?": 17431,
  "▁1996": 17745,
  "▁zw": 23738,
  "ٱ": 307,
  "ⵖ": 886,
  "▁jail": 36834,
  "二十九": 25543,
  "会上": 21349,
  "武汉市": 43805,
  "▁如何": 21782,
  "rus": 17039,
  "▁funny": 7793,
  "▁taxi": 16809,
  "葉": 4986,
  "▁scissors": 22102,
  "▁method": 41294,
  "▁communistisch": 37079,
  "▁leaves.": 35875,
  "dieren": 13070,
  "park": 11950,
  "泱": 3448,
  "hof": 16345,
  "争吵": 16194,
  "的父亲": 13067,
  "跟你们": 13545,
  "会让人": 37122,
  "模仿": 29946,
  "圩": 1860,
  "就不要": 16459,
  "谈了": 15932,
  "crack": 42802,
  "\npaus": 44697,
  "werkers": 44173,
  "北斗": 45264,
  "寤": 2186,
  "▁ijs": 9121,
  "▁grand": 14347,
  "▁*par2:\tand": 19333,
  "十年后": 37668,
  "▁present?": 42719,
  "哪个城市": 46140,
  "▁traditioneel": 36474,
  "▁*chi:\tdoor": 36083,
  "女朋友": 8148,
  "▁长得": 30045,
  "诸葛": 47570,
  "▁luisteren": 13743,
  "▁不可能": 16621,
  "▁weerstand": 16984,
  "▁*chi:\too.": 37104,
  "▁fix": 8809,
  "吱": 1592,
  "film": 12905,
  "▁*chi:\tno,": 10385,
  "莠": 4945,
  "duct": 36760,
  "pha": 43416,
  "▁president": 7796,
  "护": 2702,
  "谑": 5358,
  "▁*chi:\tjack": 47440,
  "▁steering": 30903,
  "忍着": 28059,
  "▁*chi:\t[start": 47599,
  "es": 7908,
  "▁gerechten": 32163,
  "基于": 31742,
  "▁weird": 23164,
  ").\n\nde": 33558,
  "▁sterker": 16995,
  "▁zwerf": 43844,
  "spier": 39450,
  "▁an": 6655,
  "前一段时间": 37355,
  "▁seemed": 18721,
  "屏蔽": 40821,
  "▁story]": 33209,
  "▁'ge": 20915,
  "稿": 4312,
  "对生活": 32631,
  "▁kroatie": 23443,
  "▁stilstand": 47137,
  "▁mail.": 46641,
  "▁they're": 6755,
  "▁onjuist": 15615,
  "葵": 4997,
  "不明": 24767,
  "上班": 8179,
  "都挺": 28380,
  "▁这才是": 23478,
  "zacht": 44841,
  "per": 8191,
  "同学们": 17225,
  "▁begreep": 25345,
  "▁nederlanden.": 38186,
  "▁gezondheids": 34511,
  "走下去": 25993,
  "补偿": 22855,
  "▁luisterde": 31875,
  "相同": 26378,
  "脖子": 19800,
  "▁*chi:\tb.": 46481,
  "▁'til": 17599,
  "ire": 20376,
  "一面": 13262,
  "broer": 47650,
  "▁art": 13983,
  "on": 6861,
  "▁missus": 13510,
  "▁vormden": 31610,
  "▁holle": 27828,
  "▁我觉得我": 14806,
  "主要": 9321,
  "▁wetsvoorstel": 33794,
  "▁*tea:\tlook": 47040,
  "眩": 4120,
  "▁letten": 21811,
  "的到来": 28399,
  "捱": 2798,
  "畲": 3988,
  "beautiful": 47563,
  "▁然后在": 27194,
  "鄂": 5727,
  "▁reasonable": 29230,
  "桉": 3169,
  "collectie": 47329,
  "▁这两天": 21882,
  "107": 41240,
  "▁curly": 32236,
  ".\n*mother:\tkom": 16420,
  "cu": 12036,
  "阙": 5947,
  "two": 19922,
  "▁nathan": 41125,
  "vergadering": 45026,
  "▁latest": 46828,
  "人们": 10267,
  "羞辱": 45500,
  "▁raampje": 38251,
  "疏远": 44198,
  "bijbehorend": 26731,
  "▁loss": 42302,
  "▁啊你": 21504,
  "立马就": 31320,
  "▁'is": 13485,
  "摊儿": 36920,
  "\n*mother:\tanders": 47745,
  "972)": 42926,
  "▁bowling": 42544,
  "▁voorheen": 29209,
  "▁carriage": 31200,
  "▁playdough": 34390,
  "▁documenten": 44901,
  "▁hak": 30707,
  "▁handed": 42720,
  "曝光": 37320,
  "亳": 1067,
  "▁*mot:\tred.": 38006,
  "4-15": 31685,
  "天猫": 36582,
  "▁beertje": 40810,
  "▁我是今天的心灵陪伴者": 21635,
  "▁pakje": 29628,
  "▁somewhat": 45213,
  "▁kusje": 30690,
  "听说过": 23027,
  "月十日": 45433,
  "失业": 22352,
  "▁2,": 14319,
  "▁worstel": 45537,
  "呱": 1617,
  "兄弟姐妹": 38117,
  "孜": 2119,
  "步入": 39066,
  "的颜色": 31218,
  "一幕": 36016,
  "开学": 19028,
  "教官": 39817,
  "investigator:\tde": 38003,
  "▁lieve": 15811,
  "河里": 30590,
  "▁side]": 30663,
  "\nvan": 27176,
  "▁wine": 26157,
  "▁money.": 11380,
  "停下来": 23081,
  "撤离": 29913,
  "▁peas.": 18979,
  "▁*mot:\tactually": 27791,
  "▁erm,": 7333,
  "▁*chi:\tnumber": 46740,
  "坊": 1870,
  "氧": 3360,
  "▁m/s": 44823,
  "▁vangt": 36156,
  "躺在床上": 27648,
  "▁huh,": 36959,
  "跟你一起": 30820,
  "▁vijver": 20591,
  "▁警方": 28773,
  "de": 6545,
  "▁elk": 7314,
  "质量": 12302,
  "口袋": 35156,
  "▁bones": 32527,
  "宋大哥": 39454,
  "听众朋友": 32214,
  "嘱": 1797,
  "▁*inv:\treally": 23677,
  "春晚": 39263,
  "▁tom.": 36267,
  "新高": 25913,
  "骗人": 28878,
  "▁office.": 30901,
  "▁tongue.": 36764,
  "刑事": 27385,
  "心软": 36485,
  "▁实在": 22350,
  "▁before?": 21419,
  "▁stronger": 41027,
  "▁hands?": 26218,
  "拉着": 18745,
  "牌子": 24220,
  "▁她": 700,
  "▁onderwijs": 9836,
  "heden": 10661,
  "▁roet": 40698,
  "数": 2929,
  "▁trillen": 25815,
  "带回家": 36638,
  "难": 6004,
  "煜": 3748,
  "把手机": 33664,
  "▁我我我": 15757,
  "▁dook": 39024,
  "▁cause": 11771,
  "▁vandaan": 14520,
  "一块钱": 35841,
  "大力": 25985,
  "掌声有请": 45629,
  "ר": 272,
  "▁married.": 47272,
  "啻": 1731,
  "早上": 11456,
  "郁": 5710,
  "憋": 2614,
  "疫情防控": 16925,
  "▁你看啊": 31207,
  "▁ago,": 28052,
  "欧元": 40459,
  "ken": 7639,
  ".\n*child:\tyyy": 39703,
  "每一个": 10781,
  "pi": 16917,
  "als": 13324,
  "▁当时我": 14655,
  "▁ok": 23590,
  "重": 5773,
  "▁pea": 31580,
  "▁tosses": 33192,
  "▁oops": 38616,
  "恕": 2522,
  "晃": 3003,
  "眼": 4126,
  "跑出来": 35436,
  "诧": 5324,
  "善": 1737,
  "ize": 25592,
  "▁playstation": 45737,
  "▁book]": 7477,
  "dacht": 29838,
  "slaan": 17428,
  "▁swing?": 44120,
  "▁winkelier": 41891,
  "匮乏": 37117,
  "▁kloppen": 22581,
  "▁*inv:\tgreat": 33380,
  "ल": 342,
  "▁*mot:\tdown.": 45843,
  "▁first?": 17845,
  "rs.": 35222,
  "夸": 1978,
  "▁我特别": 25020,
  "-189": 40844,
  "出行": 18006,
  "▁organization": 37722,
  "▁sy": 36498,
  "▁不敢": 29928,
  "收藏": 26649,
  "▁seen": 7501,
  "以上的": 22164,
  "▁koala": 44546,
  "▁schone": 24816,
  "▁schip": 9618,
  "寇": 2177,
  "[untranscribed": 19191,
  "奕": 1991,
  "重症": 37648,
  "▁ears.": 15968,
  "tje.\n*": 45085,
  "▁%add:\tger": 20468,
  "比较好": 16694,
  "途径": 29773,
  "评审": 30328,
  "brief": 26728,
  "反而": 13288,
  "▁*inv:\tbaby": 42129,
  "要做": 14589,
  "▁schelpen": 41425,
  "▁thunder": 31831,
  "月十六日": 47886,
  "volk": 24123,
  "看清楚": 26436,
  "畜": 3984,
  "▁第二天": 14629,
  "yl": 11183,
  "嶙": 2296,
  "二十六岁": 33218,
  "▁something?": 13861,
  "▁*inv:\twhere": 10879,
  "▁doll's": 33803,
  "▁*mot:\tb": 18348,
  "竽": 4353,
  "▁woman.": 44683,
  "▁paul": 9076,
  "73)": 38036,
  "▁sparen": 29969,
  "▁stenen": 11810,
  "还想": 12649,
  "倜": 1224,
  "顺便": 27461,
  "▁*chi:\tsay": 16165,
  "icht": 25490,
  "▁fo": 11289,
  "装修": 18069,
  "曾": 3046,
  "▁gevolgen": 11317,
  "tang": 36512,
  "▁rainbow": 25909,
  "差距": 18734,
  "淑": 3536,
  "转身": 17301,
  "▁而是因为": 43590,
  "▁happens?": 27747,
  "▁那就好": 35787,
  "▁我真": 17233,
  "▁tops": 45542,
  "▁zichzelf": 9386,
  "雪花": 36867,
  "好样的": 47365,
  "市区": 41925,
  "light": 17912,
  "吩咐": 20873,
[...]
