{
  "version": "1.0",
  "truncation": null,
  "padding": null,
  "added_tokens": [
    {
      "id": 0,
      "content": "<UNK>",
      "single_word": false,
      "lstrip": false,
      "rstrip": false,
      "normalized": false,
      "special": true
    },
    {
      "id": 1,
      "content": "<PAD>",
      "single_word": false,
      "lstrip": false,
      "rstrip": false,
      "normalized": false,
      "special": true
    },
    {
      "id": 2,
      "content": "<CLS>",
      "single_word": false,
      "lstrip": false,
      "rstrip": false,
      "normalized": false,
      "special": true
    },
    {
      "id": 3,
      "content": "<SEP>",
      "single_word": false,
      "lstrip": false,
      "rstrip": false,
      "normalized": false,
      "special": true
    },
    {
      "id": 4,
      "content": "<MASK>",
      "single_word": false,
      "lstrip": false,
      "rstrip": false,
      "normalized": false,
      "special": true
    }
  ],
  "normalizer": {
    "type": "Sequence",
    "normalizers": [
      {
        "type": "NFD"
      },
      {
        "type": "StripAccents"
      },
      {
        "type": "Lowercase"
      }
    ]
  },
  "pre_tokenizer": {
    "type": "Metaspace",
    "replacement": "▁",
    "prepend_scheme": "always",
    "split": true
  },
  "post_processor": null,
  "decoder": {
    "type": "Metaspace",
    "replacement": "▁",
    "prepend_scheme": "always",
    "split": true
  },
  "model": {
    "type": "Unigram",
    "unk_id": 0,
    "vocab": [
      [
        "<UNK>",
        0.0
      ],
      [
        "<PAD>",
        0.0
      ],
      [
        "<CLS>",
        0.0
      ],
      [
        "<SEP>",
        0.0
      ],
      [
        "<MASK>",
        0.0
      ],
      [
        "▁",
        -3.1300529436383773
      ],
      [
        ".",
        -3.3507806126348783
      ],
      [
        "▁the",
        -3.614319238253316
      ],
      [
        "▁you",
        -3.9082224497060825
      ],
      [
        "a",
        -3.9830342589964474
      ],
      [
        "?",
        -4.115996104796441
      ],
      [
        "▁to",
        -4.223321475233375
      ],
      [
        ",",
        -4.267402650505556
      ],
      [
        "i",
        -4.363044409100739
      ],
      [
        "▁and",
        -4.381351266139111
      ],
      [
        "▁it",
        -4.581491959733954
      ],
      [
        "▁in",
        -4.683148880082994
      ],
      [
        "▁that",
        -4.691423322397011
      ],
      [
        "▁of",
        -4.841064143591462
      ],
      [
        "▁is",
        -4.936226569559583
      ],
      [
        "▁on",
        -4.973843926499638
      ],
      [
        "s",
        -5.020691932839204
      ],
      [
        "▁do",
        -5.223469038961044
      ],
      [
        "]",
        -5.2868481150461815
      ],
      [
        "▁we",
        -5.376467208566991
      ],
      [
        "▁this",
        -5.393527511292664
      ],
      [
        "!",
        -5.397081991448514
      ],
      [
        "▁have",
        -5.4705104644448745
      ],
      [
        "▁what",
        -5.4928989814610585
      ],
      [
        "▁for",
        -5.523467859286063
      ],
      [
        "▁at",
        -5.526292284063
      ],
      [
        "▁like",
        -5.5451213958291845
      ],
      [
        "▁he",
        -5.549887144611979
      ],
      [
        "▁don't",
        -5.553782640922279
      ],
      [
        "▁was",
        -5.5676133055905215
      ],
      [
        "▁with",
        -5.571242149383721
      ],
      [
        "▁your",
        -5.653308804342043
      ],
      [
        "▁are",
        -5.684722363954714
      ],
      [
        "▁not",
        -5.707244125788863
      ],
      [
        "▁one",
        -5.71927794477582
      ],
      [
        "▁can",
        -5.719514156390705
      ],
      [
        "▁go",
        -5.759261527516504
      ],
      [
        "▁*chi:\ti",
        -5.775663704857067
      ],
      [
        "▁they",
        -5.783974755720525
      ],
      [
        "'s",
        -5.803770443325282
      ],
      [
        "▁got",
        -5.80612635874707
      ],
      [
        "▁be",
        -5.811645931429306
      ],
      [
        "▁it's",
        -5.849142537043996
      ],
      [
        "▁know",
        -5.852165691956788
      ],
      [
        "▁get",
        -5.85220464654787
      ],
      [
        "▁up",
        -5.86287629230887
      ],
      [
        "▁all",
        -5.903081500605117
      ],
      [
        "▁think",
        -5.9047546547783565
      ],
      [
        "▁*mot:\tyou",
        -5.924300568681922
      ],
      [
        "▁*chi:\tyeah.",
        -5.979559113911696
      ],
      [
        "▁me",
        -6.006647899950021
      ],
      [
        "▁my",
        -6.020691000799378
      ],
      [
        "...",
        -6.023934240954324
      ],
      [
        "▁*mot:\twhat",
        -6.0366261151984375
      ],
      [
        "▁put",
        -6.045411280995037
      ],
      [
        "▁so",
        -6.048910452844188
      ],
      [
        "▁it.",
        -6.063585166648538
      ],
      [
        "▁just",
        -6.080616490516192
      ],
      [
        "▁see",
        -6.090064539671337
      ],
      [
        "▁but",
        -6.116763751115018
      ],
      [
        "▁that's",
        -6.147872282283842
      ],
      [
        "▁she",
        -6.149535327617441
      ],
      [
        "▁some",
        -6.150779174776872
      ],
      [
        "▁there",
        -6.165063898175017
      ],
      [
        "▁want",
        -6.174363745939834
      ],
      [
        "▁*mot:\toh",
        -6.20255899396607
      ],
      [
        "▁then",
        -6.208905274145751
      ],
      [
        "▁out",
        -6.228764380460175
      ],
      [
        "▁it?",
        -6.230669119918227
      ],
      [
        "▁if",
        -6.236553554831531
      ],
      [
        "▁*mot:\ti",
        -6.250156107132884
      ],
      [
        "▁about",
        -6.267966374584816
      ],
      [
        "▁going",
        -6.282949535074806
      ],
      [
        "▁gonna",
        -6.288702305717596
      ],
      [
        "=",
        -6.299342337168824
      ],
      [
        "▁*mot:\tand",
        -6.302251936435299
      ],
      [
        "▁her",
        -6.334576151892829
      ],
      [
        "▁did",
        -6.355560124871584
      ],
      [
        "▁er",
        -6.364532567792017
      ],
      [
        "▁as",
        -6.397762564603122
      ],
      [
        "t",
        -6.411068366911126
      ],
      [
        "▁xxx.",
        -6.434009164968279
      ],
      [
        "▁his",
        -6.436694910234234
      ],
      [
        "▁them",
        -6.452087545917687
      ],
      [
        "▁little",
        -6.456537520877525
      ],
      [
        "▁when",
        -6.457116422476334
      ],
      [
        "▁well",
        -6.465068263668506
      ],
      [
        "▁no",
        -6.46997933961479
      ],
      [
        "▁*chi:\tand",
        -6.493109766747439
      ],
      [
        "▁*chi:\tno.",
        -6.509860081883721
      ],
      [
        "▁or",
        -6.512894589330676
      ],
      [
        "▁*chi:\t",
        -6.514676169564295
      ],
      [
        "▁*mot:\tthat's",
        -6.5367167265891055
      ],
      [
        "▁wanna",
        -6.555254707521744
      ],
      [
        "e",
        -6.599749603599518
      ],
      [
        "▁from",
        -6.600587335999435
      ],
      [
        "▁very",
        -6.6083571508058565
      ],
      [
        "▁there.",
        -6.629775544272842
      ],
      [
        "▁xxx",
        -6.63561980945158
      ],
      [
        "▁back",
        -6.636704625831964
      ],
      [
        "▁look",
        -6.636878047695811
      ],
      [
        "▁two",
        -6.641176817656241
      ],
      [
        "▁i'm",
        -6.649634337918506
      ],
      [
        "▁oh",
        -6.668732598082201
      ],
      [
        "▁down",
        -6.67627137316882
      ],
      [
        "▁had",
        -6.688661700359567
      ],
      [
        "▁were",
        -6.701888070524861
      ],
      [
        "▁over",
        -6.704553247968805
      ],
      [
        "▁come",
        -6.71547142795297
      ],
      [
        "▁*mot:\t",
        -6.744536815845828
      ],
      [
        "▁more",
        -6.757891399174149
      ],
      [
        "▁said",
        -6.761103590919921
      ],
      [
        "▁erm",
        -6.777622346277676
      ],
      [
        "▁would",
        -6.780160218906332
      ],
      [
        "▁didn't",
        -6.7923378605378275
      ],
      [
        "▁*chi:\ta",
        -6.799167619727539
      ],
      [
        "▁say",
        -6.806996940312322
      ],
      [
        "▁yeah.",
        -6.809052641562637
      ],
      [
        "▁here.",
        -6.8188713847453
      ],
      [
        "▁one.",
        -6.824669495589392
      ],
      [
        "▁that?",
        -6.826852746579807
      ],
      [
        "▁can't",
        -6.827320596116728
      ],
      [
        "▁good",
        -6.82846380635374
      ],
      [
        "▁right",
        -6.834244953749067
      ],
      [
        "▁how",
        -6.83627337864716
      ],
      [
        "▁make",
        -6.839920814219919
      ],
      [
        "▁[",
        -6.851113993651682
      ],
      [
        "▁you're",
        -6.851188397193241
      ],
      [
        "y",
        -6.851529329492157
      ],
      [
        "▁big",
        -6.853151742894404
      ],
      [
        "d",
        -6.864208345478909
      ],
      [
        "▁other",
        -6.867724317799823
      ],
      [
        "▁now",
        -6.897137761237037
      ],
      [
        "▁play",
        -6.89878443890426
      ],
      [
        "▁looks",
        -6.9058275967171845
      ],
      [
        "▁take",
        -6.925798032667537
      ],
      [
        "▁*mot:\tdo",
        -6.928767121015989
      ],
      [
        "▁has",
        -6.950820932094679
      ],
      [
        "▁will",
        -6.955463069843317
      ],
      [
        "▁him",
        -6.975404434533086
      ],
      [
        "o",
        -6.977493179077326
      ],
      [
        "▁*mot:\tit's",
        -6.979185812068755
      ],
      [
        "▁where",
        -6.979601733716908
      ],
      [
        "ing",
        -6.981341907958782
      ],
      [
        "▁here",
        -6.99279828734732
      ],
      [
        "▁does",
        -7.001420688116106
      ],
      [
        "▁an",
        -7.006146788271643
      ],
      [
        "n",
        -7.008329981206874
      ],
      [
        "▁because",
        -7.020558381744852
      ],
      [
        "▁you?",
        -7.027560691435225
      ],
      [
        "▁these",
        -7.029236287269379
      ],
      [
        "▁could",
        -7.043521269010103
      ],
      [
        "m",
        -7.048771625568488
      ],
      [
        "▁really",
        -7.049020197330146
      ],
      [
        "▁isn't",
        -7.064360216918249
      ],
      [
        "r",
        -7.065525279844852
      ],
      [
        "▁*mot:\tis",
        -7.078057692839895
      ],
      [
        "▁he's",
        -7.079761610060292
      ],
      [
        "h",
        -7.0809440501028025
      ],
      [
        "▁tell",
        -7.094568925514411
      ],
      [
        "▁*mot:\tno",
        -7.1028669505221185
      ],
      [
        "▁that.",
        -7.109832311991289
      ],
      [
        "▁*mot:\tyeah.",
        -7.11258757950066
      ],
      [
        "▁*chi:\twhat",
        -7.12115543427981
      ],
      [
        "▁*chi:\tyes.",
        -7.128907735466207
      ],
      [
        "▁yeah",
        -7.1289251290556255
      ],
      [
        "▁*chi:\txxx",
        -7.132653860780694
      ],
      [
        "▁there's",
        -7.134131587806088
      ],
      [
        "▁been",
        -7.143192924112581
      ],
      [
        "▁[mot",
        -7.144640832991348
      ],
      [
        "▁right.",
        -7.1503581285189455
      ],
      [
        "▁off",
        -7.161985714464887
      ],
      [
        "▁any",
        -7.166823826415698
      ],
      [
        "▁*chi:\tno",
        -7.1668944935000365
      ],
      [
        "▁*mot:\tno.",
        -7.178018443137358
      ],
      [
        "▁need",
        -7.178569304023956
      ],
      [
        "▁something",
        -7.185394579717778
      ],
      [
        "▁know.",
        -7.189702886133112
      ],
      [
        "▁hafta",
        -7.192870789960958
      ],
      [
        "▁*mot:\twhat's",
        -7.202812365382979
      ],
      [
        "▁time",
        -7.214442342526938
      ],
      [
        "▁another",
        -7.214772227686447
      ],
      [
        "▁[chi",
        -7.218439307438386
      ],
      [
        "▁doesn't",
        -7.229534255214892
      ],
      [
        "▁by",
        -7.240936360290693
      ],
      [
        "▁those",
        -7.242067519274071
      ],
      [
        "▁*chi:\tyou",
        -7.245154796967832
      ],
      [
        "▁who",
        -7.247742883697262
      ],
      [
        "▁bit",
        -7.247795347083148
      ],
      [
        "▁into",
        -7.248798909541479
      ],
      [
        "▁mean",
        -7.25346428371199
      ],
      [
        "▁eat",
        -7.270958970742738
      ],
      [
        "▁*chi:\toh",
        -7.273412271651617
      ],
      [
        "▁went",
        -7.279455700437479
      ],
      [
        "▁people",
        -7.295443482995989
      ],
      [
        "▁they're",
        -7.299035368781036
      ],
      [
        "▁which",
        -7.299856851995839
      ],
      [
        "▁this?",
        -7.301539906944985
      ],
      [
        "▁goes",
        -7.307503886333045
      ],
      [
        "▁*fat:\t",
        -7.315584294549877
      ],
      [
        "▁three",
        -7.321922421338774
      ],
      [
        "▁i'll",
        -7.325533076997585
      ],
      [
        "▁*mot:\twell",
        -7.326100053586622
      ],
      [
        "▁*mot:\tcan",
        -7.353051113433676
      ],
      [
        "▁now.",
        -7.374624889018749
      ],
      [
        "▁doing",
        -7.388997927058286
      ],
      [
        "▁*mot:\tokay.",
        -7.389102443551236
      ],
      [
        "ed",
        -7.39867484884136
      ],
      [
        "▁what's",
        -7.417837191635236
      ],
      [
        "▁there?",
        -7.418913195093616
      ],
      [
        "▁me.",
        -7.423966485703943
      ],
      [
        "▁*mot:\tare",
        -7.435100466447327
      ],
      [
        "▁too",
        -7.441518704000833
      ],
      [
        "▁give",
        -7.449496666626953
      ],
      [
        "▁on.",
        -7.460565828285057
      ],
      [
        "▁up.",
        -7.483623798760608
      ],
      [
        "▁*mot:\tit",
        -7.487255532281418
      ],
      [
        "▁things",
        -7.4892790493693155
      ],
      [
        "▁*mot:\tthe",
        -7.491809018338245
      ],
      [
        "▁way",
        -7.496969814569821
      ],
      [
        "▁their",
        -7.497431063703404
      ],
      [
        "▁baby",
        -7.499901906342545
      ],
      [
        "▁only",
        -7.504234065452527
      ],
      [
        "▁i've",
        -7.505913171966586
      ],
      [
        "\"",
        -7.507701121575513
      ],
      [
        "▁chi",
        -7.508631491802037
      ],
      [
        "▁our",
        -7.525000722736674
      ],
      [
        "▁*mot:\ta",
        -7.540709402439932
      ],
      [
        "▁no.",
        -7.541093959046055
      ],
      [
        "▁says",
        -7.543990278757622
      ],
      [
        "▁*chi:\ti'm",
        -7.545040097660637
      ],
      [
        "p",
        -7.545249741135798
      ],
      [
        "▁still",
        -7.550325326580966
      ],
      [
        "▁go.",
        -7.554873568637884
      ],
      [
        "▁we're",
        -7.566354286682257
      ],
      [
        "▁nice",
        -7.566531761177192
      ],
      [
        "▁should",
        -7.573877845907541
      ],
      [
        "▁*chi:\tit's",
        -7.577977293947075
      ],
      [
        "▁else",
        -7.579167787328968
      ],
      [
        "▁lot",
        -7.579372630356735
      ],
      [
        "▁*mot:\tthere",
        -7.5806040346407535
      ],
      [
        "▁*mot:\tyeah",
        -7.581368901511633
      ],
      [
        "▁why",
        -7.5840133726279255
      ],
      [
        "▁much",
        -7.58458154008669
      ],
      [
        "▁mm.",
        -7.59416157886144
      ],
      [
        "▁*inv:\twhat",
        -7.59929595172469
      ],
      [
        "▁*mot:\tthat",
        -7.599343455605313
      ],
      [
        "▁um",
        -7.603521872929292
      ],
      [
        "▁*mot:\tlook",
        -7.606417061100382
      ],
      [
        "▁thing",
        -7.607356154094575
      ],
      [
        "▁*mot:\toh.",
        -7.608026999477586
      ],
      [
        "▁what?",
        -7.616594376543668
      ],
      [
        "▁you've",
        -7.6216354294654
      ],
      [
        "▁she's",
        -7.6291892814306195
      ],
      [
        "▁*inv:\t",
        -7.634753580224729
      ],
      [
        "'",
        -7.642431590026403
      ],
      [
        "▁sit",
        -7.643014268417321
      ],
      [
        "▁*mot:\tokay",
        -7.645791730812535
      ],
      [
        "▁*chi:\tthe",
        -7.656065950143045
      ],
      [
        "▁find",
        -7.65753880240759
      ],
      [
        "▁next",
        -7.665245893091118
      ],
      [
        "▁*mot:\tso",
        -7.675310913915897
      ],
      [
        "▁yes.",
        -7.675646598945175
      ],
      [
        "▁*chi:\tthis",
        -7.678040491519127
      ],
      [
        "▁*mot:\tcome",
        -7.682354001456572
      ],
      [
        "▁*mot:\tyes.",
        -7.682843700516491
      ],
      [
        "▁*chi:\t[chi",
        -7.701147647694848
      ],
      [
        "▁sec",
        -7.706608215402378
      ],
      [
        "▁car",
        -7.706910745162876
      ],
      [
        "▁*mot:\tyou're",
        -7.711711610973454
      ],
      [
        "▁four",
        -7.711757910567698
      ],
      [
        "er",
        -7.714534459533748
      ],
      [
        "▁*chi:\tthat",
        -7.714785258739992
      ],
      [
        "▁*mot:\twhere",
        -7.722209793123774
      ],
      [
        "▁*chi:\the",
        -7.724024721905588
      ],
      [
        "▁*mot:\twe",
        -7.734726556148884
      ],
      [
        "▁through",
        -7.741545892423151
      ],
      [
        "▁down.",
        -7.744203627851869
      ],
      [
        "▁five",
        -7.744612886580443
      ],
      [
        "▁last",
        -7.753266103332388
      ],
      [
        "▁might",
        -7.753534598448105
      ],
      [
        "▁*chi:\tum",
        -7.757028170950024
      ],
      [
        "▁one?",
        -7.759049843408066
      ],
      [
        "g",
        -7.761217383350843
      ],
      [
        "▁done",
        -7.763732812002177
      ],
      [
        "▁*mot:\tbut",
        -7.769592852289021
      ],
      [
        "▁read",
        -7.773867304310366
      ],
      [
        "▁yes",
        -7.775284513562561
      ],
      [
        "▁*chi:\tyeah",
        -7.782382651077878
      ],
      [
        "▁*chi:\tthat's",
        -7.782698044633495
      ],
      [
        "l",
        -7.786698029507177
      ],
      [
        "▁*mot:\the",
        -7.788125346563506
      ],
      [
        "▁won't",
        -7.790199595383809
      ],
      [
        "▁haven't",
        -7.792634574275338
      ],
      [
        ".]",
        -7.794433738752549
      ],
      [
        "▁first",
        -7.79682600837444
      ],
      [
        "▁*mot:\tdid",
        -7.8061493107204125
      ],
      [
        "▁thought",
        -7.808378204016815
      ],
      [
        "▁this.",
        -7.820280568092969
      ],
      [
        "▁out.",
        -7.834402563358799
      ],
      [
        "▁*inv:\toh",
        -7.835140813232986
      ],
      [
        "▁turn",
        -7.842519796487819
      ],
      [
        "▁*chi:\toh.",
        -7.857850657163855
      ],
      [
        "c",
        -7.859340972520668
      ],
      [
        "▁*mot:\t\"",
        -7.859598122441199
      ],
      [
        "▁book",
        -7.864462913966495
      ],
      [
        "▁after",
        -7.868043550882561
      ],
      [
        "▁sort",
        -7.871259760070576
      ],
      [
        "▁new",
        -7.881833436777976
      ],
      [
        "▁okay.",
        -7.8879759386381085
      ],
      [
        "▁*chi:\tbut",
        -7.890097239306842
      ],
      [
        "f",
        -7.893200648378819
      ],
      [
        "▁*mot:\t[laughs]",
        -7.894016373881385
      ],
      [
        "▁around",
        -7.895477586997101
      ],
      [
        "▁made",
        -7.900099294325559
      ],
      [
        "▁we've",
        -7.9074799306239125
      ],
      [
        "▁gotta",
        -7.9093173731235105
      ],
      [
        "▁cos",
        -7.91150423824519
      ],
      [
        "▁good.",
        -7.912801035611956
      ],
      [
        "▁looking",
        -7.916795844714416
      ],
      [
        "cha",
        -7.9175524342473835
      ],
      [
        "▁we'll",
        -7.917713115577154
      ],
      [
        "▁help",
        -7.923264649922009
      ],
      [
        "▁mot",
        -7.926356666448028
      ],
      [
        "▁let",
        -7.926897424691415
      ],
      [
        "▁them.",
        -7.926945295620845
      ],
      [
        "▁than",
        -7.927692431327152
      ],
      [
        "▁*chi:\tit",
        -7.928805377999145
      ],
      [
        "▁long",
        -7.929469393390784
      ],
      [
        "▁again.",
        -7.931001673173142
      ],
      [
        "▁kind",
        -7.93398353134935
      ],
      [
        "▁quite",
        -7.935245480032204
      ],
      [
        "▁let's",
        -7.935396426308289
      ],
      [
        "▁us",
        -7.93889499161965
      ],
      [
        "▁away",
        -7.942638313572827
      ],
      [
        "▁getting",
        -7.943042196688159
      ],
      [
        "▁actually",
        -7.9445065240297374
      ],
      [
        "▁man",
        -7.945030419090621
      ],
      [
        "▁*mot:\txxx",
        -7.945106527222345
      ],
      [
        "▁many",
        -7.951806695013298
      ],
      [
        "▁*chi:\t[laughs]",
        -7.961502262142853
      ],
      [
        "▁try",
        -7.963759533282671
      ],
      [
        "▁use",
        -7.964901244729731
      ],
      [
        "▁too.",
        -7.968083771370793
      ],
      [
        "▁remember",
        -7.969939256146624
      ],
      [
        "▁*mot:\tlet's",
        -7.974458974666625
      ],
      [
        "▁hear",
        -7.975815462922613
      ],
      [
        "▁work",
        -7.982554739225785
      ],
      [
        "▁show",
        -7.99810497860059
      ],
      [
        "▁yeah,",
        -7.999440631592714
      ],
      [
        "▁ball",
        -7.999799981056027
      ],
      [
        "▁\"",
        -8.005615882473121
      ],
      [
        "▁red",
        -8.008115319575232
      ],
      [
        "▁day",
        -8.01186391769539
      ],
      [
        "▁daddy",
        -8.012643922850573
      ],
      [
        "▁anything",
        -8.014944182392028
      ],
      [
        "▁playing",
        -8.018434102837544
      ],
      [
        "▁came",
        -8.018856580977348
      ],
      [
        "▁*mot:\tright.",
        -8.018952823151144
      ],
      [
        "▁*mot:\tthis",
        -8.02640137082487
      ],
      [
        "▁*mot:\thow",
        -8.030297893790669
      ],
      [
        "▁coming",
        -8.031007793009568
      ],
      [
        "-",
        -8.032600750741059
      ],
      [
        "▁see.",
        -8.038764880778267
      ],
      [
        "▁off.",
        -8.038989926204877
      ],
      [
        "▁house",
        -8.039999708710797
      ],
      [
        "▁wasn't",
        -8.040095008393392
      ],
      [
        "▁box",
        -8.041494347519864
      ],
      [
        "▁doing?",
        -8.043589350090834
      ],
      [
        "▁*mot:\tnow",
        -8.04521305167754
      ],
      [
        "▁round",
        -8.045894561126829
      ],
      [
        "▁*mot:\tdon't",
        -8.04953840928841
      ],
      [
        "▁aren't",
        -8.049686340870773
      ],
      [
        "▁before",
        -8.050722697262247
      ],
      [
        "▁talking",
        -8.055874989254686
      ],
      [
        "▁*mot:\ti'm",
        -8.056714351189118
      ],
      [
        "▁here?",
        -8.058275543535153
      ],
      [
        "▁they?",
        -8.058475713149967
      ],
      [
        "▁open",
        -8.063534667215674
      ],
      [
        "▁never",
        -8.065748743872414
      ],
      [
        "▁same",
        -8.069372044981169
      ],
      [
        "▁er,",
        -8.069453047397017
      ],
      [
        "▁*mot:\tyes",
        -8.079972918709396
      ],
      [
        "▁*mot:\tthere's",
        -8.092019769467484
      ],
      [
        "u",
        -8.0963088588072
      ],
      [
        "▁*mot:\twhere's",
        -8.096420791875945
      ],
      [
        "▁*mot:\twhy",
        -8.107702409498721
      ],
      [
        "▁different",
        -8.109332150458878
      ],
      [
        "▁hand",
        -8.112427552071777
      ],
      [
        "▁home",
        -8.11365705100948
      ],
      [
        "▁know,",
        -8.115081258845274
      ],
      [
        "▁it,",
        -8.115864234314596
      ],
      [
        "▁better",
        -8.116411863669963
      ],
      [
        "▁keep",
        -8.120652818812582
      ],
      [
        "▁thank",
        -8.121645626918777
      ],
      [
        "▁*chi:\twhere",
        -8.122361825181027
      ],
      [
        "w",
        -8.123163815072845
      ],
      [
        "on",
        -8.124915883561075
      ],
      [
        "▁*fat:\twhat",
        -8.128242435247893
      ],
      [
        "▁*chi:\twhy",
        -8.129137974377429
      ],
      [
        "▁c",
        -8.1311349987397
      ],
      [
        "b",
        -8.131683435849896
      ],
      [
        "▁no,",
        -8.133252017636247
      ],
      [
        "▁head",
        -8.137289470760448
      ],
      [
        "▁do?",
        -8.140358555708653
      ],
      [
        "▁boy",
        -8.14089719127495
      ],
      [
        "▁even",
        -8.142850070441247
      ],
      [
        "▁then.",
        -8.147317978314229
      ],
      [
        "▁used",
        -8.150732304024789
      ],
      [
        "▁*chi:\twhat's",
        -8.15328759296634
      ],
      [
        "▁called",
        -8.153816319977622
      ],
      [
        "▁top",
        -8.154624975569487
      ],
      [
        "▁talk",
        -8.16164624545023
      ],
      [
        "▁saw",
        -8.164971953380318
      ],
      [
        "▁*inv:\ti",
        -8.168597871157848
      ],
      [
        "▁now?",
        -8.16875597581319
      ],
      [
        "▁twenty",
        -8.176216976173661
      ],
      [
        "▁me?",
        -8.178506234862573
      ],
      [
        "▁making",
        -8.18675620908526
      ],
      [
        "▁having",
        -8.193051254825265
      ],
      [
        "▁comes",
        -8.193514358336795
      ],
      [
        "▁piece",
        -8.1954491288054
      ],
      [
        "▁uh",
        -8.195647669662632
      ],
      [
        "▁always",
        -8.198078948693494
      ],
      [
        "▁school",
        -8.19874063495549
      ],
      [
        "▁*mot:\there",
        -8.203665363480484
      ],
      [
        "▁mother",
        -8.20724807004641
      ],
      [
        "▁water",
        -8.208465657611603
      ],
      [
        "▁toy",
        -8.210484059496821
      ],
      [
        "▁he?",
        -8.21111054371892
      ],
      [
        "▁*inv:\tand",
        -8.213925237905961
      ],
      [
        "▁mommy",
        -8.215410678654342
      ],
      [
        "▁old",
        -8.215559436281385
      ],
      [
        "▁chi]",
        -8.217454518495309
      ],
      [
        "+",
        -8.21823798598357
      ],
      [
        "▁sure",
        -8.219175332749117
      ],
      [
        "▁puts",
        -8.224807504886682
      ],
      [
        "▁blue",
        -8.224833963848727
      ],
      [
        "▁*mot:\tsee",
        -8.226218919711785
      ],
      [
        "▁hundred",
        -8.22806109412297
      ],
      [
        "▁green",
        -8.23205538158678
      ],
      [
        "▁*mot:\tshe",
        -8.234889027510068
      ],
      [
        "▁'cause",
        -8.240335149010487
      ],
      [
        "▁[yes].",
        -8.242083742540322
      ],
      [
        "▁probably",
        -8.242726480973248
      ],
      [
        "▁being",
        -8.24335688498451
      ],
      [
        "▁under",
        -8.243489429196723
      ],
      [
        "▁*chi:\tmhm.",
        -8.250425811229078
      ],
      [
        "▁erm,",
        -8.251701360088026
      ],
      [
        "▁must",
        -8.252411948773673
      ],
      [
        ";",
        -8.257154847221907
      ],
      [
        "▁noise].",
        -8.258145461281446
      ],
      [
        "▁*chi:\tlook",
        -8.261026078595261
      ],
      [
        "▁again",
        -8.262596623693797
      ],
      [
        "▁*mot:\twho",
        -8.263541496533303
      ],
      [
        "▁him.",
        -8.265937909993925
      ],
      [
        "▁six",
        -8.268486854808552
      ],
      [
        "▁okay?",
        -8.273909838641512
      ],
      [
        "▁*inv:\tyou",
        -8.278844567617892
      ],
      [
        "▁gone",
        -8.28055446431892
      ],
      [
        "▁hold",
        -8.281077967216245
      ],
      [
        "▁trying",
        -8.281357776132246
      ],
      [
        "k",
        -8.283961348406418
      ],
      [
        "▁*chi:\tokay.",
        -8.286874511022097
      ],
      [
        "▁*mot:\tmhm.",
        -8.288776846387819
      ],
      [
        "▁huh?",
        -8.289276618671167
      ],
      [
        "▁*chi:\tuh",
        -8.309088088672425
      ],
      [
        "▁*chi:\tcan",
        -8.30981735090802
      ],
      [
        "▁color",
        -8.310150281699801
      ],
      [
        "▁name",
        -8.310886677089654
      ],
      [
        "▁maybe",
        -8.31340951668063
      ],
      [
        "▁*exp:\t",
        -8.313448932724949
      ],
      [
        "▁mummy",
        -8.31597361911329
      ],
      [
        "▁house.",
        -8.319208763221605
      ],
      [
        "▁look.",
        -8.324117456446466
      ],
      [
        "▁watch",
        -8.328111918847057
      ],
      [
        "▁number",
        -8.328214942038588
      ],
      [
        "▁girl.",
        -8.330861249925885
      ],
      [
        "ly",
        -8.332589348583374
      ],
      [
        "▁wants",
        -8.332719281651059
      ],
      [
        "▁mm",
        -8.334846917187296
      ],
      [
        "▁start",
        -8.336110437074394
      ],
      [
        "▁is.",
        -8.337916943986034
      ],
      [
        "▁makes",
        -8.338401317072151
      ],
      [
        "▁*mot:\tput",
        -8.338783924691056
      ],
      [
        "▁*mot:\thm",
        -8.339873581334118
      ],
      [
        "▁*tea:\t",
        -8.342914519640477
      ],
      [
        "▁toys",
        -8.346331531778882
      ],
      [
        "▁saying",
        -8.349506930609964
      ],
      [
        "▁baby.",
        -8.352761442393929
      ],
      [
        "▁please.",
        -8.354284285234074
      ],
      [
        "▁we?",
        -8.359073230407539
      ],
      [
        "▁*mot:\the's",
        -8.359560971978066
      ],
      [
        "▁love",
        -8.36093149884718
      ],
      [
        "▁dog",
        -8.365367885443698
      ],
      [
        "▁call",
        -8.367845152240623
      ],
      [
        "▁time.",
        -8.368364344829034
      ],
      [
        "▁wouldn't",
        -8.368570203754096
      ],
      [
        "▁*mot:\tum",
        -8.372199125430983
      ],
      [
        "▁book]",
        -8.373412617150821
      ],
      [
        "▁while",
        -8.380651544162543
      ],
      [
        "▁*mot:\tgood",
        -8.38118168074009
      ],
      [
        "s,",
        -8.383630528215733
      ],
      [
        "▁girl",
        -8.386015197916368
      ],
      [
        "▁night",
        -8.390890924282434
      ],
      [
        "▁*chi:\tnow",
        -8.391235408332028
      ],
      [
        "▁leave",
        -8.392475232243351
      ],
      [
        "▁pick",
        -8.393573592766073
      ],
      [
        "▁*chi:\twe",
        -8.39376304603532
      ],
      [
        "▁seen",
        -8.396447836403112
      ],
      [
        "▁*mch:\t",
        -8.400109146683448
      ],
      [
        "▁*chi:\tmy",
        -8.402876704429248
      ],
      [
        "▁paper",
        -8.404523833475105
      ],
      [
        "▁move",
        -8.40474590413755
      ],
      [
        "▁points",
        -8.405387975402899
      ],
      [
        "▁wanted",
        -8.405549271513328
      ],
      [
        "▁pretty",
        -8.409500389901476
      ],
      [
        "▁*mot:\tthey",
        -8.410829249793252
      ],
      [
        "▁*chi:\tdo",
        -8.411759801827456
      ],
      [
        "▁boy.",
        -8.41342052834144
      ],
      [
        "▁[laughs]",
        -8.417783496570348
      ],
      [
        "▁end",
        -8.420550638647054
      ],
      [
        "▁front",
        -8.422438307450076
      ],
      [
        "▁picture",
        -8.427743607818604
      ],
      [
        "▁*fat:\ti",
        -8.438411931933105
      ],
      [
        "▁found",
        -8.440041244921758
      ],
      [
        "▁back.",
        -8.442752687448873
      ],
      [
        "▁takes",
        -8.443208542810927
      ],
      [
        "▁told",
        -8.443953955465165
      ],
      [
        "▁yellow",
        -8.449856470457108
      ],
      [
        "▁*chi:\t[makes",
        -8.454566486879664
      ],
      [
        "▁yes,",
        -8.458560836827012
      ],
      [
        "▁car.",
        -8.461214069389
      ],
      [
        "▁*chi:\tthey",
        -8.461336068906927
      ],
      [
        "▁*sis:\t",
        -8.46162744063207
      ],
      [
        "▁okay",
        -8.462069692373106
      ],
      [
        "▁feel",
        -8.46546058471233
      ],
      [
        "▁am",
        -8.470636165230607
      ],
      [
        "▁*fat:\tyou",
        -8.473962770483636
      ],
      [
        "▁way.",
        -8.474071712575707
      ],
      [
        "childes/childes_",
        -8.47436585411907
      ],
      [
        "▁book.",
        -8.47643801082091
      ],
      [
        "▁*chi:\t[",
        -8.480438503356728
      ],
      [
        "▁part",
        -8.481860651004224
      ],
      [
        "▁done.",
        -8.482137884492511
      ],
      [
        "▁bring",
        -8.48334050744291
      ],
      [
        "▁room",
        -8.486998660194878
      ],
      [
        "▁go?",
        -8.487975168967017
      ],
      [
        "▁buy",
        -8.492027888952856
      ],
      [
        "re",
        -8.492311192075249
      ],
      [
        "▁right?",
        -8.493004352959039
      ],
      [
        "▁picks",
        -8.493922144931831
      ],
      [
        "▁gets",
        -8.49640267984821
      ],
      [
        "▁*mot:\tbecause",
        -8.501007487505507
      ],
      [
        "▁*mot:\tthank",
        -8.503282776566346
      ],
      [
        "▁both",
        -8.508889022100732
      ],
      [
        "▁stay",
        -8.509463799521923
      ],
      [
        "▁write",
        -8.50977600977984
      ],
      [
        "▁b",
        -8.50980500896706
      ],
      [
        "▁money",
        -8.511741752556501
      ],
      [
        "▁*mot:\tjust",
        -8.515089240382352
      ],
      [
        "▁*chi:\tis",
        -8.519475486953333
      ],
      [
        "▁mot]",
        -8.520332236138977
      ],
      [
        "▁ask",
        -8.523013899833433
      ],
      [
        "▁*inv:\tmhm",
        -8.523424285601395
      ],
      [
        "▁dear.",
        -8.52409909786939
      ],
      [
        "▁turns",
        -8.524434149459422
      ],
      [
        "▁lots",
        -8.52521721625522
      ],
      [
        "▁*bro:\t",
        -8.526821650204774
      ],
      [
        "▁half",
        -8.528749613663312
      ],
      [
        "▁thomas.",
        -8.529129548623095
      ],
      [
        "▁hands",
        -8.533476801254755
      ],
      [
        "▁ever",
        -8.533500105518698
      ],
      [
        "▁may",
        -8.534179520311929
      ],
      [
        "▁*gma:\t",
        -8.53610253758653
      ],
      [
        "▁birthday",
        -8.537448263350083
      ],
      [
        "▁ten",
        -8.546594522892173
      ],
      [
        "▁say?",
        -8.548665400878981
      ],
      [
        "▁'em",
        -8.549763591937788
      ],
      [
        "▁side",
        -8.550528185443568
      ],
      [
        "▁also",
        -8.550700533086998
      ],
      [
        "▁took",
        -8.550823302907517
      ],
      [
        "▁*mot:\tgo",
        -8.55773948269592
      ],
      [
        "▁*chi:\tone",
        -8.562036665946408
      ],
      [
        "▁an'",
        -8.562107173924874
      ],
      [
        "▁left",
        -8.563520061853076
      ],
      [
        "▁cup",
        -8.565509447452914
      ],
      [
        "▁stuff",
        -8.566184861855737
      ],
      [
        "▁*chi:\twhere's",
        -8.56856349456576
      ],
      [
        "▁you'll",
        -8.569896557704396
      ],
      [
        "▁*mot:\tah",
        -8.574377908145042
      ],
      [
        "▁couldn't",
        -8.575221016322626
      ],
      [
        "▁away.",
        -8.576289139444626
      ],
      [
        "▁*chi:\tthere",
        -8.57783590857781
      ],
      [
        "in",
        -8.583137902489984
      ],
      [
        "▁drink",
        -8.583969450172127
      ],
      [
        "▁table",
        -8.584408000159682
      ],
      [
        "▁own",
        -8.585569520617064
      ],
      [
        "▁shall",
        -8.58736999461519
      ],
      [
        "▁door",
        -8.591328669223941
      ],
      [
        "▁point",
        -8.593876256165883
      ],
      [
        "▁funny",
        -8.59498993145829
      ],
      [
        "▁*mot:\tshall",
        -8.600039229593316
      ],
      [
        "▁box]",
        -8.600954512953175
      ],
      [
        "▁eight",
        -8.602430510028809
      ],
      [
        "▁happened",
        -8.604067281174185
      ],
      [
        "'ll",
        -8.604568983733397
      ],
      [
        "→",
        -8.606296940853616
      ],
      [
        "▁right,",
        -8.611061058348977
      ],
      [
        "▁who's",
        -8.61318361138894
      ],
      [
        "▁somebody",
        -8.613596324108151
      ],
      [
        "▁*chi:\tlook.",
        -8.616543592426805
      ],
      [
        "▁more.",
        -8.617757933082453
      ],
      [
        "▁fire",
        -8.618562471871991
      ],
      [
        "▁i'd",
        -8.61919392845738
      ],
      [
        "▁*chi:\tah",
        -8.61935636171422
      ],
      [
        "v",
        -8.620534256165818
      ],
      [
        "▁wait",
        -8.622227667185529
      ],
      [
        "▁putting",
        -8.62326724727397
      ],
      [
        "▁cut",
        -8.624919932508961
      ],
      [
        "▁*inv:\tdo",
        -8.624948752246265
      ],
      [
        "▁train",
        -8.628618679300843
      ],
      [
        "▁*chi:\the's",
        -8.629028349481585
      ],
      [
        "▁*mot:\tnot",
        -8.629104969611973
      ],
      [
        "▁*inv:\tokay.",
        -8.630419930630541
      ],
      [
        "▁laughs]",
        -8.632980483498157
      ],
      [
        "▁mr",
        -8.634199052376097
      ],
      [
        "▁sitting",
        -8.634341231768365
      ],
      [
        "▁seven",
        -8.634613909297713
      ],
      [
        "▁every",
        -8.634619580084392
      ],
      [
        "▁fall",
        -8.636130674173627
      ],
      [
        "▁bed",
        -8.637139615086364
      ],
      [
        "▁black",
        -8.63864116412985
      ],
      [
        "▁'as",
        -8.641901050633646
      ],
      [
        "▁real",
        -8.643918187271947
      ],
      [
        "▁whole",
        -8.646285079383432
      ],
      [
        "▁ready",
        -8.64829694940969
      ],
      [
        "▁stop",
        -8.651600591477546
      ],
      [
        "▁eating",
        -8.656727687724713
      ],
      [
        "▁hard",
        -8.657646308984518
      ],
      [
        "▁year",
        -8.658528550787095
      ],
      [
        "▁*inv:\tthat's",
        -8.661517729976445
      ],
      [
        "▁*mot:\tdoes",
        -8.663778667039187
      ],
      [
        "▁*mot:\tright",
        -8.667384392239397
      ],
      [
        "▁*chi:\tdon't",
        -8.66768816114883
      ],
      [
        "▁that,",
        -8.668045358809463
      ],
      [
        "▁ya",
        -8.66824284394328
      ],
      [
        "▁*mot:\ti'll",
        -8.668427778065869
      ],
      [
        "▁few",
        -8.671156135226221
      ],
      [
        "▁[points",
        -8.67180004390357
      ],
      [
        "▁*chi:\tso",
        -8.672323590905798
      ],
      [
        "▁*mot:\tthey're",
        -8.67234832901258
      ],
      [
        "▁each",
        -8.674464749756348
      ],
      [
        "▁she?",
        -8.677461982763035
      ],
      [
        "▁*chi:\tmommy",
        -8.680933505317556
      ],
      [
        "▁fell",
        -8.682742299747247
      ],
      [
        "▁nine",
        -8.683267437434681
      ],
      [
        "▁tape",
        -8.686437007878014
      ],
      [
        "in'",
        -8.687627533224658
      ],
      [
        "▁*mot:\tlook.",
        -8.687958882186646
      ],
      [
        "▁child",
        -8.688493571310534
      ],
      [
        "▁bed.",
        -8.6911824266702
      ],
      [
        "▁*chi:\they",
        -8.697759794632542
      ],
      [
        "▁great",
        -8.699057274427927
      ],
      [
        "▁food",
        -8.69920722774786
      ],
      [
        "▁chair",
        -8.699235554660161
      ],
      [
        "▁course",
        -8.699418247418821
      ],
      [
        "▁holds",
        -8.701166609009196
      ],
      [
        "▁home.",
        -8.702839424538409
      ],
      [
        "▁well.",
        -8.707014281615983
      ],
      [
        "/",
        -8.707557989834664
      ],
      [
        "▁*chi:\tthere's",
        -8.70881419895812
      ],
      [
        "▁today",
        -8.71112233300388
      ],
      [
        "▁*mot:\t'cause",
        -8.711714711963529
      ],
      [
        "▁[child",
        -8.713547524841507
      ],
      [
        "▁*mot:\twho's",
        -8.71742318806122
      ],
      [
        "▁*chi:\tyes",
        -8.718012262935664
      ],
      [
        "▁they've",
        -8.719418976381125
      ],
      [
        "▁ones",
        -8.72308856463703
      ],
      [
        "▁*mot:\thave",
        -8.723802437116769
      ],
      [
        "▁children",
        -8.724290454640418
      ],
      [
        "al",
        -8.724604550507053
      ],
      [
        "▁white",
        -8.725083555914184
      ],
      [
        "▁are.",
        -8.726923061184564
      ],
      [
        "▁*chi:\thuh",
        -8.728152183632348
      ],
      [
        "▁nice.",
        -8.73009822029617
      ],
      [
        "▁*mot:\tone",
        -8.73282278686283
      ],
      [
        "▁then?",
        -8.733500257667192
      ],
      [
        "▁behind",
        -8.73378508499915
      ],
      [
        "▁*chi:\tnot",
        -8.741960824392656
      ],
      [
        "▁already",
        -8.743730641025296
      ],
      [
        "▁small",
        -8.743746819886614
      ],
      [
        "▁[read]",
        -8.744357279331604
      ],
      [
        "▁stand",
        -8.747383452542001
      ],
      [
        "▁bad",
        -8.747618329095562
      ],
      [
        "▁wee",
        -8.748997889273166
      ],
      [
        "▁*chi:\tthere.",
        -8.751078761073014
      ],
      [
        "▁floor",
        -8.753463383115088
      ],
      [
        "▁morning",
        -8.757956594615255
      ],
      [
        "▁draw",
        -8.758816881443764
      ],
      [
        "▁[friend]",
        -8.763269850773648
      ],
      [
        "▁everything",
        -8.763490102970026
      ],
      [
        "▁second",
        -8.764296953734405
      ],
      [
        "▁enough",
        -8.764815183077225
      ],
      [
        "▁where's",
        -8.765450114347088
      ],
      [
        "▁happy",
        -8.765827555995001
      ],
      [
        "'d",
        -8.766617584980292
      ],
      [
        "▁throw",
        -8.76725270521815
      ],
      [
        "▁minute.",
        -8.76780857615381
      ],
      [
        "▁years",
        -8.771187723889463
      ],
      [
        "▁today.",
        -8.771778525043475
      ],
      [
        "▁*chi:\tsee",
        -8.772772552624549
      ],
      [
        "▁most",
        -8.77350142686051
      ],
      [
        "▁*par:\t",
        -8.774223567183034
      ],
      [
        "▁*mot:\thuh",
        -8.780064482664946
      ],
      [
        "▁*chi:\tshe",
        -8.781469598402415
      ],
      [
        "▁fifty",
        -8.786127043028442
      ],
      [
        "▁dis",
        -8.787653118184771
      ],
      [
        "▁cat",
        -8.787762048256162
      ],
      [
        "▁de",
        -8.789834220940248
      ],
      [
        "▁*fat:\tand",
        -8.789964851005939
      ],
      [
        "▁[looks",
        -8.791514912012179
      ],
      [
        "▁mhm.",
        -8.79619046917278
      ],
      [
        "▁taking",
        -8.798551532587444
      ],
      [
        "▁*chi:\tthen",
        -8.799521362049708
      ],
      [
        "▁*chi:\t'cause",
        -8.800313309667674
      ],
      [
        "▁place",
        -8.800336265956233
      ],
      [
        "▁*chi:\thow",
        -8.801384111305001
      ],
      [
        "▁story",
        -8.803645760724509
      ],
      [
        "▁*chi:\there",
        -8.805919938166856
      ],
      [
        "▁*fch:\t",
        -8.80707101693654
      ],
      [
        "▁*chi:\tin",
        -8.811498485168169
      ],
      [
        "▁run",
        -8.812328774683095
      ],
      [
        "it",
        -8.816325907856513
      ],
      [
        "▁close",
        -8.81894898100109
      ],
      [
        "▁*mot:\tin",
        -8.821045173857852
      ],
      [
        "▁inside",
        -8.821168406554461
      ],
      [
        "▁mom",
        -8.821935010316643
      ],
      [
        "▁thirty",
        -8.823874230963735
      ],
      [
        "▁one's",
        -8.82600040650786
      ],
      [
        "▁*cds:\t",
        -8.8288179624962
      ],
      [
        "▁orange",
        -8.82889923623924
      ],
      [
        "▁far",
        -8.829197836007989
      ],
      [
        "▁bear",
        -8.829617597487681
      ],
      [
        "▁sleep",
        -8.830074162903054
      ],
      [
        "▁wear",
        -8.83106774656071
      ],
      [
        "▁*chi:\twell",
        -8.83193370944992
      ],
      [
        "▁well,",
        -8.8322767448756
      ],
      [
        "▁*mot:\tyou've",
        -8.833394417712519
      ],
      [
        "▁*inv:\tis",
        -8.834639327017861
      ],
      [
        "▁milk",
        -8.835674438554246
      ],
      [
        "▁though",
        -8.838895677654692
      ],
      [
        "▁%add:\tmot",
        -8.841113754530827
      ],
      [
        "▁*chi:\tput",
        -8.84115204390683
      ],
      [
        "▁hat",
        -8.8422609680297
      ],
      [
        "▁*chi:\tbecause",
        -8.843372879162498
      ],
      [
        "▁walk",
        -8.843894593603764
      ],
      [
        "▁hair",
        -8.84565344594917
      ],
      [
        "▁heard",
        -8.845862795013169
      ],
      [
        "▁fit",
        -8.847021941964094
      ],
      [
        "▁mommy.",
        -8.848060149536169
      ],
      [
        "▁else?",
        -8.849562846509576
      ],
      [
        "▁[mother",
        -8.852966393444543
      ],
      [
        "or",
        -8.853907681484742
      ],
      [
        "▁page]",
        -8.8543654677563
      ],
      [
        "[picks",
        -8.856003365700625
      ],
      [
        "▁mummy.",
        -8.856729655441704
      ],
      [
        "▁outside",
        -8.858998358856613
      ],
      [
        "▁water.",
        -8.859996842739898
      ],
      [
        "▁school.",
        -8.861224631164852
      ],
      [
        "▁noises].",
        -8.862968087797611
      ],
      [
        "▁*mot:\tlet",
        -8.863825550831068
      ],
      [
        "▁nothing",
        -8.866274054641181
      ],
      [
        "▁daddy.",
        -8.866450234394536
      ],
      [
        "▁there,",
        -8.873816861715788
      ],
      [
        "▁*mot:\twould",
        -8.88248220705257
      ],
      [
        "▁finished",
        -8.882529122565957
      ],
      [
        "▁pull",
        -8.884123877157316
      ],
      [
        "▁*mot:\twhen",
        -8.885680290038271
      ],
      [
        "▁break",
        -8.88705045903428
      ],
      [
        "▁between",
        -8.88800099082501
      ],
      [
        "▁*mot:\tor",
        -8.88905930869686
      ],
      [
        "▁[singing].",
        -8.889078097921841
      ],
      [
        ".\"",
        -8.893004950417396
      ],
      [
        "▁set",
        -8.89653798411281
      ],
      [
        "▁fraser",
        -8.90430517585821
      ],
      [
        "▁animals",
        -8.904652180330615
      ],
      [
        "'re",
        -8.904746791272318
      ],
      [
        "▁*mot:\tshe's",
        -8.906620336419346
      ],
      [
        "▁[m",
        -8.908590455635732
      ],
      [
        "▁able",
        -8.909679749329554
      ],
      [
        "▁darling.",
        -8.914955265664641
      ],
      [
        "▁again?",
        -8.916252331751068
      ],
      [
        "▁hot",
        -8.916340106634323
      ],
      [
        "and",
        -8.917812672781139
      ],
      [
        "▁week",
        -8.918870699827778
      ],
      [
        "▁yet.",
        -8.919659087322621
      ],
      [
        "▁tea",
        -8.92053963868344
      ],
      [
        "▁*mot:\toh,",
        -8.921323880549044
      ],
      [
        "▁hasn't",
        -8.921898803027421
      ],
      [
        "▁*mot:\tall",
        -8.922347279048175
      ],
      [
        "▁starts",
        -8.925461186040563
      ],
      [
        "▁*mot:\tif",
        -8.928070731259233
      ],
      [
        "▁started",
        -8.932975788054062
      ],
      [
        "▁job",
        -8.933313862447228
      ],
      [
        "▁sounds",
        -8.93403615770032
      ],
      [
        "▁*mot:\tsay",
        -8.938266659053856
      ],
      [
        "▁light",
        -8.941151226393334
      ],
      [
        "▁*chi:\tokay",
        -8.943694894310292
      ],
      [
        "an",
        -8.943989686841212
      ],
      [
        "▁%add:\tchi",
        -8.94484685750271
      ],
      [
        "▁wrong",
        -8.948073525224695
      ],
      [
        "▁looked",
        -8.94858500185353
      ],
      [
        "▁da",
        -8.951691682526887
      ],
      [
        "▁face",
        -8.953165808823888
      ],
      [
        "▁sound",
        -8.95317110654164
      ],
      [
        "▁now,",
        -8.955314343420698
      ],
      [
        "▁*chi:\tmm.",
        -8.956085279979847
      ],
      [
        "▁ate",
        -8.956707254128304
      ],
      [
        "▁*fat:\toh",
        -8.957571394648166
      ],
      [
        "▁[as",
        -8.959115038190275
      ],
      [
        "▁floor]",
        -8.961061926745115
      ],
      [
        "▁*chi:\thm.",
        -8.961166802691565
      ],
      [
        "▁christmas",
        -8.963395262032831
      ],
      [
        "▁crayon",
        -8.963408268940276
      ],
      [
        "▁touch",
        -8.967480401246311
      ],
      [
        "▁noise",
        -8.969847052110177
      ],
      [
        "▁hurt",
        -8.970317165009023
      ],
      [
        "▁*chi:\tgo",
        -8.972586041018602
      ],
      [
        "▁alright",
        -8.974481215162637
      ],
      [
        "▁*gra:\t",
        -8.97504290788346
      ],
      [
        "▁high",
        -8.977719929580092
      ],
      [
        "▁door.",
        -8.978772837804634
      ],
      [
        "▁stick",
        -8.979971391930695
      ],
      [
        "▁*par1:\t",
        -8.980637676876302
      ],
      [
        "▁you'd",
        -8.981228720323317
      ],
      [
        "▁gave",
        -8.983584266740499
      ],
      [
        "▁thousand",
        -8.9841261739944
      ],
      [
        "▁weren't",
        -8.984204489874585
      ],
      [
        "▁*mot:\twe'll",
        -8.987216172351298
      ],
      [
        "▁box.",
        -8.989440715916892
      ],
      [
        "▁bus",
        -8.990456406408889
      ],
      [
        "▁*chi:\ti'll",
        -8.990910866443798
      ],
      [
        "▁*fat:\tthat's",
        -8.992400783557843
      ],
      [
        "▁finish",
        -8.99399100422909
      ],
      [
        "▁chair.",
        -8.994760048462377
      ],
      [
        "▁dat",
        -8.996239291312163
      ],
      [
        "▁please",
        -8.996241961888773
      ],
      [
        "▁ice",
        -9.000061343804468
      ],
      [
        "▁*mar:\t",
        -9.000180311565648
      ],
      [
        "▁page",
        -9.002951835325444
      ],
      [
        "▁means",
        -9.003403295745064
      ],
      [
        "▁today?",
        -9.003598401665014
      ],
      [
        "▁thing.",
        -9.003610304649692
      ],
      [
        "▁whether",
        -9.003839900874842
      ],
      [
        "▁push",
        -9.005730907140697
      ],
      [
        "▁shoes",
        -9.009554570405571
      ],
      [
        "▁table]",
        -9.010741114553683
      ],
      [
        "▁sometimes",
        -9.012554707032331
      ],
      [
        "▁something.",
        -9.015227997593705
      ],
      [
        "▁phone",
        -9.020609037394456
      ],
      [
        "▁floor.",
        -9.022297828661246
      ],
      [
        "▁sing",
        -9.023963633829947
      ],
      [
        "▁clean",
        -9.0241920248697
      ],
      [
        "▁up?",
        -9.024848841632634
      ],
      [
        "▁mind",
        -9.025688648655526
      ],
      [
        "▁*mot:\tuh",
        -9.028340521888367
      ],
      [
        "▁fact",
        -9.029031295932032
      ],
      [
        "▁person",
        -9.029190948445235
      ],
      [
        "▁dad",
        -9.030020851327087
      ],
      [
        "▁until",
        -9.03124280655686
      ],
      [
        "▁*chi:\tright",
        -9.032084360734947
      ],
      [
        "▁pay",
        -9.03564525230929
      ],
      [
        "▁needta",
        -9.038539300466454
      ],
      [
        "▁*chi:\tah.",
        -9.039070476474063
      ],
      [
        "▁favorite",
        -9.041273092413448
      ],
      [
        "▁*chi:\tuh.",
        -9.042569920497312
      ],
      [
        "▁best",
        -9.043009787222408
      ],
      [
        "▁eyes",
        -9.044555757539298
      ],
      [
        "▁almost",
        -9.044774075044856
      ],
      [
        "▁across",
        -9.045268358136063
      ],
      [
        "▁*inv:\tso",
        -9.045337446008473
      ],
      [
        "▁working",
        -9.048509430796678
      ],
      [
        "▁needs",
        -9.049023132489284
      ],
      [
        "▁table.",
        -9.049379377020712
      ],
      [
        "▁*mot:\tlike",
        -9.049482572918427
      ],
      [
        "▁along",
        -9.0505782997492
      ],
      [
        "▁see?",
        -9.052621532410704
      ],
      [
        "▁perhaps",
        -9.052825513837373
      ],
      [
        "▁live",
        -9.053116696292934
      ],
      [
        "▁*chi:\tlet's",
        -9.05427218147117
      ],
      [
        "▁together",
        -9.064359228379244
      ],
      [
        "▁her.",
        -9.066359385740352
      ],
      [
        "▁[the",
        -9.067715587188587
      ],
      [
        "▁*mot:\they",
        -9.069004684907556
      ],
      [
        "▁ring",
        -9.070314527495622
      ],
      [
        "▁bought",
        -9.071003631223277
      ],
      [
        "▁*mot:\ton",
        -9.072019721574256
      ],
      [
        "▁*fat:\tokay.",
        -9.072063971999725
      ],
      [
        "▁oh.",
        -9.07561798389615
      ],
      [
        "▁*pat:\t",
        -9.07594169711337
      ],
      [
        "▁alright.",
        -9.076017760648316
      ],
      [
        "▁guess",
        -9.078054726578737
      ],
      [
        "▁*mot:\t[gasps]",
        -9.07948449225855
      ],
      [
        "▁down]",
        -9.080341541081351
      ],
      [
        "▁cold",
        -9.08313377753618
      ],
      [
        "▁books",
        -9.083988288972058
      ],
      [
        "▁bet",
        -9.084624980223253
      ],
      [
        "▁*chi:\tall",
        -9.084664855442298
      ],
      [
        "▁wonder",
        -9.084882610354203
      ],
      [
        "▁here's",
        -9.087551848825719
      ],
      [
        "▁fix",
        -9.087786642081369
      ],
      [
        "▁thomas",
        -9.089934062741515
      ],
      [
        "▁man.",
        -9.090594255712924
      ],
      [
        "▁once",
        -9.091483180012375
      ],
      [
        "▁*mot:\t[mot",
        -9.09232930068855
      ],
      [
        "▁kids",
        -9.093428110621929
      ],
      [
        "▁towards",
        -9.096459453900886
      ],
      [
        "▁change",
        -9.09705119434884
      ],
      [
        "▁likes",
        -9.097441536023902
      ],
      [
        "▁%int:\trising",
        -9.099099784575609
      ],
      [
        "▁feet",
        -9.09931785984522
      ],
      [
        "▁*loi:\t",
        -9.100103963045056
      ],
      [
        "▁xxx?",
        -9.100948706816913
      ],
      [
        "▁[noise].",
        -9.1014680075466
      ],
      [
        "▁holding",
        -9.10191653960449
      ],
      [
        "▁day.",
        -9.103275784370869
      ],
      [
        "▁ha",
        -9.10329272530162
      ],
      [
        "▁*chi:\tlike",
        -9.103682998126246
      ],
      [
        "▁word",
        -9.104470834522566
      ],
      [
        "▁*chi:\tum.",
        -9.107039386192437
      ],
      [
        "▁moves",
        -9.107703139001732
      ],
      [
        "▁catch",
        -9.108753602735808
      ],
      [
        "▁gone.",
        -9.108810681620453
      ],
      [
        "▁*mot:\twanna",
        -9.108825455292223
      ],
      [
        "▁one,",
        -9.11157421014584
      ],
      [
        "▁asked",
        -9.113555638956642
      ],
      [
        "▁nin",
        -9.114423478845087
      ],
      [
        "⌉.",
        -9.114953440522902
      ],
      [
        "▁*inv:\tokay",
        -9.116102110311784
      ],
      [
        "▁horse",
        -9.116658696490113
      ],
      [
        "▁*inv:\tit's",
        -9.118149392723017
      ],
      [
        "▁*chi:\tcome",
        -9.120581942868588
      ],
      [
        "▁lovely",
        -9.122962455753832
      ],
      [
        "▁pounds",
        -9.12410338704648
      ],
      [
        "▁past",
        -9.124512052389559
      ],
      [
        "▁everybody",
        -9.125684671943725
      ],
      [
        "▁two.",
        -9.126212837152531
      ],
      [
        "▁pieces",
        -9.127106126087053
      ],
      [
        "▁*chi:\tuhhuh.",
        -9.127755727785619
      ],
      [
        "at",
        -9.127925270784138
      ],
      [
        "▁fish",
        -9.13248974103882
      ],
      [
        "▁*inv:\toh.",
        -9.132522745836605
      ],
      [
        "▁ball.",
        -9.133594780714732
      ],
      [
        "ah.",
        -9.13409245031936
      ],
      [
        "▁*chi:\ton",
        -9.134171545725556
      ],
      [
        "▁th",
        -9.13417881723737
      ],
      [
        "▁though.",
        -9.136863672791629
      ],
      [
        "▁couple",
        -9.137289489859446
      ],
      [
        "▁hope",
        -9.140364148459073
      ],
      [
        "▁book?",
        -9.141514585208537
      ],
      [
        "▁*mot:\tmm.",
        -9.142132127879718
      ],
      [
        "▁*mot:\t[",
        -9.143292608284774
      ],
      [
        "▁game",
        -9.14380722140431
      ],
      [
        "▁*chi:\twhen",
        -9.144776687791312
      ],
      [
        "▁here,",
        -9.145215698371171
      ],
      [
        "▁wash",
        -9.147174050520547
      ],
      [
        "▁full",
        -9.149765730501285
      ],
      [
        "▁head.",
        -9.150495178800323
      ],
      [
        "▁it!",
        -9.15064701104534
      ],
      [
        "▁bird",
        -9.151871154136852
      ],
      [
        "▁bag",
        -9.153279372833168
      ],
      [
        "▁lost",
        -9.153593457127855
      ],
      [
        "▁them?",
        -9.154134288306457
      ],
      [
        "▁[filler]",
        -9.154786299824849
      ],
      [
        "▁*chi:\tjust",
        -9.157363111518633
      ],
      [
        "▁*mot:\tmaybe",
        -9.157597442745232
      ],
      [
        "▁forty",
        -9.15869039945276
      ],
      [
        "▁[brother]",
        -9.158728589697954
      ],
      [
        "▁oh!",
        -9.16122503711486
      ],
      [
        "▁things.",
        -9.164542759077047
      ],
      [
        "▁*nan:\t",
        -9.165160831614946
      ],
      [
        "x",
        -9.16521061681484
      ],
      [
        "▁out?",
        -9.167734101467518
      ],
      [
        "le",
        -9.169100606313794
      ],
      [
        "▁such",
        -9.170457944393332
      ],
      [
        "▁jwww",
        -9.172009201976895
      ],
      [
        "▁reaches",
        -9.173911906887703
      ],
      [
        "▁rather",
        -9.176045841545614
      ],
      [
        "▁stuck",
        -9.176895841675352
      ],
      [
        "▁ball]",
        -9.18117994090768
      ],
      [
        "▁did.",
        -9.181906430233486
      ],
      [
        "▁juice.",
        -9.182634423191464
      ],
      [
        "▁hit",
        -9.18443678753879
      ],
      [
        "▁picture]",
        -9.184834934477808
      ],
      [
        "▁room.",
        -9.185178821373084
      ],
      [
        "▁*mot:\tmm",
        -9.185244110569554
      ],
      [
        "▁*mot:\twhich",
        -9.187444966055642
      ],
      [
        "▁miss",
        -9.189673597292153
      ],
      [
        "▁*mot:\tyour",
        -9.19223988731505
      ],
      [
        "▁*unk:\t",
        -9.192961653069386
      ],
      [
        "▁running",
        -9.193634649051976
      ],
      [
        "do",
        -9.194942234249025
      ],
      [
        "▁[c",
        -9.19598228420454
      ],
      [
        "▁*chi:\t[babbles]",
        -9.196540821700626
      ],
      [
        "▁*inv:\tcan",
        -9.197171972561978
      ],
      [
        "▁dog.",
        -9.199915852938867
      ],
      [
        "▁[?",
        -9.201210611235956
      ],
      [
        "▁believe",
        -9.202417502833292
      ],
      [
        "▁*chi:\tmummy.",
        -9.20367570034728
      ],
      [
        "no",
        -9.205438336340304
      ],
      [
        "▁teddy",
        -9.208489030177466
      ],
      [
        "▁party",
        -9.208742520310315
      ],
      [
        "▁food.",
        -9.2088746490672
      ],
      [
        "▁work.",
        -9.210267744007758
      ],
      [
        "▁clothes",
        -9.212154243784823
      ],
      [
        "▁rest",
        -9.213554677063424
      ],
      [
        "▁lady",
        -9.214872184430002
      ],
      [
        "▁without",
        -9.214878446142801
      ],
      [
        "▁walks",
        -9.217375804441144
      ],
      [
        "▁*chi:\tmummy,",
        -9.217685150158523
      ],
      [
        "▁*inv:\twhat's",
        -9.217704221594818
      ],
      [
        "▁bear.",
        -9.21861937659259
      ],
      [
        "▁*mot:\talright",
        -9.218727508749147
      ],
      [
        "▁*chi:\twho",
        -9.220170162065038
      ],
      [
        "▁usually",
        -9.220815000004672
      ],
      [
        "▁juice",
        -9.221397032360157
      ],
      [
        "▁*chi:\thm",
        -9.223721655066457
      ],
      [
        "▁shape",
        -9.224147527951173
      ],
      [
        "▁*inv:\twell",
        -9.224243002600236
      ],
      [
        "▁*fat:\tno",
        -9.224718742605564
      ],
      [
        "▁mine.",
        -9.227560988814647
      ],
      [
        "▁him?",
        -9.23127207149086
      ],
      [
        "▁goin'",
        -9.232419550469025
      ],
      [
        "▁house?",
        -9.233138584390126
      ],
      [
        "▁pretend",
        -9.233624021139319
      ],
      [
        "▁*chi:\ttwo",
        -9.233643857686008
      ],
      [
        "▁first.",
        -9.235163699772805
      ],
      [
        "▁*chi:\tthey're",
        -9.23542297505764
      ],
      [
        "▁name?",
        -9.235727508203723
      ],
      [
        "▁adult",
        -9.236612817975525
      ],
      [
        "▁darling?",
        -9.238572539721698
      ],
      [
        "▁build",
        -9.239865392696263
      ],
      [
        "▁doll",
        -9.240741658558035
      ],
      [
        "▁sorry",
        -9.241121953514392
      ],
      [
        "[puts",
        -9.242089465016942
      ],
      [
        "▁it'll",
        -9.245196250497395
      ],
      [
        "xxx",
        -9.24549277228147
      ],
      [
        "▁[aft",
        -9.24590991504377
      ],
      [
        "▁oh,",
        -9.2461077034481
      ],
      [
        "▁ain't",
        -9.246969043777616
      ],
      [
        "▁fun",
        -9.24724337982579
      ],
      [
        "▁men",
        -9.247318355207844
      ],
      [
        "▁mine",
        -9.248481066735987
      ],
      [
        "▁hi",
        -9.252226157269066
      ],
      [
        "to",
        -9.25228509876679
      ],
      [
        "▁silver",
        -9.252293963552543
      ],
      [
        "▁hair.",
        -9.252388568979022
      ],
      [
        "▁ninety",
        -9.252646390004976
      ],
      [
        "▁mrs",
        -9.253646201149461
      ],
      [
        "▁hm.",
        -9.254946131120251
      ],
      [
        "▁a...",
        -9.255942729797106
      ],
      [
        "▁*par2:\t",
        -9.257215959114639
      ],
      [
        "▁night.",
        -9.257915960260428
      ],
      [
        "▁huh.",
        -9.258045906280586
      ],
      [
        "▁cow",
        -9.258426403529551
      ],
      [
        "▁chocolate",
        -9.259336077537867
      ],
      [
        "▁special",
        -9.259477883846653
      ],
      [
        "▁someone",
        -9.260149266594594
      ],
      [
        "▁*mot:\there.",
        -9.261946570035626
      ],
      [
        "▁brought",
        -9.262754945188918
      ],
      [
        "▁gone?",
        -9.26345453246667
      ],
      [
        "▁foot",
        -9.264094197984582
      ],
      [
        "▁*mot:\there's",
        -9.26702861291014
      ],
      [
        "▁*chi:\tmummy",
        -9.268314348064528
      ],
      [
        "er.",
        -9.268584202379085
      ],
      [
        "▁nineteen",
        -9.268840482594799
      ],
      [
        "▁letter",
        -9.269288657519375
      ],
      [
        "▁mum",
        -9.271704376763822
      ],
      [
        "▁%int:\t",
        -9.273241819909542
      ],
      [
        "▁choo",
        -9.273395417055557
      ],
      [
        "▁*chi:\tdaddy",
        -9.274033159784391
      ],
      [
        "▁near",
        -9.274214973966748
      ],
      [
        "▁*mot:\talright.",
        -9.27640723780848
      ],
      [
        "▁pink",
        -9.27723046249397
      ],
      [
        "▁father",
        -9.278083812498554
      ],
      [
        "▁*adu:\t",
        -9.278232806062155
      ],
      [
        "▁said,",
        -9.278840291268834
      ],
      [
        "▁hand.",
        -9.281743480315527
      ],
      [
        "▁happens",
        -9.282629151593765
      ],
      [
        "▁baby?",
        -9.282658852524463
      ],
      [
        "▁duck",
        -9.28418293302287
      ],
      [
        "▁three.",
        -9.284263200955033
      ],
      [
        "▁[1w",
        -9.2847402653516
      ],
      [
        "▁*mot:\twe're",
        -9.285332426450987
      ],
      [
        "▁minute",
        -9.29288939051171
      ],
      [
        "▁ride",
        -9.29425786947401
      ],
      [
        "▁watching",
        -9.29576068941502
      ],
      [
        "▁[takes",
        -9.299303479676988
      ],
      [
        "▁together.",
        -9.300597544606784
      ],
      [
        "▁road",
        -9.301074062468317
      ],
      [
        "▁drive",
        -9.301260245918098
      ],
      [
        "▁walking",
        -9.302854517241167
      ],
      [
        "▁truck",
        -9.30386333226314
      ],
      [
        "▁brown",
        -9.304354006128344
      ],
      [
        "▁onto",
        -9.307068761587844
      ],
      [
        "▁*mch:\ti",
        -9.307183707921283
      ],
      [
        "▁[s",
        -9.30868483719469
      ],
      [
        "▁*chi:\tyep.",
        -9.308949453646779
      ],
      [
        "▁chicken",
        -9.311967474396063
      ],
      [
        "▁*chi:\tget",
        -9.3186016938826
      ],
      [
        "▁cream",
        -9.319302836430552
      ],
      [
        "▁kitchen",
        -9.319843713670702
      ],
      [
        "▁room]",
        -9.320815638974707
      ],
      [
        "▁milk.",
        -9.320827305116655
      ],
      [
        "▁*mot:\tthen",
        -9.32125041017261
      ],
      [
        "▁lid",
        -9.323923574862883
      ],
      [
        "▁minutes",
        -9.325017734403803
      ],
      [
        "▁later",
        -9.327293099656352
      ],
      [
        "▁morning.",
        -9.328083931628619
      ],
      [
        "▁friend",
        -9.330059165777035
      ],
      [
        "▁cheese",
        -9.331429026000269
      ],
      [
        "▁toward",
        -9.331430208546116
      ],
      [
        "▁standing",
        -9.33331988612955
      ],
      [
        "▁*inv:\t[laughs]",
        -9.336295248958463
      ],
      [
        "▁daddy's",
        -9.337878156471684
      ],
      [
        "▁police",
        -9.338660399794986
      ],
      [
        "▁line",
        -9.339021521773127
      ],
      [
        "▁*fat:\tokay",
        -9.342419571656613
      ],
      [
        "▁*fat:\tyeah.",
        -9.342487298581881
      ],
      [
        "you",
        -9.344523689544268
      ],
      [
        "▁*inv:\tmm",
        -9.344930728509476
      ],
      [
        "▁bit.",
        -9.34635870311205
      ],
      [
        "▁⌈",
        -9.347867216914075
      ],
      [
        "▁matter",
        -9.349261143576546
      ],
      [
        "▁tired",
        -9.352046014973808
      ],
      [
        "▁anybody",
        -9.353179249170374
      ],
      [
        "▁*mot:\thm.",
        -9.35412273737699
      ],
      [
        "▁whatever",
        -9.354824644667602
      ],
      [
        "▁truck.",
        -9.356841487932218
      ],
      [
        "▁jump",
        -9.35700561998554
      ],
      [
        "▁duh",
        -9.357390487929452
      ],
      [
        "▁*mot:\tuhhuh.",
        -9.357644226696276
      ],
      [
        "▁*mot:\tget",
        -9.357867170185123
      ],
      [
        "▁up]",
        -9.359747164639595
      ],
      [
        "▁dear",
        -9.361728077221539
      ],
      [
        "▁idea",
        -9.361926640068852
      ],
      [
        "▁against",
        -9.36226671309496
      ],
      [
        "▁cat.",
        -9.362544260909806
      ],
      [
        "▁listen",
        -9.36417397669707
      ],
      [
        "▁know?",
        -9.364506397929816
      ],
      [
        "▁*mot:\tvery",
        -9.366563176735536
      ],
      [
        "▁times",
        -9.36715443556033
      ],
      [
        "▁either",
        -9.367188604536963
      ],
      [
        "▁[1",
        -9.367721103483063
      ],
      [
        "▁tree",
        -9.36803560750607
      ],
      [
        "▁better.",
        -9.37048451085567
      ],
      [
        "▁guys",
        -9.371747698433673
      ],
      [
        "▁shop",
        -9.37324699429632
      ],
      [
        "▁“",
        -9.374744868563386
      ],
      [
        "▁living",
        -9.375024811660246
      ],
      [
        "▁apple",
        -9.375439636557639
      ],
      [
        "▁*fat:\tdo",
        -9.375855948765077
      ],
      [
        "▁turned",
        -9.376096421936634
      ],
      [
        "▁god",
        -9.37801195717802
      ],
      [
        "▁thinking",
        -9.380449628968659
      ],
      [
        "▁*chi:\tmom",
        -9.381136305753309
      ],
      [
        "▁pop",
        -9.382436663088335
      ],
      [
        "▁sits",
        -9.383138299800512
      ],
      [
        "▁telling",
        -9.385315325290687
      ],
      [
        "▁knew",
        -9.386304182633582
      ],
      [
        "▁hand]",
        -9.387504793628885
      ],
      [
        "▁mummy's",
        -9.388527389720636
      ],
      [
        "▁tries",
        -9.389114759623014
      ],
      [
        "▁suppose",
        -9.389521861017723
      ],
      [
        "▁*exp:\ti",
        -9.389544150487705
      ],
      [
        "▁happened?",
        -9.390852665064934
      ],
      [
        "'ve",
        -9.392975364285373
      ],
      [
        "▁mean,",
        -9.394285033191313
      ],
      [
        "▁pound",
        -9.395324952497388
      ],
      [
        "▁days",
        -9.399066928825302
      ],
      [
        "”.",
        -9.399575458128274
      ],
      [
        "*chi:\t[vocalize]",
        -9.399651007981955
      ],
      [
        "▁butter",
        -9.400969800216561
      ],
      [
        "▁understand",
        -9.402535187204354
      ],
      [
        "▁*inv:\tyeah.",
        -9.403502024248645
      ],
      [
        "▁too?",
        -9.403947441811669
      ],
      [
        "▁much.",
        -9.40630020777376
      ],
      [
        "▁question",
        -9.406885273231712
      ],
      [
        "▁cake",
        -9.407632327131367
      ],
      [
        "▁train.",
        -9.407760726511137
      ],
      [
        "i'm",
        -9.408267766662323
      ],
      [
        "▁peter",
        -9.408740849949831
      ],
      [
        "▁hat.",
        -9.409715118722495
      ],
      [
        "▁story.",
        -9.410418242819585
      ],
      [
        "▁called?",
        -9.41042159252552
      ],
      [
        "▁off?",
        -9.411517576539039
      ],
      [
        "▁seems",
        -9.41182884481444
      ],
      [
        "▁friends",
        -9.412237619031835
      ],
      [
        "▁till",
        -9.413570860929525
      ],
      [
        "▁*inv:\tyeah",
        -9.413638087681287
      ],
      [
        "▁outside.",
        -9.414923276847324
      ],
      [
        "▁taken",
        -9.415533643711484
      ],
      [
        "▁*mot:\tah.",
        -9.415971440450626
      ],
      [
        "▁sun",
        -9.416736191230967
      ],
      [
        "▁guy",
        -9.420132400645365
      ],
      [
        "▁twelve",
        -9.421740257911992
      ],
      [
        "▁kitty",
        -9.422891330002749
      ],
      [
        "▁puppet",
        -9.424304282416022
      ],
      [
        "▁local",
        -9.424355238490161
      ],
      [
        "▁continues",
        -9.424652200390067
      ],
      [
        "▁straight",
        -9.425251976757977
      ],
      [
        "▁*inv:\tare",
        -9.42623747666681
      ],
      [
        "▁*fad:\t",
        -9.427993639392682
      ],
      [
        "▁ma",
        -9.428529475051242
      ],
      [
        "▁toys.",
        -9.429875332839067
      ],
      [
        "▁grandma",
        -9.431017811066598
      ],
      [
        "▁*mot:\ttwo",
        -9.432038322494757
      ],
      [
        "▁bottom",
        -9.432218816609332
      ],
      [
        "▁*chi:\t[cries]",
        -9.434872312209988
      ],
      [
        "▁gives",
        -9.435276207800854
      ],
      [
        "▁anyway",
        -9.435477367072503
      ],
      [
        "▁*chi:\tmm",
        -9.43614138025536
      ],
      [
        "▁ones.",
        -9.43885170743952
      ],
      [
        "▁helen",
        -9.43895038146362
      ],
      [
        "▁certainly",
        -9.439483606662225
      ],
      [
        "▁words",
        -9.445209520817818
      ],
      [
        "▁played",
        -9.44532214490862
      ],
      [
        "▁case",
        -9.44630252440665
      ],
      [
        "▁bigger",
        -9.446790960089473
      ],
      [
        "▁middle",
        -9.451680003662606
      ],
      [
        "▁care",
        -9.452320468281288
      ],
      [
        "▁*chi:\tnin",
        -9.452454535111261
      ],
      [
        "▁paper]",
        -9.452682867315882
      ],
      [
        "▁yet",
        -9.454374038478102
      ],
      [
        "▁its",
        -9.455571898226005
      ],
      [
        "▁*mot:\t[silence]",
        -9.45700476897255
      ],
      [
        "▁[sings].",
        -9.458048043267356
      ],
      [
        "▁plate",
        -9.458238431614042
      ],
      [
        "▁since",
        -9.459440880402465
      ],
      [
        "▁reading",
        -9.461487952217315
      ],
      [
        "”",
        -9.461860435455499
      ],
      [
        "▁lunch",
        -9.463214901142223
      ],
      [
        "▁*sis:\ti",
        -9.463911445630057
      ],
      [
        "▁sposta",
        -9.46398105288663
      ],
      [
        "▁using",
        -9.46438639796484
      ],
      [
        "▁mouth",
        -9.465353441987109
      ],
      [
        "▁over.",
        -9.467432616030772
      ],
      [
        "[vocalizes]",
        -9.469016083784776
      ],
      [
        "▁bread",
        -9.46968165824769
      ],
      [
        "▁boys",
        -9.470057097453303
      ],
      [
        "▁[sung]",
        -9.470865793646404
      ],
      [
        "▁*mot:\tpardon",
        -9.471726151231515
      ],
      [
        "▁voice",
        -9.474520616193477
      ],
      [
        "▁*mot:\twe've",
        -9.474528600761161
      ],
      [
        "▁pulls",
        -9.474987448404823
      ],
      [
        "▁noises]",
        -9.475168911246337
      ],
      [
        "▁*mot:\tto",
        -9.477333368359357
      ],
      [
        "um",
        -9.477945305862264
      ],
      [
        "▁*mot:\tmhm",
        -9.478129077214206
      ],
      [
        "▁roll",
        -9.478460299916293
      ],
      [
        "▁world",
        -9.483906148051974
      ],
      [
        "▁carry",
        -9.484388262147036
      ],
      [
        "▁frog",
        -9.485015048414503
      ],
      [
        "▁silly",
        -9.485976647990459
      ],
      [
        "▁again]",
        -9.486667140365117
      ],
      [
        "▁obviously",
        -9.487284432424886
      ],
      [
        "▁chi's",
        -9.488429913363518
      ],
      [
        "▁around.",
        -9.48908978084902
      ],
      [
        "▁they'll",
        -9.489191998808039
      ],
      [
        "▁un",
        -9.493270573519569
      ],
      [
        "▁begins",
        -9.494959654624616
      ],
      [
        "▁dinner",
        -9.495089595438683
      ],
      [
        "▁four.",
        -9.496427832820231
      ],
      [
        "▁bob",
        -9.497417320503597
      ],
      [
        "▁council",
        -9.499439988426754
      ],
      [
        "▁page.",
        -9.499969309060067
      ],
      [
        "▁places",
        -9.501306790949357
      ],
      [
        "▁*fat:\tyeah",
        -9.501568375845194
      ],
      [
        "▁la",
        -9.501873693544255
      ],
      [
        "▁pictures",
        -9.504402969814802
      ],
      [
        "▁bunny",
        -9.504445650019832
      ],
      [
        "▁*chi:\tlet",
        -9.511251880029665
      ],
      [
        "▁problem",
        -9.512817762110064
      ],
      [
        "all",
        -9.514230819395262
      ],
      [
        "▁he'll",
        -9.51536943246153
      ],
      [
        "▁stuff.",
        -9.517201370525791
      ],
      [
        "▁*fri:\t",
        -9.5179494246395
      ],
      [
        "▁more?",
        -9.519794657142867
      ],
      [
        "▁feed",
        -9.520077088486648
      ],
      [
        "▁[peter",
        -9.520937933026579
      ],
      [
        "▁sixty",
        -9.521160463579951
      ],
      [
        "▁important",
        -9.521273432116432
      ],
      [
        "▁*exp:\toh",
        -9.522113612255728
      ],
      [
        "▁eighty",
        -9.522341265267002
      ],
      [
        "▁down?",
        -9.523808163794627
      ],
      [
        "▁side.",
        -9.523947628401398
      ],
      [
        "▁cars",
        -9.524313990188082
      ],
      [
        "▁building",
        -9.524662309332363
      ],
      [
        "▁five.",
        -9.527461269696058
      ],
      [
        "▁car?",
        -9.528009720634493
      ],
      [
        "▁forgot",
        -9.528212946292214
      ],
      [
        "▁giving",
        -9.528727394857734
      ],
      [
        "▁tv",
        -9.529210733965549
      ],
      [
        "▁helen.",
        -9.529301719707806
      ],
      [
        "▁'bout",
        -9.529405306269416
      ],
      [
        "▁*chi:\there.",
        -9.529800095515128
      ],
      [
        "▁[chi]",
        -9.530295497621548
      ],
      [
        "▁brother",
        -9.530474104841344
      ],
      [
        "▁*mot:\twas",
        -9.53163861322102
      ],
      [
        "▁doctor",
        -9.531929749548496
      ],
      [
        "▁*inv:\tthe",
        -9.532279491036324
      ],
      [
        "▁egg",
        -9.532689217383792
      ],
      [
        "▁moving",
        -9.533187522607406
      ],
      [
        "▁job.",
        -9.533220108293726
      ],
      [
        "▁post",
        -9.533228311953884
      ],
      [
        "▁cover",
        -9.533916597632157
      ],
      [
        "▁given",
        -9.535810103188417
      ],
      [
        "▁*chi:\tno,",
        -9.53702084359123
      ],
      [
        "ne",
        -9.53713803654114
      ],
      [
        "▁*chi:\there's",
        -9.53795641645291
      ],
      [
        "▁careful",
        -9.540039386590788
      ],
      [
        "▁*tur:\t",
        -9.541076074733859
      ],
      [
        "▁please?",
        -9.541235826384694
      ],
      [
        "▁going?",
        -9.541306600853165
      ],
      [
        "▁sorry.",
        -9.54131787474411
      ],
      [
        "▁count",
        -9.54506398236165
      ],
      [
        "▁bottle",
        -9.545085393703912
      ],
      [
        "▁tomorrow",
        -9.549128507276222
      ],
      [
        "that's",
        -9.550184453131212
      ],
      [
        "▁no!",
        -9.550851295439433
      ],
      [
        "▁beautiful",
        -9.551744227191033
      ],
      [
        "▁tree.",
        -9.552250326692963
      ],
      [
        "▁*chi:\tthank",
        -9.553838614088615
      ],
      [
        "▁family",
        -9.554885021560032
      ],
      [
        "▁plays",
        -9.557795618695188
      ],
      [
        "▁*chi:\tto",
        -9.557919263974991
      ],
      [
        "▁soon",
        -9.55801695205792
      ],
      [
        "▁yourself",
        -9.55881187620064
      ],
      [
        "▁nose",
        -9.56086719657609
      ],
      [
        "▁*mot:\tbe",
        -9.561744355193436
      ],
      [
        "▁noise]",
        -9.562182778225619
      ],
      [
        "▁government",
        -9.56220893995239
      ],
      [
        "▁bye",
        -9.565909771721731
      ],
      [
        "▁arm",
        -9.5668476056143
      ],
      [
        "▁tried",
        -9.567025664970505
      ],
      [
        "▁hungry.",
        -9.567107474194508
      ],
      [
        "▁*mot:\tthere.",
        -9.568021420478154
      ],
      [
        "▁check",
        -9.568534665129746
      ],
      [
        "▁hole",
        -9.569548321570556
      ],
      [
        "▁least",
        -9.572007507719757
      ],
      [
        "▁um...",
        -9.572417490214454
      ],
      [
        "we",
        -9.573043532975113
      ],
      [
        "▁aft",
        -9.573422506568885
      ],
      [
        "▁*bro:\ti",
        -9.573695350519245
      ],
      [
        "me",
        -9.574696441888365
      ],
      [
        "▁during",
        -9.574710626936026
      ],
      [
        "▁[nina",
        -9.574944586093732
      ],
      [
        "▁*chi:\tare",
        -9.576501967064143
      ],
      [
        "▁mouse",
        -9.57817399214741
      ],
      [
        "▁life",
        -9.579267532144799
      ],
      [
        "▁nearly",
        -9.579548109447913
      ],
      [
        "▁broke",
        -9.580247017571496
      ],
      [
        "▁mark",
        -9.580260750825875
      ],
      [
        "▁hang",
        -9.580353491656677
      ],
      [
        "▁*chi:\tme",
        -9.580875732810767
      ],
      [
        "▁us.",
        -9.581422309606786
      ],
      [
        "▁*chi:\tn",
        -9.581707364501074
      ],
      [
        "▁*inv:\the",
        -9.582128088126957
      ],
      [
        "▁cookie",
        -9.582243039991136
      ],
      [
        "▁say,",
        -9.582725918706565
      ],
      [
        "▁engine",
        -9.583154207246555
      ],
      [
        "▁[friend].",
        -9.583329594808557
      ],
      [
        "▁*fat:\tit's",
        -9.586339327854752
      ],
      [
        "▁*fat:\tis",
        -9.588201219350935
      ],
      [
        "▁group",
        -9.588604342119835
      ],
      [
        "▁ooh",
        -9.591496056070003
      ],
      [
        "▁*exp:\tyou",
        -9.59152122994713
      ],
      [
        "▁sister",
        -9.591582728891904
      ],
      [
        "▁*mot:\twant",
        -9.59182540752714
      ],
      [
        "▁[to",
        -9.592587017892878
      ],
      [
        "▁nose.",
        -9.592630341184663
      ],
      [
        "▁window",
        -9.594217095815548
      ],
      [
        "▁*mot:\ti've",
        -9.594365284297446
      ],
      [
        "▁brush",
        -9.594638572550325
      ],
      [
        "▁bath",
        -9.594943858188401
      ],
      [
        "▁street",
        -9.596298291807049
      ],
      [
        "▁cake.",
        -9.598089266695975
      ],
      [
        "▁object",
        -9.60198682801113
      ],
      [
        "▁shouldn't",
        -9.602954860552858
      ],
      [
        "▁*par:\tyou",
        -9.60318843834078
      ],
      [
        "▁hungry",
        -9.603306126551944
      ],
      [
        "▁song",
        -9.603345540567798
      ],
      [
        "▁clever",
        -9.6035372056007
      ],
      [
        "▁*fat:\twell",
        -9.604109418160146
      ],
      [
        "▁cup.",
        -9.604809452647348
      ],
      [
        "▁else.",
        -9.605223652826563
      ],
      [
        "▁air",
        -9.605368147490864
      ],
      [
        "▁eyes.",
        -9.606131113757169
      ],
      [
        "▁[makes",
        -9.607326332189078
      ],
      [
        "▁*inv:\tdid",
        -9.607396810789888
      ],
      [
        "▁*chi:\tbig",
        -9.608161251577837
      ],
      [
        "▁ran",
        -9.60913355796315
      ],
      [
        "▁taste",
        -9.609289829317046
      ],
      [
        "▁okay,",
        -9.612049512620587
      ],
      [
        "[vocalizes].",
        -9.612587316437896
      ],
      [
        "▁farm",
        -9.612855331842699
      ],
      [
        "▁interested",
        -9.613531040976312
      ],
      [
        "\"]",
        -9.613721029590195
      ],
      [
        "▁kinda",
        -9.613787096431214
      ],
      [
        "ur",
        -9.616625288349745
      ],
      [
        "▁teacher",
        -9.616868665838812
      ],
      [
        "▁cook",
        -9.617246876803637
      ],
      [
        "▁*fat:\thow",
        -9.61794528764141
      ],
      [
        "▁[hold",
        -9.61809688998546
      ],
      [
        "▁wearing",
        -9.62144997781353
      ],
      [
        "▁*mot:\twith",
        -9.621699761219357
      ],
      [
        "▁somewhere",
        -9.6220222105424
      ],
      [
        "▁eat.",
        -9.62235416849234
      ],
      [
        "▁mum.",
        -9.622550638672394
      ],
      [
        "▁blocks",
        -9.622634388556616
      ],
      [
        "▁wan'",
        -9.62274162383391
      ],
      [
        "▁girls",
        -9.623318279938342
      ],
      [
        "▁sleep.",
        -9.625095745940786
      ],
      [
        "▁yesterday",
        -9.625447512229055
      ],
      [
        "▁it]",
        -9.626534642631214
      ],
      [
        "▁idea.",
        -9.626890884274538
      ],
      [
        "▁drop",
        -9.62770894966851
      ],
      [
        "▁*sib:\t",
        -9.628182686381855
      ],
      [
        "▁*chi:\tyup",
        -9.62822889888261
      ],
      [
        "▁short",
        -9.629574286892419
      ],
      [
        "▁forget",
        -9.630349480850837
      ],
      [
        "▁*mot:\tshould",
        -9.632214852188145
      ],
      [
        "▁bag.",
        -9.632680377408784
      ],
      [
        "▁rabbit",
        -9.633264091051199
      ],
      [
        "▁coffee",
        -9.63550553963139
      ],
      [
        "▁xxx...",
        -9.635744815930465
      ],
      [
        "▁*mot:\thello",
        -9.636316208242514
      ],
      [
        "▁puzzle",
        -9.637903578247098
      ],
      [
        "▁home?",
        -9.638116135446836
      ],
      [
        "▁*mot:\tsit",
        -9.638739247867013
      ],
      [
        "▁press",
        -9.639103924494382
      ],
      [
        "▁*mot:\tthose",
        -9.639805771883218
      ],
      [
        "▁john",
        -9.639862847588947
      ],
      [
        "▁bite",
        -9.639972115803694
      ],
      [
        "▁these?",
        -9.640670323048315
      ],
      [
        "[laughs].",
        -9.641626705155055
      ],
      [
        "▁honey",
        -9.64169595532653
      ],
      [
        "▁late",
        -9.641998590439439
      ],
      [
        "▁mom.",
        -9.642003152037136
      ],
      [
        "▁dropped",
        -9.643013543136929
      ],
      [
        "▁finger",
        -9.643097983001699
      ],
      [
        "▁*mot:\tmy",
        -9.64453072158538
      ],
      [
        "▁*inv:\twhere",
        -9.645110582782213
      ],
      [
        "▁*car:\t",
        -9.645639800665204
      ],
      [
        "▁useta",
        -9.646070270124786
      ],
      [
        "▁*mot:\tyeah,",
        -9.646488408905462
      ],
      [
        "▁me,",
        -9.646499946725818
      ],
      [
        "▁tiny",
        -9.647032080711957
      ],
      [
        "he",
        -9.648133691649626
      ],
      [
        "▁school?",
        -9.649500511258758
      ],
      [
        "▁*inv:\tthat",
        -9.649888014893666
      ],
      [
        "▁*chi:\tdid",
        -9.650184100288804
      ],
      [
        "▁wish",
        -9.651311313973277
      ],
      [
        "[involuntary]",
        -9.65360654372214
      ],
      [
        "oh",
        -9.655371663322295
      ],
      [
        "▁bus.",
        -9.656463327444687
      ],
      [
        "▁figure",
        -9.656856538280142
      ],
      [
        "▁baby's",
        -9.656929492776184
      ],
      [
        "▁*mot:\tno,",
        -9.658218690127551
      ],
      [
        "▁county",
        -9.65861674507309
      ],
      [
        "▁*a3:\t",
        -9.659499968215275
      ],
      [
        "▁em",
        -9.659612206992378
      ],
      [
        "▁*fat:\tit",
        -9.659896626277607
      ],
      [
        "ent",
        -9.66027597248278
      ],
      [
        "▁*inv:\tno",
        -9.660353113266849
      ],
      [
        "▁hasta",
        -9.660465949457395
      ],
      [
        "▁answer",
        -9.660939586232011
      ],
      [
        "▁clear",
        -9.661668356927619
      ],
      [
        "▁daddy?",
        -9.663207121775148
      ],
      [
        "▁drops",
        -9.664564490163416
      ],
      [
        "▁visit",
        -9.665624092200185
      ],
      [
        "▁wind",
        -9.665701472007427
      ],
      [
        "▁later.",
        -9.667847362132136
      ],
      [
        "▁*exp:\tokay.",
        -9.668246681809421
      ],
      [
        "▁blue.",
        -9.66919041688549
      ],
      [
        "▁particular",
        -9.670268048860127
      ],
      [
        "▁picture.",
        -9.67073506117939
      ],
      [
        "▁lives",
        -9.671105518062525
      ],
      [
        "▁paper.",
        -9.671154655084779
      ],
      [
        "▁driving",
        -9.671270020747107
      ],
      [
        "▁swimming",
        -9.671615931417836
      ],
      [
        "▁warm",
        -9.674200828444825
      ],
      [
        "▁animal",
        -9.675162498870211
      ],
      [
        "▁mess",
        -9.67558627616489
      ],
      [
        "▁*urs:\t",
        -9.676481941418492
      ],
      [
        "▁funny.",
        -9.676690483954694
      ],
      [
        "▁thomas?",
        -9.676707760481541
      ],
      [
        "▁young",
        -9.677456870429328
      ],
      [
        "▁mama",
        -9.677595415118748
      ],
      [
        "▁boat",
        -9.677611412942332
      ],
      [
        "▁monkey",
        -9.67926173861696
      ],
      [
        "▁*soa:\t",
        -9.679972922837226
      ],
      [
        "▁card",
        -9.680511759685826
      ],
      [
        "▁forward",
        -9.68054016295607
      ],
      [
        "▁park",
        -9.680991948294393
      ],
      [
        "▁fast",
        -9.68109273495564
      ],
      [
        "▁*chi:\tshe's",
        -9.681130148776948
      ],
      [
        "▁[pointing",
        -9.68156038916384
      ],
      [
        "▁busy",
        -9.681688774182083
      ],
      [
        "▁*oth:\t",
        -9.683445234523465
      ],
      [
        "▁*par1:\tand",
        -9.684805162235666
      ],
      [
        "▁⌊",
        -9.686024250458994
      ],
      [
        "▁hadta",
        -9.686562798790876
      ],
      [
        "▁colors",
        -9.686876068729418
      ],
      [
        "▁washing",
        -9.687775469641114
      ],
      [
        "▁tea.",
        -9.688156901458369
      ],
      [
        "⌉",
        -9.688985612577298
      ],
      [
        "▁name.",
        -9.690816568247596
      ],
      [
        "▁hello",
        -9.69215337565422
      ],
      [
        "▁people.",
        -9.693002824651478
      ],
      [
        "▁within",
        -9.69364059554152
      ],
      [
        "▁early",
        -9.695669144332275
      ],
      [
        "▁exactly",
        -9.695791000706997
      ],
      [
        "▁plastic",
        -9.695939892150765
      ],
      [
        "▁*chi:\tmum.",
        -9.696042155469746
      ],
      [
        "ive",
        -9.696740853942355
      ],
      [
        "▁*chi:\twant",
        -9.697430653191862
      ],
      [
        "▁speak",
        -9.697466328868732
      ],
      [
        "▁red.",
        -9.697862638432726
      ],
      [
        "▁writing",
        -9.69790138696437
      ],
      [
        "▁leans",
        -9.697963553725717
      ],
      [
        "▁present",
        -9.69817719047297
      ],
      [
        "▁button",
        -9.69836723388109
      ],
      [
        "can",
        -9.69868050185686
      ],
      [
        "▁*jen:\t",
        -9.69876240502236
      ],
      [
        "▁spoon",
        -9.69880809651437
      ],
      [
        "▁opens",
        -9.700166790042951
      ],
      [
        "▁purple",
        -9.702320466226078
      ],
      [
        "▁seem",
        -9.70435242029368
      ],
      [
        "▁space",
        -9.70533115185204
      ],
      [
        "the",
        -9.705792986904294
      ],
      [
        "▁pat",
        -9.706500621036948
      ],
      [
        "▁*fat:\toh.",
        -9.706712562471294
      ],
      [
        "▁camera",
        -9.707303043788766
      ],
      [
        "▁*fat:\tthat",
        -9.707966208063468
      ],
      [
        "▁di",
        -9.708822692105363
      ],
      [
        "▁picked",
        -9.7096736242461
      ],
      [
        "▁waiting",
        -9.710664830972242
      ],
      [
        "▁shoes.",
        -9.71073296119939
      ],
      [
        "▁*inv:\tthis",
        -9.711520933288249
      ],
      [
        "▁*mot:\tfraser",
        -9.7121139130683
      ],
      [
        "▁*chi:\tan'",
        -9.712410187388699
      ],
      [
        "▁sat",
        -9.716027810340595
      ],
      [
        "▁background]",
        -9.716877985654145
      ],
      [
        "▁difficult",
        -9.717971134207785
      ],
      [
        "▁trouble",
        -9.718589019874658
      ],
      [
        "▁[noise]",
        -9.7194168449486
      ],
      [
        "▁two,",
        -9.719797335451752
      ],
      [
        "▁*inv:\tit",
        -9.720656876490319
      ],
      [
        "▁mister",
        -9.720678023805464
      ],
      [
        "▁*chi:\teh",
        -9.721076200030723
      ],
      [
        "man",
        -9.722847318462792
      ],
      [
        "▁*chi:\ti've",
        -9.7235394764253
      ],
      [
        "▁letters",
        -9.723878962679866
      ],
      [
        "▁garden",
        -9.725208327743358
      ],
      [
        "▁knock",
        -9.725600788310206
      ],
      [
        "▁order",
        -9.725651945280966
      ],
      [
        "▁broken",
        -9.726524505406683
      ],
      [
        "▁instead",
        -9.727256556679249
      ],
      [
        "▁weeks",
        -9.727444247196445
      ],
      [
        "▁knows",
        -9.727629719352157
      ],
      [
        "▁[actually",
        -9.730708386353186
      ],
      [
        "▁them,",
        -9.731895783020148
      ],
      [
        "▁top.",
        -9.733018672522114
      ],
      [
        "▁he'd",
        -9.73302838164772
      ],
      [
        "▁*val:\t",
        -9.73323291971642
      ],
      [
        "▁breakfast",
        -9.733403567549821
      ],
      [
        "▁[2",
        -9.733716608040641
      ],
      [
        "▁paint",
        -9.73395848905735
      ],
      [
        "▁*mot:\tthomas",
        -9.735951358005266
      ],
      [
        "▁game.",
        -9.73777884577854
      ],
      [
        "uh",
        -9.738811719426781
      ],
      [
        "▁*mot:\twill",
        -9.74200380131942
      ],
      [
        "▁car]",
        -9.742045283023305
      ],
      [
        "▁think?",
        -9.743487999056558
      ],
      [
        "▁money.",
        -9.744434278068825
      ],
      [
        "▁sounds]",
        -9.744866323054389
      ],
      [
        "▁*mot:\ttell",
        -9.745218265209502
      ],
      [
        "▁mommy?",
        -9.746421235302744
      ],
      [
        "▁she'll",
        -9.747288606745556
      ],
      [
        "▁wake",
        -9.74780175750864
      ],
      [
        "▁fat",
        -9.748729765653703
      ],
      [
        "▁*inv:\tnow",
        -9.749195829985549
      ],
      [
        "▁noises",
        -9.749410950595534
      ],
      [
        "ie.",
        -9.75045534150517
      ],
      [
        "▁supposed",
        -9.751522702120225
      ],
      [
        "▁music",
        -9.752293932858828
      ],
      [
        "▁[t",
        -9.752561233240813
      ],
      [
        "▁class",
        -9.754096041758158
      ],
      [
        "▁*mot:\tfor",
        -9.754110853844182
      ],
      [
        "▁fine.",
        -9.75435426237729
      ],
      [
        "▁*fat:\twhat's",
        -9.755510064351586
      ],
      [
        "▁cross",
        -9.756001639534642
      ],
      [
        "▁hot.",
        -9.757358798792557
      ],
      [
        "▁towel",
        -9.757581437426538
      ],
      [
        "▁chair]",
        -9.758832557063016
      ],
      [
        "▁*gma:\toh",
        -9.759063563271948
      ],
      [
        "▁end.",
        -9.759578505465235
      ],
      [
        "are",
        -9.759931329211241
      ],
      [
        "▁quiet",
        -9.760310027500125
      ],
      [
        "z",
        -9.761208540061283
      ],
      [
        "▁often",
        -9.761956679379807
      ],
      [
        "▁*fat:\tthe",
        -9.762567411293599
      ],
      [
        "▁falls",
        -9.762604716532124
      ],
      [
        "▁*chi:\tright.",
        -9.763303456977937
      ],
      [
        "▁talks",
        -9.765488299311347
      ],
      [
        "▁reason",
        -9.765756191905178
      ],
      [
        "▁legs",
        -9.76743421373196
      ],
      [
        "▁*mot:\tmummy",
        -9.768295410162999
      ],
      [
        "▁*mot:\thas",
        -9.768993837308761
      ],
      [
        "▁naughty",
        -9.769111531588266
      ],
      [
        "▁%add:\tsis",
        -9.769657894507258
      ],
      [
        "▁cost",
        -9.769862254429748
      ],
      [
        "▁friday",
        -9.77011706276446
      ],
      [
        "▁[d",
        -9.770749499753919
      ],
      [
        "ation",
        -9.77084674931221
      ],
      [
        "▁moment",
        -9.772224060321733
      ],
      [
        "it's",
        -9.772617324228957
      ],
      [
        "▁slide",
        -9.772981230846796
      ],
      [
        "▁missed",
        -9.77311857074119
      ],
      [
        "▁runs",
        -9.773227001768209
      ],
      [
        "▁jigsaw",
        -9.775065254230803
      ],
      [
        "▁hands.",
        -9.775066220363996
      ],
      [
        "▁*mot:\tgive",
        -9.77528084281371
      ],
      [
        "▁*fat:\tthere",
        -9.775453519120022
      ],
      [
        "▁mouth.",
        -9.775750957963465
      ],
      [
        "▁quick",
        -9.775860111813781
      ],
      [
        "▁land",
        -9.776551037134148
      ],
      [
        "▁*mot:\ts",
        -9.776618362237375
      ],
      [
        "▁face.",
        -9.777409103898027
      ],
      [
        "▁time,",
        -9.77798026513068
      ],
      [
        "▁careful.",
        -9.7780465780212
      ],
      [
        "▁up,",
        -9.77817728766664
      ],
      [
        "▁less",
        -9.779392617772348
      ],
      [
        "▁learn",
        -9.779511606762057
      ],
      [
        "▁ah,",
        -9.779666501189565
      ],
      [
        "▁seventy",
        -9.780112571210108
      ],
      [
        "▁falling",
        -9.781397110018432
      ],
      [
        "▁kiss",
        -9.781443753887622
      ],
      [
        "us",
        -9.781813463600287
      ],
      [
        "▁sunday",
        -9.782094448684912
      ],
      [
        "▁soft",
        -9.78346755818509
      ],
      [
        "▁snow",
        -9.783498656590499
      ],
      [
        "▁why?",
        -9.784196283442814
      ],
      [
        "▁*inv:\tmhm.",
        -9.784674289897154
      ],
      [
        "▁cold.",
        -9.785555151927252
      ],
      [
        "▁dry",
        -9.785918168252195
      ],
      [
        "▁alright?",
        -9.787105859449468
      ],
      [
        "▁*chi:\tyou're",
        -9.787582584402301
      ],
      [
        "▁*mot:\tturn",
        -9.788072470639875
      ],
      [
        "▁mean?",
        -9.788648803708334
      ],
      [
        "▁leaves",
        -9.789027518451462
      ],
      [
        "▁throws",
        -9.789684916938723
      ],
      [
        "ed.",
        -9.790458409180504
      ],
      [
        "▁happen",
        -9.790538244580908
      ],
      [
        "▁football",
        -9.790596243862584
      ],
      [
        "look",
        -9.793432987789444
      ],
      [
        "▁ho",
        -9.793449650719142
      ],
      [
        "▁per",
        -9.794277410875825
      ],
      [
        "▁*inv:\thow",
        -9.795430603542286
      ],
      [
        "▁*chi:\tyeah,",
        -9.795496376049904
      ],
      [
        "▁*inv:\tbut",
        -9.795782573305651
      ],
      [
        "▁loud",
        -9.796147079325188
      ],
      [
        "▁drawing",
        -9.796495402171214
      ],
      [
        "▁ago",
        -9.797148322800789
      ],
      [
        "▁pen",
        -9.797309987448427
      ],
      [
        "▁stands",
        -9.797628495214306
      ],
      [
        "▁horse.",
        -9.798948896036261
      ],
      [
        "▁fish.",
        -9.799373827912255
      ],
      [
        "▁*fat:\txxx",
        -9.800330185930225
      ],
      [
        "▁mm,",
        -9.800720748264645
      ],
      [
        "ch",
        -9.801044873430065
      ],
      [
        "▁felt",
        -9.801304164727165
      ],
      [
        "▁david",
        -9.802596239221039
      ],
      [
        "▁block",
        -9.802851949097814
      ],
      [
        "able",
        -9.803400474935575
      ],
      [
        "▁*chi:\ttwo.",
        -9.804012905816629
      ],
      [
        "▁*mot:\twait",
        -9.805718888107517
      ],
      [
        "ling",
        -9.80578638479189
      ],
      [
        "▁we'd",
        -9.806532090894354
      ],
      [
        "▁*mot:\tmommy",
        -9.807034976333616
      ],
      [
        "▁allowed",
        -9.807824129479652
      ],
      [
        "making",
        -9.80818788741501
      ],
      [
        "▁pushes",
        -9.808756381721416
      ],
      [
        "▁head]",
        -9.809753756045428
      ],
      [
        "go",
        -9.80999148736393
      ],
      [
        "▁send",
        -9.810080813106515
      ],
      [
        "▁dark",
        -9.810812480060761
      ],
      [
        "▁*chi:\tif",
        -9.810875664801863
      ],
      [
        "▁grow",
        -9.810930617484564
      ],
      [
        "▁green.",
        -9.81133457466688
      ],
      [
        "▁months",
        -9.812082409542695
      ],
      [
        "▁hide",
        -9.81217364770064
      ],
      [
        "▁save",
        -9.812567414189651
      ],
      [
        "▁interesting",
        -9.812859110165723
      ],
      [
        "▁cheese.",
        -9.812927547063047
      ],
      [
        "▁cause",
        -9.813623649598084
      ],
      [
        "▁singing",
        -9.813648241176296
      ],
      [
        "▁nobody",
        -9.814329652242339
      ],
      [
        "▁*ste:\t",
        -9.814473949488075
      ],
      [
        "▁j",
        -9.81447792516969
      ],
      [
        "▁bed?",
        -9.815722108381152
      ],
      [
        "▁*inv:\twe",
        -9.816002343722044
      ],
      [
        "▁fifteen",
        -9.817056267685716
      ],
      [
        "▁dress",
        -9.819114338738904
      ],
      [
        "▁third",
        -9.82296527342081
      ],
      [
        "▁sugar",
        -9.8251635321683
      ],
      [
        "▁sec,",
        -9.825571257624905
      ],
      [
        "▁*mot:\tsome",
        -9.825691930205906
      ],
      [
        "▁*mot:\twatch",
        -9.82578976055499
      ],
      [
        "▁percent",
        -9.826814998920856
      ],
      [
        "▁record",
        -9.826985367335897
      ],
      [
        "▁week.",
        -9.82751123957338
      ],
      [
        "▁fly",
        -9.827697815709158
      ],
      [
        "▁babies",
        -9.828758682110216
      ],
      [
        "▁*mot:\tuhoh.",
        -9.829315759814378
      ],
      [
        "lo",
        -9.829561943768034
      ],
      [
        "▁anyway.",
        -9.82970779723231
      ],
      [
        "▁mummy?",
        -9.829870125260534
      ],
      [
        "▁view",
        -9.830662201718182
      ],
      [
        "▁*inv:\tlook",
        -9.83072210862925
      ],
      [
        "▁fun.",
        -9.830846377137565
      ],
      [
        "▁tiger",
        -9.831830180245174
      ],
      [
        "▁*chi:\thi",
        -9.832771804300663
      ],
      [
        "per",
        -9.833337166818385
      ],
      [
        "▁*mot:\twow.",
        -9.83454350973976
      ],
      [
        "▁easy",
        -9.834780217796357
      ],
      [
        "▁*inv:\the's",
        -9.834790124028384
      ],
      [
        "▁rising",
        -9.835062344270758
      ],
      [
        "▁honey.",
        -9.836424133158172
      ],
      [
        "▁climb",
        -9.837251909757565
      ],
      [
        "▁they'd",
        -9.839295681528384
      ],
      [
        "▁bang",
        -9.840031142815663
      ],
      [
        "▁smell",
        -9.840349300542986
      ],
      [
        "▁base",
        -9.840526910368663
      ],
      [
        "▁*par:\twhat",
        -9.841644140785066
      ],
      [
        "▁glass",
        -9.841770355893813
      ],
      [
        "▁*par:\tand",
        -9.842008060974166
      ],
      [
        "▁reach",
        -9.842882873540848
      ],
      [
        "▁those?",
        -9.844272667697002
      ],
      [
        "▁poor",
        -9.844819796462637
      ],
      [
        "▁sheep",
        -9.844855276779297
      ],
      [
        "⌋",
        -9.846176533297658
      ],
      [
        "▁remember?",
        -9.847006715725819
      ],
      [
        "▁scared",
        -9.847765280394178
      ],
      [
        "▁noise.",
        -9.848305126727414
      ],
      [
        "▁hey",
        -9.852150701179987
      ],
      [
        "▁tomorrow.",
        -9.852172227725923
      ],
      [
        "▁yours.",
        -9.852982036997432
      ],
      [
        "⌋.",
        -9.85336924042938
      ],
      [
        "▁microphone",
        -9.853457080537623
      ],
      [
        "▁back?",
        -9.85402983276205
      ],
      [
        "▁coat",
        -9.854513709225628
      ],
      [
        "▁wall",
        -9.854965775019455
      ],
      [
        "▁house]",
        -9.855101966608398
      ],
      [
        "▁o'clock",
        -9.855869955952288
      ],
      [
        "▁before.",
        -9.856252241150635
      ],
      [
        "▁hour",
        -9.857069857977365
      ],
      [
        "▁*mot:\twell.",
        -9.85811834247701
      ],
      [
        "▁*mot:\tooh.",
        -9.861632921775406
      ],
      [
        "▁upstairs",
        -9.862531922669692
      ],
      [
        "how",
        -9.862904209087382
      ],
      [
        "▁elephant",
        -9.863062387358182
      ],
      [
        "▁absolutely",
        -9.86330164267588
      ],
      [
        "▁large",
        -9.863770204617026
      ],
      [
        "▁telephone",
        -9.864506000543468
      ],
      [
        "▁asking",
        -9.864541039122038
      ],
      [
        "▁*chi:\tthese",
        -9.864971841350329
      ],
      [
        "▁downstairs",
        -9.866549287732457
      ],
      [
        "▁*mot:\tisn't",
        -9.866717178712362
      ],
      [
        "▁members",
        -9.867198920047949
      ],
      [
        "▁monster",
        -9.867260017048437
      ],
      [
        "▁tie",
        -9.867552264965157
      ],
      [
        "▁*chi:\tmaybe",
        -9.86791230073417
      ],
      [
        "ate",
        -9.86869558977858
      ],
      [
        "▁ears",
        -9.87024789518789
      ],
      [
        "▁either.",
        -9.870419452163514
      ],
      [
        "▁does.",
        -9.871090739934264
      ],
      [
        "▁report",
        -9.871101599397086
      ],
      [
        "▁six.",
        -9.873150584822334
      ],
      [
        "▁saturday",
        -9.873733636419537
      ],
      [
        "▁[3",
        -9.874207288129984
      ],
      [
        "▁silence]",
        -9.874898450658051
      ],
      [
        "referring",
        -9.874999971780047
      ],
      [
        "▁ready?",
        -9.87527479938756
      ],
      [
        "▁*tea:\tyou",
        -9.875677137350134
      ],
      [
        "est",
        -9.875755444642394
      ],
      [
        "▁round.",
        -9.875777991765208
      ],
      [
        "▁teeth",
        -9.876649894543245
      ],
      [
        "▁support",
        -9.876753791933368
      ],
      [
        "▁toys]",
        -9.87740087699088
      ],
      [
        "▁arms",
        -9.878039049135845
      ],
      [
        "▁deal",
        -9.878165387537553
      ],
      [
        "▁wheel",
        -9.879482727332482
      ],
      [
        "▁hm",
        -9.879496382877626
      ],
      [
        "▁feeling",
        -9.880801038051533
      ],
      [
        "▁[turns",
        -9.881045886504282
      ],
      [
        "▁*kf:\t",
        -9.881354772621606
      ],
      [
        "▁yeah?",
        -9.88171383689576
      ],
      [
        "up",
        -9.882479324381332
      ],
      [
        "▁ball?",
        -9.883593209120626
      ],
      [
        "▁shoe",
        -9.88429922360233
      ],
      [
        "▁bloody",
        -9.885771746104405
      ],
      [
        "▁then,",
        -9.886340062462185
      ],
      [
        "▁terms",
        -9.88654063769096
      ],
      [
        "well",
        -9.88654811181501
      ],
      [
        "▁himself",
        -9.887080418630418
      ],
      [
        "▁kept",
        -9.88766255179183
      ],
      [
        "▁see,",
        -9.888068172796542
      ],
      [
        "ted",
        -9.889415582044197
      ],
      [
        "▁feet.",
        -9.889542795917245
      ],
      [
        "you're",
        -9.890667501229817
      ],
      [
        "▁liked",
        -9.890751450718472
      ],
      [
        "▁star",
        -9.890799314711726
      ],
      [
        "▁done?",
        -9.891001446594323
      ],
      [
        "▁*inv:\ta",
        -9.89150569074739
      ],
      [
        "▁shirt",
        -9.891715824737068
      ],
      [
        "▁*chi:\t[voc].",
        -9.892268572229803
      ],
      [
        "▁*inv:\tuhhuh.",
        -9.892781688613434
      ],
      [
        "▁general",
        -9.893316219757226
      ],
      [
        "my",
        -9.893700022471098
      ],
      [
        "▁wheels",
        -9.894642965637782
      ],
      [
        "▁watches",
        -9.894655959230603
      ],
      [
        "▁dad.",
        -9.895112031847965
      ],
      [
        "▁eat?",
        -9.895462094357754
      ],
      [
        "▁window.",
        -9.895525657613994
      ],
      [
        "▁myself",
        -9.895600003125757
      ],
      [
        "▁*fat:\the",
        -9.895777639747006
      ],
      [
        "▁utterances",
        -9.896267039333267
      ],
      [
        "▁summer",
        -9.898036264913616
      ],
      [
        "▁*chi:\thello.",
        -9.898255612236317
      ],
      [
        "▁um,",
        -9.898398490527486
      ],
      [
        "▁mommy's",
        -9.898677895661448
      ],
      [
        "▁matter?",
        -9.89948416754456
      ],
      [
        "▁circle",
        -9.899653072762238
      ],
      [
        "5",
        -9.899825860591463
      ],
      [
        "▁'a",
        -9.900313925079889
      ],
      [
        "▁rain",
        -9.900855895391826
      ],
      [
        "▁free",
        -9.90103818663352
      ],
      [
        "▁bits",
        -9.90298641069573
      ],
      [
        "▁body",
        -9.903468117876232
      ],
      [
        "▁*fat:\twhere",
        -9.903491835736727
      ],
      [
        "▁*mot:\tready",
        -9.904293833196935
      ],
      [
        "▁*inv:\tthere",
        -9.905140318678665
      ],
      [
        "▁caught",
        -9.905654122508523
      ],
      [
        "▁bye.",
        -9.906214252701462
      ],
      [
        "so",
        -9.907605343086425
      ],
      [
        "▁*mot:\tum.",
        -9.907952966477977
      ],
      [
        "▁crayon]",
        -9.907984023733064
      ],
      [
        "▁anything.",
        -9.908286514844011
      ],
      [
        "▁these.",
        -9.908461803596948
      ],
      [
        "▁*fat:\tno.",
        -9.909331529900058
      ],
      [
        "▁*inv:\tlet's",
        -9.910281602991315
      ],
      [
        "▁crayons",
        -9.91181415320723
      ],
      [
        "▁*par:\ti",
        -9.912396520181352
      ],
      [
        "▁dinosaur",
        -9.913087766998242
      ],
      [
        "▁*tea:\tokay",
        -9.913227447430717
      ],
      [
        "▁works",
        -9.913827904596424
      ],
      [
        "▁mother]",
        -9.913874454155073
      ],
      [
        "▁moved",
        -9.916200570010854
      ],
      [
        "▁[in",
        -9.916325536243722
      ],
      [
        "▁*jes:\t",
        -9.91700848417038
      ],
      [
        "▁pour",
        -9.917143064813397
      ],
      [
        "▁closer",
        -9.91876979489116
      ],
      [
        "▁three,",
        -9.919005525374292
      ],
      [
        "▁*chi:\thave",
        -9.919431117980015
      ],
      [
        "▁place.",
        -9.919473884363153
      ],
      [
        "▁type",
        -9.920109241487852
      ],
      [
        "▁flowers",
        -9.920284693658465
      ],
      [
        "one",
        -9.920717528972409
      ],
      [
        "▁*mot:\tthese",
        -9.920895424959062
      ],
      [
        "▁*mot:\tremember",
        -9.922372457148985
      ],
      [
        "▁[voice]",
        -9.922650993111938
      ],
      [
        "▁fair",
        -9.922720443942946
      ],
      [
        "▁*mot:\teleanor",
        -9.924403341396292
      ],
      [
        "▁*inv:\thave",
        -9.924444947250194
      ],
      [
        "▁[refer",
        -9.92493842686973
      ],
      [
        "▁*exp:\tno",
        -9.925091195728044
      ],
      [
        "▁carl",
        -9.925742951800185
      ],
      [
        "▁certain",
        -9.926489853250715
      ],
      [
        "▁*fat:\tcan",
        -9.92707782497558
      ],
      [
        "▁*mot:\tsorry",
        -9.927696868170917
      ],
      [
        "▁time?",
        -9.927861536744542
      ],
      [
        "▁*chi:\tfor",
        -9.92795030244519
      ],
      [
        "▁anymore",
        -9.928165794285896
      ],
      [
        "▁turn.",
        -9.928560093556781
      ],
      [
        "▁*chi:\tmore",
        -9.929187786072152
      ],
      [
        "▁*inv:\tyes",
        -9.92920700550421
      ],
      [
        "▁share",
        -9.932714614490521
      ],
      [
        "▁ahead",
        -9.933121492049061
      ],
      [
        "▁aye",
        -9.933277244357317
      ],
      [
        "▁lion",
        -9.934176992891693
      ],
      [
        "▁*mot:\thi",
        -9.934359032249143
      ],
      [
        "▁*chi:\tbaby",
        -9.93542531176956
      ],
      [
        "▁purdie",
        -9.936315338651664
      ],
      [
        "▁women",
        -9.936744143112955
      ],
      [
        "▁sandwich",
        -9.936902752954019
      ],
      [
        "▁information",
        -9.940153677645213
      ],
      [
        "▁fruit",
        -9.940663182509326
      ],
      [
        "▁*inv:\twhy",
        -9.942515802309089
      ],
      [
        "what",
        -9.942747884684017
      ],
      [
        "ry",
        -9.943483230261489
      ],
      [
        "if",
        -9.943549515232615
      ],
      [
        "▁eleven",
        -9.944424441293544
      ],
      [
        "▁animals.",
        -9.944462838753687
      ],
      [
        "▁shake",
        -9.945437935167497
      ],
      [
        "▁key",
        -9.946415175105074
      ],
      [
        "▁dinner.",
        -9.948183501385865
      ],
      [
        "▁again,",
        -9.948335051029666
      ],
      [
        "▁juice?",
        -9.9505292400084
      ],
      [
        "this",
        -9.950593073231271
      ],
      [
        "▁meet",
        -9.9508104250056
      ],
      [
        "▁*chi:\ttake",
        -9.95206139312851
      ],
      [
        "▁board",
        -9.952957536813162
      ],
      [
        "▁meeting",
        -9.954465378914827
      ],
      [
        "▁bread.",
        -9.954605557869321
      ],
      [
        "▁bowl",
        -9.955744340671506
      ],
      [
        "come",
        -9.956008174150275
      ],
      [
        "▁*chi:\tplease.",
        -9.956809972270658
      ],
      [
        "▁*mot:\tooh",
        -9.956879653438484
      ],
      [
        "▁[yes]",
        -9.95716750736491
      ],
      [
        "▁'em.",
        -9.957394405662809
      ],
      [
        "▁quickly",
        -9.957401020750595
      ],
      [
        "▁pass",
        -9.957704287087312
      ],
      [
        "▁[laughing].",
        -9.957976255858927
      ],
      [
        "▁pause]",
        -9.959555708232209
      ],
      [
        "de",
        -9.960477439788917
      ],
      [
        "▁strong",
        -9.960605262773633
      ],
      [
        "▁bird.",
        -9.960856084963545
      ],
      [
        "▁nursery",
        -9.961495147529607
      ],
      [
        "6",
        -9.962162994586036
      ],
      [
        "▁fingers",
        -9.962336391781172
      ],
      [
        "▁*cat:\t",
        -9.96244626197441
      ],
      [
        "▁paul",
        -9.96289340819455
      ],
      [
        "2",
        -9.963675271295953
      ],
      [
        "▁moon",
        -9.96369704859185
      ],
      [
        "▁*chi:\tdis",
        -9.963797843052642
      ],
      [
        "▁*mot:\ttake",
        -9.96407167320669
      ],
      [
        "▁story?",
        -9.965657244466254
      ],
      [
        "▁committee",
        -9.96612561386086
      ],
      [
        "▁*par:\tyeah",
        -9.96649174562869
      ],
      [
        "▁yeah!",
        -9.966904205615089
      ],
      [
        "▁*chi:\tgot",
        -9.966973661811249
      ],
      [
        "▁policy",
        -9.967601873214365
      ],
      [
        "▁great.",
        -9.967658181481884
      ],
      [
        "▁huh",
        -9.967767593989448
      ],
      [
        "▁hard.",
        -9.96864362289795
      ],
      [
        "▁box?",
        -9.969018078342865
      ],
      [
        "▁form",
        -9.969624860584776
      ],
      [
        "▁postman",
        -9.971976159649067
      ],
      [
        "▁drinking",
        -9.97233366200194
      ],
      [
        "▁sleeping",
        -9.972421411571052
      ],
      [
        "▁spoon.",
        -9.972851200774596
      ],
      [
        "▁boat.",
        -9.973737063382991
      ],
      [
        "▁sad",
        -9.973864341305916
      ],
      [
        "▁plate.",
        -9.974330255538982
      ],
      [
        "▁extra",
        -9.97468778130909
      ],
      [
        "▁anyone",
        -9.974842575342418
      ],
      [
        "▁anymore.",
        -9.975598860261663
      ],
      [
        "▁*exp:\twhat",
        -9.976301789397365
      ],
      [
        "▁[inv",
        -9.97649995855066
      ],
      [
        "▁enough.",
        -9.97665028535544
      ],
      [
        "▁*chi:\tdoes",
        -9.976803466777204
      ],
      [
        "ment",
        -9.976893089697771
      ],
      [
        "▁system",
        -9.977008406111118
      ],
      [
        "▁eye",
        -9.978529327130632
      ],
      [
        "▁aye.",
        -9.979422239347642
      ],
      [
        "▁*a3:\twhat",
        -9.980492123183584
      ],
      [
        "▁further",
        -9.980938329145452
      ],
      [
        "▁lovely.",
        -9.98204243861626
      ],
      [
        "▁crying",
        -9.982628985566663
      ],
      [
        "1]",
        -9.983346844791779
      ],
      [
        "▁[chi].",
        -9.98342793972388
      ],
      [
        "▁*fat:\tdid",
        -9.983427942463594
      ],
      [
        "▁bath.",
        -9.983515845163687
      ],
      [
        "▁turning",
        -9.983658892871848
      ],
      [
        "▁talking]",
        -9.984122931009903
      ],
      [
        "▁hiding",
        -9.9842062930115
      ],
      [
        "▁duck.",
        -9.984422635037458
      ],
      [
        "▁lie",
        -9.984723522268807
      ],
      [
        "▁happening",
        -9.985307138788338
      ],
      [
        "▁*chi:\t[babble]",
        -9.985358987761174
      ],
      [
        "▁o'",
        -9.985919395286288
      ],
      [
        "▁sec;",
        -9.98662609740806
      ],
      [
        "▁power",
        -9.989026960694272
      ],
      [
        "▁town",
        -9.989209690339042
      ],
      [
        "▁cool",
        -9.989435075286416
      ],
      [
        "▁big.",
        -9.990079735647605
      ],
      [
        "▁doing.",
        -9.993924269113661
      ],
      [
        "▁*a2:\t",
        -9.994892736167724
      ],
      [
        "▁meant",
        -9.995327783190804
      ],
      [
        "▁square",
        -9.995694645689284
      ],
      [
        "did",
        -9.995748216613869
      ],
      [
        "▁year.",
        -9.995843163058787
      ],
      [
        "▁*kat:\t",
        -9.995846869108929
      ],
      [
        "▁business",
        -9.996652144232408
      ],
      [
        "▁shows",
        -9.99667479258679
      ],
      [
        "▁friend.",
        -9.996775338627547
      ],
      [
        "▁peanut",
        -9.996917079234573
      ],
      [
        "▁lights",
        -9.997026592011622
      ],
      [
        "▁worked",
        -9.997075764052859
      ],
      [
        "▁sent",
        -9.997222927354326
      ],
      [
        "▁*mot:\ttry",
        -9.99778960339668
      ],
      [
        "▁woman",
        -9.99942317088123
      ],
      [
        "▁out,",
        -9.999669610317826
      ],
      [
        "▁so,",
        -10.000056998303293
      ],
      [
        "▁traffic",
        -10.00111309345123
      ],
      [
        "▁play.",
        -10.002197386573904
      ],
      [
        "▁paid",
        -10.003261904668648
      ],
      [
        "▁*mot:\tyou'll",
        -10.003352254846376
      ],
      [
        "▁problems",
        -10.003533468473034
      ],
      [
        "▁mot's",
        -10.004204675903754
      ],
      [
        "jack+in+the+box]",
        -10.004238475242456
      ],
      [
        "▁fine",
        -10.005027132184761
      ],
      [
        "▁good?",
        -10.005351642487582
      ],
      [
        "▁everyone",
        -10.006467978709399
      ],
      [
        "▁sh",
        -10.006952555464213
      ],
      [
        "▁dressed",
        -10.007469129496727
      ],
      [
        "▁*chi:\tsome",
        -10.007968345505297
      ],
      [
        "▁sweet",
        -10.008363088394887
      ],
      [
        "▁*chi:\twho's",
        -10.008401393381249
      ],
      [
        "▁spell",
        -10.008887683614487
      ],
      [
        "▁pooh",
        -10.009409805595606
      ],
      [
        "▁position",
        -10.010594829405703
      ],
      [
        "▁yellow.",
        -10.011046307589023
      ],
      [
        "▁changed",
        -10.011143040583589
      ],
      [
        "▁loves",
        -10.011816841480016
      ],
      [
        "▁hadn't",
        -10.012823503711804
      ],
      [
        "▁inv",
        -10.013493905015618
      ],
      [
        "▁public",
        -10.013562217959613
      ],
      [
        "▁*roz:\t",
        -10.01357532756957
      ],
      [
        "▁health",
        -10.01375892071694
      ],
      [
        "now",
        -10.013926949295728
      ],
      [
        "▁*rya:\t",
        -10.014172089057745
      ],
      [
        "▁finished.",
        -10.014834069927257
      ],
      [
        "▁socks",
        -10.015512625635097
      ],
      [
        "▁*mad:\t",
        -10.017242434901593
      ],
      [
        "▁water?",
        -10.018084229374342
      ],
      [
        "▁thing?",
        -10.018915243124882
      ],
      [
        "▁*exp:\tyeah.",
        -10.019040078512722
      ],
      [
        "▁pot",
        -10.019591149631161
      ],
      [
        "▁*inv:\thm.",
        -10.02212890004266
      ],
      [
        "▁tired.",
        -10.022400515838646
      ],
      [
        "▁voice]",
        -10.02311836557416
      ],
      [
        "▁drink.",
        -10.024320696302924
      ],
      [
        "▁d'",
        -10.024355568498564
      ],
      [
        "▁conversation]",
        -10.024401434685014
      ],
      [
        "▁main",
        -10.025934139690234
      ],
      [
        "▁lift",
        -10.026965530362636
      ],
      [
        "▁*att:\t",
        -10.027414467077778
      ],
      [
        "ce",
        -10.027610195771452
      ],
      [
        "▁stops",
        -10.027677932214337
      ],
      [
        "▁low",
        -10.027987751125664
      ],
      [
        "▁shut",
        -10.02888073618966
      ],
      [
        "ies",
        -10.030567141573655
      ],
      [
        "▁[laugh].",
        -10.032327778132462
      ],
      [
        "▁open.",
        -10.033445594271026
      ],
      [
        "▁five,",
        -10.034297476883406
      ],
      [
        "▁cards",
        -10.034540281221558
      ],
      [
        "▁*fat:\twhy",
        -10.035534597186029
      ],
      [
        "▁%add:\t",
        -10.03571436633529
      ],
      [
        "▁ready.",
        -10.036522867585887
      ],
      [
        "▁away?",
        -10.036628972214672
      ],
      [
        "▁win",
        -10.036946608668831
      ],
      [
        "ow",
        -10.037072854439849
      ],
      [
        "▁alright,",
        -10.037338297819726
      ],
      [
        "▁po",
        -10.037617933033417
      ],
      [
        "▁rock",
        -10.037665931295045
      ],
      [
        "▁breakfast.",
        -10.03803592134552
      ],
      [
        "▁door]",
        -10.038110859023533
      ],
      [
        "▁leg",
        -10.038234817316507
      ],
      [
        "2]",
        -10.0394400365743
      ],
      [
        "▁*mot:\tdaddy",
        -10.039537835389577
      ],
      [
        "▁corner",
        -10.040656334581328
      ],
      [
        "▁trees",
        -10.040841235351214
      ],
      [
        "▁*fat:\tnow",
        -10.042244861200906
      ],
      [
        "▁flying",
        -10.04310358325176
      ],
      [
        "7]",
        -10.043283638905457
      ],
      [
        "▁michael",
        -10.043354950403025
      ],
      [
        "▁*mot:\thello.",
        -10.044802980582793
      ],
      [
        "▁bro",
        -10.044951338351417
      ],
      [
        "▁conversation",
        -10.045019975980207
      ],
      [
        "▁beginning",
        -10.046295487661455
      ],
      [
        "▁lay",
        -10.046355230884561
      ],
      [
        "▁vocalises.",
        -10.046458364076067
      ],
      [
        "very",
        -10.04775748555332
      ],
      [
        "▁ah!",
        -10.052302094069166
      ],
      [
        "▁birthday.",
        -10.053641991291535
      ],
      [
        "▁*fch:\ti",
        -10.053654006403441
      ],
      [
        "▁here!",
        -10.054379431684069
      ],
      [
        "▁worry",
        -10.054735154993185
      ],
      [
        "▁wa",
        -10.054994279600253
      ],
      [
        "▁parents",
        -10.055019236487556
      ],
      [
        "▁*chi:\t[looks",
        -10.055054084072987
      ],
      [
        "▁frog.",
        -10.055346465942637
      ],
      [
        "▁party.",
        -10.05686536094277
      ],
      [
        "▁awful",
        -10.057346062173654
      ],
      [
        "▁[reaches",
        -10.057930050939397
      ],
      [
        "▁size",
        -10.058110529630508
      ],
      [
        "▁coming.",
        -10.058331036151827
      ],
      [
        "▁mo",
        -10.058427273451315
      ],
      [
        "▁*par:\toh",
        -10.059483185266185
      ],
      [
        "▁*mot:\tmore",
        -10.060292070840879
      ],
      [
        "▁service",
        -10.060374314431634
      ],
      [
        "▁north",
        -10.060382650497644
      ],
      [
        "▁clock",
        -10.060867911973318
      ],
      [
        "▁hospital",
        -10.06125185899948
      ],
      [
        "5]",
        -10.061729223678814
      ],
      [
        "▁indeed",
        -10.062778667143942
      ],
      [
        "3]",
        -10.062908893163033
      ],
      [
        "▁store",
        -10.063204287523508
      ],
      [
        "▁*mot:\thold",
        -10.063505638450371
      ],
      [
        "unnecessary",
        -10.063740113133903
      ],
      [
        "▁goodness",
        -10.064442033739024
      ],
      [
        "▁minutes.",
        -10.06530562336502
      ],
      [
        "▁amount",
        -10.065829787980825
      ],
      [
        "▁sell",
        -10.065868419455132
      ],
      [
        "ping",
        -10.066079825608856
      ],
      [
        "▁*mot:\tbig",
        -10.06612485234784
      ],
      [
        "9",
        -10.06662230311669
      ],
      [
        "▁level",
        -10.067269845838933
      ],
      [
        "▁foot.",
        -10.067402267227699
      ],
      [
        "▁heavy",
        -10.06745354390231
      ],
      [
        "▁[playing",
        -10.068101344542384
      ],
      [
        "▁holiday",
        -10.068217012663634
      ],
      [
        "▁*ela:\t",
        -10.068696286096255
      ],
      [
        "▁books.",
        -10.068885959602767
      ],
      [
        "▁rolls",
        -10.068957043396967
      ],
      [
        "▁apart",
        -10.069488421122557
      ],
      [
        "▁*inv:\tyou're",
        -10.070609065582177
      ],
      [
        "▁names",
        -10.071947644439922
      ],
      [
        "▁*mot:\tyep.",
        -10.072770602194904
      ],
      [
        "▁those.",
        -10.073420254702825
      ],
      [
        "▁questions",
        -10.073860862834673
      ],
      [
        "▁june",
        -10.074057206371323
      ],
      [
        "▁cwww",
        -10.074282555248061
      ],
      [
        "mm",
        -10.074307655368035
      ],
      [
        ":",
        -10.07474942565323
      ],
      [
        "▁missus",
        -10.075052214057688
      ],
      [
        "▁*inv:\ti'm",
        -10.075779597255162
      ],
      [
        "▁sandwich.",
        -10.076133703942988
      ],
      [
        "▁ross",
        -10.076890706845035
      ],
      [
        "▁missing",
        -10.076974217730088
      ],
      [
        "be",
        -10.077083323381041
      ],
      [
        "▁normally",
        -10.07710798973825
      ],
      [
        "▁bell",
        -10.077210998000265
      ],
      [
        "▁*inv:\ttell",
        -10.077286034443542
      ],
      [
        "▁[e",
        -10.077750958519152
      ],
      [
        "▁video",
        -10.078583156593155
      ],
      [
        "▁jumped",
        -10.079657413645357
      ],
      [
        "▁step",
        -10.081311150974695
      ],
      [
        "▁track",
        -10.084584471862126
      ],
      [
        "▁plus",
        -10.085427916552124
      ],
      [
        "▁training",
        -10.085643295426262
      ],
      [
        "▁*chi:\twe're",
        -10.086687895261697
      ],
      [
        "▁potato",
        -10.08672335400021
      ],
      [
        "ting",
        -10.087323667777703
      ],
      [
        "▁dirty",
        -10.087909152150193
      ],
      [
        "▁lose",
        -10.087972837340246
      ],
      [
        "▁*chi:\tdaddy.",
        -10.088397193486724
      ],
      [
        "▁upside",
        -10.088423622443317
      ],
      [
        "▁santa",
        -10.088472379771897
      ],
      [
        "▁goes.",
        -10.08935856830389
      ],
      [
        "▁king",
        -10.090091497195287
      ],
      [
        "▁*chi:\twith",
        -10.090205128845726
      ],
      [
        "▁bin",
        -10.091677071917282
      ],
      [
        "▁*mot:\twhoops",
        -10.091765221639854
      ],
      [
        "el",
        -10.093093724310606
      ],
      [
        "▁*chi:\twanna",
        -10.09318470906138
      ],
      [
        "▁*mot:\twow",
        -10.095008100014969
      ],
      [
        "▁[june",
        -10.09576535540926
      ],
      [
        "▁*chi:\twhich",
        -10.09577572936654
      ],
      [
        "▁stopped",
        -10.096348896365871
      ],
      [
        "they're",
        -10.09662208601635
      ],
      [
        "▁eliminated",
        -10.097201215073405
      ],
      [
        "▁fraser.",
        -10.097542130358047
      ],
      [
        "▁station",
        -10.098118380803086
      ],
      [
        "▁*mot:\tup",
        -10.098210711667274
      ],
      [
        "▁interest",
        -10.098316782567675
      ],
      [
        "▁*chi:\tmommy.",
        -10.098621213779131
      ],
      [
        "▁*chi:\tuhhuh",
        -10.0989553859329
      ],
      [
        "▁war",
        -10.10015322079913
      ],
      [
        "▁*chi:\tone.",
        -10.10096860485885
      ],
      [
        "we're",
        -10.101673559872971
      ],
      [
        "▁hours",
        -10.101926092103671
      ],
      [
        "▁heart",
        -10.102700801495274
      ],
      [
        "▁definitely",
        -10.103188831148172
      ],
      [
        "es.",
        -10.103743308601306
      ],
      [
        "▁*chi:\tup",
        -10.104152674770681
      ],
      [
        "▁bar",
        -10.104250674849537
      ],
      [
        "▁office",
        -10.104266568345242
      ],
      [
        "▁tail",
        -10.104760818371101
      ],
      [
        "▁machine",
        -10.104876359209696
      ],
      [
        "▁*chi:\tcan't",
        -10.10555808738263
      ],
      [
        "▁bottle.",
        -10.106099793141592
      ],
      [
        "▁doin'?",
        -10.10646453445612
      ],
      [
        "▁*mot:\tthink",
        -10.107459630746852
      ],
      [
        "▁centre",
        -10.108296268680895
      ],
      [
        "▁million",
        -10.109024742131536
      ],
      [
        "▁nesting",
        -10.109656793058921
      ],
      [
        "▁*chi:\t[nods",
        -10.110004619474283
      ],
      [
        "▁*par1:\ti",
        -10.110072789317776
      ],
      [
        "9]",
        -10.110311762471493
      ],
      [
        "▁jack",
        -10.1108875868571
      ],
      [
        "▁although",
        -10.110987296312029
      ],
      [
        "▁keeps",
        -10.1111314136332
      ],
      [
        "▁yes]",
        -10.111228254121084
      ],
      [
        "▁cup]",
        -10.111341659357631
      ],
      [
        "▁jack+in+the+box",
        -10.111958644241263
      ],
      [
        "▁country",
        -10.112086950144155
      ],
      [
        "▁chris",
        -10.112521774035459
      ],
      [
        "▁*mch:\tyou",
        -10.113231368714818
      ],
      [
        "4]",
        -10.114351609287073
      ],
      [
        "▁seat",
        -10.114900031435338
      ],
      [
        "▁icecream",
        -10.115262312195945
      ],
      [
        "by",
        -10.115506463926188
      ],
      [
        "▁monday",
        -10.115936178407711
      ],
      [
        "▁*chi:\they.",
        -10.115967637078413
      ],
      [
        "▁*nan:\tyou",
        -10.116007032879718
      ],
      [
        "▁*chi:\tmum,",
        -10.117337792815121
      ],
      [
        "▁that'll",
        -10.117761197606873
      ],
      [
        "▁toast",
        -10.117768338082978
      ],
      [
        "▁puppet]",
        -10.117861978506975
      ],
      [
        "▁eats",
        -10.118658553367368
      ],
      [
        "▁riding",
        -10.119614142404242
      ],
      [
        "▁doin'",
        -10.120231453626277
      ],
      [
        "▁cow.",
        -10.120449369715644
      ],
      [
        "▁race",
        -10.120835763359025
      ],
      [
        "▁difference",
        -10.120942391094596
      ],
      [
        "▁something?",
        -10.120944014232663
      ],
      [
        "▁four,",
        -10.120981469857643
      ],
      [
        "▁*fat:\twe",
        -10.121650147725465
      ],
      [
        "▁auntie",
        -10.12276467089725
      ],
      [
        "▁away]",
        -10.123074398036723
      ],
      [
        "▁me!",
        -10.123413935124265
      ],
      [
        "▁super",
        -10.12368482983144
      ],
      [
        "▁choose",
        -10.123691916828957
      ],
      [
        "▁boy?",
        -10.124081458988092
      ],
      [
        "▁awww",
        -10.1241941763133
      ],
      [
        "▁%add:\tto",
        -10.125528873042494
      ],
      [
        "▁cry",
        -10.126080135079537
      ],
      [
        "▁mouth]",
        -10.12619629418842
      ],
      [
        "▁i...",
        -10.127300569027778
      ],
      [
        "▁yours",
        -10.127531121880924
      ],
      [
        "▁*chi:\tmum",
        -10.128146615967044
      ],
      [
        "▁really.",
        -10.129267653259454
      ],
      [
        "▁pointing",
        -10.129513133762932
      ],
      [
        "▁*mar:\ti",
        -10.129599869421847
      ],
      [
        "▁city",
        -10.129821300945242
      ],
      [
        "▁glasses",
        -10.130251714392493
      ],
      [
        "▁wet.",
        -10.130302737921646
      ],
      [
        "▁*chi:\topen",
        -10.130437376418325
      ],
      [
        "▁jumping",
        -10.13200731980642
      ],
      [
        "▁walked",
        -10.132033037689748
      ],
      [
        "▁thanks",
        -10.132508556912004
      ],
      [
        "▁*tea:\twhat",
        -10.132577041264724
      ],
      [
        "▁listening",
        -10.134081326023033
      ],
      [
        "▁opened",
        -10.134104310216266
      ],
      [
        "▁snake",
        -10.134439828275788
      ],
      [
        "▁*mot:\tstop",
        -10.134586889347077
      ],
      [
        "▁handle",
        -10.135102246295729
      ],
      [
        "▁[looking",
        -10.135139295987134
      ],
      [
        "▁tuesday",
        -10.135197144220337
      ],
      [
        "▁*chi:\tyyy",
        -10.135601657415457
      ],
      [
        "▁picking",
        -10.136314186656769
      ],
      [
        "▁trade",
        -10.136625862882571
      ],
      [
        "▁balloon",
        -10.137006934343502
      ],
      [
        "▁empty",
        -10.138944847512729
      ],
      [
        "▁sign",
        -10.139342675001137
      ],
      [
        "▁*fat:\tyes",
        -10.140220546228447
      ],
      [
        "▁on!",
        -10.140724145120656
      ],
      [
        "▁base]",
        -10.140771153067046
      ],
      [
        "▁bill",
        -10.140852260507273
      ],
      [
        "▁cups",
        -10.141047455222886
      ],
      [
        "▁quarter",
        -10.141438621190407
      ],
      [
        "▁*chi:\twatch",
        -10.141567549142913
      ],
      [
        "▁nice?",
        -10.142143167769245
      ],
      [
        "▁*ric:\t",
        -10.14219438108157
      ],
      [
        "▁afternoon",
        -10.14423299368436
      ],
      [
        "▁*aun:\t",
        -10.144537638949089
      ],
      [
        "▁lying",
        -10.144866334894541
      ],
      [
        "▁chair?",
        -10.144949604945612
      ],
      [
        "don't",
        -10.145039794937123
      ],
      [
        "▁den",
        -10.145109258663645
      ],
      [
        "▁wand",
        -10.145281782946341
      ],
      [
        "▁church",
        -10.145760879704248
      ],
      [
        "▁goodness.",
        -10.145965877508011
      ],
      [
        "▁built",
        -10.146810101864592
      ],
      [
        "▁agree",
        -10.147211556088841
      ],
      [
        "▁television",
        -10.147223064952751
      ],
      [
        "tell",
        -10.14787503592099
      ],
      [
        "▁ya?",
        -10.148110173648405
      ],
      [
        "▁pause",
        -10.148676110113538
      ],
      [
        "▁*chi:\tgood",
        -10.149188617975557
      ],
      [
        "n't",
        -10.14933683718034
      ],
      [
        "8]",
        -10.149668815623606
      ],
      [
        "▁string",
        -10.150242643128218
      ],
      [
        "un",
        -10.150381386017962
      ],
      [
        "▁*mot:\tlooks",
        -10.150455869380043
      ],
      [
        "▁numbers",
        -10.150987886642168
      ],
      [
        "▁uncle",
        -10.151018188203016
      ],
      [
        "▁*exp:\tand",
        -10.151114430169173
      ],
      [
        "▁*exp:\tokay",
        -10.151721106413039
      ],
      [
        "▁%add:\tinv",
        -10.151793708677925
      ],
      [
        "▁*inv:\tthere's",
        -10.152220916881571
      ],
      [
        "▁pizza",
        -10.15259517287186
      ],
      [
        "▁cj",
        -10.152702883694484
      ],
      [
        "▁company",
        -10.152747014684737
      ],
      [
        "▁french",
        -10.153942277811971
      ],
      [
        "but",
        -10.154509866186467
      ],
      [
        "▁mike",
        -10.15456485746585
      ],
      [
        "▁dead",
        -10.154852417830295
      ],
      [
        "▁innit?",
        -10.155839204889675
      ],
      [
        "▁*chi:\tooh.",
        -10.156106881310922
      ],
      [
        "▁south",
        -10.156282172192729
      ],
      [
        "▁above",
        -10.156502634551087
      ],
      [
        "▁corn",
        -10.156981483058267
      ],
      [
        "▁fallen",
        -10.15708624291442
      ],
      [
        "▁kid",
        -10.157135481300653
      ],
      [
        "▁*chi:\thuh.",
        -10.157247913724483
      ],
      [
        "▁flower",
        -10.158226592109935
      ],
      [
        "▁earlier",
        -10.15827459782004
      ],
      [
        "p.",
        -10.158438897020405
      ],
      [
        "▁particularly",
        -10.159595076661274
      ],
      [
        "▁pulling",
        -10.159685863481055
      ],
      [
        "k.",
        -10.160255224500641
      ],
      [
        "▁*fat:\ta",
        -10.160466626414081
      ],
      [
        "▁she'd",
        -10.161180133854465
      ],
      [
        "▁excuse",
        -10.161729895395677
      ],
      [
        "▁*glo:\t",
        -10.161967685732089
      ],
      [
        "▁*mot:\tat",
        -10.162691409165507
      ],
      [
        "6]",
        -10.163592888067082
      ],
      [
        "▁*chi:\t[giggles]",
        -10.163603999751595
      ],
      [
        "▁laugh]",
        -10.163760418926636
      ],
      [
        "▁*mch:\txxx",
        -10.164375980389341
      ],
      [
        "▁unless",
        -10.164832570069526
      ],
      [
        "▁eggs",
        -10.16491483209209
      ],
      [
        "▁horsie",
        -10.16536886664624
      ],
      [
        "▁add",
        -10.165931598527628
      ],
      [
        "▁*mot:\tuhoh",
        -10.166072575409256
      ],
      [
        "▁clown",
        -10.166789642483334
      ],
      [
        "▁seconds",
        -10.16698513259545
      ],
      [
        "▁eh?",
        -10.167228138043871
      ],
      [
        "▁recording",
        -10.167570271215904
      ],
      [
        "▁*fat:\tlook",
        -10.168355835652822
      ],
      [
        "put",
        -10.169573633168302
      ],
      [
        "▁cream.",
        -10.169661967515921
      ],
      [
        "▁herself",
        -10.169665561480318
      ],
      [
        "▁eighteen",
        -10.170359272646323
      ],
      [
        "▁ground",
        -10.172065096898294
      ],
      [
        "▁down,",
        -10.173479712423383
      ],
      [
        "▁poo",
        -10.17435009286143
      ],
      [
        "▁decided",
        -10.174580952039562
      ],
      [
        "3",
        -10.17461458661943
      ],
      [
        "▁involved",
        -10.174628482574061
      ],
      [
        "▁*mot:\tgot",
        -10.175499167263677
      ],
      [
        "▁national",
        -10.175520536364541
      ],
      [
        "▁shopping",
        -10.176838108528894
      ],
      [
        "▁mess.",
        -10.176864350511584
      ],
      [
        "▁market",
        -10.177121952280718
      ],
      [
        "▁rustling]",
        -10.177303559296023
      ],
      [
        "▁sure.",
        -10.177700735999625
      ],
      [
        "▁worth",
        -10.178740500810305
      ],
      [
        "▁flat",
        -10.179251892397659
      ],
      [
        "▁underneath",
        -10.179575032773808
      ],
      [
        "▁zoo",
        -10.179978631034665
      ],
      [
        "▁mickey",
        -10.180528373630894
      ],
      [
        "▁mama.",
        -10.18069104839646
      ],
      [
        "7",
        -10.18081569974672
      ],
      [
        "▁*mot:\tgood.",
        -10.181126545694124
      ],
      [
        "▁ba",
        -10.181887570859267
      ],
      [
        "▁wood",
        -10.183347157909905
      ],
      [
        "▁[a",
        -10.18375223135186
      ],
      [
        "▁dunno.",
        -10.184286472859299
      ],
      [
        "▁laughing",
        -10.184460028690818
      ],
      [
        "▁inside.",
        -10.185018202565969
      ],
      [
        "▁eight.",
        -10.185914490261382
      ],
      [
        "▁head?",
        -10.185957973177327
      ],
      [
        "▁spider",
        -10.185961326589524
      ],
      [
        "▁*fat:\tmhm.",
        -10.18608283080318
      ],
      [
        "▁teeth.",
        -10.186194088041248
      ],
      [
        "▁yyy",
        -10.186479439190702
      ],
      [
        "▁broken.",
        -10.186698151644793
      ],
      [
        "▁pages",
        -10.187463841051493
      ],
      [
        "▁tonight",
        -10.187898545180701
      ],
      [
        "ge",
        -10.188929473582512
      ],
      [
        "▁[g",
        -10.189310734454562
      ],
      [
        "▁*fat:\tso",
        -10.189680514714315
      ],
      [
        "▁wednesday",
        -10.189900229457905
      ],
      [
        "▁seven.",
        -10.190150773213308
      ],
      [
        "▁lord",
        -10.191493022200634
      ],
      [
        "▁price",
        -10.191596876565267
      ],
      [
        "▁*chi:\tdat",
        -10.192381094698264
      ],
      [
        "▁spot",
        -10.192794582788547
      ],
      [
        "▁*inv:\tdoes",
        -10.193354489861115
      ],
      [
        "▁older",
        -10.19350413202471
      ],
      [
        "▁aha.",
        -10.193516486630513
      ],
      [
        "▁speaking",
        -10.193542279646081
      ],
      [
        "▁orange.",
        -10.19421482281592
      ],
      [
        "▁*mel:\t",
        -10.194489963218679
      ],
      [
        "▁pig",
        -10.195220407480384
      ],
      [
        "▁tall",
        -10.19544911109924
      ],
      [
        "▁*mot:\tmake",
        -10.19559879818613
      ],
      [
        "▁bike",
        -10.196608790531887
      ],
      [
        "▁*chi:\tp",
        -10.198063304950495
      ],
      [
        "▁jwww's",
        -10.199110102785209
      ],
      [
        "▁grass",
        -10.199423167910023
      ],
      [
        "▁*mot:\tlittle",
        -10.199708351344619
      ],
      [
        "▁tail.",
        -10.200289133721824
      ],
      [
        "1",
        -10.20108767661798
      ],
      [
        "▁dance",
        -10.201192678979181
      ],
      [
        "[makes",
        -10.201348331443011
      ],
      [
        "▁knocked",
        -10.201877688562682
      ],
      [
        "▁kick",
        -10.202399294793116
      ],
      [
        "▁labour",
        -10.20242620816706
      ],
      [
        "▁nina",
        -10.202716321889579
      ],
      [
        "▁sets",
        -10.202857493864396
      ],
      [
        "▁chicken.",
        -10.204637740241138
      ],
      [
        "▁hair?",
        -10.204712844220035
      ],
      [
        "▁dogs",
        -10.2055696642166
      ],
      [
        "▁lisa",
        -10.206594066612833
      ],
      [
        "▁bridge",
        -10.20666994333942
      ],
      [
        "▁barn",
        -10.20775586672311
      ],
      [
        "▁doggy",
        -10.208535387085249
      ],
      [
        "▁*chi:\tuhuh.",
        -10.208811140520417
      ],
      [
        "▁lunch.",
        -10.209170458444106
      ],
      [
        "▁mouse.",
        -10.209419450097935
      ],
      [
        "▁*chi:\twill",
        -10.20945700555162
      ],
      [
        "▁jelly",
        -10.211121200804218
      ],
      [
        "▁yesterday.",
        -10.211133725830955
      ],
      [
        "▁*inv1:\t",
        -10.21130035069783
      ],
      [
        "▁tony",
        -10.211713366239614
      ],
      [
        "▁list",
        -10.212169823276167
      ],
      [
        "▁*inv:\tshe",
        -10.213251087932553
      ],
      [
        "▁*inv:\tthey",
        -10.213347247112956
      ],
      [
        "▁*chi:\t[puts",
        -10.213390234385026
      ],
      [
        "▁stuck.",
        -10.213868879159268
      ],
      [
        "▁fence",
        -10.213932391107186
      ],
      [
        "▁month",
        -10.214227549909603
      ],
      [
        "▁thursday",
        -10.214571055487887
      ],
      [
        "▁mother's",
        -10.21529471822886
      ],
      [
        "▁everything.",
        -10.215319668645332
      ],
      [
        "▁[singing]",
        -10.21645731978224
      ],
      [
        "▁*nan:\twhat",
        -10.21671346328662
      ],
      [
        "▁today,",
        -10.217732400530055
      ],
      [
        "▁birds",
        -10.218137795165312
      ],
      [
        "▁mind.",
        -10.218491028872645
      ],
      [
        "on.",
        -10.218606266643278
      ],
      [
        "▁said.",
        -10.219414100269596
      ],
      [
        "▁anywhere",
        -10.222018506434868
      ],
      [
        "▁*mot:\toops",
        -10.222162523211114
      ],
      [
        "s].",
        -10.222420204767943
      ],
      [
        "▁want?",
        -10.222514665209507
      ],
      [
        "▁closed",
        -10.222890893323424
      ],
      [
        "▁milk?",
        -10.223070686751296
      ],
      [
        "▁*chi:\tor",
        -10.223382280511682
      ],
      [
        "▁magnet",
        -10.223405340394471
      ],
      [
        "▁won",
        -10.22346311163833
      ],
      [
        "▁wipe",
        -10.224109784554063
      ],
      [
        "let's",
        -10.224196625279024
      ],
      [
        "▁*chi:\tthree.",
        -10.224468702436633
      ],
      [
        "▁*inv:\tright.",
        -10.224596454310099
      ],
      [
        "▁*mot:\tbaby",
        -10.225108080001787
      ],
      [
        "▁laugh",
        -10.225400891816733
      ],
      [
        "▁*chi:\tyour",
        -10.226102831208589
      ],
      [
        "[",
        -10.226736301291979
      ],
      [
        "▁*inv:\twho",
        -10.227334897417933
      ],
      [
        "▁*mar:\tyeah",
        -10.228251657696145
      ],
      [
        "▁radio",
        -10.228831381521974
      ],
      [
        "▁boo",
        -10.229075244090485
      ],
      [
        "▁*chi:\tow.",
        -10.229317963434085
      ],
      [
        "▁starting",
        -10.229905752905474
      ],
      [
        "▁co",
        -10.23086620701423
      ],
      [
        "▁*chi:\tanother",
        -10.231575449414507
      ],
      [
        "▁look!",
        -10.231765915128594
      ],
      [
        "▁*chi:\tm",
        -10.231823499258152
      ],
      [
        "▁others",
        -10.231963656408197
      ],
      [
        "▁rabbit.",
        -10.231992910119736
      ],
      [
        "▁situation",
        -10.232499889687247
      ],
      [
        "▁longer",
        -10.233473218746237
      ],
      [
        "▁*fat:\twho",
        -10.234437322208716
      ],
      [
        "▁games",
        -10.234806900207307
      ],
      [
        "▁*chi:\t[coughs]",
        -10.235264297938135
      ],
      [
        "▁sand",
        -10.235758173309915
      ],
      [
        "▁age",
        -10.236127526371108
      ],
      [
        "▁basket",
        -10.236932282145533
      ],
      [
        "▁*mot:\toops.",
        -10.237279589631427
      ],
      [
        "▁*chi:\t[laugh]",
        -10.237892092862598
      ],
      [
        "▁fight",
        -10.23818148888818
      ],
      [
        "▁mirror",
        -10.238522803710257
      ],
      [
        "▁objects",
        -10.238666824765005
      ],
      [
        "▁camera]",
        -10.238908320733412
      ],
      [
        "▁eleanor",
        -10.23912781537361
      ],
      [
        "▁2",
        -10.239360313471124
      ],
      [
        "▁attention",
        -10.239757617136807
      ],
      [
        "▁[4",
        -10.24028982039875
      ],
      [
        "▁y'",
        -10.240871508431098
      ],
      [
        "▁coffee.",
        -10.241103038718789
      ],
      [
        "▁farm.",
        -10.242563699155859
      ],
      [
        "▁computer",
        -10.243010639572075
      ],
      [
        "▁yet?",
        -10.243117928177508
      ],
      [
        "▁tidy",
        -10.243358302373338
      ],
      [
        "▁*mot:\twhoa",
        -10.245193063712215
      ],
      [
        "▁nine.",
        -10.24534691721529
      ],
      [
        "▁*chi:\tnope",
        -10.245982225179299
      ],
      [
        "▁her?",
        -10.246810920100526
      ],
      [
        "▁*fat:\ti'm",
        -10.24745409737019
      ],
      [
        "▁yum",
        -10.24755553867745
      ],
      [
        "▁recorder",
        -10.248194940069773
      ],
      [
        "▁bad.",
        -10.248629122923013
      ],
      [
        "▁plan",
        -10.249331280071464
      ],
      [
        "▁*chi:\tan",
        -10.249864506689171
      ],
      [
        "▁puppy",
        -10.251293860108216
      ],
      [
        "▁ear",
        -10.251560830498565
      ],
      [
        "▁basically",
        -10.251635105621315
      ],
      [
        "she",
        -10.251747351720926
      ],
      [
        "▁development",
        -10.252467544231383
      ],
      [
        "▁lwww",
        -10.253296491325797
      ],
      [
        "▁*jw:\t",
        -10.253447584954639
      ],
      [
        "▁color.",
        -10.25345494614331
      ],
      [
        "▁lorry",
        -10.253540007547917
      ],
      [
        "▁*col:\t",
        -10.25395522140212
      ],
      [
        "▁girl?",
        -10.254068258268678
      ],
      [
        "▁expect",
        -10.254311537948668
      ],
      [
        "▁blanket",
        -10.255169389618175
      ],
      [
        "▁park.",
        -10.255531462648586
      ],
      [
        "▁glad",
        -10.256339376727862
      ],
      [
        "▁*chi:\tthose",
        -10.257062375139443
      ],
      [
        "▁*geo:\t",
        -10.258263228430948
      ],
      [
        "▁toy.",
        -10.25998940003227
      ],
      [
        "▁good!",
        -10.260120532558314
      ],
      [
        "just",
        -10.260760761716082
      ],
      [
        "▁gas",
        -10.260947442177539
      ],
      [
        "▁pet",
        -10.261076588553234
      ],
      [
        "▁sea",
        -10.261119532657357
      ],
      [
        "▁doggie",
        -10.261357661375683
      ],
      [
        "▁steven",
        -10.262963482656176
      ],
      [
        "qu",
        -10.262963731520255
      ],
      [
        "▁him,",
        -10.263933713666393
      ],
      [
        "▁myself.",
        -10.264191013600751
      ],
      [
        "ley",
        -10.26570543712052
      ],
      [
        "▁1",
        -10.26626018148178
      ],
      [
        "▁yo",
        -10.266348518968009
      ],
      [
        "▁wow.",
        -10.266795735610927
      ],
      [
        "▁bank",
        -10.267200264991004
      ],
      [
        "▁second.",
        -10.267355145736818
      ],
      [
        "▁jenny",
        -10.267516810931305
      ],
      [
        "▁fireman",
        -10.267718045418647
      ],
      [
        "▁elephant.",
        -10.267863540377475
      ],
      [
        "▁[continues",
        -10.269825847257708
      ],
      [
        "▁sense",
        -10.271336319406837
      ],
      [
        "▁imagine",
        -10.271506257454122
      ],
      [
        "▁engine.",
        -10.271880475125212
      ],
      [
        "▁seeing",
        -10.272027121818702
      ],
      [
        "▁hat?",
        -10.272059338923405
      ],
      [
        "▁sarah",
        -10.272130489121222
      ],
      [
        "▁dere.",
        -10.272671411801042
      ],
      [
        "▁*jo:\t",
        -10.27296381710585
      ],
      [
        "▁child.",
        -10.273411716427033
      ],
      [
        "▁road.",
        -10.273990494427087
      ],
      [
        "▁*chi:\tbye",
        -10.274175388552322
      ],
      [
        "▁major",
        -10.274197357231944
      ],
      [
        "▁laughs",
        -10.274910279265448
      ],
      [
        "▁watch.",
        -10.27497877965953
      ],
      [
        "▁easter",
        -10.275659944929806
      ],
      [
        "ness",
        -10.275754692729052
      ],
      [
        "▁*mot:\tcould",
        -10.276322787866146
      ],
      [
        "▁*exp:\tum",
        -10.276353318087011
      ],
      [
        "▁double",
        -10.276763585290793
      ],
      [
        "▁ahead.",
        -10.277619315655443
      ],
      [
        "▁driver",
        -10.278609231687795
      ],
      [
        "▁haha.",
        -10.278844688629327
      ],
      [
        "▁sp",
        -10.27984496808607
      ],
      [
        "▁shoe.",
        -10.279849948330138
      ],
      [
        "▁coloring",
        -10.279973181115349
      ],
      [
        "▁staff",
        -10.280165468209908
      ],
      [
        "▁*chi:\tmake",
        -10.280417443907197
      ],
      [
        "▁closes",
        -10.280528153359818
      ],
      [
        "▁york",
        -10.280795554231567
      ],
      [
        "▁helping",
        -10.280840629727635
      ],
      [
        "ble",
        -10.281181766509942
      ],
      [
        "▁[moves",
        -10.2814938661905
      ],
      [
        "▁fast.",
        -10.281589403441538
      ],
      [
        "▁van",
        -10.28175428976893
      ],
      [
        "tic",
        -10.282689758140293
      ],
      [
        "▁picture?",
        -10.283170800413554
      ],
      [
        "▁showing",
        -10.2833670703661
      ],
      [
        "▁spend",
        -10.283968969152674
      ],
      [
        "▁*chi:\tshall",
        -10.28425140729182
      ],
      [
        "▁*fat:\tare",
        -10.28459396875516
      ],
      [
        "▁correct",
        -10.284842380780182
      ],
      [
        "▁*exp:\tyeah",
        -10.285060863699503
      ],
      [
        "▁hello.",
        -10.285165739511495
      ],
      [
        "▁throwing",
        -10.285573424298734
      ],
      [
        "▁control",
        -10.286140664320595
      ],
      [
        "▁up!",
        -10.286738948126114
      ],
      [
        "▁meat",
        -10.288342372943623
      ],
      [
        "▁calling",
        -10.288420431941734
      ],
      [
        "▁*inv:\tgood",
        -10.28846952789807
      ],
      [
        "▁sick",
        -10.288583389330835
      ],
      [
        "▁*fat:\tbut",
        -10.289553498366416
      ],
      [
        "▁background",
        -10.2896035296226
      ],
      [
        "▁*par:\tmhm",
        -10.290047327248878
      ],
      [
        "▁kitchen.",
        -10.29034508111487
      ],
      [
        "▁*nan:\toh",
        -10.290756051605248
      ],
      [
        "▁*chi:\tbaby.",
        -10.2908601868955
      ],
      [
        "▁match",
        -10.290870150562151
      ],
      [
        "ng",
        -10.291362003109514
      ],
      [
        "▁quack",
        -10.291793615432333
      ],
      [
        "▁*chi:\t[sings]",
        -10.29192801513748
      ],
      [
        "▁crying.",
        -10.292127768448758
      ],
      [
        "▁actually.",
        -10.29221547082064
      ],
      [
        "▁ya.",
        -10.293083938030534
      ],
      [
        "4",
        -10.294518933110268
      ],
      [
        "▁cutting",
        -10.294591283655688
      ],
      [
        "▁shop.",
        -10.295327800687511
      ],
      [
        "▁firstname",
        -10.296152708990306
      ],
      [
        "▁bedroom",
        -10.296382950090164
      ],
      [
        "▁union",
        -10.296750069583442
      ],
      [
        "▁hands]",
        -10.29712053287382
      ],
      [
        "▁there!",
        -10.297632478428113
      ],
      [
        "▁*chi:\tma",
        -10.297775752815912
      ],
      [
        "▁cookie.",
        -10.297789904918485
      ],
      [
        "[vocalization]",
        -10.297938737359258
      ],
      [
        "▁noise?",
        -10.297986922558515
      ],
      [
        "▁tonight.",
        -10.298353105225337
      ],
      [
        "▁figures",
        -10.299434693954373
      ],
      [
        "▁*mot:\tcan't",
        -10.299569730222215
      ],
      [
        "▁way?",
        -10.299877083397318
      ],
      [
        "for",
        -10.300142174663474
      ],
      [
        "▁owl",
        -10.3006960102154
      ],
      [
        "▁*chi:\ter",
        -10.300696029697129
      ],
      [
        "▁work?",
        -10.301278246966877
      ],
      [
        "▁*par3:\t",
        -10.301610019525489
      ],
      [
        "▁written",
        -10.301859086710566
      ],
      [
        "▁lines",
        -10.302062597765895
      ],
      [
        "▁possible",
        -10.302381051760126
      ],
      [
        "▁*loi:\twhat",
        -10.302770787697703
      ],
      [
        "▁*inv:\tmaybe",
        -10.302859861379016
      ],
      [
        "▁tank",
        -10.304263561797658
      ],
      [
        "ring",
        -10.304452188569499
      ],
      [
        "▁*mot:\tanother",
        -10.304569179393091
      ],
      [
        "▁sa",
        -10.305158509728416
      ],
      [
        "▁tower",
        -10.305894654960358
      ],
      [
        "▁follow",
        -10.306122313892878
      ],
      [
        "let",
        -10.306201681466511
      ],
      [
        "▁*lyn:\t",
        -10.306559492916374
      ],
      [
        "see",
        -10.306698039847005
      ],
      [
        "▁%add:\tste",
        -10.306866160301707
      ],
      [
        "[laughing].",
        -10.30877326388409
      ],
      [
        "▁somethin'",
        -10.309718463812333
      ],
      [
        "▁tea?",
        -10.309724519421557
      ],
      [
        "▁shakes",
        -10.310420604774809
      ],
      [
        "▁*mot:\tan",
        -10.311502694080025
      ],
      [
        "▁chance",
        -10.31304594112154
      ],
      [
        "▁woke",
        -10.313270417859684
      ],
      [
        "▁touches",
        -10.313947055132832
      ],
      [
        "ve",
        -10.31444883967685
      ],
      [
        "▁eaten",
        -10.31454474426683
      ],
      [
        "▁*chi:\tthat.",
        -10.315225032717208
      ],
      [
        "▁several",
        -10.315716300248553
      ],
      [
        "▁*chi:\tmhm",
        -10.317651604001364
      ],
      [
        "▁tip",
        -10.317939828683933
      ],
      [
        "▁afraid",
        -10.318027089299843
      ],
      [
        "▁dee",
        -10.318849008778024
      ],
      [
        "▁*mot:\tchi",
        -10.31888430022445
      ],
      [
        "▁*chi:\twait",
        -10.320106705178254
      ],
      [
        "▁*fat:\tthis",
        -10.320113664298184
      ],
      [
        "▁state",
        -10.321329718101836
      ],
      [
        "▁blow",
        -10.32138549897633
      ],
      [
        "▁horses",
        -10.321910124412627
      ],
      [
        "thank",
        -10.322194348004254
      ],
      [
        "▁true",
        -10.322389227933487
      ],
      [
        "▁silence",
        -10.322737447549908
      ],
      [
        "▁way,",
        -10.323049630176431
      ],
      [
        "▁*a1:\t",
        -10.32392010234364
      ],
      [
        "▁*dad:\t",
        -10.32398892605492
      ],
      [
        "▁airplane",
        -10.324316059693302
      ],
      [
        "▁[p",
        -10.324477690930596
      ],
      [
        "▁notice",
        -10.324487336951924
      ],
      [
        "▁houses",
        -10.326771327653628
      ],
      [
        "▁*chi:\tlittle",
        -10.326889513198164
      ],
      [
        "▁circle.",
        -10.32715408985864
      ],
      [
        "▁meal",
        -10.328043791681733
      ],
      [
        "▁says,",
        -10.328101947708614
      ],
      [
        "▁beach",
        -10.32834619578469
      ],
      [
        "▁rings",
        -10.329069574251008
      ],
      [
        "▁*mot:\twere",
        -10.32948730123261
      ],
      [
        "▁*exp:\tmhm.",
        -10.330098674251982
      ],
      [
        "▁better?",
        -10.331127966887383
      ],
      [
        "▁pitched",
        -10.332223871822958
      ],
      [
        "▁action",
        -10.332507471010356
      ],
      [
        "▁*chi:\t[take",
        -10.332616963611017
      ],
      [
        "▁*mot:\tplease",
        -10.332667755118695
      ],
      [
        "▁*mot:\td'",
        -10.333049692195846
      ],
      [
        "▁light.",
        -10.333332071760553
      ],
      [
        "▁*mot:\tpush",
        -10.333663524717064
      ],
      [
        "▁drink?",
        -10.33419282347921
      ],
      [
        "▁easier",
        -10.334886894544422
      ],
      [
        "▁mhm",
        -10.335042447896281
      ],
      [
        "▁*a:\t",
        -10.33575861900518
      ],
      [
        "▁wife",
        -10.335777953497335
      ],
      [
        "▁london",
        -10.337541455189582
      ],
      [
        "▁um.",
        -10.337609678337724
      ],
      [
        "▁[cj",
        -10.338015215435103
      ],
      [
        "▁bother",
        -10.339356450171447
      ],
      [
        "▁*chi:\t[gasps]",
        -10.34079389690734
      ],
      [
        "▁dancing",
        -10.340914749100325
      ],
      [
        "▁moon.",
        -10.341746561545051
      ],
      [
        "▁[overlap",
        -10.34186977340029
      ],
      [
        "▁ago.",
        -10.34239594660751
      ],
      [
        "▁pretending",
        -10.342602530114995
      ],
      [
        "▁otherwise",
        -10.343434300204729
      ],
      [
        "▁lived",
        -10.343500024022731
      ],
      [
        "▁right!",
        -10.343624483873231
      ],
      [
        "ding",
        -10.343841690146412
      ],
      [
        "▁jacket",
        -10.344857260886188
      ],
      [
        "▁yourself.",
        -10.345180027202126
      ],
      [
        "▁*chi:\toh,",
        -10.345979813429537
      ],
      [
        "▁[bef",
        -10.3461643186727
      ],
      [
        "▁tickle",
        -10.347175869809071
      ],
      [
        "▁*ger:\t",
        -10.347211141808971
      ],
      [
        "where",
        -10.347912031963832
      ],
      [
        "▁*chi:\tdad",
        -10.34792152826881
      ],
      [
        "▁gb",
        -10.348662317934398
      ],
      [
        "▁soon.",
        -10.349036542868896
      ],
      [
        "▁*kar:\t",
        -10.349096227090547
      ],
      [
        "▁*mot:\tmummy's",
        -10.349658100157068
      ],
      [
        "▁pulled",
        -10.349825690230773
      ],
      [
        "▁clearly",
        -10.350899088379798
      ],
      [
        "age",
        -10.351050762901965
      ],
      [
        "▁date",
        -10.351474618627464
      ],
      [
        "▁*tea:\ti",
        -10.352851842264272
      ],
      [
        "▁pair",
        -10.352897342941052
      ],
      [
        "▁calls",
        -10.353220000418112
      ],
      [
        "▁door?",
        -10.353303010045773
      ],
      [
        "i'll",
        -10.353380152408487
      ],
      [
        "▁single",
        -10.354579472306746
      ],
      [
        "▁response",
        -10.355073594778833
      ],
      [
        "▁sings",
        -10.355645239876711
      ],
      [
        "▁[whispers].",
        -10.356121698151782
      ],
      [
        "▁dolls",
        -10.35654710480294
      ],
      [
        "▁candy",
        -10.356906109822656
      ],
      [
        "▁[they",
        -10.357069553453774
      ],
      [
        "▁example",
        -10.35737560975757
      ],
      [
        "▁become",
        -10.357501306184105
      ],
      [
        "▁*chi:\tread",
        -10.35857273784781
      ],
      [
        "▁room?",
        -10.358713892637848
      ],
      [
        "▁ears.",
        -10.358733812519956
      ],
      [
        "▁lot.",
        -10.359427667988404
      ],
      [
        "▁decide",
        -10.359691481659674
      ],
      [
        "▁*chi:\tplease",
        -10.360301052226456
      ],
      [
        "▁programme",
        -10.360927323045
      ],
      [
        "▁mad",
        -10.361400404701017
      ],
      [
        "▁back]",
        -10.362129122127996
      ],
      [
        "▁*chi:\tblue.",
        -10.36226700136287
      ],
      [
        "▁therefore",
        -10.362379770102965
      ],
      [
        "▁*mot:\tshow",
        -10.363105696471653
      ],
      [
        "▁*chi:\tda",
        -10.363435709825954
      ],
      [
        "▁nose?",
        -10.363500068345894
      ],
      [
        "▁*mot:\t[laugh]",
        -10.364610316016156
      ],
      [
        "▁cannot",
        -10.36477569233556
      ],
      [
        "▁cuts",
        -10.365106916962965
      ],
      [
        "▁kinds",
        -10.36535001444806
      ],
      [
        "▁enjoy",
        -10.36569347185781
      ],
      [
        "▁bowl.",
        -10.366799311821461
      ],
      [
        "▁named",
        -10.366958619137495
      ],
      [
        "▁cars.",
        -10.367023091110694
      ],
      [
        "▁*chi:\too",
        -10.367957043918814
      ],
      [
        "▁british",
        -10.368118961349111
      ],
      [
        "▁yyy.",
        -10.369448621378961
      ],
      [
        "▁*chi:\teh.",
        -10.369514320471776
      ],
      [
        "▁sorts",
        -10.369515007707513
      ],
      [
        "▁bear?",
        -10.369606417536486
      ],
      [
        "▁join",
        -10.37013480308135
      ],
      [
        "▁am.",
        -10.37018682093547
      ],
      [
        "▁page?",
        -10.370541403579965
      ],
      [
        "▁puzzle.",
        -10.370940514192764
      ],
      [
        "▁cereal",
        -10.371441181763167
      ],
      [
        "▁*lau:\t",
        -10.371466824092938
      ],
      [
        "▁mary",
        -10.371528725676562
      ],
      [
        "▁really?",
        -10.371701941855305
      ],
      [
        "▁magic",
        -10.373332904259058
      ],
      [
        "▁cookies",
        -10.373573781673231
      ],
      [
        "▁*fat:\tlet's",
        -10.373709284248912
      ],
      [
        "▁slice",
        -10.37375544131988
      ],
      [
        "▁*mot:\td",
        -10.373801528417697
      ],
      [
        "▁painting",
        -10.375045722530476
      ],
      [
        "▁sam",
        -10.375857321492052
      ],
      [
        "ll",
        -10.376465063075905
      ],
      [
        "▁chairman",
        -10.376686714531644
      ],
      [
        "▁*chi:\t[shakes",
        -10.376875595350356
      ],
      [
        "▁butterfly",
        -10.376882143951025
      ],
      [
        "▁*chi:\tsay",
        -10.377799500785398
      ],
      [
        "▁*tca:\t",
        -10.377964270035605
      ],
      [
        "▁*mot:\taw",
        -10.377983461332564
      ],
      [
        "▁themselves",
        -10.378032761988486
      ],
      [
        "▁[laughing]",
        -10.378355677458158
      ],
      [
        "▁*chi:\tsit",
        -10.378598712361086
      ],
      [
        "why",
        -10.378754336943938
      ],
      [
        "▁*chi:\tme.",
        -10.378905394665585
      ],
      [
        "▁mix",
        -10.379274919256524
      ],
      [
        "▁normal",
        -10.379438601982173
      ],
      [
        "▁sticker",
        -10.380471057619001
      ],
      [
        "▁oven",
        -10.380810429247914
      ],
      [
        "that",
        -10.381162645010912
      ],
      [
        "▁*chi:\tuhoh.",
        -10.381331617631297
      ],
      [
        "▁plant",
        -10.381714958529956
      ],
      [
        "▁cute",
        -10.382089844962621
      ],
      [
        "▁left.",
        -10.38224431179907
      ],
      [
        "▁cool.",
        -10.382690931811839
      ],
      [
        "▁stayed",
        -10.382754373675782
      ],
      [
        "▁and...",
        -10.382893450352338
      ],
      [
        "▁dustbin",
        -10.383097638527154
      ],
      [
        "▁*mot:\this",
        -10.3831363725258
      ],
      [
        "▁*chi:\tplay",
        -10.383618098956756
      ],
      [
        "▁*chi:\tcould",
        -10.383709972633316
      ],
      [
        "▁together]",
        -10.383994874202088
      ],
      [
        "▁following",
        -10.384219847748447
      ],
      [
        "▁*exp:\twell",
        -10.38457297427447
      ],
      [
        "▁bag]",
        -10.38525138719263
      ],
      [
        "▁pencil",
        -10.386425513189348
      ],
      [
        "▁tax",
        -10.386852935555018
      ],
      [
        "▁[holding",
        -10.386963766342024
      ],
      [
        "▁upon",
        -10.387089062100927
      ],
      [
        "ill",
        -10.387167401622275
      ],
      [
        "▁*inv:\txxx",
        -10.388354396450351
      ],
      [
        "▁dolly",
        -10.3887612332865
      ],
      [
        "▁*mot:\tp",
        -10.389393338517689
      ],
      [
        "▁motion",
        -10.389886639991282
      ],
      [
        "▁jesus",
        -10.390185900705813
      ],
      [
        "▁*mot:\tyay",
        -10.390235966341852
      ],
      [
        "▁o'clock.",
        -10.39048893001949
      ],
      [
        "▁pushing",
        -10.390648991818535
      ],
      [
        "▁various",
        -10.390666705362445
      ],
      [
        "▁*nic:\t",
        -10.390795370964382
      ],
      [
        "▁scary",
        -10.39085492898165
      ],
      [
        "▁fill",
        -10.391285050455753
      ],
      [
        "▁doll]",
        -10.391373624633006
      ],
      [
        "▁paying",
        -10.39139676140911
      ],
      [
        "▁*chi:\tbe",
        -10.391466143601011
      ],
      [
        "▁guess.",
        -10.392410765718253
      ],
      [
        "▁lion.",
        -10.392651195787568
      ],
      [
        "▁*exp:\tright.",
        -10.39267177453424
      ],
      [
        "▁outside?",
        -10.392822389604905
      ],
      [
        "▁[he",
        -10.393152430475222
      ],
      [
        "▁activity",
        -10.393246844545727
      ],
      [
        "▁row",
        -10.393452084863299
      ],
      [
        "▁mentioned",
        -10.39491233590665
      ],
      [
        "▁%add:\tbro",
        -10.39496837074027
      ],
      [
        "▁*fat:\tsee",
        -10.395195311476503
      ],
      [
        "▁nap",
        -10.395542458759916
      ],
      [
        "▁somewhere.",
        -10.395715374325302
      ],
      [
        "▁jeannine",
        -10.39583701657565
      ],
      [
        "▁west",
        -10.39590829628468
      ],
      [
        "okay.",
        -10.395946496223406
      ],
      [
        "▁*fat:\tyes.",
        -10.396133747351442
      ],
      [
        "▁james",
        -10.39706082186332
      ],
      [
        "▁*fat:\tright.",
        -10.397073609661412
      ],
      [
        "▁shapes",
        -10.397251777774045
      ],
      [
        "▁color?",
        -10.39731235290217
      ],
      [
        "▁hole.",
        -10.39737313543758
      ],
      [
        "▁yummy",
        -10.397667966370392
      ],
      [
        "▁morning?",
        -10.397955997400029
      ],
      [
        "▁hate",
        -10.398255222332516
      ],
      [
        "▁hand?",
        -10.398569334168492
      ],
      [
        "▁*mot:\tc",
        -10.398666886171153
      ],
      [
        "▁*mot:\tnope",
        -10.399284512244977
      ],
      [
        "▁*inv:\thm",
        -10.399360121896109
      ],
      [
        "get",
        -10.3996152878775
      ],
      [
        "▁brian",
        -10.399865299318868
      ],
      [
        "like",
        -10.399965421498454
      ],
      [
        "▁test",
        -10.40019665642497
      ],
      [
        "▁services",
        -10.400330896818144
      ],
      [
        "▁planning",
        -10.401175223845186
      ],
      [
        "▁sis",
        -10.401395037205559
      ],
      [
        "▁*fat:\there",
        -10.402284422486495
      ],
      [
        "▁talked",
        -10.402471438142879
      ],
      [
        "▁mat",
        -10.404422481073317
      ],
      [
        "▁steps",
        -10.405149943108924
      ],
      [
        "▁hop",
        -10.405716272822447
      ],
      [
        "▁grabs",
        -10.405892110989914
      ],
      [
        "▁hurt.",
        -10.40605554802347
      ],
      [
        "▁steve",
        -10.40618209063543
      ],
      [
        "▁joe",
        -10.40668243535233
      ],
      [
        "▁*mch:\tno",
        -10.40703266630441
      ],
      [
        "▁washed",
        -10.407300150233674
      ],
      [
        "▁helps",
        -10.407670329820284
      ],
      [
        "▁course,",
        -10.407737079793126
      ],
      [
        "▁*par1:\tmhm",
        -10.407839229578316
      ],
      [
        "▁tin",
        -10.408407806985409
      ],
      [
        "▁caterpillar",
        -10.408715065774064
      ],
      [
        "▁except",
        -10.41011064137171
      ],
      [
        "▁threw",
        -10.411556034826834
      ],
      [
        "▁apple.",
        -10.41204614543954
      ],
      [
        "▁loads",
        -10.412148498249884
      ],
      [
        "▁snake.",
        -10.412380652305522
      ],
      [
        "▁*chi:\t'",
        -10.412883604087627
      ],
      [
        "▁experience",
        -10.413716665795702
      ],
      [
        "▁day?",
        -10.413772777488315
      ],
      [
        "▁*chi:\ther",
        -10.414110950387581
      ],
      [
        "▁bee",
        -10.414635608386115
      ],
      [
        "▁tractor",
        -10.41532494069602
      ],
      [
        "▁ten.",
        -10.415720464351388
      ],
      [
        "▁swim",
        -10.416032522582576
      ],
      [
        "▁fairly",
        -10.416110551333217
      ],
      [
        "▁together?",
        -10.416253815083227
      ],
      [
        "▁lock",
        -10.416810351304568
      ],
      [
        "▁pie",
        -10.417078119845277
      ],
      [
        "▁*chi:\tgoing",
        -10.418115249772292
      ],
      [
        "▁out]",
        -10.418143434079985
      ],
      [
        "▁line.",
        -10.418489491593146
      ],
      [
        "▁penny",
        -10.418669712298163
      ],
      [
        "▁*inv:\tno.",
        -10.418686733592278
      ],
      [
        "oo.",
        -10.418755320144388
      ],
      [
        "▁[no",
        -10.419029314090626
      ],
      [
        "▁[gives",
        -10.419385640650795
      ],
      [
        "▁fox",
        -10.42074335053979
      ],
      [
        "▁*chi:\thello",
        -10.420853493583127
      ],
      [
        "ful",
        -10.421040845230195
      ],
      [
        "▁*chi:\tblue",
        -10.421728498287276
      ],
      [
        "▁table?",
        -10.421794279530367
      ],
      [
        "▁babies.",
        -10.422349646192494
      ],
      [
        "▁evening",
        -10.422457298459584
      ],
      [
        "▁moment.",
        -10.42386509152471
      ],
      [
        "▁pictures.",
        -10.424237441883896
      ],
      [
        "▁stop.",
        -10.424817333354103
      ],
      [
        "▁bo",
        -10.425242603301324
      ],
      [
        "ated",
        -10.425354494905454
      ],
      [
        "▁cooking",
        -10.426110973058268
      ],
      [
        "▁son",
        -10.426927148195178
      ],
      [
        "▁boots",
        -10.42693408895273
      ],
      [
        "▁legs.",
        -10.426960928422872
      ],
      [
        "▁policeman",
        -10.427163855786834
      ],
      [
        "▁*chi:\tfour.",
        -10.427176068793315
      ],
      [
        "who",
        -10.427302978083015
      ],
      [
        "▁pan",
        -10.427962960947173
      ],
      [
        "out",
        -10.428098753041704
      ],
      [
        "▁*mat:\t",
        -10.428327459245386
      ],
      [
        "▁language",
        -10.428424306047198
      ],
      [
        "▁*adu:\twhat",
        -10.428632263377175
      ],
      [
        "▁*chi:\tknow",
        -10.429137977052125
      ],
      [
        "▁ought",
        -10.429518182622976
      ],
      [
        "▁nan",
        -10.429771037008845
      ],
      [
        "les",
        -10.430467038165801
      ],
      [
        "▁opposite",
        -10.43061072079294
      ],
      [
        "▁upstairs.",
        -10.430692196330563
      ],
      [
        "▁beat",
        -10.43082009229824
      ],
      [
        "'cause",
        -10.43094667536672
      ],
      [
        "▁pants",
        -10.431873877783094
      ],
      [
        "▁act",
        -10.432148996683049
      ],
      [
        "▁bunny.",
        -10.432183544841394
      ],
      [
        "▁[she",
        -10.433422519757213
      ],
      [
        "▁clap",
        -10.433632670217598
      ],
      [
        "▁friends.",
        -10.434899227892604
      ],
      [
        "▁*e:\t",
        -10.435135385151753
      ],
      [
        "▁lucky",
        -10.435315596051696
      ],
      [
        "▁strange",
        -10.435676576183187
      ],
      [
        "▁*mot:\teat",
        -10.435757283338926
      ],
      [
        "▁chairs",
        -10.435880011821864
      ],
      [
        "▁leaving",
        -10.436354739273423
      ],
      [
        "▁*chi:\tstop",
        -10.436693655534834
      ],
      [
        "▁*ann:\t",
        -10.436864581069806
      ],
      [
        "▁farmer",
        -10.437479619879749
      ],
      [
        "▁thanks.",
        -10.437852688642483
      ],
      [
        "▁*inv:\tshe's",
        -10.438400685617404
      ],
      [
        "▁li",
        -10.438566359074319
      ],
      [
        "▁rolling",
        -10.439228265125601
      ],
      [
        "▁teachers",
        -10.440131536952986
      ],
      [
        "ke",
        -10.44033759814403
      ],
      [
        "▁doors",
        -10.440358320634665
      ],
      [
        "▁*chi:\t[sighs]",
        -10.440500143613514
      ],
      [
        "▁needed",
        -10.440830972836663
      ],
      [
        "▁issue",
        -10.441060795960166
      ],
      [
        "▁boxes",
        -10.441394240921198
      ],
      [
        "▁[shouts].",
        -10.443252355208934
      ],
      [
        "▁flowers.",
        -10.443577557910523
      ],
      [
        "▁night?",
        -10.443807252704524
      ],
      [
        "▁areas",
        -10.444253213416436
      ],
      [
        "▁roof",
        -10.444365256596083
      ],
      [
        "▁*sis:\txxx",
        -10.445029349322091
      ],
      [
        "▁buttons",
        -10.445557847292733
      ],
      [
        "▁project",
        -10.446053625893557
      ],
      [
        "▁*exp:\tthat's",
        -10.447121306164398
      ],
      [
        "king",
        -10.44730998237454
      ],
      [
        "▁bathroom",
        -10.447605956134076
      ],
      [
        "▁balloon.",
        -10.448073562445622
      ],
      [
        "▁concerned",
        -10.448875611015051
      ],
      [
        "▁guy.",
        -10.448935930364492
      ],
      [
        "▁bathroom.",
        -10.448966166288933
      ],
      [
        "▁education",
        -10.450821992222096
      ],
      [
        "▁toy]",
        -10.451068727558932
      ],
      [
        "▁night,",
        -10.452095838445178
      ],
      [
        "▁good,",
        -10.452264534635782
      ],
      [
        "have",
        -10.452398993543923
      ],
      [
        "▁lets",
        -10.452584277878916
      ],
      [
        "▁eye.",
        -10.453720456428389
      ],
      [
        "▁beep",
        -10.453810859464395
      ],
      [
        "▁odd",
        -10.45453528765819
      ],
      [
        "▁[5",
        -10.454762772349461
      ],
      [
        "▁shirt.",
        -10.454883487314042
      ],
      [
        "▁*pat:\tyou",
        -10.455207299194353
      ],
      [
        "▁chew",
        -10.456500986069546
      ],
      [
        "ers.",
        -10.458110963977447
      ],
      [
        "▁english",
        -10.458177633399654
      ],
      [
        "▁social",
        -10.458690940028902
      ],
      [
        "▁*chi:\this",
        -10.458936863474907
      ],
      [
        "▁white.",
        -10.459202164582914
      ],
      [
        "▁train?",
        -10.459761909588998
      ],
      [
        "▁her]",
        -10.4602764429869
      ],
      [
        "▁%add:\tnot",
        -10.460539775148844
      ],
      [
        "www",
        -10.460708697025389
      ],
      [
        "▁possibly",
        -10.461373975630657
      ],
      [
        "▁sweetie",
        -10.461633579749176
      ],
      [
        "▁builder",
        -10.462086750442367
      ],
      [
        "▁*chi:\tturn",
        -10.462476639663118
      ],
      [
        "▁beside",
        -10.462592901939287
      ],
      [
        "▁smaller",
        -10.462593362075117
      ],
      [
        "▁dunno",
        -10.462630102093602
      ],
      [
        "▁briefly",
        -10.462773478669803
      ],
      [
        "▁play?",
        -10.462882050259449
      ],
      [
        "▁[place",
        -10.463078510850265
      ],
      [
        "red",
        -10.463284331779455
      ],
      [
        "▁*bro:\txxx",
        -10.464227115639956
      ],
      [
        "▁[hands",
        -10.466355338168583
      ],
      [
        "▁similar",
        -10.466388211250994
      ],
      [
        "▁district",
        -10.466644419970233
      ],
      [
        "▁*mot:\tcareful",
        -10.466796923284612
      ],
      [
        "▁term",
        -10.466877511103087
      ],
      [
        "▁turtle",
        -10.467409926846466
      ],
      [
        "▁schools",
        -10.46863203321687
      ],
      [
        "▁plane",
        -10.468742019015334
      ],
      [
        "▁*chi:\tc",
        -10.469130195128102
      ],
      [
        "▁six,",
        -10.469768121332724
      ],
      [
        "right",
        -10.470343268760416
      ],
      [
        "▁[toy",
        -10.47206877969245
      ],
      [
        "ned",
        -10.47214257161458
      ],
      [
        "▁continue",
        -10.472740346252683
      ],
      [
        "▁*gma:\ti",
        -10.472802036706941
      ],
      [
        "▁wooden",
        -10.472835920971885
      ],
      [
        "▁*mot:\taren't",
        -10.472933568721313
      ],
      [
        "▁peas",
        -10.473045431492999
      ],
      [
        "▁welcome.",
        -10.474605325067463
      ],
      [
        "▁walk.",
        -10.47510780851001
      ],
      [
        "▁*fat:\tgood",
        -10.475652416784214
      ],
      [
        "▁granddad",
        -10.476448026411997
      ],
      [
        "▁reckon",
        -10.476944067122545
      ],
      [
        "▁thirteen",
        -10.477393765109282
      ],
      [
        "▁direction",
        -10.47768080480716
      ],
      [
        "[chuckles].",
        -10.47839785684383
      ],
      [
        "▁clock.",
        -10.478540993733738
      ],
      [
        "ver",
        -10.478894889768327
      ],
      [
        "▁born",
        -10.479034637329846
      ],
      [
        "▁bottom.",
        -10.479192417905232
      ],
      [
        "▁iron",
        -10.47975477348958
      ],
      [
        "▁phone]",
        -10.479912357510504
      ],
      [
        "▁movie",
        -10.480259834947002
      ],
      [
        "▁anyway,",
        -10.480276741040882
      ],
      [
        "yeah.",
        -10.480496422530248
      ],
      [
        "▁lady.",
        -10.480689432575435
      ],
      [
        "▁piggy",
        -10.480783537104871
      ],
      [
        "▁*chi:\tgive",
        -10.481342069772904
      ],
      [
        "▁team",
        -10.481750221536455
      ],
      [
        "ly.",
        -10.48216556326886
      ],
      [
        "▁tv]",
        -10.482677576147974
      ],
      [
        "▁*mot:\topen",
        -10.482880426072448
      ],
      [
        "▁actual",
        -10.482888108101712
      ],
      [
        "▁budget",
        -10.48322911443006
      ],
      [
        "▁sheep.",
        -10.48347738838578
      ],
      [
        "▁rid",
        -10.484229552249568
      ],
      [
        "▁sister.",
        -10.484309192706958
      ],
      [
        "▁previous",
        -10.484328440119134
      ],
      [
        "▁trip",
        -10.48467551419621
      ],
      [
        "▁grandad",
        -10.485935766948346
      ],
      [
        "▁around]",
        -10.48622754838518
      ],
      [
        "▁fixed",
        -10.486232766446594
      ],
      [
        "yes",
        -10.48643207088033
      ],
      [
        "▁patsy",
        -10.486904665398875
      ],
      [
        "▁truck?",
        -10.487206164516326
      ],
      [
        "▁charge",
        -10.487434582592925
      ],
      [
        "▁*inv:\tright",
        -10.488213467531477
      ],
      [
        "▁mcdonalds.",
        -10.48843048181258
      ],
      [
        "▁off]",
        -10.488625006832912
      ],
      [
        "▁shops",
        -10.488683318375648
      ],
      [
        "▁jim",
        -10.489384414507118
      ],
      [
        "▁none",
        -10.489757376740721
      ],
      [
        "▁spill",
        -10.489835053464967
      ],
      [
        "ldes/childes_uk/",
        -10.489851162585733
      ],
      [
        "▁club",
        -10.490055789771667
      ],
      [
        "▁ladder",
        -10.490769628286097
      ],
      [
        "▁speaks",
        -10.490960263489427
      ],
      [
        "▁tells",
        -10.491217363769524
      ],
      [
        "▁switch",
        -10.491810179315973
      ],
      [
        "▁garden.",
        -10.4923062910992
      ],
      [
        "▁*fat:\tthey",
        -10.492733438648816
      ],
      [
        "▁*inv:\tuh",
        -10.492988766964293
      ],
      [
        "▁cupboard",
        -10.493208467093268
      ],
      [
        "▁sticks",
        -10.493724866931396
      ],
      [
        "▁egg.",
        -10.493938873612239
      ],
      [
        "▁sleep?",
        -10.494231467740388
      ],
      [
        "▁late.",
        -10.49455176142555
      ],
      [
        "▁mum?",
        -10.495212959421558
      ],
      [
        "▁feels",
        -10.495653017342976
      ],
      [
        "▁jo",
        -10.495694815192572
      ],
      [
        "▁pocket",
        -10.495869596990495
      ],
      [
        "▁*gma:\tyou",
        -10.4958780106988
      ],
      [
        "▁cats",
        -10.496144626986442
      ],
      [
        "▁yesterday?",
        -10.496682505917235
      ],
      [
        "▁husband",
        -10.497119026447429
      ],
      [
        "▁stage",
        -10.49767111755915
      ],
      [
        "men",
        -10.497985054259134
      ],
      [
        "▁jobs",
        -10.498917517540379
      ],
      [
        "▁snap",
        -10.49918626639959
      ],
      [
        "▁noise.]",
        -10.499734605174664
      ],
      [
        "▁party?",
        -10.499936576482344
      ],
      [
        "▁uh...",
        -10.50078617448282
      ],
      [
        "▁*mot:\tellie",
        -10.501055765202842
      ],
      [
        "▁parts",
        -10.501226804295921
      ],
      [
        "▁*mot:\texcuse",
        -10.501437754305591
      ],
      [
        "ies.",
        -10.501811702355674
      ],
      [
        "▁lamb",
        -10.501961782810625
      ],
      [
        "▁pie.",
        -10.501965818934991
      ],
      [
[...]
