{
  "version": "1.0",
  "truncation": null,
  "padding": null,
  "added_tokens": [
    {
      "id": 0,
      "content": "<UNK>",
      "single_word": false,
      "lstrip": false,
      "rstrip": false,
      "normalized": false,
      "special": true
    },
    {
      "id": 1,
      "content": "<PAD>",
      "single_word": false,
      "lstrip": false,
      "rstrip": false,
      "normalized": false,
      "special": true
    },
    {
      "id": 2,
      "content": "<CLS>",
      "single_word": false,
      "lstrip": false,
      "rstrip": false,
      "normalized": false,
      "special": true
    },
    {
      "id": 3,
      "content": "<SEP>",
      "single_word": false,
      "lstrip": false,
      "rstrip": false,
      "normalized": false,
      "special": true
    },
    {
      "id": 4,
      "content": "<MASK>",
      "single_word": false,
      "lstrip": false,
      "rstrip": false,
      "normalized": false,
      "special": true
    }
  ],
  "normalizer": {
    "type": "Sequence",
    "normalizers": [
      {
        "type": "NFD"
      },
      {
        "type": "StripAccents"
      }
    ]
  },
  "pre_tokenizer": {
    "type": "Metaspace",
    "replacement": "▁",
    "prepend_scheme": "always",
    "split": true
  },
  "post_processor": null,
  "decoder": {
    "type": "Metaspace",
    "replacement": "▁",
    "prepend_scheme": "always",
    "split": true
  },
  "model": {
    "type": "Unigram",
    "unk_id": 0,
    "vocab": [
      [
        "<UNK>",
        0.0
      ],
      [
        "<PAD>",
        0.0
      ],
      [
        "<CLS>",
        0.0
      ],
      [
        "<SEP>",
        0.0
      ],
      [
        "<MASK>",
        0.0
      ],
      [
        "▁",
        -2.8056712619156077
      ],
      [
        "的",
        -3.7187249318633135
      ],
      [
        "了",
        -4.432203687048563
      ],
      [
        "啊",
        -4.519237322272609
      ],
      [
        "你",
        -4.98199045584054
      ],
      [
        "我",
        -4.988815938974152
      ],
      [
        "呢",
        -5.213460513537424
      ],
      [
        "▁我",
        -5.214975861406474
      ],
      [
        "是",
        -5.244189312061996
      ],
      [
        "▁你",
        -5.35374921724998
      ],
      [
        "在",
        -5.404130467593788
      ],
      [
        "他",
        -5.60207250941389
      ],
      [
        "吗",
        -5.633922519145557
      ],
      [
        "就",
        -5.665817633315372
      ],
      [
        "和",
        -5.685472522942073
      ],
      [
        "说",
        -5.7191825985739975
      ],
      [
        "不",
        -5.753086534916088
      ],
      [
        "有",
        -5.767102087548713
      ],
      [
        "去",
        -5.837545170691273
      ],
      [
        "吧",
        -5.846165135149908
      ],
      [
        "来",
        -5.879116021647782
      ],
      [
        "人",
        -5.880699714896622
      ],
      [
        "这个",
        -5.995095745193391
      ],
      [
        "▁他",
        -5.995412803749863
      ],
      [
        "都",
        -6.068417211759927
      ],
      [
        "就是",
        -6.095376366481608
      ],
      [
        "上",
        -6.117393240088967
      ],
      [
        "大",
        -6.124033868706466
      ],
      [
        "我们",
        -6.128696896375994
      ],
      [
        "呀",
        -6.129291201046291
      ],
      [
        "一",
        -6.129302177906194
      ],
      [
        "要",
        -6.190033306854064
      ],
      [
        "这",
        -6.224420132982981
      ],
      [
        "也",
        -6.235689801150269
      ],
      [
        "一个",
        -6.261447679156211
      ],
      [
        "好",
        -6.2788930840906705
      ],
      [
        "自己",
        -6.291025985199552
      ],
      [
        "到",
        -6.337688864701587
      ],
      [
        "的时候",
        -6.3627245586780194
      ],
      [
        "▁那",
        -6.404693910198583
      ],
      [
        "会",
        -6.419597864450939
      ],
      [
        "地",
        -6.422946736628326
      ],
      [
        "对",
        -6.439356981596919
      ],
      [
        "那",
        -6.469199614074272
      ],
      [
        "▁这",
        -6.4872103129281395
      ],
      [
        "小",
        -6.512739914009375
      ],
      [
        "▁我们",
        -6.514512154119741
      ],
      [
        "她",
        -6.549274948808659
      ],
      [
        "没有",
        -6.551950808159862
      ],
      [
        "还",
        -6.577358122761787
      ],
      [
        "过",
        -6.5782256444672775
      ],
      [
        "中",
        -6.656461770452431
      ],
      [
        "什么",
        -6.667432133115465
      ],
      [
        "那个",
        -6.68272605179391
      ],
      [
        "▁然后",
        -6.684425229083024
      ],
      [
        "给",
        -6.7192775424186095
      ],
      [
        "的人",
        -6.7377517477218145
      ],
      [
        "着",
        -6.7653356913102805
      ],
      [
        "得",
        -6.765636366558395
      ],
      [
        "他们",
        -6.773779415411834
      ],
      [
        "把",
        -6.784938377437754
      ],
      [
        "能",
        -6.79222737611383
      ],
      [
        "你们",
        -6.792847493462174
      ],
      [
        "里",
        -6.796836477435173
      ],
      [
        "家",
        -6.801793500409778
      ],
      [
        "想",
        -6.817037873755664
      ],
      [
        "没",
        -6.835627694299216
      ],
      [
        "为",
        -6.84282244823425
      ],
      [
        "跟",
        -6.8480711385727275
      ],
      [
        "被",
        -6.8516946538844845
      ],
      [
        "又",
        -6.854524011266017
      ],
      [
        "多",
        -6.860011020809656
      ],
      [
        "做",
        -6.892809684966142
      ],
      [
        "儿",
        -6.900801541837863
      ],
      [
        "看",
        -6.903614950103435
      ],
      [
        "的话",
        -6.909259280908682
      ],
      [
        "用",
        -6.911632399520457
      ],
      [
        "▁就",
        -6.914050537651564
      ],
      [
        "子",
        -6.9360747504771645
      ],
      [
        "嘛",
        -6.941881103518812
      ],
      [
        "可以",
        -6.943851107198032
      ],
      [
        "个",
        -6.947768649309202
      ],
      [
        "很",
        -6.9630521365732285
      ],
      [
        "不是",
        -6.977263479000134
      ],
      [
        "从",
        -6.984806443022283
      ],
      [
        "现在",
        -7.018439205833426
      ],
      [
        "▁就是",
        -7.019253147719509
      ],
      [
        "您",
        -7.0199158164524285
      ],
      [
        "▁但是",
        -7.020075506630404
      ],
      [
        "出",
        -7.02168672991894
      ],
      [
        "点",
        -7.024182944956467
      ],
      [
        "走",
        -7.030641756733079
      ],
      [
        "下",
        -7.032141702487559
      ],
      [
        "还是",
        -7.051116759249725
      ],
      [
        "再",
        -7.087629859795275
      ],
      [
        "打",
        -7.089308236879566
      ],
      [
        "▁在",
        -7.089603261736883
      ],
      [
        "心",
        -7.110552953786414
      ],
      [
        "已经",
        -7.1122567570411075
      ],
      [
        "老",
        -7.116469043336117
      ],
      [
        "吃",
        -7.146158588259439
      ],
      [
        "三",
        -7.152939554063783
      ],
      [
        "高",
        -7.206713640134502
      ],
      [
        "一下",
        -7.209464753902434
      ],
      [
        "后",
        -7.226529887950623
      ],
      [
        "▁但",
        -7.248395760357102
      ],
      [
        "都是",
        -7.259190642607297
      ],
      [
        "天",
        -7.265061297449677
      ],
      [
        "时",
        -7.269353299918537
      ],
      [
        "叫",
        -7.269724045766461
      ],
      [
        "水",
        -7.282975424270786
      ],
      [
        "等",
        -7.297648191271014
      ],
      [
        "之后",
        -7.300588103073167
      ],
      [
        "开",
        -7.30466120199474
      ],
      [
        "▁这个",
        -7.310545745019933
      ],
      [
        "▁因为",
        -7.329408799896038
      ],
      [
        "工作",
        -7.338597551811166
      ],
      [
        "最",
        -7.344294531575461
      ],
      [
        "给我",
        -7.352450526238515
      ],
      [
        "这么",
        -7.355894864714008
      ],
      [
        "这样",
        -7.356070546827063
      ],
      [
        "一些",
        -7.36378276544175
      ],
      [
        "太",
        -7.377864717769475
      ],
      [
        "▁你们",
        -7.383273850925908
      ],
      [
        "钱",
        -7.385456805579814
      ],
      [
        "让",
        -7.396476692966306
      ],
      [
        "怎么",
        -7.396513870404911
      ],
      [
        "爱",
        -7.403380748855536
      ],
      [
        "可能",
        -7.405797844823027
      ],
      [
        "之",
        -7.406092923726943
      ],
      [
        "▁所以",
        -7.408711952350146
      ],
      [
        "孩子",
        -7.421193518642978
      ],
      [
        "当",
        -7.432093073838805
      ],
      [
        "长",
        -7.439315738446846
      ],
      [
        "将",
        -7.441688825960277
      ],
      [
        "与",
        -7.467510934695307
      ],
      [
        "头",
        -7.4694734345352956
      ],
      [
        "▁如果",
        -7.4718433274879015
      ],
      [
        "它",
        -7.473174628457352
      ],
      [
        "▁是",
        -7.48198151886351
      ],
      [
        "▁现在",
        -7.485611830646905
      ],
      [
        "以后",
        -7.486335901763807
      ],
      [
        "▁他们",
        -7.48663666823326
      ],
      [
        "回",
        -7.487613683667172
      ],
      [
        "花",
        -7.489266136430073
      ],
      [
        "听",
        -7.490380661937937
      ],
      [
        "可",
        -7.4942921460474405
      ],
      [
        "发",
        -7.500269709843627
      ],
      [
        "前",
        -7.507394235269075
      ],
      [
        "一点",
        -7.5200655553762505
      ],
      [
        "这些",
        -7.5211336558666435
      ],
      [
        "而",
        -7.531704305271857
      ],
      [
        "生",
        -7.5345088170482
      ],
      [
        "也是",
        -7.5373953536314175
      ],
      [
        "死",
        -7.539206266010725
      ],
      [
        "成",
        -7.544967203969559
      ],
      [
        "这种",
        -7.55508519282613
      ],
      [
        "因为",
        -7.5607404308107675
      ],
      [
        "手",
        -7.56534196541784
      ],
      [
        "▁她",
        -7.571018365711865
      ],
      [
        "开始",
        -7.573215609098284
      ],
      [
        "还有",
        -7.5788595194886135
      ],
      [
        "无",
        -7.582159019987918
      ],
      [
        "才",
        -7.585455889887097
      ],
      [
        "哥",
        -7.585712629240085
      ],
      [
        "时间",
        -7.585861242882876
      ],
      [
        "是不是",
        -7.591654789168839
      ],
      [
        "车",
        -7.596834158540824
      ],
      [
        "比",
        -7.606481468708916
      ],
      [
        "向",
        -7.6064834803397545
      ],
      [
        "四",
        -7.607059531997713
      ],
      [
        "两",
        -7.613314018995455
      ],
      [
        "于",
        -7.616002789130757
      ],
      [
        "先",
        -7.618970758020904
      ],
      [
        "啦",
        -7.6190443186891805
      ],
      [
        "分",
        -7.623958216753229
      ],
      [
        "找",
        -7.626164034712284
      ],
      [
        "特别",
        -7.626394035212844
      ],
      [
        "那么",
        -7.627753956304582
      ],
      [
        "二",
        -7.629318585834957
      ],
      [
        "咱们",
        -7.629932391108518
      ],
      [
        "▁其实",
        -7.6312412136745
      ],
      [
        "山",
        -7.631721806932152
      ],
      [
        "老师",
        -7.636969391443046
      ],
      [
        "带",
        -7.637366635151267
      ],
      [
        "五",
        -7.6377331040139165
      ],
      [
        "给你",
        -7.638989724247384
      ],
      [
        "觉得",
        -7.639280560431326
      ],
      [
        "真的",
        -7.639340487651321
      ],
      [
        "▁我是",
        -7.640268252374417
      ],
      [
        "气",
        -7.640356738457312
      ],
      [
        "更",
        -7.641544706463568
      ],
      [
        "像",
        -7.6459101200175645
      ],
      [
        "回来",
        -7.65324873881025
      ],
      [
        "新",
        -7.655042274150391
      ],
      [
        "行",
        -7.656690839363657
      ],
      [
        "一样",
        -7.663933534214843
      ],
      [
        "出来",
        -7.667889530831825
      ],
      [
        "知道",
        -7.669265757295472
      ],
      [
        "▁而",
        -7.67012638939145
      ],
      [
        "拿",
        -7.678435116680262
      ],
      [
        "嗯",
        -7.681134656919491
      ],
      [
        "哪",
        -7.683160409324959
      ],
      [
        "公司",
        -7.68420401739886
      ],
      [
        "起",
        -7.685903825692174
      ],
      [
        "呃",
        -7.6869302033788784
      ],
      [
        "谁",
        -7.688567580831537
      ],
      [
        "你的",
        -7.691937405146964
      ],
      [
        "问",
        -7.699107006851216
      ],
      [
        "放",
        -7.706825765015719
      ],
      [
        "今天",
        -7.709521295890095
      ],
      [
        "所",
        -7.7098470777175265
      ],
      [
        "不能",
        -7.709931663534846
      ],
      [
        "以",
        -7.731439274386508
      ],
      [
        "跟我",
        -7.732082849560497
      ],
      [
        "王",
        -7.734027094834797
      ],
      [
        "▁我就",
        -7.738688177339997
      ],
      [
        "自己的",
        -7.74108699546394
      ],
      [
        "风",
        -7.742142777522766
      ],
      [
        "快",
        -7.749866908388405
      ],
      [
        "其实",
        -7.755592410392103
      ],
      [
        "需要",
        -7.755929500809147
      ],
      [
        "生活",
        -7.757826298436166
      ],
      [
        "能够",
        -7.761218285620837
      ],
      [
        "性",
        -7.761355582871104
      ],
      [
        "▁可是",
        -7.76364528629472
      ],
      [
        "问题",
        -7.764377861843226
      ],
      [
        "别人",
        -7.765275574054172
      ],
      [
        "别",
        -7.7801784424042495
      ],
      [
        "应该",
        -7.780390948095768
      ],
      [
        "之前",
        -7.783808175112725
      ],
      [
        "事",
        -7.797864442460133
      ],
      [
        "▁那么",
        -7.804962395333476
      ],
      [
        "朋友",
        -7.817005516614795
      ],
      [
        "大家",
        -7.81769409676075
      ],
      [
        "起来",
        -7.819970100187245
      ],
      [
        "学",
        -7.822469382828137
      ],
      [
        "来了",
        -7.824089829469347
      ],
      [
        "▁有",
        -7.825377435917716
      ],
      [
        "▁这是",
        -7.825975878850153
      ],
      [
        "道",
        -7.826804399230809
      ],
      [
        "们",
        -7.827328098388328
      ],
      [
        "让我",
        -7.830430691236479
      ],
      [
        "中国",
        -7.831176579806959
      ],
      [
        "买",
        -7.8363509335162504
      ],
      [
        "白",
        -7.8375086588866285
      ],
      [
        "▁您",
        -7.841942773696079
      ],
      [
        "总",
        -7.846042698376618
      ],
      [
        "我就",
        -7.857329106169638
      ],
      [
        "▁还有",
        -7.857608730507769
      ],
      [
        "真",
        -7.861988758189515
      ],
      [
        "讲",
        -7.863015392272532
      ],
      [
        "却",
        -7.864548309621954
      ],
      [
        "干",
        -7.8662961827038504
      ],
      [
        "住",
        -7.8691464080861895
      ],
      [
        "一直",
        -7.869992427705862
      ],
      [
        "有点",
        -7.872046750933912
      ],
      [
        "请",
        -7.872527400345966
      ],
      [
        "喜欢",
        -7.878078343542782
      ],
      [
        "送",
        -7.879649264553725
      ],
      [
        "国",
        -7.8841839072787625
      ],
      [
        "名",
        -7.885682244471372
      ],
      [
        "非常",
        -7.887157024609337
      ],
      [
        "的事情",
        -7.889095795238136
      ],
      [
        "妈妈",
        -7.890139090751369
      ],
      [
        "过来",
        -7.894628150495258
      ],
      [
        "喝",
        -7.895371078323276
      ],
      [
        "给他",
        -7.897403496771332
      ],
      [
        "发现",
        -7.90027986864237
      ],
      [
        "我的",
        -7.904147547042067
      ],
      [
        "重",
        -7.904721112459033
      ],
      [
        "▁小",
        -7.911111144247034
      ],
      [
        "▁我觉得",
        -7.9112401353847
      ],
      [
        "一个人",
        -7.91788226651834
      ],
      [
        "连",
        -7.918608672734212
      ],
      [
        "进",
        -7.919562495214921
      ],
      [
        "人家",
        -7.922967385336772
      ],
      [
        "▁那你",
        -7.924976256864481
      ],
      [
        "了吗",
        -7.932494213953751
      ],
      [
        "出去",
        -7.932835727960491
      ],
      [
        "金",
        -7.934121996629376
      ],
      [
        "里面",
        -7.939203861498207
      ],
      [
        "话",
        -7.94119007760543
      ],
      [
        "到了",
        -7.942382312530903
      ],
      [
        "门",
        -7.942649830954787
      ],
      [
        "一起",
        -7.946614604209303
      ],
      [
        "▁也",
        -7.947393813108304
      ],
      [
        "军",
        -7.95019037889791
      ],
      [
        "比较",
        -7.951070800021597
      ],
      [
        "张",
        -7.951788390435757
      ],
      [
        "看到",
        -7.955169741767548
      ],
      [
        "那些",
        -7.960039793923466
      ],
      [
        "正",
        -7.962131687977191
      ],
      [
        "先生",
        -7.965226763271426
      ],
      [
        "八",
        -7.970188674852199
      ],
      [
        "面",
        -7.9711303370299404
      ],
      [
        "跟你",
        -7.972400406445308
      ],
      [
        "很多",
        -7.980520528214608
      ],
      [
        "全",
        -7.982511223141097
      ],
      [
        "不会",
        -7.984036955477064
      ],
      [
        "海",
        -7.988320827374478
      ],
      [
        "哈",
        -7.988892816001668
      ],
      [
        "拉",
        -7.989990780427123
      ],
      [
        "年",
        -7.992708512861341
      ],
      [
        "口",
        -7.994125174577588
      ],
      [
        "动",
        -7.994628355847727
      ],
      [
        "▁而且",
        -7.995687713083056
      ],
      [
        "六",
        -7.9973406700460785
      ],
      [
        "马",
        -7.997421998138224
      ],
      [
        "挺",
        -8.001155733630844
      ],
      [
        "文",
        -8.00442977828401
      ],
      [
        "有一个",
        -8.007595810632385
      ],
      [
        "见",
        -8.00815413374882
      ],
      [
        "不好",
        -8.00866183943223
      ],
      [
        "火",
        -8.016353428120796
      ],
      [
        "光",
        -8.020015703217585
      ],
      [
        "▁还",
        -8.025954284976521
      ],
      [
        "者",
        -8.026214185514371
      ],
      [
        "路",
        -8.02626853474386
      ],
      [
        "过去",
        -8.03198981306138
      ],
      [
        "▁嗯",
        -8.032638130124662
      ],
      [
        "的一个",
        -8.034255448618707
      ],
      [
        "结婚",
        -8.045989267280465
      ],
      [
        "自",
        -8.04848838106438
      ],
      [
        "不要",
        -8.048573152893763
      ],
      [
        "选择",
        -8.050400045202705
      ],
      [
        "▁今天",
        -8.05361001351833
      ],
      [
        "七",
        -8.057530664909063
      ],
      [
        "只",
        -8.057924689537929
      ],
      [
        "加",
        -8.061479610421577
      ],
      [
        "明",
        -8.061658306328006
      ],
      [
        "▁不",
        -8.062698218732109
      ],
      [
        "强",
        -8.066271946857857
      ],
      [
        "力",
        -8.068409314008097
      ],
      [
        "▁你说",
        -8.078568653121451
      ],
      [
        "▁不是",
        -8.080188731678563
      ],
      [
        "清",
        -8.080768442861384
      ],
      [
        "这是",
        -8.081052683080397
      ],
      [
        "为什么",
        -8.08331658585945
      ],
      [
        "父母",
        -8.086114706985189
      ],
      [
        "是吧",
        -8.0879631039542
      ],
      [
        "李",
        -8.090113689664713
      ],
      [
        "本",
        -8.092518826943593
      ],
      [
        "在一起",
        -8.094400228286618
      ],
      [
        "飞",
        -8.094961651649868
      ],
      [
        "他的",
        -8.111255524498512
      ],
      [
        "书",
        -8.112064756740434
      ],
      [
        "回家",
        -8.117686755591588
      ],
      [
        "▁我说",
        -8.119871858856769
      ],
      [
        "姐",
        -8.120551484299328
      ],
      [
        "继续",
        -8.120568957256056
      ],
      [
        "外",
        -8.127911407096605
      ],
      [
        "美",
        -8.131657965511325
      ],
      [
        "▁可",
        -8.132382703607384
      ],
      [
        "酒",
        -8.132512829277987
      ],
      [
        "如果",
        -8.133716534191741
      ],
      [
        "跑",
        -8.133871763877709
      ],
      [
        "安",
        -8.137717361057359
      ],
      [
        "卖",
        -8.140036662179083
      ],
      [
        "的事儿",
        -8.141361980846339
      ],
      [
        "然后",
        -8.141578262042946
      ],
      [
        "是一个",
        -8.149835911143711
      ],
      [
        "内",
        -8.150326562215099
      ],
      [
        "少",
        -8.150493957876174
      ],
      [
        "▁从",
        -8.150727387598339
      ],
      [
        "情",
        -8.151611802873292
      ],
      [
        "化",
        -8.15175282507183
      ],
      [
        "的是",
        -8.1543162261796
      ],
      [
        "说话",
        -8.16130909394032
      ],
      [
        "写",
        -8.162573524419418
      ],
      [
        "管",
        -8.16292484414792
      ],
      [
        "▁哎",
        -8.16348586414971
      ],
      [
        "▁没有",
        -8.166841769545924
      ],
      [
        "▁别",
        -8.173613775684474
      ],
      [
        "我觉得",
        -8.17392949981831
      ],
      [
        "关系",
        -8.175678361898951
      ],
      [
        "让你",
        -8.176641261459931
      ],
      [
        "转",
        -8.177216177708136
      ],
      [
        "感觉",
        -8.179108961683866
      ],
      [
        "当中",
        -8.17970843878896
      ],
      [
        "希望",
        -8.184473687357558
      ],
      [
        "日",
        -8.185201764020924
      ],
      [
        "该",
        -8.185771956126251
      ],
      [
        "接",
        -8.187542873812685
      ],
      [
        "九",
        -8.189690566692517
      ],
      [
        "准备",
        -8.192210122363837
      ],
      [
        "关",
        -8.193852548314858
      ],
      [
        "难",
        -8.19568025146946
      ],
      [
        "▁呃",
        -8.196129199393944
      ],
      [
        "变",
        -8.199336382180878
      ],
      [
        "走了",
        -8.200272913088972
      ],
      [
        "入",
        -8.200738515791468
      ],
      [
        "哎",
        -8.20196994969864
      ],
      [
        "哦",
        -8.204276682763354
      ],
      [
        "红",
        -8.20656658208666
      ],
      [
        "回去",
        -8.207970645372948
      ],
      [
        "处",
        -8.216468894777915
      ],
      [
        "跟他",
        -8.216588074304521
      ],
      [
        "▁对",
        -8.220614192491242
      ],
      [
        "城",
        -8.22302567793674
      ],
      [
        "当时",
        -8.227745325807
      ],
      [
        "▁好",
        -8.230496956215712
      ],
      [
        "▁我想",
        -8.232054083579335
      ],
      [
        "一次",
        -8.235246915726105
      ],
      [
        "法",
        -8.236641918436641
      ],
      [
        "好了",
        -8.240320174092082
      ],
      [
        "进行",
        -8.240954214846592
      ],
      [
        "药",
        -8.2424197290872
      ],
      [
        "林",
        -8.245947005521138
      ],
      [
        "往",
        -8.246207759998692
      ],
      [
        "身",
        -8.246226750757247
      ],
      [
        "玩",
        -8.249328828909695
      ],
      [
        "东",
        -8.251200576022523
      ],
      [
        "报",
        -8.251587465422016
      ],
      [
        "信",
        -8.252288076857317
      ],
      [
        "为了",
        -8.253829619949943
      ],
      [
        "▁咱们",
        -8.254814424842975
      ],
      [
        "坐",
        -8.25554233413159
      ],
      [
        "相",
        -8.262462491185037
      ],
      [
        "我是",
        -8.272526892219357
      ],
      [
        "活",
        -8.273508732940218
      ],
      [
        "养",
        -8.273692606469082
      ],
      [
        "认为",
        -8.278491058172175
      ],
      [
        "的东西",
        -8.282963439702737
      ],
      [
        "女人",
        -8.28864684498639
      ],
      [
        "女",
        -8.291111473655409
      ],
      [
        "去了",
        -8.292455048042163
      ],
      [
        "刚",
        -8.294483937960784
      ],
      [
        "男人",
        -8.294521811449043
      ],
      [
        "换",
        -8.297245390325035
      ],
      [
        "方",
        -8.29765715230424
      ],
      [
        "病",
        -8.297851234031283
      ],
      [
        "东西",
        -8.299174104968234
      ],
      [
        "想要",
        -8.299277961928084
      ],
      [
        "眼",
        -8.30573499705118
      ],
      [
        "我们的",
        -8.305997262465434
      ],
      [
        "通过",
        -8.306441242422778
      ],
      [
        "元",
        -8.306827460375601
      ],
      [
        "完",
        -8.307926915976024
      ],
      [
        "就会",
        -8.308837803405243
      ],
      [
        "▁它",
        -8.309291266062994
      ],
      [
        "黑",
        -8.310211479791162
      ],
      [
        "都没有",
        -8.310472424092548
      ],
      [
        "远",
        -8.310975543020174
      ],
      [
        "爸爸",
        -8.311146333478485
      ],
      [
        "如",
        -8.31125733105977
      ],
      [
        "是我",
        -8.312553232217649
      ],
      [
        "儿子",
        -8.313827785908876
      ],
      [
        "看看",
        -8.314112582785441
      ],
      [
        "收",
        -8.319718926398092
      ],
      [
        "来说",
        -8.319761144746384
      ],
      [
        "表示",
        -8.319886413548607
      ],
      [
        "努力",
        -8.320817648167122
      ],
      [
        "不知道",
        -8.323051116671882
      ],
      [
        "倒",
        -8.324847984147338
      ],
      [
        "只是",
        -8.326366462316956
      ],
      [
        "谈",
        -8.326781916808546
      ],
      [
        "这样的",
        -8.326814170659762
      ],
      [
        "神",
        -8.331337616866826
      ],
      [
        "让他",
        -8.331340548391102
      ],
      [
        "的时间",
        -8.331405120634763
      ],
      [
        "的这个",
        -8.33258038875039
      ],
      [
        "呗",
        -8.334084583183909
      ],
      [
        "万",
        -8.335022118138454
      ],
      [
        "定",
        -8.337349999261196
      ],
      [
        "两个",
        -8.338779887245272
      ],
      [
        "也不",
        -8.33928174149549
      ],
      [
        "怎么样",
        -8.339486593734525
      ],
      [
        "已",
        -8.340779596554272
      ],
      [
        "是个",
        -8.342219308212112
      ],
      [
        "区",
        -8.343080211562345
      ],
      [
        "咱",
        -8.347207619470083
      ],
      [
        "所以",
        -8.347379886684676
      ],
      [
        "睡",
        -8.34966674411688
      ],
      [
        "但是",
        -8.349726320487942
      ],
      [
        "战",
        -8.34995342774915
      ],
      [
        "早",
        -8.350704414199768
      ],
      [
        "平",
        -8.35405193083023
      ],
      [
        "▁不过",
        -8.35542859402661
      ],
      [
        "姑娘",
        -8.356781062056251
      ],
      [
        "越",
        -8.356897505826225
      ],
      [
        "的问题",
        -8.357701745927082
      ],
      [
        "线",
        -8.357798067079049
      ],
      [
        "不了",
        -8.358826431677038
      ],
      [
        "只有",
        -8.359580957314373
      ],
      [
        "一种",
        -8.359765597532288
      ],
      [
        "云",
        -8.360328798831306
      ],
      [
        "对方",
        -8.366598174505341
      ],
      [
        "亲",
        -8.368940277696048
      ],
      [
        "算",
        -8.371648494910632
      ],
      [
        "同",
        -8.372337321686347
      ],
      [
        "或者",
        -8.37610071585328
      ],
      [
        "▁他说",
        -8.376114463388737
      ],
      [
        "手机",
        -8.376143986882525
      ],
      [
        "通",
        -8.378983030989376
      ],
      [
        "数",
        -8.379305103230523
      ],
      [
        "龙",
        -8.379960952181936
      ],
      [
        "流",
        -8.382440754818255
      ],
      [
        "十",
        -8.386853625982512
      ],
      [
        "月",
        -8.387657383973478
      ],
      [
        "交",
        -8.38940228789655
      ],
      [
        "市场",
        -8.391066666495853
      ],
      [
        "怕",
        -8.39612102356198
      ],
      [
        "方面",
        -8.401364972656191
      ],
      [
        "有什么",
        -8.402718211841758
      ],
      [
        "好好",
        -8.404371052160897
      ],
      [
        "离婚",
        -8.404428284452624
      ],
      [
        "了吧",
        -8.405628360556722
      ],
      [
        "选",
        -8.40597789472009
      ],
      [
        "特",
        -8.407353794041853
      ],
      [
        "受",
        -8.409027173383285
      ],
      [
        "西",
        -8.409408440998938
      ],
      [
        "你就",
        -8.409567779599474
      ],
      [
        "好像",
        -8.41047701739661
      ],
      [
        "决定",
        -8.411351262804619
      ],
      [
        "▁那我",
        -8.412003884071348
      ],
      [
        "学习",
        -8.413416713234279
      ],
      [
        "忙",
        -8.414424003389007
      ],
      [
        "家里",
        -8.414617799064684
      ],
      [
        "感",
        -8.414964018695605
      ],
      [
        "感情",
        -8.415563638343114
      ],
      [
        "主",
        -8.418125321080057
      ],
      [
        "约",
        -8.42008734941237
      ],
      [
        "离",
        -8.42232605594286
      ],
      [
        "单",
        -8.422607346089965
      ],
      [
        "装",
        -8.425079086460807
      ],
      [
        "队",
        -8.425704318400289
      ],
      [
        "空",
        -8.426701690020892
      ],
      [
        "掉",
        -8.4269047660326
      ],
      [
        "部",
        -8.427804763656026
      ],
      [
        "错",
        -8.429892728051536
      ],
      [
        "声",
        -8.43346364161623
      ],
      [
        "狗",
        -8.435880254862703
      ],
      [
        "房",
        -8.436103221504785
      ],
      [
        "的地方",
        -8.437985475435763
      ],
      [
        "有个",
        -8.438678925827325
      ],
      [
        "机",
        -8.439425624974083
      ],
      [
        "办",
        -8.440423503945388
      ],
      [
        "那种",
        -8.440440631122044
      ],
      [
        "期",
        -8.44086026716713
      ],
      [
        "要求",
        -8.441782943434768
      ],
      [
        "肯定",
        -8.442139612782878
      ],
      [
        "德",
        -8.44245334522754
      ],
      [
        "有人",
        -8.443011466449276
      ],
      [
        "以前",
        -8.445735967297978
      ],
      [
        "热",
        -8.44789742880083
      ],
      [
        "最后",
        -8.450143275942382
      ],
      [
        "事儿",
        -8.450432701582406
      ],
      [
        "命",
        -8.451724583734006
      ],
      [
        "师",
        -8.452203056486722
      ],
      [
        "度",
        -8.454587864921093
      ],
      [
        "世界",
        -8.454619715382627
      ],
      [
        "▁还是",
        -8.454865381272484
      ],
      [
        "▁你就",
        -8.45592724180171
      ],
      [
        "吃饭",
        -8.459630654321446
      ],
      [
        "▁你要",
        -8.461008454277358
      ],
      [
        "包",
        -8.462884840393098
      ],
      [
        "▁又",
        -8.463002798423505
      ],
      [
        "对于",
        -8.463132170607002
      ],
      [
        "妈",
        -8.465787386235993
      ],
      [
        "▁把",
        -8.46608582012753
      ],
      [
        "但",
        -8.469010758448492
      ],
      [
        "周",
        -8.470936161454645
      ],
      [
        "穿",
        -8.471010983605323
      ],
      [
        "深",
        -8.475427677000818
      ],
      [
        "刘",
        -8.475474745400454
      ],
      [
        "陈",
        -8.477483750713418
      ],
      [
        "▁怎么",
        -8.478722431279872
      ],
      [
        "场",
        -8.481433302868878
      ],
      [
        "菜",
        -8.482949768257509
      ],
      [
        "出现",
        -8.483081644627456
      ],
      [
        "大哥",
        -8.486015280004933
      ],
      [
        "▁要",
        -8.486229855045416
      ],
      [
        "愿意",
        -8.486289206187354
      ],
      [
        "发展",
        -8.489950403963233
      ],
      [
        "是什么",
        -8.49007870225806
      ],
      [
        "其",
        -8.490184538357843
      ],
      [
        "脸",
        -8.493496570429665
      ],
      [
        "下来",
        -8.494234116942634
      ],
      [
        "节目",
        -8.494720296633375
      ],
      [
        "▁为什么",
        -8.495096022363942
      ],
      [
        "经济",
        -8.495478141171343
      ],
      [
        "笑",
        -8.496035326052574
      ],
      [
        "至",
        -8.497816057299003
      ],
      [
        "▁谁",
        -8.501311022329322
      ],
      [
        "黄",
        -8.50222754199585
      ],
      [
        "女儿",
        -8.503349491635877
      ],
      [
        "国家",
        -8.50412826984785
      ],
      [
        "不想",
        -8.504432854256395
      ],
      [
        "提",
        -8.505664976995096
      ],
      [
        "兵",
        -8.507180638400843
      ],
      [
        "聊",
        -8.510157722550547
      ],
      [
        "落",
        -8.510306311177954
      ],
      [
        "几",
        -8.511548545987605
      ],
      [
        "▁我也",
        -8.511934422976275
      ],
      [
        "求",
        -8.513147464774866
      ],
      [
        "弄",
        -8.51459074602687
      ],
      [
        "满",
        -8.51575076366068
      ],
      [
        "▁再",
        -8.517109888659686
      ],
      [
        "第一",
        -8.51752560441134
      ],
      [
        "画",
        -8.517691644543385
      ],
      [
        "所有的",
        -8.518635013380889
      ],
      [
        "明白",
        -8.519768670328874
      ],
      [
        "老板",
        -8.519981142810643
      ],
      [
        "直接",
        -8.520414334379774
      ],
      [
        "一定",
        -8.521782704337532
      ],
      [
        "▁那个",
        -8.522133867784044
      ],
      [
        "公",
        -8.523605563411575
      ],
      [
        "故事",
        -8.5242462302904
      ],
      [
        "站",
        -8.524288321684647
      ],
      [
        "号",
        -8.524982933599377
      ],
      [
        "曾经",
        -8.52544441875902
      ],
      [
        "拍",
        -8.534170467128392
      ],
      [
        "啥",
        -8.535351199171883
      ],
      [
        "一天",
        -8.53564623117412
      ],
      [
        "华",
        -8.536207836943918
      ],
      [
        "说我",
        -8.536350914058316
      ],
      [
        "成为",
        -8.538842564510931
      ],
      [
        "情况",
        -8.539039863846822
      ],
      [
        "在这儿",
        -8.540362735761546
      ],
      [
        "我也",
        -8.542748733188974
      ],
      [
        "▁但是我",
        -8.544194934623786
      ],
      [
        "总是",
        -8.544355522230234
      ],
      [
        "都会",
        -8.546060609717964
      ],
      [
        "幸福",
        -8.546514090965513
      ],
      [
        "兄弟",
        -8.547391090015344
      ],
      [
        "一定要",
        -8.551611921923234
      ],
      [
        "调",
        -8.551909790459057
      ],
      [
        "利",
        -8.552576086579139
      ],
      [
        "离开",
        -8.554654430641639
      ],
      [
        "香",
        -8.555755424341543
      ],
      [
        "▁你是",
        -8.556158438379512
      ],
      [
        "量",
        -8.556573299637982
      ],
      [
        "心里",
        -8.556651721400753
      ],
      [
        "南",
        -8.557645309595179
      ],
      [
        "医院",
        -8.558210085826952
      ],
      [
        "▁是不是",
        -8.559599837898942
      ],
      [
        "找到",
        -8.560106591131786
      ],
      [
        "的事",
        -8.561797214596675
      ],
      [
        "▁我要",
        -8.562581022195292
      ],
      [
        "唱",
        -8.563566147872551
      ],
      [
        "差",
        -8.564582661466378
      ],
      [
        "市",
        -8.566819412959093
      ],
      [
        "才能",
        -8.568511849463949
      ],
      [
        "半",
        -8.568621563312801
      ],
      [
        "有没有",
        -8.568890625827983
      ],
      [
        "事情",
        -8.570529797456008
      ],
      [
        "晚上",
        -8.571884332980485
      ],
      [
        "多少",
        -8.572346468276573
      ],
      [
        "突然",
        -8.573870954282814
      ],
      [
        "经常",
        -8.577512168964152
      ],
      [
        "企业",
        -8.577618411324286
      ],
      [
        "店",
        -8.58353533166608
      ],
      [
        "认识",
        -8.583766248725496
      ],
      [
        "近",
        -8.586177057900452
      ],
      [
        "帮",
        -8.586279733222279
      ],
      [
        "告诉你",
        -8.58704596358295
      ],
      [
        "他妈",
        -8.591409566509318
      ],
      [
        "杀",
        -8.591835495187524
      ],
      [
        "教",
        -8.594215435249424
      ],
      [
        "脚",
        -8.594239604464956
      ],
      [
        "电话",
        -8.596796920118024
      ],
      [
        "留",
        -8.59894376228419
      ],
      [
        "医生",
        -8.599775454150064
      ],
      [
        "局",
        -8.600332068311365
      ],
      [
        "冷",
        -8.600617716845552
      ],
      [
        "每天",
        -8.602778345561505
      ],
      [
        "饭",
        -8.604155023943164
      ],
      [
        "这次",
        -8.606173532091212
      ],
      [
        "改变",
        -8.60771558256508
      ],
      [
        "查",
        -8.609284421937293
      ],
      [
        "言",
        -8.609986268004631
      ],
      [
        "无法",
        -8.610850662719201
      ],
      [
        "就是说",
        -8.614591119435898
      ],
      [
        "乱",
        -8.618072072144523
      ],
      [
        "位",
        -8.618103346367416
      ],
      [
        "非",
        -8.619078204796669
      ],
      [
        "低",
        -8.619093792891945
      ],
      [
        "家庭",
        -8.61910997140913
      ],
      [
        "条",
        -8.62506951813491
      ],
      [
        "边",
        -8.625106231955186
      ],
      [
        "身体",
        -8.62640495008742
      ],
      [
        "最近",
        -8.627513448122052
      ],
      [
        "影响",
        -8.627733784423484
      ],
      [
        "▁都",
        -8.62887076248125
      ],
      [
        "跳",
        -8.628961854243958
      ],
      [
        "▁而是",
        -8.629147286542336
      ],
      [
        "哭",
        -8.629540291560348
      ],
      [
        "鱼",
        -8.62967333452536
      ],
      [
        "石",
        -8.635307421503711
      ],
      [
        "工",
        -8.636746700413171
      ],
      [
        "了解",
        -8.637528816249542
      ],
      [
        "牛",
        -8.6375670453326
      ],
      [
        "血",
        -8.638580566513376
      ],
      [
        "听到",
        -8.63869459663557
      ],
      [
        "开心",
        -8.640197545452315
      ],
      [
        "正在",
        -8.641934945175239
      ],
      [
        "作",
        -8.643202313964059
      ],
      [
        "▁却",
        -8.643695342856383
      ],
      [
        "由",
        -8.645244268680372
      ],
      [
        "了一个",
        -8.646335397516214
      ],
      [
        "如此",
        -8.647392171256165
      ],
      [
        "伤",
        -8.648185395475567
      ],
      [
        "社会",
        -8.648292087197115
      ],
      [
        "意",
        -8.651399032372577
      ],
      [
        "零",
        -8.652208466595988
      ],
      [
        "电",
        -8.656123399145248
      ],
      [
        "▁不要",
        -8.65854817174596
      ],
      [
        "▁如果你",
        -8.66288529874061
      ],
      [
        "大学",
        -8.663052784402835
      ],
      [
        "搞",
        -8.663650623026983
      ],
      [
        "取",
        -8.663845884903067
      ],
      [
        "姐姐",
        -8.664571488102345
      ],
      [
        "发生",
        -8.666225563728874
      ],
      [
        "改",
        -8.66714229728911
      ],
      [
        "▁你看",
        -8.66820533026558
      ],
      [
        "▁我现在",
        -8.6684332791655
      ],
      [
        "点儿",
        -8.668785774629892
      ],
      [
        "到底",
        -8.669287127269499
      ],
      [
        "的生活",
        -8.669466436352536
      ],
      [
        "▁后来",
        -8.670888111181892
      ],
      [
        "刚刚",
        -8.672207886482816
      ],
      [
        "真是",
        -8.673368536428537
      ],
      [
        "阿",
        -8.67381664409007
      ],
      [
        "房子",
        -8.674783726498527
      ],
      [
        "敢",
        -8.675858351314151
      ],
      [
        "好不好",
        -8.675873702215965
      ],
      [
        "体",
        -8.677645516454486
      ],
      [
        "整个",
        -8.679512023048046
      ],
      [
        "联系",
        -8.680251530352852
      ],
      [
        "得到",
        -8.680542719495408
      ],
      [
        "理解",
        -8.681232050163294
      ],
      [
        "▁因为我",
        -8.681890531703848
      ],
      [
        "江",
        -8.681905398770692
      ],
      [
        "说你",
        -8.68212263832053
      ],
      [
        "关注",
        -8.6825289644887
      ],
      [
        "大人",
        -8.685127151917497
      ],
      [
        "美国",
        -8.685962757090975
      ],
      [
        "对我",
        -8.686423397962477
      ],
      [
        "回来了",
        -8.687654761347053
      ],
      [
        "跟我说",
        -8.688260728428597
      ],
      [
        "身上",
        -8.688288556477616
      ],
      [
        "宝",
        -8.690027890519769
      ],
      [
        "卡",
        -8.690367908224594
      ],
      [
        "对你",
        -8.690632638365914
      ],
      [
        "如何",
        -8.69119773867495
      ],
      [
        "刚才",
        -8.691336926668532
      ],
      [
        "对不对",
        -8.692536965062674
      ],
      [
        "苦",
        -8.693249299350336
      ],
      [
        "个人",
        -8.693315873214422
      ],
      [
        "可是",
        -8.693916270652176
      ],
      [
        "派",
        -8.694460080760608
      ],
      [
        "一年",
        -8.694883232406315
      ],
      [
        "▁结果",
        -8.695983745739275
      ],
      [
        "民",
        -8.696450116929134
      ],
      [
        "世",
        -8.697187974377902
      ],
      [
        "未来",
        -8.69732104315788
      ],
      [
        "地方",
        -8.699771289676663
      ],
      [
        "费",
        -8.702087357331832
      ],
      [
        "的那个",
        -8.702879907041904
      ],
      [
        "米",
        -8.704087369877168
      ],
      [
        "你自己",
        -8.705872411087771
      ],
      [
        "带着",
        -8.706596985646518
      ],
      [
        "担心",
        -8.706921592156318
      ],
      [
        "反",
        -8.707028357600409
      ],
      [
        "肉",
        -8.707319553933944
      ],
      [
        "照",
        -8.70858863826041
      ],
      [
        "传",
        -8.70884099366995
      ],
      [
        "考",
        -8.709057695375972
      ],
      [
        "克",
        -8.709895902881343
      ],
      [
        "梦",
        -8.710088160338135
      ],
      [
        "必须",
        -8.710220045997138
      ],
      [
        "冲",
        -8.710994270607038
      ],
      [
        "种",
        -8.711099975048043
      ],
      [
        "理",
        -8.711461567611844
      ],
      [
        "字",
        -8.712516416862426
      ],
      [
        "能力",
        -8.715174627148981
      ],
      [
        "都有",
        -8.717017008605515
      ],
      [
        "或",
        -8.717396934236223
      ],
      [
        "立",
        -8.717418359958726
      ],
      [
        "学校",
        -8.717788104807362
      ],
      [
        "达",
        -8.718876270783651
      ],
      [
        "▁大家",
        -8.718891114017577
      ],
      [
        "那边",
        -8.719058907231986
      ],
      [
        "超",
        -8.719166222065
      ],
      [
        "称",
        -8.722171380928781
      ],
      [
        "闹",
        -8.722202738163269
      ],
      [
        "图",
        -8.724162726392096
      ],
      [
        "下去",
        -8.72538895407682
      ],
      [
        "我都",
        -8.725874190923657
      ],
      [
        "官",
        -8.726598257745511
      ],
      [
        "几个",
        -8.727294453567401
      ],
      [
        "成功",
        -8.728727021233208
      ],
      [
        "不到",
        -8.72981641325634
      ],
      [
        "楼",
        -8.73035122942174
      ],
      [
        "接受",
        -8.730398403534371
      ],
      [
        "省",
        -8.731801405132808
      ],
      [
        "▁谢谢",
        -8.732110922647758
      ],
      [
        "某",
        -8.733313506496767
      ],
      [
        "所有",
        -8.73468612430445
      ],
      [
        "情绪",
        -8.735595723303181
      ],
      [
        "是你",
        -8.736162902589069
      ],
      [
        "结果",
        -8.738217343926491
      ],
      [
        "一条",
        -8.739366345863282
      ],
      [
        "小姐",
        -8.73984791937916
      ],
      [
        "把我",
        -8.742461317599545
      ],
      [
        "原",
        -8.743215612751817
      ],
      [
        "还没",
        -8.744669092860088
      ],
      [
        "确实",
        -8.745185419881448
      ],
      [
        "不行",
        -8.745479210925312
      ],
      [
        "的朋友",
        -8.74607036852884
      ],
      [
        "也会",
        -8.748092363672622
      ],
      [
        "乐",
        -8.748564701667652
      ],
      [
        "还要",
        -8.74902075335642
      ],
      [
        "何",
        -8.74982348640259
      ],
      [
        "戏",
        -8.750975504367426
      ],
      [
        "嘴",
        -8.752893881620725
      ],
      [
        "雨",
        -8.752993391302153
      ],
      [
        "▁然后我",
        -8.753333198367228
      ],
      [
        "都不",
        -8.75367484275108
      ],
      [
        "救",
        -8.754269788882972
      ],
      [
        "死了",
        -8.755551734927252
      ],
      [
        "同学",
        -8.758231547668808
      ],
      [
        "物",
        -8.75913758862516
      ],
      [
        "▁那就",
        -8.75973113120001
      ],
      [
        "哥哥",
        -8.759838634695305
      ],
      [
        "合",
        -8.76096727569016
      ],
      [
        "出了",
        -8.761784188132744
      ],
      [
        "便",
        -8.762522132431856
      ],
      [
        "班",
        -8.764190227036284
      ],
      [
        "靠",
        -8.765986534148272
      ],
      [
        "这个人",
        -8.766656027714845
      ],
      [
        "说了",
        -8.768445005867862
      ],
      [
        "真的是",
        -8.768823650105464
      ],
      [
        "告诉我",
        -8.769989897165328
      ],
      [
        "把你",
        -8.770035881337774
      ],
      [
        "只能",
        -8.770785779826813
      ],
      [
        "▁老",
        -8.771896379046058
      ],
      [
        "▁只是",
        -8.773522732174147
      ],
      [
        "玉",
        -8.77370344548511
      ],
      [
        "▁这样",
        -8.773885679142008
      ],
      [
        "快乐",
        -8.774069453833274
      ],
      [
        "▁让",
        -8.774897184171193
      ],
      [
        "▁虽然",
        -8.77714871849993
      ],
      [
        "玩儿",
        -8.778170685423508
      ],
      [
        "天天",
        -8.77853495755479
      ],
      [
        "安全",
        -8.778976281423834
      ],
      [
        "同志",
        -8.779184291113435
      ],
      [
        "之间",
        -8.780137196849136
      ],
      [
        "台",
        -8.780200598941391
      ],
      [
        "假",
        -8.780393402593305
      ],
      [
        "追",
        -8.78126710465888
      ],
      [
        "货",
        -8.781514556509228
      ],
      [
        "木",
        -8.781933098652763
      ],
      [
        "后来",
        -8.782182338263642
      ],
      [
        "斯",
        -8.783126875476256
      ],
      [
        "▁可能",
        -8.78369088362056
      ],
      [
        "毛",
        -8.784289444103893
      ],
      [
        "里边",
        -8.784908430877348
      ],
      [
        "▁当",
        -8.784984601889263
      ],
      [
        "草",
        -8.78621925188849
      ],
      [
        "破",
        -8.788132784986244
      ],
      [
        "团",
        -8.789375790873525
      ],
      [
        "杨",
        -8.791183133237658
      ],
      [
        "▁最后",
        -8.791378068754918
      ],
      [
        "演",
        -8.791530644154244
      ],
      [
        "进去",
        -8.791716250370618
      ],
      [
        "过了",
        -8.792274844370626
      ],
      [
        "音乐",
        -8.792364931957225
      ],
      [
        "权",
        -8.793090632671875
      ],
      [
        "害怕",
        -8.793358194762336
      ],
      [
        "▁大",
        -8.79353856162334
      ],
      [
        "就要",
        -8.79365382953719
      ],
      [
        "色",
        -8.794344185706054
      ],
      [
        "▁为了",
        -8.79981917736317
      ],
      [
        "今年",
        -8.800890841075207
      ],
      [
        "皮",
        -8.8013910863038
      ],
      [
        "分手",
        -8.803999346943385
      ],
      [
        "也没有",
        -8.804963427324667
      ],
      [
        "女朋友",
        -8.80529295253173
      ],
      [
        "间",
        -8.806066409781174
      ],
      [
        "是在",
        -8.806324575518234
      ],
      [
        "也没",
        -8.806343998865021
      ],
      [
        "坚持",
        -8.807636900143368
      ],
      [
        "▁人家",
        -8.80817751730947
      ],
      [
        "退",
        -8.808225121799524
      ],
      [
        "的小",
        -8.809930238016559
      ],
      [
        "两个人",
        -8.810709074049745
      ],
      [
        "有些",
        -8.811603197834728
      ],
      [
        "是谁",
        -8.812237853309199
      ],
      [
        "你要",
        -8.812934342524478
      ],
      [
        "首",
        -8.814897448598481
      ],
      [
        "计划",
        -8.817109256609262
      ],
      [
        "记",
        -8.818646255143687
      ],
      [
        "城市",
        -8.818839201934228
      ],
      [
        "▁然后呢",
        -8.82017968327876
      ],
      [
        "▁可以",
        -8.821585900334398
      ],
      [
        "完全",
        -8.822022750960217
      ],
      [
        "使",
        -8.82350178000861
      ],
      [
        "上班",
        -8.824268878200272
      ],
      [
        "雪",
        -8.826175754695187
      ],
      [
        "就可以",
        -8.82629170430834
      ],
      [
        "的孩子",
        -8.82924521702234
      ],
      [
        "贵",
        -8.829468487921007
      ],
      [
        "排",
        -8.831632556627726
      ],
      [
        "作为",
        -8.83335908157367
      ],
      [
        "老公",
        -8.835295815226749
      ],
      [
        "好的",
        -8.835434655375254
      ],
      [
        "能不能",
        -8.835541038189104
      ],
      [
        "要是",
        -8.837499514641609
      ],
      [
        "田",
        -8.839009096406768
      ],
      [
        "▁当时",
        -8.840192543954146
      ],
      [
        "刀",
        -8.840530510797242
      ],
      [
        "青",
        -8.841139229549562
      ],
      [
        "把它",
        -8.841557827154109
      ],
      [
        "直",
        -8.841909740865804
      ],
      [
        "研究",
        -8.842645615168998
      ],
      [
        "网",
        -8.842709741926898
      ],
      [
        "都没",
        -8.843271382326472
      ],
      [
        "做了",
        -8.844279423406455
      ],
      [
        "抓",
        -8.846674342287935
      ],
      [
        "爱情",
        -8.847607856421101
      ],
      [
        "北",
        -8.84777617891625
      ],
      [
        "每",
        -8.847998402476291
      ],
      [
        "好吗",
        -8.849714781315496
      ],
      [
        "银行",
        -8.85085167164781
      ],
      [
        "信息",
        -8.85185694233867
      ],
      [
        "睡觉",
        -8.851930718917872
      ],
      [
        "你看",
        -8.852375659325947
      ],
      [
        "也有",
        -8.852629028670629
      ],
      [
        "条件",
        -8.853539379756329
      ],
      [
        "上了",
        -8.85582018737281
      ],
      [
        "任何",
        -8.856404209801594
      ],
      [
        "文化",
        -8.858387305062038
      ],
      [
        "怎么办",
        -8.858578757136018
      ],
      [
        "完成",
        -8.859472749120366
      ],
      [
        "油",
        -8.859559558980449
      ],
      [
        "帮助",
        -8.859856403039908
      ],
      [
        "的故事",
        -8.861690088621229
      ],
      [
        "跟你说",
        -8.862219265444987
      ],
      [
        "歌",
        -8.864284088537177
      ],
      [
        "看着",
        -8.866426319046926
      ],
      [
        "对吧",
        -8.866477662501586
      ],
      [
        "明天",
        -8.867034785038726
      ],
      [
        "消息",
        -8.867381682048036
      ],
      [
        "遇到",
        -8.86835820804914
      ],
      [
        "▁甚至",
        -8.868379685391828
      ],
      [
        "一会儿",
        -8.869370026057029
      ],
      [
        "在这里",
        -8.871100038037829
      ],
      [
        "枪",
        -8.871974005104867
      ],
      [
        "▁并",
        -8.872528043046989
      ],
      [
        "招",
        -8.87377854852924
      ],
      [
        "待",
        -8.874050223468227
      ],
      [
        "包括",
        -8.874701342071681
      ],
      [
        "夜",
        -8.874752201308775
      ],
      [
        "知",
        -8.874992485141052
      ],
      [
        "你说",
        -8.875334443668855
      ],
      [
        "人生",
        -8.875942142864993
      ],
      [
        "二十",
        -8.876565390026443
      ],
      [
        "第一次",
        -8.880467216062689
      ],
      [
        "管理",
        -8.880891447889104
      ],
      [
        "借",
        -8.88090994965088
      ],
      [
        "修",
        -8.881172616757901
      ],
      [
        "我要",
        -8.881312069572767
      ],
      [
        "归",
        -8.882069164101683
      ],
      [
        "推",
        -8.883382758442266
      ],
      [
        "父亲",
        -8.883960782166675
      ],
      [
        "还能",
        -8.884238476056655
      ],
      [
        "教育",
        -8.886572943186897
      ],
      [
        "一句",
        -8.886671451529436
      ],
      [
        "毒",
        -8.887804454366627
      ],
      [
        "越来越",
        -8.88828838864263
      ],
      [
        "读",
        -8.888737443761253
      ],
      [
        "尔",
        -8.889853911518642
      ],
      [
        "完了",
        -8.89008785885592
      ],
      [
        "上来",
        -8.890537799049923
      ],
      [
        "其他",
        -8.891873948976066
      ],
      [
        "主动",
        -8.892391913409845
      ],
      [
        "直播",
        -8.892860924078663
      ],
      [
        "▁一",
        -8.893036548607851
      ],
      [
        "全部",
        -8.893104295587616
      ],
      [
        "课",
        -8.893589202856031
      ],
      [
        "来看",
        -8.893672351374729
      ],
      [
        "失",
        -8.893815015044495
      ],
      [
        "婚姻",
        -8.894994415304165
      ],
      [
        "晚",
        -8.895526295741131
      ],
      [
        "鬼",
        -8.896722382304716
      ],
      [
        "不同",
        -8.899239305206894
      ],
      [
        "问我",
        -8.89951738793892
      ],
      [
        "服务",
        -8.900024834630747
      ],
      [
        "这儿",
        -8.902450283224686
      ],
      [
        "▁只有",
        -8.90264205074967
      ],
      [
        "调查",
        -8.903012741482499
      ],
      [
        "经",
        -8.903663865500453
      ],
      [
        "结",
        -8.905712198009208
      ],
      [
        "然",
        -8.905975369988045
      ],
      [
        "及",
        -8.906093149922567
      ],
      [
        "河",
        -8.906604833699314
      ],
      [
        "铁",
        -8.907103243680185
      ],
      [
        "领",
        -8.907301986066992
      ],
      [
        "洗",
        -8.910083062555762
      ],
      [
        "衣服",
        -8.910256926201528
      ],
      [
        "进入",
        -8.910304498646369
      ],
      [
        "自我",
        -8.911731311435263
      ],
      [
        "朝",
        -8.911998741856378
      ],
      [
        "还在",
        -8.912793698547782
      ],
      [
        "解决",
        -8.91320989932728
      ],
      [
        "各种",
        -8.914440465848578
      ],
      [
        "▁咱",
        -8.914795406207432
      ],
      [
        "▁真的",
        -8.915108939954683
      ],
      [
        "母亲",
        -8.91664739583861
      ],
      [
        "相信",
        -8.91725951585329
      ],
      [
        "多了",
        -8.91776006561929
      ],
      [
        "只要",
        -8.91828643948601
      ],
      [
        "赶紧",
        -8.918427150849565
      ],
      [
        "翻",
        -8.919940371033096
      ],
      [
        "投资",
        -8.920491030422019
      ],
      [
        "安排",
        -8.92127938885095
      ],
      [
        "兰",
        -8.922942625204692
      ],
      [
        "处理",
        -8.923161854622442
      ],
      [
        "▁一个",
        -8.923217113086455
      ],
      [
        "方式",
        -8.923584358895825
      ],
      [
        "双",
        -8.924786912861922
      ],
      [
        "告诉",
        -8.924885555064796
      ],
      [
        "品",
        -8.925098404496117
      ],
      [
        "因",
        -8.925176316013854
      ],
      [
        "抢",
        -8.926707646947591
      ],
      [
        "把他",
        -8.926841117585386
      ],
      [
        "▁没",
        -8.926951118329354
      ],
      [
        "▁或者",
        -8.92740840230299
      ],
      [
        "打电话",
        -8.930218709602938
      ],
      [
        "技术",
        -8.931428000261802
      ],
      [
        "去找",
        -8.932942075093
      ],
      [
        "北京",
        -8.934146775627815
      ],
      [
        "阳",
        -8.934180734907702
      ],
      [
        "代",
        -8.934293817691106
      ],
      [
        "▁什么",
        -8.93586549835694
      ],
      [
        "我自己",
        -8.93748002240139
      ],
      [
        "并不",
        -8.938254130786998
      ],
      [
        "曾",
        -8.939649274726827
      ],
      [
        "谢谢",
        -8.94044675182186
      ],
      [
        "我想",
        -8.940927961313083
      ],
      [
        "虽然",
        -8.941271406877087
      ],
      [
        "我现在",
        -8.941733390576776
      ],
      [
        "分享",
        -8.942305430626277
      ],
      [
        "看见",
        -8.9434228177738
      ],
      [
        "百",
        -8.943875641934293
      ],
      [
        "▁只要",
        -8.944711885621043
      ],
      [
        "以为",
        -8.945386830261551
      ],
      [
        "伤害",
        -8.946424552052497
      ],
      [
        "罪",
        -8.946571083796947
      ],
      [
        "这里",
        -8.947071604210745
      ],
      [
        "支持",
        -8.947346340260676
      ],
      [
        "不过",
        -8.949396105418657
      ],
      [
        "真正",
        -8.950441387668318
      ],
      [
        "平时",
        -8.953985987644502
      ],
      [
        "回答",
        -8.95438320999989
      ],
      [
        "球",
        -8.955511878040669
      ],
      [
        "男朋友",
        -8.955532276900087
      ],
      [
        "都在",
        -8.955879630656268
      ],
      [
        "保",
        -8.956367737387046
      ],
      [
        "行动",
        -8.956527606343652
      ],
      [
        "永远",
        -8.95749515446764
      ],
      [
        "▁反正",
        -8.957593907567821
      ],
      [
        "而且",
        -8.95772015792831
      ],
      [
        "科",
        -8.95773581264184
      ],
      [
        "那样",
        -8.958339327402246
      ],
      [
        "应该是",
        -8.958943982955322
      ],
      [
        "主播",
        -8.960095818214908
      ],
      [
        "▁你现在",
        -8.960342746429946
      ],
      [
        "男",
        -8.96043504123026
      ],
      [
        "▁你这",
        -8.961532513797884
      ],
      [
        "考虑",
        -8.96199760602437
      ],
      [
        "次",
        -8.962037644998434
      ],
      [
        "应",
        -8.962861782865417
      ],
      [
        "保护",
        -8.963066895398653
      ],
      [
        "案",
        -8.963270956058784
      ],
      [
        "活动",
        -8.96451037236006
      ],
      [
        "堂",
        -8.964591860829753
      ],
      [
        "树",
        -8.965091039357214
      ],
      [
        "▁当然",
        -8.965237625887575
      ],
      [
        "三十",
        -8.965459106353064
      ],
      [
        "微信",
        -8.965964473723902
      ],
      [
        "补",
        -8.966424521740677
      ],
      [
        "不用",
        -8.966595725161026
      ],
      [
        "布",
        -8.966617001349638
      ],
      [
        "精神",
        -8.966780158719942
      ],
      [
        "福",
        -8.967342963386436
      ],
      [
        "院",
        -8.967392824568767
      ],
      [
        "常",
        -8.968117295054421
      ],
      [
        "我妈",
        -8.968883809531276
      ],
      [
        "商",
        -8.96925366402178
      ],
      [
        "▁请",
        -8.973632912888213
      ],
      [
        "合作",
        -8.976138057516998
      ],
      [
        "帮我",
        -8.978146752171607
      ],
      [
        "解",
        -8.978521438589103
      ],
      [
        "表达",
        -8.97909014155303
      ],
      [
        "娘",
        -8.979333866393597
      ],
      [
        "干什么",
        -8.979707976986749
      ],
      [
        "▁想",
        -8.9797703778808
      ],
      [
        "价",
        -8.979977889062349
      ],
      [
        "建",
        -8.98005983949924
      ],
      [
        "现场",
        -8.980466351206777
      ],
      [
        "村",
        -8.980750410169627
      ],
      [
        "不敢",
        -8.981152911657018
      ],
      [
        "武",
        -8.981304124368867
      ],
      [
        "说的",
        -8.982140471044223
      ],
      [
        "赵",
        -8.98227365002906
      ],
      [
        "以及",
        -8.983031568348967
      ],
      [
        "不一样",
        -8.983466273030587
      ],
      [
        "格",
        -8.984135024206038
      ],
      [
        "家人",
        -8.984431371217166
      ],
      [
        "压",
        -8.984469241061044
      ],
      [
        "终于",
        -8.98701018040619
      ],
      [
        "票",
        -8.987788699289764
      ],
      [
        "痛",
        -8.988254906685292
      ],
      [
        "逼",
        -8.988704089673844
      ],
      [
        "怪",
        -8.98921019392812
      ],
      [
        "拥有",
        -8.98928764208901
      ],
      [
        "重要",
        -8.989642260023642
      ],
      [
        "片",
        -8.98972348813436
      ],
      [
        "控制",
        -8.989788814404932
      ],
      [
        "守",
        -8.98999633987612
      ],
      [
        "烟",
        -8.990274589423446
      ],
      [
        "领导",
        -8.99114441198971
      ],
      [
        "业",
        -8.99126939861497
      ],
      [
        "第二",
        -8.992264215088063
      ],
      [
        "的一些",
        -8.992904317230533
      ],
      [
        "亮",
        -8.993585948760463
      ],
      [
        "▁这些",
        -8.993769972299173
      ],
      [
        "尽",
        -8.994064110866974
      ],
      [
        "▁我知道",
        -8.994139516848662
      ],
      [
        "节",
        -8.995832302759103
      ],
      [
        "这一",
        -8.997288481457796
      ],
      [
        "上面",
        -8.99746445560586
      ],
      [
        "除了",
        -8.9984735894213
      ],
      [
        "罗",
        -8.99877310420701
      ],
      [
        "身边",
        -8.999502961788926
      ],
      [
        "坏",
        -9.000533147750764
      ],
      [
        "喊",
        -9.001354333754081
      ],
      [
        "机会",
        -9.002732015000914
      ],
      [
        "压力",
        -9.00289630934229
      ],
      [
        "则",
        -9.003465678583693
      ],
      [
        "抽",
        -9.003745170172744
      ],
      [
        "疫情",
        -9.004174627849407
      ],
      [
        "还没有",
        -9.00430588946446
      ],
      [
        "实",
        -9.004349707086606
      ],
      [
        "员",
        -9.005140200130203
      ],
      [
        "面对",
        -9.006809853349674
      ],
      [
        "解释",
        -9.006894780528743
      ],
      [
        "上海",
        -9.006979153683849
      ],
      [
        "短",
        -9.007213161720886
      ],
      [
        "最大的",
        -9.007213350058294
      ],
      [
        "就能",
        -9.007677859364655
      ],
      [
        "背",
        -9.007712458631245
      ],
      [
        "余",
        -9.007871088159721
      ],
      [
        "君",
        -9.00800623097982
      ],
      [
        "什么呀",
        -9.009579634713967
      ],
      [
        "语",
        -9.010019992474442
      ],
      [
        "不可能",
        -9.010464109912414
      ],
      [
        "并",
        -9.012448467738748
      ],
      [
        "电影",
        -9.013227453191524
      ],
      [
        "精",
        -9.01353762657323
      ],
      [
        "马上",
        -9.013889405535586
      ],
      [
        "地说",
        -9.015088564356617
      ],
      [
        "关于",
        -9.016307560532017
      ],
      [
        "星",
        -9.017342392042679
      ],
      [
        "当然",
        -9.01764058850514
      ],
      [
        "投",
        -9.01814568598272
      ],
      [
        "妹妹",
        -9.018520443335843
      ],
      [
        "茶",
        -9.018671189052418
      ],
      [
        "丽",
        -9.019895339170027
      ],
      [
        "生气",
        -9.020314113973262
      ],
      [
        "汉",
        -9.020682754625046
      ],
      [
        "行业",
        -9.020936913654603
      ],
      [
        "偷",
        -9.022217634274615
      ],
      [
        "傻",
        -9.023427873232777
      ],
      [
        "让人",
        -9.023899519058748
      ],
      [
        "面前",
        -9.024641373869722
      ],
      [
        "绝",
        -9.025590542726919
      ],
      [
        "变成",
        -9.025630555772771
      ],
      [
        "▁你还",
        -9.026254230961118
      ],
      [
        "参加",
        -9.026845317082289
      ],
      [
        "盘",
        -9.027741637783253
      ],
      [
        "▁于是",
        -9.028745963403923
      ],
      [
        "成了",
        -9.02958305712475
      ],
      [
        "重新",
        -9.030524148590604
      ],
      [
        "就说",
        -9.030856686204705
      ],
      [
        "你是",
        -9.03089720327391
      ],
      [
        "▁就像",
        -9.032058792941546
      ],
      [
        "座",
        -9.034138420551114
      ],
      [
        "回到",
        -9.034929087575069
      ],
      [
        "政府",
        -9.035577143357683
      ],
      [
        "学生",
        -9.036871285266281
      ],
      [
        "不得",
        -9.04112644731806
      ],
      [
        "了我",
        -9.041616177116234
      ],
      [
        "放弃",
        -9.042750445560245
      ],
      [
        "三个",
        -9.043383608299033
      ],
      [
        "一定会",
        -9.044011445197535
      ],
      [
        "率",
        -9.0442633737855
      ],
      [
        "不够",
        -9.044945195090863
      ],
      [
        "整",
        -9.045312640493623
      ],
      [
        "一句话",
        -9.045674179416764
      ],
      [
        "▁欢迎",
        -9.046130922647768
      ],
      [
        "州",
        -9.046304126899043
      ],
      [
        "股",
        -9.04653247938534
      ],
      [
        "甚至",
        -9.047927401081072
      ],
      [
        "介绍",
        -9.048574902278352
      ],
      [
        "音",
        -9.048992848364325
      ],
      [
        "国际",
        -9.049325899111263
      ],
      [
        "游",
        -9.050540135823182
      ],
      [
        "一场",
        -9.050760784459518
      ],
      [
        "制",
        -9.051778194319823
      ],
      [
        "眼睛",
        -9.05251117336571
      ],
      [
        "的工作",
        -9.053268831992371
      ],
      [
        "做的",
        -9.054102130696858
      ],
      [
        "▁包括",
        -9.054788109963964
      ],
      [
        "款",
        -9.055038784954299
      ],
      [
        "▁你怎么",
        -9.055455703977596
      ],
      [
        "疼",
        -9.05613710645156
      ],
      [
        "散",
        -9.056154689266828
      ],
      [
        "就是我",
        -9.057383708442286
      ],
      [
        "船",
        -9.05840198102544
      ],
      [
        "指",
        -9.059029223148292
      ],
      [
        "急",
        -9.059305011988291
      ],
      [
        "代表",
        -9.05952461736296
      ],
      [
        "一只",
        -9.060708133661871
      ],
      [
        "保持",
        -9.061409373792005
      ],
      [
        "人员",
        -9.062046820453315
      ],
      [
        "老婆",
        -9.063177304699762
      ],
      [
        "那儿",
        -9.065384475072507
      ],
      [
        "网络",
        -9.065455299648333
      ],
      [
        "根",
        -9.06597570315772
      ],
      [
        "▁所以我",
        -9.066374560178721
      ],
      [
        "▁对于",
        -9.066517207761002
      ],
      [
        "很好",
        -9.066636267528866
      ],
      [
        "县",
        -9.066766064013791
      ],
      [
        "五十",
        -9.066846213203625
      ],
      [
        "实现",
        -9.067646457963733
      ],
      [
        "任",
        -9.068838967116026
      ],
      [
        "声音",
        -9.069113005295215
      ],
      [
        "▁其中",
        -9.06913978225477
      ],
      [
        "▁他就",
        -9.069340521295011
      ],
      [
        "成长",
        -9.06973678925897
      ],
      [
        "顶",
        -9.070108845484258
      ],
      [
        "够",
        -9.070144588363725
      ],
      [
        "猫",
        -9.070276909897654
      ],
      [
        "▁妈妈",
        -9.07080900841453
      ],
      [
        "叶",
        -9.072560123299949
      ],
      [
        "那天",
        -9.075432628526169
      ],
      [
        "没事",
        -9.075487638629614
      ],
      [
        "一般",
        -9.075845911178892
      ],
      [
        "一直在",
        -9.075955751423006
      ],
      [
        "志",
        -9.075962181407693
      ],
      [
        "犯",
        -9.078496889615554
      ],
      [
        "什么时候",
        -9.079083039323075
      ],
      [
        "媳妇儿",
        -9.07955795883739
      ],
      [
        "爸",
        -9.080132994661037
      ],
      [
        "共",
        -9.080137390945769
      ],
      [
        "那么多",
        -9.080155017299136
      ],
      [
        "猪",
        -9.080829278775251
      ],
      [
        "一切",
        -9.080850561928806
      ],
      [
        "打算",
        -9.081379085971717
      ],
      [
        "就像",
        -9.081912498570743
      ],
      [
        "古",
        -9.08217575973544
      ],
      [
        "喝酒",
        -9.083036759966097
      ],
      [
        "▁以",
        -9.08343720979884
      ],
      [
        "懂",
        -9.083469721572682
      ],
      [
        "孙",
        -9.083534246730062
      ],
      [
        "是吗",
        -9.083793506831752
      ],
      [
        "自然",
        -9.084213658491233
      ],
      [
        "赶",
        -9.085139602787073
      ],
      [
        "健康",
        -9.08515900216018
      ],
      [
        "容易",
        -9.086100589869421
      ],
      [
        "弟弟",
        -9.086456247705087
      ],
      [
        "三年",
        -9.087287583857352
      ],
      [
        "状态",
        -9.08772159634663
      ],
      [
        "进来",
        -9.088745319642523
      ],
      [
        "轻",
        -9.091350358378971
      ],
      [
        "土",
        -9.092808744473048
      ],
      [
        "的关系",
        -9.094185117163114
      ],
      [
        "器",
        -9.094230587666397
      ],
      [
        "照顾",
        -9.095069820722056
      ],
      [
        "原因",
        -9.096943783994453
      ],
      [
        "腿",
        -9.097666402527551
      ],
      [
        "更多",
        -9.09967601113798
      ],
      [
        "组织",
        -9.099746008007259
      ],
      [
        "野",
        -9.105942981403885
      ],
      [
        "都要",
        -9.105947260399827
      ],
      [
        "呐",
        -9.106030716184762
      ],
      [
        "的感觉",
        -9.106374163674813
      ],
      [
        "的样子",
        -9.106793360150023
      ],
      [
        "一位",
        -9.106856593844025
      ],
      [
        "累",
        -9.107055542136106
      ],
      [
        "陪",
        -9.107104948078437
      ],
      [
        "▁所以说",
        -9.108881589754914
      ],
      [
        "不太",
        -9.109072883694932
      ],
      [
        "吃了",
        -9.109494356528849
      ],
      [
        "运",
        -9.10968177325168
      ],
      [
        "我爸",
        -9.109838995402889
      ],
      [
        "将军",
        -9.110765277305125
      ],
      [
        "谢",
        -9.110847861634603
      ],
      [
        "未",
        -9.110937536901634
      ],
      [
        "证",
        -9.11141066859527
      ],
      [
        "新的",
        -9.111660088019354
      ],
      [
        "慢慢",
        -9.112980733867284
      ],
      [
        "硬",
        -9.113594505598567
      ],
      [
        "新闻",
        -9.113684385688089
      ],
      [
        "把这个",
        -9.114965791415209
      ],
      [
        "这事儿",
        -9.116186704799759
      ],
      [
        "初",
        -9.116438052032251
      ],
      [
        "吴",
        -9.117196487410652
      ],
      [
        "挑",
        -9.117687967452063
      ],
      [
        "一家",
        -9.11807163693375
      ],
      [
        "交流",
        -9.118206258323365
      ],
      [
        "证明",
        -9.118216021191676
      ],
      [
        "相处",
        -9.118505180221561
      ],
      [
        "此",
        -9.118736453425065
      ],
      [
        "鸡",
        -9.118948453954571
      ],
      [
        "对他",
        -9.120854552020436
      ],
      [
        "断",
        -9.121031430727099
      ],
      [
        "▁比如说",
        -9.122176873311602
      ],
      [
        "让我们",
        -9.122424543907133
      ],
      [
        "不可",
        -9.123466298644892
      ],
      [
        "清楚",
        -9.124171480046007
      ],
      [
        "雷",
        -9.124780837854978
      ],
      [
        "灯",
        -9.124907858659025
      ],
      [
        "去做",
        -9.126313888756295
      ],
      [
        "春",
        -9.1282652559923
      ],
      [
        "叔",
        -9.128320053212288
      ],
      [
        "一份",
        -9.129253686345855
      ],
      [
        "件",
        -9.129501828222365
      ],
      [
        "帮你",
        -9.130967799125205
      ],
      [
        "底",
        -9.131587112051935
      ],
      [
        "▁李",
        -9.131784904413085
      ],
      [
        "属于",
        -9.13193962736186
      ],
      [
        "来的",
        -9.132205525483126
      ],
      [
        "刷",
        -9.133239217920291
      ],
      [
        "建议",
        -9.133567619694489
      ],
      [
        "就不",
        -9.134444935375292
      ],
      [
        "左右",
        -9.134766418349685
      ],
      [
        "上的",
        -9.134913485707584
      ],
      [
        "▁中国",
        -9.13578352438967
      ],
      [
        "思",
        -9.135821833796303
      ],
      [
        "放在",
        -9.138434991440985
      ],
      [
        "练",
        -9.139916502268559
      ],
      [
        "▁该",
        -9.140071255542015
      ],
      [
        "▁我会",
        -9.140668751778085
      ],
      [
        "这边",
        -9.141125725754108
      ],
      [
        "并没有",
        -9.14166483538863
      ],
      [
        "给我们",
        -9.141702951789185
      ],
      [
        "负责",
        -9.142118078119097
      ],
      [
        "不管",
        -9.14235153017634
      ],
      [
        "获得",
        -9.142594377214547
      ],
      [
        "防",
        -9.143071241271974
      ],
      [
        "类",
        -9.143666399196835
      ],
      [
        "▁你可以",
        -9.143821447660596
      ],
      [
        "见过",
        -9.144027121793613
      ],
      [
        "产品",
        -9.144073274873
      ],
      [
        "也好",
        -9.144750362531134
      ],
      [
        "是一种",
        -9.144910553102388
      ],
      [
        "一个月",
        -9.146724160338213
      ],
      [
        "一段",
        -9.147142801887904
      ],
      [
        "配",
        -9.147512399158945
      ],
      [
        "念",
        -9.148960104770424
      ],
      [
        "钟",
        -9.152647712052593
      ],
      [
        "▁也是",
        -9.152908421523268
      ],
      [
        "变得",
        -9.153190868573539
      ],
      [
        "游戏",
        -9.15333634318452
      ],
      [
        "▁你想",
        -9.153978577420883
      ],
      [
        "不愿意",
        -9.15397948554562
      ],
      [
        "▁我这",
        -9.154422194916311
      ],
      [
        "块",
        -9.156237795928968
      ],
      [
        "婚",
        -9.156848643747601
      ],
      [
        "是否",
        -9.157319771910181
      ],
      [
        "昨天",
        -9.158228427047003
      ],
      [
        "令",
        -9.160101474429712
      ],
      [
        "副",
        -9.160291927053947
      ],
      [
        "▁你知道",
        -9.160295048866594
      ],
      [
        "沟通",
        -9.160539401098877
      ],
      [
        "十年",
        -9.161345525735516
      ],
      [
        "很难",
        -9.162986778193401
      ],
      [
        "说过",
        -9.163282799849796
      ],
      [
        "胡",
        -9.16348605222661
      ],
      [
        "休息",
        -9.16381035796938
      ],
      [
        "烧",
        -9.16389139458198
      ],
      [
        "说什么",
        -9.163950974150282
      ],
      [
        "端",
        -9.165736703389328
      ],
      [
        "各",
        -9.166378635092755
      ],
      [
        "存",
        -9.166538754363955
      ],
      [
        "逃",
        -9.166633831870335
      ],
      [
        "这么多",
        -9.167469109315267
      ],
      [
        "百分之",
        -9.167662083662735
      ],
      [
        "宫",
        -9.16784512163401
      ],
      [
        "奶奶",
        -9.16853729329074
      ],
      [
        "经过",
        -9.169114720992802
      ],
      [
        "礼",
        -9.169564382206591
      ],
      [
        "使用",
        -9.169570401399314
      ],
      [
        "宁",
        -9.169939736107136
      ],
      [
        "虎",
        -9.170485074779888
      ],
      [
        "超过",
        -9.170681328046346
      ],
      [
        "▁我不",
        -9.172380211176815
      ],
      [
        "日本",
        -9.174193134853901
      ],
      [
        "波",
        -9.174454505345977
      ],
      [
        "麻烦",
        -9.175307483656496
      ],
      [
        "怎么了",
        -9.175364474596158
      ],
      [
        "环境",
        -9.175751663270457
      ],
      [
        "高兴",
        -9.175953123726853
      ],
      [
        "存在",
        -9.176111019862535
      ],
      [
        "停",
        -9.177245669988185
      ],
      [
        "▁也许",
        -9.177699154965392
      ],
      [
        "女孩子",
        -9.178214103126589
      ],
      [
        "步",
        -9.17826658485659
      ],
      [
        "服",
        -9.17942797782326
      ],
      [
        "▁你别",
        -9.180479232376086
      ],
      [
        "项目",
        -9.181254678242569
      ],
      [
        "自由",
        -9.18130205593058
      ],
      [
        "是因为",
        -9.18223789127897
      ],
      [
        "平台",
        -9.182310689638681
      ],
      [
        "藏",
        -9.183316111710948
      ],
      [
        "主任",
        -9.183378987089526
      ],
      [
        "骂",
        -9.18407859238745
      ],
      [
        "的女人",
        -9.184814342178049
      ],
      [
        "都可以",
        -9.185392870014706
      ],
      [
        "达到",
        -9.185873795828385
      ],
      [
        "女生",
        -9.186870005736939
      ],
      [
        "阿姨",
        -9.187076537326845
      ],
      [
        "那是",
        -9.188096904697089
      ],
      [
        "你好",
        -9.188293776046404
      ],
      [
        "产",
        -9.1885590005827
      ],
      [
        "和你",
        -9.188696120865414
      ],
      [
        "公主",
        -9.18981891005106
      ],
      [
        "题",
        -9.189965365954814
      ],
      [
        "报告",
        -9.190225725455175
      ],
      [
        "目前",
        -9.190806814383574
      ],
      [
        "怀疑",
        -9.19116288494748
      ],
      [
        "组",
        -9.191353576705811
      ],
      [
        "注意",
        -9.191443546616217
      ],
      [
        "造",
        -9.191985053073076
      ],
      [
        "▁比如",
        -9.192494608135398
      ],
      [
        "共同",
        -9.193342600187206
      ],
      [
        "拿着",
        -9.193364097667661
      ],
      [
        "站在",
        -9.193417899167502
      ],
      [
        "俩",
        -9.19375677713833
      ],
      [
        "冰",
        -9.194484536042879
      ],
      [
        "值",
        -9.195886880403464
      ],
      [
        "▁然后就",
        -9.195991862939444
      ],
      [
        "若",
        -9.196365713460366
      ],
      [
        "挺好的",
        -9.197967049488344
      ],
      [
        "千",
        -9.197982550521445
      ],
      [
        "各位",
        -9.198438027941108
      ],
      [
        "干嘛",
        -9.198594804236034
      ],
      [
        "吵架",
        -9.199262314620572
      ],
      [
        "抱",
        -9.199890501937048
      ],
      [
        "有一些",
        -9.200412171217693
      ],
      [
        "▁能",
        -9.200705309389331
      ],
      [
        "当初",
        -9.20127566426558
      ],
      [
        "按",
        -9.202354090516597
      ],
      [
        "在家",
        -9.206239946404297
      ],
      [
        "聊天",
        -9.207054675273582
      ],
      [
        "情感",
        -9.207075326741993
      ],
      [
        "什么样的",
        -9.207796308879619
      ],
      [
        "下面",
        -9.207950630736118
      ],
      [
        "功",
        -9.207980120247878
      ],
      [
        "最好的",
        -9.209903093882303
      ],
      [
        "视频",
        -9.21008887305819
      ],
      [
        "▁原来",
        -9.210321754971524
      ],
      [
        "现实",
        -9.210795270296778
      ],
      [
        "经历",
        -9.211586168325994
      ],
      [
        "你这",
        -9.212189830043195
      ],
      [
        "一块",
        -9.213335877924543
      ],
      [
        "来到",
        -9.213546550504688
      ],
      [
        "会不会",
        -9.214250591522482
      ],
      [
        "不错",
        -9.214676732265069
      ],
      [
        "▁我就是",
        -9.21545323347518
      ],
      [
        "衣",
        -9.215934493824426
      ],
      [
        "▁快",
        -9.216729163194028
      ],
      [
        "付出",
        -9.216823158203454
      ],
      [
        "满足",
        -9.21789374554858
      ],
      [
        "说他",
        -9.21911670694642
      ],
      [
        "顺",
        -9.2194865752546
      ],
      [
        "板",
        -9.220501180481014
      ],
      [
        "见面",
        -9.220748716552617
      ],
      [
        "我这",
        -9.220803373435224
      ],
      [
        "客",
        -9.221379011367297
      ],
      [
        "苏",
        -9.221476262803874
      ],
      [
        "政策",
        -9.221684342034678
      ],
      [
        "对不起",
        -9.222296698814471
      ],
      [
        "秀",
        -9.223059157438016
      ],
      [
        "把自己",
        -9.2231869091597
      ],
      [
        "胖",
        -9.223282642907712
      ],
      [
        "一张",
        -9.223931903219754
      ],
      [
        "治",
        -9.22393658010986
      ],
      [
        "在这个",
        -9.224186891383312
      ],
      [
        "我们家",
        -9.224381219839769
      ],
      [
        "紧张",
        -9.22447525031652
      ],
      [
        "消费",
        -9.22487920312815
      ],
      [
        "紧",
        -9.226430210979546
      ],
      [
        "同意",
        -9.226813639004195
      ],
      [
        "哪个",
        -9.227007913034814
      ],
      [
        "帅",
        -9.227194960282333
      ],
      [
        "一辈子",
        -9.227331722423788
      ],
      [
        "静",
        -9.227785196428044
      ],
      [
        "喜",
        -9.228304676242834
      ],
      [
        "你现在",
        -9.229219021626264
      ],
      [
        "感到",
        -9.22960250241162
      ],
      [
        "价格",
        -9.229771013419677
      ],
      [
        "等等",
        -9.229820067961757
      ],
      [
        "才是",
        -9.22995000524635
      ],
      [
        "似的",
        -9.229952142144018
      ],
      [
        "治疗",
        -9.23009687102478
      ],
      [
        "一边",
        -9.23224787587909
      ],
      [
        "恋爱",
        -9.232394974392298
      ],
      [
        "沉",
        -9.232887516733953
      ],
      [
        "狼",
        -9.233366187125199
      ],
      [
        "▁都是",
        -9.23425265045778
      ],
      [
        "套",
        -9.23437068527397
      ],
      [
        "吹",
        -9.234582162241015
      ],
      [
        "记得",
        -9.236464330031803
      ],
      [
        "样",
        -9.236657102258018
      ],
      [
        "群",
        -9.23671032046212
      ],
      [
        "师傅",
        -9.237208462137435
      ],
      [
        "运动",
        -9.237597694088311
      ],
      [
        "都能",
        -9.237613386680836
      ],
      [
        "建设",
        -9.237871226374475
      ],
      [
        "笔",
        -9.238240962912071
      ],
      [
        "更加",
        -9.238542206159543
      ],
      [
        "有时候",
        -9.239001312592169
      ],
      [
        "依然",
        -9.239468020058657
      ],
      [
        "可能会",
        -9.239898293287608
      ],
      [
        "些",
        -9.240135561121352
      ],
      [
        "占",
        -9.241097182963088
      ],
      [
        "忘了",
        -9.24170113613765
      ],
      [
        "部分",
        -9.242023018935924
      ],
      [
        "的方式",
        -9.242552146741456
      ],
      [
        "灵",
        -9.242897470319598
      ],
      [
        "夫人",
        -9.2429614683935
      ],
      [
        "时候",
        -9.243344835246578
      ],
      [
        "而已",
        -9.243465742949589
      ],
      [
        "做什么",
        -9.24349176646974
      ],
      [
        "科技",
        -9.245217794903375
      ],
      [
        "一看",
        -9.24541338856503
      ],
      [
        "▁然后他",
        -9.245432537301818
      ],
      [
        "姓",
        -9.246565986959263
      ],
      [
        "曲",
        -9.246601711611639
      ],
      [
        "提供",
        -9.247565926826507
      ],
      [
        "相关",
        -9.247939592935687
      ],
      [
        "▁除了",
        -9.248455230009029
      ],
      [
        "给自己",
        -9.249858190822973
      ],
      [
        "恩",
        -9.250284504115761
      ],
      [
        "表",
        -9.250363815646296
      ],
      [
        "确定",
        -9.25067090073979
      ],
      [
        "队长",
        -9.251474742440566
      ],
      [
        "回头",
        -9.251618153287316
      ],
      [
        "中心",
        -9.251945903362037
      ],
      [
        "这么说",
        -9.253015773410958
      ],
      [
        "当年",
        -9.25580017059475
      ],
      [
        "秋",
        -9.256044919444072
      ],
      [
        "夏",
        -9.256077686878772
      ],
      [
        "爷爷",
        -9.256422725143127
      ],
      [
        "主要",
        -9.25712698405934
      ],
      [
        "买了",
        -9.259157911565154
      ],
      [
        "去吧",
        -9.259195072453496
      ],
      [
        "干吗",
        -9.259500966915695
      ],
      [
        "之后呢",
        -9.259674534017318
      ],
      [
        "部队",
        -9.25985378275633
      ],
      [
        "▁我在",
        -9.259993519307471
      ],
      [
        "食",
        -9.260250885444858
      ],
      [
        "爷",
        -9.26159500062247
      ],
      [
        "英",
        -9.262107054713342
      ],
      [
        "▁我都",
        -9.26258092649338
      ],
      [
        "镇",
        -9.26271602163039
      ],
      [
        "困难",
        -9.26288009052604
      ],
      [
        "漂亮",
        -9.264569971058075
      ],
      [
        "还得",
        -9.264737040691443
      ],
      [
        "正常",
        -9.264816700504841
      ],
      [
        "现",
        -9.264933259534578
      ],
      [
        "手里",
        -9.265087142252364
      ],
      [
        "五年",
        -9.26654335116249
      ],
      [
        "年轻",
        -9.266605485670404
      ],
      [
        "良",
        -9.266782646629924
      ],
      [
        "一点儿",
        -9.266950120061848
      ],
      [
        "▁就是说",
        -9.266986005940986
      ],
      [
        "亿",
        -9.269215423121262
      ],
      [
        "欠",
        -9.26956588073166
      ],
      [
        "出来了",
        -9.270057469827158
      ],
      [
        "里的",
        -9.27076904740155
      ],
      [
        "▁今年",
        -9.270975491719934
      ],
      [
        "差不多",
        -9.27110652275789
      ],
      [
        "这件事情",
        -9.271964438781167
      ],
      [
        "你还",
        -9.271978944597784
      ],
      [
        "关心",
        -9.272253551891765
      ],
      [
        "习惯",
        -9.27285478379772
      ],
      [
        "是有",
        -9.273950946834901
      ],
      [
        "▁那是",
        -9.274376483199209
      ],
      [
        "义",
        -9.274974867180969
      ],
      [
        "儿啊",
        -9.275071336731784
      ],
      [
        "的那种",
        -9.275685883238811
      ],
      [
        "打开",
        -9.276156110586445
      ],
      [
        "切",
        -9.27622851357889
      ],
      [
        "通知",
        -9.279864575799358
      ],
      [
        "错了",
        -9.280001839827806
      ],
      [
        "观",
        -9.280734373284183
      ],
      [
        "太多",
        -9.283485366898283
      ],
      [
        "两年",
        -9.28370397872018
      ],
      [
        "是为了",
        -9.283741749227396
      ],
      [
        "同事",
        -9.283840873211378
      ],
      [
        "牌",
        -9.284517752958262
      ],
      [
        "按照",
        -9.285090334634914
      ],
      [
        "变化",
        -9.285177185701205
      ],
      [
        "寒",
        -9.286286735996255
      ],
      [
        "创造",
        -9.286553668782203
      ],
      [
        "尊重",
        -9.287128627119477
      ],
      [
        "教授",
        -9.28870184229266
      ],
      [
        "简单",
        -9.290054824048454
      ],
      [
        "保证",
        -9.29029061114324
      ],
      [
        "生产",
        -9.290723799274303
      ],
      [
        "唐",
        -9.29195307758522
      ],
      [
        "我还",
        -9.292644807734579
      ],
      [
        "缺",
        -9.293224163057083
      ],
      [
        "会有",
        -9.293629076948246
      ],
      [
        "的呀",
        -9.293749190187484
      ],
      [
        "四十",
        -9.294129789595177
      ],
      [
        "读书",
        -9.29480446177216
      ],
      [
        "为你",
        -9.296080930193607
      ],
      [
        "▁难道",
        -9.296174703155854
      ],
      [
        "给你们",
        -9.29627746970111
      ],
      [
        "在这",
        -9.29633706577552
      ],
      [
        "以来",
        -9.2963693815413
      ],
      [
        "型",
        -9.296478750990136
      ],
      [
        "▁你不",
        -9.296954409026082
      ],
      [
        "▁据",
        -9.297080356126981
      ],
      [
        "▁既然",
        -9.297212817548573
      ],
      [
        "找我",
        -9.297995051715212
      ],
      [
        "▁更",
        -9.298088950783823
      ],
      [
        "▁以后",
        -9.29968283561995
      ],
      [
        "不对",
        -9.300763326934575
      ],
      [
        "任务",
        -9.301254011608023
      ],
      [
        "许",
        -9.302172037788534
      ],
      [
        "有很多",
        -9.302843303131455
      ],
      [
        "替",
        -9.303355125886721
      ],
      [
        "资金",
        -9.303750389662508
      ],
      [
        "▁我我",
        -9.304859014546434
      ],
      [
        "试",
        -9.305126279433107
      ],
      [
        "值得",
        -9.305634770395448
      ],
      [
        "我说",
        -9.306182595632404
      ],
      [
        "兴",
        -9.306754288924227
      ],
      [
        "凉",
        -9.307207000902672
      ],
      [
        "影",
        -9.308423414382728
      ],
      [
        "对象",
        -9.308608402743207
      ],
      [
        "认",
        -9.30915708766958
      ],
      [
        "生命",
        -9.309301355769438
      ],
      [
        "级",
        -9.31081317680223
      ],
      [
        "托",
        -9.311662332421655
      ],
      [
        "▁他是",
        -9.311831580812067
      ],
      [
        "一百",
        -9.312014731782886
      ],
      [
        "的这种",
        -9.31240246489746
      ],
      [
        "你也",
        -9.31249338559746
      ],
      [
        "脱",
        -9.313016976987688
      ],
      [
        "基金",
        -9.314757808252327
      ],
      [
        "恨",
        -9.315098924328685
      ],
      [
        "鞋",
        -9.31595128250526
      ],
      [
        "问你",
        -9.31598399666991
      ],
      [
        "的声音",
        -9.316456760430661
      ],
      [
        "▁这就是",
        -9.31653890513377
      ],
      [
        "可能是",
        -9.316555801157083
      ],
      [
        "检查",
        -9.31724944872495
      ],
      [
        "也不是",
        -9.317578120558924
      ],
      [
        "下午",
        -9.317695695968453
      ],
      [
        "你们俩",
        -9.319094743117263
      ],
      [
        "不去",
        -9.319298586208156
      ],
      [
        "后面",
        -9.319638760294126
      ],
      [
        "目标",
        -9.319793471504813
      ],
      [
        "也可以",
        -9.320800661184043
      ],
      [
        "绿",
        -9.320916961719387
      ],
      [
        "一件",
        -9.320999390080704
      ],
      [
        "脾气",
        -9.32112057392873
      ],
      [
        "奇",
        -9.321251995761536
      ],
      [
        "全国",
        -9.321757811181737
      ],
      [
        "骗",
        -9.321968592379836
      ],
      [
        "真正的",
        -9.321980964226366
      ],
      [
        "晓",
        -9.322674162291339
      ],
      [
        "富",
        -9.322901556331686
      ],
      [
        "痛苦",
        -9.323220832139523
      ],
      [
        "表现",
        -9.323802734566996
      ],
      [
        "不喜欢",
        -9.323925460400936
      ],
      [
        "咋",
        -9.324047106705155
      ],
      [
        "纸",
        -9.324397778270619
      ],
      [
        "料",
        -9.325372059642461
      ],
      [
        "几天",
        -9.325483493264098
      ],
      [
        "持续",
        -9.326383748180358
      ],
      [
        "营",
        -9.32674995359682
      ],
      [
        "阶段",
        -9.326865910358293
      ],
      [
        "胜",
        -9.32760845940854
      ],
      [
        "天下",
        -9.327965872156781
      ],
      [
        "宋",
        -9.328146115631855
      ],
      [
        "因为我",
        -9.329450487405682
      ],
      [
        "复",
        -9.329627508639353
      ],
      [
        "方法",
        -9.330004634816689
      ],
      [
        "段",
        -9.330320862785102
      ],
      [
        "杰",
        -9.330528581431643
      ],
      [
        "原来",
        -9.331913457734741
      ],
      [
        "跟着",
        -9.333545157876696
      ],
      [
        "所谓的",
        -9.333709731923772
      ],
      [
        "分析",
        -9.333743670097418
      ],
      [
        "期间",
        -9.334254907770816
      ],
      [
        "数据",
        -9.334725757230176
      ],
      [
        "拒绝",
        -9.335254985204731
      ],
      [
        "什么呢",
        -9.335361319357276
      ],
      [
        "母",
        -9.336188509864323
      ],
      [
        "偏",
        -9.336212919797426
      ],
      [
        "出来的",
        -9.336556816242084
      ],
      [
        "▁因为他",
        -9.337220502886833
      ],
      [
        "更多的",
        -9.338098798779264
      ],
      [
        "性的",
        -9.339865820291084
      ],
      [
        "来讲",
        -9.340196295439616
      ],
      [
        "▁因为你",
        -9.340532880303403
      ],
      [
        "糖",
        -9.340946421715557
      ],
      [
        "烦",
        -9.341595011413524
      ],
      [
        "大夫",
        -9.341809373131428
      ],
      [
        "厂",
        -9.341866839542828
      ],
      [
        "别的",
        -9.342216427796782
      ],
      [
        "一声",
        -9.342529958955243
      ],
      [
        "他就",
        -9.342561377310489
      ],
      [
        "▁真",
        -9.343209293405268
      ],
      [
        "基本",
        -9.343389194565567
      ],
      [
        "蛋",
        -9.344164309231001
      ],
      [
        "有钱",
        -9.344396727477843
      ],
      [
        "随便",
        -9.34480517966579
      ],
      [
        "▁这种",
        -9.344894227979335
      ],
      [
        "巴",
        -9.345153963474964
      ],
      [
        "单位",
        -9.345656262596139
      ],
      [
        "上去",
        -9.346465066624315
      ],
      [
        "▁你说你",
        -9.346707057376955
      ],
      [
        "专业",
        -9.346909485022005
      ],
      [
        "▁叫",
        -9.347318259862757
      ],
      [
        "享受",
        -9.347342170900902
      ],
      [
        "▁我还",
        -9.347369840524667
      ],
      [
        "咱俩",
        -9.347513154400076
      ],
      [
        "骨",
        -9.347948669132204
      ],
      [
        "严",
        -9.348718986274662
      ],
      [
        "▁其实我",
        -9.348782691567699
      ],
      [
        "每次",
        -9.349142799918557
      ],
      [
        "素",
        -9.349408590357744
      ],
      [
        "叔叔",
        -9.349657906626561
      ],
      [
        "期待",
        -9.350558872896315
      ],
      [
        "警察",
        -9.350603936553238
      ],
      [
        "▁首先",
        -9.350654361314945
      ],
      [
        "▁这次",
        -9.351044343438549
      ],
      [
        "亚",
        -9.351670993986437
      ],
      [
        "卫",
        -9.351949303892386
      ],
      [
        "▁我看",
        -9.352162840081593
      ],
      [
        "▁每天",
        -9.354130221018139
      ],
      [
        "旧",
        -9.354408322196313
      ],
      [
        "床",
        -9.354841606842157
      ],
      [
        "独",
        -9.355476461134643
      ],
      [
        "哪儿",
        -9.3556445970573
      ],
      [
        "▁像",
        -9.357831791401384
      ],
      [
        "增加",
        -9.358870939003046
      ],
      [
        "的原因",
        -9.35892312941321
      ],
      [
        "争",
        -9.359307897403284
      ],
      [
        "他是",
        -9.359415312657042
      ],
      [
        "谈恋爱",
        -9.36025842893107
      ],
      [
        "校",
        -9.360299357571543
      ],
      [
        "▁但是你",
        -9.36054660334814
      ],
      [
        "极",
        -9.361000346761754
      ],
      [
        "集团",
        -9.36103987147514
      ],
      [
        "坐在",
        -9.361139509171668
      ],
      [
        "你别",
        -9.361783250924368
      ],
      [
        "没事儿",
        -9.362141925108608
      ],
      [
        "▁不知道",
        -9.362554419526559
      ],
      [
        "封",
        -9.362626250595705
      ],
      [
        "彼此",
        -9.362938077752348
      ],
      [
        "女孩",
        -9.363296431779421
      ],
      [
        "礼物",
        -9.364164033094003
      ],
      [
        "他们的",
        -9.365186605264837
      ],
      [
        "放下",
        -9.365235815655549
      ],
      [
        "猜",
        -9.365426137342514
      ],
      [
        "▁阿",
        -9.36547292301259
      ],
      [
        "挂",
        -9.365685322476061
      ],
      [
        "▁毕竟",
        -9.366530335430701
      ],
      [
        "▁先",
        -9.366648442952712
      ],
      [
        "专家",
        -9.367205773427315
      ],
      [
        "的钱",
        -9.368797367922804
      ],
      [
        "业务",
        -9.369042174506385
      ],
      [
        "望",
        -9.369130413928676
      ],
      [
        "提出",
        -9.369464703822597
      ],
      [
        "矛盾",
        -9.369615537436854
      ],
      [
        "的情况",
        -9.370239284714154
      ],
      [
        "竟然",
        -9.370240152405616
      ],
      [
        "▁那我们",
        -9.370543593433478
      ],
      [
        "长得",
        -9.370885924418355
      ],
      [
        "的男人",
        -9.371506827950437
      ],
      [
        "害",
        -9.371700588753676
      ],
      [
        "职",
        -9.372018397455673
      ],
      [
        "前面",
        -9.372433372062464
      ],
      [
        "牙",
        -9.3725692340325
      ],
      [
        "增长",
        -9.37289163642312
      ],
      [
        "行为",
        -9.375278311459237
      ],
      [
        "举",
        -9.375575144759193
      ],
      [
        "心理",
        -9.375997443151087
      ],
      [
        "混",
        -9.376135434266562
      ],
      [
        "▁让我",
        -9.376517925406993
      ],
      [
        "▁目前",
        -9.377195745620963
      ],
      [
        "和他",
        -9.37755374448065
      ],
      [
        "▁孩子",
        -9.377658974384763
      ],
      [
        "还会",
        -9.377713047295494
      ],
      [
        "责任",
        -9.379489953163477
      ],
      [
        "桥",
        -9.379525313625317
      ],
      [
        "系统",
        -9.37956289294625
      ],
      [
        "剑",
        -9.38026148878901
      ],
      [
        "程",
        -9.38046059179447
      ],
      [
        "联",
        -9.380925160923784
      ],
      [
        "盖",
        -9.381533792308534
      ],
      [
        "女性",
        -9.38174007281846
      ],
      [
        "看到了",
        -9.381894491233293
      ],
      [
        "轮",
        -9.383030476048827
      ],
      [
        "梅",
        -9.383242298079027
      ],
      [
        "显示",
        -9.383473097022652
      ],
      [
        "老人",
        -9.383721257160431
      ],
      [
        "爹",
        -9.384008371622077
      ],
      [
        "峰",
        -9.384206928979067
      ],
      [
        "有关",
        -9.384353575232327
      ],
      [
        "鸟",
        -9.384889439385365
      ],
      [
        "同时",
        -9.385386751004859
      ],
      [
        "汤",
        -9.385422085387852
      ],
      [
        "▁哎呀",
        -9.385843836165343
      ],
      [
        "▁然后我就",
        -9.386176692209784
      ],
      [
        "戴",
        -9.386637843347993
      ],
      [
        "丈夫",
        -9.388075892992447
      ],
      [
        "▁嗯嗯",
        -9.388076060859877
      ],
      [
        "调整",
        -9.388786598878369
      ],
      [
        "利用",
        -9.389072355760618
      ],
      [
        "比赛",
        -9.38934235225317
      ],
      [
        "果",
        -9.389820403321519
      ],
      [
        "小孩",
        -9.3905853774454
      ],
      [
        "男生",
        -9.39082073154549
      ],
      [
        "放心",
        -9.391445671545993
      ],
      [
        "脑",
        -9.391771269162303
      ],
      [
        "有一天",
        -9.391974828779556
      ],
      [
        "▁连",
        -9.392691990071675
      ],
      [
        "这位",
        -9.39294673567941
      ],
      [
        "办法",
        -9.393068339825891
      ],
      [
        "年龄",
        -9.393203298808853
      ],
      [
        "皇上",
        -9.393393191819293
      ],
      [
        "帮忙",
        -9.393461364824926
      ],
      [
        "▁最近",
        -9.393482893589885
      ],
      [
        "十分",
        -9.39384368391708
      ],
      [
        "室",
        -9.393945993871949
      ],
      [
        "支",
        -9.395189918468212
      ],
      [
        "随",
        -9.39519175059776
      ],
      [
        "很多人",
        -9.39618441249763
      ],
      [
        "人的",
        -9.398037007681317
      ],
      [
        "想想",
        -9.398175761811359
      ],
      [
        "过得",
        -9.398539142272712
      ],
      [
        "也要",
        -9.398910875911954
      ],
      [
        "也不能",
        -9.39895327813651
      ],
      [
        "▁你是不是",
        -9.399428325716121
      ],
      [
        "日本人",
        -9.399455098232664
      ],
      [
        "也不会",
        -9.40032987433138
      ],
      [
        "正式",
        -9.401453279441585
      ],
      [
        "吵",
        -9.401863974685632
      ],
      [
        "▁张",
        -9.402216353676103
      ],
      [
        "▁你也",
        -9.402569230292851
      ],
      [
        "▁王",
        -9.402903251351963
      ],
      [
        "着急",
        -9.403019930647794
      ],
      [
        "中间",
        -9.403225242397369
      ],
      [
        "集",
        -9.403395942243897
      ],
      [
        "再次",
        -9.403447984564622
      ],
      [
        "日子",
        -9.403746314556175
      ],
      [
        "心情",
        -9.403876507232567
      ],
      [
        "慢",
        -9.403906569221064
      ],
      [
        "▁没想到",
        -9.406233992948263
      ],
      [
        "失去",
        -9.406622353448771
      ],
      [
        "▁有时候",
        -9.406696663652049
      ],
      [
        "奖",
        -9.406765399423064
      ],
      [
        "都已经",
        -9.406998882356527
      ],
      [
        "参与",
        -9.407471791671917
      ],
      [
        "要去",
        -9.408320269239361
      ],
      [
        "穷",
        -9.408513591580455
      ],
      [
        "不断",
        -9.408800684692213
      ],
      [
        "跟他说",
        -9.409427880692387
      ],
      [
        "的机会",
        -9.409621388147904
      ],
      [
        "到现在",
        -9.409934666457971
      ],
      [
        "一片",
        -9.410010271188204
      ],
      [
        "甜",
        -9.410021466310475
      ],
      [
        "贴",
        -9.410044386340402
      ],
      [
        "准",
        -9.410624583400674
      ],
      [
        "松",
        -9.41078508387676
      ],
      [
        "层",
        -9.411034190755043
      ],
      [
        "叫做",
        -9.411870257218668
      ],
      [
        "早就",
        -9.412047831692217
      ],
      [
        "等着",
        -9.412073703903648
      ],
      [
        "居",
        -9.412777325174382
      ],
      [
        "接触",
        -9.413381365633029
      ],
      [
        "▁不管",
        -9.414415077381914
      ],
      [
        "做好",
        -9.414938931820846
      ],
      [
        "弹",
        -9.415069993603801
      ],
      [
        "留下",
        -9.415386254325387
      ],
      [
        "让她",
        -9.415541310291974
      ],
      [
        "有多",
        -9.41609615216019
      ],
      [
        "夫妻",
        -9.41680487855434
      ],
      [
        "标",
        -9.416828041592655
      ],
      [
        "摆",
        -9.416889467438597
      ],
      [
        "躲",
        -9.417206784448261
      ],
      [
        "沙",
        -9.418497931541143
      ],
      [
        "后悔",
        -9.418874387811824
      ],
      [
        "降",
        -9.419922388378652
      ],
      [
        "▁是我",
        -9.420124820017588
      ],
      [
        "妻子",
        -9.420164345299131
      ],
      [
        "盛",
        -9.420598283413865
      ],
      [
        "它的",
        -9.421110624863733
      ],
      [
        "年轻人",
        -9.422920384178333
      ],
      [
        "▁我说你",
        -9.423222220120007
      ],
      [
        "他说",
        -9.423245855793418
      ],
      [
        "独立",
        -9.423472189058483
      ],
      [
        "水平",
        -9.42378504569701
      ],
      [
        "▁怎么了",
        -9.424000490580005
      ],
      [
        "实在",
        -9.42404984034676
      ],
      [
        "▁爸爸",
        -9.424739595691172
      ],
      [
        "房间",
        -9.425001589253498
      ],
      [
        "给她",
        -9.425364557687189
      ],
      [
        "导致",
        -9.425640544170381
      ],
      [
        "▁明天",
        -9.425714310550418
      ],
      [
        "问他",
        -9.426355833808845
      ],
      [
        "我会",
        -9.42642511959344
      ],
      [
        "徐",
        -9.426699764868594
      ],
      [
        "想着",
        -9.426770097991854
      ],
      [
        "一万",
        -9.42729992445273
      ],
      [
        "党",
        -9.428918555273947
      ],
      [
        "在哪儿",
        -9.429155852843158
      ],
      [
        "地区",
        -9.430088852728643
      ],
      [
        "追求",
        -9.430294275768663
      ],
      [
        "标准",
        -9.430953703307836
      ],
      [
        "算是",
        -9.431584333584894
      ],
      [
        "挑战",
        -9.431819972370317
      ],
      [
        "发布",
        -9.432070788103573
      ],
      [
        "大概",
        -9.432451684559577
      ],
      [
        "孤独",
        -9.432473704018365
      ],
      [
        "麦",
        -9.432545783117519
      ],
      [
        "梁",
        -9.43274760543669
      ],
      [
        "的感情",
        -9.433919430368903
      ],
      [
        "全球",
        -9.434449386430352
      ],
      [
        "▁当你",
        -9.434853779274508
      ],
      [
        "委屈",
        -9.436010649421636
      ],
      [
        "旅游",
        -9.436211047819402
      ],
      [
        "源",
        -9.436323863510307
      ],
      [
        "患者",
        -9.437293456350812
      ],
      [
        "八月",
        -9.437533487290143
      ],
      [
        "目",
        -9.437838754717337
      ],
      [
        "结束",
        -9.439309602799582
      ],
      [
        "也就",
        -9.439643164046224
      ],
      [
        "欢迎",
        -9.439807936693605
      ],
      [
        "第一个",
        -9.440457866978964
      ],
      [
        "家的",
        -9.44101867695747
      ],
      [
        "演员",
        -9.441413491913902
      ],
      [
        "拖",
        -9.441855134451263
      ],
      [
        "六月",
        -9.442296479741104
      ],
      [
        "产生",
        -9.442359579702305
      ],
      [
        "规定",
        -9.442583098166399
      ],
      [
        "厉害",
        -9.444478203742818
      ],
      [
        "齐",
        -9.444818156423214
      ],
      [
        "的大",
        -9.445154797502482
      ],
      [
        "善",
        -9.445921163306572
      ],
      [
        "恶",
        -9.446061167223192
      ],
      [
        "并不是",
        -9.446509295300096
      ],
      [
        "出门",
        -9.448929277078399
      ],
      [
        "陆",
        -9.449431721954248
      ],
      [
        "设计",
        -9.449474352966721
      ],
      [
        "诗",
        -9.44966263261646
      ],
      [
        "就在",
        -9.450292224412987
      ],
      [
        "汽车",
        -9.450707506190206
      ],
      [
        "露",
        -9.450843436893766
      ],
      [
        "我们俩",
        -9.452732224793166
      ],
      [
        "微",
        -9.45286690700956
      ],
      [
        "温",
        -9.453008483548963
      ],
      [
        "见到",
        -9.45308254275728
      ],
      [
        "敌",
        -9.454147106255546
      ],
      [
        "比如说",
        -9.454817599381208
      ],
      [
        "就行了",
        -9.45549833111339
      ],
      [
        "淡",
        -9.456001596743228
      ],
      [
        "圈",
        -9.456370227859448
      ],
      [
        "提前",
        -9.456811487658934
      ],
      [
        "私",
        -9.457705104626925
      ],
      [
        "方向",
        -9.45843835479291
      ],
      [
        "活着",
        -9.45875080954025
      ],
      [
        "觉得自己",
        -9.458769302087308
      ],
      [
        "考试",
        -9.458933536210054
      ],
      [
        "失败",
        -9.46009669103622
      ],
      [
        "一把",
        -9.460179631890739
      ],
      [
        "减",
        -9.46083245365108
      ],
      [
        "臭",
        -9.461210028425675
      ],
      [
        "久",
        -9.461435359376623
      ],
      [
        "不再",
        -9.461506568248794
      ],
      [
        "录",
        -9.461809519960815
      ],
      [
        "族",
        -9.462861337808445
      ],
      [
        "家长",
        -9.463483845984747
      ],
      [
        "妹子",
        -9.464974321444073
      ],
      [
        "事业",
        -9.465146158555795
      ],
      [
        "这个问题",
        -9.466695528525495
      ],
      [
        "词",
        -9.467056020327576
      ],
      [
        "敬",
        -9.467123860739054
      ],
      [
        "最好",
        -9.468719623171562
      ],
      [
        "肯定是",
        -9.4688971800248
      ],
      [
        "虚",
        -9.469632260563458
      ],
      [
        "▁刚才",
        -9.469775047458405
      ],
      [
        "给大家",
        -9.46996907369295
      ],
      [
        "是他",
        -9.470356963652247
      ],
      [
        "飞机",
        -9.470368634018513
      ],
      [
        "空间",
        -9.470430453267669
      ],
      [
        "斗",
        -9.471505214698237
      ],
      [
        "感谢",
        -9.471538931403007
      ],
      [
        "足",
        -9.472710092086038
      ],
      [
        "▁就算",
        -9.47298048104937
      ],
      [
        "账",
        -9.473082680449007
      ],
      [
        "这个东西",
        -9.473681511872357
      ],
      [
        "▁刘",
        -9.47395666191825
      ],
      [
        "▁我告诉你",
        -9.474442246474803
      ],
      [
        "了很多",
        -9.474666084534578
      ],
      [
        "去年",
        -9.474780306114278
      ],
      [
        "剧",
        -9.4748358937036
      ],
      [
        "搬",
        -9.475063695808084
      ],
      [
        "撞",
        -9.475422470055403
      ],
      [
        "▁用",
        -9.47546800775546
      ],
      [
        "五百",
        -9.47593955857009
      ],
      [
        "跟她",
        -9.476090949746165
      ],
      [
        "▁哦",
        -9.47614439070676
      ],
      [
        "▁我不知道",
        -9.476662148776196
      ],
      [
        "恢复",
        -9.477367354078321
      ],
      [
        "不懂",
        -9.479003474457762
      ],
      [
        "你怎么",
        -9.479149925682423
      ],
      [
        "金融",
        -9.479778469927783
      ],
      [
        "粉",
        -9.480700488973932
      ],
      [
        "最终",
        -9.481098816013501
      ],
      [
        "内心",
        -9.482257979249432
      ],
      [
        "接下来",
        -9.482418249097265
      ],
      [
        "有了",
        -9.482504651294587
      ],
      [
        "我不",
        -9.48254623105925
      ],
      [
        "密",
        -9.482670661550308
      ],
      [
        "博",
        -9.483084360475761
      ],
      [
        "碰",
        -9.483294110685923
      ],
      [
        "瞎",
        -9.483777477730971
      ],
      [
        "宝宝",
        -9.484149953430798
      ],
      [
        "▁你不是",
        -9.484565072669202
      ],
      [
        "迷",
        -9.485480671398463
      ],
      [
        "▁并且",
        -9.48569618252522
      ],
      [
        "丁",
        -9.486225038174727
      ],
      [
        "升",
        -9.48646342099358
      ],
      [
        "▁真是",
        -9.486653415514592
      ],
      [
        "▁不能",
        -9.486662267975246
      ],
      [
        "▁有人",
        -9.486746225043607
      ],
      [
        "得了",
        -9.486909075290953
      ],
      [
        "跟我们",
        -9.487012298497811
      ],
      [
        "负",
        -9.48743580015703
      ],
      [
        "蒙",
        -9.487561024972
      ],
      [
        "▁是啊",
        -9.488911232270649
      ],
      [
        "是要",
        -9.489112341367722
      ],
      [
        "不出",
        -9.489395659934589
      ],
      [
        "懂得",
        -9.490465555255756
      ],
      [
        "宗",
        -9.490621321524705
      ],
      [
        "列",
        -9.490637350604842
      ],
      [
        "必",
        -9.490806307863112
      ],
      [
        "和我",
        -9.490972912717943
      ],
      [
        "根本",
        -9.491061933681506
      ],
      [
        "陪你",
        -9.491254172156886
      ],
      [
        "哪里",
        -9.492383868924048
      ],
      [
        "警",
        -9.492549372423639
      ],
      [
        "宽",
        -9.493050051718413
      ],
      [
        "感受",
        -9.493198069115834
      ],
      [
        "爱你",
        -9.494118589703668
      ],
      [
        "梦想",
        -9.49425805523938
      ],
      [
        "在家里",
        -9.49442083596687
      ],
      [
        "互相",
        -9.494969597145797
      ],
      [
        "太太",
        -9.496614336702937
      ],
      [
        "▁要是",
        -9.49673356885642
      ],
      [
        "忍",
        -9.496995653157878
      ],
      [
        "一生",
        -9.497246531710463
      ],
      [
        "景",
        -9.497698142606032
      ],
      [
        "稳定",
        -9.498001269517879
      ],
      [
        "计",
        -9.498380742187878
      ],
      [
        "提醒",
        -9.498506669733013
      ],
      [
        "建立",
        -9.498612563614417
      ],
      [
        "就是你",
        -9.49873290105704
      ],
      [
        "坏了",
        -9.498922575265887
      ],
      [
        "蓝",
        -9.499471226752721
      ],
      [
        "劝",
        -9.499773871215481
      ],
      [
        "的名字",
        -9.500422890695777
      ],
      [
        "正好",
        -9.503411995481997
      ],
      [
        "再见",
        -9.503467596451303
      ],
      [
        "击",
        -9.503624126268612
      ],
      [
        "编",
        -9.503808944041964
      ],
      [
        "叫我",
        -9.504340376948374
      ],
      [
        "六十",
        -9.50450269123981
      ],
      [
        "之外",
        -9.50462536792868
      ],
      [
        "雅",
        -9.505289728420896
      ],
      [
        "多少钱",
        -9.505463228868177
      ],
      [
        "视",
        -9.505636418533463
      ],
      [
        "危险",
        -9.505815307642575
      ],
      [
        "觉",
        -9.506253925861218
      ],
      [
        "首先",
        -9.506664534287928
      ],
      [
        "风险",
        -9.50680678778653
      ],
      [
        "洞",
        -9.507388851122563
      ],
      [
        "时代",
        -9.507591322661334
      ],
      [
        "中的",
        -9.508111208834023
      ],
      [
        "找到了",
        -9.508773979748124
      ],
      [
        "观众",
        -9.508806613234094
      ],
      [
        "例",
        -9.509034342880827
      ],
      [
        "容",
        -9.509100404733573
      ],
      [
        "赚",
        -9.50922469482849
      ],
      [
        "东北",
        -9.509346061555245
      ],
      [
        "陪伴",
        -9.510551047977096
      ],
      [
        "那个时候",
        -9.510666475019512
      ],
      [
        "撒",
        -9.510818754502484
      ],
      [
        "我我",
        -9.510902852917509
      ],
      [
        "毕业",
        -9.511077063716538
      ],
      [
        "辛苦",
        -9.511362832353598
      ],
      [
        "开了",
        -9.511846991646298
      ],
      [
        "▁我已经",
        -9.512051363611986
      ],
      [
        "长期",
        -9.512221308823332
      ],
      [
        "的日子",
        -9.51373472012438
      ],
      [
        "受到",
        -9.513739651270583
      ],
      [
        "重点",
        -9.513749920775062
      ],
      [
        "找你",
        -9.51379082863434
      ],
      [
        "没想到",
        -9.514143916777495
      ],
      [
        "人们",
        -9.514218765534295
      ],
      [
        "你知道吗",
        -9.515024135485007
      ],
      [
        "机构",
        -9.515490745223637
      ],
      [
        "有所",
        -9.515591105366008
      ],
      [
        "魔",
        -9.515983483576532
      ],
      [
        "销售",
        -9.51691286574442
      ],
      [
        "让自己",
        -9.516964513802845
      ],
      [
        "倒是",
        -9.517543736334005
      ],
      [
        "两千",
        -9.51879035693087
      ],
      [
        "拼",
        -9.51984944571936
      ],
      [
        "做出",
        -9.520378185758862
      ],
      [
        "医",
        -9.521622619375936
      ],
      [
        "势",
        -9.521702609888091
      ],
      [
        "莫",
        -9.521924014265991
      ],
      [
        "怎样",
        -9.52264981992796
      ],
      [
        "四月",
        -9.523117033240187
      ],
      [
        "▁但是他",
        -9.52330577403114
      ],
      [
        "闻",
        -9.523688119909616
      ],
      [
        "这么大",
        -9.523706555354885
      ],
      [
        "怎么说",
        -9.52397425898834
      ],
      [
        "▁就是我",
        -9.52402152864875
      ],
      [
        "夫",
        -9.524487406969582
      ],
      [
        "没关系",
        -9.524992758179579
      ],
      [
        "还不",
        -9.525800231911308
      ],
      [
        "生意",
        -9.525922407159317
      ],
      [
        "了一下",
        -9.526415628020938
      ],
      [
        "告诉他",
        -9.526446842879622
      ],
      [
        "严重",
        -9.526701379955735
      ],
      [
        "过年",
        -9.526828766456411
      ],
      [
        "得很",
        -9.527362089997581
      ],
      [
        "发现了",
        -9.52741084975024
      ],
      [
        "需求",
        -9.52755821887931
      ],
      [
        "半年",
        -9.52811968494563
      ],
      [
        "名字",
        -9.528305344038161
      ],
      [
        "那时候",
        -9.528832913263956
      ],
      [
        "不说",
        -9.529113419953905
      ],
      [
        "你想",
        -9.529499557706774
      ],
      [
        "是这样",
        -9.529631645855044
      ],
      [
        "也得",
        -9.529728725634904
      ],
      [
        "下了",
        -9.530493425403414
      ],
      [
        "闲",
        -9.530819201347914
      ],
      [
        "学会",
        -9.53129166878151
      ],
      [
        "一定是",
        -9.533003303405597
      ],
      [
        "舞",
        -9.5333693947292
      ],
      [
        "训练",
        -9.53343301920083
      ],
      [
        "不住",
        -9.533476168646999
      ],
      [
        "带来",
        -9.533572609400707
      ],
      [
        "有一种",
        -9.533848353829658
      ],
      [
        "羊",
        -9.534115683995982
      ],
      [
        "▁好像",
        -9.534118692652779
      ],
      [
        "宣布",
        -9.53491528819697
      ],
      [
        "川",
        -9.535350498179438
      ],
      [
        "是我的",
        -9.536257576690769
      ],
      [
        "配合",
        -9.538062314241365
      ],
      [
        "沈",
        -9.53825866057209
      ],
      [
        "难过",
        -9.540680822891465
      ],
      [
        "细",
        -9.541523259715191
      ],
      [
        "▁我真的",
        -9.543552407016975
      ],
      [
        "被人",
        -9.543886180917413
      ],
      [
        "在我",
        -9.543969142068907
      ],
      [
        "以上",
        -9.544229322290633
      ],
      [
        "她的",
        -9.544465758055697
      ],
      [
        "园",
        -9.5444804587003
      ],
      [
        "我在",
        -9.544627630519418
      ],
      [
        "模式",
        -9.544694224796805
      ],
      [
        "秦",
        -9.545060302363524
      ],
      [
        "熟",
        -9.545229360399565
      ],
      [
        "积极",
        -9.545779425621472
      ],
      [
        "经营",
        -9.545943225777727
      ],
      [
        "观察",
        -9.546786160276591
      ],
      [
        "护",
        -9.546860007902483
      ],
      [
        "执行",
        -9.546937711858273
      ],
      [
        "留言",
        -9.546937963315663
      ],
      [
        "才会",
        -9.547039440583557
      ],
      [
        "唱歌",
        -9.547256567921117
      ],
      [
        "敌人",
        -9.547634646300184
      ],
      [
        "聪明",
        -9.54784860954613
      ],
      [
        "卷",
        -9.54796563080263
      ],
      [
        "告",
        -9.548207389651449
      ],
      [
        "大家都",
        -9.548436226123775
      ],
      [
        "▁看",
        -9.548586485905165
      ],
      [
        "有可能",
        -9.548716789108386
      ],
      [
        "英雄",
        -9.54890001338595
      ],
      [
        "厚",
        -9.548998584480298
      ],
      [
        "肚子",
        -9.549209584882764
      ],
      [
        "▁等",
        -9.54936234018211
      ],
      [
        "备",
        -9.549719058347314
      ],
      [
        "为什么要",
        -9.550009924752569
      ],
      [
        "味",
        -9.550775618235237
      ],
      [
        "就没有",
        -9.55091022394259
      ],
      [
        "啥呀",
        -9.551454410727274
      ],
      [
        "劳",
        -9.551687781002396
      ],
      [
        "或者是",
        -9.553113437672984
      ],
      [
        "手术",
        -9.553122510455049
      ],
      [
        "▁希望",
        -9.553552932684946
      ],
      [
        "收入",
        -9.554109919037899
      ],
      [
        "态度",
        -9.554309141132777
      ],
      [
        "喽",
        -9.555853721518812
      ],
      [
        "折",
        -9.556363924854931
      ],
      [
        "▁跟",
        -9.556577505554575
      ],
      [
        "你妈",
        -9.557379526240494
      ],
      [
        "历史",
        -9.557472896026905
      ],
      [
        "绝对",
        -9.55761385317572
      ],
      [
        "怀",
        -9.557842657443507
      ],
      [
        "▁你觉得",
        -9.55862211533507
      ],
      [
        "快点",
        -9.559077504495963
      ],
      [
        "不好意思",
        -9.559151005151847
      ],
      [
        "范",
        -9.559598564477353
      ],
      [
        "▁这不是",
        -9.559674131518921
      ],
      [
        "难受",
        -9.559850790429696
      ],
      [
        "角",
        -9.560695162801313
      ],
      [
        "的时候呢",
        -9.562638299915502
      ],
      [
        "专",
        -9.562992794344435
      ],
      [
        "门口",
        -9.563478239380972
      ],
      [
        "公子",
        -9.563616828462784
      ],
      [
        "男的",
        -9.563888590997989
      ],
      [
        "软",
        -9.564433806634657
      ],
      [
        "找个",
        -9.564905172712216
      ],
      [
        "从来没有",
        -9.565255627768032
      ],
      [
        "朱",
        -9.565951480302951
      ],
      [
        "人类",
        -9.566119582148087
      ],
      [
        "我知道",
        -9.566582741029594
      ],
      [
        "亲自",
        -9.567029245427914
      ],
      [
        "惹",
        -9.567183128953637
      ],
      [
        "提高",
        -9.567216477600276
      ],
      [
        "就这样",
        -9.567279449532656
      ],
      [
        "唯一",
        -9.567602044095814
      ],
      [
        "是我们",
        -9.567648746855784
      ],
      [
        "赛",
        -9.567778742385759
      ],
      [
        "照片",
        -9.56792581937293
      ],
      [
        "临",
        -9.568030225309375
      ],
      [
        "▁让他",
        -9.568162714309466
      ],
      [
        "看你",
        -9.568310105072818
      ],
      [
        "既然",
        -9.56836788473883
      ],
      [
        "体验",
        -9.568436329102717
      ],
      [
        "响",
        -9.568608395399389
      ],
      [
        "政",
        -9.568622102114407
      ],
      [
        "提升",
        -9.568692874296872
      ],
      [
        "均",
        -9.568847882824187
      ],
      [
        "面子",
        -9.569971622112057
      ],
      [
        "这句话",
        -9.570074501916398
      ],
      [
        "馆",
        -9.570235848290302
      ],
      [
        "输",
        -9.570618309446509
      ],
      [
        "温柔",
        -9.57109579237278
      ],
      [
        "▁对不起",
        -9.571266490224236
      ],
      [
        "答应",
        -9.571355532531069
      ],
      [
        "银",
        -9.572566433937556
      ],
      [
        "▁为",
        -9.57321748219601
      ],
      [
        "赚钱",
        -9.573488375993133
      ],
      [
        "就这么",
        -9.573652589529434
      ],
      [
        "屋",
        -9.574496700701681
      ],
      [
        "做饭",
        -9.574709263711828
      ],
      [
        "好看",
        -9.57488989504166
      ],
      [
        "四年",
        -9.574941235307339
      ],
      [
        "出现了",
        -9.575402639613575
      ],
      [
        "事件",
        -9.575832442064184
      ],
      [
        "彩",
        -9.577773392105765
      ],
      [
        "就好了",
        -9.577899252267628
      ],
      [
        "收拾",
        -9.577904917468945
      ],
      [
        "是怎么",
        -9.578345753219592
      ],
      [
        "▁根据",
        -9.578910515593247
      ],
      [
        "脑子",
        -9.57895934382569
      ],
      [
        "对自己",
        -9.579386439431978
      ],
      [
        "易",
        -9.579829865123074
      ],
      [
        "中国人",
        -9.579884882932138
      ],
      [
        "洋",
        -9.580129917733538
      ],
      [
        "商量",
        -9.580925667712926
      ],
      [
        "性格",
        -9.581342168891432
      ],
      [
        "▁但我",
        -9.581494005942337
      ],
      [
        "泡",
        -9.58157278550993
      ],
      [
        "看了",
        -9.581692235170127
      ],
      [
        "瑞",
        -9.581751918912744
      ],
      [
        "也很",
        -9.582548060603662
      ],
      [
        "居然",
        -9.583055848375455
      ],
      [
        "不同的",
        -9.583163537809064
      ],
      [
        "明确",
        -9.58356378178608
      ],
      [
        "证券",
        -9.584244839396817
      ],
      [
        "想起",
        -9.584533035945391
      ],
      [
        "做到",
        -9.584615813118301
      ],
      [
        "自信",
        -9.584910936502528
      ],
      [
        "架",
        -9.585175096564544
      ],
      [
        "把这",
        -9.58617677431224
      ],
      [
        "▁直到",
        -9.586460574967788
      ],
      [
        "的就是",
        -9.58661852096802
      ],
      [
        "将来",
        -9.586990828458475
      ],
      [
        "亿元",
        -9.587719263448612
      ],
      [
        "香港",
        -9.588049707735799
      ],
      [
        "诶",
        -9.58877676618209
      ],
      [
        "这首歌",
        -9.589273597802332
      ],
      [
        "腰",
        -9.59046132253734
      ],
      [
        "府",
        -9.59108978327493
      ],
      [
        "▁我跟你说",
        -9.591183959074378
      ],
      [
        "反正",
        -9.591953229845817
      ],
      [
        "比你",
        -9.592831821542482
      ],
      [
        "不需要",
        -9.592859314438314
      ],
      [
        "▁看来",
        -9.59296323558428
      ],
      [
        "部门",
        -9.593138705841117
      ],
      [
        "▁或者是",
        -9.593196664280418
      ],
      [
        "让他们",
        -9.593767630706758
      ],
      [
        "那里",
        -9.593916760440932
      ],
      [
        "顾",
        -9.594180041962794
      ],
      [
        "▁陈",
        -9.594256842874382
      ],
      [
        "同样",
        -9.594587420316877
      ],
      [
        "诺",
        -9.595388063800248
      ],
      [
        "我去",
        -9.595838827995587
      ],
      [
        "说说",
        -9.595838931663543
      ],
      [
        "▁你会",
        -9.595849314463841
      ],
      [
        "瓶",
        -9.59687538483303
      ],
      [
        "不怕",
        -9.597451183463022
      ],
      [
        "承认",
        -9.597881857150089
      ],
      [
        "锅",
        -9.597913488520497
      ],
      [
        "▁你要是",
        -9.598049116178021
      ],
      [
        "引",
        -9.59827140992325
      ],
      [
        "岛",
        -9.598855954478427
      ],
      [
        "规模",
        -9.599189008027176
      ],
      [
        "警方",
        -9.59936471551906
      ],
      [
        "来自",
        -9.599624169843029
      ],
      [
        "墙",
        -9.60001532323524
      ],
      [
        "暂时",
        -9.60058579173912
      ],
      [
        "巧",
        -9.601374979222438
      ],
      [
        "感动",
        -9.60171651434544
      ],
      [
        "产业",
        -9.601950575342133
      ],
      [
        "皇",
        -9.602016788980013
      ],
      [
        "谷",
        -9.602069580543187
      ],
      [
        "没什么",
        -9.602591470820595
      ],
      [
        "外面",
        -9.60394507333646
      ],
      [
        "不起",
        -9.604023399048586
      ],
      [
        "想法",
        -9.60416246909456
      ],
      [
        "不如",
        -9.604741270059122
      ],
      [
        "住了",
        -9.605819479923777
      ],
      [
        "乡",
        -9.606128380664789
      ],
      [
        "友",
        -9.607290192700946
      ],
      [
        "▁他也",
        -9.60737313891241
      ],
      [
        "旁边",
        -9.608729769941526
      ],
      [
        "道歉",
        -9.60876841592571
      ],
      [
        "走吧",
        -9.609345837388087
      ],
      [
        "维",
        -9.609614673988663
      ],
      [
        "这份",
        -9.61034147097343
      ],
      [
        "▁唉呀",
        -9.610810361528959
      ],
      [
        "跑了",
        -9.611634606388007
      ],
      [
        "开车",
        -9.612691580166722
      ],
      [
        "▁只",
        -9.612771098373212
      ],
      [
        "▁你能",
        -9.612882815709678
      ],
      [
        "法律",
        -9.613253662879817
      ],
      [
        "摸",
        -9.613434894035045
      ],
      [
        "系",
        -9.613566113284511
      ],
      [
        "暗",
        -9.614142039051085
      ],
      [
        "纳",
        -9.614322665306908
      ],
      [
        "仙",
        -9.614981675896697
      ],
      [
        "力量",
        -9.61502404818513
      ],
      [
        "▁昨天",
        -9.615193845059625
      ],
      [
        "磨",
        -9.615565170925754
      ],
      [
        "舒服",
        -9.615698969687486
      ],
      [
        "背后",
        -9.616149794158478
      ],
      [
        "这个事情",
        -9.616335214303614
      ],
      [
        "嫁",
        -9.616561020704477
      ],
      [
        "广",
        -9.616946161524703
      ],
      [
        "▁那就是",
        -9.616947557493837
      ],
      [
        "头发",
        -9.61731532524151
      ],
      [
        "纠结",
        -9.617614393542855
      ],
      [
        "户",
        -9.617928203174293
      ],
      [
        "凡",
        -9.617937062578992
      ],
      [
        "去看",
        -9.618650451392398
      ],
      [
        "回忆",
        -9.618804388674398
      ],
      [
        "鬼子",
        -9.618967578458195
      ],
      [
        "一块儿",
        -9.619286345460136
      ],
      [
        "式",
        -9.6200034610052
      ],
      [
        "行吗",
        -9.62006805073699
      ],
      [
        "方案",
        -9.620294026330438
      ],
      [
        "▁可是我",
        -9.620761457529362
      ],
      [
        "掉了",
        -9.621766801908134
      ],
      [
        "贷款",
        -9.621847644081775
      ],
      [
        "搭",
        -9.622164553562193
      ],
      [
        "了个",
        -9.622212001469565
      ],
      [
        "怎么能",
        -9.622595531002691
      ],
      [
        "说是",
        -9.623191716208343
      ],
      [
        "喜马拉雅",
        -9.623527704182317
      ],
      [
        "的时候啊",
        -9.623962835568053
      ],
      [
        "康",
        -9.623989164755795
      ],
      [
        "的想法",
        -9.624265665583689
      ],
      [
        "没有办法",
        -9.62461412628764
      ],
      [
        "每一个",
        -9.624842639404141
      ],
      [
        "单身",
        -9.6248723088686
      ],
      [
        "工资",
        -9.625052536520386
      ],
      [
        "彻底",
        -9.62549950976306
      ],
      [
        "▁同时",
        -9.625539423596877
      ],
      [
        "瘦",
        -9.62613550880311
      ],
      [
        "财",
        -9.626331231491495
      ],
      [
        "没有什么",
        -9.62639459017364
      ],
      [
        "就开始",
        -9.626743387665204
      ],
      [
        "阳光",
        -9.626759997575693
      ],
      [
        "听了",
        -9.62726975898573
      ],
      [
        "债",
        -9.627932817509745
      ],
      [
        "高考",
        -9.627939174200964
      ],
      [
        "进了",
        -9.62899148768875
      ],
      [
        "中央",
        -9.630321265447211
      ],
      [
        "根据",
        -9.630763217433131
      ],
      [
        "增",
        -9.631021928081537
      ],
      [
        "做得",
        -9.631454272198209
      ],
      [
        "看过",
        -9.632430167133979
      ],
      [
        "对待",
        -9.633097071746274
      ],
      [
        "小朋友",
        -9.633308971998325
      ],
      [
        "等你",
        -9.633697657793615
      ],
      [
        "扣",
        -9.634210211201632
      ],
      [
        "想到",
        -9.63428572209109
      ],
      [
        "▁我跟",
        -9.634303775594622
      ],
      [
        "第三",
        -9.63480311135412
      ],
      [
        "过去了",
        -9.63508175667871
      ],
      [
        "司机",
        -9.635391576782784
      ],
      [
        "消",
        -9.636668139170979
      ],
      [
        "扎",
        -9.636712649622012
      ],
      [
        "滚",
        -9.637096924478161
      ],
      [
        "国内",
        -9.638287859182087
      ],
      [
        "死亡",
        -9.638950408679992
      ],
      [
        "小时候",
        -9.639056477603852
      ],
      [
        "您的",
        -9.6391504677601
      ],
      [
        "▁被",
        -9.639220663404442
      ],
      [
        "进一步",
        -9.639665405889879
      ],
      [
        "走到",
        -9.639856194473097
      ],
      [
        "知道吗",
        -9.640111182690912
      ],
      [
        "就算",
        -9.640290182160125
      ],
      [
        "交给",
        -9.642121265207507
      ],
      [
        "全都",
        -9.642428266919971
      ],
      [
        "事实",
        -9.642464176335292
      ],
      [
        "意见",
        -9.642874075935154
      ],
      [
        "份",
        -9.642878923148846
      ],
      [
        "的意思",
        -9.643034133280462
      ],
      [
        "做一个",
        -9.644230663456188
      ],
      [
        "永",
        -9.644634509406588
      ],
      [
        "知识",
        -9.644772866257046
      ],
      [
        "▁三",
        -9.645123747483632
      ],
      [
        "广州",
        -9.645472906430296
      ],
      [
        "怎么会",
        -9.645950897893279
      ],
      [
        "熊",
        -9.648263573872132
      ],
      [
        "吐",
        -9.64831304629004
      ],
      [
        "采",
        -9.648401106214186
      ],
      [
        "酸",
        -9.649013794739224
      ],
      [
        "我跟",
        -9.649045148080955
      ],
      [
        "本身",
        -9.649703522016779
      ],
      [
        "寻找",
        -9.649855904287815
      ],
      [
        "酒店",
        -9.650779415505784
      ],
      [
        "病人",
        -9.651065763971419
      ],
      [
        "圆",
        -9.651938854107247
      ],
      [
        "丝",
        -9.651996025411975
      ],
      [
        "明显",
        -9.652161644947064
      ],
      [
        "士",
        -9.652359377326036
      ],
      [
        "七十",
        -9.652747385153166
      ],
      [
        "▁我妈",
        -9.65280678157815
      ],
      [
        "佳",
        -9.653260246020572
      ],
      [
        "的态度",
        -9.65343113873807
      ],
      [
        "几年",
        -9.653894028726695
      ],
      [
        "左",
        -9.654112462746998
      ],
      [
        "看他",
        -9.654285661981973
      ],
      [
        "棒",
        -9.654412281205772
      ],
      [
        "想象",
        -9.654433297945406
      ],
      [
        "▁那些",
        -9.654524550158403
      ],
      [
        "要不要",
        -9.654654414883916
      ],
      [
        "好好的",
        -9.654665799302233
      ],
      [
        "预",
        -9.655199474177607
      ],
      [
        "说明",
        -9.655385916640686
      ],
      [
        "二零一九年",
        -9.655427600233034
      ],
      [
        "咬",
        -9.655791929668169
      ],
      [
        "成绩",
        -9.656302071963541
      ],
      [
        "不容易",
        -9.656487873749178
      ],
      [
        "弱",
        -9.65697904685777
      ],
      [
        "意外",
        -9.657372247176788
      ],
      [
        "父",
        -9.657956512004343
      ],
      [
        "章",
        -9.658442642412778
      ],
      [
        "的那",
        -9.658793874204648
      ],
      [
        "是真的",
        -9.659437077721503
      ],
      [
        "下班",
        -9.659553912455138
      ],
      [
        "擦",
        -9.659789814105414
      ],
      [
        "异",
        -9.659881349702069
      ],
      [
        "认真",
        -9.659949813248094
      ],
      [
        "三千",
        -9.660317306097149
      ],
      [
        "那你",
        -9.660530361574576
      ],
      [
        "给您",
        -9.66087544885426
      ],
      [
        "变成了",
        -9.660934116956046
      ],
      [
        "专门",
        -9.66103375049125
      ],
      [
        "经验",
        -9.661436051424264
      ],
      [
        "共产党",
        -9.661580099774977
      ],
      [
        "领域",
        -9.66175175738498
      ],
      [
        "餐",
        -9.661806275853593
      ],
      [
        "她们",
        -9.66190803541576
      ],
      [
        "另外",
        -9.661941693689712
      ],
      [
        "不在",
        -9.663361995268001
      ],
      [
        "形",
        -9.663863628442341
      ],
      [
        "暴",
        -9.663994280355364
      ],
      [
        "环",
        -9.664371305658062
      ],
      [
        "作用",
        -9.66495266007095
      ],
      [
        "就好",
        -9.664967400614861
      ],
      [
        "质",
        -9.665494840718956
      ],
      [
        "开玩笑",
        -9.66689788663708
      ],
      [
        "签",
        -9.666943632455027
      ],
      [
        "政治",
        -9.667097616509318
      ],
      [
        "的人生",
        -9.667130178136016
      ],
      [
        "在外面",
        -9.667390544421412
      ],
      [
        "股份",
        -9.667495576924644
      ],
      [
        "▁我爸",
        -9.668719037226632
      ],
      [
        "网友",
        -9.668928092254633
      ],
      [
        "净",
        -9.669487179691785
      ],
      [
        "阵",
        -9.670839871630257
      ],
      [
        "▁我今天",
        -9.671254158656883
      ],
      [
        "交易",
        -9.671317499571037
      ],
      [
        "依",
        -9.671345148981626
      ],
      [
        "也在",
        -9.671659902859922
      ],
      [
        "内容",
        -9.671709805072643
      ],
      [
        "▁哪怕",
        -9.671828988807356
      ],
      [
        "答案",
        -9.671971468720319
      ],
      [
        "花钱",
        -9.672532747957957
      ],
      [
        "客户",
        -9.672536516348458
      ],
      [
        "抱怨",
        -9.673020289431637
      ],
      [
        "价值",
        -9.673172508057373
      ],
      [
        "▁我不是",
        -9.67371404890817
      ],
      [
        "想办法",
        -9.673904459927837
      ],
      [
        "报道",
        -9.674264464916671
      ],
      [
        "欢",
        -9.674324905981864
      ],
      [
        "不少",
        -9.674617698613599
      ],
      [
        "农",
        -9.674841964452193
      ],
      [
        "艺术",
        -9.675341060834354
      ],
      [
        "我们就",
        -9.675372105155896
      ],
      [
        "别人的",
        -9.675523989890522
      ],
      [
        "社",
        -9.67578416342541
      ],
      [
        "扔",
        -9.676755788447664
      ],
      [
        "▁多",
        -9.67805736368113
      ],
      [
        "都知道",
        -9.678509255298287
      ],
      [
        "的话呢",
        -9.679330535850863
      ],
      [
        "常常",
        -9.679456284509751
      ],
      [
        "论",
        -9.67989455902988
      ],
      [
        "信任",
        -9.680077194548574
      ],
      [
        "十二",
        -9.680171792111675
      ],
      [
        "什么意思",
        -9.680762846859071
      ],
      [
        "底下",
        -9.680791523777483
      ],
      [
        "▁要不",
        -9.680925221586834
      ],
      [
        "哟",
        -9.681157126085093
      ],
      [
        "还挺",
        -9.681387923143621
      ],
      [
        "妹",
        -9.681721105368151
      ],
      [
        "威",
        -9.681929100448148
      ],
      [
        "智",
        -9.68199765345982
      ],
      [
        "韩",
        -9.682010005611808
      ],
      [
        "年纪",
        -9.682203139792467
      ],
      [
        "不像",
        -9.682360110997632
      ],
      [
        "在那儿",
        -9.682580791326464
      ],
      [
        "▁以前",
        -9.68294779895464
      ],
      [
        "杯",
        -9.682981146753502
      ],
      [
        "▁你好",
        -9.683246201066517
      ],
      [
        "闺女",
        -9.683596661981761
      ],
      [
        "很大",
        -9.683629229643163
      ],
      [
        "创",
        -9.683867149030599
      ],
      [
        "好啊",
        -9.683931284451745
      ],
      [
        "一名",
        -9.68398087637452
      ],
      [
        "丢",
        -9.684309412118907
      ],
      [
        "就没",
        -9.684347999992891
      ],
      [
        "除",
        -9.684455150186636
      ],
      [
        "▁无论",
        -9.684954800510173
      ],
      [
        "讨厌",
        -9.685622847608055
      ],
      [
        "锁",
        -9.68591594383513
      ],
      [
        "好吧",
        -9.686647171861221
      ],
      [
        "干啥",
        -9.686720798600437
      ],
      [
        "的状态",
        -9.687245300716864
      ],
      [
        "▁大哥",
        -9.687345274331847
      ],
      [
        "思考",
        -9.687351678130735
      ],
      [
        "有问题",
        -9.687392504862522
      ],
      [
        "表演",
        -9.688016927747551
      ],
      [
        "温暖",
        -9.688170698141105
      ],
      [
        "始终",
        -9.689027967841069
      ],
      [
        "分开",
        -9.689222123384123
      ],
      [
        "有的时候",
        -9.689258928594644
      ],
      [
        "喜欢你",
        -9.689382672273084
      ],
      [
        "批",
        -9.689944000335075
      ],
      [
        "一顿",
        -9.689973234329731
      ],
      [
        "又是",
        -9.690288962841791
      ],
      [
        "滑",
        -9.690884864646648
      ],
      [
        "奔",
        -9.691975736366725
      ],
      [
        "斤",
        -9.692136874633615
      ],
      [
        "蛮",
        -9.692291256066047
      ],
      [
        "▁才",
        -9.69289482879897
      ],
      [
        "仁",
        -9.693837576121053
      ],
      [
        "明白了",
        -9.693901222708284
      ],
      [
        "▁应该",
        -9.694300405618726
      ],
      [
        "搜索",
        -9.694461350764207
      ],
      [
        "人民",
        -9.694876713666964
      ],
      [
        "不应该",
        -9.694907434424142
      ],
      [
        "直播间",
        -9.695102434643548
      ],
      [
        "结婚了",
        -9.695349501007096
      ],
      [
        "庆",
        -9.696225694916134
      ],
      [
        "了他",
        -9.696337320400268
      ],
      [
        "播",
        -9.696568013023041
      ],
      [
        "攻",
        -9.69702940773723
      ],
      [
        "记者",
        -9.697479899784597
      ],
      [
        "▁我可以",
        -9.698049963860715
      ],
      [
        "▁不会",
        -9.698432698962835
      ],
      [
        "再说",
        -9.698826541173421
      ],
      [
        "额",
        -9.698946918308671
      ],
      [
        "也能",
        -9.699289521411798
      ],
      [
        "▁每次",
        -9.699898501604334
      ],
      [
        "症",
        -9.700019696205693
      ],
      [
        "什么的",
        -9.700143261977306
      ],
      [
        "不舒服",
        -9.700984757139818
      ],
      [
        "推荐",
        -9.701158185952588
      ],
      [
        "两天",
        -9.701512743308006
      ],
      [
        "顿",
        -9.7015927719929
      ],
      [
        "科学",
        -9.701677662020352
      ],
      [
        "就是一个",
        -9.7023970093596
      ],
      [
        "历",
        -9.702587594548547
      ],
      [
        "遍",
        -9.702731964447164
      ],
      [
        "打了",
        -9.702878041354241
      ],
      [
        "季",
        -9.70359402165505
      ],
      [
        "湖",
        -9.703643478132335
      ],
      [
        "细节",
        -9.70382580826471
      ],
      [
        "十五",
        -9.703941166181384
      ],
      [
        "属",
        -9.703968509758084
      ],
      [
        "物质",
        -9.704122207049458
      ],
      [
        "亏",
        -9.70422304321665
      ],
      [
        "设",
        -9.704313877573298
      ],
      [
        "▁太",
        -9.704804871677188
      ],
      [
        "扯",
        -9.704881547374317
      ],
      [
        "第",
        -9.70512504100492
      ],
      [
        "耳朵",
        -9.705339505236811
      ],
      [
        "找一个",
        -9.706141140762064
      ],
      [
        "史",
        -9.706212194111526
      ],
      [
        "尼",
        -9.707094667445332
      ],
      [
        "善良",
        -9.707354819972359
      ],
      [
        "理由",
        -9.707809951790942
      ],
      [
        "▁大家好",
        -9.708384439619806
      ],
      [
        "祖",
        -9.708758405210753
      ],
      [
        "西安",
        -9.708793398760882
      ],
      [
        "女的",
        -9.708814662095875
      ],
      [
        "什么都",
        -9.709158762393997
      ],
      [
        "▁我怎么",
        -9.709280881284458
      ],
      [
        "灰",
        -9.709510701386314
      ],
      [
        "时期",
        -9.709575995516047
      ],
      [
        "很重要",
        -9.709902604755165
      ],
      [
        "失望",
        -9.710582272682796
      ],
      [
        "塞",
        -9.711253010263121
      ],
      [
        "婆婆",
        -9.71135028938259
      ],
      [
        "把她",
        -9.71158555161275
      ],
      [
        "四个",
        -9.711751820567962
      ],
      [
        "出发",
        -9.712026008376782
      ],
      [
        "界",
        -9.71219354352041
      ],
      [
        "秘密",
        -9.71366464955582
      ],
      [
        "建筑",
        -9.714838717653095
      ],
      [
        "承担",
        -9.715186902144662
      ],
      [
        "道理",
        -9.715485260780362
      ],
      [
        "二零二零年",
        -9.715756559812746
      ],
      [
        "适合",
        -9.7159955795201
      ],
      [
        "资产",
        -9.71631908897332
      ],
      [
        "之一",
        -9.716676783255934
      ],
      [
        "一口",
        -9.716916492403248
      ],
      [
        "八点",
        -9.716964525996952
      ],
      [
        "下降",
        -9.717044649776147
      ],
      [
        "▁即使",
        -9.717103787417757
      ],
      [
        "败",
        -9.718030525162215
      ],
      [
        "决",
        -9.718276332139535
      ],
      [
        "不仅",
        -9.718863241855662
      ],
      [
        "故意",
        -9.718865200586812
      ],
      [
        "脏",
        -9.719205743946048
      ],
      [
        "郑",
        -9.719927856355149
      ],
      [
        "路上",
        -9.720341477830246
      ],
      [
        "形成",
        -9.720563345414945
      ],
      [
        "段子",
        -9.720583868118101
      ],
      [
        "实施",
        -9.72077288670473
      ],
      [
        "办公室",
        -9.721017133811326
      ],
      [
        "找不到",
        -9.72110718604406
      ],
      [
        "遗憾",
        -9.721362659759688
      ],
      [
        "▁人生",
        -9.722908406832595
      ],
      [
        "一旦",
        -9.723134254788619
      ],
      [
        "▁我没",
        -9.72455404723901
      ],
      [
        "心中",
        -9.724917936946172
      ],
      [
        "不知",
        -9.725228896077013
      ],
      [
        "干净",
        -9.725318248003182
      ],
      [
        "创新",
        -9.725352681469388
      ],
      [
        "块钱",
        -9.725481648990902
      ],
      [
        "顺利",
        -9.726216547122513
      ],
      [
        "一遍",
        -9.726649049000988
      ],
      [
        "脸上",
        -9.726692970322702
      ],
      [
        "忠",
        -9.726803127191069
      ],
      [
        "狂",
        -9.726929979481827
      ],
      [
        "电脑",
        -9.727291759941819
      ],
      [
        "句",
        -9.728016194529674
      ],
      [
        "仍然",
        -9.728398862182681
      ],
      [
        "特别好",
        -9.728653398661184
      ],
      [
        "插",
        -9.729300205768105
      ],
      [
        "发生了",
        -9.729331835936652
      ],
      [
        "记录",
        -9.729464472357332
      ],
      [
        "哄",
        -9.730052249343169
      ],
      [
        "供",
        -9.73013035147952
      ],
      [
        "吉",
        -9.73045512726767
      ],
      [
        "证据",
        -9.73065270919349
      ],
      [
        "▁好好",
        -9.730676323567936
      ],
      [
        "交通",
        -9.73118524847635
      ],
      [
        "距离",
        -9.731310828184972
      ],
      [
        "▁接下来",
        -9.731331653817282
      ],
      [
        "听说",
        -9.731611684958605
      ],
      [
        "你不",
        -9.733242074295845
      ],
      [
        "遇见",
        -9.733406601020395
      ],
      [
        "荣",
        -9.73342240259759
      ],
      [
        "很少",
        -9.73395968288649
      ],
      [
        "成熟",
        -9.73398743495044
      ],
      [
        "这样子",
        -9.734292297360273
      ],
      [
        "没办法",
        -9.736600579783765
      ],
      [
        "爸爸妈妈",
        -9.73665295034235
      ],
      [
        "街",
        -9.737218019326406
      ],
      [
        "你都",
        -9.737650903866257
      ],
      [
        "拔",
        -9.737903467245271
      ],
      [
        "速",
        -9.73790583058664
      ],
      [
        "回复",
        -9.737942972898841
      ],
      [
        "这件事",
        -9.738471946495217
      ],
      [
        "试试",
        -9.738579933655561
      ],
      [
        "洪",
        -9.738875076087758
      ],
      [
        "井",
        -9.73962353552594
      ],
      [
        "就把",
        -9.740044570648156
      ],
      [
        "中医",
        -9.740153658118055
      ],
      [
        "两位",
        -9.740506420178418
      ],
      [
        "我是张德芬",
        -9.740658283977675
      ],
      [
        "羡慕",
        -9.742795013807296
      ],
      [
        "▁不用",
        -9.742877036387569
      ],
      [
        "▁没事",
        -9.743719161665965
      ],
      [
        "心疼",
        -9.743794120797428
      ],
      [
        "评论",
        -9.743821333972656
      ],
      [
        "去看看",
        -9.743922689635788
      ],
      [
        "这么做",
        -9.744107552713562
      ],
      [
        "铺",
        -9.74445798845531
      ],
      [
        "焦虑",
        -9.74470398276522
      ],
      [
        "措施",
        -9.744705937611155
      ],
      [
        "不同意",
        -9.745794416612426
      ],
      [
        "伯",
        -9.745962251432923
      ],
      [
        "▁你说我",
        -9.745989316029023
      ],
      [
        "立刻",
        -9.746131044744013
      ],
      [
        "起了",
        -9.746408398336227
      ],
      [
        "感染",
        -9.74703671416378
      ],
      [
        "看我",
        -9.747074249985612
      ],
      [
        "贼",
        -9.747249883037917
      ],
      [
        "爸妈",
        -9.747520030556055
      ],
      [
        "拜",
        -9.747558085307471
      ],
      [
        "惨",
        -9.748431335926204
      ],
      [
        "▁尤其是",
        -9.750558156831516
      ],
      [
        "▁谢谢你",
        -9.751005847132696
      ],
      [
        "操",
        -9.751186334374406
      ],
      [
        "迪",
        -9.751423401918476
      ],
      [
        "一段时间",
        -9.75221590003315
      ],
      [
        "眼泪",
        -9.752729462418365
      ],
      [
        "▁最",
        -9.753140820653645
      ],
      [
        "航",
        -9.753782688173054
      ],
      [
        "登",
        -9.753803921507481
      ],
      [
        "出轨",
        -9.753809718598252
      ],
      [
        "团长",
        -9.753818609514028
      ],
      [
        "审",
        -9.754467375320532
      ],
      [
        "之下",
        -9.754557793654069
      ],
      [
        "嫂子",
        -9.755310091118558
      ],
      [
        "印",
        -9.75544109438638
      ],
      [
        "看一下",
        -9.756061577409165
      ],
      [
        "闺蜜",
        -9.756180438120666
      ],
      [
        "谋",
        -9.756510379027958
      ],
      [
        "员工",
        -9.75668428627408
      ],
      [
        "刺",
        -9.757025415059752
      ],
      [
        "既",
        -9.757325934870615
      ],
      [
        "倍",
        -9.757337812390112
      ],
      [
        "险",
        -9.757461023396013
      ],
      [
        "也许",
        -9.757465137444456
      ],
      [
        "误会",
        -9.758262827247947
      ],
      [
        "基础",
        -9.758613814713858
      ],
      [
        "▁妈",
        -9.758933711836287
      ],
      [
        "早上",
        -9.759295181201818
      ],
      [
        "就有",
        -9.759639627195249
      ],
      [
        "还可以",
        -9.759987485873044
      ],
      [
        "▁才能",
        -9.760015500330214
      ],
      [
        "这个事儿",
        -9.761585825941474
      ],
      [
        "就是他",
        -9.762191522295506
      ],
      [
        "▁我没有",
        -9.76277552934101
      ],
      [
        "湿",
        -9.763117062903401
      ],
      [
        "上学",
        -9.763750116356498
      ],
      [
        "知道了",
        -9.76376005729153
      ],
      [
        "▁这是我",
        -9.764010413501039
      ],
      [
        "冬",
        -9.764017480807102
      ],
      [
        "围",
        -9.764077573595287
      ],
      [
        "特别的",
        -9.764491086072688
      ],
      [
        "▁就是你",
        -9.764995821973823
      ],
      [
        "一九",
        -9.765114985201638
      ],
      [
        "▁但是呢",
        -9.766099281638045
      ],
      [
        "喂",
        -9.766220632970105
      ],
      [
        "末",
        -9.766511142257155
      ],
      [
        "连续",
        -9.76682438333521
      ],
      [
        "致",
        -9.767306833248597
      ],
      [
        "众",
        -9.767410720491016
      ],
      [
        "▁将",
        -9.767441055797885
      ],
      [
        "碰到",
        -9.767498535464952
      ],
      [
        "耳",
        -9.767509931533901
      ],
      [
        "欲",
        -9.767790330985644
      ],
      [
        "不明白",
        -9.768318597541985
      ],
      [
        "不上",
        -9.76834959662379
      ],
      [
        "从来不",
        -9.768385942672685
      ],
      [
        "简",
        -9.76873347504242
      ],
      [
        "微博",
        -9.768828185082057
      ],
      [
        "嘉",
        -9.769111256080706
      ],
      [
        "反应",
        -9.769329597136695
      ],
      [
        "凭",
        -9.769409076689595
      ],
      [
        "快递",
        -9.769608415247081
      ],
      [
        "动物",
        -9.769633170783745
      ],
      [
        "炮",
        -9.770036485505358
      ],
      [
        "伟",
        -9.770174246279428
      ],
      [
        "太阳",
        -9.770349483210534
      ],
      [
        "箱",
        -9.770470416323366
      ],
      [
        "▁一定要",
        -9.770522244589372
      ],
      [
        "指数",
        -9.77071461866737
      ],
      [
        "珍惜",
        -9.770979347330044
      ],
      [
        "忘",
        -9.77224015513129
      ],
      [
        "乔",
        -9.772346220932928
      ],
      [
        "较",
        -9.774107236953519
      ],
      [
        "不足",
        -9.774599303898112
      ],
      [
        "给他们",
        -9.774842601070052
      ],
      [
        "错误",
        -9.775348988724017
      ],
      [
        "坑",
        -9.77556834458031
      ],
      [
        "不来",
        -9.776073495711493
      ],
      [
        "没人",
        -9.776853751864287
      ],
      [
        "抱着",
        -9.777442160658225
      ],
      [
        "赢",
        -9.777445803620964
      ],
      [
        "娶",
        -9.778065006703867
      ],
      [
        "探",
        -9.778507274688213
      ],
      [
        "哥们儿",
        -9.77925204535676
      ],
      [
        "司令",
        -9.779412613363997
      ],
      [
        "惊",
        -9.779560138223463
      ],
      [
        "▁那我就",
        -9.779748752747537
      ],
      [
        "杀人",
        -9.779762661251794
      ],
      [
        "杂",
        -9.780123564162327
      ],
      [
        "的心",
        -9.780542984181281
      ],
      [
        "师父",
        -9.781579969937749
      ],
      [
        "没钱",
        -9.78164871009098
      ],
      [
        "▁怎么样",
        -9.781763966086455
      ],
      [
        "思想",
        -9.781870088295571
      ],
      [
        "在哪里",
        -9.782281119330772
      ],
      [
        "浪",
        -9.783133054993568
      ],
      [
        "▁赶紧",
        -9.78315289446267
      ],
      [
        "搜",
        -9.78345875888147
      ],
      [
        "旅行",
        -9.784018671977257
      ],
      [
        "爬",
        -9.784106183217471
      ],
      [
        "哎呀",
        -9.784633951342762
      ],
      [
        "往往",
        -9.785076085349946
      ],
      [
        "腾",
        -9.785967893707529
      ],
      [
        "愿",
        -9.786002889659656
      ],
      [
        "看来",
        -9.78631247763896
      ],
      [
        "网上",
        -9.786518389966808
      ],
      [
        "▁一个人",
        -9.786579986065814
      ],
      [
        "征",
        -9.787190228495136
      ],
      [
        "租",
        -9.787251200386827
      ],
      [
        "经理",
        -9.787358909886006
      ],
      [
        "摔",
        -9.787442362709607
      ],
      [
        "稍微",
        -9.787498708626774
      ],
      [
        "小姑娘",
        -9.787799596418807
      ],
      [
        "方便",
        -9.788325152031234
      ],
      [
        "项",
        -9.788337159664332
      ],
      [
        "郎",
        -9.788731954369688
      ],
      [
        "臣",
        -9.78891972180579
      ],
      [
        "长大",
        -9.789189593353353
      ],
      [
        "这个时候",
        -9.789367079055816
      ],
      [
        "从小",
        -9.78945375902887
      ],
      [
        "妖",
        -9.789614486896362
      ],
      [
        "灭",
        -9.789798778796804
      ],
      [
        "鲁",
        -9.790125929457952
      ],
      [
        "一大",
        -9.790339681877235
      ],
      [
        "七点",
        -9.790375588065334
      ],
      [
        "赌",
        -9.790694623037012
      ],
      [
        "挣",
        -9.790751261074007
      ],
      [
        "逗",
        -9.790933489116354
      ],
      [
        "功能",
        -9.791079581450141
      ],
      [
        "及时",
        -9.792584793064638
      ],
      [
        "战争",
        -9.792884730531641
      ],
      [
        "这些东西",
        -9.79308411160704
      ],
      [
        "公司的",
        -9.793464610733412
      ],
      [
        "针",
        -9.79376745406652
      ],
      [
        "有意思",
        -9.79411941657986
      ],
      [
        "吃的",
        -9.794127415618231
      ],
      [
        "好多",
        -9.794358143323805
      ],
      [
        "真的很",
        -9.794486683326555
      ],
      [
        "团队",
        -9.794743829922352
      ],
      [
        "至少",
        -9.794770111399114
      ],
      [
        "付",
        -9.795083995801665
      ],
      [
        "兄",
        -9.79537393588533
      ],
      [
        "豆",
        -9.795497172761817
      ],
      [
        "涨",
        -9.796086026600374
      ],
      [
        "▁好了",
        -9.796180363148222
      ],
      [
        "挺好",
        -9.796626187943797
      ],
      [
        "三天",
        -9.796702586847085
      ],
      [
        "鼓励",
        -9.797623588894414
      ],
      [
        "邀请",
        -9.798090395513615
      ],
      [
        "其中",
        -9.798126245422708
      ],
      [
        "烂",
        -9.798800083024872
      ],
      [
        "五月",
        -9.799187747175871
      ],
      [
        "隔",
        -9.799591427742115
      ],
      [
        "对我们",
        -9.799895891868855
      ],
      [
        "目的",
        -9.800086250210796
      ],
      [
        "再去",
        -9.800360977286168
      ],
      [
        "丑",
        -9.801204632660712
      ],
      [
        "圣",
        -9.801290704637516
      ],
      [
        "你知道",
        -9.802478506433637
      ],
      [
        "激动",
        -9.802650327628939
      ],
      [
        "泰",
        -9.802652788977936
      ],
      [
        "导演",
        -9.80274304804414
      ],
      [
        "交代",
        -9.803436245804559
      ],
      [
        "发行",
        -9.803459877888177
      ],
      [
        "仔细",
        -9.80396983745726
      ],
      [
        "那我",
        -9.803977565822763
      ],
      [
        "案件",
        -9.804063292684855
      ],
      [
        "一半",
        -9.804173697598626
      ],
      [
        "知道你",
        -9.80426165147638
      ],
      [
        "宝贝",
        -9.80489400946515
      ],
      [
        "觉得我",
        -9.806048182183725
      ],
      [
        "扬",
        -9.806614479249015
      ],
      [
        "免",
        -9.80673380480678
      ],
      [
        "庄",
        -9.806742864747555
      ],
      [
        "减肥",
        -9.806904230530206
      ],
      [
        "写的",
        -9.807298672621055
      ],
      [
        "伤心",
        -9.80749103998867
      ],
      [
        "非常的",
        -9.807491323701708
      ],
      [
        "没问题",
        -9.807759708558994
      ],
      [
        "讨论",
        -9.807802588954015
      ],
      [
        "我给你",
        -9.80820810330274
      ],
      [
        "七月",
        -9.808528279511084
      ],
      [
        "▁晚上",
        -9.808555865434219
      ],
      [
        "凯",
        -9.808756002247243
      ],
      [
        "▁两个人",
        -9.808851090528112
      ],
      [
        "好吃",
        -9.80939568152605
      ],
      [
        "资",
        -9.810725146874695
      ],
      [
        "▁你先",
        -9.811166350967245
      ],
      [
        "具体",
        -9.811471455230674
      ],
      [
        "吸引",
        -9.81161713632375
      ],
      [
        "难以",
        -9.811618828270962
      ],
      [
        "划",
        -9.811843454706299
      ],
      [
        "▁大家都",
        -9.811948248461924
      ],
      [
        "广告",
        -9.811981897549563
      ],
      [
        "平常",
        -9.81239295269982
      ],
      [
        "不出来",
        -9.812558498726283
      ],
      [
        "便宜",
        -9.813896083502344
      ],
      [
        "基",
        -9.814076043980744
      ],
      [
        "起来了",
        -9.814304845846486
      ],
      [
        "相亲",
        -9.81461875482464
      ],
      [
        "一个小",
        -9.814772316383872
      ],
      [
        "送给",
        -9.815207313397861
      ],
      [
        "身份",
        -9.8152387849849
      ],
      [
        "什么东西",
        -9.815775177430506
      ],
      [
        "壮",
        -9.815812531991831
      ],
      [
        "奇怪",
        -9.81597554926833
      ],
      [
        "小心",
        -9.816021760751426
      ],
      [
        "一千",
        -9.817518040335838
      ],
      [
        "碗",
        -9.817605198244124
      ],
      [
        "这个女人",
        -9.81800780519312
      ],
      [
        "不是我",
        -9.81869304618034
      ],
      [
        "过程",
        -9.818757528065538
      ],
      [
        "问问",
        -9.819254468721073
      ],
      [
        "互联网",
        -9.820017203682305
      ],
      [
        "之中",
        -9.820943534406066
      ],
      [
        "佛",
        -9.821313662742043
      ],
      [
        "记住",
        -9.822078527231174
      ],
      [
        "食物",
        -9.822302354933715
      ],
      [
        "实际",
        -9.822647668655272
      ],
      [
        "安慰",
        -9.822759176288976
      ],
      [
        "不是说",
        -9.82306440777691
      ],
      [
        "在你",
        -9.82313379974402
      ],
      [
        "黄金",
        -9.82361563989761
      ],
      [
        "革命",
        -9.824178946184576
      ],
      [
        "接着",
        -9.824853031402096
      ],
      [
        "其他的",
        -9.825742399902976
      ],
      [
        "聚",
        -9.826217268996372
      ],
      [
        "笑话",
        -9.826614365090995
      ],
      [
        "四百",
        -9.827314305988288
      ],
      [
        "最重要的",
        -9.827819281912081
      ],
      [
        "▁由于",
        -9.827840638962044
      ],
      [
        "拿出",
        -9.828199815380678
      ],
      [
        "六点",
        -9.828878688139836
      ],
      [
        "上次",
        -9.828922085067322
      ],
      [
        "▁杨",
        -9.829056701046987
      ],
      [
        "▁已经",
        -9.829496552904034
      ],
      [
        "造成",
        -9.829785572118674
      ],
      [
        "▁这位",
        -9.830070893998169
      ],
      [
        "多大",
        -9.830196536136427
      ],
      [
        "肝",
        -9.830317138328088
      ],
      [
        "收到",
        -9.83037955400924
      ],
      [
        "收听",
        -9.830763575401427
      ],
      [
        "律师",
        -9.830777244037538
      ],
      [
        "挖",
        -9.831043987279605
      ],
      [
        "听听",
        -9.831647037337248
      ],
      [
        "大爷",
        -9.831937021520716
      ],
      [
        "加入",
        -9.832309542106898
      ],
      [
        "数据显示",
        -9.832784279866186
      ],
      [
        "跑到",
        -9.83286685353209
      ],
      [
        "最高",
        -9.833701746024841
      ],
      [
        "公开",
        -9.834270640515332
      ],
      [
        "留在",
        -9.835106043721392
      ],
      [
        "▁我给你",
        -9.835121506192284
      ],
      [
        "毛病",
        -9.835141903881068
      ],
      [
        "工程",
        -9.835417101937828
      ],
      [
        "申请",
        -9.836137902656255
      ],
      [
        "刺激",
        -9.836652312618593
      ],
      [
        "撤",
        -9.837117071082297
      ],
      [
        "的感受",
        -9.838097687752892
      ],
      [
        "据",
        -9.838146648924898
      ],
      [
        "▁我当时",
        -9.838336262674712
      ],
      [
        "好朋友",
        -9.83859623876043
      ],
      [
        "感觉到",
        -9.839057059721384
      ],
      [
        "尴尬",
        -9.839100952321719
      ],
      [
        "我已经",
        -9.839117358003294
      ],
      [
        "鼓",
        -9.839293883236468
      ],
      [
        "说得",
        -9.840027581689036
      ],
      [
        "拿到",
        -9.840518128719273
      ],
      [
        "生活的",
        -9.840617761109392
      ],
      [
        "用户",
        -9.840721498390705
      ],
      [
        "▁你们俩",
        -9.841306739638627
      ],
      [
        "里边儿",
        -9.841441476761077
      ],
      [
        "媳妇",
        -9.841669658138219
      ],
      [
        "俗",
        -9.84201247884559
      ],
      [
        "送到",
        -9.8424907398132
      ],
      [
        "合适",
        -9.84290718255257
      ],
      [
        "会觉得",
        -9.842981491845215
      ],
      [
        "等我",
        -9.843048553254787
      ],
      [
        "夏天",
        -9.843280942035545
      ],
      [
        "非要",
        -9.844090512542927
      ],
      [
        "创业",
        -9.844209488412947
      ],
      [
        "有事",
        -9.844308127186057
      ],
      [
        "十八",
        -9.84434630046831
      ],
      [
        "不是你",
        -9.844941563613244
      ],
      [
        "意义",
        -9.845349903550076
      ],
      [
        "任何人",
        -9.845575064240185
      ],
      [
        "饿",
        -9.845625538569362
      ],
      [
        "你能",
        -9.84639943185286
      ],
      [
        "展",
        -9.846491653785499
      ],
      [
        "▁各位",
        -9.846938080657583
      ],
      [
        "爆",
        -9.846966262987818
      ],
      [
        "老太太",
        -9.847814348422894
      ],
      [
        "郭",
        -9.847901131469307
      ],
      [
        "不合适",
        -9.848058177036815
      ],
      [
        "答",
        -9.848849307584437
      ],
      [
        "在那",
        -9.850265684492838
      ],
      [
        "的能力",
        -9.850289997630052
      ],
      [
        "的位置",
        -9.850410287321829
      ],
      [
        "俺",
        -9.850796431125914
      ],
      [
        "尽快",
        -9.851265290770176
      ],
      [
        "资源",
        -9.851457498127214
      ],
      [
        "女士",
        -9.852075921288932
      ],
      [
        "三个月",
        -9.852302805335224
      ],
      [
        "阴",
        -9.852536214935398
      ],
      [
        "就行",
        -9.853303889952004
      ],
      [
        "减少",
        -9.85425914977236
      ],
      [
        "大姐",
        -9.854742864905319
      ],
      [
        "休",
        -9.854989741286488
      ],
      [
        "出生",
        -9.85546590592207
      ],
      [
        "困",
        -9.855623361776033
      ],
      [
        "亲戚",
        -9.856189885105216
      ],
      [
        "菲",
        -9.856745260108074
      ],
      [
        "作品",
        -9.857417587849797
      ],
      [
        "▁行了",
        -9.85797292198053
      ],
      [
        "▁看到",
        -9.8581238308509
      ],
      [
        "胸",
        -9.858331140849153
      ],
      [
        "做过",
        -9.858379411716466
      ],
      [
        "又不是",
        -9.858438598787085
      ],
      [
        "▁每",
        -9.85857901597268
      ],
      [
        "资本",
        -9.859379041359613
      ],
      [
        "苹果",
        -9.859556035206474
      ],
      [
        "下雨",
        -9.859856422330536
      ],
      [
        "▁你知道吗",
        -9.859988433640599
      ],
      [
        "看起来",
        -9.85999909525737
      ],
      [
        "宇",
        -9.86057361672784
      ],
      [
        "位置",
        -9.861001597760772
      ],
      [
        "每个",
        -9.861277703195213
      ],
      [
        "横",
        -9.862025517129572
      ],
      [
        "▁我去",
        -9.862027866943905
      ],
      [
        "比我",
        -9.86235118544841
      ],
      [
        "职业",
        -9.862529970400164
      ],
      [
        "▁美国",
        -9.86260614658779
      ],
      [
        "这个男人",
        -9.862792015373644
      ],
      [
        "其实是",
        -9.862820325824504
      ],
      [
        "的一种",
        -9.862929118884281
      ],
      [
        "▁我只是",
        -9.862951418344682
      ],
      [
        "▁我知道你",
        -9.86309193243397
      ],
      [
        "安静",
        -9.863433942839432
      ],
      [
        "南京",
        -9.863557588583557
      ],
      [
        "砸",
        -9.864636401992271
      ],
      [
        "电台",
        -9.865543132598741
      ],
      [
        "▁有没有",
        -9.86562012134193
      ],
      [
        "邻居",
        -9.865879559625231
      ],
      [
        "哼",
        -9.866965321642699
      ],
      [
        "可爱",
        -9.867060391810266
      ],
      [
        "似乎",
        -9.867063545245216
      ],
      [
        "美丽",
        -9.867463315850426
      ],
      [
        "几乎",
        -9.867525049605907
      ],
      [
        "当地",
        -9.867551199690357
      ],
      [
        "你可以",
        -9.86782999000429
      ],
      [
        "交往",
        -9.868030047407384
      ],
      [
        "跟他们",
        -9.86809338578956
      ],
      [
        "▁我相信",
        -9.86810108600862
      ],
      [
        "尾",
        -9.868284451750128
      ],
      [
        "一个女人",
        -9.86829494694827
      ],
      [
        "什么事儿",
        -9.868550019884083
      ],
      [
        "喝了",
        -9.86896388233314
      ],
      [
        "太多了",
        -9.869065167822878
      ],
      [
        "▁就在",
        -9.869544028659632
      ],
      [
        "轻松",
        -9.86959736511046
      ],
      [
        "里头",
        -9.869762953005617
      ],
      [
        "▁本来",
        -9.870216829948209
      ],
      [
        "关键",
        -9.870576056061065
      ],
      [
        "你俩",
        -9.8709266145413
      ],
      [
        "境",
        -9.870989328241977
      ],
      [
        "▁然而",
        -9.871097618020451
      ],
      [
        "九点",
        -9.871115496952484
      ],
      [
        "麻",
        -9.871206375932069
      ],
      [
        "说这个",
        -9.871291990683375
      ],
      [
        "忘记",
        -9.871758484919196
      ],
      [
        "冬天",
        -9.87208522441528
      ],
      [
        "合同",
        -9.872137956160728
      ],
      [
        "判断",
        -9.872164713707694
      ],
      [
        "大事",
        -9.872207089969496
      ],
      [
        "听过",
        -9.87271731578035
      ],
      [
        "都不会",
        -9.874043882769822
      ],
      [
        "制度",
        -9.874728102516059
      ],
      [
        "八十",
        -9.874952879840826
      ],
      [
        "普通",
        -9.874977031190753
      ],
      [
        "挤",
        -9.875715694282835
      ],
      [
        "究竟",
        -9.876157773350906
      ],
      [
        "石头",
        -9.876559630694276
      ],
      [
        "两次",
        -9.877366595140801
      ],
      [
        "辣",
        -9.877899087162948
      ],
      [
        "不成",
        -9.878033692481543
      ],
      [
        "▁如果我",
        -9.879901426343535
      ],
      [
        "琴",
        -9.87997650422668
      ],
      [
        "▁而不是",
        -9.880060662869916
      ],
      [
        "还真",
        -9.880420249135552
      ],
      [
        "作者",
        -9.880425406619551
      ],
      [
        "疾病",
        -9.880545567051884
      ],
      [
        "受伤",
        -9.88057120748756
      ],
      [
        "这事",
        -9.880597894516937
      ],
      [
        "王子",
        -9.881281025807127
      ],
      [
        "皇帝",
        -9.881613413319329
      ],
      [
        "在乎",
        -9.881794641443655
      ],
      [
        "九月",
        -9.881796735169708
      ],
      [
        "真相",
        -9.881934506383026
      ],
      [
        "▁要不然",
        -9.882073454221864
      ],
      [
        "有机会",
        -9.882246906110005
      ],
      [
        "吸",
        -9.88250584478374
      ],
      [
        "基本上",
        -9.882872849078723
      ],
      [
        "奶",
        -9.883019126037656
      ],
      [
        "是非常",
        -9.883144822134238
      ],
      [
        "优秀",
        -9.883466670998779
      ],
      [
        "没有人",
        -9.883569331006893
      ],
      [
        "▁周",
        -9.883625164262597
      ],
      [
        "帮他",
        -9.883874394496644
      ],
      [
        "我跟你说",
        -9.884126656415528
      ],
      [
        "▁你自己",
        -9.884563775127006
      ],
      [
        "导",
        -9.88487384792026
      ],
      [
        "胃",
        -9.88511844895902
      ],
      [
        "人物",
        -9.88532469466379
      ],
      [
        "中国的",
        -9.885529473162057
      ],
      [
        "一家人",
        -9.885866253026066
      ],
      [
        "活得",
        -9.886167475895466
      ],
      [
        "另外一个",
        -9.887222953224125
      ],
      [
        "分别",
        -9.88743484973998
      ],
      [
        "说的话",
        -9.887656566444932
      ],
      [
        "就得",
        -9.887956669038607
      ],
      [
        "亿美元",
        -9.888679601922552
      ],
      [
        "没法",
        -9.88912760312962
      ],
      [
        "欺负",
        -9.889320165286081
      ],
      [
        "▁没事儿",
        -9.88972694729529
      ],
      [
        "我不知道",
        -9.890279828357063
      ],
      [
        "处于",
        -9.890629866172684
      ],
      [
        "▁那你就",
        -9.890663489783591
      ],
      [
        "▁这不",
        -9.891278191993198
      ],
      [
        "月亮",
        -9.89234093769224
      ],
      [
        "没了",
        -9.89247373008871
      ],
      [
        "徒",
        -9.892505988972474
      ],
      [
        "脑袋",
        -9.892985210746122
      ],
      [
        "▁记得",
        -9.893177579099994
      ],
      [
        "就不会",
        -9.89318840736395
      ],
      [
        "改革",
        -9.893294501428038
      ],
      [
        "我来",
        -9.89388840054683
      ],
      [
        "是什么呢",
        -9.894178419229828
      ],
      [
        "林哥",
        -9.894418518903063
      ],
      [
        "一开始",
        -9.894816551506857
      ],
      [
        "难道",
        -9.89500484117239
      ],
      [
        "动手",
        -9.895082296866082
      ],
      [
        "的儿子",
        -9.895582830898512
      ],
      [
        "会议",
        -9.895912983945951
      ],
      [
        "武汉",
        -9.896210555095347
      ],
      [
        "制造",
        -9.896341224480803
      ],
      [
        "在我们",
        -9.897090790004295
      ],
      [
        "禁",
        -9.89734161625618
      ],
      [
        "附近",
        -9.89768711381399
      ],
      [
        "请你",
        -9.897827069382984
      ],
      [
        "▁是你",
        -9.897971712909936
      ],
      [
        "到底是",
        -9.898172660642519
      ],
      [
        "一号",
        -9.898545997833857
      ],
      [
        "质量",
        -9.89896256690407
      ],
      [
        "三月",
        -9.899372729735479
      ],
      [
        "丹",
        -9.899593946099754
      ],
      [
        "小区",
        -9.899721603291207
      ],
      [
        "具有",
        -9.899919238663966
      ],
      [
        "还是要",
        -9.899967639455843
      ],
      [
        "窗",
        -9.900869846537919
      ],
      [
        "杀了",
        -9.901067178449551
      ],
      [
        "英国",
        -9.901104411468896
      ],
      [
        "全面",
        -9.901202069948486
      ],
      [
        "效果",
        -9.901292097536727
      ],
      [
        "老鼠",
        -9.901510892832746
      ],
      [
        "的衣服",
        -9.902082467843975
      ],
      [
        "杜",
        -9.90219495953315
      ],
      [
        "柳",
        -9.902198322780373
      ],
      [
        "甲",
        -9.90225888277424
      ],
      [
        "日军",
        -9.902416470537059
      ],
      [
        "普",
        -9.90288316931524
      ],
      [
        "万元",
        -9.903058022872209
      ],
      [
        "舍不得",
        -9.903221789777273
      ],
      [
        "本来",
        -9.903368987541677
      ],
      [
        "要不",
        -9.904281740234866
      ],
      [
        "扫",
        -9.90439992721746
      ],
      [
        "▁那天",
        -9.904876062341977
      ],
      [
        "缘",
        -9.905278394927489
      ],
      [
        "必须要",
        -9.905429910654345
      ],
      [
        "病毒",
        -9.906060630964316
      ],
      [
        "一颗",
        -9.906072354471053
      ],
      [
        "觉得你",
        -9.906597108388745
      ],
      [
        "炎",
        -9.906616290501239
      ],
      [
        "地上",
        -9.906689518889456
      ],
      [
        "如果你",
        -9.906757191279041
      ],
      [
        "没错",
        -9.90707403209518
      ],
      [
        "▁到时候",
        -9.907271025717979
      ],
      [
        "他也",
        -9.907620575787487
      ],
      [
        "▁所以你",
        -9.907689677597885
      ],
      [
        "就是我们",
        -9.907810653607399
      ],
      [
        "稳",
        -9.907932849271653
      ],
      [
        "啥的",
        -9.908163351136713
      ],
      [
        "穿着",
        -9.908265866422752
      ],
      [
        "▁所以我们",
        -9.908974763111805
      ],
      [
        "很简单",
        -9.90906565600286
      ],
      [
        "施",
        -9.909390533429361
      ],
      [
        "塔",
        -9.909674926660049
      ],
      [
        "奥",
        -9.909748487105544
      ],
      [
        "意思",
        -9.910182930568084
      ],
      [
        "▁咱俩",
        -9.910241825280607
      ],
      [
        "不信",
        -9.91097292298793
      ],
      [
        "的情绪",
        -9.911038443454181
      ],
      [
        "真心",
        -9.911341592594443
      ],
      [
        "▁你在",
        -9.911470883051901
      ],
      [
        "一时",
        -9.911779593768447
      ],
      [
        "尚",
        -9.911897161742235
      ],
      [
        "京",
        -9.911959597224442
      ],
      [
        "医疗",
        -9.912017632441206
      ],
      [
        "狠",
        -9.912027039251864
      ],
      [
        "▁那他",
        -9.912086485197483
      ],
      [
        "限",
        -9.912735103955185
      ],
      [
        "我没",
        -9.912901680170151
      ],
      [
        "我真的",
        -9.913553962296646
      ],
      [
        "▁最终",
        -9.91356697502274
      ],
      [
        "人才",
        -9.913834801337247
      ],
      [
        "▁如今",
        -9.914163724066992
      ],
      [
        "▁他会",
        -9.914681666424688
      ],
      [
        "这一次",
        -9.915424121578084
      ],
      [
        "等待",
        -9.915498790128598
      ],
      [
        "很喜欢",
        -9.91551214855605
      ],
      [
        "投入",
        -9.915756809910752
      ],
      [
        "仗",
        -9.915872398684957
      ],
      [
        "两百",
        -9.915984669305038
      ],
      [
        "很快",
        -9.916053213188283
      ],
      [
        "还有一个",
        -9.916155855569851
      ],
      [
        "委",
        -9.91639729934207
      ],
      [
        "孩子们",
        -9.916454746814036
      ],
      [
        "终",
        -9.916720176676105
      ],
      [
        "你爸",
        -9.91787520486736
      ],
      [
        "的情况下",
        -9.918087363834276
      ],
      [
        "尿",
        -9.918721353945958
      ],
      [
        "▁也就是",
        -9.91888736422909
      ],
      [
        "摇",
        -9.919098326298926
      ],
      [
        "教练",
        -9.919211678917963
      ],
      [
        "▁或者说",
        -9.919221602224157
      ],
      [
        "一人",
        -9.919406877455923
      ],
      [
        "脉",
        -9.919478985162852
      ],
      [
        "窝",
        -9.920121616205138
      ],
      [
        "早点",
        -9.920137402039355
      ],
      [
        "煮",
        -9.920237135602694
      ],
      [
        "掌握",
        -9.921140267566617
      ],
      [
        "版",
        -9.921551799255077
      ],
      [
        "泥",
        -9.921614350333217
      ],
      [
        "▁二",
        -9.921655021585703
      ],
      [
        "炒",
        -9.922130256673164
      ],
      [
        "垃圾",
        -9.922473140532492
      ],
      [
        "残",
        -9.92277852972041
      ],
      [
        "电子",
        -9.923124943756134
      ],
      [
        "相互",
        -9.924144864517093
      ],
      [
        "粗",
        -9.924794272959774
      ],
      [
        "这么多年",
        -9.924985991583714
      ],
      [
        "凶",
        -9.925188708279936
      ],
      [
        "的身份",
        -9.925985913997929
      ],
      [
        "▁让你",
        -9.926054656308786
      ],
      [
        "▁有一天",
        -9.92619689223332
      ],
      [
        "▁也就是说",
        -9.926354037097433
      ],
      [
        "暖",
        -9.926637663959951
      ],
      [
        "珠",
        -9.926824992169934
      ],
      [
        "更好的",
        -9.926864728754289
      ],
      [
        "牺牲",
        -9.927137868062266
      ],
      [
        "浪费",
        -9.927557612151448
      ],
      [
        "聊聊",
        -9.92832597291903
      ],
      [
        "醉",
        -9.92902777506474
      ],
      [
        "恐惧",
        -9.92938383893594
      ],
      [
        "开门",
        -9.929612513190719
      ],
      [
        "培养",
        -9.929703634393418
      ],
      [
        "那个人",
        -9.929923538199501
      ],
      [
        "上市",
        -9.930242403030167
      ],
      [
        "档",
        -9.93034220816093
      ],
      [
        "你在",
        -9.930938298328542
      ],
      [
        "听着",
        -9.93154739514422
      ],
      [
        "实在是",
        -9.931692177160908
      ],
      [
        "有一点",
        -9.932118523562938
      ],
      [
        "醒",
        -9.932145480415691
      ],
      [
        "了嘛",
        -9.932410592416531
      ],
      [
        "▁哎你",
        -9.93241092394928
      ],
      [
        "娜",
        -9.932656212163966
      ],
      [
        "上课",
        -9.933525712265375
      ],
      [
        "采访",
        -9.934061322516019
      ],
      [
        "涛",
        -9.934213635988053
      ],
      [
        "帝",
        -9.934332504250184
      ],
      [
        "夸",
        -9.934502586585934
      ],
      [
        "捡",
        -9.934545861802249
      ],
      [
        "▁一边",
        -9.935664820782538
      ],
      [
        "患",
        -9.935932874365076
      ],
      [
        "相对",
        -9.93603034161185
      ],
      [
        "慧",
        -9.936165188266994
      ],
      [
        "程度",
        -9.936895748704751
      ],
      [
        "哭了",
        -9.93709334878167
      ],
      [
        "瞧",
        -9.937592520023752
      ],
      [
        "概念",
        -9.938290362095577
      ],
      [
        "你会",
        -9.938297239026404
      ],
      [
        "这就是",
        -9.938495888223162
      ],
      [
        "而言",
        -9.938757921053421
      ],
      [
        "薄",
        -9.939098703818043
      ],
      [
        "▁前两天",
        -9.939159423116918
      ],
      [
        "的行为",
        -9.93935458670012
      ],
      [
        "住在",
        -9.939447185644266
      ],
      [
        "▁终于",
        -9.939463942644547
      ],
      [
        "▁只要你",
        -9.939862264692552
      ],
      [
        "电视",
        -9.939863996949054
      ],
      [
        "笨",
        -9.940065512628946
      ],
      [
        "库",
        -9.94009311011872
      ],
      [
        "突破",
        -9.940399399397354
      ],
      [
        "不让",
        -9.940534925400806
      ],
      [
        "▁你给我",
        -9.940825380304386
      ],
      [
        "八百",
        -9.94098459304788
      ],
      [
        "多久",
        -9.941130430222499
      ],
      [
        "劲",
        -9.941149799404613
      ],
      [
        "我看",
        -9.941532318921656
      ],
      [
        "争取",
        -9.942006527201798
      ],
      [
        "▁喂",
        -9.942123379755294
      ],
      [
        "知道我",
        -9.942441605901003
      ],
      [
        "板块",
        -9.942633761663782
      ],
      [
        "童",
        -9.94297879639513
      ],
      [
        "农村",
        -9.943768122514113
      ],
      [
        "互动",
        -9.944035684769208
      ],
      [
        "是最",
        -9.94488093354003
      ],
      [
        "规划",
        -9.945650434062749
      ],
      [
        "老百姓",
        -9.945842791216158
      ],
      [
        "满意",
        -9.945961000408666
      ],
      [
        "勇",
        -9.945961098845167
      ],
      [
        "废",
        -9.945963714852605
      ],
      [
        "右",
        -9.945988077841134
      ],
      [
        "▁天",
        -9.946239397572782
      ],
      [
        "你觉得",
        -9.94633155859438
      ],
      [
        "▁第二",
        -9.946563973915554
      ],
      [
        "▁听说",
        -9.946638870042555
      ],
      [
        "▁只能",
        -9.946725745559654
      ],
      [
        "一路",
        -9.946966481572552
      ],
      [
        "抗",
        -9.947026511642417
      ],
      [
        "▁我能",
        -9.947407874984822
      ],
      [
        "尝试",
        -9.94786654093059
      ],
      [
        "不开心",
        -9.948272785831058
      ],
      [
        "这个世界",
        -9.948324128493923
      ],
      [
        "得多",
        -9.948608165305677
      ],
      [
        "抓住",
        -9.94880633307463
      ],
      [
        "成本",
        -9.948817004018156
      ],
      [
        "记忆",
        -9.949029669164155
      ],
      [
        "真实",
        -9.949270132756514
      ],
      [
        "再来",
        -9.949453037323178
      ],
      [
        "干什么呀",
        -9.949520960795994
      ],
      [
        "剪",
        -9.950117338121775
      ],
      [
        "理想",
        -9.950336409694117
      ],
      [
        "发出",
        -9.951215643700888
      ],
      [
        "意识",
        -9.95132045893617
      ],
      [
        "提到",
        -9.951344906346948
      ],
      [
        "的路",
        -9.951651193507258
      ],
      [
        "▁赵",
        -9.95172556770363
      ],
      [
        "接到",
        -9.951841713496018
      ],
      [
        "眼里",
        -9.952048172866615
      ],
      [
        "仅",
        -9.952246050311867
      ],
      [
        "鼻子",
        -9.95247915584491
      ],
      [
        "搁",
        -9.95260760750735
      ],
      [
        "欣赏",
        -9.9526348075511
      ],
      [
        "还想",
        -9.952785164950408
      ],
      [
        "劲儿",
        -9.9532884459887
      ],
      [
        "跌",
        -9.953591593891282
      ],
      [
        "▁我不想",
        -9.953682017402587
      ],
      [
        "的这些",
        -9.954143645161643
      ],
      [
        "我告诉你",
        -9.95414549269907
      ],
      [
        "息",
        -9.954408502553424
      ],
      [
        "▁但他",
        -9.954744804894945
      ],
      [
        "▁你有",
        -9.954750053255182
      ],
      [
        "马上就",
        -9.955400167289685
      ],
      [
        "魏",
        -9.95567511380233
      ],
      [
        "▁作为",
        -9.95677845467102
      ],
      [
        "咨询",
        -9.957287555799887
      ],
      [
        "不该",
        -9.95775643651587
      ],
      [
        "十二月",
        -9.957780640400989
      ],
      [
        "逐渐",
        -9.95782262378481
      ],
      [
        "▁看看",
        -9.957855859243093
      ],
      [
        "催",
        -9.9579693142269
      ],
      [
        "女孩儿",
        -9.958058073763178
      ],
      [
        "嫌",
        -9.958191032816572
      ],
      [
        "你这个",
        -9.958400803243125
      ],
      [
        "做事",
[...]
