{
  "version": "1.0",
  "truncation": null,
  "padding": null,
  "added_tokens": [
    {
      "id": 0,
      "content": "<UNK>",
      "single_word": false,
      "lstrip": false,
      "rstrip": false,
      "normalized": false,
      "special": true
    },
    {
      "id": 1,
      "content": "<PAD>",
      "single_word": false,
      "lstrip": false,
      "rstrip": false,
      "normalized": false,
      "special": true
    },
    {
      "id": 2,
      "content": "<CLS>",
      "single_word": false,
      "lstrip": false,
      "rstrip": false,
      "normalized": false,
      "special": true
    },
    {
      "id": 3,
      "content": "<SEP>",
      "single_word": false,
      "lstrip": false,
      "rstrip": false,
      "normalized": false,
      "special": true
    },
    {
      "id": 4,
      "content": "<MASK>",
      "single_word": false,
      "lstrip": false,
      "rstrip": false,
      "normalized": false,
      "special": true
    }
  ],
  "normalizer": {
    "type": "Sequence",
    "normalizers": [
      {
        "type": "NFD"
      },
      {
        "type": "StripAccents"
      },
      {
        "type": "Lowercase"
      }
    ]
  },
  "pre_tokenizer": {
    "type": "Metaspace",
    "replacement": "▁",
    "prepend_scheme": "always",
    "split": true
  },
  "post_processor": null,
  "decoder": {
    "type": "Metaspace",
    "replacement": "▁",
    "prepend_scheme": "always",
    "split": true
  },
  "model": {
    "type": "Unigram",
    "unk_id": 0,
    "vocab": [
      [
        "<UNK>",
        0.0
      ],
      [
        "<PAD>",
        0.0
      ],
      [
        "<CLS>",
        0.0
      ],
      [
        "<SEP>",
        0.0
      ],
      [
        "<MASK>",
        0.0
      ],
      [
        "▁de",
        -3.1959226321165204
      ],
      [
        ".",
        -3.4600919814243003
      ],
      [
        "▁een",
        -3.893224677559923
      ],
      [
        "▁het",
        -3.917834127275034
      ],
      [
        ",",
        -4.009363219976633
      ],
      [
        "▁van",
        -4.012126574232218
      ],
      [
        "▁en",
        -4.12278531136579
      ],
      [
        "▁in",
        -4.130219807582165
      ],
      [
        "▁",
        -4.16437691101844
      ],
      [
        "▁is",
        -4.457313739415536
      ],
      [
        "▁op",
        -4.7568438390884005
      ],
      [
        "▁je",
        -4.8236723893538525
      ],
      [
        "▁dat",
        -4.844105710846264
      ],
      [
        "▁zijn",
        -5.022435284861162
      ],
      [
        "s",
        -5.052944365181487
      ],
      [
        "▁met",
        -5.055487313059288
      ],
      [
        "▁te",
        -5.137643920885447
      ],
      [
        "e",
        -5.156331271647337
      ],
      [
        "en",
        -5.17868973305699
      ],
      [
        "▁die",
        -5.188031720946347
      ],
      [
        "▁ze",
        -5.195673842800479
      ],
      [
        "▁voor",
        -5.225353647293403
      ],
      [
        "▁niet",
        -5.266497547502855
      ],
      [
        ".\n*target_child:",
        -5.291582582528676
      ],
      [
        "▁er",
        -5.3029142534496785
      ],
      [
        "▁hij",
        -5.355312141947593
      ],
      [
        "▁ook",
        -5.440134591292788
      ],
      [
        "▁aan",
        -5.5057283039680645
      ],
      [
        "▁maar",
        -5.578741411861753
      ],
      [
        "▁ik",
        -5.604317477592405
      ],
      [
        "▁als",
        -5.624499932310311
      ],
      [
        "▁uit",
        -5.638577181863337
      ],
      [
        ":",
        -5.6412274012365735
      ],
      [
        "▁·",
        -5.666618217500961
      ],
      [
        "▁naar",
        -5.729926648070524
      ],
      [
        "▁bij",
        -5.7336672834380735
      ],
      [
        "▁om",
        -5.747615994959107
      ],
      [
        "▁dan",
        -5.77463391642674
      ],
      [
        "t",
        -5.798000198440025
      ],
      [
        "▁was",
        -5.8022787532759
      ],
      [
        "▁of",
        -5.81079914536614
      ],
      [
        "?",
        -5.817627347812051
      ],
      [
        "▁door",
        -5.8246847204957835
      ],
      [
        ")",
        -5.959150813023211
      ],
      [
        "▁over",
        -5.967254174295455
      ],
      [
        "-",
        -5.987310293435694
      ],
      [
        "▁-",
        -6.006045078426972
      ],
      [
        "▁deze",
        -6.0375521306261195
      ],
      [
        "▁dit",
        -6.041177978300954
      ],
      [
        "▁wat",
        -6.046852005856293
      ],
      [
        "▁nog",
        -6.071475343198349
      ],
      [
        "▁wordt",
        -6.0753104613929985
      ],
      [
        "▁(",
        -6.107946120048675
      ],
      [
        "▁heeft",
        -6.110545795638101
      ],
      [
        "▁'",
        -6.1892537049156005
      ],
      [
        "!",
        -6.20241893390595
      ],
      [
        ".\n*investigator:",
        -6.2227118567383854
      ],
      [
        "de",
        -6.232620834375451
      ],
      [
        "▁wel",
        -6.247153400130225
      ],
      [
        "▁zo",
        -6.256403485576726
      ],
      [
        "▁kan",
        -6.264150114498493
      ],
      [
        "\n*target_child:\t",
        -6.2773235746281255
      ],
      [
        "▁veel",
        -6.302717098421301
      ],
      [
        "▁meer",
        -6.305531790706068
      ],
      [
        "▁werd",
        -6.3091841758163785
      ],
      [
        "▁worden",
        -6.322830353746044
      ],
      [
        "▁haar",
        -6.3450568543736185
      ],
      [
        "n",
        -6.36797932097361
      ],
      [
        "▁we",
        -6.42426865751011
      ],
      [
        "d",
        -6.487151992060463
      ],
      [
        "▁al",
        -6.521044064590395
      ],
      [
        "▁hebben",
        -6.555450375766968
      ],
      [
        "▁twee",
        -6.565910762445309
      ],
      [
        "▁moet",
        -6.5934219235372
      ],
      [
        "▁tot",
        -6.59935526323552
      ],
      [
        "\txxx",
        -6.635224954082915
      ],
      [
        "▁mensen",
        -6.642332491941644
      ],
      [
        "\n",
        -6.659711448560394
      ],
      [
        "▁gaat",
        -6.694824056018257
      ],
      [
        "er",
        -6.710633019114802
      ],
      [
        "?\n*target_child:",
        -6.720517128459662
      ],
      [
        "▁geen",
        -6.72391322418204
      ],
      [
        ",'",
        -6.737070004775507
      ],
      [
        "▁weer",
        -6.740930221455674
      ],
      [
        "▁1",
        -6.744527846650509
      ],
      [
        "▁zich",
        -6.751957516651254
      ],
      [
        "▁andere",
        -6.75537091396286
      ],
      [
        "▁kunnen",
        -6.765256676122659
      ],
      [
        "▁daar",
        -6.77420903552942
      ],
      [
        "▁nu",
        -6.786935031444905
      ],
      [
        "▁na",
        -6.808611476083705
      ],
      [
        "▁hun",
        -6.811973792278968
      ],
      [
        "▁goed",
        -6.815062982643003
      ],
      [
        "▁waar",
        -6.828598470296377
      ],
      [
        "▁hem",
        -6.834126886541302
      ],
      [
        ".'",
        -6.848290283658345
      ],
      [
        "▁hier",
        -6.850180532852587
      ],
      [
        "▁had",
        -6.852558193892593
      ],
      [
        ".\n\n",
        -6.853258024307586
      ],
      [
        "▁jaar",
        -6.861431575390972
      ],
      [
        "•",
        -6.90530220824335
      ],
      [
        "▁hoe",
        -6.946596498779096
      ],
      [
        "▁...",
        -6.947814022052466
      ],
      [
        "▁gaan",
        -6.953802197330388
      ],
      [
        "▁toen",
        -6.960864144700645
      ],
      [
        "▁heel",
        -6.964834560671122
      ],
      [
        "▁onder",
        -6.969218234189672
      ],
      [
        "▁2",
        -6.992724085289426
      ],
      [
        "je",
        -7.021811577174045
      ],
      [
        "▁staat",
        -7.039485710849714
      ],
      [
        "'",
        -7.04239713254116
      ],
      [
        "▁a",
        -7.043964634611566
      ],
      [
        "▁heb",
        -7.04844813094997
      ],
      [
        "▁zegt",
        -7.058920874236966
      ],
      [
        "▁mijn",
        -7.061820253380109
      ],
      [
        "▁wil",
        -7.070947408510682
      ],
      [
        "▁tegen",
        -7.074240240820689
      ],
      [
        "▁komt",
        -7.090391132079704
      ],
      [
        "▁grote",
        -7.106510763688048
      ],
      [
        "▁af",
        -7.108330516518601
      ],
      [
        "▁alleen",
        -7.128862386501661
      ],
      [
        "▁tussen",
        -7.174222188597053
      ],
      [
        "▁jij",
        -7.175719568622986
      ],
      [
        "▁waren",
        -7.179202566860436
      ],
      [
        "▁zou",
        -7.1815596480390305
      ],
      [
        "?'",
        -7.19528384161319
      ],
      [
        "us",
        -7.1992287785837
      ],
      [
        "▁b",
        -7.211044234788135
      ],
      [
        "▁eerste",
        -7.215284424530685
      ],
      [
        "▁3",
        -7.222714642594871
      ],
      [
        "\tja",
        -7.225342424581575
      ],
      [
        "▁kinderen",
        -7.241952580270475
      ],
      [
        "▁maken",
        -7.2471278091895215
      ],
      [
        "▁doen",
        -7.248177400734052
      ],
      [
        "▁iets",
        -7.2538157754860855
      ],
      [
        "▁ver",
        -7.255948381873134
      ],
      [
        "▁water",
        -7.256316617983815
      ],
      [
        "▁toch",
        -7.259896419188568
      ],
      [
        "a",
        -7.292349519832591
      ],
      [
        "▁even",
        -7.306160658265707
      ],
      [
        "▁mee",
        -7.314333161841031
      ],
      [
        "en.",
        -7.325798256203539
      ],
      [
        "▁nederland",
        -7.329957921166709
      ],
      [
        "▁tijd",
        -7.334308473828074
      ],
      [
        "▁alle",
        -7.335812189176108
      ],
      [
        "▁zij",
        -7.3709120717751
      ],
      [
        "▁zei",
        -7.376481618152969
      ],
      [
        "▁dus",
        -7.383360880387734
      ],
      [
        "▁c",
        -7.3837966663108965
      ],
      [
        "▁drie",
        -7.396225765022308
      ],
      [
        "▁ge",
        -7.406675284628852
      ],
      [
        "▁land",
        -7.411607770475085
      ],
      [
        "▁zoals",
        -7.431356703088934
      ],
      [
        "▁ging",
        -7.43696897308598
      ],
      [
        "▁omdat",
        -7.4410697344579155
      ],
      [
        ".\n",
        -7.446331716747013
      ],
      [
        "▁weg",
        -7.453598099095164
      ],
      [
        "▁welke",
        -7.453701255361587
      ],
      [
        "▁\"",
        -7.460584265813948
      ],
      [
        "▁me",
        -7.464565614597001
      ],
      [
        "▁i",
        -7.473363140642917
      ],
      [
        "▁komen",
        -7.475762275479182
      ],
      [
        "▁keer",
        -7.476377100275837
      ],
      [
        "▁nieuwe",
        -7.478370106845341
      ],
      [
        "▁vaak",
        -7.483701747660678
      ],
      [
        "▁zien",
        -7.497424081058581
      ],
      [
        "▁ga",
        -7.501928886486697
      ],
      [
        "▁werden",
        -7.513306619348381
      ],
      [
        "▁4",
        -7.516194179283865
      ],
      [
        "\n\n",
        -7.529503807834875
      ],
      [
        "▁mag",
        -7.529616530229278
      ],
      [
        "▁per",
        -7.529641549488666
      ],
      [
        "o",
        -7.53786863166823
      ],
      [
        "\n*investigator:\t",
        -7.540870048322478
      ],
      [
        "▁ben",
        -7.542731313341603
      ],
      [
        "▁steeds",
        -7.543752979574476
      ],
      [
        "!'",
        -7.545375365929118
      ],
      [
        "te",
        -7.551389626184509
      ],
      [
        "▁zit",
        -7.554094792280875
      ],
      [
        "▁eens",
        -7.564449834102035
      ],
      [
        "▁moeten",
        -7.567735622633261
      ],
      [
        "▁zelf",
        -7.570488605846698
      ],
      [
        "▁elkaar",
        -7.571123813000682
      ],
      [
        "▁tekst",
        -7.575363024485682
      ],
      [
        "▁ja",
        -7.577393739114157
      ],
      [
        ";",
        -7.5816953152303554
      ],
      [
        "in",
        -7.5926816342182
      ],
      [
        "▁staan",
        -7.594750897501177
      ],
      [
        "▁weet",
        -7.610973252328053
      ],
      [
        "▁verschillende",
        -7.620828748733139
      ],
      [
        "▁zie",
        -7.62351610313951
      ],
      [
        "▁nou",
        -7.630720508766055
      ],
      [
        "▁schrijf",
        -7.6485173258433115
      ],
      [
        "▁vind",
        -7.656331326110372
      ],
      [
        "▁samen",
        -7.667148618885134
      ],
      [
        "▁erg",
        -7.677742895722146
      ],
      [
        "▁stad",
        -7.6848431684088645
      ],
      [
        "tijdens",
        -7.692876599274454
      ],
      [
        "ing",
        -7.696346179923729
      ],
      [
        "▁kwam",
        -7.6983604505376295
      ],
      [
        "▁5",
        -7.703253615592452
      ],
      [
        "...",
        -7.705014502716541
      ],
      [
        "▁net",
        -7.706068049352616
      ],
      [
        "▁d",
        -7.7127064389217335
      ],
      [
        "▁gebruik",
        -7.712903534755679
      ],
      [
        "▁eerst",
        -7.714596597494886
      ],
      [
        "▁dag",
        -7.7281743719041955
      ],
      [
        "▁'ik",
        -7.730498837386424
      ],
      [
        "\tnee",
        -7.7338113851209975
      ],
      [
        "▁he",
        -7.73582304223013
      ],
      [
        "▁groot",
        -7.743231940280298
      ],
      [
        "▁hele",
        -7.745624736873022
      ],
      [
        "f",
        -7.754755141069806
      ],
      [
        "▁achter",
        -7.757594796889803
      ],
      [
        "▁want",
        -7.75822427268022
      ],
      [
        "▁terug",
        -7.759791843939475
      ],
      [
        "k",
        -7.764023935550712
      ],
      [
        "▁kun",
        -7.773850963877425
      ],
      [
        "/",
        -7.77653672391188
      ],
      [
        "▁informatie",
        -7.7830479244692174
      ],
      [
        "▁bijvoorbeeld",
        -7.791539504115791
      ],
      [
        "i",
        -7.794515862055908
      ],
      [
        "▁later",
        -7.794997693290197
      ],
      [
        "▁zal",
        -7.798425762167668
      ],
      [
        "▁gebruikt",
        -7.802607069442205
      ],
      [
        "▁toe",
        -7.805487298619527
      ],
      [
        "▁kon",
        -7.805897094385417
      ],
      [
        "▁school",
        -7.810374151737605
      ],
      [
        "▁wie",
        -7.811486704439654
      ],
      [
        ".\n*mother:\t",
        -7.812403933752858
      ],
      [
        "▁huis",
        -7.817208640931559
      ],
      [
        "▁altijd",
        -7.822684217826652
      ],
      [
        "▁tweede",
        -7.829383332999255
      ],
      [
        "▁doet",
        -7.831349443901791
      ],
      [
        "tje",
        -7.835358822301611
      ],
      [
        "▁ii",
        -7.837808166835114
      ],
      [
        "▁jullie",
        -7.838056278473486
      ],
      [
        "▁deel",
        -7.844362453678787
      ],
      [
        "▁eigen",
        -7.845679748851058
      ],
      [
        "▁zitten",
        -7.848543700481548
      ],
      [
        "▁man",
        -7.852737883082163
      ],
      [
        "▁aantal",
        -7.8533971644017
      ],
      [
        "r",
        -7.857144113828232
      ],
      [
        "▁ligt",
        -7.859798799545166
      ],
      [
        "▁ie",
        -7.860961737113785
      ],
      [
        "▁echt",
        -7.868932920435162
      ],
      [
        "▁ons",
        -7.872049117765059
      ],
      [
        "▁volgens",
        -7.872071318324393
      ],
      [
        "▁verder",
        -7.876589992280934
      ],
      [
        "▁waarom",
        -7.879086165681757
      ],
      [
        "▁helemaal",
        -7.888983369289214
      ],
      [
        "▁vader",
        -7.892076769167115
      ],
      [
        "▁bron",
        -7.894830195496027
      ],
      [
        "den",
        -7.89739371426043
      ],
      [
        "▁volgende",
        -7.897834399244623
      ],
      [
        "▁plaats",
        -7.90107442470814
      ],
      [
        "▁vraag",
        -7.905875452354435
      ],
      [
        "▁iemand",
        -7.906675515535067
      ],
      [
        "▁lang",
        -7.910016028898578
      ],
      [
        "▁allemaal",
        -7.9103028651988225
      ],
      [
        "▁v",
        -7.9122604927498
      ],
      [
        "▁be",
        -7.9132004932356
      ],
      [
        "▁moeder",
        -7.915202387153837
      ],
      [
        "▁kunt",
        -7.915409059242034
      ],
      [
        "▁6",
        -7.91689999270578
      ],
      [
        "▁leven",
        -7.919631056568932
      ],
      [
        ").",
        -7.92196607512982
      ],
      [
        "?\n*investigator:",
        -7.924298199320303
      ],
      [
        "▁zo'n",
        -7.928830026315991
      ],
      [
        "▁vooral",
        -7.942104745694721
      ],
      [
        "▁hebt",
        -7.950920117427689
      ],
      [
        "'s",
        -7.951081508889477
      ],
      [
        "jes",
        -7.9531720171141504
      ],
      [
        "▁u",
        -7.961105203981203
      ],
      [
        "▁naam",
        -7.961570994681535
      ],
      [
        ".\n*mother:\tja",
        -7.96708385963654
      ],
      [
        "▁binnen",
        -7.967146608395343
      ],
      [
        "▁alles",
        -7.967317111078652
      ],
      [
        "ge",
        -7.968041058820647
      ],
      [
        "▁wereld",
        -7.968767506263685
      ],
      [
        "\nde",
        -7.969362348926632
      ],
      [
        "▁gemaakt",
        -7.9705071736219235
      ],
      [
        "se",
        -7.975928494442789
      ],
      [
        "▁laten",
        -7.977909926049909
      ],
      [
        "▁goede",
        -7.979524931175634
      ],
      [
        "▁nederlandse",
        -7.98172191909533
      ],
      [
        "▁auto",
        -7.986684651104554
      ],
      [
        "▁landen",
        -7.9978836475966
      ],
      [
        "▁vinden",
        -7.998708988410073
      ],
      [
        "▁10",
        -8.000146632277323
      ],
      [
        "m",
        -8.00047693870357
      ],
      [
        "\"",
        -8.003888579326267
      ],
      [
        "▁woord",
        -8.0057357129762
      ],
      [
        "▁boek",
        -8.012541138571846
      ],
      [
        "▁men",
        -8.016401083894452
      ],
      [
        "▁geld",
        -8.022134749533505
      ],
      [
        "▁·\n",
        -8.022380305381906
      ],
      [
        "g",
        -8.022881805273045
      ],
      [
        "▁woorden",
        -8.023829203537126
      ],
      [
        "▁vier",
        -8.026676868803712
      ],
      [
        "▁minder",
        -8.028388115130667
      ],
      [
        "▁antwoord",
        -8.02952073640113
      ],
      [
        "▁snel",
        -8.031083566307077
      ],
      [
        "▁laat",
        -8.032341453452783
      ],
      [
        "▁mij",
        -8.033953349541425
      ],
      [
        "ste",
        -8.038666171417484
      ],
      [
        "▁kleine",
        -8.04227855250275
      ],
      [
        "▁hadden",
        -8.04416690642902
      ],
      [
        "y",
        -8.046070390708223
      ],
      [
        "▁daarom",
        -8.046945677649155
      ],
      [
        "▁wilde",
        -8.056955026259846
      ],
      [
        "▁beetje",
        -8.058944477567659
      ],
      [
        "▁bijna",
        -8.061700354327082
      ],
      [
        "▁hand",
        -8.063294371424762
      ],
      [
        "▁beeld",
        -8.065537245096312
      ],
      [
        "▁werk",
        -8.076406647128561
      ],
      [
        "▁dieren",
        -8.076652449864625
      ],
      [
        "▁geeft",
        -8.077625563537461
      ],
      [
        "▁bestaat",
        -8.082444068874917
      ],
      [
        "l",
        -8.0825818578821
      ],
      [
        "▁afbeelding",
        -8.086685152962563
      ],
      [
        "▁eten",
        -8.088009490372306
      ],
      [
        "en,",
        -8.089683360516803
      ],
      [
        "▁xxx",
        -8.090362317652739
      ],
      [
        "b",
        -8.091398503121175
      ],
      [
        "▁geluid",
        -8.092776942603384
      ],
      [
        "c",
        -8.093744744865722
      ],
      [
        "s.",
        -8.09378837264641
      ],
      [
        "▁soms",
        -8.100786205572023
      ],
      [
        "▁jaren",
        -8.101656442552263
      ],
      [
        "▁laatste",
        -8.102641932449911
      ],
      [
        "▁kijken",
        -8.105454407424784
      ],
      [
        "p",
        -8.105627977674441
      ],
      [
        "▁daarna",
        -8.10576860623964
      ],
      [
        "▁nooit",
        -8.106897533475124
      ],
      [
        "▁8",
        -8.109666698122444
      ],
      [
        "▁onderwerp",
        -8.11400255522938
      ],
      [
        "▁paar",
        -8.11682051070708
      ],
      [
        "▁ziet",
        -8.119303460636745
      ],
      [
        "▁anders",
        -8.120380837680703
      ],
      [
        "▁maakt",
        -8.12041286969387
      ],
      [
        "&",
        -8.123181635556593
      ],
      [
        "▁figuur",
        -8.125925970456636
      ],
      [
        ".\n\nde",
        -8.128234273016664
      ],
      [
        "▁7",
        -8.129961096121457
      ],
      [
        "▁p",
        -8.1305041162995
      ],
      [
        "▁moest",
        -8.132328019792698
      ],
      [
        "▁vragen",
        -8.145567663407702
      ],
      [
        "▁soort",
        -8.165684097916957
      ],
      [
        "▁geef",
        -8.1657890906674
      ],
      [
        "▁boven",
        -8.166943507579315
      ],
      [
        "al",
        -8.17221077850219
      ],
      [
        "▁rond",
        -8.17436335133476
      ],
      [
        "▁bekend",
        -8.17485961590366
      ],
      [
        "▁elke",
        -8.177487002872871
      ],
      [
        "▁zin",
        -8.186858975992088
      ],
      [
        "▁zelfs",
        -8.190829996340046
      ],
      [
        "▁k",
        -8.191812932431684
      ],
      [
        "h",
        -8.195110960668213
      ],
      [
        "▁hoofd",
        -8.196219372111678
      ],
      [
        "is",
        -8.196304940688758
      ],
      [
        "▁zonder",
        -8.199506844718588
      ],
      [
        "▁koning",
        -8.20057608158806
      ],
      [
        "▁worden.",
        -8.201108693420913
      ],
      [
        "▁lees",
        -8.202140537832367
      ],
      [
        "▁iedereen",
        -8.205961905456034
      ],
      [
        "▁maak",
        -8.209145601521374
      ],
      [
        "▁film",
        -8.211569294934883
      ],
      [
        "▁vast",
        -8.211732500551344
      ],
      [
        "re",
        -8.211901810206031
      ],
      [
        "▁willen",
        -8.213142812514567
      ],
      [
        "▁kijk",
        -8.213473099170068
      ],
      [
        "▁groep",
        -8.21534073385497
      ],
      [
        "▁uur",
        -8.221043268455663
      ],
      [
        "▁elk",
        -8.223690299927734
      ],
      [
        "▁buiten",
        -8.228464356244167
      ],
      [
        "\neen",
        -8.245484799735165
      ],
      [
        "ten",
        -8.24569124991576
      ],
      [
        "le",
        -8.252364108544068
      ],
      [
        "▁iii",
        -8.253833212382125
      ],
      [
        "▁weten",
        -8.25599137226915
      ],
      [
        "▁kennis",
        -8.256481835530183
      ],
      [
        "▁hoor",
        -8.258040765440757
      ],
      [
        "▁15",
        -8.269775641027646
      ],
      [
        "▁the",
        -8.270962388163138
      ],
      [
        "▁f",
        -8.273709799723353
      ],
      [
        "▁krijgen",
        -8.274980190784415
      ],
      [
        "▁gewoon",
        -8.278170547063441
      ],
      [
        "ers",
        -8.280801086109928
      ],
      [
        "▁hoeveel",
        -8.28133350036987
      ],
      [
        "▁kreeg",
        -8.28219805233051
      ],
      [
        "▁vindt",
        -8.283163368253096
      ],
      [
        "▁klein",
        -8.290146442542271
      ],
      [
        "▁ander",
        -8.299015342232833
      ],
      [
        "▁nodig",
        -8.301086390524425
      ],
      [
        "▁beter",
        -8.302949494066226
      ],
      [
        "2",
        -8.305426103016066
      ],
      [
        "ie",
        -8.305909686914628
      ],
      [
        "▁pas",
        -8.306410321509327
      ],
      [
        "▁doe",
        -8.309497342334597
      ],
      [
        "▁ongeveer",
        -8.310615491429807
      ],
      [
        "▁waardoor",
        -8.314672492745354
      ],
      [
        "▁misschien",
        -8.314801931516826
      ],
      [
        "▁18",
        -8.317890442783561
      ],
      [
        "▁oude",
        -8.320457177352997
      ],
      [
        "▁hond",
        -8.321790939454962
      ],
      [
        "▁spelen",
        -8.324435508657482
      ],
      [
        "▁lekker",
        -8.329277087884256
      ],
      [
        "▁zeggen",
        -8.331323154435337
      ],
      [
        "▁wij",
        -8.331727472471163
      ],
      [
        "▁zet",
        -8.332289334209353
      ],
      [
        "▁zee",
        -8.335373189047163
      ],
      [
        "terwijl",
        -8.34286176947845
      ],
      [
        "▁onze",
        -8.34459953222238
      ],
      [
        "▁eeuw",
        -8.344759645762856
      ],
      [
        "▁meeste",
        -8.34639916255439
      ],
      [
        "target_child:\ten",
        -8.347449396648402
      ],
      [
        "heid",
        -8.348471160334064
      ],
      [
        "\tdat",
        -8.349876489318024
      ],
      [
        "▁20",
        -8.353003246149541
      ],
      [
        "\tdie",
        -8.355103821259547
      ],
      [
        "▁examen",
        -8.355681421308342
      ],
      [
        "▁leuk",
        -8.357293580013668
      ],
      [
        "▁welk",
        -8.358500422658077
      ],
      [
        "▁g",
        -8.359099502762536
      ],
      [
        "▁heet",
        -8.360149143395812
      ],
      [
        "▁week",
        -8.363377424524712
      ],
      [
        "▁punten",
        -8.363992803578128
      ],
      [
        "▁eigenlijk",
        -8.36494200124635
      ],
      [
        "▁sommige",
        -8.36646669046463
      ],
      [
        "▁jongen",
        -8.37073779568992
      ],
      [
        "▁geven",
        -8.374559831160182
      ],
      [
        "▁namelijk",
        -8.37523513134362
      ],
      [
        "▁krijgt",
        -8.376183042274599
      ],
      [
        "▁denk",
        -8.376687727798314
      ],
      [
        "▁staten",
        -8.377365398722072
      ],
      [
        "▁hierdoor",
        -8.380439784638453
      ],
      [
        "▁vraagt",
        -8.385519093023445
      ],
      [
        "▁vroeg",
        -8.387504884462173
      ],
      [
        "▁m",
        -8.388909690071896
      ],
      [
        "▁natuurlijk",
        -8.389799529009908
      ],
      [
        "▁bent",
        -8.392722830244333
      ],
      [
        "▁9",
        -8.393016650300105
      ],
      [
        "ver",
        -8.394972442877664
      ],
      [
        " ",
        -8.397115392856868
      ],
      [
        "▁grond",
        -8.397815756472797
      ],
      [
        "▁kijkt",
        -8.39903056731238
      ],
      [
        "▁16",
        -8.39960057683196
      ],
      [
        "),",
        -8.399754626625088
      ],
      [
        "st",
        -8.400169140879827
      ],
      [
        "▁vanaf",
        -8.401210757882064
      ],
      [
        "▁dingen",
        -8.401930944700425
      ],
      [
        "▁partij",
        -8.405726298081401
      ],
      [
        "▁grootste",
        -8.40862891905191
      ],
      [
        "▁12",
        -8.410220792741923
      ],
      [
        "▁manier",
        -8.414631051722532
      ],
      [
        "▁hoort",
        -8.414983233234958
      ],
      [
        "u",
        -8.415789584375224
      ],
      [
        "▁lucht",
        -8.418533528891679
      ],
      [
        "▁vandaag",
        -8.420150222589092
      ],
      [
        "ig",
        -8.422499262562717
      ],
      [
        "w",
        -8.427946010794553
      ],
      [
        "▁google",
        -8.428572524516825
      ],
      [
        "▁verhaal",
        -8.428629443238702
      ],
      [
        "▁meestal",
        -8.429165615913725
      ],
      [
        "na",
        -8.431602979515086
      ],
      [
        "▁licht",
        -8.43533127737284
      ],
      [
        "on",
        -8.437433006467492
      ],
      [
        "▁vijf",
        -8.437845118350905
      ],
      [
        ".\nde",
        -8.441128383848245
      ],
      [
        "▁17",
        -8.44204033780105
      ],
      [
        "▁nee",
        -8.442321829238209
      ],
      [
        "▁npo",
        -8.443413878952182
      ],
      [
        "▁via",
        -8.446202052777044
      ],
      [
        "tjes",
        -8.452357188992291
      ],
      [
        "▁stond",
        -8.452559923986884
      ],
      [
        "▁oorlog",
        -8.452722293088573
      ],
      [
        "▁verenigde",
        -8.455068305681609
      ],
      [
        "▁jou",
        -8.462811673764053
      ],
      [
        "▁wikikids",
        -8.46398782058986
      ],
      [
        "▁best",
        -8.465681367297467
      ],
      [
        "▁stuk",
        -8.468821834381478
      ],
      [
        "z",
        -8.47144675296473
      ],
      [
        "▁mogelijk",
        -8.474040814517734
      ],
      [
        "▁kamer",
        -8.4741853795668
      ],
      [
        ".\n\nin",
        -8.475440462463869
      ],
      [
        "▁sinds",
        -8.476907746246628
      ],
      [
        "ius",
        -8.48019316425633
      ],
      [
        "▁hard",
        -8.483417176680438
      ],
      [
        "▁les",
        -8.483610116401632
      ],
      [
        "\tja.\n*",
        -8.484281700219627
      ],
      [
        "t.",
        -8.48672429964274
      ],
      [
        "▁betekent",
        -8.488421975444682
      ],
      [
        "▁youtube",
        -8.488650617297441
      ],
      [
        "▁amerikaanse",
        -8.488713954077001
      ],
      [
        "▁gebied",
        -8.490446044464395
      ],
      [
        "▁juist",
        -8.492941827980724
      ],
      [
        "▁waarin",
        -8.498585606886131
      ],
      [
        "▁langs",
        -8.501678251897296
      ],
      [
        "▁lijkt",
        -8.50176408438078
      ],
      [
        "▁foto",
        -8.50194053519311
      ],
      [
        "man",
        -8.502292343337968
      ],
      [
        "▁meisje",
        -8.504188029110892
      ],
      [
        "▁wikipedia",
        -8.504544949721069
      ],
      [
        "3",
        -8.504979344996004
      ],
      [
        "▁tekst:",
        -8.505724429789497
      ],
      [
        "▁/",
        -8.50593954577472
      ],
      [
        "▁mooi",
        -8.50654000248136
      ],
      [
        "be",
        -8.509872419744433
      ],
      [
        "el",
        -8.513240436366981
      ],
      [
        "▁werken",
        -8.51409871906886
      ],
      [
        "▁(oud",
        -8.514117008057166
      ],
      [
        "▁maken.",
        -8.51865847266942
      ],
      [
        "▁vond",
        -8.519104838757965
      ],
      [
        "▁muziek",
        -8.519410481604066
      ],
      [
        "v",
        -8.522767682093642
      ],
      [
        "▁open",
        -8.525408466831863
      ],
      [
        "jes:",
        -8.525721635085553
      ],
      [
        "▁schooltv",
        -8.526183232372311
      ],
      [
        "▁zag",
        -8.526879350545999
      ],
      [
        "▁onderzoek",
        -8.527807820110688
      ],
      [
        "▁loopt",
        -8.527812378084718
      ],
      [
        "▁vol",
        -8.529319555459693
      ],
      [
        "s,",
        -8.529660620695353
      ],
      [
        "\toh",
        -8.530360918453805
      ],
      [
        "\nafbeeldingen",
        -8.530515654971948
      ],
      [
        "▁commons",
        -8.530763139807037
      ],
      [
        "▁wikimedia",
        -8.531791099506489
      ],
      [
        "▁vrouw",
        -8.532333238130148
      ],
      [
        "ke",
        -8.533702337136688
      ],
      [
        "▁naast",
        -8.534414208078537
      ],
      [
        "\nclip",
        -8.535397565352735
      ],
      [
        "▁bal",
        -8.535971321566798
      ],
      [
        "beeldbank",
        -8.538214834893015
      ],
      [
        "▁begin",
        -8.53889611038648
      ],
      [
        "\teen",
        -8.540158507558228
      ],
      [
        "▁beste",
        -8.54116302811625
      ],
      [
        "▁deed",
        -8.543358434689514
      ],
      [
        "▁weinig",
        -8.546294119963305
      ],
      [
        "▁roept",
        -8.546517252834978
      ],
      [
        "▁zouden",
        -8.547137605431393
      ],
      [
        "▁zijn.",
        -8.547405661089563
      ],
      [
        "▁iv",
        -8.55185210806687
      ],
      [
        "\twat",
        -8.552468055583443
      ],
      [
        "▁gedaan",
        -8.553302507492893
      ],
      [
        "▁echter",
        -8.554322784172875
      ],
      [
        "▁begon",
        -8.554822066899712
      ],
      [
        "▁=",
        -8.560912268100175
      ],
      [
        "▁kom",
        -8.563342075559591
      ],
      [
        "▁ten",
        -8.566718397750481
      ],
      [
        "▁ə",
        -8.567294855587459
      ],
      [
        "▁zeker",
        -8.569466960083313
      ],
      [
        "▁wanneer",
        -8.571185263770571
      ],
      [
        "▁hen",
        -8.572615057946392
      ],
      [
        "▁kwamen",
        -8.576177721078022
      ],
      [
        "▁uiteindelijk",
        -8.57711735392342
      ],
      [
        "\tik",
        -8.578003474694281
      ],
      [
        "ken",
        -8.58347155819486
      ],
      [
        "▁mama",
        -8.584693934599658
      ],
      [
        "▁maakte",
        -8.590353141102492
      ],
      [
        "▁11",
        -8.593533650855175
      ],
      [
        "▁lange",
        -8.593614484155548
      ],
      [
        "▁on",
        -8.595798016731232
      ],
      [
        "▁beide",
        -8.598121694787313
      ],
      [
        "▁o",
        -8.602804700836888
      ],
      [
        "▁'dat",
        -8.606391247523163
      ],
      [
        "▁kleur",
        -8.606938976045154
      ],
      [
        "▁miljoen",
        -8.614298485454757
      ],
      [
        "▁leg",
        -8.620275977414366
      ],
      [
        "▁zeg",
        -8.620734397052633
      ],
      [
        "▁regering",
        -8.620792819024027
      ],
      [
        "▁blijven",
        -8.621739254887725
      ],
      [
        "▁stemmen",
        -8.622852033559495
      ],
      [
        "▁dood",
        -8.623383181198044
      ],
      [
        ".\n*",
        -8.624218133737749
      ],
      [
        "▁genoeg",
        -8.627941714871056
      ],
      [
        "▁hoog",
        -8.629816458389357
      ],
      [
        "▁begint",
        -8.634641656994487
      ],
      [
        "▁belangrijk",
        -8.635973677889037
      ],
      [
        "▁europese",
        -8.639854411996781
      ],
      [
        ".\"",
        -8.642697635399115
      ],
      [
        ".\nleg",
        -8.646156926201572
      ],
      [
        "▁vi",
        -8.646855861436414
      ],
      [
        "ma",
        -8.649189437916672
      ],
      [
        "land",
        -8.650701599487089
      ],
      [
        "▁ogen",
        -8.652637560292131
      ],
      [
        "▁konden",
        -8.6587267155836
      ],
      [
        "▁meester",
        -8.65875695239072
      ],
      [
        "\tnou",
        -8.659304344864314
      ],
      [
        "▁precies",
        -8.663891172047247
      ],
      [
        "▁opgave",
        -8.670456194687047
      ],
      [
        "▁dagen",
        -8.672360554421877
      ],
      [
        "▁ouders",
        -8.674735467978524
      ],
      [
        "▁gezien",
        -8.675502721774047
      ],
      [
        "es",
        -8.67811853883182
      ],
      [
        "▁zat",
        -8.678632919499767
      ],
      [
        "▁nummer",
        -8.678877854410905
      ],
      [
        "▁vorm",
        -8.680538104309134
      ],
      [
        "▁13",
        -8.682635310811305
      ],
      [
        "▁liggen",
        -8.683413247367648
      ],
      [
        "▁14",
        -8.685598820371311
      ],
      [
        "▁keek",
        -8.687334721791494
      ],
      [
        "ster",
        -8.6879267416175
      ],
      [
        "▁niks",
        -8.688144393646864
      ],
      [
        "▁vroeger",
        -8.689133302927958
      ],
      [
        "▁blijft",
        -8.690238644769993
      ],
      [
        "▁heen",
        -8.690689004225304
      ],
      [
        "▁gingen",
        -8.691510224563523
      ],
      [
        "▁johannes",
        -8.692050522012751
      ],
      [
        "▁vrij",
        -8.697489090953388
      ],
      [
        "▁enkele",
        -8.698797724495229
      ],
      [
        "▁uit.",
        -8.701252359376452
      ],
      [
        "▁'wat",
        -8.705272743603519
      ],
      [
        "▁x",
        -8.705277882371659
      ],
      [
        "▁meteen",
        -8.707001890386875
      ],
      [
        "▁familie",
        -8.71009714113629
      ],
      [
        "1",
        -8.71029585275282
      ],
      [
        "▁president",
        -8.711721670736138
      ],
      [
        "waarbij",
        -8.713750936220864
      ],
      [
        "▁valt",
        -8.713903708869095
      ],
      [
        "\nin",
        -8.716013178983568
      ],
      [
        "investigator:\tja",
        -8.717098024512158
      ],
      [
        "4",
        -8.719830647575517
      ],
      [
        "▁niets",
        -8.720024453850112
      ],
      [
        "▁thuis",
        -8.721591954582676
      ],
      [
        "▁kant",
        -8.72173038285307
      ],
      [
        "▁meter",
        -8.726235310462679
      ],
      [
        "▁moment",
        -8.730190761587314
      ],
      [
        ".\ngeef",
        -8.73552767517347
      ],
      [
        "5",
        -8.736798902215057
      ],
      [
        "ve",
        -8.740866758543673
      ],
      [
        "▁uh",
        -8.742197918623912
      ],
      [
        "▁gebruiken",
        -8.742386151932646
      ],
      [
        "ter",
        -8.742434292531938
      ],
      [
        "\nhet",
        -8.742795693207235
      ],
      [
        "▁belangrijke",
        -8.743452760082187
      ],
      [
        "af",
        -8.747575528945724
      ],
      [
        "▁houden",
        -8.748233138412289
      ],
      [
        "▁lopen",
        -8.749657463830937
      ],
      [
        "ja",
        -8.751136393023843
      ],
      [
        "▁horen",
        -8.753333483494165
      ],
      [
        "▁ter",
        -8.754105627552532
      ],
      [
        "▁politie",
        -8.755982560906451
      ],
      [
        ".\n*mother:\ten",
        -8.756925173335253
      ],
      [
        "▁opdracht",
        -8.757557104126915
      ],
      [
        "▁doen.",
        -8.757649534447872
      ],
      [
        "▁steden",
        -8.757716173403075
      ],
      [
        "?\n*mother:\t",
        -8.758104483828882
      ],
      [
        "▁soorten",
        -8.761755467394503
      ],
      [
        "▁jan",
        -8.763332391708293
      ],
      [
        "▁frankrijk",
        -8.765019437618722
      ],
      [
        "▁wist",
        -8.767129815162962
      ],
      [
        "▁jouw",
        -8.76713929081524
      ],
      [
        ".\n\nmeer",
        -8.76755470050085
      ],
      [
        "ch",
        -8.769534666323327
      ],
      [
        "▁dezelfde",
        -8.770375920559628
      ],
      [
        "▁euro",
        -8.771608874871635
      ],
      [
        "▁bloed",
        -8.775566513388977
      ],
      [
        ".\n\nhet",
        -8.776253591632171
      ],
      [
        "op",
        -8.777644656389011
      ],
      [
        "ik",
        -8.779548638831391
      ],
      [
        "▁meneer",
        -8.78275763383271
      ],
      [
        ".\nin",
        -8.785473977277535
      ],
      [
        "▁duitsland",
        -8.788994729399912
      ],
      [
        "▁mogen",
        -8.792114660168293
      ],
      [
        "an",
        -8.792214221594165
      ],
      [
        "▁europa",
        -8.795255133406316
      ],
      [
        "▁vrouwen",
        -8.796297417806455
      ],
      [
        "▁aan.",
        -8.796904889320365
      ],
      [
        "der",
        -8.797121682375018
      ],
      [
        "▁zullen",
        -8.79821831083358
      ],
      [
        "▁vis",
        -8.799906157780953
      ],
      [
        ".\n*mother:\tnee",
        -8.801276757837066
      ],
      [
        "x",
        -8.80214601320143
      ],
      [
        "▁wonen",
        -8.8048531431552
      ],
      [
        "▁vervolgens",
        -8.807388666489356
      ],
      [
        "▁kind",
        -8.815019693367883
      ],
      [
        "▁re",
        -8.815673864575034
      ],
      [
        "▁deur",
        -8.818505789455484
      ],
      [
        "▁w",
        -8.821194897921307
      ],
      [
        "zodat",
        -8.825830856211137
      ],
      [
        "▁zorgen",
        -8.826582165483122
      ],
      [
        "▁zoek",
        -8.831206048123306
      ],
      [
        "▁lezen",
        -8.832944191720463
      ],
      [
        "▁gelijk",
        -8.835565583702948
      ],
      [
        "▁dicht",
        -8.835873503685537
      ],
      [
        "▁nieuw",
        -8.8436985020436
      ],
      [
        "▁ontstaan",
        -8.844288293507867
      ],
      [
        "▁extra",
        -8.846596739860745
      ],
      [
        "ra",
        -8.847128090905493
      ],
      [
        "▁leerlingen",
        -8.847560942130066
      ],
      [
        "▁graag",
        -8.849168408850485
      ],
      [
        "▁kaart",
        -8.851129702802046
      ],
      [
        "▁tien",
        -8.851657931299421
      ],
      [
        "▁klaar",
        -8.852241139682292
      ],
      [
        "▁kies",
        -8.853327834843322
      ],
      [
        "▁geleden",
        -8.853873200423108
      ],
      [
        "▁mannen",
        -8.856522502817624
      ],
      [
        "▁eind",
        -8.858611591377842
      ],
      [
        "▁rol",
        -8.859370417510771
      ],
      [
        "▁natuur",
        -8.859433913290475
      ],
      [
        "▁ervoor",
        -8.859841629408212
      ],
      [
        "▁gebeurt",
        -8.86087164984699
      ],
      [
        "aan",
        -8.862234230882567
      ],
      [
        "ar",
        -8.86258682673642
      ],
      [
        "▁19",
        -8.864325541316207
      ],
      [
        ".\n*mother:\twat",
        -8.864593821623581
      ],
      [
        "▁eerder",
        -8.864713525565762
      ],
      [
        "▁trein",
        -8.865044141958414
      ],
      [
        "▁'s",
        -8.865199829497913
      ],
      [
        "▁daardoor",
        -8.865690758849592
      ],
      [
        "▁planten",
        -8.867848143783654
      ],
      [
        "▁ruimte",
        -8.869270122488576
      ],
      [
        ".\nbereken",
        -8.869934771121697
      ],
      [
        "▁energie",
        -8.87119983265283
      ],
      [
        "huis",
        -8.87254958609733
      ],
      [
        "▁plek",
        -8.873515816663401
      ],
      [
        "▁politieke",
        -8.87449987669505
      ],
      [
        "▁inwoners",
        -8.875780516106616
      ],
      [
        "▁r",
        -8.8758678309317
      ],
      [
        "▁denken",
        -8.877279481464262
      ],
      [
        "▁franse",
        -8.87823506424246
      ],
      [
        "▁h",
        -8.878519169231732
      ],
      [
        "et",
        -8.878780161690994
      ],
      [
        "!\n*target_child:",
        -8.88186472296919
      ],
      [
        "\tkijk",
        -8.883627757972613
      ],
      [
        "▁bed",
        -8.884657824108
      ],
      [
        "▁gemeente",
        -8.885165555495433
      ],
      [
        "▁houdt",
        -8.889745746070844
      ],
      [
        "▁nemen",
        -8.891278404405865
      ],
      [
        "▁+",
        -8.891348957070122
      ],
      [
        "▁kerk",
        -8.891902481953132
      ],
      [
        "▁duidelijk",
        -8.891952967801778
      ],
      [
        "▁speelt",
        -8.893763292809076
      ],
      [
        "▁noem",
        -8.894530410137875
      ],
      [
        "▁einde",
        -8.894935812104826
      ],
      [
        "▁boeken",
        -8.897218722702045
      ],
      [
        "▁niemand",
        -8.897852041041073
      ],
      [
        "▁zon",
        -8.898468581799746
      ],
      [
        "▁duitse",
        -8.899640193139298
      ],
      [
        "▁ont",
        -8.902127258509024
      ],
      [
        "▁hieronder",
        -8.90233292200036
      ],
      [
        "▁hoge",
        -8.90422790922131
      ],
      [
        "▁rest",
        -8.904640633745208
      ],
      [
        "▁moesten",
        -8.904741961860607
      ],
      [
        "▁zinnen",
        -8.905089073437862
      ],
      [
        "la",
        -8.905540142338218
      ],
      [
        "▁periode",
        -8.907760728644515
      ],
      [
        "▁zien.",
        -8.9080064866741
      ],
      [
        "▁eh",
        -8.908418408627078
      ],
      [
        "▁denkt",
        -8.909836873739309
      ],
      [
        "▁dacht",
        -8.910072275987277
      ],
      [
        "▁liet",
        -8.910503378266942
      ],
      [
        "▁kat",
        -8.911931445150383
      ],
      [
        "▁alinea",
        -8.913475745384577
      ],
      [
        "▁bang",
        -8.913773193566868
      ],
      [
        "▁'het",
        -8.91542971206907
      ],
      [
        "▁klas",
        -8.917041898604197
      ],
      [
        "▁midden",
        -8.9189939568634
      ],
      [
        "▁belangrijkste",
        -8.919893896604629
      ],
      [
        "▁druk",
        -8.922128763818021
      ],
      [
        "ro",
        -8.922759914069731
      ],
      [
        "▁la",
        -8.922974280188914
      ],
      [
        "▁tegenwoordig",
        -8.924340297929955
      ],
      [
        "ta",
        -8.925166901838244
      ],
      [
        "▁hetzelfde",
        -8.926689711953765
      ],
      [
        "▁rode",
        -8.92747886123423
      ],
      [
        "▁taal",
        -8.93106901417559
      ],
      [
        "▁oud",
        -8.932688838891899
      ],
      [
        "▁eiland",
        -8.933578109263753
      ],
      [
        "▁mei",
        -8.934194057896322
      ],
      [
        "▁geweest",
        -8.935462267576565
      ],
      [
        "▁meest",
        -8.936388717968462
      ],
      [
        "▁l",
        -8.937603421191367
      ],
      [
        "▁enige",
        -8.944128641247685
      ],
      [
        "▁bepaalde",
        -8.947296901117834
      ],
      [
        "▁gek",
        -8.949406868105983
      ],
      [
        "▁leger",
        -8.951684418072361
      ],
      [
        "▁willem",
        -8.951967000871829
      ],
      [
        "▁vanuit",
        -8.954182371919302
      ],
      [
        "6",
        -8.957162946627765
      ],
      [
        "▁jongens",
        -8.957396816943662
      ],
      [
        "zowel",
        -8.957487515583052
      ],
      [
        "▁aarde",
        -8.958354358308886
      ],
      [
        "▁stap",
        -8.95842744658165
      ],
      [
        "baar",
        -8.95949293576315
      ],
      [
        "▁lichaam",
        -8.959741685921045
      ],
      [
        "▁oma",
        -8.960356512834615
      ],
      [
        "▁'ja",
        -8.960615798908924
      ],
      [
        ".\n*father:\t",
        -8.960745677991557
      ],
      [
        "▁nederlands",
        -8.960773945744808
      ],
      [
        "▁kans",
        -8.960904270050893
      ],
      [
        "▁genoemd",
        -8.96254823771376
      ],
      [
        "▁kunst",
        -8.9644820488105
      ],
      [
        "▁voorbeeld",
        -8.969179370400612
      ],
      [
        "▁stukje",
        -8.969652951771364
      ],
      [
        "▁januari",
        -8.9707587060523
      ],
      [
        "▁amsterdam",
        -8.971226834766847
      ],
      [
        "▁30",
        -8.97171506330163
      ],
      [
        "▁riep",
        -8.974313545052077
      ],
      [
        "gen",
        -8.976499041554744
      ],
      [
        "▁rijk",
        -8.976857891768306
      ],
      [
        "!\n*investigator:",
        -8.978758596237997
      ],
      [
        "ga",
        -8.980529364412115
      ],
      [
        "j",
        -8.981325299146759
      ],
      [
        "▁mooie",
        -8.983050134759628
      ],
      [
        "0",
        -8.983297137465865
      ],
      [
        "▁leren",
        -8.984407435872397
      ],
      [
        "da",
        -8.98444767240569
      ],
      [
        "▁mens",
        -8.988016562080125
      ],
      [
        "▁vertellen",
        -8.991623015268642
      ],
      [
        "▁fiets",
        -8.992825606955176
      ],
      [
        "▁af.",
        -8.992981450574892
      ],
      [
        "▁der",
        -8.994218510971713
      ],
      [
        "ische",
        -8.99575260537729
      ],
      [
        "'.",
        -8.995968579298347
      ],
      [
        "▁redenen",
        -8.997441817838899
      ],
      [
        "▁komen.",
        -8.998079547379653
      ],
      [
        "▁handen",
        -8.998737787723488
      ],
      [
        "',",
        -8.998901413356945
      ],
      [
        "▁gaf",
        -9.000321764670643
      ],
      [
        "▁bos",
        -9.001475046289045
      ],
      [
        "ven",
        -9.001548816697575
      ],
      [
        "\thier",
        -9.002784589908659
      ],
      [
        "▁behulp",
        -9.004379825021774
      ],
      [
        "▁doordat",
        -9.006328783085918
      ],
      [
        "▁namen",
        -9.007625410572555
      ],
      [
        "▁liep",
        -9.008154987832924
      ],
      [
        "▁sport",
        -9.010976124562456
      ],
      [
        "▁nieuws",
        -9.011317770655214
      ],
      [
        "▁boom",
        -9.01210485780524
      ],
      [
        "▁stof",
        -9.013153006656175
      ],
      [
        "▁'en",
        -9.013186066377884
      ],
      [
        "ur",
        -9.015677429833303
      ],
      [
        "\thij",
        -9.016085778688174
      ],
      [
        "▁dier",
        -9.016309195257007
      ],
      [
        "▁mond",
        -9.019325411622091
      ],
      [
        "▁rivier",
        -9.020067851198599
      ],
      [
        "▁bestaan",
        -9.021530556203254
      ],
      [
        "▁voedsel",
        -9.021684918865274
      ],
      [
        "▁helpen",
        -9.023239884292801
      ],
      [
        "di",
        -9.024566605921748
      ],
      [
        "▁idee",
        -9.025546959345924
      ],
      [
        "▁prijs",
        -9.02593643632335
      ],
      [
        "▁was.",
        -9.028439946161553
      ],
      [
        "▁witte",
        -9.029648662057781
      ],
      [
        "▁punt",
        -9.030321259033958
      ],
      [
        "▁moeilijk",
        -9.030605168113993
      ],
      [
        "▁groter",
        -9.032240449405878
      ],
      [
        "werk",
        -9.032261755181162
      ],
      [
        "▁minuten",
        -9.03276895026217
      ],
      [
        "7",
        -9.033975879373399
      ],
      [
        "▁waarschijnlijk",
        -9.035018236509094
      ],
      [
        "▁25",
        -9.03666302279537
      ],
      [
        "▁juiste",
        -9.037661537140554
      ],
      [
        "▁alsof",
        -9.039595494021349
      ],
      [
        "▁hart",
        -9.040331767763806
      ],
      [
        "▁neemt",
        -9.040837059844684
      ],
      [
        "▁blijkt",
        -9.043912664409751
      ],
      [
        "▁gelukkig",
        -9.044990863007135
      ],
      [
        "▁genoemd.",
        -9.04581075839385
      ],
      [
        "▁echte",
        -9.046022233814385
      ],
      [
        "▁belgie",
        -9.046121783662237
      ],
      [
        "▁berekening",
        -9.046658899708888
      ],
      [
        "▁kort",
        -9.048907550951363
      ],
      [
        "8",
        -9.051359789942834
      ],
      [
        "mo",
        -9.053585819784539
      ],
      [
        "to",
        -9.054534316215998
      ],
      [
        "as",
        -9.054834513747727
      ],
      [
        "▁wereldoorlog",
        -9.055038378418487
      ],
      [
        "▁vogel",
        -9.05565827421408
      ],
      [
        "▁plan",
        -9.056449819327556
      ],
      [
        "▁straat",
        -9.057474332000334
      ],
      [
        "▁bleef",
        -9.057769482730063
      ],
      [
        "▁macht",
        -9.059449755073839
      ],
      [
        "▁papa",
        -9.059589720616321
      ],
      [
        "pen",
        -9.060201097453062
      ],
      [
        "len",
        -9.060406492273097
      ],
      [
        "d.",
        -9.060992092213455
      ],
      [
        "ha",
        -9.061295520765237
      ],
      [
        "9",
        -9.06131196938415
      ],
      [
        "▁los",
        -9.063486072554293
      ],
      [
        "▁hebben.",
        -9.063706806243
      ],
      [
        "▁blij",
        -9.065729343570935
      ],
      [
        "▁'we",
        -9.06915625114202
      ],
      [
        "▁bevolking",
        -9.071458316559722
      ],
      [
        "▁gevonden",
        -9.073136918774415
      ],
      [
        ".\n*mother:\tnou",
        -9.075592819475279
      ],
      [
        "▁wedstrijd",
        -9.078108263710003
      ],
      [
        "▁100",
        -9.07827771927189
      ],
      [
        "ia",
        -9.081972148875115
      ],
      [
        ":\n\n",
        -9.083129646299117
      ],
      [
        "ige",
        -9.083896300309483
      ],
      [
        "▁gegeven",
        -9.084839070242495
      ],
      [
        "▁waarop",
        -9.085568482702257
      ],
      [
        "▁staan.",
        -9.085677644301137
      ],
      [
        "▁tuin",
        -9.086008759094698
      ],
      [
        "▁daarbij",
        -9.088388899448839
      ],
      [
        "▁opnieuw",
        -9.089262905473385
      ],
      [
        "▁hoofdstad",
        -9.097620416393346
      ],
      [
        "of",
        -9.097626352736675
      ],
      [
        "ij",
        -9.098464108818028
      ],
      [
        "▁werkt",
        -9.099529230233086
      ],
      [
        "▁zoveel",
        -9.100359472993278
      ],
      [
        "▁delen",
        -9.101268025004769
      ],
      [
        "▁zoon",
        -9.101950351462436
      ],
      [
        "om",
        -9.102414809328884
      ],
      [
        "▁stelling",
        -9.105522624891252
      ],
      [
        "▁geboren",
        -9.106564442961096
      ],
      [
        "▁hulp",
        -9.107367733322684
      ],
      [
        "▁zand",
        -9.107594344647191
      ],
      [
        "▁sch",
        -9.108220707446867
      ],
      [
        "▁station",
        -9.108821062207024
      ],
      [
        "▁letter",
        -9.109859276184471
      ],
      [
        "▁krijg",
        -9.111108270741257
      ],
      [
        "▁reden",
        -9.111210418802207
      ],
      [
        "▁totaal",
        -9.111816183196014
      ],
      [
        "uit",
        -9.112996624692048
      ],
      [
        "▁voorbeelden",
        -9.113337986349038
      ],
      [
        "▁vakantie",
        -9.115913549575147
      ],
      [
        "▁kregen",
        -9.115924840926233
      ],
      [
        "▁minister",
        -9.116487029377675
      ],
      [
        "▁reactie",
        -9.117879813784757
      ],
      [
        "▁geval",
        -9.118093343466839
      ],
      [
        "▁z",
        -9.11880430112156
      ],
      [
        "ren",
        -9.118999447813849
      ],
      [
        "▁tafel",
        -9.120162177092999
      ],
      [
        "▁ieder",
        -9.12053521183962
      ],
      [
        "or",
        -9.121074819436531
      ],
      [
        "▁regen",
        -9.121300686700922
      ],
      [
        "▁overheid",
        -9.121864920630816
      ],
      [
        "▁verklaring",
        -9.122442234372151
      ],
      [
        ".\n*mother:\tdat",
        -9.123593407054736
      ],
      [
        "▁video",
        -9.123662946184572
      ],
      [
        "ze",
        -9.123976374447446
      ],
      [
        "▁21",
        -9.12425441564614
      ],
      [
        "▁benedictus",
        -9.12677505867844
      ],
      [
        "atie",
        -9.12997660281995
      ],
      [
        "▁top",
        -9.13033869974262
      ],
      [
        "▁gemaakt.",
        -9.130477370978685
      ],
      [
        "▁brand",
        -9.13053777506338
      ],
      [
        "▁gregori",
        -9.131280161230086
      ],
      [
        "▁super",
        -9.131311177664932
      ],
      [
        "▁recht",
        -9.132033435951506
      ],
      [
        ".\n\ninhoud\n",
        -9.132082159892803
      ],
      [
        "▁viel",
        -9.132959975505077
      ],
      [
        "▁provincie",
        -9.132989323933762
      ],
      [
        "▁eet",
        -9.133240124464198
      ],
      [
        "▁juli",
        -9.133300881652502
      ],
      [
        "▁juf",
        -9.13542916198704
      ],
      [
        "▁'maar",
        -9.135437849172918
      ],
      [
        "▁derde",
        -9.140004277108215
      ],
      [
        "▁zwarte",
        -9.14077082640802
      ],
      [
        "os",
        -9.141772256720024
      ],
      [
        "\tdaar",
        -9.14183570642795
      ],
      [
        "men",
        -9.14237906479344
      ],
      [
        "▁bedrijf",
        -9.142719347585189
      ],
      [
        "\tmoet",
        -9.142930981303945
      ],
      [
        "▁gezicht",
        -9.143121041122457
      ],
      [
        "▁ooit",
        -9.143948245326973
      ],
      [
        "▁park",
        -9.14452299295316
      ],
      [
        "?\n",
        -9.145129155702227
      ],
      [
        "▁spel",
        -9.145953541433938
      ],
      [
        "▁voetbal",
        -9.147313348752117
      ],
      [
        "▁won",
        -9.14778970088327
      ],
      [
        "▁december",
        -9.148208941576803
      ],
      [
        "▁daarnaast",
        -9.149471744291048
      ],
      [
        "▁0",
        -9.149829381975477
      ],
      [
        "▁sam",
        -9.150648432304045
      ],
      [
        "▁vallen",
        -9.150648694235542
      ],
      [
        "▁buurt",
        -9.15093887682386
      ],
      [
        "▁zetten",
        -9.151401746783682
      ],
      [
        "▁langer",
        -9.151508753065908
      ],
      [
        "▁new",
        -9.153994321693027
      ],
      [
        "lo",
        -9.154442178882043
      ],
      [
        "▁'je",
        -9.155804244930009
      ],
      [
        "▁her",
        -9.157029689739849
      ],
      [
        "tijd",
        -9.157539915308089
      ],
      [
        "um",
        -9.158845691678067
      ],
      [
        "▁tabel",
        -9.159458965585081
      ],
      [
        "do",
        -9.161071498255493
      ],
      [
        "▁halen",
        -9.163560301940722
      ],
      [
        "▁ha",
        -9.16447354307902
      ],
      [
        "\tzo",
        -9.164593825579834
      ],
      [
        "▁stem",
        -9.166501124783649
      ],
      [
        "▁hout",
        -9.16766433867766
      ],
      [
        "go",
        -9.167961808672752
      ],
      [
        "zo",
        -9.16948807530597
      ],
      [
        "▁voordat",
        -9.170030228831354
      ],
      [
        "▁toon",
        -9.17011251816758
      ],
      [
        "▁koningin",
        -9.170754051353315
      ],
      [
        "▁afgelopen",
        -9.171259720846592
      ],
      [
        "co",
        -9.172349701429308
      ],
      [
        "il",
        -9.17336449270962
      ],
      [
        "▁antwoorden",
        -9.177113502628085
      ],
      [
        "▁nacht",
        -9.177350740526323
      ],
      [
        "▁allerlei",
        -9.179402910965916
      ],
      [
        "▁hoewel",
        -9.180733171738943
      ],
      [
        "▁vliegtuig",
        -9.180852975482017
      ],
      [
        "▁zomer",
        -9.187107425064372
      ],
      [
        "ul",
        -9.190968865804132
      ],
      [
        "▁waarmee",
        -9.19105856274562
      ],
      [
        "▁zoeken",
        -9.191866717329743
      ],
      [
        "at",
        -9.192299882184326
      ],
      [
        ".\n*adult:\t",
        -9.192692285493859
      ],
      [
        "▁tim",
        -9.194295359566508
      ],
      [
        "▁se",
        -9.194372507656665
      ],
      [
        "▁invloed",
        -9.194539929916862
      ],
      [
        "▁koninkrijk",
        -9.19634357627684
      ],
      [
        "▁ijs",
        -9.196586973456744
      ],
      [
        "▁onderdeel",
        -9.196591423221918
      ],
      [
        "▁bezig",
        -9.197277155630639
      ],
      [
        "▁schrijven",
        -9.197433487999783
      ],
      [
        "▁doel",
        -9.197597884565578
      ],
      [
        "▁band",
        -9.197694565302736
      ],
      [
        "▁ergens",
        -9.197796206976463
      ],
      [
        "▁wind",
        -9.197797139563544
      ],
      [
        "les",
        -9.198772425239175
      ],
      [
        "▁korte",
        -9.19901510065532
      ],
      [
        "▁24",
        -9.199417532187883
      ],
      [
        "▁wilt",
        -9.199692826902048
      ],
      [
        "▁verschil",
        -9.200322808460518
      ],
      [
        "▁rood",
        -9.201570693446772
      ],
      [
        "een",
        -9.202517574131896
      ],
      [
        "▁maanden",
        -9.202962926605645
      ],
      [
        "nadat",
        -9.204282175411103
      ],
      [
        "▁oktober",
        -9.204519337955732
      ],
      [
        "▁opa",
        -9.205895636764868
      ],
      [
        "▁pakken",
        -9.20598893084518
      ],
      [
        "▁gevraagd",
        -9.209356250452501
      ],
      [
        "▁vormen",
        -9.209399383532206
      ],
      [
        "▁slag",
        -9.209764555514903
      ],
      [
        "▁zeer",
        -9.210275146964278
      ],
      [
        "▁kilometer",
        -9.210678632195206
      ],
      [
        "▁reis",
        -9.211205869142365
      ],
      [
        "ə",
        -9.212053699174849
      ],
      [
        "▁gebouw",
        -9.21352699208282
      ],
      [
        "me",
        -9.214119777946728
      ],
      [
        "▁50",
        -9.214641531866603
      ],
      [
        "▁basis",
        -9.215009984933879
      ],
      [
        "ingen",
        -9.215608717241436
      ],
      [
        "▁gebieden",
        -9.215779345861385
      ],
      [
        "val",
        -9.216154608715774
      ],
      [
        "▁zeven",
        -9.216182233283723
      ],
      [
        "▁past",
        -9.216388514672365
      ],
      [
        "sch",
        -9.217568576243776
      ],
      [
        "▁leo",
        -9.218401798564757
      ],
      [
        "▁jonge",
        -9.218485978489126
      ],
      [
        "▁rijden",
        -9.21922343155979
      ],
      [
        "▁gevolg",
        -9.219660297248929
      ],
      [
        "\n\nde",
        -9.22096508239771
      ],
      [
        "▁nederland.",
        -9.224760970738146
      ],
      [
        "▁weken",
        -9.224830369232818
      ],
      [
        "▁regels",
        -9.22501996931909
      ],
      [
        "▁ineens",
        -9.225379248197344
      ],
      [
        "ni",
        -9.227058452419405
      ],
      [
        "▁noemen",
        -9.227664924889861
      ],
      [
        "▁bekende",
        -9.229617630529926
      ],
      [
        "weg",
        -9.230037585286912
      ],
      [
        "▁gegevens",
        -9.231010677041395
      ],
      [
        "▁weg.",
        -9.23158561587296
      ],
      [
        "▁dummie",
        -9.232614753952806
      ],
      [
        "▁kop",
        -9.23307548212992
      ],
      [
        "▁plaatsen",
        -9.23455644531048
      ],
      [
        "▁uitleg",
        -9.235364202346311
      ],
      [
        "▁so",
        -9.23547206845671
      ],
      [
        "▁boos",
        -9.235841531217027
      ],
      [
        "▁sa",
        -9.235906790712457
      ],
      [
        "▁lijn",
        -9.23764794093084
      ],
      [
        "▁vertelt",
        -9.237904536355497
      ],
      [
        "▁internet",
        -9.239266762664379
      ],
      [
        "▁oranje",
        -9.240561588748665
      ],
      [
        "▁juni",
        -9.240579982690262
      ],
      [
        "▁sterk",
        -9.242094453312953
      ],
      [
        "▁berg",
        -9.242771926204098
      ],
      [
        "▁'nee",
        -9.243289948468966
      ],
      [
        "▁computer",
        -9.24361726970359
      ],
      [
        "▁god",
        -9.244099898795493
      ],
      [
        "▁april",
        -9.244604762891402
      ],
      [
        "▁lid",
        -9.245134913889917
      ],
      [
        "▁krant",
        -9.246513714166088
      ],
      [
        "▁daarmee",
        -9.248610408601971
      ],
      [
        "▁'de",
        -9.248723339102748
      ],
      [
        "▁vele",
        -9.249177937892787
      ],
      [
        "▁boeren",
        -9.25010212932171
      ],
      [
        "▁wilden",
        -9.252735142624111
      ],
      [
        ".\n*mother:\toh",
        -9.255666502457585
      ],
      [
        "\",",
        -9.255782001995767
      ],
      [
        "▁china",
        -9.256427202646044
      ],
      [
        "▁lag",
        -9.258024255439542
      ],
      [
        "▁bas",
        -9.260374820008943
      ],
      [
        "\tnog",
        -9.260650594346842
      ],
      [
        "▁aangezien",
        -9.262303653108695
      ],
      [
        "▁acht",
        -9.263226439672772
      ],
      [
        "he",
        -9.263342567331822
      ],
      [
        "clemens",
        -9.263396749986862
      ],
      [
        "▁goos",
        -9.263460146201496
      ],
      [
        "▁winkel",
        -9.264886560115853
      ],
      [
        "▁vul",
        -9.267343666080365
      ],
      [
        "no",
        -9.267398714880349
      ],
      [
        "▁ma",
        -9.267726806977153
      ],
      [
        "▁dorp",
        -9.268469883624569
      ],
      [
        "▁(de",
        -9.268618917923655
      ],
      [
        "ca",
        -9.26945272379418
      ],
      [
        "▁bouw",
        -9.269869415516725
      ],
      [
        "\tis",
        -9.270818639168114
      ],
      [
        "00",
        -9.271129635321664
      ],
      [
        "▁vanwege",
        -9.271991574138308
      ],
      [
        "▁melk",
        -9.272583178627306
      ],
      [
        "▁hierbij",
        -9.274109282270553
      ],
      [
        "▁zichzelf",
        -9.274125152962597
      ],
      [
        "▁slecht",
        -9.275015394689591
      ],
      [
        "▁praten",
        -9.276253172712995
      ],
      [
        "▁oplossing",
        -9.276366939329073
      ],
      [
        "▁bepaald",
        -9.276708379649799
      ],
      [
        "▁winter",
        -9.276902664247896
      ],
      [
        "▁zorgt",
        -9.278342400666752
      ],
      [
        "\ttoen",
        -9.278788468098005
      ],
      [
        "▁an",
        -9.279722640189565
      ],
      [
        "▁persoon",
        -9.280299633285866
      ],
      [
        "▁anderen",
        -9.280441079489181
      ],
      [
        "▁mevrouw",
        -9.280804456030225
      ],
      [
        "▁zes",
        -9.282176983322145
      ],
      [
        "▁rusland",
        -9.285552073905109
      ],
      [
        "▁meisjes",
        -9.285625209466883
      ],
      [
        "▁televisie",
        -9.285636148481299
      ],
      [
        "son",
        -9.288241137609592
      ],
      [
        "per",
        -9.289254786816974
      ],
      [
        "▁koffie",
        -9.290536255670741
      ],
      [
        "▁hoger",
        -9.290790567777087
      ],
      [
        "▁oog",
        -9.29186409464453
      ],
      [
        "▁partijen",
        -9.292222960091244
      ],
      [
        "▁ontstaat",
        -9.29449112966956
      ],
      [
        "▁half",
        -9.296245098763388
      ],
      [
        "▁links",
        -9.297213430137237
      ],
      [
        "ton",
        -9.299319413634077
      ],
      [
        "▁iedere",
        -9.299354432104261
      ],
      [
        "▁maand",
        -9.299395436865932
      ],
      [
        "▁mocht",
        -9.300297074357918
      ],
      [
        "▁mee.",
        -9.301023236346397
      ],
      [
        "▁september",
        -9.301242802983541
      ],
      [
        "▁geschiedenis",
        -9.301494400336592
      ],
      [
        "▁ervan",
        -9.301502939429236
      ],
      [
        "▁boot",
        -9.301532802480304
      ],
      [
        "▁november",
        -9.302382366526505
      ],
      [
        "▁maximaal",
        -9.302934323742717
      ],
      [
        "ger",
        -9.303433078327293
      ],
      [
        "▁co",
        -9.307656579423124
      ],
      [
        "▁gesloten",
        -9.30839099318352
      ],
      [
        "▁le",
        -9.30878410127604
      ],
      [
        "zen",
        -9.310762093855926
      ],
      [
        "▁museum",
        -9.310854299572469
      ],
      [
        ".\nhet",
        -9.31128319021023
      ],
      [
        "isch",
        -9.311479359910553
      ],
      [
        "▁22",
        -9.312496280192876
      ],
      [
        "▁middel",
        -9.313359747959264
      ],
      [
        "ri",
        -9.314094210891025
      ],
      [
        "▁speciale",
        -9.31490029655521
      ],
      [
        "▁spanje",
        -9.315327565683802
      ],
      [
        "▁formule",
        -9.318083979864737
      ],
      [
        "▁warm",
        -9.31967575052146
      ],
      [
        "▁problemen",
        -9.319720124439431
      ],
      [
        "elijk",
        -9.323764651695816
      ],
      [
        "▁mening",
        -9.324216578698483
      ],
      [
        "▁zitten.",
        -9.32429458756409
      ],
      [
        "▁peter",
        -9.325912616003306
      ],
      [
        "▁huizen",
        -9.326931773342212
      ],
      [
        "▁wit",
        -9.327013075274444
      ],
      [
        "▁meerdere",
        -9.327657781894667
      ],
      [
        "▁arm",
        -9.329436311866894
      ],
      [
        "▁pakt",
        -9.330840211983794
      ],
      [
        "bo",
        -9.330892735705572
      ],
      [
        "▁waarvan",
        -9.333094819417537
      ],
      [
        "▁brief",
        -9.334396824053428
      ],
      [
        "▁nam",
        -9.334406245643368
      ],
      [
        "lijn",
        -9.335696571717595
      ],
      [
        "ium",
        -9.33713807101497
      ],
      [
        "▁geworden",
        -9.337258029664742
      ],
      [
        "▁gebouwd",
        -9.337316731856019
      ],
      [
        "▁vlak",
        -9.337839423428603
      ],
      [
        "...'",
        -9.338625032429315
      ],
      [
        "▁bank",
        -9.339835262948606
      ],
      [
        "▁kopen",
        -9.346276624412925
      ],
      [
        "▁innocent",
        -9.346923329664003
      ],
      [
        "▁neem",
        -9.348182396811026
      ],
      [
        "▁schip",
        -9.351240400539101
      ],
      [
        "▁goud",
        -9.351315638995187
      ],
      [
        "▁let",
        -9.351642751065873
      ],
      [
        "▁woont",
        -9.352430924290218
      ],
      [
        "▁neus",
        -9.353297963207732
      ],
      [
        "▁probleem",
        -9.354219720354543
      ],
      [
        "▁gaan.",
        -9.355271924894462
      ],
      [
        "net",
        -9.355713030858924
      ],
      [
        "investigator:\ten",
        -9.35598434625642
      ],
      [
        "▁letters",
        -9.356054402642492
      ],
      [
        "▁temperatuur",
        -9.356864042276921
      ],
      [
        "▁overal",
        -9.357225671534929
      ],
      [
        "bel",
        -9.35765167098371
      ],
      [
        "pe",
        -9.358163185290184
      ],
      [
        "▁tekening",
        -9.358620817382869
      ],
      [
        "▁afstand",
        -9.358678040552938
      ],
      [
        "▁jongeren",
        -9.359084367451464
      ],
      [
        "▁noorden",
        -9.359409027143784
      ],
      [
        "▁cultuur",
        -9.359418269941589
      ],
      [
        "▁foto's",
        -9.359940224113434
      ],
      [
        "▁volledig",
        -9.36009574116853
      ],
      [
        "▁republiek",
        -9.362268499979306
      ],
      [
        "▁politiek",
        -9.363942482598828
      ],
      [
        "we",
        -9.367001452790445
      ],
      [
        "▁frans",
        -9.367761795290575
      ],
      [
        "▁gezegd",
        -9.368167264004297
      ],
      [
        "sel",
        -9.369927811285754
      ],
      [
        "▁club",
        -9.370819317163102
      ],
      [
        "▁proberen",
        -9.371033670931196
      ],
      [
        "ek",
        -9.372068874512962
      ],
      [
        "▁engeland",
        -9.372839495419184
      ],
      [
        "▁klimaat",
        -9.37312328898797
      ],
      [
        "▁laag",
        -9.373779938119425
      ],
      [
        "▁feest",
        -9.37414076875319
      ],
      [
        "▁beginnen",
        -9.37542245514667
      ],
      [
        "▁verkiezingen",
        -9.37642050538953
      ],
      [
        "▁sneeuw",
        -9.37667697512001
      ],
      [
        "▁britse",
        -9.376887791468976
      ],
      [
        "am",
        -9.377178783659067
      ],
      [
        "▁kosten",
        -9.37807800388409
      ],
      [
        "gaan",
        -9.378588419730344
      ],
      [
        "▁beneden",
        -9.379160790800963
      ],
      [
        "▁slechts",
        -9.37942537987551
      ],
      [
        "▁elkaar.",
        -9.379468627860488
      ],
      [
        "▁paard",
        -9.379522820835742
      ],
      [
        "▁straks",
        -9.381206103391946
      ],
      [
        "▁waarde",
        -9.38134561496025
      ],
      [
        "▁con",
        -9.381833223955196
      ],
      [
        "▁lijst",
        -9.382209252148419
      ],
      [
        "▁geschreven",
        -9.38249625503382
      ],
      [
        "▁viii",
        -9.38314581306613
      ],
      [
        "▁maart",
        -9.3835233212388
      ],
      [
        "▁slapen",
        -9.384106430068636
      ],
      [
        "▁bedenk",
        -9.38714536904659
      ],
      [
        "▁zuiden",
        -9.387719274911877
      ],
      [
        "\tdit",
        -9.387943349210932
      ],
      [
        "▁papier",
        -9.388789554072366
      ],
      [
        "▁toe.",
        -9.389020239270094
      ],
      [
        "▁daarvoor",
        -9.391702147545988
      ],
      [
        "▁scholen",
        -9.393001067136115
      ],
      [
        "▁titel",
        -9.394281785403805
      ],
      [
        "▁stoffen",
        -9.39731753036469
      ],
      [
        "▁telefoon",
        -9.398213566225794
      ],
      [
        "▁morgen",
        -9.39847166967935
      ],
      [
        "▁hoop",
        -9.398545877712124
      ],
      [
        "▁begonnen",
        -9.399103088189714
      ],
      [
        "\tmaar",
        -9.39922926729788
      ],
      [
        "▁kasteel",
        -9.402892685659287
      ],
      [
        "▁broer",
        -9.403849914471591
      ],
      [
        "ol",
        -9.404984315603118
      ],
      [
        "▁onderwijs",
        -9.408145825211692
      ],
      [
        "▁teksten",
        -9.408454627059136
      ],
      [
        "▁(zie",
        -9.40875229144469
      ],
      [
        "▁teken",
        -9.408845320797104
      ],
      [
        "▁kleuren",
        -9.40939569977495
      ],
      [
        "▁krijgen.",
        -9.409612768119988
      ],
      [
        "▁di",
        -9.410557767142123
      ],
      [
        "▁kikker",
        -9.411110731689945
      ],
      [
        "▁hield",
        -9.411609050250899
      ],
      [
        "em",
        -9.413202393432108
      ],
      [
        "▁doen?",
        -9.413568377190654
      ],
      [
        "ut",
        -9.414030850743966
      ],
      [
        "▁bomen",
        -9.414593501798693
      ],
      [
        "▁nummers",
        -9.414736989323705
      ],
      [
        "▁poes",
        -9.415313512947543
      ],
      [
        "▁augustus",
        -9.415379376904678
      ],
      [
        "▁steen",
        -9.41711289024659
      ],
      [
        "▁pak",
        -9.417187586639123
      ],
      [
        ".\n*mother:\tik",
        -9.417550849819802
      ],
      [
        "po",
        -9.418590209934706
      ],
      [
        "▁to",
        -9.419765452477984
      ],
      [
        "▁trap",
        -9.42055173675151
      ],
      [
        "▁drinken",
        -9.421335958214584
      ],
      [
        "▁(19",
        -9.421967793180013
      ],
      [
        "▁kust",
        -9.422287121649097
      ],
      [
        "▁alexander",
        -9.422961117102327
      ],
      [
        "▁vuur",
        -9.426296331439454
      ],
      [
        "mi",
        -9.426763949784728
      ],
      [
        "▁bronnen",
        -9.428864243797186
      ],
      [
        "▁23",
        -9.429262500181201
      ],
      [
        "ka",
        -9.430499938249538
      ],
      [
        "▁vrienden",
        -9.431341245392872
      ],
      [
        "isme",
        -9.432260367492193
      ],
      [
        "it",
        -9.432323174284772
      ],
      [
        "▁plaatje",
        -9.432500221881307
      ],
      [
        "▁dochter",
        -9.432584185377305
      ],
      [
        "ho",
        -9.433316291344699
      ],
      [
        "▁2000",
        -9.434533577277403
      ],
      [
        "▁vii",
        -9.434676001737236
      ],
      [
        "ti",
        -9.435842640782921
      ],
      [
        "▁producten",
        -9.436062852924435
      ],
      [
        "▁keizer",
        -9.438566342234418
      ],
      [
        "▁functie",
        -9.439742045959893
      ],
      [
        "▁(12",
        -9.44026762351486
      ],
      [
        "▁kinder",
        -9.440915758176036
      ],
      [
        "▁media",
        -9.441095896665916
      ],
      [
        "▁pop",
        -9.44189372762451
      ],
      [
        "▁neer",
        -9.442340269699976
      ],
      [
        "▁massa",
        -9.44249469690711
      ],
      [
        "huidige",
        -9.445819769892719
      ],
      [
        "▁bedrijven",
        -9.447465402315757
      ],
      [
        "▁(13",
        -9.447578192897053
      ],
      [
        ".\n*mother:\tzo",
        -9.44857118449856
      ],
      [
        "▁vonden",
        -9.45130959528845
      ],
      [
        "ic",
        -9.451892305458355
      ],
      [
        "▁normaal",
        -9.452168236980878
      ],
      [
        "▁parlement",
        -9.452296360338249
      ],
      [
        "\tdeze",
        -9.452777348309686
      ],
      [
        "▁hoeveelheid",
        -9.452984888508055
      ],
      [
        "▁baby",
        -9.453142860245336
      ],
      [
        "▁prins",
        -9.453932691517512
      ],
      [
        "pius",
        -9.454528785300951
      ],
      [
        "ci",
        -9.455107140562358
      ],
      [
        "▁vorige",
        -9.455371927381702
      ],
      [
        "eerd",
        -9.455920019416798
      ],
      [
        "▁kapot",
        -9.45613961601181
      ],
      [
        "▁grens",
        -9.456943804528516
      ],
      [
        "▁ziekte",
        -9.457103180632021
      ],
      [
        ".\n*mother:\txxx",
        -9.457503009317193
      ],
      [
        "▁gisteren",
        -9.458217420818308
      ],
      [
        "ko",
        -9.459621238308985
      ],
      [
        "▁kiezen",
        -9.460989428276385
      ],
      [
        "▁huid",
        -9.461103154461178
      ],
      [
        "▁leden",
        -9.461793842691234
      ],
      [
        "▁rechts",
        -9.462377703219522
      ],
      [
        "!\n*mother:\t",
        -9.462792069942576
      ],
      [
        "▁bouwen",
        -9.465384508971788
      ],
      [
        "dag",
        -9.465555829502943
      ],
      [
        "\tmama",
        -9.466100701078137
      ],
      [
        "▁no",
        -9.466972565704687
      ],
      [
        "▁ix",
        -9.467161119448583
      ],
      [
        "▁hoogte",
        -9.468822593940358
      ],
      [
        "▁helft",
        -9.470238033797164
      ],
      [
        "▁bevat",
        -9.470471395641216
      ],
      [
        "▁glas",
        -9.470555552270692
      ],
      [
        "▁engels",
        -9.470860672378612
      ],
      [
        "groep",
        -9.47408441495225
      ],
      [
        "▁dikke",
        -9.474291233404864
      ],
      [
        "wel",
        -9.474299169105334
      ],
      [
        "▁bekijk",
        -9.475161313526398
      ],
      [
        "▁veld",
        -9.475437103614043
      ],
      [
        "▁publiek",
        -9.476652002443394
      ],
      [
        "▁leiden",
        -9.477086096064896
      ],
      [
        "▁karel",
        -9.478010609239966
      ],
      [
        "▁spullen",
        -9.478712693220787
      ],
      [
        "▁uit:",
        -9.47913593983323
      ],
      [
        "▁markt",
        -9.479270434514605
      ],
      [
        "▁leeftijd",
        -9.479502515616243
      ],
      [
        "▁bedacht",
        -9.479855398788366
      ],
      [
        "▁engelse",
        -9.48211182060614
      ],
      [
        "▁schrijver",
        -9.482139999903199
      ],
      [
        "\n*mother:\t",
        -9.482909726695937
      ],
      [
        "▁uw",
        -9.48517415930122
      ],
      [
        "▁februari",
        -9.485632758040486
      ],
      [
        "▁rij",
        -9.486693097266528
      ],
      [
        "▁verhalen",
        -9.48745235098336
      ],
      [
        "▁gekozen",
        -9.487477547960976
      ],
      [
        "▁groepen",
        -9.487814601848779
      ],
      [
        "▁koe",
        -9.488373891556883
      ],
      [
        "▁bus",
        -9.491108546966881
      ],
      [
        "▁ijzer",
        -9.491226296060287
      ],
      [
        "▁hoeft",
        -9.491297024040023
      ],
      [
        "▁stel",
        -9.491747588063944
      ],
      [
        "▁ontwikkeling",
        -9.494779140321615
      ],
      [
        "th",
        -9.494934710630073
      ],
      [
        "▁leer",
        -9.495529993213175
      ],
      [
        "▁duurt",
        -9.495766658955688
      ],
      [
        "▁tom",
        -9.496219334447057
      ],
      [
        "▁1.",
        -9.496702205186363
      ],
      [
        "▁aandacht",
        -9.496799481633417
      ],
      [
        "▁gas",
        -9.498372123271025
      ],
      [
        "bi",
        -9.498868155843475
      ],
      [
        "▁voorkomen",
        -9.499454921632985
      ],
      [
        "50",
        -9.50134221094402
      ],
      [
        "▁vlees",
        -9.503670244372707
      ],
      [
        "▁wet",
        -9.503981348104947
      ],
      [
        "▁artikel",
        -9.504213799955117
      ],
      [
        "▁uitspraak",
        -9.504678149548656
      ],
      [
        "▁land.",
        -9.505039100330094
      ],
      [
        "▁enorm",
        -9.505538618379678
      ],
      [
        "▁nederlanders",
        -9.505799866122523
      ],
      [
        "▁actie",
        -9.506234721545734
      ],
      [
        "nummer",
        -9.506332602925887
      ],
      [
        "▁stil",
        -9.50676124689392
      ],
      [
        "▁gehouden",
        -9.507258258000554
      ],
      [
        "▁bad",
        -9.508811757016604
      ],
      [
        "▁vogels",
        -9.509186553024495
      ],
      [
        "▁loop",
        -9.50923188940704
      ],
      [
        "▁40",
        -9.509712149533302
      ],
      [
        "▁geloof",
        -9.509884811742506
      ],
      [
        "ion",
        -9.510346909847403
      ],
      [
        "▁stoel",
        -9.511638808636254
      ],
      [
        "▁brug",
        -9.511771564649507
      ],
      [
        "▁langzaam",
        -9.511861998870948
      ],
      [
        "▁2.",
        -9.5138033179143
      ],
      [
        "▁hiervoor",
        -9.514259012521538
      ],
      [
        "▁verschillen",
        -9.514788989898417
      ],
      [
        "▁situatie",
        -9.515061871909545
      ],
      [
        "▁sp",
        -9.515124178558501
      ],
      [
        "▁filmpje",
        -9.516836382067332
      ],
      [
        "▁ne",
        -9.518123964343003
      ],
      [
        "▁stonden",
        -9.518394848171766
      ],
      [
        "▁houden.",
        -9.519691633037848
      ],
      [
        "▁richting",
        -9.52064475270617
      ],
      [
        "▁economische",
        -9.520745557490592
      ],
      [
        "▁daarvan",
        -9.520843396358178
      ],
      [
        "▁€",
        -9.522094902421511
      ],
      [
        "▁bloemen",
        -9.522354808145504
      ],
      [
        "ir",
        -9.523041572606218
      ],
      [
        "▁reacties",
        -9.524140886321907
      ],
      [
        "▁ziek",
        -9.524423127630726
      ],
      [
        "▁si",
        -9.524461994684513
      ],
      [
        "▁ruim",
        -9.524515397256678
      ],
      [
        "▁gedeelte",
        -9.524565679522416
      ],
      [
        "▁'t",
        -9.529122884970693
      ],
      [
        "kel",
        -9.529738768740135
      ],
      [
        "▁pijn",
        -9.53089168923784
      ],
      [
        "▁snelheid",
        -9.531366621232532
      ],
      [
        "▁keuken",
        -9.531589735416102
      ],
      [
        "▁schreef",
        -9.532083691166422
      ],
      [
        "eg",
        -9.532413701476099
      ],
      [
        "▁hoorde",
        -9.53282591251249
      ],
      [
        "▁maan",
        -9.533215791177788
      ],
      [
        "▁li",
        -9.533447890361446
      ],
      [
        "▁gebruikte",
        -9.533654291509457
      ],
      [
        "▁diep",
        -9.533741345654441
      ],
      [
        "▁sprake",
        -9.534473262618427
      ],
      [
        "▁trekt",
        -9.535329091276491
      ],
      [
        "▁kruis",
        -9.535645731601916
      ],
      [
        "▁jongetje",
        -9.536045353220093
      ],
      [
        "\".",
        -9.537446997251472
      ],
      [
        "▁olie",
        -9.538191798617484
      ],
      [
        "▁wachten",
        -9.539356984432331
      ],
      [
        "▁gemiddelde",
        -9.540490450673772
      ],
      [
        "ai",
        -9.541005733360347
      ],
      [
        "boek",
        -9.541149050267922
      ],
      [
        "▁stroom",
        -9.543239151620512
      ],
      [
        "▁brengen",
        -9.544036447259082
      ],
      [
        "wa",
        -9.545026520727454
      ],
      [
        "▁verband",
        -9.545269616532313
      ],
      [
        "▁2010",
        -9.545825004998306
      ],
      [
        "?\n*",
        -9.54605216801462
      ],
      [
        "▁programma",
        -9.546972050544074
      ],
      [
        "▁italie",
        -9.547022311915349
      ],
      [
        "▁oom",
        -9.547040935834222
      ],
      [
        "▁km",
        -9.547355334874663
      ],
      [
        "▁volk",
        -9.548596254643119
      ],
      [
        "▁kracht",
        -9.551298670810592
      ],
      [
        "▁maakten",
        -9.551435377112675
      ],
      [
        "si",
        -9.551526056964683
      ],
      [
        "▁(in",
        -9.551909278452026
      ],
      [
        "▁zaken",
        -9.552239034234692
      ],
      [
        ".\n*mother:",
        -9.552801920252357
      ],
      [
        "▁onafhankelijk",
        -9.553104687758093
      ],
      [
        "▁26",
        -9.554175274833463
      ],
      [
        "▁vissen",
        -9.554574421046707
      ],
      [
        "▁procent",
        -9.55461458658688
      ],
      [
        "▁gemeenten",
        -9.55490525489787
      ],
      [
        "▁radio",
        -9.55540012329617
      ],
      [
        "▁gouden",
        -9.555636234163332
      ],
      [
        "▁gevallen",
        -9.556194821390212
      ],
      [
        "▁gebeurde",
        -9.556380322769275
      ],
      [
        "▁zwaar",
        -9.557759626125113
      ],
      [
        "▁bo",
        -9.558068664340057
      ],
      [
        "▁baas",
        -9.560968764171854
      ],
      [
        "▁probeert",
        -9.562207255996913
      ],
      [
        "▁waaronder",
        -9.562888752046444
      ],
      [
        "gaat",
        -9.563292479225868
      ],
      [
        "▁vriend",
        -9.563443101414393
      ],
      [
        "▁wegen",
        -9.564468716074082
      ],
      [
        "▁es",
        -9.56463335450379
      ],
      [
        "▁blauw",
        -9.564898758401633
      ],
      [
        "water",
        -9.565007768904618
      ],
      [
        "die",
        -9.565825231695266
      ],
      [
        "▁last",
        -9.567379927957166
      ],
      [
        "▁sociale",
        -9.567736789735939
      ],
      [
        "▁cm",
        -9.568813104283715
      ],
      [
        "▁31",
        -9.569468233462311
      ],
      [
        "ling",
        -9.569486812216681
      ],
      [
        "▁auto's",
        -9.569793811291733
      ],
      [
        "▁ta",
        -9.569912611998944
      ],
      [
        "▁productie",
        -9.570880228641728
      ],
      [
        "▁eruit",
        -9.573259684570115
      ],
      [
        "▁direct",
        -9.57338141280993
      ],
      [
        "▁toekomst",
        -9.574037031021145
      ],
      [
        "▁grafiek",
        -9.574507474503172
      ],
      [
        "▁rotterdam",
        -9.574630541786181
      ],
      [
        "ber",
        -9.574707796769058
      ],
      [
        "▁kleding",
        -9.575197143046914
      ],
      [
        "▁lo",
        -9.576340423227421
      ],
      [
        "(",
        -9.576565083002736
      ],
      [
        "li",
        -9.577463281808521
      ],
      [
        "▁zwart",
        -9.577577844749317
      ],
      [
        "▁da",
        -9.578971377254838
      ],
      [
        "▁oh",
        -9.579986813901211
      ],
      [
        "▁serie",
        -9.5801947566315
      ],
      [
        "ist",
        -9.58021272580377
      ],
      [
        "▁vaker",
        -9.580240811342943
      ],
      [
        "romeinse",
        -9.581316712050853
      ],
      [
        "ly",
        -9.581777497484296
      ],
      [
        ".\nnoem",
        -9.582443041941573
      ],
      [
        "▁vragen.",
        -9.582466156265916
      ],
      [
        "▁amerika",
        -9.58251261823549
      ],
      [
        "▁universiteit",
        -9.582776967355034
      ],
      [
        "▁rechter",
        -9.583327707073206
      ],
      [
        "▁verenigd",
        -9.583769665993287
      ],
      [
        "▁(9",
        -9.586197981260263
      ],
      [
        "bouw",
        -9.587062181959228
      ],
      [
        "▁plant",
        -9.58736884477901
      ],
      [
        "▁suiker",
        -9.587898032534435
      ],
      [
        "▁boer",
        -9.588527131835807
      ],
      [
        "▁zorg",
        -9.589656182859201
      ],
      [
        "▁verdeeld",
        -9.589921591153656
      ],
      [
        "▁1,",
        -9.590164817805551
      ],
      [
        ".\neen",
        -9.590696798464482
      ],
      [
        "▁economie",
        -9.590877965237251
      ],
      [
        "▁27",
        -9.591610666884318
      ],
      [
        "▁28",
        -9.592828237034396
      ],
      [
        "▁min",
        -9.59321955757579
      ],
      [
        "▁paleis",
        -9.593970482387405
      ],
      [
        "▁dak",
        -9.594302973800989
      ],
      [
        "▁honden",
        -9.594621806829327
      ],
      [
        "totale",
        -9.594934683578991
      ],
      [
        "lijk",
        -9.595092951017719
      ],
      [
        "▁jaar.",
        -9.595300170481835
      ],
      [
        "▁ro",
        -9.597493345391449
      ],
      [
        "▁probeerde",
        -9.598519584613781
      ],
      [
        "heden",
        -9.598903492213118
      ],
      [
        "▁groene",
        -9.599602685989103
      ],
      [
        "▁finale",
        -9.599642803109091
      ],
      [
        "▁as",
        -9.599737244439513
      ],
      [
        "▁(8",
        -9.602268828369073
      ],
      [
        "▁ho",
        -9.60230720540974
      ],
      [
        "target_child:\tja",
        -9.60246037213553
      ],
      [
        "▁motor",
        -9.602489966679887
      ],
      [
        "vis",
        -9.602873607274692
      ],
      [
        "▁ontstond",
        -9.604152592230648
      ],
      [
        "meer",
        -9.605790976567278
      ],
      [
        "▁vlag",
        -9.605926047512128
      ],
      [
        "eerde",
        -9.606171088084075
      ],
      [
        "\tdan",
        -9.606256318046714
      ],
      [
        "▁pap",
        -9.606280685786688
      ],
      [
        "recht",
        -9.607823163734217
      ],
      [
        "▁...de",
        -9.608166671976072
      ],
      [
        "▁dik",
        -9.608465621278535
      ],
      [
        "▁centrum",
        -9.609528068508354
      ],
      [
        "▁leek",
        -9.61013218902287
      ],
      [
        "▁gang",
        -9.610356021604673
      ],
      [
        "▁personen",
        -9.6108404232268
      ],
      [
        "▁avond",
        -9.611099351611779
      ],
      [
        "▁gebruikt.",
        -9.611784194266109
      ],
      [
        "▁maria",
        -9.613121553638146
      ],
      [
        "ck",
        -9.613410813269773
      ],
      [
        "ce",
        -9.614125702663792
      ],
      [
        "▁trok",
        -9.614273574669099
      ],
      [
        "z'n",
        -9.61449930099185
      ],
      [
        "▁vliegen",
        -9.614533641180259
      ],
      [
        "▁ruzie",
        -9.616840216028077
      ],
      [
        "▁eu",
        -9.616861830366961
      ],
      [
        "▁voet",
        -9.617092354044846
      ],
      [
        "▁q",
        -9.617604710868598
      ],
      [
        "ry",
        -9.617710877342443
      ],
      [
        "▁tante",
        -9.617899391865546
      ],
      [
        "▁naar:",
        -9.618803274369071
      ],
      [
        "ler",
        -9.618911410964957
      ],
      [
        "▁kleiner",
        -9.619650713374647
      ],
      [
        "▁val",
        -9.619858509454703
      ],
      [
        "▁leggen",
        -9.62076167863631
      ],
      [
        "▁ei",
        -9.620812546458463
      ],
      [
        "▁bedoeld",
        -9.621255261397009
      ],
      [
        "▁provincies",
        -9.621341813467616
      ],
      [
        "▁staart",
        -9.622267409743996
      ],
      [
        "▁tas",
        -9.622759857598137
      ],
      [
        "▁lu",
        -9.623622477775264
      ],
      [
        "▁vinden.",
        -9.623733836014708
      ],
      [
        "▁erbij",
        -9.625186356202716
      ],
      [
        "▁groei",
        -9.626540709771898
      ],
      [
        "▁klinkt",
        -9.62656281675715
      ],
      [
        "▁bijzonder",
        -9.628546725359598
      ],
      [
        "▁schrijft",
        -9.629002717936068
      ],
      [
        "▁ca",
        -9.62914507905984
      ],
      [
        "▁hoogste",
        -9.62953954302132
      ],
      [
        "▁gauw",
        -9.630396043717122
      ],
      [
        "▁3.",
        -9.63054485565667
      ],
      [
        "berg",
        -9.63103639295051
      ],
      [
        "eert",
        -9.63134920044359
      ],
      [
        "▁mis",
        -9.631805191124037
      ],
      [
        "▁broek",
        -9.63194183265077
      ],
      [
        "▁geldt",
        -9.632310640495845
      ],
      [
        "▁regel",
        -9.633205686084905
      ],
      [
        "ba",
        -9.63321736250828
      ],
      [
        "▁strijd",
        -9.633526296543693
      ],
      [
        "▁vervangen",
        -9.633892978775222
      ],
      [
        "▁trekken",
        -9.633970802683953
      ],
      [
        "▁oostenrijk",
        -9.634316016449674
      ],
      [
        "▁makkelijk",
        -9.634457302665663
      ],
      [
        "▁stephan",
        -9.63465893739454
      ],
      [
        "▁legt",
        -9.635705219726344
      ],
      [
        "▁wereld.",
        -9.636420021770352
      ],
      [
        "▁rug",
        -9.6371643095459
      ],
      [
        "veld",
        -9.638164473448203
      ],
      [
        "▁blauwe",
        -9.638413486385074
      ],
      [
        "▁muur",
        -9.638984771240164
      ],
      [
        "▁plekken",
        -9.639277074067973
      ],
      [
        "▁zuurstof",
        -9.63932969395777
      ],
      [
        "▁burgemeester",
        -9.639960621616952
      ],
      [
        "▁landbouw",
        -9.643839955121463
      ],
      [
        "▁brood",
        -9.643918987870254
      ],
      [
        "▁bleek",
        -9.644823883108963
      ],
      [
        "▁dr",
        -9.645144946954705
      ],
      [
        "▁gewone",
        -9.64590566984959
      ],
      [
        "▁erop",
        -9.646087733499698
      ],
      [
        "▁soldaten",
        -9.646337757220838
      ],
      [
        "toe",
        -9.646578430595078
      ],
      [
        "▁gekregen",
        -9.647836230312155
      ],
      [
        ")\n",
        -9.648962087330979
      ],
      [
        "▁mol",
        -9.64918570592262
      ],
      [
        "un",
        -9.649279312164069
      ],
      [
        "aar",
        -9.649914672184147
      ],
      [
        "▁fijn",
        -9.650878155541786
      ],
      [
        "▁betalen",
        -9.651100587347226
      ],
      [
        "▁kijken.",
        -9.65114591972267
      ],
      [
        "ad",
        -9.651352936484518
      ],
      [
        "gebied",
        -9.651713941463473
      ],
      [
        "▁pan",
        -9.65268720562907
      ],
      [
        "▁beer",
        -9.6528623949671
      ],
      [
        "?\n*mother:\tja",
        -9.653158795632613
      ],
      [
        "vol",
        -9.6538164359199
      ],
      [
        "▁hangt",
        -9.653848875826707
      ],
      [
        "▁haalt",
        -9.653963296909833
      ],
      [
        "over",
        -9.65429838145198
      ],
      [
        "▁hoek",
        -9.65437084527695
      ],
      [
        "▁inmiddels",
        -9.654546271636743
      ],
      [
        "▁groeien",
        -9.655420921379369
      ],
      [
        "▁parijs",
        -9.656004598804497
      ],
      [
        "sie",
        -9.656190674251647
      ],
      [
        "▁(11",
        -9.656493885379273
      ],
      [
        "tie",
        -9.656793148295261
      ],
      [
        "▁speelde",
        -9.657638988359665
      ],
      [
        "10",
        -9.657864131367042
      ],
      [
        "▁rustig",
        -9.657909664120417
      ],
      [
        "▁stelt",
        -9.657962868709411
      ],
      [
        "au",
        -9.658186464090587
      ],
      [
        ".\n\nop",
        -9.658580566917067
      ],
      [
        "▁speciaal",
        -9.659422693781979
      ],
      [
        "▁jeugd",
        -9.660017965510992
      ],
      [
        "▁wacht",
        -9.660235647312835
      ],
      [
        "▁pro",
        -9.661066782699564
      ],
      [
        "▁onderzoekers",
        -9.66139362939094
      ],
      [
        "▁gehad",
        -9.661474690896615
      ],
      [
        "▁pa",
        -9.662447256696236
      ],
      [
        "▁organisatie",
        -9.663162001499595
      ],
      [
        "▁jeugdjournaal",
        -9.663392630404175
      ],
      [
        "▁2014",
        -9.663739791332512
      ],
      [
        "▁straf",
        -9.663767072018542
      ],
      [
        "▁2012",
        -9.663944057328901
      ],
      [
        "so",
        -9.664245400270062
      ],
      [
        "▁jong",
        -9.664417089036327
      ],
      [
        "▁gevoel",
        -9.66462307148496
      ],
      [
        "▁prinses",
        -9.667058228969601
      ],
      [
        "▁veilig",
        -9.667706106065163
      ],
      [
        "spel",
        -9.668076776205353
      ],
      [
        "voor",
        -9.669350648673841
      ],
      [
        "▁gemiddeld",
        -9.670036494643925
      ],
      [
        "▁zaten",
        -9.671629660962243
      ],
      [
        "▁y",
        -9.672124586870822
      ],
      [
        "▁water.",
        -9.672177983933896
      ],
      [
        "▁vergelijking",
        -9.672824550200032
      ],
      [
        "▁donker",
        -9.672842001880753
      ],
      [
        "▁moderne",
        -9.673084788350478
      ],
      [
        "olympische",
        -9.673634022611665
      ],
      [
        "vi",
        -9.674115570270859
      ],
      [
        "▁kent",
        -9.675754137130049
      ],
      [
        "20",
        -9.676005058589244
      ],
      [
        "▁baan",
        -9.676069992310786
      ],
      [
        "▁joost",
        -9.676571710678818
      ],
      [
        "▁koud",
        -9.67667068933132
      ],
      [
        "▁vrije",
        -9.676726224182662
      ],
      [
        "▁draait",
        -9.677953947097752
      ],
      [
        "▁eindelijk",
        -9.678574993597467
      ],
      [
        "▁york",
        -9.681436993503654
      ],
      [
        "▁team",
        -9.681582649624382
      ],
      [
        "sa",
        -9.681790556712091
      ],
      [
        "▁ka",
        -9.683263870575235
      ],
      [
        "▁eilanden",
        -9.68334360839026
      ],
      [
        "▁algemeen",
        -9.684706063096908
      ],
      [
        "▁word",
        -9.685479372511917
      ],
      [
        "▁2019",
        -9.685607724754561
      ],
      [
        "▁betekenis",
        -9.687075556303029
      ],
      [
        "▁po",
        -9.687600043459472
      ],
      [
        "jo",
        -9.687607223168314
      ],
      [
        "▁thee",
        -9.687674424406435
      ],
      [
        "uw",
        -9.687784097236586
      ],
      [
        "▁zak",
        -9.688560043606728
      ],
      [
        "▁besloo",
        -9.689185819657897
      ],
      [
        "\thet",
        -9.689218747461627
      ],
      [
        "▁milieu",
        -9.689439125181188
      ],
      [
        "▁manieren",
        -9.689711526082702
      ],
      [
        "je.",
        -9.68974122085962
      ],
      [
        "▁toren",
        -9.691541151448623
      ],
      [
        "mp",
        -9.691558693700472
      ],
      [
        "▁groen",
        -9.69340298977602
      ],
      [
        "▁voelt",
        -9.694666480644996
      ],
      [
        "▁opeens",
        -9.695085299987849
      ],
      [
        "▁utrecht",
        -9.696199631811298
      ],
      [
        "ker",
        -9.69697813994476
      ],
      [
        "nus",
        -9.697614193807583
      ],
      [
        "▁bodem",
        -9.699069025556751
      ],
      [
        "▁sneller",
        -9.699121559393568
      ],
      [
        "▁kost",
        -9.699367947024006
      ],
      [
        "▁omhoog",
        -9.699633073963904
      ],
      [
        "mer",
        -9.699804979583902
      ],
      [
        "ert",
        -9.701455313945683
      ],
      [
        "▁stellen",
        -9.701789138632703
      ],
      [
        "▁bestond",
        -9.703100539165517
      ],
      [
        "yl",
        -9.703410694700441
      ],
      [
        "bal",
        -9.70375519674937
      ],
      [
        "▁car",
        -9.704582846291174
      ],
      [
        "▁gespeeld",
        -9.705304348751481
      ],
      [
        "▁gebouwen",
        -9.706765811852701
      ],
      [
        "stad",
        -9.707073248106177
      ],
      [
        ".\n*mother:\to",
        -9.707075661047387
      ],
      [
        "▁2011",
        -9.707463525284691
      ],
      [
        "▁album",
        -9.709017071362329
      ],
      [
        "▁paulus",
        -9.710515821060135
      ],
      [
        "van",
        -9.711777612823937
      ],
      [
        "▁buik",
        -9.71205018745497
      ],
      [
        "ings",
        -9.712171817453719
      ],
      [
        "▁2017",
        -9.712525339843456
      ],
      [
        "▁slaap",
        -9.712608315206602
      ],
      [
        "▁spaanse",
        -9.713362098611686
      ],
      [
        "\thee",
        -9.713403340834233
      ],
      [
        "▁kenmerken",
        -9.713598969196767
      ],
      [
        "▁xi",
        -9.714762770337394
      ],
      [
        "▁geweest.",
        -9.715108197695107
      ],
      [
        "▁weergegeven",
        -9.715203798097342
      ],
      [
        "taal",
        -9.715287608187388
      ],
      [
        "▁du",
        -9.715926872316778
      ],
      [
        "bare",
        -9.716212957254756
      ],
      [
        "▁vrijheid",
        -9.716585701241112
      ],
      [
        "▁populair",
        -9.71730066078571
      ],
      [
        "▁ba",
        -9.718453088979473
      ],
      [
        "ep",
        -9.71861906735865
      ],
      [
        "▁allebei",
        -9.718902097142816
      ],
      [
        "loos",
        -9.719098739267956
      ],
      [
        "▁2015",
        -9.719129435369222
      ],
      [
        "io",
        -9.720516556230578
      ],
      [
        "sche",
        -9.720631540597056
      ],
      [
        "laat",
        -9.720906634179869
      ],
      [
        "▁erin",
        -9.722021013435835
      ],
      [
        "▁and",
        -9.722203148381896
      ],
      [
        "▁mo",
        -9.723092590021214
      ],
      [
        "%",
        -9.723461794681251
      ],
      [
        "plaats",
        -9.723677143136975
      ],
      [
        "▁schoon",
        -9.723827629533693
      ],
      [
        "▁'een",
        -9.724202907654366
      ],
      [
        "▁paus",
        -9.7249336391411
      ],
      [
        "▁westen",
        -9.725721313445307
      ],
      [
        ".\n*mother:\tdie",
        -9.72573900737223
      ],
      [
        "▁lijken",
        -9.725917457101016
      ],
      [
        "▁bar",
        -9.726071894588387
      ],
      [
        "za",
        -9.72714015850001
      ],
      [
        "▁stappen",
        -9.72819710400589
      ],
      [
        "▁gevolgen",
        -9.729036124665132
      ],
      [
        "▁voornamelijk",
        -9.731537377400253
      ],
      [
        "▁dokter",
        -9.731774097219496
      ],
      [
        "▁unie",
        -9.732381040407127
      ],
      [
        "\tkan",
        -9.732436563953772
      ],
      [
        "ina",
        -9.732502308445241
      ],
      [
        "▁ken",
        -9.73356523128248
      ],
      [
        "stand",
        -9.733638351937005
      ],
      [
        "▁hendrik",
        -9.733645543707425
      ],
      [
        "▁argument",
        -9.734966251488459
      ],
      [
        "▁oor",
        -9.735566078390326
      ],
      [
        "▁ongeluk",
        -9.736642481193547
      ],
      [
        "ring",
        -9.737058962025195
      ],
      [
        "▁huis.",
        -9.737688268579316
      ],
      [
        "▁2005",
        -9.738440802737912
      ],
      [
        "▁succes",
        -9.74334856259217
      ],
      [
        "▁films",
        -9.74412315648587
      ],
      [
        ".\nlees",
        -9.74451338127427
      ],
      [
        "▁versie",
        -9.744574755097485
      ],
      [
        "investigator:\toh",
        -9.744883536487293
      ],
      [
        "▁zware",
        -9.745175054126953
      ],
      [
        "▁lengte",
        -9.745207245798472
      ],
      [
        "▁oosten",
        -9.746827118116155
      ],
      [
        "▁handel",
        -9.747252356043218
      ],
      [
        "pa",
        -9.747576899973847
      ],
      [
        "▁beweging",
        -9.747898933555526
      ],
      [
        ".\n\neen",
        -9.748018269837841
      ],
      [
        "▁geven.",
        -9.748230873995535
      ],
      [
        "▁onderstaande",
        -9.749226581396535
      ],
      [
        "▁2020",
        -9.74967201034466
      ],
      [
        "▁daarin",
        -9.750506454963409
      ],
      [
        "ging",
        -9.752648716981376
      ],
      [
        "▁vaste",
        -9.754736023474408
      ],
      [
        "id",
        -9.755906493205853
      ],
      [
        "▁fa",
        -9.755987949387578
      ],
      [
        "goed",
        -9.756191164448513
      ],
      [
        "\twaar",
        -9.756239470681091
      ],
      [
        "▁fout",
        -9.756365259482468
      ],
      [
        "▁nationale",
        -9.757430855607984
      ],
      [
        "aal",
        -9.757565130667057
      ],
      [
        "▁lodewijk",
        -9.757702126611754
      ],
      [
        "▁2008",
        -9.75781807408563
      ],
      [
        "gang",
        -9.758006760945209
      ],
      [
        "hi",
        -9.758539951356203
      ],
      [
        "▁zegt:",
        -9.7585977059247
      ],
      [
        "erd",
        -9.75919102313047
      ],
      [
        "▁school.",
        -9.759996892985424
      ],
      [
        "▁gedrag",
        -9.760062112494126
      ],
      [
        "▁lief",
        -9.760433659290328
      ],
      [
        "dat",
        -9.760507979186537
      ],
      [
        "▁2016",
        -9.7616293369809
      ],
      [
        "▁spelen.",
        -9.761863305853481
      ],
      [
        "▁spreken",
        -9.762144630129034
      ],
      [
        "▁beelden",
        -9.76287273104678
      ],
      [
        "▁roos",
        -9.763320863622802
      ],
      [
        "▁regio",
        -9.763712898646931
      ],
      [
        "▁inhoud",
        -9.763863876744384
      ],
      [
        ".\nwelke",
        -9.763969812188652
      ],
      [
        "schap",
        -9.764053662646102
      ],
      [
        "▁armen",
        -9.76487700409605
      ],
      [
        "▁pe",
        -9.765819918506669
      ],
      [
        "▁theater",
        -9.766420310890249
      ],
      [
        "▁kast",
        -9.766900769140884
      ],
      [
        "▁2004",
        -9.767197600302838
      ],
      [
        "s)",
        -9.767286379941009
      ],
      [
        "▁besloten",
        -9.768268488221807
      ],
      [
        "▁behalve",
        -9.768510549028594
      ],
      [
        "▁stadion",
        -9.769036708192463
      ],
      [
        "▁raad",
        -9.769566476248013
      ],
      [
        "▁ni",
        -9.771414579346288
      ],
      [
        "▁bord",
        -9.771668722297996
      ],
      [
        "▁veroorzaakt",
        -9.772259630380194
      ],
      [
        "▁negen",
        -9.77262201864316
      ],
      [
        "▁dorpen",
        -9.772866662987212
      ],
      [
        "▁gebeurd",
        -9.773881703072885
      ],
      [
        "▁'dan",
        -9.774211649607937
      ],
      [
        "▁gevaarlijk",
        -9.774897538193745
      ],
      [
        "▁gesproken",
        -9.775312083435004
      ],
      [
        "▁haag",
        -9.775602372247917
      ],
      [
        ".\n*mother:\teen",
        -9.776257420090717
      ],
      [
        "▁oorzaak",
        -9.77665794831198
      ],
      [
        "▁hiervan",
        -9.77738611393345
      ],
      [
        "▁bonifatius",
        -9.777605363443577
      ],
      [
        "▁john",
        -9.777784889152343
      ],
      [
        "▁vermogen",
        -9.777945074053417
      ],
      [
        "uk",
        -9.778407049414891
      ],
      [
        "▁binnen.",
        -9.77980435017233
      ],
      [
        "▁reclame",
        -9.78009580758622
      ],
      [
        "▁hoofd.",
        -9.780394626097305
      ],
      [
        "▁slot",
        -9.781893305778048
      ],
      [
        "?\n*father:\t",
        -9.781915823267276
      ],
      [
        "▁2009",
        -9.782582340327926
      ],
      [
        "▁jo",
        -9.782981628786967
      ],
      [
        "▁schilderij",
        -9.78334212305479
      ],
      [
        "-19",
        -9.783351566467081
      ],
      [
        "ah",
        -9.783970832122666
      ],
      [
        "\n*child:\n*child:",
        -9.784143915712516
      ],
      [
        "▁cd",
        -9.785005779339263
      ],
      [
        "▁kritiek",
        -9.785360132774178
      ],
      [
        "▁(\"",
        -9.785583645255679
      ],
      [
        "▁strand",
        -9.786858798351876
      ],
      [
        "\").",
        -9.787164660349728
      ],
      [
        "▁2006",
        -9.787730964498998
      ],
      [
        "▁wolf",
        -9.788389580659238
      ],
      [
        "▁do",
        -9.788593327754345
      ],
      [
        "▁zorgde",
        -9.788619406120358
      ],
      [
        "▁zomaar",
        -9.788709883286291
      ],
      [
        "▁revolutie",
        -9.789270694244074
      ],
      [
        "tel",
        -9.789656938098439
      ],
      [
        "va",
        -9.789701688166087
      ],
      [
        "▁pen",
        -9.79000515133841
      ],
      [
        "▁disney",
        -9.790455481102708
      ],
      [
        "▁plastic",
        -9.790826514422548
      ],
      [
        "▁vet",
        -9.792315806656282
      ],
      [
        "▁haven",
        -9.792496687322862
      ],
      [
        "▁passen",
        -9.792806072486373
      ],
      [
        "▁2018",
        -9.793224747715914
      ],
      [
        "▁haalde",
        -9.793462696693766
      ],
      [
        "▁paul",
        -9.793855343724582
      ],
      [
        "▁klaas",
        -9.793893867697793
      ],
      [
        "▁stoppen",
        -9.794469623319994
      ],
      [
        "aat",
        -9.7944702694437
      ],
      [
        "▁bloem",
        -9.794786022244544
      ],
      [
        "▁hotel",
        -9.794801396265573
      ],
      [
        "▁informatiebron",
        -9.794950427615948
      ],
      [
        "▁volgt",
        -9.79536632550183
      ],
      [
        "▁verkocht",
        -9.795420127078007
      ],
      [
        "▁schepen",
        -9.79602702458794
      ],
      [
        "russische",
        -9.796469592375594
      ],
      [
        "tische",
        -9.799781197031567
      ],
      [
        "▁29",
        -9.799918540633666
      ],
      [
        "▁go",
        -9.80002843819627
      ],
      [
        "▁seizoen",
        -9.80107793762898
      ],
      [
        "▁voelde",
        -9.801542058910345
      ],
      [
        "▁kleren",
        -9.80234501066246
      ],
      [
        "▁george",
        -9.802798653273094
      ],
      [
        "ier",
        -9.803391514950123
      ],
      [
        "▁ding",
        -9.803608577595496
      ],
      [
        "▁schoenen",
        -9.805294854986883
      ],
      [
        "▁behaald",
        -9.805743330668864
      ],
      [
        "▁liever",
        -9.805875164039021
      ],
      [
        "▁cijfers",
        -9.80705769247178
      ],
      [
        "!\"",
        -9.807259352073851
      ],
      [
        "▁rand",
        -9.807362411943682
      ],
      [
        "▁moe",
        -9.80779979391868
      ],
      [
        "target_child:\tde",
        -9.8080579556579
      ],
      [
        "▁blad",
        -9.809147100158235
      ],
      [
        "▁besluit",
        -9.809725572208592
      ],
      [
        "▁bereken",
        -9.809735548609826
      ],
      [
        "▁2013",
        -9.809870052450322
      ],
      [
        "▁afval",
        -9.810238381031645
      ],
      [
        "school",
        -9.810320919658913
      ],
      [
        "▁keuze",
        -9.810452293149144
      ],
      [
        "▁burgers",
        -9.810494659519096
      ],
      [
        "▁leven.",
        -9.810805626226115
      ],
      [
        "▁gebruiken.",
        -9.81262796406369
      ],
      [
        "▁gezin",
        -9.81403046443593
      ],
      [
        "▁internationale",
        -9.814853317557418
      ],
      [
        "▁storm",
        -9.81573708161971
      ],
      [
        "\n*target_child:",
        -9.817607432486533
      ],
      [
        "▁urbanus",
        -9.817712407061311
      ],
      [
        "▁bezoek",
        -9.81815996570123
      ],
      [
        "rij",
        -9.81844906381384
      ],
      [
        "ant",
        -9.819835378762651
      ],
      [
        "▁type",
        -9.819873314119405
      ],
      [
        "▁raam",
        -9.820996504055632
      ],
      [
        "▁stenen",
        -9.821212127964804
      ],
      [
        "▁stukken",
        -9.822336501245667
      ],
      [
        "komen",
        -9.82275575013167
      ],
      [
        "▁cor",
        -9.823165726995018
      ],
      [
        "▁ar",
        -9.823961011832651
      ],
      [
        "▁ra",
        -9.82405087302422
      ],
      [
        "▁nodig.",
        -9.824633178865914
      ],
      [
        "▁india",
        -9.825498241292792
      ],
      [
        "+",
        -9.825522498759408
      ],
      [
        "▁systeem",
        -9.825838650040662
      ],
      [
        "hoek",
        -9.826098752739295
      ],
      [
        "▁behoren",
        -9.826173088687195
      ],
      [
        "▁hiermee",
        -9.8261950999402
      ],
      [
        "▁kar",
        -9.827275803471133
      ],
      [
        "\tjij",
        -9.82745909668164
      ],
      [
        "▁napoleon",
        -9.82856112623557
      ],
      [
        "▁ab",
        -9.828993314639035
      ],
      [
        "dus",
        -9.829459454862118
      ],
      [
        ".\n*father:\tja",
        -9.829551353672773
      ],
      [
        "▁'hij",
        -9.829990370457287
      ],
      [
        "▁trek",
        -9.83122160017243
      ],
      [
        "doen",
        -9.831585459349103
      ],
      [
        "con",
        -9.832054480658247
      ],
      [
        "ale",
        -9.833013214942845
      ],
      [
        "▁blok",
        -9.833338097661816
      ],
      [
        "baan",
        -9.83389007370884
      ],
      [
        "▁gedaan.",
        -9.833962888225905
      ],
      [
        "▁polen",
        -9.834063894254419
      ],
      [
        "▁omgeving",
        -9.834070443542792
      ],
      [
        "▁voorzichtig",
        -9.834404631971605
      ],
      [
        "▁helpt",
        -9.834459187798544
      ],
      [
        "▁kaas",
        -9.834603565106505
      ],
      [
        "▁'n",
        -9.834822484451944
      ],
      [
        "▁'nou",
        -9.834831325791718
      ],
      [
        "her",
        -9.835037971984782
      ],
      [
        "|",
        -9.835422981500798
      ],
      [
        "▁ontdekt",
        -9.83617512807455
      ],
      [
        "▁gram",
        -9.837101296075339
      ],
      [
        "▁afrika",
        -9.837368352741635
      ],
      [
        "▁talen",
        -9.83754452061186
      ],
      [
        "▁werken.",
        -9.838076915050138
      ],
      [
        "▁model",
        -9.839205306604896
      ],
      [
        "▁'die",
        -9.841674684548854
      ],
      [
        "▁tanden",
        -9.841809974404852
      ],
      [
        "▁japan",
        -9.842198802036886
      ],
      [
        "▁terecht",
        -9.84277689545193
      ],
      [
        "▁kg",
        -9.843166216858597
      ],
      [
        "▁toeristen",
        -9.845049246302597
      ],
      [
        "licht",
        -9.845605347682117
      ],
      [
        "▁60",
        -9.845803711065635
      ],
      [
        "▁aanwezig",
        -9.845864019281953
      ],
      [
        "▁gras",
        -9.84599344243797
      ],
      [
        "▁zout",
        -9.846159115473363
      ],
      [
        "gel",
        -9.846650217950128
      ],
      [
        "▁zingen",
        -9.846931306258924
      ],
      [
        "▁bekendste",
        -9.84693439524878
      ],
      [
        "▁2007",
        -9.847800980282482
      ],
      [
        "▁tv",
        -9.847904634077075
      ],
      [
        "▁geel",
        -9.849735758871692
      ],
      [
        "▁leest",
        -9.849984816388712
      ],
      [
        "▁heen.",
        -9.85020074788644
      ],
      [
        "▁wakker",
        -9.850204159709262
      ],
      [
        "band",
        -9.850569761719068
      ],
      [
        "▁proces",
        -9.851030079903186
      ],
      [
        "▁belgische",
        -9.851588013021866
      ],
      [
        "▁dat?",
        -9.852576818687638
      ],
      [
        "maken",
        -9.852679879590372
      ],
      [
        "▁taak",
        -9.854810714825295
      ],
      [
        "▁leuke",
        -9.855478337588938
      ],
      [
        "▁pagina",
        -9.855661996005805
      ],
      [
        "▁'ze",
        -9.855671401951598
      ],
      [
        "▁(104",
        -9.857465682777462
      ],
      [
        "▁vertel",
        -9.858481272568454
      ],
      [
        "▁gekomen",
        -9.858918256269135
      ],
      [
        "▁su",
        -9.859136626928262
      ],
      [
        "▁leeg",
        -9.859351594125503
      ],
      [
        "min",
        -9.861540177472268
      ],
      [
        "kaart",
        -9.862490857314404
      ],
      [
        "▁gezond",
        -9.86260583185291
      ],
      [
        "▁ziekenhuis",
        -9.862801637046276
      ],
      [
        "▁website",
        -9.863105905914558
      ],
      [
        "▁appel",
        -9.863277069895785
      ],
      [
        "▁tie",
        -9.864771811060233
      ],
      [
        "mon",
        -9.86482908150596
      ],
      [
        "▁'als",
        -9.866102935104585
      ],
      [
        "▁romeinen",
        -9.866307697405684
      ],
      [
        "kt",
        -9.867536831120141
      ],
      [
        "▁hol",
        -9.867744125888258
      ],
      [
        "▁plaatjes",
        -9.868608530356148
      ],
      [
        "▁mede",
        -9.869172781320211
      ],
      [
        "\nop",
        -9.869597796655334
      ],
      [
        "▁(een",
        -9.869873881163652
      ],
      [
        "het",
        -9.8707457482519
      ],
      [
        "▁droog",
        -9.87088622191525
      ],
      [
        "▁speel",
        -9.870954655063885
      ],
      [
        "▁officieel",
        -9.871579995027906
      ],
      [
        "▁bak",
        -9.87222997937176
      ],
      [
        "staat",
        -9.872308669564235
      ],
      [
        "▁orde",
        -9.872884689083326
      ],
      [
        "▁geworden.",
        -9.874919514677924
      ],
      [
        "▁el",
        -9.875370511618115
      ],
      [
        "▁bergen",
        -9.876802595229833
      ],
      [
        ".\ni",
        -9.877516642805087
      ],
      [
        "kie",
        -9.878159093880674
      ],
      [
        "▁frank",
        -9.878173412320667
      ],
      [
        "▁'hoe",
        -9.878308391668899
      ],
      [
        ")\n\n",
        -9.87839412483497
      ],
      [
        "▁volgorde",
        -9.878686845624582
      ],
      [
        "▁daan",
        -9.879326405686776
      ],
      [
        "▁rent",
        -9.88038324554283
      ],
      [
        "▁rust",
        -9.880637737273215
      ],
      [
        "▁2022",
        -9.880774747918922
      ],
      [
        "▁elektrische",
        -9.881227209927953
      ],
      [
        "▁schade",
        -9.881227575820436
      ],
      [
        "▁pre",
        -9.88142440819596
      ],
      [
        "▁zagen",
        -9.881459917313016
      ],
      [
        "-jarige",
        -9.88146736959875
      ],
      [
        "▁2002",
        -9.881497832505072
      ],
      [
        "?\n*mother:\twat",
        -9.88186765998435
      ],
      [
        "▁paarden",
        -9.88275017600383
      ],
      [
        "kracht",
        -9.88287673058097
      ],
      [
        "▁regelmatig",
        -9.883171013780606
      ],
      [
        "▁rijdt",
        -9.883343585152595
      ],
      [
        "▁plannen",
        -9.883472660050892
      ],
      [
        "▁xii",
        -9.88410454268655
      ],
      [
        "▁4.",
        -9.884294495267216
      ],
      [
        "ns",
        -9.88479897809221
      ],
      [
        "loop",
        -9.885309338670863
      ],
      [
        "\txxx.\n*",
        -9.885400846178761
      ],
      [
        ".\n*mother:\tmaar",
        -9.885515691673744
      ],
      [
        "▁geheel",
        -9.885907960574617
      ],
      [
        "▁wou",
        -9.886427544788802
      ],
      [
        "▁tegenover",
        -9.88658792000059
      ],
      [
        "target_child:\tik",
        -9.886889321895843
      ],
      [
        "▁eten.",
        -9.888976611442704
      ],
      [
        "▁vanavond",
        -9.889119022985778
      ],
      [
        "▁onderzoeken",
        -9.88931258139691
      ],
      [
        "▁sta",
        -9.891019230592935
      ],
      [
        "▁fietsen",
        -9.891881672799435
      ],
      [
        "s-",
        -9.891888257986736
      ],
      [
        "▁leider",
        -9.892489058215332
      ],
      [
        "▁duizenden",
        -9.892642815248928
      ],
      [
        "▁bovendien",
        -9.893127221121802
      ],
      [
        "▁fragment",
        -9.893287447851769
      ],
      [
        "a's",
        -9.894242094690085
      ],
      [
        "▁voorbij",
        -9.8947083820552
      ],
      [
        "blad",
        -9.895287759632645
      ],
      [
        "▁adem",
        -9.895623556881453
      ],
      [
        "uren",
        -9.895889252057145
      ],
      [
        "▁tijdje",
        -9.896445190316605
      ],
      [
        "wijk",
        -9.896453214418187
      ],
      [
        "the",
        -9.896483581550525
      ],
      [
        "▁zus",
        -9.896733939178445
      ],
      [
        "▁uitspraken",
        -9.899057328168166
      ],
      [
        "▁bestuur",
        -9.899846675379223
      ],
      [
        "▁relatie",
        -9.900258386653956
      ],
      [
        "zijn",
        -9.901495780465353
      ],
      [
        "▁deden",
        -9.901741433429649
      ],
      [
        "▁enkel",
        -9.902056830812107
      ],
      [
        "▁post",
        -9.902337520353019
      ],
      [
        "▁twaalf",
        -9.902512344246391
      ],
      [
        "▁oudste",
        -9.90291755893333
      ],
      [
        "▁eentje",
        -9.903051923415044
      ],
      [
        "▁kim",
        -9.903060347849458
      ],
      [
        "▁groningen",
        -9.903309636141866
      ],
      [
        "punt",
        -9.904571457167703
      ],
      [
        "▁product",
        -9.904621630656408
      ],
      [
        "▁bepalen",
        -9.905162312261066
      ],
      [
        "▁jaarlijks",
        -9.905415116657561
      ],
      [
        "stel",
        -9.905753328031604
      ],
      [
        "ting",
        -9.905907861392258
      ],
      [
        "dam",
        -9.907037185660258
      ],
      [
        "▁mar",
        -9.907166342368715
      ],
      [
        "▁ronde",
        -9.90791792299421
      ],
      [
        "▁honderd",
        -9.908057998026983
      ],
      [
        "\tgaat",
        -9.908218074581004
      ],
      [
        "▁2021",
        -9.90827903413861
      ],
      [
        "▁pakte",
        -9.909440493972621
      ],
      [
        "▁seconden",
        -9.910105850300022
      ],
      [
        "rie",
        -9.911425833320717
      ],
      [
        "nu",
        -9.911492601186222
      ],
      [
        "▁griekse",
        -9.911507643337135
      ],
      [
        "zogeheten",
        -9.911743476743746
      ],
      [
        "▁australie",
        -9.912170643775289
      ],
      [
        "▁zette",
        -9.91246068430063
      ],
      [
        "▁pot",
        -9.912771779171258
      ],
      [
        "▁koop",
        -9.913743173423853
      ],
      [
        "▁david",
        -9.913926422600142
      ],
      [
        "▁opgericht",
        -9.914182940161655
      ],
      [
        "met",
        -9.914479711707372
      ],
      [
        "▁doos",
        -9.915200273579984
      ],
      [
        "▁bram",
        -9.91535563895161
      ],
      [
        ".\n*mother:\the",
        -9.916166817459928
      ],
      [
        "▁bijzondere",
        -9.91624783108341
      ],
      [
        "▁houten",
        -9.916427125839148
      ],
      [
        "▁liter",
        -9.91660606623563
      ],
      [
        "▁vertelde",
        -9.91688994158802
      ],
      [
        "▁schaal",
        -9.917091247603835
      ],
      [
        "t/m",
        -9.91784333979425
      ],
      [
        "ot",
        -9.918494760210216
      ],
      [
        "▁grotere",
        -9.918854556653141
      ],
      [
        "▁verliefd",
        -9.918956980215484
      ],
      [
        "▁aardig",
        -9.919216354240612
      ],
      [
        "▁bel",
        -9.919771975583789
      ],
      [
        "▁rekening",
        -9.919935692494242
      ],
      [
        "waar",
        -9.920236272350976
      ],
      [
        "xiii",
        -9.920560069293138
      ],
      [
        "▁dierentuin",
        -9.921119632236016
      ],
      [
        "▁gele",
        -9.921989173893397
      ],
      [
        "▁liefst",
        -9.922222659417336
      ],
      [
        "tal",
        -9.923252533123787
      ],
      [
        "lie",
        -9.923484820591533
      ],
      [
        "▁liedje",
        -9.924263049935817
      ],
      [
        "▁materiaal",
        -9.924416074087025
      ],
      [
        "?\n*adult:\t",
        -9.9245277133907
      ],
      [
        "▁stand",
        -9.924900227197504
      ],
      [
        "▁plotseling",
        -9.925630184619422
      ],
      [
        "▁vinger",
        -9.925817425722695
      ],
      [
        "vo",
        -9.926043814721567
      ],
      [
        "▁halve",
        -9.92732752688903
      ],
      [
        "25",
        -9.927813703228843
      ],
      [
        "_",
        -9.92822561147887
      ],
      [
        "▁muis",
        -9.928622995489377
      ],
      [
        "ica",
        -9.929619234056608
      ],
      [
        "\tmag",
        -9.929768142123045
      ],
      [
        "▁verboden",
        -9.93007194295999
      ],
      [
        "bus",
        -9.930845089743993
      ],
      [
        "▁ru",
        -9.931099322205164
      ],
      [
        "▁au",
        -9.931853887401683
      ],
      [
        "▁bot",
        -9.932202624580594
      ],
      [
        "▁geleerd",
        -9.934017752433268
      ],
      [
        "▁200",
        -9.934100308328853
      ],
      [
        "▁terug.",
        -9.9341022852049
      ],
      [
        "\tauto",
        -9.934235615729401
      ],
      [
        "▁st",
        -9.934401071426826
      ],
      [
        "age",
        -9.934537708572353
      ],
      [
        "▁kip",
        -9.936580341159598
      ],
      [
        "▁werkte",
        -9.937055804181545
      ],
      [
        "▁optreden",
        -9.937166730693258
      ],
      [
        "even",
        -9.937384727327476
      ],
      [
        "▁san",
        -9.937748245390093
      ],
      [
        "▁2003",
        -9.9378256458304
      ],
      [
        "wie",
        -9.938596737788348
      ],
      [
        "▁am",
        -9.938679484340389
      ],
      [
        "▁verandert",
        -9.939772071119098
      ],
      [
        "▁voeten",
        -9.939880510446569
      ],
      [
        "▁turkije",
        -9.941253636713194
      ],
      [
        "ft",
        -9.941741906716732
      ],
      [
        "▁ster",
        -9.941840532410472
      ],
      [
        "ham",
        -9.942552500461659
      ],
      [
        "▁mochten",
        -9.942561981857434
      ],
      [
        "eur",
        -9.942612623862654
      ],
      [
        "▁duur",
        -9.942989061276501
      ],
      [
        "▁reken",
        -9.944388991578489
      ],
      [
        "▁geheim",
        -9.94463042031063
      ],
      [
        "\"ik",
        -9.945562170241153
      ],
      [
        "▁aangegeven",
        -9.946168372115338
      ],
      [
        "▁dienst",
        -9.946727598854784
      ],
      [
        "▁zwemmen",
        -9.946838752339403
      ],
      [
        "▁alcohol",
        -9.947239092222464
      ],
      [
        "▁flink",
        -9.947320815858037
      ],
      [
        "▁vak",
        -9.947357414499683
      ],
      [
        "▁praat",
        -9.948567164362904
      ],
      [
        "ron",
        -9.948616911828303
      ],
      [
        "▁gewonnen",
        -9.948955030704795
      ],
      [
        "▁rivieren",
        -9.950555227055405
      ],
      [
        "▁draaien",
        -9.951011974278632
      ],
      [
        "▁tijden",
        -9.951060307697414
      ],
      [
        "cy",
        -9.952100926509189
      ],
      [
        "rijk",
        -9.952639061959465
      ],
      [
        "▁thomas",
        -9.953808513648804
      ],
      [
        "▁leidde",
        -9.955753790636905
      ],
      [
        "▁slechte",
        -9.956284925391994
      ],
      [
        "ef",
        -9.956445040457222
      ],
      [
        "▁belang",
        -9.956776427949762
      ],
      [
        "▁geschikt",
        -9.957861205935263
      ],
      [
        "vorm",
        -9.95786484538781
      ],
      [
        "elen",
        -9.958187058973024
      ],
      [
        "▁2023",
        -9.958971576586713
      ],
      [
        "▁been",
        -9.96041483308588
      ],
      [
        ".\nop",
        -9.961854071193777
      ],
      [
        "▁2001",
        -9.961883432584177
      ],
      [
        "▁gat",
        -9.962106008855258
      ],
      [
        "▁bol",
        -9.963467970803277
      ],
      [
        "▁premier",
        -9.964839349026448
      ],
      [
        "▁ad",
        -9.966354467981214
      ],
      [
        "en\n",
        -9.966368959255835
      ],
      [
        "▁gebeuren",
        -9.966397647400656
      ],
      [
        "er.",
        -9.96736952461905
      ],
      [
        "▁piet",
        -9.967389204550681
      ],
      [
        "▁kerst",
        -9.968040692098546
      ],
      [
        "▁winnen",
        -9.968043820514154
      ],
      [
        "▁gevangen",
        -9.968382885786388
      ],
      [
        "▁gebaseerd",
        -9.968618598870794
      ],
      [
        "▁eieren",
        -9.969472079665763
      ],
      [
        "▁golf",
        -9.969761533992845
      ],
      [
        "kamer",
        -9.970306903659548
      ],
      [
        "▁fi",
        -9.971101412525904
      ],
      [
        "▁nicolaas",
        -9.971203124500644
      ],
      [
        "▁beoordeling",
        -9.971463232821744
      ],
      [
        "▁gewicht",
        -9.971476378198535
      ],
      [
        "▁ondertussen",
        -9.971540850280878
      ],
      [
        "▁goed.",
        -9.972487117067393
      ],
      [
        "▁fabriek",
        -9.972517097111972
      ],
      [
        "sp",
        -9.972533845632885
      ],
      [
        "lijst",
        -9.973383538965678
      ],
      [
        "?\"",
        -9.973531589891827
      ],
      [
        ",\"",
        -9.973633755253779
      ],
      [
        "▁bacterien",
        -9.973879829593313
      ],
      [
        "▁ouder",
        -9.97442450887889
      ],
      [
        "▁(c",
        -9.97478623246287
      ],
      [
        ".\n*mother:\tje",
        -9.974876878879066
      ],
      [
        "plan",
        -9.974923904386648
      ],
      [
        "▁beschreven",
        -9.975030580577185
      ],
      [
        "▁stopt",
        -9.975211433001213
      ],
      [
        "▁cirkel",
        -9.975417113271515
      ],
      [
        "ijn",
        -9.975445969422928
      ],
      [
        "ac",
        -9.975968302720219
      ],
      [
        "prijs",
        -9.976120575215006
      ],
      [
        "▁oppervlakte",
        -9.976462285844647
      ],
      [
        "▁stukjes",
        -9.976912650495432
      ],
      [
        "hoe",
        -9.977751939410222
      ],
      [
        "▁proef",
        -9.977887607697678
      ],
      [
        "leven",
        -9.977955360005742
      ],
      [
        "\n*investigator:",
        -9.979266199997038
      ],
      [
        "▁vierde",
        -9.97961738029398
      ],
      [
        "▁dragen",
        -9.98005033895243
      ],
      [
        "▁handig",
        -9.980401897302851
      ],
      [
        "▁boekje",
        -9.980562451906845
      ],
      [
        "▁(14",
        -9.980805978064907
      ],
      [
        "▁wild",
        -9.981031496705407
      ],
      [
        "▁verloren",
        -9.981245582806178
      ],
      [
        "▁israel",
        -9.981522545994945
      ],
      [
        "dijk",
        -9.981685904476398
      ],
      [
        "▁ochtend",
        -9.98258761195325
      ],
      [
        "▁rome",
        -9.982698678524489
      ],
      [
        "▁joden",
        -9.983845860504307
      ],
      [
        "▁doden",
        -9.984395378110548
      ],
      [
        "▁rijn",
        -9.984862570692059
      ],
      [
        "bij",
        -9.986058594230776
      ],
      [
        "▁bedrag",
        -9.986288705322334
      ],
      [
        "▁(10",
        -9.986636611444322
      ],
      [
        "lin",
        -9.986985386835052
      ],
      [
        "officiele",
        -9.987050753261041
      ],
      [
        "▁mark",
        -9.987305743760484
      ],
      [
        "park",
        -9.98807546923658
      ],
      [
        "▁start",
        -9.988272634262124
      ],
      [
        "film",
        -9.989095293585972
      ],
      [
        "let",
        -9.989751166504707
      ],
      [
        "▁tekenen",
        -9.990250601419909
      ],
      [
        "▁wijk",
        -9.991165903196558
      ],
      [
        "ley",
        -9.991210565593441
      ],
      [
        "elijke",
        -9.991445595198684
      ],
      [
        "▁lager",
        -9.99166895441202
      ],
      [
        "▁jaap",
        -9.99245211852826
      ],
      [
        "▁schat",
        -9.992951456497359
      ],
      [
        "los",
        -9.993055029857537
      ],
      [
        "target_child:\tə",
        -9.99356253932378
      ],
      [
        "▁gaten",
        -9.993871115295953
      ],
      [
        "▁touw",
        -9.994419970594944
      ],
      [
        "▁tu",
        -9.99484245277647
      ],
      [
        "sh",
        -9.995240455349993
      ],
      [
        "▁bladzijde",
        -9.995333041877261
      ],
      [
        "▁hou",
        -9.99558032426459
      ],
      [
        "▁verf",
        -9.99584252821779
      ],
      [
        "▁lachen",
        -9.995999423842559
      ],
      [
        "▁samenleving",
        -9.996725681220097
      ],
      [
        "▁afloop",
        -9.99713328700975
      ],
      [
        "▁lastig",
        -9.997144719482073
      ],
      [
        "▁industrie",
        -9.998345081979025
      ],
      [
        "▁warmte",
        -9.998449777950873
      ],
      [
        "55)",
        -9.998463115455388
      ],
      [
        "▁hersenen",
        -9.998849737292563
      ],
      [
        "▁wijst",
        -9.999602001452597
      ],
      [
        "laag",
        -9.99999464195365
      ],
      [
        "▁hu",
        -10.000040419875162
      ],
      [
        "vel",
        -10.00032760194507
      ],
      [
        "verantwoordelijk",
        -10.000807564254831
      ],
      [
        "▁eraan",
        -10.000933950090314
      ],
      [
        "▁grond.",
        -10.000962057764646
      ],
      [
        "▁stijl",
        -10.000969122403415
      ],
      [
        "▁hierna",
        -10.00114264245773
      ],
      [
        "▁*",
        -10.001265058401628
      ],
      [
        ".\n*mother:\tis",
        -10.001963008639901
      ],
      [
        "\nbekijk",
        -10.002776014205047
      ],
      [
        "auto",
        -10.003189183113538
      ],
      [
        "oh",
        -10.003249549232994
      ],
      [
        "▁maarten",
        -10.004234299299979
      ],
      [
        "▁inderdaad",
        -10.004469333127414
      ],
      [
        "▁bart",
        -10.004697432123885
      ],
      [
        "▁35",
        -10.004871913027525
      ],
      [
        "▁verleden",
        -10.005403878391029
      ],
      [
        "▁ja.\n*",
        -10.005631205841954
      ],
      [
        "burg",
        -10.006735663687731
      ],
      [
        "-20",
        -10.006737492839598
      ],
      [
        "▁ring",
        -10.007702307415844
      ],
      [
        "▁honger",
        -10.00848354626335
      ],
      [
        "▁lage",
        -10.009302818483762
      ],
      [
        "▁sterke",
        -10.010158956593141
      ],
      [
        "▁uitge",
        -10.01043968385626
      ],
      [
        "uur",
        -10.010679724020292
      ],
      [
        "▁j",
        -10.010989458692515
      ],
      [
        "▁middeleeuwen",
        -10.011020687515625
      ],
      [
        "wat",
        -10.01110828685859
      ],
      [
        "▁zweden",
        -10.012151185470671
      ],
      [
        "dieren",
        -10.012708262316597
      ],
      [
        "▁kennen",
        -10.013350461363611
      ],
      [
        "▁thema",
        -10.013592744803912
      ],
      [
        "▁fruit",
        -10.013840091866896
      ],
      [
        "ben",
        -10.01587505334541
      ],
      [
        "▁leeft",
        -10.015877811282675
      ],
      [
        "▁vel",
        -10.016141370196104
      ],
      [
        "▁heette",
        -10.016157921140135
      ],
      [
        "muziek",
        -10.016257262818002
      ],
      [
        "▁geboorte",
        -10.016772706597429
      ],
      [
        "▁plein",
        -10.01742927953144
      ],
      [
        "▁rijke",
        -10.018037712545766
      ],
      [
        "en)",
        -10.018359435128083
      ],
      [
        "huizen",
        -10.018404261693384
      ],
      [
        "▁80",
        -10.019440323337328
      ],
      [
        "▁oorspronkelijk",
        -10.019514268908274
      ],
      [
        "naar",
        -10.019979494045717
      ],
      [
        "▁lukt",
        -10.020256119903124
      ],
      [
        "▁taart",
        -10.020271355769086
      ],
      [
        "▁weekend",
        -10.02189550540379
      ],
      [
        "▁chinese",
        -10.0219976395054
      ],
      [
        "▁ke",
        -10.022235836962963
      ],
      [
        "\tniet",
        -10.022677386814689
      ],
      [
        "▁\"de",
        -10.022913460319383
      ],
      [
        "▁app",
        -10.022916089475174
      ],
      [
        "▁(1",
        -10.023368059026776
      ],
      [
        ".\n*mother:\tga",
        -10.023567153374492
      ],
      [
        "▁griekenland",
        -10.024259916122865
      ],
      [
        "▁stroomt",
        -10.024349640785747
      ],
      [
        "kan",
        -10.025297084438579
      ],
      [
        "▁wijze",
        -10.026087220395919
      ],
      [
        "slag",
        -10.026092034940735
      ],
      [
        "ook",
        -10.027290107893212
      ],
      [
        "▁knikt",
        -10.028037932736076
      ],
      [
        "▁geluk",
        -10.02841308751594
      ],
      [
        "wagen",
        -10.02989402454476
      ],
      [
        "▁arme",
        -10.030568176928844
      ],
      [
        "▁'kom",
        -10.030847743247975
      ],
      [
        "▁telkens",
        -10.031551093018038
      ],
      [
        "▁vrede",
        -10.031684396491604
      ],
      [
        "▁effect",
        -10.031685966642959
      ],
      [
        "▁...-",
        -10.031880205526281
      ],
      [
        "dan",
        -10.032073810633257
      ],
      [
        "▁vorig",
        -10.032332128738636
      ],
      [
        "▁afbeeldingen",
        -10.03275033775143
      ],
      [
        "▁voldoende",
        -10.032942865944616
      ],
      [
        "▁raar",
        -10.03329816190012
      ],
      [
        "vallen",
        -10.034172654473863
      ],
      [
        "ondanks",
        -10.03418383638832
      ],
      [
        "▁dom",
        -10.035567124301542
      ],
      [
        "▁insecten",
        -10.037237312457956
      ],
      [
        "▁liepen",
        -10.038562724507063
      ],
      [
        "▁betaald",
        -10.038664303472888
      ],
      [
        "▁gezien.",
        -10.038674846903298
      ],
      [
        "▁gi",
        -10.03879165881726
      ],
      [
        "kosten",
        -10.039180640771185
      ],
      [
        "▁contact",
        -10.03934355472001
      ],
      [
        "▁canada",
        -10.039646189811798
      ],
      [
        "▁opstand",
        -10.039937839438835
      ],
      [
        "▁ontwerp",
        -10.040150113647158
      ],
      [
        "▁veranderen",
        -10.040168432461815
      ],
      [
        "bra",
        -10.040346987924202
      ],
      [
        "zin",
        -10.040555581234667
      ],
      [
        "▁gen",
        -10.041061228747203
      ],
      [
        "bar",
        -10.041153281808185
      ],
      [
        "▁koper",
        -10.042759933079047
      ],
      [
        "feest",
        -10.042826664284407
      ],
      [
        "q",
        -10.042860950979751
      ],
      [
        "▁cas",
        -10.042910921625303
      ],
      [
        "▁jas",
        -10.043136256471817
      ],
      [
        "▁bracht",
        -10.04345105063555
      ],
      [
        "▁ideeen",
        -10.04388734736334
      ],
      [
        "▁zondag",
        -10.044185231909788
      ],
      [
        "▁zetels",
        -10.044469402084992
      ],
      [
        "▁heilige",
        -10.045217483328706
      ],
      [
        "▁kees",
        -10.04596347578237
      ],
      [
        "dit",
        -10.046021945042295
      ],
      [
        "▁verwijzen",
        -10.04626068486108
      ],
      [
        "▁laura",
        -10.046460743298944
      ],
      [
        "deel",
        -10.046847329907228
      ],
      [
        "▁inkomen",
        -10.046924123895515
      ],
      [
        "▁grondwet",
        -10.047686125072676
      ],
      [
        "straat",
        -10.04778209746955
      ],
      [
        "▁bruin",
        -10.04790838589869
      ],
      [
        "pro",
        -10.047943680140538
      ],
      [
        "▁verandering",
        -10.048570968184226
      ],
      [
        "▁schoot",
        -10.04896365448382
      ],
      [
        "▁bevindt",
        -10.049036872954062
      ],
      [
        "loze",
        -10.04933715567371
      ],
      [
        "▁lot",
        -10.049538159472535
      ],
      [
        "▁gebracht",
        -10.050214878638407
      ],
      [
        "als",
        -10.05024224427993
      ],
      [
        "naam",
        -10.050262342406585
      ],
      [
        "▁opzichte",
        -10.050512839379131
      ],
      [
        "ies",
        -10.050644979064618
      ],
      [
        "hu",
        -10.050653574787823
      ],
      [
        "du",
        -10.050980635426738
      ],
      [
        "s\n",
        -10.051146325689857
      ],
      [
        "▁egypte",
        -10.05154249595655
      ],
      [
        "▁slaat",
        -10.051627542703475
      ],
      [
        "▁droom",
        -10.051677953324177
      ],
      [
        "▁afhankelijk",
        -10.051945471442854
      ],
      [
        "▁overleed",
        -10.052123563265585
      ],
      [
        "▁zaterdag",
        -10.052607357849183
      ],
      [
        "▁christus",
        -10.053085919659473
      ],
      [
        "\ner",
        -10.053592993410774
      ],
      [
        "▁amerikanen",
        -10.05375368159655
      ],
      [
        "▁lied",
        -10.05434157352392
      ],
      [
        "▁anne",
        -10.05475698564291
      ],
      [
        "▁nationaal",
        -10.05509550187915
      ],
      [
        "▁noord",
        -10.055096421199226
      ],
      [
        "76)",
        -10.055803310729043
      ],
      [
        "▁open.",
        -10.056088718065254
      ],
      [
        "▁spoor",
        -10.0562474929841
      ],
      [
        "pot",
        -10.056276947496311
      ],
      [
        "▁rechten",
        -10.057156026448189
      ],
      [
        "▁brengt",
        -10.057697027134406
      ],
      [
        "▁ajax",
        -10.057731829941375
      ],
      [
        "▁wijn",
        -10.057769713038033
      ],
      [
        "▁geweld",
        -10.058614201359422
      ],
      [
        "tor",
        -10.058715105370332
      ],
      [
        "▁halen.",
        -10.05902562742009
      ],
      [
        "▁controle",
        -10.059409621465807
      ],
      [
        "▁vermeld",
        -10.060001338177642
      ],
      [
        "▁beroemde",
        -10.06007432511527
      ],
      [
        "▁democratie",
        -10.06016346571813
      ],
      [
        "▁nina",
        -10.060514712322519
      ],
      [
        "mel",
        -10.060817013457715
      ],
      [
        "▁noemt",
        -10.061123517984477
      ],
      [
        "▁streep",
        -10.061601572368023
      ],
      [
        "volgens",
        -10.061663839186782
      ],
      [
        "▁klopt",
        -10.061711331242952
      ],
      [
        "▁gevraagd.",
        -10.063240570522538
      ],
      [
        "▁bladeren",
        -10.06339785453074
      ],
      [
        "▁nat",
        -10.06365831117283
      ],
      [
        "▁draaide",
        -10.064354538962059
      ],
      [
        "ov",
        -10.064659825100396
      ],
      [
        "▁wees",
        -10.064775383456345
      ],
      [
        "▁wk",
        -10.065883392024867
      ],
      [
        "▁kabinet",
        -10.066059293667532
      ],
      [
        "ll",
        -10.066242904626424
      ],
      [
        "▁vergeten",
        -10.066424755474305
      ],
      [
        "▁wonen.",
        -10.066669811020553
      ],
      [
        "▁hondje",
        -10.066780117217423
      ],
      [
        "gemaakt",
        -10.066787193437552
      ],
      [
        "58)",
        -10.066817295421883
      ],
      [
        "bedrijf",
        -10.067341502429489
      ],
      [
        "▁belasting",
        -10.067581122950859
      ],
      [
        "zoals",
        -10.0676497862511
      ],
      [
        "▁wapen",
        -10.067742487848719
      ],
      [
        "▁duitsers",
        -10.067755461161958
      ],
      [
        "▁kaarten",
        -10.067817020577149
      ],
      [
        "▁spanning",
        -10.068212485550667
      ],
      [
        "-1",
        -10.068345546405048
      ],
      [
        "▁mam",
        -10.068462379676728
      ],
      [
        "▁game",
        -10.068627372023805
      ],
      [
        "▁vervoer",
        -10.06872644563758
      ],
      [
        "nee",
        -10.068752158776077
      ],
      [
        "▁reageren",
        -10.069091936261819
      ],
      [
        "▁vreemd",
        -10.069130956492751
      ],
      [
        "▁studenten",
        -10.069734562509948
      ],
      [
        "▁juffrouw",
        -10.070460138526407
      ],
      [
        "▁kleinere",
        -10.07071976050685
      ],
      [
        "▁hoef",
        -10.071129888843256
      ],
      [
        "▁miljard",
        -10.071409296639697
      ],
      [
        "▁holland",
        -10.071756710765069
      ],
      [
        "85)",
        -10.07199493268358
      ],
      [
        "waarde",
        -10.072627563825641
      ],
      [
        "▁pepijn",
        -10.073105289089302
      ],
      [
        "▁elf",
        -10.073517270316124
      ],
      [
        "▁koude",
        -10.073833809805071
      ],
      [
        "▁jack",
        -10.073945493898057
      ],
      [
        "▁hans",
        -10.074230801235672
      ],
      [
        "achtige",
        -10.074366366574104
      ],
      [
        "raad",
        -10.074443688741272
      ],
      [
        "▁zoiets",
        -10.07490639384785
      ],
      [
        "▁raakte",
        -10.075296083839422
      ],
      [
        "▁sterren",
        -10.075585837475003
      ],
      [
        "▁nauwelijks",
        -10.075690780749492
      ],
      [
        "tra",
        -10.075848862906657
      ],
      [
        "▁londen",
        -10.076934895327893
      ],
      [
        "\tyyy",
        -10.077076129539456
      ],
      [
        "▁winst",
        -10.077713110921739
      ],
      [
        "18",
        -10.0779662531852
      ],
      [
        "▁lopen.",
        -10.078310158734157
      ],
      [
        "ou",
        -10.078383732493064
      ],
      [
        "▁genomen",
        -10.07938720402614
      ],
      [
        "ex",
        -10.07963334178157
      ],
      [
        "▁zoekt",
        -10.07965853371572
      ],
      [
        "▁zuid",
        -10.079912892184348
      ],
      [
        "▁correct",
        -10.080637629805455
      ],
      [
        "▁voren",
        -10.080784645547446
      ],
      [
        "▁spannend",
        -10.082151902072422
      ],
      [
        "▁bellen",
        -10.082314315679962
      ],
      [
        "jes.",
        -10.08253458538547
      ],
      [
        "▁victor",
        -10.0840578578795
      ],
      [
        "▁dansen",
        -10.084796129646364
      ],
      [
        "▁reizen",
        -10.085122652977349
      ],
      [
        "▁leiding",
        -10.085353452390194
      ],
      [
        "▁alweer",
        -10.085964731108586
      ],
      [
        "▁zaal",
        -10.086890521279471
      ],
      [
        "▁hemel",
        -10.087655333551034
      ],
      [
        "adrianus",
        -10.08778220400599
      ],
      [
        "▁eefie",
        -10.087877785220016
      ],
      [
        "dorp",
        -10.088252891810015
      ],
      [
        "zuur",
        -10.088641994581126
      ],
      [
        "isten",
        -10.088926609531672
      ],
      [
        "30)",
        -10.08914471539941
      ],
      [
        "▁r.",
        -10.089225630938099
      ],
      [
        "▁behalen.",
        -10.089249045688994
      ],
      [
        "▁wetenschappers",
        -10.089356868481794
      ],
      [
        "▁bezoekers",
        -10.089506374632009
      ],
      [
        "▁gratis",
        -10.089807929281026
      ],
      [
        "▁sovjet-unie",
        -10.089971112302809
      ],
      [
        "▁warme",
        -10.090277434551362
      ],
      [
        "▁conclusie",
        -10.090443567537033
      ],
      [
        "ont",
        -10.090638553514344
      ],
      [
        "▁beleid",
        -10.091164201761835
      ],
      [
        "▁albert",
        -10.091217631664124
      ],
      [
        ".\n*mother:\tmoet",
        -10.09153171154842
      ],
      [
        "▁actief",
        -10.091657984842826
      ],
      [
        "▁woon",
        -10.09213700482941
      ],
      [
        "▁filips",
        -10.092422355192943
      ],
      [
        "voer",
        -10.092493831219631
      ],
      [
        "▁vies",
        -10.09265446520185
      ],
      [
        "▁cel",
        -10.093282617922814
      ],
      [
        "▁moeite",
        -10.093321420453467
      ],
      [
        "▁veranderd",
        -10.093545998178488
      ],
      [
        "▁tak",
        -10.094603432901689
      ],
      [
        "▁sinterklaas",
        -10.094841050263174
      ],
      [
        "▁500",
        -10.09503943968678
      ],
      [
        "centrum",
        -10.095075857171572
      ],
      [
        "▁jezelf",
        -10.095466691331564
      ],
      [
        "▁spelers",
        -10.095522750039109
      ],
      [
        "▁feit",
        -10.095741998001575
      ],
      [
        "▁groeit",
        -10.095829205792654
      ],
      [
        "wedstrijd",
        -10.09594305064271
      ],
      [
        "▁tegelijk",
        -10.096097079488157
      ],
      [
        "▁hangen",
        -10.09612812058251
      ],
      [
        "▁ballon",
        -10.09679429397395
      ],
      [
        "pas",
        -10.096856109475514
      ],
      [
        "kken",
        -10.097116178881958
      ],
      [
        "▁winkels",
        -10.097280353033009
      ],
      [
        "▁bu",
        -10.097452172347428
      ],
      [
        "▁klok",
        -10.09750121893737
      ],
      [
        "▁verteld",
        -10.09828277300484
      ],
      [
        "anse",
        -10.098297349106069
      ],
      [
        "brand",
        -10.098489941843503
      ],
      [
        "▁kern",
        -10.099051805949674
      ],
      [
        "▁gevaar",
        -10.099068943418981
      ],
      [
        "▁for",
        -10.099144515075984
      ],
      [
        "▁voeren",
        -10.09922306183174
      ],
      [
        "▁west",
        -10.099273193978847
      ],
      [
        "30",
        -10.10032647078712
      ],
      [
        "▁sloeg",
        -10.100533697434024
      ],
      [
        "rit",
        -10.101147756050658
      ],
      [
        "▁zilver",
        -10.101861657074672
      ],
      [
        "▁steun",
        -10.102311634276578
      ],
      [
        "▁opgenomen",
        -10.10423586073726
      ],
      [
        "soort",
        -10.104287706390558
      ],
      [
        "king",
        -10.104353627213435
      ],
      [
        "▁kopen.",
        -10.105854957062832
      ],
      [
        "▁kinderen.",
        -10.10598882054485
      ],
      [
        "▁stok",
        -10.106936592917746
      ],
      [
        "▁luisteren",
        -10.107148386661294
      ],
      [
        "ak",
        -10.108174045043105
      ],
      [
        "ering",
        -10.108195496173902
      ],
      [
        "middel",
        -10.108198279269438
      ],
      [
        "iek",
        -10.108442993191279
      ],
      [
        "bak",
        -10.108735980178722
      ],
      [
        "▁'o",
        -10.109526049705288
      ],
      [
        "40",
        -10.110590940726546
      ],
      [
        "▁sc",
        -10.110706919886644
      ],
      [
        "▁gevonden.",
        -10.110895589060686
      ],
      [
        "▁thijs",
        -10.110995307660795
      ],
      [
        "im",
        -10.111203016549826
      ],
      [
        "▁spreekt",
        -10.111514835587998
      ],
      [
        "▁lacht",
        -10.112007198138969
      ],
      [
        "▁harde",
        -10.112730819463668
      ],
      [
        "kop",
        -10.11283850071458
      ],
      [
        "ix",
        -10.113009595575644
      ],
      [
        "▁angst",
        -10.1134928620991
      ],
      [
        "▁blik",
        -10.113519302583793
      ],
      [
        "▁stad.",
        -10.114483532965714
      ],
      [
        "▁ton",
        -10.114983452250211
      ],
      [
        "▁studie",
        -10.115167270867973
      ],
      [
        "▁bek",
        -10.115171142828995
      ],
      [
        "nk",
        -10.115421452606963
      ],
      [
        "▁ac",
        -10.115429761199119
      ],
      [
        "▁e.d.",
        -10.116278361091002
      ],
      [
        "▁buitenland",
        -10.11655902001673
      ],
      [
        "▁staten.",
        -10.116648651090905
      ],
      [
        "▁em",
        -10.116870097530091
      ],
      [
        "mm",
        -10.116978796927217
      ],
      [
        "hand",
        -10.11704005562402
      ],
      [
        "▁onderdelen",
        -10.117466891670482
      ],
      [
        "▁dagelijks",
        -10.117503844013509
      ],
      [
        "▁beurt",
        -10.118455243333521
      ],
      [
        "if",
        -10.118627974426307
      ],
      [
        "▁simon",
        -10.119214092114799
      ],
      [
        "a.",
        -10.11922711315065
      ],
      [
        "mar",
        -10.119422648144694
      ],
      [
        "▁leert",
        -10.119710147104362
      ],
      [
        "▁(18",
        -10.119742686138522
      ],
      [
        "▁ph",
        -10.120420488729359
      ],
      [
        "▁vooruit",
        -10.120672052942275
      ],
      [
        "▁directeur",
        -10.121672265248453
      ],
      [
        "bank",
        -10.122598354744818
      ],
      [
        "\teh",
        -10.122852984451661
      ],
      [
        "gi",
        -10.123744324483878
      ],
      [
        "▁max",
        -10.123843637454497
      ],
      [
        "▁brak",
        -10.124588518525208
      ],
      [
        "\tja.\n*mother:\t",
        -10.124934149624686
      ],
      [
        "▁gebeurtenissen",
        -10.125336180187968
      ],
      [
        "▁huilen",
        -10.126979415349885
      ],
      [
        "ard",
        -10.127266086045289
      ],
      [
        "ki",
        -10.127964109427616
      ],
      [
        "▁bewoners",
        -10.12813001389846
      ],
      [
        "▁leidt",
        -10.128213778467284
      ],
      [
        "pie",
        -10.128572648010445
      ],
      [
        "▁positie",
        -10.128940702625627
      ],
      [
        "mie",
        -10.129000726596654
      ],
      [
        "▁rennen",
        -10.129217087298207
      ],
      [
        "ssen",
        -10.129578588400536
      ],
      [
        "▁vrolijk",
        -10.129596095320508
      ],
      [
        "▁puzzel",
        -10.12979473791746
      ],
      [
        "▁graf",
        -10.13066422483117
      ],
      [
        "tro",
        -10.130782564402589
      ],
      [
        "▁schema",
        -10.131460060952644
      ],
      [
        "▁strip",
        -10.132724972863421
      ],
      [
        "▁slaven",
        -10.133095400280602
      ],
      [
        "▁liggen.",
        -10.133255182443929
      ],
      [
        "▁trots",
        -10.133496061260324
      ],
      [
        "ff",
        -10.133793986503612
      ],
      [
        "▁herkennen",
        -10.133976377483581
      ],
      [
        "▁cellen",
        -10.134190902128637
      ],
      [
        "▁schiet",
        -10.134264059457742
      ],
      [
        "12",
        -10.13437520925418
      ],
      [
        "▁oekraine",
        -10.134899638551454
      ],
      [
        "▁arbeiders",
        -10.135013526193251
      ],
      [
        "a,",
        -10.1353197427988
      ],
      [
        "▁gezellig",
        -10.135380673036451
      ],
      [
        "▁nest",
        -10.135577379597747
      ],
      [
        "ab",
        -10.13559085842575
      ],
      [
        "▁hierin",
        -10.136415733549416
      ],
      [
        "▁basisschool",
        -10.13662283012324
      ],
      [
        "▁wint",
        -10.136767463673037
      ],
      [
        "ding",
        -10.136841487709411
      ],
      [
        "▁plaat",
        -10.137112899086254
      ],
      [
        "ders",
        -10.1372953838714
      ],
      [
        "nie",
        -10.137410467630122
      ],
      [
        "▁vingers",
        -10.138021762555958
      ],
      [
        "▁bedoeling",
        -10.138182547859689
      ],
      [
        "▁rook",
        -10.138933601623553
      ],
      [
        "▁bekeken",
        -10.139049579517105
      ],
      [
        "▁zwembad",
        -10.13941249536114
      ],
      [
        "▁wedstrijden",
        -10.139594881934004
      ],
      [
        ".\nbij",
        -10.140896624098525
      ],
      [
        "fo",
        -10.141532837009857
      ],
      [
        "tekst",
        -10.14158555628272
      ],
      [
        "gedurende",
        -10.141704875017275
      ],
      [
        "▁he?\n*",
        -10.142035235828498
      ],
      [
        "▁miljoenen",
        -10.142168454427358
      ],
      [
        "▁kopje",
        -10.142971475661735
      ],
      [
        "markt",
        -10.143824564831093
      ],
      [
        "zi",
        -10.14409303803155
      ],
      [
        "▁verbonden",
        -10.144661096058048
      ],
      [
        "▁beschermen",
        -10.145297314956295
      ],
      [
        "▁koeien",
        -10.145350121845116
      ],
      [
        "\nopgave",
        -10.145479860384647
      ],
      [
        "▁stuur",
        -10.145737554093326
      ],
      [
        "▁mexico",
        -10.146118031114955
      ],
      [
        "▁verwacht",
        -10.147045615901078
      ],
      [
        "▁pad",
        -10.147275865856603
      ],
      [
        ".\ndit",
        -10.14736408949496
      ],
      [
        "▁wa",
        -10.147438347471066
      ],
      [
        "▁buitenlandse",
        -10.14743958664171
      ],
      [
        "▁verkopen",
        -10.148484492501728
      ],
      [
        "achtig",
        -10.148736068795408
      ],
      [
        "80",
        -10.14996313091305
      ],
      [
        "▁tekeningen",
        -10.151042817351364
      ],
      [
        "▁musical",
        -10.151277873742877
      ],
      [
        "▁anna",
        -10.151757665600421
      ],
      [
        "▁volgen",
        -10.151765672202067
      ],
      [
        "▁normale",
        -10.15221510642863
      ],
      [
        "▁vos",
        -10.152241679618665
      ],
      [
        "▁nemen.",
        -10.152473168521103
      ],
      [
        "hout",
        -10.153258217113862
      ],
      [
        "▁waren.",
        -10.153762161830866
      ],
      [
        "jaar",
        -10.155004242632387
      ],
      [
        "▁prijzen",
        -10.155231211436256
      ],
      [
        "zak",
        -10.155311147997521
      ],
      [
        "82",
        -10.155401230172908
      ],
      [
        "bon",
        -10.155602547122493
      ],
      [
        "▁gedicht",
        -10.15564008920342
      ],
      [
        "oog",
        -10.15566012242534
      ],
      [
        "hal",
        -10.155940905594075
      ],
      [
        "▁don",
        -10.156017528120145
      ],
      [
        "leg",
        -10.15668642470057
      ],
      [
        "boom",
        -10.156761178249129
      ],
      [
        "▁jammer",
        -10.157463189108572
      ],
      [
        "▁getekend",
        -10.157906397617882
      ],
      [
        "▁'daar",
        -10.15857393526138
      ],
      [
        "▁schuld",
        -10.159576454407013
      ],
      [
        "soorten",
        -10.159914250329203
      ],
      [
        "▁beker",
        -10.16088235185261
      ],
      [
        "▁rock",
        -10.16093697269686
      ],
      [
        "▁onge",
        -10.16100369604013
      ],
      [
        "▁spiegel",
        -10.161086090584718
      ],
      [
        "▁war",
        -10.16179357854798
      ],
      [
        "▁(regel",
        -10.162015677869814
      ],
      [
        "▁fo",
        -10.162867963991332
      ],
      [
        ".\n*mother:\tdan",
        -10.163156480996424
      ],
      [
        "▁term",
        -10.16325121419636
      ],
      [
        "dy",
        -10.163403328242545
      ],
      [
        "▁2024",
        -10.163589332713938
      ],
      [
        "winkel",
        -10.16365945391511
      ],
      [
        "▁route",
        -10.163874996973156
      ],
      [
        "▁ontwikkeld",
        -10.16428798318373
      ],
      [
        "▁leeuw",
        -10.165611158961315
      ],
      [
        "▁hof",
        -10.165858522389957
      ],
      [
        "▁draagt",
        -10.166462255451469
      ],
      [
        "\theb",
        -10.166597706789926
      ],
      [
        "▁oudere",
        -10.166825692079675
      ],
      [
        "▁gesprek",
        -10.166962528160099
      ],
      [
        "▁bi",
        -10.167130750960283
      ],
      [
        "▁resultaat",
        -10.167805992857641
      ],
      [
        "\thm",
        -10.168389414863356
      ],
      [
        "▁apparaat",
        -10.168977451583245
      ],
      [
        "▁aspecten",
        -10.169059696658756
      ],
      [
        "▁woonden",
        -10.169149497829999
      ],
      [
        "com",
        -10.169161187839956
      ],
      [
        "▁konijn",
        -10.169331026954502
      ],
      [
        "oe",
        -10.169898466700198
      ],
      [
        "▁plat",
        -10.16993634613602
      ],
      [
        "redenen",
        -10.170108738439605
      ],
      [
        "▁opleiding",
        -10.170370728116385
      ],
      [
        "▁benen",
        -10.170430441567934
      ],
      [
        "▁(het",
        -10.172098639337127
      ],
      [
        "cu",
        -10.172172732840243
      ],
      [
        "▁vrijdag",
        -10.172644060949825
      ],
      [
        "vers",
        -10.17270447269011
      ],
      [
        "▁bewegen",
        -10.172786758126069
      ],
      [
        "▁prima",
        -10.172999270076316
      ],
      [
        "systeem",
        -10.17334869809882
      ],
      [
        "ip",
        -10.173650819770629
      ],
      [
        "ning",
        -10.17399739359701
      ],
      [
        "▁geleid",
        -10.174082010294391
      ],
      [
        "▁5.",
        -10.17453621484376
      ],
      [
        "door",
        -10.174757423716091
      ],
      [
        "▁liedjes",
        -10.174778659619594
      ],
      [
        "▁attractie",
        -10.175387803591253
      ],
      [
        "▁bewering",
        -10.17553284655764
      ],
      [
        "▁gebracht.",
        -10.17558905697838
      ],
      [
        "▁1999",
        -10.17581755474998
      ],
      [
        "che",
        -10.176423683808888
      ],
      [
        "▁2,",
        -10.176882810397913
      ],
      [
        "▁'zo",
        -10.177541853897731
      ],
      [
        "▁begrip",
        -10.177963118564147
      ],
      [
        "▁donald",
        -10.178555874902768
      ],
      [
        "wet",
        -10.178939012436265
      ],
      [
        "ez",
        -10.179096957342
      ],
      [
        "▁twintig",
        -10.180074426087529
      ],
      [
        "▁geloven",
        -10.180075486723483
      ],
      [
        "▁leerling",
        -10.180401542344875
      ],
      [
        "▁trouwens",
        -10.180588371772572
      ],
      [
        "▁brussel",
        -10.18093072282001
      ],
      [
        "▁sloot",
        -10.1819291662641
      ],
      [
        "▁ko",
        -10.182093253639787
      ],
      [
        "▁gevormd",
        -10.182397347622107
      ],
      [
        "▁mal",
        -10.182754614837009
      ],
      [
        "▁zee.",
        -10.182918065761223
      ],
      [
        "▁arbeid",
        -10.183349091231115
      ],
      [
        "eel",
        -10.183722657673915
      ],
      [
        "23)",
        -10.183878894656655
      ],
      [
        "▁gemakkelijk",
        -10.184357275275413
      ],
      [
        "\tuh",
        -10.184786712090212
      ],
      [
        "▁lamp",
        -10.184975719547634
      ],
      [
        "▁bedoel",
        -10.185651218502333
      ],
      [
        "▁sturen",
        -10.18639227954578
      ],
      [
        "reis",
        -10.186547300150707
      ],
      [
        "▁levert",
        -10.187018201420601
      ],
      [
        "▁zeggen.",
        -10.187034817539303
      ],
      [
        "▁kilo",
        -10.18720803003062
      ],
      [
        "70",
        -10.188030364469748
      ],
      [
        "▁ku",
        -10.189469759400101
      ],
      [
        "▁verloor",
        -10.189682007243498
      ],
      [
        "90",
        -10.189892254399581
      ],
      [
        "\teven",
        -10.190970404029954
      ],
      [
        "del",
        -10.191056158229031
      ],
      [
        "▁pet",
        -10.191349345044246
      ],
      [
        "line",
        -10.19157399045292
      ],
      [
        "sta",
        -10.192494868291117
      ],
      [
        "▁hogere",
        -10.192686429603881
      ],
      [
        "▁erachter",
        -10.19334599282412
      ],
      [
        "▁...een",
        -10.193567603106882
      ],
      [
        "▁ju",
        -10.193761734897087
      ],
      [
        "▁boerderij",
        -10.19376295052832
      ],
      [
        "▁europees",
        -10.193917311503455
      ],
      [
        "▁aanval",
        -10.193932319069319
      ],
      [
        "60",
        -10.194032515075023
      ],
      [
        "vrijwel",
        -10.194167982134612
      ],
      [
        "spelen",
        -10.194168954728923
      ],
      [
        "▁vlieg",
        -10.194744272823431
      ],
      [
        ".\n*mother:\tkijk",
        -10.195108350449836
      ],
      [
        "▁ermee",
        -10.19538076954274
      ],
      [
        "▁minstens",
        -10.195813370503645
      ],
      [
        "▁vallen.",
        -10.196737578449746
      ],
      [
        "▁smaak",
        -10.19685254802997
      ],
      [
        "▁voorwerp",
        -10.197011310919805
      ],
      [
        "▁horen.",
        -10.197064181742402
      ],
      [
        "▁ek",
        -10.197904104710414
      ],
      [
        "▁sla",
        -10.198159821966712
      ],
      [
        "15",
        -10.19848372355155
      ],
      [
        "]",
        -10.198825860405943
      ],
      [
        "▁fe",
        -10.19889706201819
      ],
      [
        "▁keren",
        -10.199259613288941
      ],
      [
        "▁zacht",
        -10.199751609904677
      ],
      [
        "▁(115",
        -10.200084682750479
      ],
      [
        "tje.",
        -10.200210982422128
      ],
      [
        "▁vriendin",
        -10.20025680139357
      ],
      [
        "▁woestijn",
        -10.200434292623243
      ],
      [
        "▁anti",
        -10.200786269952314
      ],
      [
        "▁reed",
        -10.201283781108987
      ],
      [
        "▁eerlijk",
        -10.201796881985272
      ],
      [
        "▁interview",
        -10.201902298740888
      ],
      [
        "▁sven",
        -10.201913673091639
      ],
      [
        ".\nwat",
        -10.202412088424783
      ],
      [
        "bb",
        -10.202593753329989
      ],
      [
        "▁vandaan",
        -10.202631255984056
      ],
      [
        "▁vlucht",
        -10.202722926928297
      ],
      [
        "woord",
        -10.202810263709477
      ],
      [
        "▁resultaten",
        -10.203955120277168
      ],
      [
        "▁vervolg",
        -10.204033648945634
      ],
      [
        "▁duurde",
        -10.204229495154514
      ],
      [
        "▁camera",
        -10.204284229894586
      ],
      [
        "ag",
        -10.204482794345267
      ],
      [
        "▁wal",
        -10.204874409313096
      ],
      [
        "▁discussie",
        -10.20512888774911
      ],
      [
        "▁daarop",
        -10.205173021553101
      ],
      [
        "11",
        -10.20531620120906
      ],
      [
        "kamp",
        -10.205333463180095
      ],
      [
        "air",
        -10.20582620464463
      ],
      [
        "▁verkoop",
        -10.206858020798382
      ],
      [
        "▁kindje",
        -10.208776045527241
      ],
      [
        "aire",
        -10.208959296680078
      ],
      [
        "▁darm",
        -10.209535745797476
      ],
      [
        "▁blijven.",
        -10.209788428761584
      ],
      [
        "▁pinkeltje",
        -10.210814067045655
      ],
      [
        "nd",
        -10.21090476915698
      ],
      [
        "▁goederen",
        -10.210994380437775
      ],
      [
        "▁geslacht",
        -10.211285896589995
      ],
      [
        "▁verjaardag",
        -10.211485684564046
      ],
      [
        "handel",
        -10.211509563020751
      ],
      [
        "▁soep",
        -10.211803639699777
      ],
      [
        "lan",
        -10.212257022990967
      ],
      [
        "▁oren",
        -10.212999227145154
      ],
      [
        "▁stelde",
        -10.213119932675708
      ],
      [
        "▁rot",
        -10.213173719895615
      ],
      [
        "programma",
        -10.213750200341732
      ],
      [
        "▁heks",
        -10.214033906642747
      ],
      [
        "▁antwoordt",
        -10.21451021206117
      ],
      [
        "enorme",
        -10.214537570064497
      ],
      [
        "▁hal",
        -10.21472145478668
      ],
      [
        "▁sluiten",
        -10.215449163226243
      ],
      [
        "▁maat",
        -10.215636744234423
      ],
      [
        "▁centimeter",
        -10.215648131291168
      ],
      [
        "▁verhaaltje",
        -10.215929566870457
      ],
      [
        "rol",
        -10.216269636116898
      ],
      [
        "▁verkeer",
        -10.216603568841508
      ],
      [
        "▁dans",
        -10.216758810169095
      ],
      [
        "▁merk",
        -10.217151493881905
      ],
      [
        "rk",
        -10.218453368572993
      ],
      [
        "▁meet",
        -10.218667995052028
      ],
      [
        "▁minuut",
        -10.21913775328585
      ],
      [
        "▁rob",
        -10.219172581099766
      ],
      [
        "▁dijk",
        -10.219216420071588
      ],
      [
        "maar",
        -10.219369960024064
      ],
      [
        "▁test",
        -10.219771325173934
      ],
      [
        "▁brazilie",
        -10.219810447895386
      ],
      [
        "▁trouwde",
        -10.220615072742778
      ],
      [
        "que",
        -10.22079015069333
      ],
      [
        "▁helpen.",
        -10.220996157986974
      ],
      [
        "▁veranderde",
        -10.221350940978574
      ],
      [
        "▁vloer",
        -10.221787596806436
      ],
      [
        "▁wol",
        -10.2218722022173
      ],
      [
        "▁you",
        -10.221988323452411
      ],
      [
        "▁harry",
        -10.221993388347684
      ],
      [
        "▁standaard",
        -10.222427548119105
      ],
      [
        "▁oceaan",
        -10.222623827064076
      ],
      [
        "leden",
        -10.222648852048094
      ],
      [
        "beeld",
        -10.223027870833919
      ],
      [
        "pers",
        -10.22326256838159
      ],
      [
        "▁indonesie",
        -10.223292581866612
      ],
      [
        "\took",
        -10.223376052337303
      ],
      [
        "▁munt",
        -10.223514643326826
      ],
      [
        "▁mannetje",
        -10.223541317653247
      ],
      [
        "pel",
        -10.22356293138403
      ],
      [
        "▁italiaanse",
        -10.223611008256317
      ],
      [
        "▁32",
        -10.223793977106034
      ],
      [
        "▁'m",
        -10.225895821060785
      ],
      [
        "vin",
        -10.225932058772838
      ],
      [
        "stein",
        -10.226634023908737
      ],
      [
        "aars",
        -10.22726412516931
      ],
      [
        "▁show",
        -10.227710500652893
      ],
      [
        "▁mor",
        -10.228135534473672
      ],
      [
        "?\n*mother:\tnee",
        -10.228541146586185
      ],
      [
        "\n*mother:",
        -10.228565815922178
      ],
      [
        "han",
        -10.22936726161051
      ],
      [
        "▁bedenken",
        -10.229492639519012
      ],
      [
        "ya",
        -10.229538844758654
      ],
      [
        "▁voelen",
        -10.22956424740144
      ],
      [
        "▁sint",
        -10.229595401198136
      ],
      [
        "▁berlijn",
        -10.229753491200086
      ],
      [
        "75",
        -10.229841450441981
      ],
      [
        "▁denemarken",
        -10.229873690485125
      ],
      [
        "▁sleutel",
        -10.230201283067656
      ],
      [
        "▁1000",
        -10.230422879342544
      ],
      [
        "ty",
        -10.230434448488285
      ],
      [
        "ele",
        -10.23044554656882
      ],
      [
        "▁mogelijke",
        -10.230452174580618
      ],
      [
        "cha",
        -10.231275298478941
      ],
      [
        "▁klei",
        -10.231996851299986
      ],
      [
        "▁genaamd",
        -10.232744072224882
      ],
      [
        "mond",
        -10.23277651999334
      ],
      [
        "24)",
        -10.233909532215254
      ],
      [
        "\tmet",
        -10.234278374304953
      ],
      [
        "\n\nhet",
        -10.234503145793026
      ],
      [
        "▁vers",
        -10.234532520074556
      ],
      [
        "kom",
        -10.234950704856729
      ],
      [
        "▁gezet",
        -10.236932074383342
      ],
      [
        "partij",
        -10.237337201400868
      ],
      [
        "▁naartoe",
        -10.23757933742285
      ],
      [
        "▁liefde",
        -10.237884552793238
      ],
      [
        "▁percentage",
        -10.238007537151486
      ],
      [
        "ap",
        -10.238088824726603
      ],
      [
        "nes",
        -10.238474415969545
      ],
      [
        "▁landschap",
        -10.239720863518336
      ],
      [
        "▁moeder.",
        -10.239892604784774
      ],
      [
        "▁stevig",
        -10.240497152455912
      ],
      [
        "17",
        -10.24061234667117
      ],
      [
        "▁emmer",
        -10.240932936277222
      ],
      [
        "zee",
        -10.241376437794681
      ],
      [
        ".000",
        -10.241568433631542
      ],
      [
        "▁project",
        -10.242027636958834
      ],
      [
        "cellen",
        -10.242131169946248
      ],
      [
        "▁slim",
        -10.242622728436299
      ],
      [
        "ijs",
        -10.242631724034684
      ],
      [
        "car",
        -10.24266708294412
      ],
      [
        "▁staat.",
        -10.242708470237615
      ],
      [
        "▁springen",
        -10.243214929471172
      ],
      [
        "▁site",
        -10.243270658884969
      ],
      [
        "ana",
        -10.243328669649046
      ],
      [
        "▁metaal",
        -10.244559536375334
      ],
      [
        "stof",
        -10.24457132337584
      ],
      [
        "▁maatregelen",
        -10.245449036341816
      ],
      [
        "▁vs",
        -10.245526731996474
      ],
      [
        "▁schouders",
        -10.246881054528279
      ],
      [
        "▁steekt",
        -10.246888263156158
      ],
      [
        " ·",
        -10.246952191956643
      ],
      [
        ".\n*mother:\thet",
        -10.247089141850346
      ],
      [
        "wacht",
        -10.247144274852982
      ],
      [
        "▁hi",
        -10.247263779410304
      ],
      [
        "▁middelbare",
        -10.247451653523946
      ],
      [
        "zelfde",
        -10.248402760694926
      ],
      [
        "▁sprong",
        -10.248418185946917
      ],
      [
        "wil",
        -10.248473414206146
      ],
      [
        "druk",
        -10.248677850924121
      ],
      [
        "▁nogal",
        -10.24930470930774
      ],
      [
        "▁fles",
        -10.249771713677166
      ],
      [
        "▁xxx.\n*",
        -10.249939058628751
      ],
      [
        "houden",
        -10.250133582955534
      ],
      [
        "▁(25",
        -10.250720400399118
      ],
      [
        "▁pu",
        -10.250906438714843
      ],
      [
        "▁klap",
        -10.250925361097256
      ],
      [
        "91)",
        -10.25110252962364
      ],
      [
        "kers",
        -10.251547706666763
      ],
      [
        "▁ridder",
        -10.25220921739357
      ],
      [
        "geld",
        -10.252217555293473
      ],
      [
        "▁schrijven.",
        -10.253241204682787
      ],
      [
        "▁city",
        -10.253582372523285
      ],
      [
        "iz",
        -10.253975455417716
      ],
      [
        "▁brengen.",
        -10.253982735251345
      ],
      [
        "67",
        -10.254517640703902
      ],
      [
        "cel",
        -10.2546082686722
      ],
      [
        "actie",
        -10.254825407598844
      ],
      [
        "▁geopend",
        -10.254853793418505
      ],
      [
        " ·\n",
        -10.255148693791565
      ],
      [
        "▁fc",
        -10.25526013074727
      ],
      [
        "▁ti",
        -10.255396109512583
      ],
      [
        "▁duizend",
        -10.255755840774391
      ],
      [
        "▁koen",
        -10.256544878120042
      ],
      [
        "▁haren",
        -10.25672803005856
      ],
      [
        "▁online",
        -10.256831376371675
      ],
      [
        "▁pieter",
        -10.257010309998513
      ],
      [
        "▁pri",
        -10.257053070176013
      ],
      [
        "▁vliegt",
        -10.257316036179017
      ],
      [
        "iers",
        -10.257659704130766
      ],
      [
        "▁toernooi",
        -10.257866137617508
      ],
      [
        "▁getal",
        -10.258104766033489
      ],
      [
        "rs",
        -10.258133166980297
      ],
      [
        "▁portugal",
        -10.258794834281899
      ],
      [
        "▁voetballen",
        -10.258912757909682
      ],
      [
        "▁red",
        -10.259098897282005
      ],
      [
        "▁centraal",
        -10.259559683535398
      ],
      [
        "tu",
        -10.259670737226706
      ],
      [
        "▁bon",
        -10.259907634282921
      ],
      [
        "ban",
        -10.260229904269298
      ],
      [
        "▁koek",
        -10.260364927893335
      ],
      [
        "▁record",
        -10.260455028627092
      ],
      [
        "▁duits",
        -10.260642677773019
      ],
      [
        "▁raakt",
        -10.261049082640191
      ],
      [
        "maak",
        -10.261152254259185
      ],
      [
        "nog",
        -10.261331094237104
      ],
      [
        "▁d'r",
        -10.261332675971182
      ],
      [
        "ang",
        -10.263539569033199
      ],
      [
        "▁geproduceerd",
        -10.263867302884552
      ],
      [
        "▁poten",
        -10.264058579611476
      ],
      [
        "21",
        -10.264407076681614
      ],
      [
        "▁stierf",
        -10.26473171679694
      ],
      [
        "▁afkomstig",
        -10.264891164912198
      ],
      [
        "▁uitzending",
        -10.265247894078637
      ],
      [
        "▁britten",
        -10.265691710159919
      ],
      [
        "▁maag",
        -10.26594390053626
      ],
      [
        "▁politici",
        -10.266049163619652
      ],
      [
        "▁tevreden",
        -10.266050749493047
      ],
      [
        "▁stak",
        -10.26630746962318
      ],
      [
        "▁omgezet",
        -10.266657210654085
      ],
      [
        "oor",
        -10.266685428072869
      ],
      [
        "▁zanger",
        -10.266721044450732
      ],
      [
        "▁antwoord.",
        -10.266752795952051
      ],
      [
        "▁gehele",
        -10.266824508368028
      ],
      [
        "▁restaurant",
        -10.266984992224483
      ],
      [
        "▁(127",
        -10.267345757798939
      ],
      [
        "hoofd",
        -10.267518497658433
      ],
      [
        "ji",
        -10.267548681779493
      ],
      [
        "84",
        -10.267686308194705
      ],
      [
        "▁brandweer",
        -10.26814947249466
      ],
      [
        "▁sal",
        -10.268164658352408
      ],
      [
        "▁maandag",
        -10.268505624130935
      ],
      [
        "\tga",
        -10.268521197799657
      ],
      [
        "▁vlug",
        -10.268828815326728
      ],
      [
        "▁levens",
        -10.268999342907776
      ],
      [
        "13",
        -10.269039605623838
      ],
      [
        ".\n\nna",
        -10.269123011037243
      ],
      [
        "▁sixt",
        -10.269263163434815
      ],
      [
        "▁'goed",
        -10.269401273007919
      ],
      [
        "woorden",
        -10.26943091241262
      ],
      [
        "▁hartstikke",
        -10.26969611417454
      ],
      [
        "▁branden",
        -10.269868709276569
      ],
      [
        "▁bleven",
        -10.270035338644442
      ],
      [
        "▁ierland",
        -10.270591415280375
      ],
      [
        "▁bereiken",
        -10.270663320922516
      ],
      [
        "▁mars",
        -10.270796582143866
      ],
      [
        "▁voorwerpen",
        -10.270828780748202
      ],
      [
        "ris",
        -10.271512628408054
      ],
      [
        ".\n\nlinks",
        -10.272025868610823
      ],
      [
        "▁middag",
        -10.273373291161255
      ],
      [
        "▁mu",
        -10.273408363407482
      ],
      [
        "meter",
        -10.273592950953653
      ],
      [
        "▁honderden",
        -10.2736783261042
      ],
      [
        "▁he?",
        -10.273845595511277
      ],
      [
        "zulke",
        -10.273860066128595
      ],
      [
        "haar",
        -10.274375551023937
      ],
      [
        "▁overleden",
        -10.275308375064828
      ],
      [
        "▁waarna",
        -10.2760329753322
      ],
      [
        "▁wetenschap",
        -10.276087717124849
      ],
      [
        "▁verplicht",
        -10.276109505536803
      ],
      [
        "▁xiv",
        -10.27618989929428
      ],
      [
        "▁wereldwijd",
        -10.276406706569428
      ],
      [
        "ku",
        -10.27664975470752
      ],
      [
        "▁zul",
        -10.276784561814484
      ],
      [
        "▁els",
        -10.276952000811502
      ],
      [
        "▁huwelijk",
        -10.277080217866114
      ],
      [
        "▁1998",
        -10.277189634618676
      ],
      [
        "▁haast",
        -10.277241306707186
      ],
      [
        "▁robert",
        -10.27789512715448
      ],
      [
        "kwam",
        -10.27816517540721
      ],
      [
        "▁europa.",
        -10.278570172925187
      ],
      [
        "▁britt",
        -10.279136507380985
      ],
      [
        ").\n\n",
        -10.27915841535466
      ],
      [
        "▁klonk",
        -10.279271005259858
      ],
      [
        "▁kranten",
        -10.280047807388307
      ],
      [
        "▁argumenten",
        -10.280257094752063
      ],
      [
        "bu",
        -10.28106729144545
      ],
      [
        "▁zei:",
        -10.281146817512504
      ],
      [
        "▁gehoord",
        -10.281255427342405
      ],
      [
        "▁olifant",
        -10.28141552649839
      ],
      [
        "▁behoorlijk",
        -10.281456737052498
      ],
      [
        "▁70",
        -10.281845991255274
      ],
      [
        "▁begrijpen",
        -10.282246764069555
      ],
      [
        "▁samenwerking",
        -10.282401804771464
      ],
      [
        "▁klik",
        -10.282860285825457
      ],
      [
        "48",
        -10.283379147671752
      ],
      [
        "▁gehouden.",
        -10.284441030999735
      ],
      [
        "▁vernoemd",
        -10.285163471789957
      ],
      [
        "weer",
        -10.286599376334816
      ],
      [
        "ng",
        -10.287097039669735
      ],
      [
        "▁race",
        -10.287842251507133
      ],
      [
        "▁im",
        -10.287845679671065
      ],
      [
        "▁nergens",
        -10.288136242483274
      ],
      [
        "▁opge",
        -10.288160556097951
      ],
      [
        "▁volwassenen",
        -10.288265053170822
      ],
      [
        "45",
        -10.288474633637906
      ],
      [
        "▁james",
        -10.288725206201342
      ],
      [
        "avond",
        -10.288801934261052
      ],
      [
        "▁afge",
        -10.289098383316972
      ],
      [
        "▁materialen",
        -10.28932757781422
      ],
      [
        "▁opeten",
        -10.289925966761967
      ],
      [
        "▁trouw",
        -10.290709190278886
      ],
      [
        "▁stom",
        -10.29072024900175
      ],
      [
        "▁voordeel",
        -10.290914216932677
      ],
      [
        "▁techniek",
        -10.291516109984684
      ],
      [
        "ianus",
        -10.29157656193442
      ],
      [
        "stuk",
        -10.291827725145309
      ],
      [
        "▁johan",
        -10.292428274379777
      ],
      [
        ".\n\ner",
        -10.293022524056227
      ],
      [
        "ringen",
        -10.293047142890746
      ],
      [
        "▁wisten",
        -10.293885613859265
      ],
      [
        "▁roepen",
        -10.294066211110781
      ],
      [
        "▁behoort",
        -10.294106565311768
      ],
      [
        "▁elektriciteit",
        -10.29419954068167
      ],
      [
        "sc",
        -10.294257291484982
      ],
      [
        "▁stop",
        -10.294456877344434
      ],
      [
        "▁woonde",
        -10.294793183266762
      ],
      [
        "▁uitgezonden",
        -10.294863342213246
      ],
      [
        "▁voorstelling",
        -10.295017904728015
      ],
      [
        "gegaan",
        -10.295408974948757
      ],
      [
        "gas",
        -10.295643338877369
      ],
      [
        "▁supermarkt",
        -10.29569258986822
      ],
      [
        "99)",
        -10.295996396364878
      ],
      [
        "▁zwitserland",
        -10.296354470020393
      ],
      [
        "▁tong",
        -10.29681573154281
      ],
      [
        "▁zuur",
        -10.29699219602163
      ],
      [
        "▁1990",
        -10.297159193920667
      ],
      [
        "▁ramp",
        -10.29746200018153
      ],
      [
        "weet",
        -10.297871147049943
      ],
      [
        "▁lagen",
        -10.298678861411107
      ],
      [
        "▁verdienen",
        -10.298686853123394
      ],
      [
        "▁alex",
        -10.298837618236014
      ],
      [
        "▁celesti",
        -10.299089200321383
      ],
      [
        "▁niels",
        -10.300188101152756
      ],
      [
        "▁schrift.",
        -10.300584859692805
      ],
      [
        "▁(53",
        -10.300786519875412
      ],
      [
        "▁kanaal",
        -10.300799976189637
      ],
      [
        "lang",
        -10.301225229010921
      ],
      [
        "kast",
        -10.301229197664309
      ],
      [
        "▁hoofdstuk",
        -10.301954551736326
      ],
      [
        "▁hoeven",
        -10.302249151806475
      ],
      [
        "fa",
        -10.302735576897845
      ],
      [
        "▁graaf",
        -10.302774080135393
      ],
      [
        "▁vielen",
        -10.304261189759238
      ],
      [
        "▁vechten",
        -10.304523704508203
      ],
      [
        "▁luxemburg",
        -10.304643415608197
      ],
      [
        "▁stads",
        -10.30466946918683
      ],
      [
        "▁'waar",
        -10.304884677895704
      ],
      [
[...]
