{
  "version": "1.0",
  "truncation": null,
  "padding": null,
  "added_tokens": [
    {
      "id": 0,
      "content": "<UNK>",
      "single_word": false,
      "lstrip": false,
      "rstrip": false,
      "normalized": false,
      "special": true
    },
    {
      "id": 1,
      "content": "<PAD>",
      "single_word": false,
      "lstrip": false,
      "rstrip": false,
      "normalized": false,
      "special": true
    },
    {
      "id": 2,
      "content": "<CLS>",
      "single_word": false,
      "lstrip": false,
      "rstrip": false,
      "normalized": false,
      "special": true
    },
    {
      "id": 3,
      "content": "<SEP>",
      "single_word": false,
      "lstrip": false,
      "rstrip": false,
      "normalized": false,
      "special": true
    },
    {
      "id": 4,
      "content": "<MASK>",
      "single_word": false,
      "lstrip": false,
      "rstrip": false,
      "normalized": false,
      "special": true
    }
  ],
  "normalizer": {
    "type": "Sequence",
    "normalizers": [
      {
        "type": "NFD"
      },
      {
        "type": "StripAccents"
      },
      {
        "type": "Lowercase"
      }
    ]
  },
  "pre_tokenizer": {
    "type": "ByteLevel",
    "add_prefix_space": false,
    "trim_offsets": true,
    "use_regex": true
  },
  "post_processor": {
    "type": "ByteLevel",
    "add_prefix_space": true,
    "trim_offsets": true,
    "use_regex": true
  },
  "decoder": {
    "type": "ByteLevel",
    "add_prefix_space": true,
    "trim_offsets": true,
    "use_regex": true
  },
  "model": {
    "type": "Unigram",
    "unk_id": 0,
    "vocab": [
      [
        "<UNK>",
        0.0
      ],
      [
        "<PAD>",
        0.0
      ],
      [
        "<CLS>",
        0.0
      ],
      [
        "<SEP>",
        0.0
      ],
      [
        "<MASK>",
        0.0
      ],
      [
        ".",
        -2.9319813467435605
      ],
      [
        "Ġ",
        -2.964023057111456
      ],
      [
        "Ġde",
        -3.435835190091437
      ],
      [
        "Ċ",
        -3.5516475639496257
      ],
      [
        "en",
        -3.6450180693501792
      ],
      [
        ":",
        -3.9648414541750263
      ],
      [
        "Ġeen",
        -4.129141258887461
      ],
      [
        ",",
        -4.145377304552881
      ],
      [
        "Ġhet",
        -4.158626148271869
      ],
      [
        "*",
        -4.189089366367963
      ],
      [
        "ĉ",
        -4.2161866273517195
      ],
      [
        "Ġvan",
        -4.238298734095064
      ],
      [
        "Ġin",
        -4.372731003828184
      ],
      [
        "e",
        -4.546852895659942
      ],
      [
        "s",
        -4.599392479808477
      ],
      [
        "Ġis",
        -4.692663894963285
      ],
      [
        "'",
        -4.840548162487009
      ],
      [
        "-",
        -4.900905715778078
      ],
      [
        "child",
        -4.901607862632856
      ],
      [
        "_",
        -4.922878187916371
      ],
      [
        "target",
        -4.930342219206375
      ],
      [
        "Ġop",
        -4.940004292730791
      ],
      [
        "Ġje",
        -5.059756776175076
      ],
      [
        "Ġdat",
        -5.078826789696906
      ],
      [
        "t",
        -5.179196492388304
      ],
      [
        "Ġzijn",
        -5.216331562576567
      ],
      [
        "?",
        -5.254162950501895
      ],
      [
        "Ġmet",
        -5.266684624452708
      ],
      [
        "n",
        -5.276498355234116
      ],
      [
        "Ġte",
        -5.344817404090875
      ],
      [
        "(",
        -5.353433447913499
      ],
      [
        ")",
        -5.382758170294833
      ],
      [
        "Ġze",
        -5.388329451608087
      ],
      [
        "Ġdie",
        -5.427188001874404
      ],
      [
        "Ġvoor",
        -5.449326794284005
      ],
      [
        "Ġniet",
        -5.481564164617341
      ],
      [
        "Ġer",
        -5.538318266667089
      ],
      [
        "mother",
        -5.5515260989180515
      ],
      [
        "Ġhij",
        -5.59921436691492
      ],
      [
        "Ġook",
        -5.67402646111055
      ],
      [
        "Ġaan",
        -5.683796626496399
      ],
      [
        "or",
        -5.702642278894697
      ],
      [
        "i",
        -5.7335774507795225
      ],
      [
        "ĠÂ·",
        -5.7520096843815836
      ],
      [
        "Ġuit",
        -5.785693128548511
      ],
      [
        "de",
        -5.81297537601686
      ],
      [
        "Ġmaar",
        -5.821589896497134
      ],
      [
        "Ġals",
        -5.8393782624466795
      ],
      [
        "Ġbij",
        -5.850893726055807
      ],
      [
        "investigat",
        -5.866477800788328
      ],
      [
        "Ġik",
        -5.880102243729496
      ],
      [
        "d",
        -5.911640416531197
      ],
      [
        "a",
        -5.912622483982529
      ],
      [
        "Ġnaar",
        -5.929520875953717
      ],
      [
        "Ġom",
        -5.96611437231399
      ],
      [
        "Ġdan",
        -5.9869716024239334
      ],
      [
        "1",
        -5.989513193063869
      ],
      [
        "Ġwas",
        -5.9957717654268325
      ],
      [
        "Ġdoor",
        -6.015089901248345
      ],
      [
        "Ġof",
        -6.049297424800164
      ],
      [
        "Ġzo",
        -6.113206598434942
      ],
      [
        "!",
        -6.138317647700042
      ],
      [
        "Ġover",
        -6.191211424789694
      ],
      [
        "ja",
        -6.2170893312477205
      ],
      [
        "Ġwerd",
        -6.27776496603067
      ],
      [
        "Ġdeze",
        -6.2822069798839575
      ],
      [
        "Ġdit",
        -6.286402889018547
      ],
      [
        "Ġnog",
        -6.289352316172771
      ],
      [
        "Ġwordt",
        -6.306857286869153
      ],
      [
        "l",
        -6.320869210437937
      ],
      [
        "Ġheeft",
        -6.342985870808722
      ],
      [
        "Ġwat",
        -6.357502730990699
      ],
      [
        "o",
        -6.367105241807268
      ],
      [
        "Ġworden",
        -6.391757440706927
      ],
      [
        "in",
        -6.417294941410839
      ],
      [
        "Ġwel",
        -6.481769395034622
      ],
      [
        "Ġkan",
        -6.506003480424106
      ],
      [
        "xxx",
        -6.50796763215218
      ],
      [
        "Ġveel",
        -6.545983678642729
      ],
      [
        "Ġmeer",
        -6.549415863973273
      ],
      [
        "2",
        -6.574959872304117
      ],
      [
        "Ġhaar",
        -6.5752374504620335
      ],
      [
        "Ġwaar",
        -6.612316186412217
      ],
      [
        "er",
        -6.650109366548929
      ],
      [
        "k",
        -6.673867147046909
      ],
      [
        "r",
        -6.67780524009499
      ],
      [
        "Ġhebben",
        -6.6834976697909205
      ],
      [
        "\"",
        -6.689673929099289
      ],
      [
        "Ġwe",
        -6.698755011543476
      ],
      [
        "Ġal",
        -6.70999933584833
      ],
      [
        "Ġdaar",
        -6.777120486889361
      ],
      [
        "3",
        -6.783112833859079
      ],
      [
        "Ġtwee",
        -6.799572922167432
      ],
      [
        "Ġmoet",
        -6.812009018606805
      ],
      [
        "Ġtot",
        -6.817936422794022
      ],
      [
        "m",
        -6.818133664894889
      ],
      [
        "Ġ...",
        -6.82757451341458
      ],
      [
        "ik",
        -6.864392520110384
      ],
      [
        "Ġmensen",
        -6.880019474398775
      ],
      [
        "dat",
        -6.913317138792353
      ],
      [
        "h",
        -6.913728309130983
      ],
      [
        "Ġhier",
        -6.924710078074545
      ],
      [
        "Ġgaat",
        -6.9319968716504885
      ],
      [
        "Ġandere",
        -6.9536748071126535
      ],
      [
        "je",
        -6.957311789312744
      ],
      [
        "Ġweer",
        -6.966949760797712
      ],
      [
        "u",
        -6.971975964983754
      ],
      [
        "Ġgeen",
        -6.977838801906984
      ],
      [
        "Ġzich",
        -6.979103118413571
      ],
      [
        "kunnen",
        -6.984239015727729
      ],
      [
        "Ġgoed",
        -6.984575933571325
      ],
      [
        "Ġna",
        -7.009629638329091
      ],
      [
        "Ġnu",
        -7.033920722420863
      ],
      [
        "Ġjaar",
        -7.035541580570916
      ],
      [
        "Ġhun",
        -7.04495193751133
      ],
      [
        "4",
        -7.052134891080801
      ],
      [
        "Ġhem",
        -7.06711327927108
      ],
      [
        "het",
        -7.083764400418552
      ],
      [
        "een",
        -7.084889799670572
      ],
      [
        "Ġhad",
        -7.08824344649719
      ],
      [
        ",'",
        -7.094067601764838
      ],
      [
        "Ġgaan",
        -7.098052618289186
      ],
      [
        "us",
        -7.1336702378618835
      ],
      [
        "¢",
        -7.13385342880515
      ],
      [
        "Ġhoe",
        -7.134056801051498
      ],
      [
        "ĠâĢ",
        -7.140038106367088
      ],
      [
        "Ġaf",
        -7.153524221916417
      ],
      [
        "Ġonder",
        -7.165396585584832
      ],
      [
        "Ġdoen",
        -7.170466774345281
      ],
      [
        "wat",
        -7.186703235808746
      ],
      [
        "Ġstaat",
        -7.194416476031144
      ],
      [
        "5",
        -7.198091703858628
      ],
      [
        "Ġmaken",
        -7.19937103338264
      ],
      [
        "f",
        -7.200642146854095
      ],
      [
        "Ġheel",
        -7.20269445175075
      ],
      [
        "nee",
        -7.2102430651359715
      ],
      [
        "Ġtoen",
        -7.224175215070984
      ],
      [
        "Ġzegt",
        -7.225718617584395
      ],
      [
        "Ġge",
        -7.234120516657292
      ],
      [
        "g",
        -7.287597983241136
      ],
      [
        "Ġkomt",
        -7.296896718381928
      ],
      [
        "Ġheb",
        -7.300796648294398
      ],
      [
        "Ġmee",
        -7.309223196505508
      ],
      [
        "Ġwil",
        -7.312653197317321
      ],
      [
        "p",
        -7.313967258105624
      ],
      [
        "Ġtegen",
        -7.317444467252679
      ],
      [
        "Ġmijn",
        -7.321050840870374
      ],
      [
        "Ġnederland",
        -7.341594684419574
      ],
      [
        "Ġgrote",
        -7.348053464347597
      ],
      [
        "Ġwaren",
        -7.366430094565214
      ],
      [
        "Ġalleen",
        -7.387239636753826
      ],
      [
        "y",
        -7.396583235311557
      ],
      [
        "Ġjij",
        -7.39979808414626
      ],
      [
        "Ġtekst",
        -7.411864627366885
      ],
      [
        "/",
        -7.412717395174797
      ],
      [
        "Ġtussen",
        -7.419395066776973
      ],
      [
        "Ġhe",
        -7.4201356196387245
      ],
      [
        "Ġvind",
        -7.422680248498622
      ],
      [
        "op",
        -7.423507179628082
      ],
      [
        "Ġkinderen",
        -7.424995600227721
      ],
      [
        "Ġzou",
        -7.425122279380361
      ],
      [
        "6",
        -7.436809622784079
      ],
      [
        "Ġwater",
        -7.437361152304245
      ],
      [
        "Ġeerste",
        -7.455157719349108
      ],
      [
        "Ġb",
        -7.457193015208066
      ],
      [
        "is",
        -7.45884262885291
      ],
      [
        "Ġtoch",
        -7.468577374141322
      ],
      [
        "Ġalle",
        -7.47568160012594
      ],
      [
        "Ġweg",
        -7.4758748432220195
      ],
      [
        "?'",
        -7.4847676381453105
      ],
      [
        "8",
        -7.485216761490085
      ],
      [
        "Ġiets",
        -7.495013441815326
      ],
      [
        "Ġzien",
        -7.498596794969934
      ],
      [
        "Ġeven",
        -7.504018616989107
      ],
      [
        "Ġtijd",
        -7.520104084877904
      ],
      [
        "Ġland",
        -7.520105754636267
      ],
      [
        "c",
        -7.520430591121533
      ],
      [
        "bij",
        -7.525334494859409
      ],
      [
        "Ġkomen",
        -7.542674017237589
      ],
      [
        "Ġzei",
        -7.566181097813578
      ],
      [
        "father",
        -7.57254912426863
      ],
      [
        "Ġkwam",
        -7.582137747812796
      ],
      [
        "v",
        -7.586238197285548
      ],
      [
        "0",
        -7.5964704829382335
      ],
      [
        "Ġzij",
        -7.601211334504223
      ],
      [
        "Ġstaan",
        -7.613936763970472
      ],
      [
        "b",
        -7.623556326356093
      ],
      [
        "Ġdus",
        -7.62506742394145
      ],
      [
        "Ġelkaar",
        -7.637263786334019
      ],
      [
        "Ġdrie",
        -7.647024328405596
      ],
      [
        "Ġging",
        -7.652255584121145
      ],
      [
        "al",
        -7.654314567937341
      ],
      [
        "Ġver",
        -7.657749973273194
      ],
      [
        "...",
        -7.663923552946509
      ],
      [
        "7",
        -7.676823154203477
      ],
      [
        "Ġme",
        -7.680658507598963
      ],
      [
        "zo",
        -7.681438009540077
      ],
      [
        "oh",
        -7.6950743968716875
      ],
      [
        "Ġkeer",
        -7.7003171441529386
      ],
      [
        "Ġc",
        -7.707064447222205
      ],
      [
        "omdat",
        -7.707467284049441
      ],
      [
        "Ġvaak",
        -7.71707203698033
      ],
      [
        "Ġnieuwe",
        -7.724983531482245
      ],
      [
        "Ġzit",
        -7.764559266488163
      ],
      [
        "Ġwelke",
        -7.773550097453473
      ],
      [
        "Ġsteeds",
        -7.782858507851673
      ],
      [
        "Ġtoe",
        -7.784392177856196
      ],
      [
        "Ġper",
        -7.796636411637355
      ],
      [
        "Ġzelf",
        -7.804197361506338
      ],
      [
        "Ġga",
        -7.806955895491631
      ],
      [
        "!'",
        -7.807630046977801
      ],
      [
        "Ġben",
        -7.815354471737981
      ],
      [
        "Ġmag",
        -7.818124177360547
      ],
      [
        "die",
        -7.819542938585576
      ],
      [
        "voorbeeld",
        -7.823709007240684
      ],
      [
        "9",
        -7.826715844061463
      ],
      [
        "Ġstad",
        -7.828201130509095
      ],
      [
        ";",
        -7.829144277614871
      ],
      [
        "Ġgebruikt",
        -7.836257228452622
      ],
      [
        "als",
        -7.842516193880284
      ],
      [
        "Ġverschillende",
        -7.853702681911269
      ],
      [
        "Ġmoeten",
        -7.858323274561357
      ],
      [
        "Ġgemaakt",
        -7.859115705361308
      ],
      [
        "Ġzitten",
        -7.861601846474407
      ],
      [
        "Ġweet",
        -7.864805748709545
      ],
      [
        "Ġzoal",
        -7.872272735342735
      ],
      [
        "Ġzie",
        -7.874989997281551
      ],
      [
        "Ġnou",
        -7.876105273299704
      ],
      [
        "Ġgroot",
        -7.887605424975227
      ],
      [
        "ing",
        -7.897668674950189
      ],
      [
        "Ġterug",
        -7.90239644380272
      ],
      [
        "Ġerg",
        -7.907855106952374
      ],
      [
        "Ġsamen",
        -7.913828707187262
      ],
      [
        "z",
        -7.916448933711925
      ],
      [
        "Ġja",
        -7.9182181816538755
      ],
      [
        "Ġdag",
        -7.919690336889607
      ],
      [
        "Ġhuis",
        -7.925335551878252
      ],
      [
        "Ġeens",
        -7.9260493330748485
      ],
      [
        "nou",
        -7.944388067892239
      ],
      [
        "Ġschool",
        -7.9453447029858
      ],
      [
        "Ġgebruik",
        -7.950978336546884
      ],
      [
        "maar",
        -7.953949477553952
      ],
      [
        "Ġeerst",
        -7.955392519826308
      ],
      [
        "Ġachter",
        -7.969173907141386
      ],
      [
        "Ġnet",
        -7.971107089420988
      ],
      [
        "Ġhele",
        -7.97945378530229
      ],
      [
        "Ġmoest",
        -7.983977100848962
      ],
      [
        "Ġtijdens",
        -7.986024478247542
      ],
      [
        "wel",
        -7.992433736601525
      ],
      [
        "Ġinformatie",
        -8.00046309634006
      ],
      [
        "Ġleven",
        -8.00223192004015
      ],
      [
        "Ġwant",
        -8.002740007456056
      ],
      [
        "Ġverder",
        -8.005551633138076
      ],
      [
        "Ġkun",
        -8.011788758312687
      ],
      [
        "Ġauto",
        -8.014055436953097
      ],
      [
        "Ġbinnen",
        -8.019332397769588
      ],
      [
        "Âł",
        -8.019616578888074
      ],
      [
        "Ġkon",
        -8.023975406686539
      ],
      [
        "Ġschrijf",
        -8.024472402394306
      ],
      [
        "Ġlater",
        -8.031686995543627
      ],
      [
        "Ġwereld",
        -8.032484876533388
      ],
      [
        "Ġdoet",
        -8.034743181623902
      ],
      [
        "Ġzal",
        -8.035770338498216
      ],
      [
        "Ġv",
        -8.037040417106033
      ],
      [
        "Ġantwoord",
        -8.043142316974697
      ],
      [
        "Ġligt",
        -8.044829943934069
      ],
      [
        "%",
        -8.04667216833533
      ],
      [
        "Ġplaats",
        -8.051658684092697
      ],
      [
        "Ġvader",
        -8.053132942688796
      ],
      [
        "Ġaltijd",
        -8.056597848087515
      ],
      [
        "Ġdeel",
        -8.066219140368975
      ],
      [
        "Ġbe",
        -8.069865258580998
      ],
      [
        "Ġtweede",
        -8.071100367868036
      ],
      [
        "Ġaantal",
        -8.071887836018158
      ],
      [
        "Ġmoeder",
        -8.074594639316032
      ],
      [
        "Ġecht",
        -8.078793828321375
      ],
      [
        "Ġjullie",
        -8.07949587598409
      ],
      [
        "ze",
        -8.080908402614137
      ],
      [
        "x",
        -8.084434335843872
      ],
      [
        "hij",
        -8.084713042975565
      ],
      [
        "Ġlang",
        -8.085305406690395
      ],
      [
        "Ġeigen",
        -8.08857302506084
      ],
      [
        "Ġman",
        -8.091507994444049
      ],
      [
        "Ġvinden",
        -8.091812766997629
      ],
      [
        "Ġons",
        -8.102366410088143
      ],
      [
        "Ġ10",
        -8.107745925898582
      ],
      [
        "Ġvolgens",
        -8.11419067243507
      ],
      [
        "Ġmaakt",
        -8.115373385626429
      ],
      [
        "Ġvolgende",
        -8.1173666833463
      ],
      [
        "Ġkijken",
        -8.118105016343634
      ],
      [
        "Ġhelemaal",
        -8.123928492402543
      ],
      [
        "Ġbron",
        -8.126593088048695
      ],
      [
        "Ġhebt",
        -8.130945985418643
      ],
      [
        "Ġwaarom",
        -8.137213485421395
      ],
      [
        "Ġwie",
        -8.148402506537305
      ],
      [
        "Ġkunt",
        -8.149713516725392
      ],
      [
        "j",
        -8.150147379799607
      ],
      [
        "Ġiemand",
        -8.155056100775816
      ],
      [
        "Ġboek",
        -8.163511195708216
      ],
      [
        "000",
        -8.166627360734628
      ],
      [
        "Ġeten",
        -8.169709128698486
      ],
      [
        "land",
        -8.173353314839115
      ],
      [
        "Ġwoorden",
        -8.174914864934788
      ],
      [
        "Ġvooral",
        -8.180985856258273
      ],
      [
        "Ġlanden",
        -8.18376290936289
      ],
      [
        "Ġgeld",
        -8.185023183368326
      ],
      [
        "Ġvragen",
        -8.187824772210302
      ],
      [
        "adult",
        -8.198505147383576
      ],
      [
        "an",
        -8.201645350143073
      ],
      [
        "Ġnaam",
        -8.206392450863133
      ],
      [
        "Ġhoofd",
        -8.211072083017545
      ],
      [
        "Ġlaten",
        -8.214087104596109
      ],
      [
        "Ġwoord",
        -8.215714835306379
      ],
      [
        "Ġalles",
        -8.222718000818949
      ],
      [
        "voor",
        -8.2245538930322
      ],
      [
        "Ġnederlandse",
        -8.226827674599397
      ],
      [
        "Ġmij",
        -8.227777560842215
      ],
      [
        "Ġhadden",
        -8.22953262319985
      ],
      [
        "jes",
        -8.22973172871354
      ],
      [
        "tje",
        -8.23205283150697
      ],
      [
        "Ġanders",
        -8.232515048370601
      ],
      [
        "Ġkrijgen",
        -8.232720128713906
      ],
      [
        "Ġgoede",
        -8.238322984207032
      ],
      [
        "of",
        -8.23859356021445
      ],
      [
        "Ġsnel",
        -8.239592630337404
      ],
      [
        "Ġallemaa",
        -8.245539483312776
      ],
      [
        "Ġdieren",
        -8.257852710247883
      ],
      [
        "Ġafbeelding",
        -8.25809745583323
      ],
      [
        "Ġminder",
        -8.263878837359714
      ],
      [
        "Ġhand",
        -8.265908543098393
      ],
      [
        "Ġvier",
        -8.267580150457388
      ],
      [
        "Ġonderwerp",
        -8.273563929475989
      ],
      [
        "Ġbeeld",
        -8.276956072703175
      ],
      [
        "kijk",
        -8.277914877426923
      ],
      [
        "Ġlaat",
        -8.283934313965588
      ],
      [
        "Ġhoor",
        -8.285352843010454
      ],
      [
        "Ġkleine",
        -8.285354892446424
      ],
      [
        "Ġdaarom",
        -8.287998218523887
      ],
      [
        "Ġvraag",
        -8.288307921454338
      ],
      [
        "Ġwerk",
        -8.291666225191978
      ],
      [
        "Ġbeetje",
        -8.292103780782387
      ],
      [
        "Ġwilde",
        -8.292423574133036
      ],
      [
        "Ġander",
        -8.295959430227194
      ],
      [
        "Ġbijna",
        -8.296672684489918
      ],
      [
        "Ġbekend",
        -8.300460617044099
      ],
      [
        "Ġnodig",
        -8.302288071882417
      ],
      [
        "Ġmen",
        -8.302426968759447
      ],
      [
        "Ġgeluid",
        -8.307211430096986
      ],
      [
        "ge",
        -8.307997419070045
      ],
      [
        "Ġbestaat",
        -8.31345678990866
      ],
      [
        "Ġgeeft",
        -8.315442113599257
      ],
      [
        "Ġkoning",
        -8.316897867920577
      ],
      [
        "Ġziet",
        -8.321545064290971
      ],
      [
        "ga",
        -8.321844409998807
      ],
      [
        "Ġzeggen",
        -8.332678816193843
      ],
      [
        "&",
        -8.33332715087853
      ],
      [
        "Ġspelen",
        -8.334803781459334
      ],
      [
        "Ġjaren",
        -8.33543484079049
      ],
      [
        "Ġlaatste",
        -8.336965215454834
      ],
      [
        "Ġnooit",
        -8.340820023234867
      ],
      [
        "heid",
        -8.34130693058041
      ],
      [
        "Ġdaarna",
        -8.347208423933548
      ],
      [
        "Ġstond",
        -8.349233516939396
      ],
      [
        "Ġpaar",
        -8.350033899378687
      ],
      [
        "Ġsoms",
        -8.353700129984386
      ],
      [
        "Ġfiguur",
        -8.360723211492912
      ],
      [
        "Ġzin",
        -8.363007964161454
      ],
      [
        "meer",
        -8.364713220730964
      ],
      [
        "om",
        -8.36665937976854
      ],
      [
        "Ġrond",
        -8.370853766867159
      ],
      [
        "Ġgenoemd",
        -8.37357828635395
      ],
      [
        "Ġuur",
        -8.376842039537916
      ],
      [
        "Ġsoort",
        -8.383588896009613
      ],
      [
        "Ġgeven",
        -8.385169721993835
      ],
      [
        "Ġboven",
        -8.385547233118062
      ],
      [
        "Ġvast",
        -8.386555093719972
      ],
      [
        "Ġbuiten",
        -8.398142067966882
      ],
      [
        "Ġmanier",
        -8.399702202998808
      ],
      [
        "he",
        -8.403871524402351
      ],
      [
        "we",
        -8.40747120607987
      ],
      [
        "Ġweten",
        -8.411200310104759
      ],
      [
        "dit",
        -8.414005781579524
      ],
      [
        "Ġfoto",
        -8.417827456156479
      ],
      [
        "Ġelke",
        -8.425677701142677
      ],
      [
        "Ġvond",
        -8.430040211183465
      ],
      [
        "Ġstaten",
        -8.432046856810384
      ],
      [
        "Ġzelfs",
        -8.432984240419367
      ],
      [
        "Ġgroep",
        -8.436599108103547
      ],
      [
        "Ġzonder",
        -8.440648061642353
      ],
      [
        "hoe",
        -8.445341980810074
      ],
      [
        "Ġgeef",
        -8.44540925240149
      ],
      [
        "Ġwillen",
        -8.447168019558411
      ],
      [
        "ste",
        -8.45561495552109
      ],
      [
        "Ġleuk",
        -8.456723248324975
      ],
      [
        "Ġelk",
        -8.457918845342194
      ],
      [
        "Ġgrond",
        -8.462198784202926
      ],
      [
        "Ġiedereen",
        -8.464100779397521
      ],
      [
        "waar",
        -8.470550177379375
      ],
      [
        "uit",
        -8.473748900369047
      ],
      [
        "w",
        -8.475140088658039
      ],
      [
        "Ġeeuw",
        -8.478071287133137
      ],
      [
        "Ġiii",
        -8.484272825913111
      ],
      [
        "Ġfilm",
        -8.486084987354127
      ],
      [
        "Ġgewoon",
        -8.488542440386905
      ],
      [
        "hier",
        -8.489212732776746
      ],
      [
        "Ġkennis",
        -8.489854876919217
      ],
      [
        "Ġhoeveel",
        -8.496717235541569
      ],
      [
        "ken",
        -8.497972067076578
      ],
      [
        "Ġoorlog",
        -8.498211828115702
      ],
      [
        "Ġbeter",
        -8.498221659264043
      ],
      [
        "Ġhond",
        -8.5032766358475
      ],
      [
        "Ġ20",
        -8.510633112429844
      ],
      [
        "aan",
        -8.512880173902195
      ],
      [
        "Ġkreeg",
        -8.51370731235944
      ],
      [
        "Ġgedaan",
        -8.515016682222761
      ],
      [
        "Ġklein",
        -8.515155455946028
      ],
      [
        "Ġlekker",
        -8.517596175362717
      ],
      [
        "Ġsommige",
        -8.519985902563514
      ],
      [
        "Ġkamer",
        -8.520689122587806
      ],
      [
        "dan",
        -8.527524860714275
      ],
      [
        "Ġlucht",
        -8.532408453607932
      ],
      [
        "Ġpartij",
        -8.53256190003055
      ],
      [
        "Ġbent",
        -8.533438112432002
      ],
      [
        "Ġmogelijk",
        -8.534016339833165
      ],
      [
        "Ġzat",
        -8.539361494595568
      ],
      [
        "ers",
        -8.54054635022126
      ],
      [
        "Ġ12",
        -8.543269920961645
      ],
      [
        "Ġkrijgt",
        -8.543324555361407
      ],
      [
        "daar",
        -8.545663836377505
      ],
      [
        "Ġongeveer",
        -8.548668480114411
      ],
      [
        "Ġjongen",
        -8.54924940442172
      ],
      [
        "leg",
        -8.553300333344113
      ],
      [
        "oud",
        -8.553341916411597
      ],
      [
        "Ġwaardoor",
        -8.554669782955477
      ],
      [
        "Ġthe",
        -8.56162614390687
      ],
      [
        "Ġoude",
        -8.564459901658175
      ],
      [
        "Ġwerken",
        -8.567528537185234
      ],
      [
        "Ġmisschie",
        -8.567684226516834
      ],
      [
        "ver",
        -8.568534668004395
      ],
      [
        "Ġeigenlijk",
        -8.572487963131875
      ],
      [
        "Ġhoort",
        -8.57360210593541
      ],
      [
        "van",
        -8.576040183900586
      ],
      [
        "Ġvroeg",
        -8.57683145425866
      ],
      [
        "Ġdingen",
        -8.57754357307088
      ],
      [
        "Ġonze",
        -8.5827529720542
      ],
      [
        "Ġdoe",
        -8.582939280352864
      ],
      [
        "),",
        -8.583680697469239
      ],
      [
        "Ġpas",
        -8.584592817490694
      ],
      [
        "Ġmeeste",
        -8.588059605568912
      ],
      [
        "Ġexamen",
        -8.589244189707815
      ],
      [
        "Ġamerikaans",
        -8.589897643949637
      ],
      [
        "Ġlicht",
        -8.59038420150261
      ],
      [
        "Ġverhaal",
        -8.591218148477768
      ],
      [
        "Ġwij",
        -8.591674017976468
      ],
      [
        "Ġheet",
        -8.598795589199941
      ],
      [
        "Ġ15",
        -8.599787944685643
      ],
      [
        "Ġreden",
        -8.600602729656881
      ],
      [
        "Ġhouden",
        -8.605834758961407
      ],
      [
        "Ġnamelijk",
        -8.605988138492538
      ],
      [
        "Ġpunten",
        -8.609320083960819
      ],
      [
        "Ġhierdoor",
        -8.61230426709114
      ],
      [
        "Ġvraagt",
        -8.619432310375933
      ],
      [
        "Ġdenk",
        -8.625631965901638
      ],
      [
        "Ġbetekent",
        -8.626604372352036
      ],
      [
        "Ġterwij",
        -8.626863583605507
      ],
      [
        "afbeeldingen",
        -8.62729776512018
      ],
      [
        "+",
        -8.627833310827674
      ],
      [
        "Ġjuist",
        -8.628369207125
      ],
      [
        "Ġnatuurlijk",
        -8.630040202991626
      ],
      [
        "met",
        -8.630399963318181
      ],
      [
        "Ġkijkt",
        -8.631711979907942
      ],
      [
        "at",
        -8.63204335823217
      ],
      [
        "Ġgezien",
        -8.64011480109314
      ],
      [
        "Ġgrootste",
        -8.64327963759884
      ],
      [
        "Ġweek",
        -8.644557194042015
      ],
      [
        "Ġvanaf",
        -8.644564362219167
      ],
      [
        "Ġmaak",
        -8.646976599661343
      ],
      [
        "Ġgebied",
        -8.655814313881805
      ],
      [
        "Ġyoutube",
        -8.65635498468069
      ],
      [
        "Ġhard",
        -8.656499114559653
      ],
      [
        "man",
        -8.660958470027207
      ],
      [
        "Ġgoogle",
        -8.662834390765846
      ],
      [
        "Ġvoorbeeld",
        -8.669535204232538
      ],
      [
        "Ġblijven",
        -8.669788638772102
      ],
      [
        "Ġvandaag",
        -8.672194250221978
      ],
      [
        "Ġnpo",
        -8.677445302042605
      ],
      [
        "Ġmeisje",
        -8.682064093603202
      ],
      [
        "Ġkijk",
        -8.683718821420396
      ],
      [
        "Ġwelk",
        -8.685501271367102
      ],
      [
        "Ġvrouw",
        -8.68974546019706
      ],
      [
        "genomen",
        -8.690613419252388
      ],
      [
        "Ġverenigde",
        -8.69155998021383
      ],
      [
        "geef",
        -8.69366830112005
      ],
      [
        "Ġvia",
        -8.699162552913505
      ],
      [
        "Ġliggen",
        -8.699330508657383
      ],
      [
        "Ġvijf",
        -8.699729266693838
      ],
      [
        "Ġjou",
        -8.703192998206507
      ],
      [
        "Ġwikikids",
        -8.706950632398721
      ],
      [
        "tjes",
        -8.707508250133797
      ],
      [
        "Ġbest",
        -8.708474132827916
      ],
      [
        "Ġeuro",
        -8.71243136485438
      ],
      [
        "moet",
        -8.714187057592207
      ],
      [
        "Ġgebruiken",
        -8.717102797914208
      ],
      [
        "Ġsinds",
        -8.720877538963832
      ],
      [
        "Ġvorm",
        -8.72283664345865
      ],
      [
        "Ġdood",
        -8.72865003957577
      ],
      [
        "zie",
        -8.730567953912635
      ],
      [
        "Ġ11",
        -8.731161088198178
      ],
      [
        "Ġonderzoek",
        -8.731603780027445
      ],
      [
        "Ġwikipedia",
        -8.736048179248776
      ],
      [
        "Ġlijkt",
        -8.7369510146115
      ],
      [
        "Ġlopen",
        -8.740555474825259
      ],
      [
        "gaan",
        -8.74067009704837
      ],
      [
        "Ġmuziek",
        -8.740857520458606
      ],
      [
        "Ġzag",
        -8.740935061599183
      ],
      [
        "Ġheen",
        -8.741458459353955
      ],
      [
        "Ġmooi",
        -8.742105312792688
      ],
      [
        "Ġzet",
        -8.744993525703519
      ],
      [
        "Ġstuk",
        -8.74550198399023
      ],
      [
        "schreven",
        -8.746709687406678
      ],
      [
        "Ġgeweest",
        -8.750409959075704
      ],
      [
        "Ġcommon",
        -8.752463977652832
      ],
      [
        "Ġogen",
        -8.755231982394905
      ],
      [
        "Ġschooltv",
        -8.757058398930667
      ],
      [
        "Ġlangs",
        -8.75732973992
      ],
      [
        "Ġbeide",
        -8.759545204004883
      ],
      [
        "Ġloopt",
        -8.762290827721213
      ],
      [
        "Ġwikimedia",
        -8.762820747097138
      ],
      [
        "clipjes",
        -8.766168751545216
      ],
      [
        "Ġstemmen",
        -8.770561701974476
      ],
      [
        "Ġhoren",
        -8.777486322897728
      ],
      [
        "Ġbeste",
        -8.777547510652166
      ],
      [
        "zullen",
        -8.777895686314073
      ],
      [
        "Ġroept",
        -8.778284510002427
      ],
      [
        "Ġweinig",
        -8.778920931412753
      ],
      [
        "Ġzouden",
        -8.779052065375323
      ],
      [
        "Ġbegin",
        -8.779111740259756
      ],
      [
        "Ġdeed",
        -8.78026871581381
      ],
      [
        "Ġbegon",
        -8.781015049941416
      ],
      [
        "Ġechter",
        -8.786089505015813
      ],
      [
        "Ġregering",
        -8.7869423220927
      ],
      [
        "Ġiv",
        -8.787278669565048
      ],
      [
        "Ġnaast",
        -8.787782303916757
      ],
      [
        "Ġbal",
        -8.791011663140694
      ],
      [
        "Ġ18",
        -8.794227471741657
      ],
      [
        "Ġmama",
        -8.794999272859565
      ],
      [
        "Ġbelangrijk",
        -8.79613260027102
      ],
      [
        "Ġmaakte",
        -8.798136196713873
      ],
      [
        "Ġ=",
        -8.799279050414786
      ],
      [
        "ook",
        -8.800171014185958
      ],
      [
        "Ġlees",
        -8.80041250851094
      ],
      [
        "Ġhoog",
        -8.803569444820262
      ],
      [
        "Ġon",
        -8.804168093766702
      ],
      [
        "Ġzeker",
        -8.804454089069928
      ],
      [
        "Ġwonen",
        -8.804671861930014
      ],
      [
        "niet",
        -8.806064348071686
      ],
      [
        "Ġgenoeg",
        -8.80669684638463
      ],
      [
        "Ġwist",
        -8.808847943000151
      ],
      [
        "ren",
        -8.810088557304207
      ],
      [
        "Ġbeeldban",
        -8.810762299804344
      ],
      [
        "um",
        -8.812625667394398
      ],
      [
        "Ġuiteindelijk",
        -8.81500527150253
      ],
      [
        "Ġfrankrijk",
        -8.820277125058535
      ],
      [
        "gen",
        -8.82427436704019
      ],
      [
        "Ġmiljoen",
        -8.825619318823401
      ],
      [
        "ĠÉĻ",
        -8.828842503825564
      ],
      [
        "Ġfamilie",
        -8.829009253730774
      ],
      [
        "Ġniks",
        -8.830268906946865
      ],
      [
        "halen",
        -8.830387408853307
      ],
      [
        "Ġ19",
        -8.831583699156434
      ],
      [
        "Ġ13",
        -8.831860706208376
      ],
      [
        "Ġ16",
        -8.831981556274394
      ],
      [
        "Ġlezen",
        -8.832773177386064
      ],
      [
        "Ġwanneer",
        -8.839244388500575
      ],
      [
        "Ġdeur",
        -8.840040606572725
      ],
      [
        "Ġvrij",
        -8.840132011437829
      ],
      [
        "Ġeuropa",
        -8.844984321151545
      ],
      [
        "Ġkleur",
        -8.848011289898485
      ],
      [
        "Ġouders",
        -8.84876439440175
      ],
      [
        "Ġmeest",
        -8.850633423222435
      ],
      [
        "Ġkom",
        -8.857031136131528
      ],
      [
        "Ġnee",
        -8.857084060819084
      ],
      [
        "Ġlange",
        -8.860578720497282
      ],
      [
        "Ġduitsland",
        -8.863686835994137
      ],
      [
        "Ġmoment",
        -8.8640270652363
      ],
      [
        "nog",
        -8.868186668903137
      ],
      [
        "ar",
        -8.868446404946646
      ],
      [
        "Ġmeter",
        -8.868625066055086
      ],
      [
        "Ġbegint",
        -8.869606913434957
      ],
      [
        "Ġnieuw",
        -8.870639274076712
      ],
      [
        "Ġnoem",
        -8.87415741709242
      ],
      [
        "blijft",
        -8.874870523019574
      ],
      [
        "Ġzeg",
        -8.87736805752701
      ],
      [
        "Ġvol",
        -8.877980951417053
      ],
      [
        "Ġthuis",
        -8.879451405182024
      ],
      [
        "Ġnemen",
        -8.884045824792059
      ],
      [
        "toen",
        -8.888427088002103
      ],
      [
        "heden",
        -8.891590164678966
      ],
      [
        "Ġvalt",
        -8.896636822386307
      ],
      [
        "Ġontstaan",
        -8.896900149918388
      ],
      [
        "Ġdicht",
        -8.8980376979033
      ],
      [
        "Ġprecies",
        -8.903926532716097
      ],
      [
        "goed",
        -8.907260590040867
      ],
      [
        "Ġdagen",
        -8.908154522796606
      ],
      [
        "onder",
        -8.9108787353537
      ],
      [
        "Ġzuid",
        -8.91136070641019
      ],
      [
        "Ġnummer",
        -8.913848884799503
      ],
      [
        "der",
        -8.914346842829822
      ],
      [
        "deze",
        -8.91764223179963
      ],
      [
        "Ġz",
        -8.917874678515979
      ],
      [
        "Ġeuropes",
        -8.919585509602179
      ],
      [
        "Ġkeek",
        -8.920419918674531
      ],
      [
        "Ġjohannes",
        -8.925881921006846
      ],
      [
        "Ġkonde",
        -8.928924967995036
      ],
      [
        "Ġ14",
        -8.93519677249956
      ],
      [
        "Ġenkele",
        -8.936749742671745
      ],
      [
        "Ġliep",
        -8.93687798838231
      ],
      [
        "Ġbloed",
        -8.939762377701683
      ],
      [
        "ch",
        -8.941636608680192
      ],
      [
        "Ġvroeger",
        -8.94480004133475
      ],
      [
        "Ġdacht",
        -8.948839750425194
      ],
      [
        "Ġmidden",
        -8.950728137045312
      ],
      [
        "Ġklaar",
        -8.950941781944511
      ],
      [
        "Ġnoord",
        -8.95756882715853
      ],
      [
        "Ġgelijk",
        -8.958057008868751
      ],
      [
        "Ġsteden",
        -8.95815677913846
      ],
      [
        "Ġpresident",
        -8.958353384666374
      ],
      [
        "Ġ17",
        -8.960237773682698
      ],
      [
        "lees",
        -8.960551363098213
      ],
      [
        "Ġpolitie",
        -8.961510758694823
      ],
      [
        "Ġklas",
        -8.964017236091616
      ],
      [
        "Ġwedstrijd",
        -8.964473285214016
      ],
      [
        "Ġmeester",
        -8.965475092315746
      ],
      [
        "Ġniets",
        -8.967107372025248
      ],
      [
        "Ġzorgen",
        -8.971794536027735
      ],
      [
        "Ġvi",
        -8.974258104495691
      ],
      [
        "Ġalinea",
        -8.977117387106665
      ],
      [
        "Ġles",
        -8.977205152163702
      ],
      [
        "Ġmeesta",
        -8.977943158703145
      ],
      [
        "Ġuh",
        -8.981998873558252
      ],
      [
        "Ġkant",
        -8.983581560359239
      ],
      [
        "Ġbelangrijke",
        -8.988449056707355
      ],
      [
        "Ġzon",
        -8.98861731247462
      ],
      [
        "Ġrijk",
        -8.988702363555586
      ],
      [
        "Ġinwoners",
        -8.989168400727687
      ],
      [
        "kom",
        -8.993727369336092
      ],
      [
        "weg",
        -8.994988032782885
      ],
      [
        "Ġgeleden",
        -8.995372462681297
      ],
      [
        "Ġhelpen",
        -8.996712204303996
      ],
      [
        "Ġgingen",
        -8.998159825375671
      ],
      [
        "Ġduidelijk",
        -9.000240833770956
      ],
      [
        "Ġdezelfde",
        -9.001313917318399
      ],
      [
        "Ġzinnen",
        -9.002181871170198
      ],
      [
        "Ġvrouwen",
        -9.003222889932049
      ],
      [
        "Ġplek",
        -9.003869914209858
      ],
      [
        "me",
        -9.005495050749934
      ],
      [
        "Ġjouw",
        -9.007382259903178
      ],
      [
        "Ġoud",
        -9.007731029139887
      ],
      [
        "Ġkind",
        -9.00864196187638
      ],
      [
        "ma",
        -9.010682747225067
      ],
      [
        "inhoud",
        -9.011984369186605
      ],
      [
        "bereken",
        -9.012189943623536
      ],
      [
        "Ġgevonden",
        -9.014305331840765
      ],
      [
        "Ġkaart",
        -9.015791135495586
      ],
      [
        "Ġgebeurt",
        -9.01672872566021
      ],
      [
        "Ġdenken",
        -9.018803003599283
      ],
      [
        "Ġamsterdam",
        -9.019206661254293
      ],
      [
        "Ġaarde",
        -9.0192923145782
      ],
      [
        "Ġrol",
        -9.022017238401169
      ],
      [
        "Ġmogen",
        -9.033579960638654
      ],
      [
        "Ġvertellen",
        -9.03479581456072
      ],
      [
        "nu",
        -9.037353481887651
      ],
      [
        "Ġleren",
        -9.042403907245035
      ],
      [
        "Ġvervolgens",
        -9.042499628771981
      ],
      [
        "Ġsoorten",
        -9.042596900480572
      ],
      [
        "Ġvallen",
        -9.042622983779605
      ],
      [
        "Ġopdracht",
        -9.047474537463607
      ],
      [
        "kan",
        -9.048663770154693
      ],
      [
        "Ġmeneer",
        -9.051796112541332
      ],
      [
        "Ġkerk",
        -9.054724364244807
      ],
      [
        "Ġbed",
        -9.055224290418744
      ],
      [
        "Ġvis",
        -9.056096970905378
      ],
      [
        "Ġter",
        -9.067827588302825
      ],
      [
        "ter",
        -9.06842908421769
      ],
      [
        "Ġhoge",
        -9.071267706666328
      ],
      [
        "gaat",
        -9.07147746042378
      ],
      [
        "Ġmens",
        -9.076452278720843
      ],
      [
        "Ġjan",
        -9.078737210055705
      ],
      [
        "Ġoma",
        -9.080242495163835
      ],
      [
        "Ġfranse",
        -9.082670221722369
      ],
      [
        "Ġlichaam",
        -9.082844990524872
      ],
      [
        "Ġgraag",
        -9.08307663635274
      ],
      [
        "Ġ30",
        -9.08371915085223
      ],
      [
        "Ġhetzelfde",
        -9.08527666264401
      ],
      [
        "Ġleg",
        -9.085627069430771
      ],
      [
        "Ġwerkt",
        -9.08569065067918
      ],
      [
        "Ġnatuur",
        -9.086835430600981
      ],
      [
        "Ġleerlingen",
        -9.087056041723217
      ],
      [
        "Ġgevraagd",
        -9.08733966782623
      ],
      [
        "Ġplanten",
        -9.087369612110306
      ],
      [
        "Ġtrein",
        -9.091422280715616
      ],
      [
        "Ġleger",
        -9.096002630158344
      ],
      [
        "Ġmannen",
        -9.096906142427226
      ],
      [
        "Ġviel",
        -9.097043525188433
      ],
      [
        "Ġeerder",
        -9.098677677586283
      ],
      [
        "Ġervoor",
        -9.098769579905767
      ],
      [
        "ius",
        -9.098896543804678
      ],
      [
        "Ġdaardoor",
        -9.101586317768742
      ],
      [
        "Ġtien",
        -9.101951005950859
      ],
      [
        "Ġruimte",
        -9.102696888308971
      ],
      [
        "Ġboom",
        -9.102879735701444
      ],
      [
        "welke",
        -9.103768342903324
      ],
      [
        "Ġgeword",
        -9.108738247172804
      ],
      [
        "Ġhieronder",
        -9.109085405221997
      ],
      [
        "Ġgezicht",
        -9.109156452491291
      ],
      [
        "Ġmocht",
        -9.109894964014831
      ],
      [
        "Ġeiland",
        -9.11044849399609
      ],
      [
        "Ġpolitieke",
        -9.113051749850092
      ],
      [
        "Ġenergie",
        -9.116198620337245
      ],
      [
        "jij",
        -9.117466479668
      ],
      [
        "Ġgemeente",
        -9.117550252892284
      ],
      [
        "ÉĻ",
        -9.121342208825098
      ],
      [
        "Ġriep",
        -9.121687243079823
      ],
      [
        "Ġ100",
        -9.122377119198063
      ],
      [
        "Ġidee",
        -9.123101388244615
      ],
      [
        "Ġhoudt",
        -9.124488690958197
      ],
      [
        "Ġbang",
        -9.124892264347006
      ],
      [
        "Ġspeelt",
        -9.125797809740764
      ],
      [
        "Ġzetten",
        -9.12734319543302
      ],
      [
        "Ġwereldoorlog",
        -9.130002051374383
      ],
      [
        "Ġhanden",
        -9.132612752539524
      ],
      [
        "gekomen",
        -9.132737154426188
      ],
      [
        "Ġ25",
        -9.134423860737709
      ],
      [
        "Ġeinde",
        -9.137866411345806
      ],
      [
        "Ġliet",
        -9.142251226155658
      ],
      [
        "Ġniemand",
        -9.142451981301456
      ],
      [
        "Ġboeken",
        -9.142507667388148
      ],
      [
        "Ġdenkt",
        -9.14377997801983
      ],
      [
        "Ġwillem",
        -9.14580792830963
      ],
      [
        "wie",
        -9.146441140972046
      ],
      [
        "Ġperiode",
        -9.14720645203832
      ],
      [
        "Ġtaal",
        -9.149325678384473
      ],
      [
        "Ġbelangrijkste",
        -9.152025670947618
      ],
      [
        "Ġbelgie",
        -9.152946619425414
      ],
      [
        "len",
        -9.15361473536336
      ],
      [
        "Ġschrijven",
        -9.153833036799766
      ],
      [
        "Ġenige",
        -9.156615132113206
      ],
      [
        "Ġduitse",
        -9.158393578555508
      ],
      [
        "Ġnieuws",
        -9.161625282808469
      ],
      [
        "Ġlos",
        -9.161964253566838
      ],
      [
        "Ġbos",
        -9.16523536359209
      ],
      [
        "Ġmacht",
        -9.165308591125264
      ],
      [
        "Ġrode",
        -9.166299548474424
      ],
      [
        "Ġzoek",
        -9.166625568728513
      ],
      [
        "Ġjuli",
        -9.167975877693495
      ],
      [
        "Ġnederlands",
        -9.167993126738807
      ],
      [
        "Ġstraat",
        -9.171143570035884
      ],
      [
        "Ġbestaan",
        -9.173347145741667
      ],
      [
        "heb",
        -9.173883385211091
      ],
      [
        "toe",
        -9.174769782413158
      ],
      [
        "Ġtegenwoordig",
        -9.175976187058902
      ],
      [
        "Ġgroter",
        -9.176106439935142
      ],
      [
        "les",
        -9.177395401131738
      ],
      [
        "komt",
        -9.177573237560882
      ],
      [
        "Ġblij",
        -9.18010696847932
      ],
      [
        "gehouden",
        -9.181142645195406
      ],
      [
        "yyy",
        -9.182888942401725
      ],
      [
        "opgave",
        -9.183023628699756
      ],
      [
        "Ġbepaalde",
        -9.183341717228561
      ],
      [
        "Ġgegeven",
        -9.184790227938723
      ],
      [
        "Ġpakken",
        -9.186360138351615
      ],
      [
        "Ġpark",
        -9.187258041493298
      ],
      [
        "Ġkopen",
        -9.18847750399805
      ],
      [
        "huis",
        -9.19050632741819
      ],
      [
        "Ġvoedsel",
        -9.191995566849767
      ],
      [
        "Ġdruk",
        -9.192897306382141
      ],
      [
        "Ġont",
        -9.196560812954683
      ],
      [
        "uw",
        -9.199599736436614
      ],
      [
        "Ġstukje",
        -9.200199402959399
      ],
      [
        "even",
        -9.204230143099318
      ],
      [
        "Ġjanuari",
        -9.204738270087969
      ],
      [
        "Ġgeboren",
        -9.204865261374733
      ],
      [
        "Ġjongens",
        -9.205524673441955
      ],
      [
        "Ġfiets",
        -9.207296095775655
      ],
      [
        "Ġextra",
        -9.208013715943794
      ],
      [
        "af",
        -9.210158084239529
      ],
      [
        "Ġrivier",
        -9.213263892185534
      ],
      [
        "Ġrest",
        -9.214983315235191
      ],
      [
        "Ġvanuit",
        -9.215526492943756
      ],
      [
        "Ġpraten",
        -9.216070321566246
      ],
      [
        "Ġmond",
        -9.21710569343593
      ],
      [
        "Ġtafel",
        -9.217552595035773
      ],
      [
        "Ġdier",
        -9.21774433758585
      ],
      [
        "Ġvideo",
        -9.221941096164164
      ],
      [
        "Ġkies",
        -9.22276605685765
      ],
      [
        "Ġmei",
        -9.224091959092215
      ],
      [
        "di",
        -9.228604474164632
      ],
      [
        "Ġboos",
        -9.229937030418144
      ],
      [
        "Ġzoeken",
        -9.230060285809174
      ],
      [
        "Ġrijden",
        -9.23072192261296
      ],
      [
        "da",
        -9.231975072340994
      ],
      [
        "Ġmooie",
        -9.233547775670203
      ],
      [
        "Ġgaf",
        -9.235225647358417
      ],
      [
        "Ġbehulp",
        -9.235360261176414
      ],
      [
        "Ġeind",
        -9.236846297163
      ],
      [
        "Ġpapa",
        -9.238888437563897
      ],
      [
        "Ġkort",
        -9.240327848613068
      ],
      [
        "door",
        -9.240806830979313
      ],
      [
        "Ġkans",
        -9.241246415113514
      ],
      [
        "gegeven",
        -9.24190719359162
      ],
      [
        "tijd",
        -9.243763626542039
      ],
      [
        "Ġ197",
        -9.244395029979284
      ],
      [
        "Ġdi",
        -9.24684895949719
      ],
      [
        "isme",
        -9.249676797994372
      ],
      [
        "Ġtuin",
        -9.250739168440935
      ],
      [
        "Ġkat",
        -9.254828065698998
      ],
      [
        "Ġ21",
        -9.258281505308705
      ],
      [
        "ha",
        -9.259661429969684
      ],
      [
        "Ġnamen",
        -9.259844935598334
      ],
      [
        "Ġverschil",
        -9.26090572899242
      ],
      [
        "Ġ50",
        -9.261114628829977
      ],
      [
        "Ġmoeilijk",
        -9.262036825274512
      ],
      [
        "Ġgebouwd",
        -9.262945099004929
      ],
      [
        "Ġstof",
        -9.263775757308036
      ],
      [
        "Ġminuten",
        -9.26447406514841
      ],
      [
        "Ġgek",
        -9.272223332486993
      ],
      [
        "Ġblijkt",
        -9.27467924681387
      ],
      [
        "Ġwaarschijnlijk",
        -9.274842053001151
      ],
      [
        "Ġverklaring",
        -9.27683397074114
      ],
      [
        "Ġw",
        -9.276996351555088
      ],
      [
        "Ġberekening",
        -9.277256993999773
      ],
      [
        "Ġdelen",
        -9.27734707827288
      ],
      [
        "Ġjuiste",
        -9.2788156059473
      ],
      [
        "Ġpunt",
        -9.28149199588387
      ],
      [
        "Ġwitte",
        -9.282086405575109
      ],
      [
        "ooit",
        -9.287369275607478
      ],
      [
        "Ġneemt",
        -9.28889395281314
      ],
      [
        "Ġslapen",
        -9.288976287921175
      ],
      [
        "co",
        -9.28979383579576
      ],
      [
        "Ġkunst",
        -9.28989691177189
      ],
      [
        "mama",
        -9.291031193766445
      ],
      [
        "Ġvakantie",
        -9.291374468209401
      ],
      [
        "Ġbleef",
        -9.291813796360593
      ],
      [
        "Ġ194",
        -9.298201129203209
      ],
      [
        "Ġechte",
        -9.30025194727348
      ],
      [
        "Ġrecht",
        -9.304312112306762
      ],
      [
        "pen",
        -9.305359908223526
      ],
      [
        "la",
        -9.305682781791836
      ],
      [
        "Ġfrans",
        -9.307387924769404
      ],
      [
        "Ġvogel",
        -9.309329608012646
      ],
      [
        "hee",
        -9.309881616632802
      ],
      [
        "Ġprijs",
        -9.317954042494677
      ],
      [
        "Ġvoorkomen",
        -9.319211888047684
      ],
      [
        "Ġgelukkig",
        -9.3195710583806
      ],
      [
        "Ġjuf",
        -9.320920154323925
      ],
      [
        "Ġbuurt",
        -9.32126582832836
      ],
      [
        "Ġ196",
        -9.321365312654953
      ],
      [
        "mag",
        -9.322491366167826
      ],
      [
        "Ġkoninkrijk",
        -9.3242645446375
      ],
      [
        "Ġdoel",
        -9.325690272316946
      ],
      [
        "Ġformule",
        -9.32872023578882
      ],
      [
        "Ġopnieuw",
        -9.330115378358583
      ],
      [
        "Ġhoofdstad",
        -9.330760309994695
      ],
      [
        "Ġrood",
        -9.33090290516
      ],
      [
        "Ġbedenk",
        -9.33117976956098
      ],
      [
        "Ġzoon",
        -9.333469779303112
      ],
      [
        "Ġplan",
        -9.334428432800944
      ],
      [
        "Ġzoveel",
        -9.335555306646338
      ],
      [
        "avond",
        -9.338504987671067
      ],
      [
        "Ġchina",
        -9.340100595523834
      ],
      [
        "waarom",
        -9.341506919014975
      ],
      [
        "Ġoverheid",
        -9.345056151776864
      ],
      [
        "Ġstelling",
        -9.345392084717407
      ],
      [
        "Ġnoemen",
        -9.34612404666716
      ],
      [
        "Ġtotaal",
        -9.346307387344211
      ],
      [
        "Ġkrege",
        -9.34837965710545
      ],
      [
        "wil",
        -9.349512335271424
      ],
      [
        "Ġgeval",
        -9.350653268657455
      ],
      [
        "Ġbevolking",
        -9.350698922699335
      ],
      [
        "Ġrij",
        -9.352859641320709
      ],
      [
        "Ġsport",
        -9.35366523131733
      ],
      [
        "Ġhart",
        -9.356117554158105
      ],
      [
        "Ġ24",
        -9.35653327313241
      ],
      [
        "Ġpast",
        -9.358085989608796
      ],
      [
        "Ġieder",
        -9.358088572333608
      ],
      [
        "Ġreactie",
        -9.358245548422122
      ],
      [
        "Ġbenedictus",
        -9.361914271799826
      ],
      [
        "per",
        -9.363987444467952
      ],
      [
        "Ġoplossing",
        -9.364373644793277
      ],
      [
        "Ġprovincie",
        -9.364910243821466
      ],
      [
        "Ġwon",
        -9.365835688404283
      ],
      [
        "Ġgregori",
        -9.36645716596307
      ],
      [
        "tussen",
        -9.36673220095344
      ],
      [
        "dag",
        -9.371025084128075
      ],
      [
        "Ġvormen",
        -9.371275871197383
      ],
      [
        "Ġstem",
        -9.371309007107033
      ],
      [
        "Ġneer",
        -9.371379896227346
      ],
      [
        "over",
        -9.371668629356304
      ],
      [
        "Ġzwarte",
        -9.371889027511042
      ],
      [
        "zelf",
        -9.372801001851382
      ],
      [
        "maal",
        -9.373346850271425
      ],
      [
        "Ġbeneden",
        -9.3735897416369
      ],
      [
        "00",
        -9.37521068617155
      ],
      [
        "Ġletter",
        -9.376095191422955
      ],
      [
        "Ġrusland",
        -9.378180066739109
      ],
      [
        "ho",
        -9.378433144377766
      ],
      [
        "Ġspanje",
        -9.380134345661437
      ],
      [
        "Ġdecember",
        -9.380820974813517
      ],
      [
        "Ġminister",
        -9.381188821964585
      ],
      [
        "Ġgebieden",
        -9.381825827463402
      ],
      [
        "Ġwind",
        -9.383673677778338
      ],
      [
        "Ġderde",
        -9.383731426876095
      ],
      [
        "Ġdorp",
        -9.384466655416782
      ],
      [
        "Ġvlak",
        -9.384992540940674
      ],
      [
        "Ġkrijg",
        -9.385906761264748
      ],
      [
        "Ġco",
        -9.389023766005938
      ],
      [
        "mm",
        -9.391732633308294
      ],
      [
        "Ġband",
        -9.394210541889725
      ],
      [
        "Ġbedrijf",
        -9.394610595316337
      ],
      [
        "Ġverkiezing",
        -9.395304532270968
      ],
      [
        "Ġbrengen",
        -9.39683064345182
      ],
      [
        "Ġkop",
        -9.3978382279928
      ],
      [
        "Ġlid",
        -9.398498192907743
      ],
      [
        "Ġtabel",
        -9.398679147844538
      ],
      [
        "Ġnew",
        -9.398725094363124
      ],
      [
        "Ġcomputer",
        -9.398742261850337
      ],
      [
        "Ġspel",
        -9.403505054971001
      ],
      [
        "Ġinvloed",
        -9.404290179655963
      ],
      [
        "ster",
        -9.40439164316647
      ],
      [
        "Ġinternet",
        -9.405569542591971
      ],
      [
        "Ġhout",
        -9.407564959080606
      ],
      [
        "Ġwest",
        -9.408393553869121
      ],
      [
        "Ġbeginnen",
        -9.409443261795694
      ],
      [
        "Â·",
        -9.409444776808146
      ],
      [
        "Ġbetalen",
        -9.409488825950808
      ],
      [
        "Ġ195",
        -9.411785796703242
      ],
      [
        "Ġkoningin",
        -9.412525431007856
      ],
      [
        "Ġallerlei",
        -9.413125969529123
      ],
      [
        "Ġafgelope",
        -9.413163467920484
      ],
      [
        "ij",
        -9.414708110495464
      ],
      [
        "Ġweergegeven",
        -9.416245179837098
      ],
      [
        "Ġzichzelf",
        -9.41829601023844
      ],
      [
        "Ġengeland",
        -9.421903123029061
      ],
      [
        "boek",
        -9.422750767475078
      ],
      [
        "weet",
        -9.42454408131836
      ],
      [
        "Ġhield",
        -9.425106308762267
      ],
      [
        "Ġontstaa",
        -9.425470209950916
      ],
      [
        "Ġbouwen",
        -9.426546341053113
      ],
      [
        "Ġkrant",
        -9.426797188814367
      ],
      [
        "Ġonderdeel",
        -9.430549836219942
      ],
      [
        "Ġproblemen",
        -9.430834952126554
      ],
      [
        "Ġwaarmee",
        -9.431134550071985
      ],
      [
        "Ġgevolg",
        -9.433590846105911
      ],
      [
        "Ġgebouw",
        -9.435080897894261
      ],
      [
        "Ġsam",
        -9.43684007801588
      ],
      [
        "Ġgezegd",
        -9.43749402678843
      ],
      [
        "Ġoktober",
        -9.43757340128621
      ],
      [
        "Ġstation",
        -9.438800049967503
      ],
      [
        "Ġhulp",
        -9.43889027557527
      ],
      [
        "Ġkilometer",
        -9.440826135586995
      ],
      [
        "Ġstil",
        -9.441960620810244
      ],
      [
        "Ġzand",
        -9.450047370696469
      ],
      [
        "Ġergens",
        -9.450660983750767
      ],
      [
        "Ġmaanden",
        -9.451819813834359
      ],
      [
        "Ġleo",
        -9.451904173341434
      ],
      [
        "Ġwilt",
        -9.45263237173501
      ],
      [
        "zen",
        -9.45441388570761
      ],
      [
        "Ġoranje",
        -9.455261323383619
      ],
      [
        "Ġ202",
        -9.456453818349072
      ],
      [
        "Ġjonge",
        -9.458380583119792
      ],
      [
        "Ġtop",
        -9.458969165436468
      ],
      [
        "Ġbezig",
        -9.460178783804325
      ],
      [
        "Ġpapier",
        -9.460449945437285
      ],
      [
        "Ġzomer",
        -9.460694077887345
      ],
      [
        "Ġweken",
        -9.461621324591011
      ],
      [
        "Ġwit",
        -9.462330267263598
      ],
      [
        "Ġkorte",
        -9.463524267120157
      ],
      [
        "Ġmening",
        -9.463861094015721
      ],
      [
        "Ġvoordat",
        -9.464423536351847
      ],
      [
        "Ġzeer",
        -9.465387408707663
      ],
      [
        "Ġprobleem",
        -9.466780468316959
      ],
      [
        "Ġwarm",
        -9.467275066115148
      ],
      [
        "Ġvliegtuig",
        -9.467600700105042
      ],
      [
        "Ġdrinken",
        -9.468791327383611
      ],
      [
        "Ġjuni",
        -9.469194341237603
      ],
      [
        "Ġvoetbal",
        -9.469584448629247
      ],
      [
        "Ġbank",
        -9.470559190182847
      ],
      [
        "Ġgegevens",
        -9.47076650524965
      ],
      [
        "Ġvertelt",
        -9.471463064735707
      ],
      [
        "Ġmuseum",
        -9.472093837113723
      ],
      [
        "Ġlag",
        -9.472447437464075
      ],
      [
        "Ġsterk",
        -9.47436375902422
      ],
      [
        "Ġtoon",
        -9.475773491956897
      ],
      [
        "Ġneus",
        -9.479518050366657
      ],
      [
        "Ġ22",
        -9.480073425384893
      ],
      [
        "Ġzeven",
        -9.480321876672111
      ],
      [
        "Ġregels",
        -9.480488074483443
      ],
      [
        "Ġarm",
        -9.480900083547544
      ],
      [
        "Ġontstond",
        -9.483282709217086
      ],
      [
        "Ġsuper",
        -9.483288241524228
      ],
      [
        "Ġervan",
        -9.483352316301078
      ],
      [
        "Ġapril",
        -9.484659327862992
      ],
      [
        "Ġgod",
        -9.484970875908543
      ],
      [
        "zijn",
        -9.488187923656621
      ],
      [
        "Ġtekening",
        -9.488824972529576
      ],
      [
        "Ġbekende",
        -9.491902595821713
      ],
      [
        "Ġuitleg",
        -9.492594804138822
      ],
      [
        "Ġantwoorden",
        -9.492649550000682
      ],
      [
        "Ġlinks",
        -9.493496633763773
      ],
      [
        "auto",
        -9.493873099981046
      ],
      [
        "clemens",
        -9.494163378967505
      ],
      [
        "Ġprogramma",
        -9.497354847655295
      ],
      [
        "Ġnacht",
        -9.497788828579768
      ],
      [
        "Ġijs",
        -9.497836284512807
      ],
      [
        "Ġla",
        -9.498635251390377
      ],
      [
        "trokken",
        -9.500181757149894
      ],
      [
        "Ġrepubliek",
        -9.501001976140394
      ],
      [
        "Ġwilden",
        -9.501395959107763
      ],
      [
        "Ġbrand",
        -9.502627861956167
      ],
      [
        "Ġbepaald",
        -9.502710895718764
      ],
      [
        "Ġkiezen",
        -9.503246127160601
      ],
      [
        "Ġkm",
        -9.503493966497066
      ],
      [
        "Ġberg",
        -9.505910385163176
      ],
      [
        "Ġvanwege",
        -9.506165872571419
      ],
      [
        "werk",
        -9.506208328529535
      ],
      [
        "Ġaangezi",
        -9.507583944846866
      ],
      [
        "Ġboeren",
        -9.510917150681705
      ],
      [
        "Ġzorgt",
        -9.510935145909187
      ],
      [
        "Ġargument",
        -9.512153580899831
      ],
      [
        "Ġdaarme",
        -9.51327647861559
      ],
      [
        "Ġdummie",
        -9.514656623310358
      ],
      [
        "Ġmaand",
        -9.516179581550519
      ],
      [
        "maak",
        -9.51678852203326
      ],
      [
        "Ġlanger",
        -9.518635523989714
      ],
      [
        "Ġhoger",
        -9.519936323696397
      ],
      [
        "Ġ40",
        -9.521757410147165
      ],
      [
        "Ġma",
        -9.521903404914548
      ],
      [
        "Ġwinter",
        -9.521906763579976
      ],
      [
        "Ġineens",
        -9.521986097198853
      ],
      [
        "am",
        -9.52270732725062
      ],
      [
        "Ġreis",
        -9.52284062250015
      ],
      [
        "maximaal",
        -9.522885540774745
      ],
      [
        "Ġdochter",
        -9.52565130632502
      ],
      [
        "Ġtim",
        -9.526063791942729
      ],
      [
        "Ġbegonn",
        -9.5262289786785
      ],
      [
        "ton",
        -9.526504055695485
      ],
      [
        "Ġvele",
        -9.52674561791555
      ],
      [
        "jarige",
        -9.528249046184406
      ],
      [
        "Ġiedere",
        -9.52976663285667
      ],
      [
        "Ġmelk",
        -9.530128595693183
      ],
      [
        "Ġmeisjes",
        -9.531427410092052
      ],
      [
        "...'",
        -9.531538283215665
      ],
      [
        "Ġseptember",
        -9.53389781444527
      ],
      [
        "10",
        -9.534373222279147
      ],
      [
        "Ġwinkel",
        -9.5344246571755
      ],
      [
        "Ġnovember",
        -9.534822935735754
      ],
      [
        "Ġgekrege",
        -9.535177814537516
      ],
      [
        "Ġhalf",
        -9.53628072458715
      ],
      [
        "Ġslecht",
        -9.537924934201468
      ],
      [
        "Ġartikel",
        -9.538506162791485
      ],
      [
        "Ġlijn",
        -9.53995270546276
      ],
      [
        "proberen",
        -9.540453203743636
      ],
      [
        "Ġbasis",
        -9.54046103809248
      ],
      [
        "Ġbaby",
        -9.540601582433174
      ],
      [
        "Ġoost",
        -9.543083013855558
      ],
      [
        "Ġgekozen",
        -9.543604914257934
      ],
      [
        "Ġdaarnaas",
        -9.543808111095627
      ],
      [
        "Ġmevrouw",
        -9.544492023871976
      ],
      [
        "Ġontwikkeling",
        -9.54684140347272
      ],
      [
        "Ġbedacht",
        -9.548023119680533
      ],
      [
        "Ġboot",
        -9.550309287958324
      ],
      [
        "Ġwachten",
        -9.551313240977485
      ],
      [
        "aar",
        -9.552434366735284
      ],
      [
        "Ġnam",
        -9.55250405727711
      ],
      [
        "Ġonderwijs",
        -9.552851210035936
      ],
      [
        "Ġpersoon",
        -9.553438407423004
      ],
      [
        "Ġkoffie",
        -9.553446861058157
      ],
      [
        "Ġspeciale",
        -9.554350482123924
      ],
      [
        "Ġslag",
        -9.555532375334103
      ],
      [
        "Ġacht",
        -9.557038375790967
      ],
      [
        "bare",
        -9.557837102433922
      ],
      [
        "Ġpakt",
        -9.558136326962167
      ],
      [
        "stad",
        -9.558192982136948
      ],
      [
        "Ġplaatsen",
        -9.558584049942693
      ],
      [
        "son",
        -9.558584329126687
      ],
      [
        "weer",
        -9.560056588835618
      ],
      [
        "Ġmeerdere",
        -9.561050626485322
      ],
      [
        "Ġgesloten",
        -9.561945728521804
      ],
      [
        "Ġgedrag",
        -9.564201678874657
      ],
      [
        "Ġgevallen",
        -9.565625491665012
      ],
      [
        "ische",
        -9.566782383961826
      ],
      [
        "doe",
        -9.57179862666168
      ],
      [
        "Ġtelevisie",
        -9.57193973574049
      ],
      [
        "Ġleiden",
        -9.57263955068126
      ],
      [
        "Ġhoorde",
        -9.574709924107092
      ],
      [
        "Ġparlement",
        -9.575382948154639
      ],
      [
        "Ġafstand",
        -9.577586784804527
      ],
      [
        "Ġinnocent",
        -9.57769555629346
      ],
      [
        "noem",
        -9.577886667749825
      ],
      [
        "Ġpartijen",
        -9.578009735385143
      ],
      [
        "Ġwaarvan",
        -9.578743262959879
      ],
      [
        "Ġwoont",
        -9.581564813504896
      ],
      [
        "Ġbrief",
        -9.581643714627992
      ],
      [
        "Ġgeloof",
        -9.581674728463348
      ],
      [
        "Ġmiddel",
        -9.581767326922705
      ],
      [
        "Ġhuizen",
        -9.58211892914156
      ],
      [
        "va",
        -9.582145716302744
      ],
      [
        "Ġvrienden",
        -9.582235302720893
      ],
      [
        "Ġziek",
        -9.584569207161877
      ],
      [
        "schrijf",
        -9.584775659465404
      ],
      [
        "Ġtemperatuur",
        -9.584849698032636
      ],
      [
        "Ġbouw",
        -9.58526224229704
      ],
      [
        "net",
        -9.589548993946186
      ],
      [
        "Ġgeschiedenis",
        -9.590279169779462
      ],
      [
        "Ġletters",
        -9.592372343844572
      ],
      [
        "Ġopgave",
        -9.59574749831307
      ],
      [
        "mijn",
        -9.596555845218203
      ],
      [
        "veel",
        -9.597205324403488
      ],
      [
        "Ġ23",
        -9.59877172952249
      ],
      [
        "atie",
        -9.599614574717052
      ],
      [
        "Ġjongeren",
        -9.600302316748985
      ],
      [
        "Ġ2000",
        -9.600406355032334
      ],
      [
        "Ġengels",
        -9.602048415315855
      ],
      [
        "laat",
        -9.602231522791339
      ],
      [
        "Ġlet",
        -9.603348622033355
      ],
      [
        "Ġgoos",
        -9.603814316375711
      ],
      [
        "Ġpolitiek",
        -9.604160891075791
      ],
      [
        "baar",
        -9.60556027194563
      ],
      [
        "Ġplaatje",
        -9.606448864658097
      ],
      [
        "Ġstoel",
        -9.607008138501897
      ],
      [
        "Ġcultuur",
        -9.608484922522647
      ],
      [
        "Ġspeelde",
        -9.60870253628757
      ],
      [
        "Ġomhoog",
        -9.608885572432808
      ],
      [
        "Ġgoud",
        -9.609237736011849
      ],
      [
        "Ġoveral",
        -9.611714007423688
      ],
      [
        "Ġtrekken",
        -9.614202217436015
      ],
      [
        "Ġitalie",
        -9.61487693402413
      ],
      [
        "Ġviii",
        -9.61661621665148
      ],
      [
        "Ġgebeurd",
        -9.619021863453757
      ],
      [
        "Ġpaard",
        -9.621121197676842
      ],
      [
        "ben",
        -9.621125264370905
      ],
      [
        "Ġpoes",
        -9.622424839596048
      ],
      [
        "Ġrechts",
        -9.622601881439333
      ],
      [
        "ige",
        -9.623506467865448
      ],
      [
        "Ġstraks",
        -9.625175374190277
      ],
      [
        "Ġprins",
        -9.62602635879404
      ],
      [
        "ven",
        -9.627156204123033
      ],
      [
        "Ġkikker",
        -9.628024003531584
      ],
      [
        "Ġklimaat",
        -9.628553091718784
      ],
      [
        "Ġneem",
        -9.631136833404167
      ],
      [
        "Ġha",
        -9.63210911906386
      ],
      [
        "britse",
        -9.632129509076714
      ],
      [
        "pius",
        -9.633749609674222
      ],
      [
        "Ġfeest",
        -9.634047703312381
      ],
      [
        "Ġzacht",
        -9.634713148226357
      ],
      [
        "ka",
        -9.635939351598367
      ],
      [
        "water",
        -9.63689983027331
      ],
      [
        "Ġschip",
        -9.637285529773305
      ],
      [
        "Ġda",
        -9.637530546605454
      ],
      [
        "uh",
        -9.637974368707148
      ],
      [
        "Ġnoorden",
        -9.638883231147567
      ],
      [
        "Ġoog",
        -9.639011365584942
      ],
      [
        "Ġclub",
        -9.639579475984378
      ],
      [
        "Ġscholen",
        -9.639896304164292
      ],
      [
        "Ġstoffen",
        -9.64045877869551
      ],
      [
        "Ġbroer",
        -9.641511357052883
      ],
      [
        "Ġstap",
        -9.642896691381264
      ],
      [
        "naar",
        -9.645811687152332
      ],
      [
        "Ġslechts",
        -9.646691798087504
      ],
      [
        "eten",
        -9.646754708350253
      ],
      [
        "Ġtitel",
        -9.647123277262427
      ],
      [
        "Ġgeha",
        -9.647206945476814
      ],
      [
        "Ġkosten",
        -9.647307001687134
      ],
      [
        "groep",
        -9.647694602180685
      ],
      [
        "Ġerbij",
        -9.649427558116411
      ],
      [
        "\",",
        -9.64980530207552
      ],
      [
        "Ġaugustus",
        -9.649928484527942
      ],
      [
        "Ġho",
        -9.651445240114125
      ],
      [
        "Ġgroeien",
        -9.652179608157397
      ],
      [
        "lopen",
        -9.653990714374816
      ],
      [
        "Ġnummers",
        -9.655244243098984
      ],
      [
        "Ġstellen",
        -9.655569563613216
      ],
      [
        "Ġleggen",
        -9.655756553870505
      ],
      [
        "Ġgebracht",
        -9.657439716603252
      ],
      [
        "Ġsneeuw",
        -9.657474268096246
      ],
      [
        "unie",
        -9.657849617370003
      ],
      [
        "Ġregen",
        -9.659841223636235
      ],
      [
        "Ġdr",
        -9.660457850733193
      ],
      [
        "Ġcd",
        -9.662994403623399
      ],
      [
        "Ġjeugdjournaal",
        -9.664723290164199
      ],
      [
        "Ġhoop",
        -9.666639768796719
      ],
      [
        "Ġbomen",
        -9.66762679191195
      ],
      [
        "Ġvii",
        -9.668078877415061
      ],
      [
        "Ġparijs",
        -9.668952352287862
      ],
      [
        "Ġzuiden",
        -9.669377437664965
      ],
      [
        "Ġamerika",
        -9.670003851505461
      ],
      [
        "Ġbronnen",
        -9.670727070071964
      ],
      [
        "huidige",
        -9.67275958095453
      ],
      [
        "eerd",
        -9.673315012742751
      ],
      [
        "Ġkapot",
        -9.674616406007306
      ],
      [
        "Ġtelefoon",
        -9.675007855863637
      ],
      [
        "Ġalexander",
        -9.676707883158695
      ],
      [
        "Ġfunctie",
        -9.676810768417585
      ],
      [
        "Ġlaag",
        -9.679308812722386
      ],
      [
        "Ġpeter",
        -9.679336574225603
      ],
      [
        "Ġkasteel",
        -9.680468867976657
      ],
      [
        "tie",
        -9.681616875231406
      ],
      [
        "Ġgang",
        -9.682161882872183
      ],
      [
        "Ġmaan",
        -9.683017012642223
      ],
      [
        "Ġhoeveelheid",
        -9.684699117077598
      ],
      [
        "Ġmorgen",
        -9.685921565657928
      ],
      [
        "Ġ26",
        -9.685941469989093
      ],
      [
        "sch",
        -9.686000686562691
      ],
      [
        "ĠâĤ¬",
        -9.68620754734314
      ],
      [
        "Ġwaarde",
        -9.68779156878468
      ],
      [
        "Ġproducten",
        -9.68796926426679
      ],
      [
        "Ġrotterdam",
        -9.690638827400965
      ],
      [
        "Ġbedrijven",
        -9.690734464583358
      ],
      [
        "Ġruim",
        -9.692338490224616
      ],
      [
        "Ġmedia",
        -9.694271740090889
      ],
      [
        "Ġnormaal",
        -9.694948429463171
      ],
      [
        "Ġmarkt",
        -9.697942821662268
      ],
      [
        "Ġhoogte",
        -9.69916382589954
      ],
      [
        "Ġkeuken",
        -9.69999908803699
      ],
      [
        "Ġlachen",
        -9.700462729964332
      ],
      [
        "Ġbevat",
        -9.70191149945852
      ],
      [
        "mo",
        -9.702126691937467
      ],
      [
        "Ġziekte",
        -9.703127784998902
      ],
      [
        "Ġengelse",
        -9.70394825151689
      ],
      [
        "Ġvorige",
        -9.703962283740266
      ],
      [
        "Ġhelft",
        -9.705035602082596
      ],
      [
        "Ġrussisch",
        -9.705692007500746
      ],
      [
        "Ġterecht",
        -9.705795595921012
      ],
      [
        "Ġmaart",
        -9.707585503073815
      ],
      [
        "Ġbedoeld",
        -9.708781213441972
      ],
      [
        "Ġfabriek",
        -9.709886330945512
      ],
      [
        "Ġix",
        -9.710479009153875
      ],
      [
        "50",
        -9.71091794024809
      ],
      [
        "geschiedenis",
        -9.712361865208017
      ],
      [
        "heel",
        -9.713976665290197
      ],
      [
        "Ġstrand",
        -9.714908689671217
      ],
      [
        "Ġschrijver",
        -9.715928881439588
      ],
      [
        "Ġverkocht",
        -9.717454118935045
      ],
      [
        "Ġlast",
        -9.717875725594581
      ],
      [
        "Ġgrens",
        -9.717982379756057
      ],
      [
        "Ġspullen",
        -9.71830557563613
      ],
      [
        "naam",
        -9.71854995981562
      ],
      [
        "Ġfebruari",
        -9.719690501596062
      ],
      [
        "2014",
        -9.720597550766472
      ],
      [
        "Ġopge",
        -9.72096639989659
      ],
      [
        "Ġprocent",
        -9.721259168931875
      ],
      [
        "Ġoostenrijk",
        -9.72268901824873
      ],
      [
        "the",
        -9.72290206764912
      ],
      [
        "Ġhuid",
        -9.723103031171451
      ],
      [
        "Ġblauw",
        -9.723836387621233
      ],
      [
        "Ġdikke",
        -9.724248248008765
      ],
      [
        "Ġhoeft",
        -9.724809554958192
      ],
      [
        "Ġteken",
        -9.724853110141279
      ],
      [
        "sister",
        -9.724998151960373
      ],
      [
        "Ġkleuren",
        -9.725227635381533
      ],
      [
        "Ġmassa",
        -9.725886236180653
      ],
      [
        "Ġgisteren",
        -9.726523493800247
      ],
      [
        "Ġverhalen",
        -9.727882502230502
      ],
      [
        "Ġ31",
        -9.7280032267076
      ],
      [
        "Ġduurt",
        -9.728372208705355
      ],
      [
        "men",
        -9.728844843708396
      ],
      [
        "Ġerop",
        -9.729643759881931
      ],
      [
        "Ġtom",
        -9.730020308315305
      ],
      [
        "pa",
        -9.730139872983447
      ],
      [
        "Ġgas",
        -9.730183898844665
      ],
      [
        "Ġsovjet",
        -9.730541623037787
      ],
      [
        "Ġontdekt",
        -9.730793816589753
      ],
      [
        "Ġmilieu",
        -9.731300379527482
      ],
      [
        "Ġmuur",
        -9.732477491388813
      ],
      [
        "Ġ191",
        -9.73290786948252
      ],
      [
        "Ġsteen",
        -9.733172901583508
      ],
      [
        "Ġzwart",
        -9.733203863635111
      ],
      [
        "Ġleden",
        -9.73354839999732
      ],
      [
        "Ġpopulair",
        -9.735898089832757
      ],
      [
        "Ġgespeeld",
        -9.736025474653681
      ],
      [
        "gebruik",
        -9.736428303264976
      ],
      [
        "Ġkeizer",
        -9.737328074807161
      ],
      [
        "Ġuitspraak",
        -9.739692661441385
      ],
      [
        "Ġbesluit",
        -9.739743496832595
      ],
      [
        "Ġregio",
        -9.740098568196313
      ],
      [
        "Ġpagina",
        -9.740598690089103
      ],
      [
        "Ġvissen",
        -9.740732086533885
      ],
      [
        "Ġkarel",
        -9.7413050013853
      ],
      [
        "Ġeruit",
        -9.742560715900705
      ],
      [
        "Ġglas",
        -9.742614910871804
      ],
      [
        "Ġlangzaam",
        -9.742773144298315
      ],
      [
        "dus",
        -9.74311944581513
      ],
      [
        "bel",
        -9.743486399371331
      ],
      [
        "Ġ27",
        -9.744010236268647
      ],
      [
        "ling",
        -9.744452687508566
      ],
      [
        "Ġle",
        -9.745433219423909
      ],
      [
        "Ġmis",
        -9.746622458396242
      ],
      [
        "Ġbekijk",
        -9.74707696634131
      ],
      [
        "Ġsituatie",
        -9.74883530183428
      ],
      [
        "Ġfilmpje",
        -9.749204600623543
      ],
      [
        "Ġhiervoor",
        -9.749385623730774
      ],
      [
        "Ġradio",
        -9.749814268164167
      ],
      [
        "Ġonderzoeker",
        -9.750615575315914
      ],
      [
        "Ġnederlanders",
        -9.75090260394282
      ],
      [
        "Ġher",
        -9.751123085479577
      ],
      [
        "iets",
        -9.75137985837106
      ],
      [
        "Ġ193",
        -9.751432299898719
      ],
      [
        "Ġverschillen",
        -9.752593485178451
      ],
      [
        "Ġ28",
        -9.755593086287668
      ],
      [
        "17",
        -9.756564772203351
      ],
      [
        "Ġaandacht",
        -9.756625268401898
      ],
      [
        "Ġrichting",
        -9.757644524393484
      ],
      [
        "links",
        -9.757936869514829
      ],
      [
        "Ġutrecht",
        -9.758371892582772
      ],
      [
        "Ġsucces",
        -9.758553941903003
      ],
      [
        "Ġto",
        -9.759969263172973
      ],
      [
        "Ġreacties",
        -9.760087969323994
      ],
      [
        "Ġeconomische",
        -9.760425962023934
      ],
      [
        "Ġvliegen",
        -9.76072284148952
      ],
      [
        "Ġvogels",
        -9.760942215380657
      ],
      [
        "Ġwet",
        -9.761574051325855
      ],
      [
        "Ġgewonnen",
        -9.762471119484324
      ],
      [
        "want",
        -9.762884125791734
      ],
      [
        "Ġgedeelte",
        -9.762930933541917
      ],
      [
        "Ġ(\"",
        -9.763567864038912
      ],
      [
        "Ġstoppen",
        -9.763747121792637
      ],
      [
        "Ġactie",
        -9.764388544525698
      ],
      [
        "Ġleeftijd",
        -9.7647222088952
      ],
      [
        "Ġvriend",
        -9.764935625356639
      ],
      [
        "Ġdaarvan",
        -9.76602475290702
      ],
      [
        "Ġtotale",
        -9.768042318376615
      ],
      [
        "Ġjongetje",
        -9.768113059597189
      ],
      [
        "Ġschreef",
        -9.768560872820352
      ],
      [
        "lijn",
        -9.76876035480085
      ],
      [
        "Ġbrug",
        -9.76976922963846
      ],
      [
        "Ġbestond",
        -9.770977385276813
      ],
      [
        "Ġwoonde",
        -9.771350602799
      ],
      [
        "Ġvuur",
        -9.772612369067858
      ],
      [
        "Ġbetekenis",
        -9.772719970865587
      ],
      [
        "Ġtrekt",
        -9.773132725244237
      ],
      [
        "Ġpijn",
        -9.776355332337198
      ],
      [
        "Ġbeweging",
        -9.777374555567164
      ],
      [
        "Ġlijst",
        -9.778160875204822
      ],
      [
        "Ġbloemen",
        -9.778200158861702
      ],
      [
        "zet",
        -9.778722988284859
      ],
      [
        "Ġsprake",
        -9.779242362141531
      ],
      [
        "Ġsnelheid",
        -9.779690779058384
      ],
      [
        "Ġgemiddelde",
        -9.779933666615218
      ],
      [
        "Ġvolk",
        -9.780413405052908
      ],
      [
        "Ġverband",
        -9.780513921430881
      ],
      [
        "Ġraam",
        -9.781070133928178
      ],
      [
        "Ġgroen",
        -9.783324070130849
      ],
      [
        "Ġzes",
        -9.784493316474553
      ],
      [
        "Ġonafhankelijk",
        -9.785464970554612
      ],
      [
        "Ġkust",
        -9.786142974356462
      ],
      [
        "Ġyork",
        -9.786177106520938
      ],
      [
        "Ġkracht",
        -9.78655352441226
      ],
      [
        "Ġ2010",
        -9.78890108722605
      ],
      [
        "Ġgrafiek",
        -9.789425676342681
      ],
      [
        "Ġrug",
        -9.790100647455258
      ],
      [
        "Ġpop",
        -9.791942348246977
      ],
      [
        "Ġdirect",
        -9.792555625381176
      ],
      [
        "cellen",
        -9.794036518511378
      ],
      [
        "Ġprobeert",
        -9.794077661358095
      ],
      [
        "po",
        -9.794080942217242
      ],
      [
        "Ġdak",
        -9.79447332055696
      ],
      [
        "Ġ198",
        -9.794674175627478
      ],
      [
        "Ġgebruikte",
        -9.795122171758292
      ],
      [
        "Ġgemeenten",
        -9.795146956384954
      ],
      [
        "2019",
        -9.797823663319562
      ],
      [
        "Ġsch",
        -9.797953774273868
      ],
      [
        "Ġverandering",
        -9.798129666642497
      ],
      [
        "Ġgebeurde",
        -9.798624800507172
      ],
      [
        "Ġhuilen",
        -9.798884316866939
      ],
      [
        "Ġijzer",
        -9.799483795202402
      ],
      [
        "wij",
        -9.800130929578552
      ],
      [
        "Ġgroepen",
        -9.800994494657555
      ],
      [
        "let",
        -9.804753272894356
      ],
      [
        "Ġtrap",
        -9.806594642005507
      ],
      [
        "2011",
        -9.806755510588282
      ],
      [
        "Ġbaas",
        -9.80678436415393
      ],
      [
        "Ġuniversiteit",
        -9.807633397372303
      ],
      [
        "Ġkoud",
        -9.809655281274381
      ],
      [
        "Ġsociale",
        -9.810945321402937
      ],
      [
        "Ġgebeuren",
        -9.811478291259423
      ],
      [
        "staat",
        -9.811538984162105
      ],
      [
        "Ġvoet",
        -9.812006286083381
      ],
      [
        "Ġpak",
        -9.812352927192162
      ],
      [
        "Ġverenigd",
        -9.813638103168843
      ],
      [
        "middels",
        -9.815031021778204
      ],
      [
        "Ġcm",
        -9.815867996165197
      ],
      [
        "ingen",
        -9.816340328287389
      ],
      [
        "2016",
        -9.81763065415534
      ],
      [
        "Ġzorg",
        -9.818991062359489
      ],
      [
        "Ġbedoel",
        -9.819515766936734
      ],
      [
        "naast",
        -9.820313752148891
      ],
      [
        "Ġverdeeld",
        -9.82128157968491
      ],
      [
        "Ġkost",
        -9.822443484235185
      ],
      [
        "Ġproductie",
        -9.82364312201647
      ],
      [
        "Ġkleding",
        -9.824391527638062
      ],
      [
        "Ġgouden",
        -9.825946481653741
      ],
      [
        "ging",
        -9.826118788145333
      ],
      [
        "vaker",
        -9.826732399115159
      ],
      [
        "Ġbas",
        -9.827187649809463
      ],
      [
        "Ġoom",
        -9.82778827437394
      ],
      [
        "maken",
        -9.83059266229937
      ],
      [
        "Ġveld",
        -9.831318622918106
      ],
      [
        "Ġserie",
        -9.832151674443836
      ],
      [
        "Ġtoekomst",
        -9.83235152816694
      ],
      [
        "Ġeconomie",
        -9.833784070534618
      ],
      [
        "Ġjoost",
        -9.834558106836862
      ],
      [
        "Ġzorgde",
        -9.835561358734198
      ],
      [
        "Ġrechter",
        -9.835750797889041
      ],
      [
        "2006",
        -9.83575622829057
      ],
      [
        "Ġbus",
        -9.837652652714372
      ],
      [
        "2018",
        -9.839386233295642
      ],
      [
        "Ġpaleis",
        -9.84068229165937
      ],
      [
        "berg",
        -9.84213437643211
      ],
      [
        "Ġleek",
        -9.84249405817286
      ],
      [
        "Ġplant",
        -9.84296471239572
      ],
      [
        "Ġgrieken",
        -9.843184871483205
      ],
      [
        "Ġseizoen",
        -9.843657138165128
      ],
      [
        "ur",
        -9.845581160333793
      ],
      [
        "Ġloop",
        -9.84559232555102
      ],
      [
        "Ġvlees",
        -9.846833066356671
      ],
      [
        "Ġromeins",
        -9.847509365959144
      ],
      [
        "Ġtrok",
        -9.847706171092458
      ],
      [
        "Ġkleiner",
        -9.84790830122917
      ],
      [
        "ck",
        -9.848624731038171
      ],
      [
        "Ġbuik",
        -9.850273619711519
      ],
      [
        "Ġvul",
        -9.850881861645913
      ],
      [
        "Ġhaag",
        -9.853024637778606
      ],
      [
        "Ġpubliek",
        -9.854543176893857
      ],
      [
        "ca",
        -9.854802024249263
      ],
      [
        "Ġonderstaand",
        -9.855016332503752
      ],
      [
        "Ġgroene",
        -9.85537641853383
      ],
      [
        "Ġkinder",
        -9.857971354527058
      ],
      [
        "Ġkruis",
        -9.858035466533128
      ],
      [
        "Ġprovincies",
        -9.85807087530375
      ],
      [
        "doen",
        -9.858400856723328
      ],
      [
        "Ġzaken",
        -9.858971627560097
      ],
      [
        "Ġspreken",
        -9.8591345148951
      ],
      [
        "Ġklinkt",
        -9.859808926556676
      ],
      [
        "Ġrelatie",
        -9.860835897083097
      ],
      [
        "Ġteksten",
        -9.861187252097956
      ],
      [
        "Ġbijzonder",
        -9.861590115881317
      ],
      [
        "Ġzwaar",
        -9.862644791279902
      ],
      [
        "volgt",
        -9.863566074238362
      ],
      [
        "Ġvoorbij",
        -9.863584947318063
      ],
      [
        "Ġruzie",
        -9.864121510590795
      ],
      [
        "Ġkoe",
        -9.864362357740646
      ],
      [
        "Ġkent",
        -9.865489558809799
      ],
      [
        "val",
        -9.866044009867192
      ],
      [
        "Ġstel",
        -9.866182249200754
      ],
      [
        "Ġvervangen",
        -9.866401022802275
      ],
      [
        "ag",
        -9.866509017518993
      ],
      [
        "Ġval",
        -9.86669546982478
      ],
      [
        "Ġcentrum",
        -9.86682475554759
      ],
      [
        "ul",
        -9.867144916121733
      ],
      [
        "Ġgauw",
        -9.86769144265747
      ],
      [
        "brother",
        -9.868146574718438
      ],
      [
        "Ġschrift",
        -9.869030592687434
      ],
      [
        "Ġunie",
        -9.869665418614966
      ],
      [
        "Ġstephan",
        -9.870476846673883
      ],
      [
        "Ġroos",
        -9.871224928389806
      ],
      [
        "Ġelektrisch",
        -9.871612696106318
      ],
      [
        "Ġlegt",
        -9.871833803700664
      ],
      [
        "Ġgeldt",
        -9.872304048901075
      ],
      [
        "Ġsa",
        -9.873097241616616
      ],
      [
        "Ġschrijft",
        -9.873260311106481
      ],
      [
        "Ġafrika",
        -9.873643340755729
      ],
      [
        "Ġhaalde",
        -9.874112662996525
      ],
      [
        "Ġzingen",
        -9.874856894909756
      ],
      [
        "Ġboer",
        -9.875273712405427
      ],
      [
        "Ġdonker",
        -9.87562547821233
      ],
      [
        "Ġleer",
        -9.877783514418649
      ],
      [
        "Ġhoogste",
        -9.879744491388644
      ],
      [
        "Ġveranderen",
        -9.880080964768435
      ],
      [
        "bekijk",
        -9.880237293803958
      ],
      [
        "Ġbleek",
        -9.880552371848047
      ],
      [
        "Ġdisney",
        -9.880690295048883
      ],
      [
        "Ġburgemeester",
        -9.88181637511251
      ],
      [
        "amerika",
        -9.882687096824823
      ],
      [
        "Ġolympisch",
        -9.882691146023665
      ],
      [
        "Ġsoldaten",
        -9.882884140587755
      ],
      [
        "Ġzetel",
        -9.88346494118973
      ],
      [
        "Ġstroom",
        -9.885173610154759
      ],
      [
        "Ġhangt",
        -9.885426401294051
      ],
      [
        "ehalve",
        -9.887042523532704
      ],
      [
        "Ġblauwe",
        -9.887128416641412
      ],
      [
        "Ġhandel",
        -9.887341423463278
      ],
      [
        "Ġgewone",
        -9.889070611229545
      ],
      [
        "Ġbad",
        -9.889470154792024
      ],
      [
        "Ġhaalt",
        -9.889528147066759
      ],
      [
        "Ġolie",
        -9.889945553337139
      ],
      [
        "Ġleefde",
        -9.890109709270337
      ],
      [
        "Ġaanwezig",
        -9.890182531278167
      ],
      [
        "Ġtante",
        -9.890431529720498
      ],
      [
        "twee",
        -9.890822787711532
      ],
      [
        "ber",
        -9.891145324672113
      ],
      [
        "Ġstelt",
        -9.892023444278996
      ],
      [
        "Ġ2012",
        -9.892609043055659
      ],
      [
        "Ġbrood",
        -9.893361754977269
      ],
      [
        "Ġgesproken",
        -9.893493020987396
      ],
      [
        "Ġmakkelijk",
        -9.894771396098296
      ],
      [
        "Ġspeciaal",
        -9.895489454040264
      ],
      [
        "Ġrustig",
        -9.897520217147644
      ],
      [
        "Ġgemiddeld",
        -9.89764152611329
      ],
      [
        "Ġ60",
        -9.899884801328067
      ],
      [
        "Ġmaria",
        -9.899947581449347
      ],
      [
        "Ġjong",
        -9.900290779634421
      ],
      [
        "Ġdo",
        -9.902245984105424
      ],
      [
        "Ġword",
        -9.903006629059039
      ],
      [
        "Ġstrijd",
        -9.903528199036948
      ],
      [
        "Ġveilig",
        -9.904512390667126
      ],
      [
        "leden",
        -9.904639545627205
      ],
      [
        "Ġsint",
        -9.904902522902155
      ],
      [
        "Ġpersonen",
        -9.90593591418836
      ],
      [
        "Ġbesloot",
        -9.90696571116364
      ],
      [
        "Ġpap",
        -9.907842645571694
      ],
      [
        "Ġsuiker",
        -9.908119300487737
      ],
      [
        "Ġstaart",
        -9.908818743891779
      ],
      [
        "Ġzuurstof",
        -9.909109450647001
      ],
      [
        "Ġwakker",
        -9.910175878338814
      ],
      [
        "Ġregel",
        -9.910963600673483
      ],
      [
        "Ġbeer",
        -9.911002553707949
      ],
      [
        "Ġorganisatie",
        -9.911006700469088
      ],
      [
        "school",
        -9.912126829553332
      ],
      [
        "Ġgevaarlijk",
        -9.912218437572466
      ],
      [
        "Ġdraait",
        -9.912352629865392
      ],
      [
        "Ġziekenhuis",
        -9.912856083297978
      ],
      [
        "Ġvlag",
        -9.913278657646366
      ],
      [
        "Ġomgeving",
        -9.914962735615838
      ],
      [
        "up",
        -9.914995670526839
      ],
      [
        "Ġvergelijking",
        -9.915002477405942
      ],
      [
        "Ġ29",
        -9.915701350886884
      ],
      [
        "gebied",
        -9.915939645165778
      ],
      [
        "Ġvolgorde",
        -9.916713384685249
      ],
      [
        "Ġleeg",
        -9.916866728641793
      ],
      [
        "12",
        -9.917149500517674
      ],
      [
        "Ġwinnen",
        -9.917346940536145
      ],
      [
        "bal",
        -9.917972684245687
      ],
      [
        "Ġgezet",
        -9.918536491257907
      ],
      [
        "Ġq",
        -9.918598395129806
      ],
      [
        "Ġversie",
        -9.91894208680001
      ],
      [
        "30",
        -9.920393529689235
      ],
      [
        "Ġgroei",
        -9.920595411938852
      ],
      [
        "Ġfinale",
        -9.921838556219015
      ],
      [
        "Ġka",
        -9.926046668201662
      ],
      [
        "licht",
        -9.926053772241193
      ],
      [
        "eel",
        -9.927463369721899
      ],
      [
        "Ġvoelt",
        -9.927961066082595
      ],
      [
        "20",
        -9.928327300284597
      ],
      [
        "Ġlandbouw",
        -9.928603703921763
      ],
      [
        "Ġplekke",
        -9.929734341296449
      ],
      [
        "Ġalgemeen",
        -9.92978992571263
      ],
      [
        "Ġmoderne",
        -9.930289803800894
      ],
      [
        "Ġwebsite",
        -9.930694093622751
      ],
      [
        "Ġsneller",
        -9.932396164664743
      ],
      [
        "Ġbedrag",
        -9.932656787764996
      ],
      [
        "Ġ192",
        -9.933256253532939
      ],
      [
        "Ġprobeerde",
        -9.93474770172644
      ],
      [
        "Ġopgericht",
        -9.93674528842792
      ],
      [
        "tel",
        -9.938155713071144
      ],
      [
        "Ġbodem",
        -9.938274671021524
      ],
      [
        "Ġvrije",
        -9.941795776727549
      ],
      [
        "Ġpaulus",
        -9.942150105469167
      ],
      [
        "Ġenorm",
        -9.942639722935468
      ],
      [
        "Ġdu",
        -9.943147074659379
      ],
      [
        "Ġdroog",
        -9.94424370291485
      ],
      [
        "Ġmo",
        -9.945815457215119
      ],
      [
        "Ġgras",
        -9.947229231673168
      ],
      [
        "ant",
        -9.947348496817678
      ],
      [
        "Ġbroek",
        -9.948021427464502
      ],
      [
        "Ġdraaien",
        -9.94851080512159
      ],
      [
        "Ġverdwe",
        -9.949267074525814
      ],
      [
        "rij",
        -9.949586845993831
      ],
      [
        "ion",
        -9.951111136978936
      ],
      [
        "Ġzwemmen",
        -9.951268579786523
      ],
      [
        "Ġ2017",
        -9.951392202484719
      ],
      [
        "Ġalbum",
        -9.952598000911166
      ],
      [
        "delen",
        -9.952765854160461
      ],
      [
        "nie",
        -9.952767526309993
      ],
      [
        "Ġinformatiebron",
        -9.953700290395595
      ],
      [
        "2007",
        -9.953853663980798
      ],
      [
        "Ġjapan",
        -9.953908345081015
      ],
      [
        "Ġdik",
        -9.954228696735388
      ],
      [
        "|",
        -9.955310476200829
      ],
      [
        "Ġ2015",
        -9.956157310412944
      ],
      [
        "Ġbaan",
        -9.956389756827992
      ],
      [
        "Ġspaanse",
        -9.957692269365662
      ],
      [
        "Ġdragen",
        -9.958267822929393
      ],
      [
        "ium",
        -9.958522596543055
      ],
      [
        "Ġmotor",
        -9.95871474884266
      ],
      [
        "taal",
        -9.959667812366673
      ],
      [
        "Ġfijn",
        -9.960834168425228
      ],
      [
        "Ġlijken",
        -9.962552888425412
      ],
      [
        "Ġ2020",
        -9.963044105770535
      ],
      [
        "Ġallebei",
        -9.9632577925866
      ],
      [
        "Ġstier",
        -9.963660353414586
      ],
      [
        "2002",
        -9.964266399403233
      ],
      [
        "Ġbereik",
        -9.964364482947552
      ],
      [
        "Ġavond",
        -9.965139288599763
      ],
      [
        "Ġvoornamelijk",
        -9.965183281671745
      ],
      [
        "\").",
        -9.967322003849672
      ],
      [
        "Ġ200",
        -9.968643741790682
      ],
      [
        "Ġverboden",
        -9.969781927863767
      ],
      [
        "Ġtas",
        -9.970241929743768
      ],
      [
        "Ġgebouwen",
        -9.970960059032898
      ],
      [
        "Ġdokter",
        -9.971560047127262
      ],
      [
        "Ġkast",
        -9.972122930439298
      ],
      [
        "stel",
        -9.972803065757216
      ],
      [
        "lijst",
        -9.973435542215157
      ],
      [
        "Ġoorzaak",
        -9.973679819485895
      ],
      [
        "Ġeilanden",
        -9.973904907199566
      ],
      [
        "Ġwijk",
        -9.974016235567055
      ],
      [
        "Ġjeugd",
        -9.975050695283855
      ],
      [
        "elijk",
        -9.97590237747933
      ],
      [
        "Ġgevoel",
        -9.97694285987222
      ],
      [
        "Ġdiep",
        -9.978510690754115
      ],
      [
        "Ġhendrik",
        -9.979968792329363
      ],
      [
        "Ġbracht",
        -9.9801734828386
      ],
      [
        "rie",
        -9.980214511959566
      ],
      [
        "Ġlief",
        -9.980364666717733
      ],
      [
        "Ġeindelijk",
        -9.980432110474947
      ],
      [
        "Ġkennen",
        -9.980658264681395
      ],
      [
        "ach",
        -9.98073609901487
      ],
      [
        "Ġveranderd",
        -9.981248209394575
      ],
      [
        "Ġbreng",
        -9.981529389453796
      ],
      [
        "Ġxi",
        -9.982028566021903
      ],
      [
        "Ġopeens",
        -9.982337304748615
      ],
      [
        "Ġbewering",
        -9.982934233985311
      ],
      [
        "Ġurban",
        -9.985414831736776
      ],
      [
        "stap",
        -9.985602226494407
      ],
      [
        "Ġprinses",
        -9.986340114479587
      ],
      [
        "Ġbord",
        -9.987436530310333
      ],
      [
        "Ġraad",
        -9.987954414490817
      ],
      [
        "Ġ2005",
        -9.988244465005259
      ],
      [
        "Ġongeluk",
        -9.988374861894687
      ],
      [
        "Ġzak",
        -9.988472717745815
      ],
      [
        "Ġzware",
        -9.988768416815176
      ],
      [
        "Ġlengte",
        -9.989695689552585
      ],
      [
        "veld",
        -9.990174289650955
      ],
      [
        "welk",
        -9.990237597019195
      ],
      [
        "Ġteam",
        -9.992263624293031
      ],
      [
        "Ġfragment",
        -9.992462965224048
      ],
      [
        "wedstrijd",
        -9.99355571738629
      ],
      [
        "Ġslaap",
        -9.993708490841744
      ],
      [
        "ger",
        -9.997251475395249
      ],
      [
        "Ġwesten",
        -9.998115719854006
      ],
      [
        "ba",
        -9.998675725970699
      ],
      [
        "Ġtoren",
        -9.999418730726461
      ],
      [
        "Ġbesloten",
        -9.999484998405148
      ],
      [
        "Ġ2008",
        -9.999567900441619
      ],
      [
        "oke",
        -10.000391973443001
      ],
      [
        "Ġgevolgen",
        -10.001738421718201
      ],
      [
        "2021",
        -10.002753922749323
      ],
      [
        "Ġschilderij",
        -10.002856091795936
      ],
      [
        "Ġfilms",
        -10.004540323899192
      ],
      [
        "Ġ2004",
        -10.006294936083801
      ],
      [
        "heen",
        -10.006582970791753
      ],
      [
        "ker",
        -10.00683877993393
      ],
      [
        "Ġnationale",
        -10.00702824147974
      ],
      [
        "Ġlodewijk",
        -10.008545270159171
      ],
      [
        "Ġhoek",
        -10.009148292070668
      ],
      [
        "Ġbonifatius",
        -10.009719019655638
      ],
      [
        "Ġverander",
        -10.011869559162033
      ],
      [
        "Ġoptreden",
        -10.014372910578519
      ],
      [
        "Ġslot",
        -10.014651173709883
      ],
      [
        "Ġstraf",
        -10.015928825308016
      ],
      [
        "Ġvrijheid",
        -10.016046638262356
      ],
      [
        "Ġvervoer",
        -10.01616170396008
      ],
      [
        "lang",
        -10.016896652560021
      ],
      [
        "Ġvoelde",
        -10.017589663725577
      ],
      [
        "Ġvaste",
        -10.018256351141641
      ],
      [
        "Ġstadion",
        -10.018478408664379
      ],
      [
        "Ġ2009",
        -10.019181507891206
      ],
      [
        "uren",
        -10.020054626812094
      ],
      [
        "Ġkritiek",
        -10.02054470569553
      ],
      [
        "Ġhonden",
        -10.020563609258815
      ],
      [
        "spel",
        -10.020817843554909
      ],
      [
        "Ġbezoek",
        -10.021544549705666
      ],
      [
        "Ġkolonie",
        -10.021921881385836
      ],
      [
        "Ġschoon",
        -10.02200686491202
      ],
      [
        "Ġvergeten",
        -10.023726031746808
      ],
      [
        "Ġverkopen",
        -10.023774682646685
      ],
      [
        "isch",
        -10.024620252313715
      ],
      [
        "rijdt",
        -10.025162866621706
      ],
      [
        "Ġso",
        -10.025814562463264
      ],
      [
        "Ġmin",
        -10.025819138275633
      ],
      [
        "Ġfietsen",
        -10.025829782335638
      ],
      [
        "Ġbewegen",
        -10.026376961483397
      ],
      [
        "europa",
        -10.026615756815325
      ],
      [
        "alle",
        -10.026642096465343
      ],
      [
        "Ġgetekend",
        -10.027639153288492
      ],
      [
        "Ġpro",
        -10.027742324797055
      ],
      [
        "Ġplastic",
        -10.028061404276073
      ],
      [
        "Ġzilver",
        -10.02841862641862
      ],
      [
        "Ġliefst",
        -10.029063764657561
      ],
      [
        "Ġarmen",
        -10.029099625611478
      ],
      [
        "Ġvandaan",
        -10.029105083093915
      ],
      [
        "Ġvermoord",
        -10.030140119584104
      ],
      [
        "Ġdierentuin",
        -10.030456110902286
      ],
      [
        "Ġbehaald",
        -10.03116511713688
      ],
      [
        "Ġrevolutie",
        -10.03125760414186
      ],
      [
        "dra",
        -10.031348429523872
      ],
      [
        "Ġkenmerken",
        -10.031691193755865
      ],
      [
        "bo",
        -10.031889493494553
      ],
      [
        "Ġca",
        -10.035116213719956
      ],
      [
        "Ġpassen",
        -10.035810967807642
      ],
      [
        "Ġstappen",
        -10.03590335589125
      ],
      [
        "Ġding",
        -10.036099872574905
      ],
      [
        "Ġfrank",
        -10.037100366860418
      ],
      [
        "Ġtekenen",
        -10.03710520834398
      ],
      [
        "Ġzout",
        -10.037796397970926
      ],
      [
        "Ġhotel",
        -10.037828116266658
      ],
      [
        "was",
        -10.038410317393653
      ],
      [
        "tekst",
        -10.038869400265117
      ],
      [
        "Ġverloren",
        -10.039260604697384
      ],
      [
        "Ġkleren",
        -10.042491658135418
      ],
      [
        "Ġliever",
        -10.042749310884908
      ],
      [
        "Ġhaven",
        -10.043185054923343
      ],
      [
        "lijk",
        -10.043209561234862
      ],
      [
        "Ġsamenleving",
        -10.043266795012176
      ],
      [
        "Ġburgers",
        -10.044765759115677
      ],
      [
        "Ġcijfers",
        -10.045380362186057
      ],
      [
        "film",
        -10.045516831327262
      ],
      [
        "Ġvoeren",
        -10.04721683813097
      ],
      [
        "Ġhiervan",
        -10.048385458662967
      ],
      [
        "Ġfout",
        -10.04848821413407
      ],
      [
        "Ġkeuze",
        -10.04899096701756
      ],
      [
        "Ġschepen",
        -10.050178779015681
      ],
      [
        "137",
        -10.053255045192545
      ],
      [
        "Ġgraden",
        -10.053548051263508
      ],
      [
        "Ġdorpen",
        -10.053689566014455
      ],
      [
        "Ġerachter",
        -10.054648248049919
      ],
      [
        "Ġinternationale",
        -10.055236309801998
      ],
      [
        "pas",
        -10.055704088678215
      ],
      [
        "Ġgezin",
        -10.056811736569713
      ],
      [
        "Ġtype",
        -10.05803863735969
      ],
      [
        "Ġschoenen",
        -10.05904134434836
      ],
      [
        "Ġ2013",
        -10.061824228114851
      ],
      [
        "Ġafval",
        -10.062148132282658
      ],
      [
        "Ġjohn",
        -10.062299925598833
      ],
      [
        "Ġeentje",
        -10.062642313415267
      ],
      [
        "Ġgram",
        -10.062882553453889
      ],
      [
        "zal",
        -10.063121225408217
      ],
      [
        "Ġthee",
        -10.063746222001557
      ],
      [
        "gevallen",
        -10.063946286345342
      ],
      [
        "kel",
        -10.06498084641834
      ],
      [
        "Ġthema",
        -10.065315782631139
      ],
      [
        "wacht",
        -10.065347388536392
      ],
      [
        "Ġpolen",
        -10.065457646427678
      ],
      [
        "Ġaspect",
        -10.066333528871757
      ],
      [
        "Ġstenen",
        -10.066381906039947
      ],
      [
        "grote",
        -10.0667902571064
      ],
      [
        "15",
        -10.068020518731426
      ],
      [
        "Ġkg",
        -10.06810586781936
      ],
      [
        "Ġhelpt",
        -10.068405067891824
      ],
      [
        "ok",
        -10.068867844793697
      ],
      [
        "Ġhangen",
        -10.069166105992695
      ],
      [
        "Ġoosten",
        -10.069572824897534
      ],
      [
        "Ġand",
        -10.070415354757284
      ],
      [
        "Ġvolgen",
        -10.072245229557605
      ],
      [
        "Ġpaul",
        -10.072583915230386
      ],
      [
        "Ġstukken",
        -10.07368713621194
      ],
      [
        "Ġindia",
        -10.075099371542054
      ],
      [
        "turkije",
        -10.076802348139067
      ],
      [
        "wa",
        -10.07691728821888
      ],
      [
        "Ġlacht",
        -10.077730400756293
      ],
      [
        "Ġgeorge",
        -10.077861987535226
      ],
      [
        "Ġbekendste",
        -10.078043705927225
      ],
      [
        "Ġvolledig",
        -10.078306221919707
      ],
      [
        "Ġnapoleon",
        -10.078432549905038
      ],
      [
        "nederland",
        -10.079750422330276
      ],
      [
        "Ġwolf",
        -10.079963764638643
      ],
      [
        "Ġtalen",
        -10.080601746478457
      ],
      [
        "!\"",
        -10.081585564780683
      ],
      [
        "Ġbeschermen",
        -10.082679210358696
      ],
      [
        "programma",
        -10.083716634367908
      ],
      [
        "Ġleest",
        -10.0841131088014
      ],
      [
        "Ġtoeristen",
        -10.084208780168424
      ],
      [
        "Ġverteld",
        -10.08442378788341
      ],
      [
        "27",
        -10.08561820479911
      ],
      [
        "Ġtanden",
        -10.085978595884182
      ],
      [
        "Ġ35",
        -10.08617677476913
      ],
      [
        "Ġoor",
        -10.0871831109867
      ],
      [
        "Ġkaas",
        -10.087822653804189
      ],
      [
        "reden",
        -10.08896833105215
      ],
      [
        "[",
        -10.089171516273364
      ],
      [
        "Ġmodel",
        -10.089390420482543
      ],
      [
        "Ġrennen",
        -10.08941777845721
      ],
      [
        "Ġklaas",
        -10.089617107890207
      ],
      [
        "blad",
        -10.09099352337729
      ],
      [
        "leed",
        -10.091112361430598
      ],
      [
        "Ġwacht",
        -10.091691518113691
      ],
      [
        "Ġpaus",
        -10.092141808838495
      ],
      [
        "Ġsysteem",
        -10.092252314062033
      ],
      [
        "Ġ80",
        -10.092694538128264
      ],
      [
        "Ġbeantwoord",
        -10.094217408630055
      ],
      [
        "deel",
        -10.095056406195845
      ],
      [
        "Ġstorm",
        -10.09531600478159
      ],
      [
        "Ġbelgische",
        -10.095993058647679
      ],
      [
        "Ġoekraine",
        -10.096059148947912
      ],
      [
        "Ġvoorzichtig",
        -10.096526495614606
      ],
      [
        "Ġtegenstander",
        -10.096627932327443
      ],
      [
        "]",
        -10.096951481707345
      ],
      [
        "kant",
        -10.097526052978154
      ],
      [
        "Ġromeinen",
        -10.100044626059885
      ],
      [
        "Ġtie",
        -10.101153764308123
      ],
      [
        "Ġboekje",
        -10.101328542127575
      ],
      [
        "Ġpan",
        -10.101348030996334
      ],
      [
        "Ġbehal",
        -10.101485692359637
      ],
      [
        "Ġcon",
        -10.104194864652559
      ],
      [
        "Ġpen",
        -10.105525524998445
      ],
      [
        "Ġvet",
        -10.105928407082786
      ],
      [
        "191",
        -10.106015925636662
      ],
      [
        "Ġpot",
        -10.106183532110013
      ],
      [
        "Ġreageer",
        -10.106257977894437
      ],
      [
        "Ġinhoud",
        -10.106798924839122
      ],
      [
        "Ġofficieel",
        -10.107077482759284
      ],
      [
        "Ġenkel",
        -10.1075749355044
      ],
      [
        "Ġuitsprak",
        -10.108181544624816
      ],
      [
        "Ġbloem",
        -10.109427169569464
      ],
      [
        "Ġgeel",
        -10.109651471405652
      ],
      [
        "Ġveroorzaakt",
        -10.110155083490326
      ],
      [
        "Ġrust",
        -10.11098852659915
      ],
      [
        "erdaad",
        -10.111322976504695
      ],
      [
        "Ġhierme",
        -10.11149204631942
      ],
      [
        "kaart",
        -10.115625008119459
      ],
      [
        "Ġregelmatig",
        -10.116811713441972
      ],
      [
        "uur",
        -10.118172246573451
      ],
      [
        "Ġmoe",
        -10.118348191680255
      ],
      [
        "Ġitaliaans",
        -10.118445203468415
      ],
      [
        "Ġgeheel",
        -10.118896660478482
      ],
      [
        "Ġraakt",
        -10.119262866324718
      ],
      [
        "Ġschade",
        -10.120591954818511
      ],
      [
        "Ġno",
        -10.120652881388537
      ],
      [
        "Ġvermogen",
        -10.12082078884707
      ],
      [
        "Ġplannen",
        -10.121905327626205
      ],
      [
        "zeg",
        -10.122620393343766
      ],
      [
        "Ġmol",
        -10.122723526921861
      ],
      [
        "Ġvinger",
        -10.12372300277505
      ],
      [
        "www",
        -10.12386693784827
      ],
      [
        "Ġpa",
        -10.12443962414607
      ],
      [
        "Ġli",
        -10.124627279955298
      ],
      [
        "Ġlonden",
        -10.125315155322376
      ],
      [
        "Ġtest",
        -10.125648891663921
      ],
      [
        "Ġ2022",
        -10.12724481188347
      ],
      [
        "Ġrand",
        -10.127483138773966
      ],
      [
        "Ġtijdje",
        -10.12778042292075
      ],
      [
        "enorme",
        -10.12830378490547
      ],
      [
        "geteld",
        -10.128904331000449
      ],
      [
        "Ġau",
        -10.129141543472755
      ],
      [
        "Ġplaatjes",
        -10.129398897788931
      ],
      [
        "gemaakt",
        -10.130183552737257
      ],
      [
        "Ġdom",
        -10.131615482226339
      ],
      [
        "Ġsp",
        -10.13326703900377
      ],
      [
        "Ġluisteren",
        -10.133269826952537
      ],
      [
        "ring",
        -10.133769741734692
      ],
      [
        "Ġwetenschapper",
        -10.133776378376588
      ],
      [
        "Ġzus",
        -10.137556407708637
      ],
      [
        "Ġbepalen",
        -10.137928762023602
      ],
      [
        "Ġxii",
        -10.138525693268043
      ],
      [
        "Ġbovendi",
        -10.138804547639879
      ],
      [
        "greep",
        -10.138940805391305
      ],
      [
        "Ġwou",
        -10.13960616913393
      ],
      [
        "Ġzette",
        -10.139919526426763
      ],
      [
        "Ġhonderd",
        -10.14008414940949
      ],
      [
        "Ġjaarlijks",
        -10.140690916453696
      ],
      [
        "slag",
        -10.140911857990275
      ],
      [
        "Ġreizen",
        -10.14208578006314
      ],
      [
        "sche",
        -10.142645514153937
      ],
      [
        "Ġcontact",
        -10.143579745395094
      ],
      [
        "identifi",
        -10.143650615277826
      ],
      [
        "Ġoudste",
        -10.143755318764338
      ],
      [
        "Ġseconden",
        -10.14380291078553
      ],
      [
        "gelaten",
        -10.144144477940426
      ],
      [
        "Ġgesprek",
        -10.145773520102
      ],
      [
        "Ġdichter",
        -10.147056009830049
      ],
      [
        "Ġrent",
        -10.147351248522241
      ],
      [
        "Ġtoegevoegd",
        -10.147674883374535
      ],
      [
        "Ġgeleerd",
        -10.148474756982672
      ],
      [
        "Ġorde",
        -10.148694967461157
      ],
      [
        "steden",
        -10.149650162094492
      ],
      [
        "dijk",
        -10.149670195663969
      ],
      [
        "Ġgriekse",
        -10.150747077966233
      ],
      [
        "Ġgroningen",
        -10.150871312620067
      ],
      [
        "Ġzogeheten",
        -10.151333739326622
      ],
      [
        "Ġvertelde",
        -10.151650987056545
      ],
      [
        "Ġpakte",
        -10.152037844155979
      ],
      [
        "iv",
        -10.152125142470203
      ],
      [
        "Ġbestuur",
        -10.152839282309724
      ],
      [
        "Ġrestaurant",
        -10.153447481114137
      ],
      [
        "loos",
        -10.154350645773807
      ],
      [
        "Ġbergen",
        -10.155244058925728
      ],
      [
        "Ġgat",
        -10.156091349613462
      ],
      [
        "Ġwerkte",
        -10.156162786803572
      ],
      [
        "Ġspanning",
        -10.156434275166625
      ],
      [
        "leven",
        -10.156651897648624
      ],
      [
        "Ġconclusie",
        -10.156805890867473
      ],
      [
        "16",
        -10.157556648418698
      ],
      [
        "plaats",
        -10.157988132315808
      ],
      [
        "Ġaardig",
        -10.158752393219935
      ],
      [
        "geslagen",
        -10.159855747687502
      ],
      [
        "Ġliedje",
        -10.159962584605807
      ],
      [
        "19",
        -10.160213839174546
      ],
      [
        "Ġbeurt",
        -10.160667758554645
      ],
      [
        "park",
        -10.161222632514846
      ],
      [
        "hoek",
        -10.161928366332639
      ],
      [
        "Ġdaan",
        -10.162081889809713
      ],
      [
        "Ġgrotere",
        -10.162272294036299
      ],
      [
        "Ġverwacht",
        -10.162412581426391
      ],
      [
        "Ġaustralie",
        -10.162431308771719
      ],
      [
        "Ġnegen",
        -10.162651026652867
      ],
      [
        "Ġblok",
        -10.162850277241237
      ],
      [
        "Ġtheater",
        -10.163146667360913
      ],
      [
        "Ġrekening",
        -10.163256244490963
      ],
      [
        "Ġbijzondere",
        -10.163913817482122
      ],
      [
        "Ġpe",
        -10.164590225452681
      ],
      [
        "Ġgevangen",
        -10.164632265384505
      ],
      [
        "vind",
        -10.166380706166125
      ],
      [
        "Ġhal",
        -10.166420076824421
      ],
      [
        "Ġdoos",
        -10.166571296546348
      ],
      [
        "Ġhalve",
        -10.166668189351704
      ],
      [
        "tot",
        -10.166717202220179
      ],
      [
        "Ġbevind",
        -10.167764349288241
      ],
      [
        "zit",
        -10.168411522407094
      ],
      [
        "Ġgehaald",
        -10.168669979865674
      ],
      [
        "Ġleid",
        -10.168935957742416
      ],
      [
        "pak",
        -10.169335653066668
      ],
      [
        "Ġduizenden",
        -10.171143565234644
      ],
      [
        "Ġab",
        -10.171271322757551
      ],
      [
        "Ġalcohol",
        -10.171663792049792
      ],
      [
        "Ġleuke",
        -10.171873398484149
      ],
      [
        "Ġbar",
        -10.172040377557295
      ],
      [
        "foto",
        -10.172429989814006
      ],
      [
        "Ġvak",
        -10.17249476754224
      ],
      [
        "staan",
        -10.17250352541298
      ],
      [
        "Ġvertel",
        -10.174126265970493
      ],
      [
        "Ġbelang",
        -10.174368309889669
      ],
      [
        "papa",
        -10.174478653592377
      ],
      [
        "Ġtrots",
        -10.174864438332339
      ],
      [
        "ly",
        -10.176359735291655
      ],
      [
        "Ġ2003",
        -10.176675448364838
      ],
      [
        "kosten",
        -10.176736392255608
      ],
      [
        "jaar",
        -10.176871737523012
      ],
      [
        "Ġmateriaal",
        -10.176975158251867
      ],
      [
        "Ġproces",
        -10.178366648542411
      ],
      [
        "Ġflink",
        -10.179207220029143
      ],
      [
        "Ġstand",
        -10.17941159769971
      ],
      [
        "Ġronde",
        -10.17978411404846
      ],
      [
        "Ġbereken",
        -10.181712286796882
      ],
      [
        "toon",
        -10.186171642365577
      ],
      [
        "Ġdoden",
        -10.186279263803812
      ],
      [
        "bron",
        -10.186444374123944
      ],
      [
        "Ġleidde",
        -10.186497256382317
      ],
      [
        "Ġsprong",
        -10.187172485017427
      ],
      [
        "gesproken",
        -10.18733835562553
      ],
      [
        "Ġkabinet",
        -10.187454957533806
      ],
      [
        "Ġouder",
        -10.187687997571278
      ],
      [
        "Ġduur",
        -10.187896883731968
      ],
      [
        "Ġappel",
        -10.1879018522171
      ],
      [
        "vorm",
        -10.187963089673936
      ],
      [
        "peter",
        -10.189588920682429
      ],
      [
        "Ġverdienen",
        -10.18977317419759
      ],
      [
        "Ġleider",
        -10.189825357741627
      ],
      [
        "Ġliter",
        -10.19009052953496
      ],
      [
        "systeem",
        -10.191134494894047
      ],
      [
        "Ġfor",
        -10.191441972930559
      ],
      [
        "Ġonderzoeken",
        -10.19203951282724
      ],
      [
        "Ġgeschikt",
        -10.19224045374345
      ],
      [
        "Ġvierde",
        -10.192406506321976
      ],
      [
        "ley",
        -10.192726803867973
      ],
      [
        "yl",
        -10.192945266400269
      ],
      [
        "Ġzagen",
        -10.193410693587982
      ],
      [
        "Ġpaarden",
        -10.193754228857
      ],
      [
        "ica",
        -10.193897760771002
      ],
      [
        "Ġmede",
        -10.194231814534733
      ],
      [
        "Ġbram",
        -10.194259639364088
      ],
      [
        "Ġhouten",
        -10.19553973261508
      ],
      [
        "Ġbelasting",
        -10.196362978234474
      ],
      [
        "Ġsturen",
        -10.197203253848846
      ],
      [
        "Ġboerderij",
        -10.197844872462264
      ],
      [
        "Ġvoeten",
        -10.197895716417952
      ],
      [
        "Ġgele",
        -10.199605277313367
      ],
      [
        "Ġochtend",
        -10.200392191134403
      ],
      [
        "Ġgeloven",
        -10.200898864663033
      ],
      [
        "Ġkip",
        -10.201126024006445
      ],
      [
        "Ġgebaseerd",
        -10.201578044842375
      ],
      [
        "145",
        -10.202398957113452
      ],
      [
        "Ġbeoordeling",
        -10.204763979269796
      ],
      [
        "Ġpremier",
        -10.205014299950008
      ],
      [
        "Ġ2001",
        -10.205220905664689
      ],
      [
        "vallen",
        -10.20575241129487
      ],
      [
        "Ġverbaasd",
        -10.206323251921948
      ],
      [
        "Ġadem",
        -10.206881500106565
      ],
      [
        "volgens",
        -10.207567117398536
      ],
      [
        "Ġgeopend",
        -10.209051799239615
      ],
      [
        "Ġschat",
        -10.209207771233613
      ],
      [
        "Ġwegen",
        -10.209936035998489
      ],
      [
        "Ġeieren",
        -10.21006262719661
      ],
      [
        "Ġbekijken",
        -10.210714810297212
      ],
      [
        "Ġwild",
        -10.21087640499903
      ],
      [
        "Ġstopt",
        -10.210915014499301
      ],
      [
        "Ġhou",
        -10.212560146600207
      ],
      [
        "Ġnicolaas",
        -10.21263673205429
      ],
      [
        "Ġbuitenland",
        -10.2130903450672
      ],
      [
        "Ġvoelen",
        -10.21312130453609
      ],
      [
        "Ġvraagnummer",
        -10.213596618507463
      ],
      [
        "Ġgevormd",
        -10.213674030672593
      ],
      [
        "Ġ500",
        -10.2137910275421
      ],
      [
        "Ġblad",
        -10.214592242153692
      ],
      [
        "Ġoppervlakte",
        -10.215075886207481
      ],
      [
        "Ġgeheim",
        -10.215190738669207
      ],
      [
        "Ġtrek",
        -10.21563483271908
      ],
      [
        "Ġbacterien",
        -10.216753145946548
      ],
      [
        "Ġslechte",
        -10.217955115939196
      ],
      [
        "Ġheette",
        -10.21827339035822
      ],
      [
        "Ġoceaan",
        -10.21837451725371
      ],
      [
        "13",
        -10.218485327124483
      ],
      [
        "Ġstukjes",
        -10.218552527526182
      ],
      [
        "Ġverliefd",
        -10.21924289943444
      ],
      [
        "Ġgewicht",
        -10.219446588275652
      ],
      [
        "Ġjoden",
        -10.221027469263017
      ],
      [
        "Ġlager",
        -10.221639634145614
      ],
      [
        "laag",
        -10.222258371683647
      ],
      [
        "Ġproduct",
        -10.222652889672402
      ],
      [
        "Ġthomas",
        -10.222988616483732
      ],
      [
        "holland",
        -10.223169773077274
      ],
      [
        "Ġgolf",
        -10.22401476187235
      ],
      [
        "Ġbladzijde",
        -10.224515800625412
      ],
      [
        "Ġcamera",
        -10.225090984579031
      ],
      [
        "Ġkoop",
        -10.225142506200736
      ],
      [
        "Ġhandig",
        -10.225916393657432
      ],
      [
        "Ġduitser",
        -10.226227375116366
      ],
      [
        "Ġdienst",
        -10.226284015234373
      ],
      [
        "Ġafloop",
        -10.227648516261993
      ],
      [
        "Ġwijst",
        -10.228252525427182
      ],
      [
        "Ġdavid",
        -10.22880640226024
      ],
      [
        "Ġrijn",
        -10.229242233031869
      ],
      [
        "verantwoordelijk",
        -10.22928149970034
      ],
      [
        "Ġhierna",
        -10.229534732155276
      ],
      [
        "Â",
        -10.232797896167742
      ],
      [
        "burg",
        -10.233484740858124
      ],
      [
        "breekt",
        -10.233499458134995
      ],
      [
        "huizen",
        -10.233778872196197
      ],
      [
        "Ġfa",
        -10.234295892908879
      ],
      [
        "pakken",
        -10.234578429837764
      ],
      [
        "Ġbot",
        -10.234648602781581
      ],
      [
        "Ġopvatting",
        -10.235286328731382
      ],
      [
        "Ġhersenen",
        -10.235857448571108
      ],
      [
        "misschie",
        -10.236326672224761
      ],
      [
        "muziek",
        -10.23746079592066
      ],
      [
        "soort",
        -10.238449328955856
      ],
      [
        "Ġtouw",
        -10.238842784734857
      ],
      [
        "heeft",
        -10.239067503502442
      ],
      [
        "schap",
        -10.239528338808217
      ],
      [
        "Ġeraan",
        -10.24014257829688
      ],
      [
        "Ġjaap",
        -10.240544563759823
      ],
      [
        "Ġgehoord",
        -10.241085100482211
      ],
      [
        "Ġpost",
        -10.241312787737098
      ],
      [
        "Ġverleden",
        -10.241338215311519
      ],
      [
        "Ġgaten",
        -10.241671707290303
      ],
      [
        "Ġkwijt",
        -10.241792706379583
      ],
      [
        "tijdens",
        -10.242895955286762
      ],
      [
        "Ġ32",
        -10.243016520504334
      ],
      [
        "con",
        -10.243505504479028
      ],
      [
        "Ġwarmte",
        -10.243800781012691
      ],
      [
        "Ġplotseling",
        -10.243828001461225
      ],
      [
        "regels",
        -10.244739401429587
      ],
      [
        "Ġmuis",
        -10.245304028171649
      ],
      [
        "vis",
        -10.246452698398265
      ],
      [
        "Ġpiet",
        -10.24721058600741
      ],
      [
        "Ġleeft",
        -10.248467676937263
      ],
      [
        "Ġreclame",
        -10.24856584916638
      ],
      [
        "aal",
        -10.248965953480266
      ],
      [
        "Ġfilip",
        -10.24945270756826
      ],
      [
        "Ġmiddeleeuwen",
        -10.2498312221384
      ],
      [
        "bronnen",
        -10.251016733884748
      ],
      [
        "Ġlukt",
        -10.25175741673339
      ],
      [
        "Ġraakte",
        -10.252113967284945
      ],
      [
        "Ġknikt",
        -10.253973488620453
      ],
      [
        "Ġoorspronkelijk",
        -10.254333521167897
      ],
      [
        "Ġweekend",
        -10.255214917240615
      ],
      [
        "kracht",
        -10.255613363968747
      ],
      [
        "Ġstijl",
        -10.255729374708473
      ],
      [
        "Ġstart",
        -10.255789702272555
      ],
      [
        "Ġzwede",
        -10.256524516312647
      ],
      [
        "1999",
        -10.257325614631966
      ],
      [
        "haar",
        -10.257329422026933
      ],
      [
        "Ġrondje",
        -10.257579187323707
      ],
      [
        "Ġlage",
        -10.257824755863629
      ],
      [
        "Ġstroomt",
        -10.258039047379775
      ],
      [
        "Ġtechniek",
        -10.260129991887357
      ],
      [
        "Ġeffect",
        -10.260303786287167
      ],
      [
        "Ġuitge",
        -10.260458341889176
      ],
      [
        "Ġbuitenlands",
        -10.262625628341837
      ],
      [
        "Ġlegde",
        -10.26270348125686
      ],
      [
        "Ġrivieren",
        -10.262764714333468
      ],
      [
        "mel",
        -10.263377050073416
      ],
      [
        "Ġbak",
        -10.264738030644258
      ],
      [
        "Ġsterke",
        -10.265433649380462
      ],
      [
        "Ġvoldoende",
        -10.2658893990049
      ],
      [
        "tische",
        -10.267428238837354
      ],
      [
        "Ġproef",
        -10.268401207203269
      ],
      [
        "Ġbetaald",
        -10.268596913671056
      ],
      [
        "Ġchinese",
        -10.26930649667403
      ],
      [
        "Ġtelken",
        -10.26941396719608
      ],
      [
        "Ġtaak",
        -10.269642010769232
      ],
      [
        "Ġwijze",
        -10.269727632144193
      ],
      [
        "Ġbel",
        -10.271793050098431
      ],
      [
        "Ġgroepje",
        -10.271908367817325
      ],
      [
        "Ġgeluk",
        -10.272354830371711
      ],
      [
        "Ġraar",
        -10.273012048170065
      ],
      [
        "Ġisrael",
        -10.274455936829977
      ],
      [
        "Ġpersonage",
        -10.274517502476684
      ],
      [
        "Ġvechten",
        -10.275068001074182
      ],
      [
        "187",
        -10.27624521372779
      ],
      [
        "Ġxiii",
        -10.276461105773919
      ],
      [
        "Ġkaarten",
        -10.277014805997675
      ],
      [
        "afrika",
        -10.27777607557373
      ],
      [
        "Ġheilige",
        -10.278038848375878
      ],
      [
        "Ġverwijzen",
        -10.278064837944381
      ],
      [
        "Ġanna",
        -10.278141707809977
      ],
      [
        "Ġofficiele",
        -10.278253341599353
      ],
      [
        "bedrijf",
        -10.278528006714703
      ],
      [
        "Ġopzichte",
        -10.278723952796474
      ],
      [
        "Ġraken",
        -10.27877290093182
      ],
      [
        "Ġjo",
        -10.27942406773712
      ],
      [
        "Ġspeel",
        -10.27991170178651
      ],
      [
        "pie",
        -10.28064960271054
      ],
      [
        "aat",
        -10.281225630372855
      ],
      [
        "Ġinsecten",
        -10.281997091414862
      ],
      [
        "Ġgeplaatst",
        -10.282132562280708
      ],
      [
        "bank",
        -10.282233698968358
      ],
      [
        "Ġbeelden",
        -10.28240887859534
      ],
      [
        "bi",
        -10.282516623631405
      ],
      [
        "Ġvorig",
        -10.282894078159945
      ],
      [
        "Ġslaat",
        -10.283241291203481
      ],
      [
        "Ġinkomen",
        -10.283408909343962
      ],
      [
        "Ġoverleden",
        -10.283476291559575
      ],
      [
        "loog",
        -10.2835417160146
      ],
      [
        "Ġonderzocht",
        -10.283849848784643
      ],
      [
        "Ġgrati",
        -10.284058981886265
      ],
      [
        "kamp",
        -10.28477024628334
      ],
      [
        "Ġcanada",
        -10.284921398574983
      ],
      [
        "Ġschoot",
        -10.284946743359502
      ],
      [
        "gegeten",
        -10.285027441807742
      ],
      [
        "Ġchristus",
        -10.285175820016415
      ],
      [
        "Ġdraaide",
        -10.285184510884623
      ],
      [
        "Ġmaarten",
        -10.285902798558249
      ],
      [
        "Ġgrondwet",
        -10.285949198165818
      ],
      [
        "Ġballon",
        -10.286420704945074
      ],
      [
        "omstandigheden",
        -10.287386536926114
      ],
      [
        "Ġmiljard",
        -10.288403080178263
      ],
      [
        "band",
        -10.288665789215782
      ],
      [
        "nemen",
        -10.288803646775168
      ],
      [
        "Ġontwerp",
        -10.288939324187496
      ],
      [
        "Ġfruit",
        -10.289124719617162
      ],
      [
        "lekker",
        -10.289190975717851
      ],
      [
        "ele",
        -10.289483823289228
      ],
      [
        "Ġzondag",
        -10.289939510216426
      ],
      [
        "Ġmexico",
        -10.290887523643818
      ],
      [
        "zij",
        -10.29158677540092
      ],
      [
        "min",
        -10.29296444267617
      ],
      [
        "Ġkim",
        -10.29328832299155
      ],
      [
        "Ġvijand",
        -10.294924680250716
      ],
      [
        "straat",
        -10.295948095724507
      ],
      [
        "Ġmoeite",
        -10.296099356804337
      ],
      [
        "Ġdemocratie",
        -10.296277023239071
      ],
      [
        "Ġgeboorte",
        -10.29692092378454
      ],
      [
        "Ġhondje",
        -10.297313883031961
      ],
      [
        "Ġvrede",
        -10.298217430695285
      ],
      [
        "Ġzaterdag",
        -10.29832508248994
      ],
      [
        "Ġadrian",
        -10.298417965692746
      ],
      [
        "Ġrijke",
        -10.298748259868255
      ],
      [
        "Ġafhankelijk",
        -10.29925212697546
      ],
      [
        "Ġegypte",
        -10.299301787116814
      ],
      [
        "Ġgeweld",
        -10.299708549551468
      ],
      [
        "Ġtrouwde",
        -10.300299551879892
      ],
      [
        "stra",
        -10.300549386855742
      ],
      [
        "25",
        -10.301440884646748
      ],
      [
        "Ġ70",
        -10.30145939379873
      ],
      [
        "Ġgo",
        -10.301490536940767
      ],
      [
        "Ġwk",
        -10.301979664274713
      ],
      [
        "Ġamerikan",
        -10.302616520172762
      ],
      [
        "Ġbladeren",
        -10.303841589171537
      ],
      [
        "Ġroepen",
        -10.305467918904728
      ],
      [
        "Ġreageren",
        -10.305819592814444
      ],
      [
        "Ġnat",
        -10.306044862629271
      ],
      [
        "Ġlied",
        -10.306894260494374
      ],
      [
        "kort",
        -10.307279165643603
      ],
      [
        "Ġkleinere",
        -10.30781323758237
      ],
      [
        "rijk",
        -10.30874411549086
      ],
      [
        "Ġcentraal",
        -10.30992699063253
      ],
      [
        "grand",
        -10.309950284288284
      ],
      [
        "Ġnauwelijks",
        -10.31008102938493
      ],
      [
        "Ġberoemde",
        -10.310442726111312
      ],
      [
        "Ġslaan",
        -10.311125622432662
      ],
      [
        "meester",
        -10.31128399252675
      ],
      [
        "vraag",
        -10.311332388817283
      ],
      [
        "Ġbart",
        -10.311642459722146
      ],
      [
        "punt",
        -10.31215047525595
      ],
      [
        "Ġbijlage",
        -10.312282934588122
      ],
      [
        "hout",
        -10.313068080924308
      ],
      [
        "Ġgooien",
        -10.313177212829416
      ],
      [
        "vi",
        -10.314356779120578
      ],
      [
        "1998",
        -10.314874585339094
      ],
      [
        "Ġvreemd",
        -10.31581820468146
      ],
      [
        "Ġkoen",
        -10.316626807959977
      ],
      [
        "bon",
        -10.316939081835509
      ],
      [
        "Ġkees",
        -10.317367988415764
      ],
      [
        "Ġklopt",
        -10.317554004207324
      ],
      [
        "Ġstudenten",
        -10.31761784058068
      ],
      [
        "loop",
        -10.318535200377944
      ],
      [
        "soorten",
        -10.318574117920852
      ],
      [
        "Ġdansen",
        -10.318610555297418
      ],
      [
        "Ġfeit",
        -10.318646353897497
      ],
      [
        "Ġwinst",
        -10.318931038191707
      ],
      [
        "Ġkwaad",
        -10.319224985739144
      ],
      [
        "Ġrome",
        -10.319372708343186
      ],
      [
        "Ġpraat",
        -10.320321562564672
      ],
      [
        "Ġsterren",
        -10.321420474082387
      ],
      [
        "Ġajax",
        -10.322331927674755
      ],
      [
        "Ġkoude",
        -10.32285955401493
      ],
      [
        "Ġlaura",
        -10.322975072225272
      ],
      [
        "Ġzoekt",
        -10.323076054761696
      ],
      [
        "Ġgi",
        -10.3240862421289
      ],
      [
        "externe",
        -10.324684133964531
      ],
      [
        "Ġbezoekers",
        -10.325335473899841
      ],
      [
        "Ġpo",
        -10.325494057819785
      ],
      [
        "Ġbo",
        -10.32554252159645
      ],
      [
        "Ġtegelijk",
        -10.326998918503792
      ],
      [
        "Ġharde",
        -10.327008493046662
      ],
      [
        "Ġbellen",
        -10.32790684377627
      ],
      [
        "mar",
        -10.328589116010882
      ],
      [
        "baan",
        -10.328689225776749
      ],
      [
        "?\"",
        -10.329774198276171
      ],
      [
        "Ġactief",
        -10.331429325416273
      ],
      [
        "Ġgroeit",
        -10.331567331634574
      ],
      [
        "Ġverf",
        -10.333622646697613
      ],
      [
        "neemt",
        -10.333795864940626
      ],
      [
        "gedrag",
        -10.335076163626487
      ],
      [
        "Ġgame",
        -10.335365032740699
      ],
      [
        "boom",
        -10.335451505971616
      ],
      [
        "Ġvoren",
        -10.336515321407166
      ],
      [
        "Ġspannend",
        -10.337440911269294
      ],
      [
        "Ġsloeg",
        -10.337518608782798
      ],
      [
        "Ġopstand",
        -10.337897462544035
      ],
      [
        "Ġkoper",
        -10.338151111879878
      ],
      [
        "geen",
        -10.33902750142494
      ],
      [
        "Ġideeen",
        -10.339643419181982
      ],
      [
        "Ġvies",
        -10.339865649838384
      ],
      [
        "Ġspelers",
        -10.340930259858812
      ],
      [
        "leggen",
        -10.34111324971258
      ],
      [
        "Ġschaal",
        -10.342936008213256
      ],
      [
        "Ġwinkels",
        -10.343000641924359
      ],
      [
        "Ġzaal",
        -10.343029154432895
      ],
      [
        "Ġbol",
        -10.344518575741379
      ],
      [
        "Ġwarme",
        -10.344698409742122
      ],
      [
        "Ġvoorstelling",
        -10.34470561191375
      ],
      [
        "achtige",
        -10.344960561955215
      ],
      [
        "ijs",
        -10.345405115234845
      ],
      [
        "Ġgevaar",
        -10.345568054361898
      ],
      [
        "Ġlot",
        -10.345807604593052
      ],
      [
        "echt",
        -10.346401111277213
      ],
      [
        "Ġ190",
        -10.346481526693662
      ],
      [
        "Ġtheorie",
        -10.346632291945268
      ],
      [
        "ron",
        -10.346735145860869
      ],
      [
        "eerde",
        -10.347043650064883
      ],
      [
        "Ġvermeld",
        -10.34723040000223
      ],
      [
        "Ġbruin",
        -10.34774572592746
      ],
      [
        "kamer",
        -10.349011897688083
      ],
      [
        "Ġhonger",
        -10.34927510798622
      ],
      [
        "Ġgekocht",
        -10.34967398681961
      ],
      [
        "Ġtwaalf",
        -10.35047849333305
      ],
      [
        "ering",
        -10.350629842890525
      ],
      [
        "Ġsinterklaas",
        -10.351237050199083
      ],
      [
        "Ġjuffrouw",
        -10.35124684536026
      ],
      [
        "130",
        -10.35128300831989
      ],
      [
        "Ġarme",
        -10.35131201521985
      ],
      [
        "Ġplein",
        -10.35136855236025
      ],
      [
        "Ġnina",
        -10.351779640802729
      ],
      [
        "Ġrechten",
        -10.352460661525694
      ],
      [
        "Ġcas",
        -10.35269724582712
      ],
      [
        "Ġspreekt",
        -10.352759369278797
      ],
      [
        "555",
        -10.352855474784334
      ],
      [
        "Ġleert",
        -10.353387439394652
      ],
      [
        "Ġph",
        -10.353511841514642
      ],
      [
        "Ġhol",
        -10.353818201122728
      ],
      [
        "zin",
        -10.353875074434237
      ],
      [
        "Ġtaart",
        -10.355285158142191
      ],
      [
        "Ġknie",
        -10.355621991658342
      ],
      [
        "Ġonderdelen",
        -10.355763592274633
      ],
      [
        "Ġpositie",
        -10.356282585966515
      ],
      [
        "Ġvoetballen",
        -10.356340243232275
      ],
      [
        "Ġ33",
        -10.356630495679298
      ],
      [
        "Ġdagelijks",
        -10.356664914885062
      ],
      [
        "Ġmark",
        -10.357081227401581
      ],
      [
        "Ġafge",
        -10.35741487083771
      ],
      [
        "ikke",
        -10.35772312200342
      ],
      [
        "Ġleiding",
        -10.357980844921443
      ],
      [
        "1276",
        -10.358105825548208
      ],
      [
        "Ġnationaal",
        -10.358160711175731
      ],
      [
        "Ġklok",
        -10.358938543585431
      ],
      [
        "Ġgebeurtenissen",
        -10.358943818911612
      ],
      [
        "gesloten",
        -10.359038583100073
      ],
      [
        "Ġangst",
        -10.359177792319832
      ],
      [
        "tig",
        -10.360472016841063
      ],
      [
        "Ġlastig",
        -10.360538280692234
      ],
      [
        "Ġjack",
        -10.361221712972117
      ],
      [
        "rit",
        -10.361315567808706
      ],
      [
        "66",
        -10.361825265476792
      ],
      [
        "lie",
        -10.362459646474314
      ],
      [
        "Ġschema",
        -10.362603346081894
      ],
      [
        "Ġdirecteur",
        -10.362710030262594
      ],
      [
        "Ġbrak",
        -10.363229152678331
      ],
      [
        "Ġblik",
        -10.363506093293005
      ],
      [
        "Ġhans",
        -10.364021082116224
      ],
      [
        "Ġnoemde",
        -10.364292371664103
      ],
      [
        "Ġvictor",
        -10.36435034012613
      ],
      [
        "Ġschiet",
        -10.364682610789787
      ],
      [
        "Ġbek",
        -10.364965552358191
      ],
      [
        "Ġmunt",
        -10.365104981490266
      ],
      [
        "ap",
        -10.365209574962446
      ],
      [
        "Ġhoef",
        -10.365652505457476
      ],
      [
        "Ġwapen",
        -10.365776422250658
      ],
      [
        "14",
        -10.365984374700577
      ],
      [
        "Ġherkennen",
        -10.367347763808688
      ],
      [
        "Ġbewoners",
        -10.367702290489088
      ],
      [
        "Ġwint",
        -10.368388543948456
      ],
      [
        "Ġsta",
        -10.368528879631208
      ],
      [
        "prijs",
        -10.368673318891616
      ],
      [
        "Ġbedoeling",
        -10.369487214183252
      ],
      [
        "Ġalbert",
        -10.369490241694997
      ],
      [
        "Ġbekeken",
        -10.369821265462708
      ],
      [
        "Ġring",
        -10.371000319386242
      ],
      [
        "Ġvrolijk",
        -10.371681642555302
      ],
      [
        "Ġpepijn",
        -10.372040016833724
      ],
      [
        "Ġ45",
        -10.372357879496246
      ],
      [
        "172",
        -10.373037193098885
      ],
      [
        "Ġvingers",
        -10.373232181850511
      ],
      [
        "Ġkerst",
        -10.375012447363714
      ],
      [
        "Ġmam",
        -10.37524338389459
      ],
      [
        "Ġhemel",
        -10.376039648455784
      ],
      [
        "wereld",
        -10.37617468975326
      ],
      [
        "Ġholland",
        -10.376496926176916
      ],
      [
        "Ġuitgevoerd",
        -10.376766751842204
      ],
      [
        "dam",
        -10.376784849988901
      ],
      [
        "Ġgedicht",
        -10.377150149673303
      ],
      [
        "Ġvocht",
        -10.377379737129951
      ],
      [
        "Ġbasisschool",
        -10.377658830999044
      ],
      [
        "Ġzwembad",
        -10.378030529353666
      ],
      [
        "Ġslaven",
        -10.37813278626059
      ],
      [
        "Ġstudie",
        -10.378172716088798
      ],
      [
        "Ġapp",
        -10.37823993361475
      ],
      [
        "Ġkopje",
        -10.379312109560502
      ],
      [
        "Ġverbonden",
        -10.379376899390351
      ],
      [
        "teken",
        -10.379853226591687
      ],
      [
        "Ġexperiment",
        -10.380022931859653
      ],
      [
        "vul",
        -10.380939931013748
      ],
      [
        "Ġsan",
        -10.381289971017331
      ],
      [
        "590",
        -10.381440024789415
      ],
      [
        "Ġba",
        -10.381529551470582
      ],
      [
        "Ġnest",
        -10.382086143963486
      ],
      [
        "Ġrock",
        -10.383245495904132
      ],
      [
        "Ġbereikt",
        -10.385120814849406
      ],
      [
        "Ġontwikkeld",
        -10.385905591808356
      ],
      [
        "Ġnormale",
        -10.38809335013697
      ],
      [
        "ont",
        -10.388281798200456
      ],
      [
        "landen",
        -10.388644933465459
      ],
      [
        "Ġmax",
        -10.38933917801019
      ],
      [
        "geven",
        -10.389797060670475
      ],
      [
        "Ġanne",
        -10.390131076983131
      ],
      [
        "kinderen",
        -10.391031601097012
      ],
      [
        "Ġwees",
        -10.391196178178063
      ],
      [
        "Ġwijn",
        -10.391531560399628
      ],
      [
        "Ġeefie",
        -10.391851541150267
      ],
      [
        "Ġkoeien",
        -10.392309789918887
      ],
      [
        "Ġlevens",
        -10.3928384812885
      ],
      [
        "president",
        -10.394203719323855
      ],
      [
        "Ġbrazili",
        -10.394801989045028
      ],
      [
        "Ġschot",
        -10.395047814842247
      ],
      [
        "eur",
        -10.395754310103284
      ],
      [
        "Ġkar",
        -10.396651483602003
      ],
      [
        "Ġpad",
        -10.397495020651945
      ],
      [
        "bleven",
        -10.398398242738207
      ],
      [
        "Ġoudere",
        -10.399208000847416
      ],
      [
        "duitsland",
        -10.400528192722692
      ],
      [
        "Ġontvangen",
        -10.400642799594737
      ],
      [
        "Ġplaat",
        -10.40092557646247
      ],
      [
        "Ġgewond",
        -10.401106096194408
      ],
      [
        "Ġvrachtwagen",
        -10.401385349888777
      ],
      [
        "bak",
        -10.401467196052998
      ],
      [
        "hallo",
        -10.402024582827538
      ],
      [
        "Ġindustrie",
        -10.402259301351016
      ],
      [
        "middel",
        -10.402510382058669
      ],
      [
        "Ġstelde",
        -10.402583384402181
      ],
      [
        "Ġ150",
        -10.4037482313448
      ],
      [
        "ry",
        -10.405154122580756
      ],
      [
        "air",
        -10.405441865815622
      ],
      [
        "Ġjas",
        -10.406189050304498
      ],
      [
        "Ġproject",
        -10.406565182255616
      ],
      [
        "Ġmar",
        -10.407594531461164
      ],
      [
        "ou",
        -10.408350772769307
      ],
      [
        "had",
        -10.408641332926052
      ],
      [
        "Ġ36",
        -10.408784170351396
      ],
      [
        "Ġijsje",
        -10.409624417178243
      ],
      [
        "Ġjammer",
        -10.409679226001062
      ],
      [
        "Ġcontrole",
        -10.409697181581839
      ],
      [
        "Ġroute",
        -10.41012148590609
      ],
      [
        "Ġzucht",
        -10.410315933662407
      ],
      [
        "Ġlamp",
        -10.411439119839685
      ],
      [
        "line",
        -10.411576546630778
      ],
      [
        "Ġvos",
        -10.412703682477808
      ],
      [
        "Ġtrouwen",
        -10.41274318591794
      ],
      [
        "Ġvooruit",
        -10.412821627330896
      ],
      [
        "Ġdraagt",
        -10.413298412242693
      ],
      [
        "waarde",
        -10.413555100706986
      ],
      [
        "Ġresultaat",
        -10.413735131439559
      ],
      [
        "Ġkonijn",
        -10.414042670379652
      ],
      [
        "Ġattractie",
        -10.415092371002103
      ],
      [
        "her",
        -10.416596429358153
      ],
      [
        "Ġleeuw",
        -10.416637658428229
      ],
      [
        "Ġliedjes",
        -10.417327737969305
      ],
      [
        "Ġklap",
        -10.417712575709812
      ],
      [
        "Ġbegrip",
        -10.417824739439027
      ],
      [
        "gevonden",
        -10.418109844832198
      ],
      [
        "Ġvoorwerp",
        -10.418242450902376
      ],
      [
        "Ġgemakkelijk",
        -10.418536578819522
      ],
      [
        "dorp",
        -10.419480716676407
      ],
      [
        "Ġlevert",
        -10.419505517411386
      ],
      [
        "dieren",
        -10.419991569962075
      ],
      [
        "Ġsloot",
        -10.420328487483385
      ],
      [
        "Ġverloor",
        -10.420454371117787
      ],
      [
        "Ġstreep",
        -10.420868724099453
      ],
      [
        "Ġprijzen",
        -10.422049691905347
      ],
      [
        "Ġ90",
        -10.422200174238725
      ],
      [
        "vier",
        -10.422243524120812
      ],
      [
        "Ġaardbeving",
        -10.42294406538687
      ],
      [
        "Ġspoor",
        -10.42298193904631
      ],
      [
        "Ġdiscussie",
        -10.423265828645029
      ],
      [
        "Ġleerling",
        -10.423859371658661
      ],
      [
        "Ġkilo",
        -10.425601559074963
      ],
      [
        "eens",
        -10.425696264016166
      ],
      [
        "lon",
        -10.42591924500324
      ],
      [
        "Ġermee",
        -10.426148839981657
      ],
      [
        "198",
        -10.426429472361306
      ],
      [
        "vast",
        -10.427662809318528
      ],
      [
        "q",
        -10.427782445623688
      ],
      [
        "Ġrob",
        -10.428749783982934
      ],
      [
        "Ġvloer",
        -10.429138572797793
      ],
      [
        "Ġkoek",
        -10.429339020604369
      ],
      [
        "Ġthijs",
        -10.42954942872911
      ],
      [
        "Ġsu",
        -10.429631820432071
      ],
      [
        "Ġtegenover",
        -10.429752164754014
      ],
      [
        "nacht",
        -10.430144441057786
      ],
      [
        "Ġkeren",
        -10.430216742472492
      ],
      [
        "Ġgedurend",
        -10.430504875802168
      ],
      [
        "Ġva",
        -10.43051622989745
      ],
      [
        "Ġtekeningen",
        -10.430529768075559
      ],
      [
        "stellen",
        -10.430932466490713
      ],
      [
        "Ġcirkel",
        -10.431087392145919
      ],
      [
        "Ġduurde",
        -10.431897327877348
      ],
      [
        "Ġmaat",
        -10.4320754522854
      ],
      [
        "maatschappij",
        -10.432321468314367
      ],
      [
        "Ġaanval",
        -10.432448991034407
      ],
      [
        "wetten",
        -10.434202448784653
      ],
      [
        "Ġvaren",
        -10.43505926531116
      ],
      [
        "Ġstam",
        -10.43638065498029
      ],
      [
        "Ġterm",
        -10.436980342964537
      ],
      [
        "Ġhogere",
        -10.43726230816295
      ],
      [
        "Ġgroeide",
        -10.437271007695134
      ],
      [
        "Ġtwintig",
        -10.437778374397745
      ],
      [
        "mon",
        -10.437942187826993
      ],
      [
        "Ġbegrijp",
        -10.438076936141877
      ],
      [
        "winkel",
        -10.438302182657766
      ],
      [
        "Ġarbeiders",
        -10.43887344588875
      ],
      [
        "Ġvriendin",
        -10.43899508073921
      ],
      [
        "zelfde",
        -10.439419843113647
      ],
      [
        "Ġminsten",
        -10.439529728319515
      ],
      [
        "Ġreed",
        -10.440981670365671
      ],
      [
        "lig",
        -10.441098745395525
      ],
      [
        "Ġton",
        -10.44122448453807
      ],
      [
        "schip",
        -10.442078899397861
      ],
      [
        "vol",
        -10.442860840933072
      ],
      [
        "denk",
        -10.444007680458386
      ],
      [
        "recht",
        -10.444183868491201
      ],
      [
        "gel",
        -10.444360226881951
      ],
      [
        "Ġresultaten",
        -10.444560503915561
      ],
      [
        "Ġcellen",
        -10.445036578808518
      ],
      [
        "Ġdonald",
        -10.44509344184086
      ],
      [
        "Ġeerlijk",
        -10.445310770764106
      ],
      [
        "cy",
        -10.445745797316164
      ],
      [
        "voorschrift",
        -10.445977947174235
      ],
      [
        "Ġfactor",
        -10.446331680796352
      ],
      [
        "que",
        -10.447166037808856
      ],
      [
        "Ġcentimeter",
        -10.447826649274688
      ],
      [
        "Ġanti",
        -10.448118966843602
      ],
      [
        "Ġondank",
        -10.448216290445565
      ],
      [
        "Ġverjaardag",
        -10.448241535630636
      ],
      [
        "Ġwoestijn",
        -10.448281598999714
      ],
      [
        "Ġkindje",
        -10.448616014723072
      ],
      [
        "rol",
        -10.450104066643235
      ],
      [
        "Ġopleiding",
        -10.450516306596347
      ],
      [
        "com",
        -10.45061569915849
      ],
      [
        "Ġcel",
        -10.450859745759475
      ],
      [
        "Ġgezond",
        -10.451077479239348
      ],
      [
        "Ġ37",
        -10.451237355045949
      ],
      [
        "Ġportug",
        -10.451363955769649
      ],
      [
        "Ġwa",
        -10.451364758739246
      ],
      [
        "Ġvrijwel",
        -10.451592546459807
      ],
      [
        "Ġminuut",
        -10.451986941590285
      ],
      [
        "feest",
        -10.453022861080465
      ],
      [
        "hieronder",
        -10.45364875432098
      ],
      [
        "Ġeuropees",
        -10.454519707991832
      ],
      [
        "Ġomroep",
        -10.454693147133664
      ],
      [
        "Ġsluiten",
        -10.45474873513281
      ],
      [
        "939",
        -10.455157485726378
      ],
      [
        "fabriek",
        -10.455783912897544
      ],
      [
        "Ġsteun",
        -10.455858679007742
      ],
      [
        "anders",
        -10.456603150321154
      ],
      [
        "onderzoek",
        -10.456727236838875
      ],
      [
        "Ġmusical",
        -10.45672798332808
      ],
      [
        "achtig",
        -10.457282066310565
      ],
      [
        "Ġarbeids",
        -10.457358130927648
      ],
      [
        "partij",
        -10.457483463228009
      ],
      [
        "Ġinterview",
        -10.457565218541433
      ],
      [
        "Ġmannetje",
        -10.458740713060749
      ],
      [
        "ment",
        -10.459248684325605
      ],
      [
        "Ġschuld",
        -10.459565969244455
      ],
      [
        "Ġverkeer",
        -10.459731776044286
      ],
      [
        "Ġdaarop",
        -10.459781388482323
      ],
      [
        "Ġlu",
        -10.46002544514085
      ],
      [
        "Ġmeedoe",
        -10.461282892207517
      ],
      [
        "Ġsociaal",
        -10.46148354631141
      ],
      [
        "drie",
        -10.461626405451174
      ],
      [
        "Ġstandaard",
        -10.462181620249542
      ],
      [
        "sport",
        -10.463015458194457
      ],
      [
        "Ġpolitic",
        -10.46330404816512
      ],
      [
        "Ġstok",
        -10.463891609780976
      ],
      [
        "eerst",
        -10.464215157371658
      ],
      [
        "Ġinge",
        -10.464670177891032
      ],
      [
        "Ġbeen",
        -10.46480334331812
      ],
      [
        "Ġindonesie",
        -10.4648493484245
      ],
      [
        "Ġvangen",
        -10.465079601306623
      ],
      [
        "Ġhi",
        -10.465383048163481
      ],
      [
        "Ġbeker",
        -10.465643174133278
      ],
      [
        "Ġhof",
        -10.465965194726973
      ],
      [
        "Ġgenaamd",
        -10.466676740748541
      ],
      [
        "zinnen",
        -10.467374279492827
      ],
      [
        "154",
        -10.467648617254737
      ],
      [
        "mensen",
        -10.467965429616463
      ],
      [
        "60",
        -10.468217872727507
      ],
      [
        "Ġvel",
        -10.468990221175849
      ],
      [
        "Ġyou",
        -10.469470907034994
      ],
      [
        "Ġklei",
        -10.469790043917037
      ],
      [
        "Ġkunstwerk",
        -10.469844586008588
      ],
      [
        "18",
        -10.470127838985391
      ],
      [
        "Ġdenemarke",
        -10.47034762449588
      ],
      [
        "Ġstevig",
        -10.470963451040731
      ],
      [
        "11",
        -10.47100200982812
      ],
      [
        "oorlog",
        -10.471034791655715
      ],
      [
        "80",
        -10.47118775737689
      ],
      [
        "Ġpuzzel",
        -10.471259951811149
      ],
      [
        "jullie",
        -10.471969348680913
      ],
      [
        "kun",
        -10.472036712338245
      ],
      [
        "Ġsoep",
        -10.472064265473243
      ],
      [
        "Ġemmer",
        -10.472125974369561
      ],
      [
        "903",
        -10.472132376741445
      ],
      [
        "gedaan",
        -10.472171775054738
      ],
      [
        "sta",
        -10.472269138141172
      ],
      [
        "Ġkern",
        -10.473107823393669
      ],
      [
        "opdracht",
        -10.473338723656676
      ],
      [
        "stroom",
        -10.474025303680921
      ],
      [
        "Ġspiegel",
        -10.47443142190907
      ],
      [
        "Ġster",
        -10.4748502605872
      ],
      [
        "Ġ1000",
        -10.474905898982378
      ],
      [
        "doet",
        -10.475670080988209
      ],
      [
        "Ġgepubliceerd",
        -10.475927565090196
      ],
      [
        "wit",
        -10.476649147637826
      ],
      [
        "Ġverlaten",
        -10.477090208380762
      ],
      [
        "Ġstuur",
        -10.477625494430363
      ],
      [
        "pop",
        -10.478819700901173
      ],
      [
        "Ġveranderde",
        -10.479709678429753
      ],
      [
        "Ġpercentage",
        -10.479718422344563
      ],
      [
        "Ġrook",
        -10.4804930133167
      ],
      [
        "Ġverhouding",
        -10.480976723681861
      ],
      [
        "Ġmiddelbare",
        -10.481109759140523
      ],
      [
        "Ġsite",
        -10.48132174539493
      ],
      [
        "Ġsmaak",
        -10.481753290531884
      ],
      [
        "Ġzogenaamd",
        -10.481834154043241
      ],
      [
        "Ġschouders",
        -10.481891756841478
      ],
      [
        "Ġliefde",
        -10.481953254044704
      ],
      [
        "morgen",
        -10.482020643178835
      ],
      [
        "168",
        -10.482170486606275
      ],
      [
        "107",
        -10.482283853837496
      ],
      [
        "Ġreken",
        -10.482416921831327
      ],
      [
        "Ġvoormalig",
        -10.482526977637521
      ],
      [
        "Ġmetaal",
        -10.48253236671976
      ],
      [
        "Ġstak",
        -10.483400372415758
      ],
      [
        "Ġfles",
        -10.484379908603481
      ],
      [
        "Ġsteekt",
        -10.484858515231881
      ],
      [
        "kijken",
        -10.485428218206351
      ],
      [
        "Ġopdrachten",
        -10.4860365964701
      ],
      [
        "broek",
        -10.486184739225983
      ],
      [
        "Ġazie",
        -10.48623410555188
      ],
      [
        "Ġbeleid",
        -10.487129472300952
      ],
      [
        "netjes",
        -10.487161830597858
      ],
      [
        "Ġrots",
        -10.487946401411147
      ],
      [
        "gebleven",
        -10.488763138337122
      ],
      [
        "ruimte",
        -10.488939234330354
      ],
      [
        "Ġ180",
        -10.489164623584799
      ],
      [
        "hoeveel",
        -10.48987339241042
      ],
      [
        "Ġgeleid",
        -10.490423923487946
      ],
      [
        "markt",
        -10.49047206547596
      ],
      [
        "Ġvliegt",
        -10.4910613306194
      ],
      [
        "Ġmiljoenen",
        -10.491212273037089
      ],
      [
        "Ġlandschap",
        -10.492207721656381
      ],
      [
        "Ġcity",
        -10.492269104185581
      ],
      [
        "Ġomgezet",
        -10.493382739115054
      ],
      [
        "Ġgeproduceerd",
        -10.494658908487011
      ],
      [
        "pvda",
        -10.494976988902058
      ],
      [
        "Ġonline",
        -10.495273793108346
      ],
      [
        "Ġmaatregelen",
        -10.495514452031875
      ],
      [
        "Ġafkomstig",
        -10.496170326119053
      ],
      [
        "paard",
        -10.496221705975088
      ],
      [
        "orry",
        -10.49623689950165
      ],
      [
        "centrum",
        -10.496525044877675
      ],
      [
        "ianus",
        -10.496860104172148
      ],
      [
        "40",
        -10.497022459611685
      ],
      [
        "196",
        -10.497257673215007
      ],
      [
        "Ġgehele",
        -10.497924700177396
      ],
      [
        "serie",
        -10.499155789767098
      ],
      [
        "ding",
        -10.500128194808852
      ],
      [
        "Ġridder",
        -10.500535310301736
      ],
      [
        "Ġgetal",
        -10.501044794573492
      ],
      [
        "stelsel",
        -10.501526912416068
      ],
      [
        "Ġspringen",
        -10.501726635873043
      ],
      [
        "Ġkomende",
        -10.501746854371923
      ],
      [
        "Ġharry",
        -10.502345868709291
      ],
      [
        "Ġwaarna",
        -10.502351373909791
      ],
      [
        "Ġmogelijke",
        -10.50276170298586
      ],
      [
        "Ġwoon",
        -10.502905596569967
      ],
      [
        "wetenschappelijk",
        -10.503484244562232
      ],
      [
        "Ġvlucht",
        -10.50356052509716
      ],
      [
        "Ġtoernooi",
        -10.504257044028911
      ],
      [
        "Ġ...-",
        -10.504781002619715
      ],
      [
        "wagen",
        -10.504924735653773
      ],
      [
        "Ġdon",
        -10.506009309122023
      ],
      [
        "iek",
        -10.506329206459192
      ],
      [
        "week",
        -10.506748870055695
      ],
      [
        "Ġuitzending",
        -10.50711887356791
      ],
      [
        "Ġwetenschap",
        -10.507158111262914
      ],
      [
        "Ġxiv",
        -10.507226928996214
      ],
      [
        "Ġdroeg",
        -10.507803650967194
      ],
      [
        "Ġpinkeltje",
        -10.50803134898021
      ],
      [
        "Ġhitler",
        -10.508492949263264
      ],
      [
        "cel",
        -10.509214434563535
      ],
      [
        "brand",
        -10.509301016115465
      ],
      [
        "Ġbl",
        -10.509725853975006
      ],
      [
        "Ġuitgezonde",
        -10.509845285853759
      ],
      [
        "Ġklonk",
        -10.51075177508962
      ],
      [
        "galerij",
        -10.510762714418874
      ],
      [
        "Ġharen",
        -10.511038099296357
      ],
      [
        "loze",
        -10.511111190092752
      ],
      [
        "noord",
        -10.511318452471944
      ],
      [
        "Ġhartstikke",
        -10.511398427736687
      ],
      [
        "ijn",
        -10.51148593746963
      ],
      [
        "Ġzwitser",
        -10.51153987970833
      ],
      [
        "bus",
        -10.511629247852266
      ],
      [
        "Ġlach",
        -10.511684360463345
      ],
      [
        "hond",
        -10.513106779440157
      ],
      [
        "zulke",
        -10.513632909306201
      ],
      [
        "Ġtevreden",
        -10.513811011510843
      ],
      [
        "Ġbehoorlijk",
        -10.513923793259032
      ],
      [
        "Ġbritten",
        -10.513975067801338
      ],
      [
        "Ġwereldwijd",
        -10.513977514986
      ],
      [
        "Ġvolgde",
        -10.513983904514589
      ],
      [
        "Ġcor",
        -10.514044011460069
      ],
      [
        "geld",
        -10.514929097629139
      ],
      [
        "Ġapparaat",
        -10.514996133965509
      ],
      [
        "Ġvernoemd",
        -10.515944224220842
      ],
      [
        "Ġheks",
        -10.516150193158223
      ],
      [
        "hu",
        -10.51640932143311
      ],
      [
        "Ġredden",
        -10.516504391983005
      ],
      [
        "Ġtak",
        -10.519519694022655
      ],
      [
        "Ġverplicht",
        -10.520602211261895
      ],
      [
        "Ġtrouw",
        -10.521024790208106
      ],
      [
        "Ġ34",
        -10.52123508860942
      ],
      [
        "Ġmiddag",
        -10.521802709644218
      ],
      [
        "Ġnergens",
        -10.521935043307314
      ],
      [
        "Ġ186",
        -10.522196139741009
      ],
      [
        "Ġvoorwerpen",
        -10.522751988174438
      ],
      [
        "Ġmaag",
        -10.523015311238137
      ],
      [
        "Ġcar",
        -10.52313322201638
      ],
      [
        "Ġsamenwerking",
        -10.523176453776156
      ],
      [
        "woorden",
        -10.523337434433785
      ],
      [
        "Ġmerk",
        -10.523457942339794
      ],
      [
        "Ġrisico",
        -10.524834185828304
      ],
      [
        "Ġpoten",
        -10.525388628712381
      ],
      [
        "Ġsven",
        -10.525609160215934
      ],
      [
        "stand",
        -10.525628764940668
      ],
      [
        "Ġbehoor",
        -10.526125526308338
      ],
      [
        "by",
        -10.526180077453695
      ],
      [
        "Ġmaandag",
        -10.526240366696763
      ],
      [
        "Ġwol",
        -10.526311664138294
      ],
      [
        "Ġfc",
        -10.526424967458759
      ],
      [
        "Ġstroming",
        -10.526799144038321
      ],
      [
        "Ġmaterialen",
        -10.527383973840527
      ],
      [
        "ara",
        -10.527561640505859
      ],
      [
        "Ġvoordeel",
        -10.52826217012533
      ],
      [
        "japanse",
        -10.52852813582827
      ],
      [
        "vers",
        -10.529368290804014
      ],
      [
        "Ġplat",
        -10.529923177712927
      ],
      [
        "Ġ300",
        -10.530150643412782
      ],
      [
        "bad",
        -10.531263768218432
      ],
      [
        "Ġsixtus",
        -10.531644199105841
      ],
      [
        "stof",
        -10.5319874723413
      ],
      [
        "Ġolifant",
        -10.532681043065914
      ],
      [
        "Ġhoeven",
        -10.532792412690224
      ],
      [
        "Ġculture",
        -10.53303589192401
      ],
      [
        "Ġcelestin",
        -10.533148927862577
      ],
      [
        "Ġsprak",
        -10.53319917110215
      ],
      [
        "Ġelektriciteit",
        -10.533214229808129
      ],
      [
        "iet",
        -10.53323975552583
      ],
      [
        "Ġzanger",
        -10.534629296203207
      ],
      [
        "hebben",
        -10.534978444523306
      ],
      [
        "handel",
        -10.535560075678994
      ],
      [
        "Ġverkoop",
        -10.536451610934336
      ],
      [
        "Ġierland",
        -10.536517094933128
      ],
      [
        "Ġduits",
        -10.537051723619529
      ],
      [
        "Ġervaring",
        -10.538200610158672
      ],
      [
        "Ġberoep",
        -10.538854582885048
      ],
      [
        "mond",
        -10.539660487547977
      ],
      [
        "Ġnoordelijke",
        -10.53988392939566
      ],
      [
        "Ġ1990",
        -10.540393012531684
      ],
      [
        "Ġdroom",
        -10.54077864628374
      ],
      [
        "Ġramp",
        -10.540833106000992
      ],
      [
        "stal",
        -10.540839813360138
      ],
      [
        "500",
        -10.541143356325938
      ],
      [
        "Ġprotest",
        -10.54140073714388
      ],
      [
        "Ġbevatten",
        -10.54142929511735
      ],
      [
        "Ġrobert",
        -10.541656529874901
      ],
      [
        "Ġsleutel",
        -10.542868094243904
      ],
      [
        "Ġvolwassenen",
        -10.543428445532422
      ],
      [
        "tevens",
        -10.543560680787099
      ],
      [
        "iers",
        -10.543763218264704
      ],
      [
        "Ġgoederen",
        -10.544172966342558
      ],
      [
        "=",
        -10.544931164894736
      ],
      [
        "zoek",
        -10.545442694544334
      ],
      [
        "Ġstrip",
        -10.545545366687676
      ],
      [
        "Ġglazen",
        -10.546122181446279
      ],
      [
        "045",
        -10.546476548123689
      ],
      [
        "Ġbehoren",
        -10.546590153632325
      ],
      [
        "hal",
        -10.547292387787335
      ],
      [
        "Ġspringt",
        -10.54730494223671
      ],
      [
        "Ġpieter",
        -10.548141197263023
      ],
      [
        "Ġluxemburg",
        -10.548202633687747
      ],
      [
        "Ġbetrokken",
        -10.548502750566172
      ],
      [
        "Ġstreng",
        -10.54854421432682
      ],
      [
        "Ġvolledige",
        -10.548841457786416
      ],
      [
        "Ġvolle",
        -10.548947938151617
      ],
      [
        "Ġtent",
        -10.549030405496307
      ],
      [
        "achter",
        -10.549468016239777
      ],
      [
        "Ġklik",
        -10.54968814629307
      ],
      [
        "Ġgeur",
        -10.549979851191091
      ],
      [
        "Ġstom",
        -10.550190314663709
      ],
      [
        "Ġdarm",
        -10.550990570083604
      ],
      [
        "143",
        -10.551158712863256
      ],
      [
        "Ġvlug",
        -10.55136120173536
      ],
      [
        "Ġkoopt",
        -10.551940117062617
      ],
      [
        "Ġbritt",
        -10.552284558525717
      ],
      [
        "vel",
        -10.553131195550979
      ],
      [
        "Ġgevangenis",
        -10.553517829999748
      ],
      [
        "Ġbovenstaand",
        -10.554326074221827
      ],
      [
        "vertel",
        -10.55452494553281
      ],
      [
        "Ġonjuist",
        -10.554596902176646
      ],
      [
        "og",
        -10.554628369824357
      ],
      [
        "Ġbranden",
        -10.554629818588573
      ],
      [
        "lan",
        -10.555070319626637
      ],
      [
        "Ġwassen",
        -10.555108488185237
      ],
      [
        "elijke",
        -10.555132895327157
      ],
      [
        "Ġopsomming",
        -10.555287205963332
      ],
      [
        "Ġzuidelijke",
        -10.555312106341013
      ],
      [
        "familie",
        -10.555373548908989
      ],
      [
        "Ġduizend",
        -10.555409129482552
      ],
      [
        "Ġverhaaltje",
        -10.555658901522666
      ],
      [
        "Ġdiagram",
        -10.556015810398964
      ],
      [
        "Ġzonne",
        -10.556043754756512
      ],
      [
        "klaar",
        -10.556534668885332
      ],
      [
        "Ġkarakter",
        -10.556593631984315
      ],
      [
        "komen",
        -10.557816061852531
      ],
      [
        "Ġpl",
        -10.558373421633396
      ],
      [
        "Ġeng",
        -10.558426634481211
      ],
      [
        "Ġturks",
        -10.55846834269503
      ],
      [
        "Ġmetal",
        -10.558960037912243
      ],
      [
        "Ġdurf",
        -10.55931316186761
      ],
      [
        "162",
        -10.559858930482445
      ],
      [
        "²",
        -10.559929372220513
      ],
      [
        "Ġvoorstel",
        -10.560630123237065
      ],
      [
        "Ġjames",
        -10.561287660591226
      ],
      [
        "Ġex",
        -10.56147834770848
      ],
      [
        "wanneer",
        -10.562014061617667
      ],
      [
        "Ġhonderden",
        -10.562280347677994
      ],
      [
        "betekenen",
        -10.56242974951309
      ],
      [
        "Ġcombinatie",
        -10.56251696767941
      ],
      [
        "Ġkwaliteit",
        -10.563078429303491
      ],
      [
        "Ġmi",
        -10.56309992388146
      ],
      [
        "Ġslim",
        -10.563212460099761
      ],
      [
        "Ġsupermarkt",
        -10.564168693450036
      ],
      [
        "laten",
        -10.564575277019035
      ],
      [
        "iteit",
        -10.5648977371883
      ],
      [
        "ski",
        -10.56512661722552
      ],
      [
        "trekken",
        -10.565219977536515
      ],
      [
        "1996",
        -10.565240698425594
      ],
      [
        "hand",
        -10.565381461938996
      ],
      [
        "Ġinstrument",
        -10.566085585850994
      ],
      [
        "Ġdijk",
        -10.566762311032832
      ],
      [
        "192",
        -10.566925926898843
      ],
      [
        "tas",
        -10.567577743708267
      ],
      [
        "Ġhaast",
        -10.567748643012804
      ],
      [
        "Ġstijg",
        -10.568114724979
      ],
      [
        "plein",
        -10.568128250079557
      ],
      [
        "Ġveiligheid",
        -10.56819862653185
      ],
      [
        "Ġko",
        -10.568369865051885
      ],
      [
        "Ġbegrijpen",
        -10.568999228134448
      ],
      [
        "kerk",
        -10.569842438010504
      ],
      [
        "Ġspeler",
        -10.57011422923723
      ],
      [
        "bouw",
        -10.570389160435589
      ],
      [
        "Ġbureau",
        -10.570729023400013
      ],
      [
        "Ġvervolg",
        -10.570780341644568
      ],
      [
        "Ġstandpunt",
        -10.57078740359048
      ],
      [
        "ons",
        -10.57163104566242
      ],
      [
        "station",
        -10.571874407285975
      ],
      [
        "Ġoverige",
        -10.5718761868111
      ],
      [
        "kop",
        -10.572063211271225
      ],
      [
        "Ġknikte",
        -10.57213717245595
      ],
      [
        "Ġpopulaire",
        -10.572602693770918
      ],
      [
        "Ġjohan",
        -10.572756018577063
      ],
      [
        "Ġkanaal",
        -10.572802287166802
      ],
      [
        "Ġprachtige",
        -10.574486006453364
      ],
      [
        "Ġdiverse",
        -10.57477869633448
      ],
      [
        "Ġrot",
        -10.575002899497026
      ],
      [
        "alleen",
        -10.575345655448071
      ],
      [
        "Ġtelt",
        -10.575522737366912
      ],
      [
        "Ġbeest",
        -10.575769734685945
      ],
      [
        "Ġvergelijken",
        -10.575898537355304
      ],
      [
        "Ġharder",
        -10.576474564147944
      ],
      [
        "Ġniels",
        -10.576686597941633
      ],
      [
        "ari",
        -10.576902775004726
      ],
      [
        "Ġelf",
        -10.576949205238442
      ],
      [
        "trouwens",
        -10.576963125960862
      ],
      [
        "Ġverbinding",
        -10.577054498728051
      ],
      [
        "Ġkeken",
        -10.577143868100459
      ],
      [
        "ties",
        -10.577643987715184
      ],
      [
        "Ġcorrectie",
        -10.579173786945736
      ],
      [
        "Ġaange",
        -10.57932246055783
      ],
      [
        "zak",
        -10.57952147208098
      ],
      [
        "woord",
        -10.579827950955819
      ],
      [
        "Ġtegenstelling",
        -10.579980500236747
      ],
      [
        "Ġvolwassen",
        -10.58045144001105
      ],
      [
        "Ġgraf",
        -10.581065213094716
      ],
      [
        "Ġbreed",
        -10.58125086634712
      ],
      [
        "Ġaanleiding",
        -10.581682520505058
      ],
      [
        "koe",
        -10.581726522603237
      ],
      [
        "Ġkruisje",
        -10.58220960101907
      ],
      [
        "Ġwal",
        -10.58230142172295
      ],
      [
        "heleboel",
        -10.58279357831302
      ],
      [
        "los",
        -10.583087630440358
      ],
      [
        "ff",
        -10.583254618009091
      ],
      [
        "Ġmars",
        -10.583263273808647
      ],
      [
        "Ġnazi",
        -10.583296758819007
      ],
      [
        "Ġvrijdag",
        -10.583523126699387
      ],
      [
        "vogel",
        -10.583784834352727
      ],
      [
        "Ġvlieg",
        -10.5838598885313
      ],
      [
        "Ġhierboven",
        -10.58421738206551
      ],
      [
        "Ġzakken",
        -10.58446391619183
      ],
      [
        "Ġmario",
        -10.58525390127635
      ],
      [
        "Ġprima",
        -10.585378563150197
      ],
      [
        "Ġtong",
        -10.586587382381264
      ],
      [
        "Ġbil",
        -10.58691248050275
      ],
      [
        "Ġlo",
        -10.587332442207574
      ],
      [
        "ham",
        -10.58733651097002
      ],
      [
        "regel",
        -10.587514993279386
      ],
      [
        "Ġmerken",
        -10.587592685008534
      ],
      [
        "Ġdol",
        -10.587634755059534
      ],
      [
        "boot",
        -10.58837821652741
      ],
      [
        "128",
        -10.588409471423791
      ],
      [
        "Ġtropisch",
        -10.589408276090028
      ],
      [
        "Ġnoorwegen",
        -10.590209251478804
      ],
      [
        "Ġmichael",
        -10.590298443310747
      ],
      [
        "Ġlive",
        -10.591077840165932
      ],
      [
        "Ġwerkelijkheid",
        -10.591564022352658
      ],
      [
        "Ġheer",
        -10.591966248073351
      ],
      [
        "197",
        -10.59376204571612
      ],
      [
        "Ġvluchten",
        -10.596110829353218
      ],
      [
        "Ġcircus",
        -10.596403907385763
      ],
      [
        "Ġru",
        -10.596660934681836
      ],
      [
        "Ġgu",
        -10.596874272532414
      ],
      [
        "Ġgister",
        -10.597129654378612
      ],
      [
        "Ġwerknemers",
        -10.59723838769144
      ],
      [
        "Ġkranten",
        -10.597389111219204
      ],
      [
        "Ġchemisch",
        -10.598591350921291
      ],
      [
        "Ġvoorzitter",
        -10.598899690230201
      ],
      [
        "Ġconcert",
        -10.599126574623346
      ],
      [
        "Ġnek",
        -10.599343526981496
      ],
      [
        "stappen",
        -10.599779547640512
      ],
      [
        "druk",
        -10.600066853743856
      ],
      [
        "wijk",
        -10.600765139656357
      ],
      [
        "Ġlagen",
        -10.600837083589262
      ],
      [
        "ix",
        -10.601085096443754
      ],
      [
        "Ġgezellig",
        -10.601904340713517
      ],
      [
        "verhaal",
        -10.60199529232133
      ],
      [
        "lid",
        -10.602032827699109
      ],
      [
        "mooi",
        -10.602739923030875
      ],
      [
        "Ġschilder",
        -10.603033246185325
      ],
      [
        "Ġhelaas",
        -10.60317008699898
      ],
      [
        "Ġcentrale",
        -10.603271884053704
      ],
      [
        "hof",
        -10.604346563647221
      ],
      [
        "Ġbon",
        -10.604841519339466
      ],
      [
        "Ġgedacht",
        -10.605171656028872
      ],
      [
        "bord",
        -10.605524164876593
      ],
      [
        "Ġvreemde",
        -10.605715003710005
      ],
      [
        "Ġkunstenaar",
        -10.606409748882312
      ],
      [
        "ies",
        -10.606502511112843
      ],
      [
        "Ġgestole",
        -10.606775432795699
      ],
      [
        "Ġschouder",
        -10.606916175596151
      ],
      [
        "amerikaans",
        -10.606971522947358
      ],
      [
        "Ġverspreid",
        -10.607263497451973
      ],
      [
        "Ġwapens",
        -10.607376964028115
      ],
      [
        "Ġvliegtuigen",
        -10.60761092604865
      ],
      [
        "Ġopenbaar",
        -10.607650070996606
      ],
      [
        "Ġfi",
        -10.608026811853989
      ],
      [
        "klimaat",
        -10.608126261233458
      ],
      [
        "Ġsteken",
        -10.608481435757112
      ],
      [
        "Ġnoteer",
        -10.608691745718104
      ],
      [
        "andere",
        -10.608773782501036
      ],
      [
        "Ġmaas",
        -10.609268868455086
      ],
      [
        "Ġwinnaar",
        -10.609723832479812
      ],
      [
        "Ġshow",
        -10.609976435826411
      ],
      [
        "Ġplaneet",
        -10.611233024507841
      ],
      [
        "Ġprobeer",
        -10.611414695563777
      ],
      [
        "Ġnatuurlijke",
        -10.612166530745604
      ],
      [
        "kzij",
        -10.612425568804218
      ],
      [
        "Ġ75",
        -10.61297907483314
      ],
      [
        "Ġro",
        -10.613259371092363
      ],
      [
        "Ġdemocratische",
        -10.613986570443746
      ],
      [
        "ting",
        -10.614425887356969
      ],
      [
        "pel",
        -10.614804812783262
      ],
      [
        "Ġministerie",
        -10.615401653067659
      ],
      [
        "age",
        -10.615701162728001
      ],
      [
        "Ġverscheen",
        -10.615954668122239
      ],
      [
        "geeft",
        -10.617090232120914
      ],
      [
        "bra",
        -10.617180707442845
      ],
      [
        "Ġbril",
        -10.618200224914538
      ],
      [
        "Ġjanneke",
        -10.618220356766969
      ],
      [
        "Ġschilderijen",
        -10.618511297628114
      ],
      [
        "rond",
        -10.618549035562879
      ],
      [
        "gas",
        -10.619124859673363
      ],
      [
        "Ġliteratuur",
        -10.619248470314936
      ],
      [
        "Ġmeerderheid",
        -10.620667889883698
      ],
      [
        "tegen",
        -10.621433825190149
      ],
      [
        "Ġelement",
        -10.621767980454953
      ],
      [
        "Ġrekenen",
        -10.622336107309732
      ],
      [
        "arm",
        -10.62343386983908
      ],
      [
        "Ġmilitaire",
        -10.623842465331228
      ],
      [
        "Ġonge",
        -10.623874949449998
      ],
      [
        "papier",
        -10.623912031317504
      ],
      [
        "oma",
        -10.6241075164559
      ],
      [
        "Ġkatten",
        -10.62455841679402
      ],
      [
        "Ġgericht",
        -10.625599758971902
      ],
      [
        "Ġlinker",
        -10.625651705012404
      ],
      [
        "toren",
        -10.625705414005118
      ],
      [
        "1992",
        -10.625796636197295
      ],
      [
        "Ġju",
        -10.62590546050735
      ],
      [
        "Ġeduard",
        -10.62656433390175
      ],
      [
        "stuk",
        -10.6267024869547
      ],
      [
        "wet",
        -10.628366874156953
      ],
      [
        "ĠâĨĴ",
        -10.62841378760457
      ],
      [
        "nummer",
        -10.62889083247643
      ],
      [
        "Ġels",
        -10.629208114719605
      ],
      [
        "Ġsnoep",
        -10.629380148931403
      ],
      [
        "okee",
        -10.629582094160407
      ],
      [
        "Ġbereid",
        -10.629699795242214
      ],
      [
        "Ġneerslag",
        -10.629920125097204
      ],
      [
        "Ġra",
        -10.6304786857734
      ],
      [
        "Ġaap",
        -10.630503483762588
      ],
      [
        "99",
        -10.630728876433786
      ],
      [
        "Ġzusje",
        -10.630812255186903
      ],
      [
        "bol",
        -10.63099005849088
      ],
      [
        "Ġverwoest",
        -10.631418046646786
      ],
      [
        "tocht",
        -10.63207076190494
      ],
      [
        "gang",
        -10.632189747762435
      ],
      [
        "Ġblijf",
        -10.63327294980042
      ],
      [
        "che",
        -10.63343369030569
      ],
      [
        "ochtend",
        -10.634178590346915
      ],
      [
        "dig",
        -10.63444409311166
      ],
      [
        "Ġborst",
        -10.634993564467521
      ],
      [
        "Ġoorspronkelijke",
        -10.63502422333698
      ],
      [
        "Ġsamenvatting",
        -10.635180038046325
      ],
      [
        "Ġarabisch",
        -10.635606773587892
      ],
      [
        "brabant",
        -10.63668603808624
      ],
      [
        "Ġrondom",
        -10.637056744797384
      ],
      [
        "Ġtoegekend",
        -10.637294103733943
      ],
      [
        "Ġtoneel",
        -10.638399851692263
      ],
      [
        "Ġvoetballer",
        -10.638422382171811
      ],
      [
        "Ġdur",
        -10.638861260418244
      ],
      [
        "964",
        -10.639411166558425
      ],
      [
        "kast",
        -10.640810925320043
      ],
      [
        "Ġwerkwoord",
        -10.641039448260459
      ],
      [
        "ard",
        -10.641365642455732
      ],
      [
        "Ġindruk",
        -10.641440319183975
      ],
      [
        "schoten",
        -10.641444889683944
      ],
      [
        "Ġmengsel",
        -10.641947076503252
      ],
      [
        "Ġku",
        -10.642074522304554
      ],
      [
        "Ġoverstroming",
        -10.642754892900255
      ],
      [
        "Ġlas",
        -10.642863461601607
      ],
      [
        "Ġgewerkt",
        -10.643073718841467
      ],
      [
        "Ġluid",
        -10.643514819476884
      ],
      [
        "Ġniveau",
        -10.64474505535248
      ],
      [
        "Ġeigenaar",
        -10.644784082069298
      ],
      [
        "Ġsingle",
        -10.644940857274658
      ],
      [
        "oxide",
        -10.645157276982374
      ],
      [
        "Ġnachts",
        -10.645509339005425
      ],
      [
        "korea",
        -10.646336431509413
      ],
      [
        "Ġstapt",
        -10.64688305153576
      ],
      [
        "Ġnood",
        -10.647104036012967
      ],
      [
        "605",
        -10.648289228675598
      ],
      [
        "Ġhoud",
        -10.648326968245367
      ],
      [
        "Ġlink",
        -10.648658357472318
      ],
      [
        "Ġmetro",
        -10.649284826641054
      ],
      [
        "Ġkaartje",
        -10.649424392008061
      ],
      [
        "90",
        -10.649429758656044
      ],
      [
        "153",
        -10.649933615327463
      ],
      [
        "Ġhoed",
        -10.6501612683387
      ],
      [
        "Ġmeiden",
        -10.650502297514073
      ],
      [
        "Ġsaar",
        -10.651090339787336
      ],
      [
        "Ġvarkens",
        -10.651394412659432
      ],
      [
        "Ġsymbool",
        -10.651460596528096
      ],
      [
        "Ġbert",
        -10.652190690056866
      ],
      [
        "Ġdergelijke",
        -10.65247186754221
      ],
      [
        "Ġmartin",
        -10.653097478837905
      ],
      [
        "gemeten",
        -10.653108812869235
      ],
      [
        "Ġstopte",
        -10.653127972172731
      ],
      [
        "Ġruil",
        -10.653372992249306
      ],
      [
        "Ġvloeistof",
        -10.653756151150825
      ],
      [
        "zetten",
        -10.653888738258512
      ],
      [
        "1994",
        -10.654009154405628
      ],
      [
        "Ġpatient",
        -10.654046857599276
      ],
      [
        "Ġwc",
        -10.655247353055934
      ],
      [
        "Ġantwerpen",
        -10.655913864550005
      ],
      [
        "Ġzuur",
        -10.656610677192464
      ],
      [
        "Ġrecord",
        -10.656763634824742
      ],
      [
        "Ġwaterstof",
        -10.656843524427059
      ],
      [
        "Ġlukte",
        -10.656936727737579
      ],
      [
        "Ġbezit",
        -10.657044561986023
      ],
      [
        "Ġbrussel",
        -10.657410785528455
      ],
      [
        "Ġelementen",
        -10.657478571300233
      ],
      [
        "Ġdun",
        -10.657518262851664
      ],
      [
        "kunst",
        -10.657827757651742
      ],
      [
        "Ġkandidaat",
        -10.657952586188774
      ],
      [
        "brug",
        -10.658292098369744
      ],
      [
        "Ġdonkere",
        -10.658427166337834
      ],
      [
        "Ġberoemd",
        -10.658967694332175
      ],
      [
        "Ġspin",
        -10.659064580954965
      ],
      [
        "Ġcommunistisch",
        -10.65967538165932
      ],
      [
        "Ġsimon",
        -10.66035661547485
      ],
      [
        "Ġuitgebreid",
        -10.66067364074306
      ],
      [
        "pot",
        -10.660766965497773
      ],
      [
        "Ġhoofdstuk",
        -10.660862512320275
      ],
      [
        "Ġslavernij",
        -10.661281394277939
      ],
      [
        "bu",
        -10.661772063549812
      ],
      [
        "beeld",
        -10.661898454316422
      ],
      [
        "Ġmode",
        -10.66211846178955
      ],
      [
        "Ġhuisje",
        -10.662255709267354
      ],
      [
        "Ġjoep",
        -10.662962180140969
      ],
      [
        "Ġrende",
        -10.663453703590845
      ],
      [
        "Ġvijftig",
        -10.663913375460925
      ],
      [
        "Ġjezus",
        -10.664232132236549
      ],
      [
        "Ġaanslag",
        -10.664549244501936
      ],
      [
        "oeh",
        -10.665738514473492
      ],
      [
        "Ġzun",
        -10.66623431327741
      ],
      [
        "Ġplaatsvind",
        -10.666646348700477
      ],
      [
        "Ġarmoede",
        -10.666792137155378
      ],
      [
        "Ġzocht",
        -10.667129097778421
      ],
      [
        "Ġmogelijkheid",
        -10.667208470412376
      ],
      [
        "kleur",
        -10.667480953345702
      ],
      [
        "gon",
        -10.667630666534818
      ],
      [
        "Ġverslag",
        -10.668155077013239
      ],
      [
        "kozen",
        -10.669052910767384
      ],
      [
        "Ġbrandweer",
        -10.669334542906114
      ],
      [
        "els",
        -10.669444670972677
      ],
      [
        "Ġgroente",
        -10.670240802258181
      ],
      [
        "Ġjarig",
        -10.67033851545802
      ],
      [
        "Ġtoneelstuk",
        -10.67037038938237
      ],
      [
        "Ġstijgen",
        -10.670639715545585
      ],
      [
        "Ġafrikaans",
        -10.671676594300916
      ],
      [
        "organisatie",
        -10.671876225241125
      ],
      [
        "978",
        -10.672103931444582
      ],
      [
        "Ġartemis",
        -10.67210540416456
      ],
      [
        "Ġmethode",
        -10.672389068669792
      ],
      [
        "koning",
        -10.672403616840798
      ],
      [
        "Ġeigenschapp",
        -10.67285356215011
      ],
      [
        "bar",
        -10.672905644798286
      ],
      [
        "Ġlimburg",
        -10.673783713637981
      ],
      [
        "Ġuitdrukking",
        -10.67383839234408
      ],
      [
        "Ġvuurwerk",
        -10.673939570868635
      ],
      [
        "Ġmeet",
        -10.674011014733054
      ],
      [
        "Ġ400",
        -10.674016193428757
      ],
      [
        "Ġkoninklijke",
        -10.674098427784369
      ],
      [
        "Ġposter",
        -10.67416058142824
      ],
      [
        "24",
        -10.674238305932953
      ],
      [
        "club",
        -10.674305961854003
      ],
      [
        "cultuur",
        -10.67462607826647
      ],
      [
        "Ġpet",
        -10.67490902389301
      ],
      [
        "Ġoefenen",
        -10.67539972712653
      ],
      [
        "Ġkunstenaars",
        -10.675544262082521
      ],
      [
        "Ġmuizen",
        -10.675894320433878
      ],
      [
        "Ġgezondheid",
        -10.67589597635575
      ],
      [
        "Ġberlijn",
        -10.675912035818278
      ],
      [
        "Ġplezier",
        -10.675989754825427
      ],
      [
        "houden",
        -10.676778079332422
      ],
      [
        "Ġzelfstandig",
        -10.677245750909343
      ],
      [
        "Ġkoken",
        -10.677278953311955
      ],
      [
        "Ġbenen",
        -10.677319953146853
      ],
      [
        "Ġvoel",
        -10.677322033703845
      ],
      [
        "Ġgrappig",
        -10.67748391737593
      ],
      [
        "Ġwar",
        -10.677724336329165
      ],
      [
        "Ġspeelgoed",
        -10.677877701368644
      ],
      [
        "zuid",
        -10.678221734955995
      ],
      [
        "Ġhuwelijk",
        -10.678245398772113
      ],
      [
        "Ġprachtig",
        -10.678464581044587
      ],
      [
        "Ġgevecht",
        -10.678859114715628
      ],
      [
        "Ġ42",
        -10.678893936851974
      ],
      [
        "Ġwoning",
        -10.67893450823744
      ],
      [
        "Ġbeschrijf",
        -10.67924799815006
      ],
      [
        "Ġcijfer",
        -10.679432383454154
      ],
      [
        "Ġgitaar",
        -10.67961287629937
      ],
      [
        "bed",
        -10.679699134148517
      ],
      [
        "Ġontzettend",
        -10.67999288516619
      ],
      [
        "Ġomzet",
        -10.68053902164026
      ],
      [
        "beer",
        -10.680896390340498
      ],
      [
        "hard",
        -10.681085167941575
      ],
      [
        "Ġgrootte",
        -10.681337658952707
      ],
      [
        "Ġachtergrond",
        -10.681527802315767
      ],
      [
        "Ġpuck",
        -10.68169874477315
      ],
      [
        "Ġavonds",
        -10.681773135828328
      ],
      [
        "pad",
        -10.68182894087409
      ],
      [
        "Ġsterker",
        -10.682211405618595
      ],
      [
        "Ġgebeurtenis",
        -10.682538661783504
      ],
      [
        "Ġzangeres",
        -10.682539108114192
      ],
      [
        "Ġjacht",
        -10.682729426214884
      ],
      [
        "Ġ1997",
        -10.683052519182404
      ],
      [
        "Ġgeraakt",
        -10.683078149995303
      ],
      [
        "Ġfo",
        -10.683221777960794
      ],
      [
        "Ġbriefje",
        -10.683858948792784
      ],
      [
        "Ġgasten",
        -10.684914492427978
      ],
      [
        "mmm",
        -10.685091500357892
      ],
      [
        "676",
        -10.6851615216123
      ],
      [
        "zien",
        -10.685798005401551
      ],
      [
        "Ġwerking",
        -10.686706800174273
      ],
      [
        "Ġslang",
        -10.68676786632223
      ],
      [
        "pers",
        -10.688016841934342
      ],
      [
        "Ġslaapt",
        -10.688108234799627
      ],
      [
        "Ġiris",
        -10.689548074708307
      ],
      [
        "Ġsergi",
        -10.689788243431506
      ],
      [
        "Ġ38",
        -10.689872215060772
      ],
      [
        "Ġboog",
        -10.689956897206166
      ],
      [
        "Ġhing",
        -10.69007955909511
      ],
      [
        "Ġmil",
        -10.690082341636945
      ],
      [
        "Ġantwoordde",
        -10.69010508032827
      ],
      [
        "natuurlijk",
        -10.690188992642335
      ],
      [
        "kat",
        -10.690402798441841
      ],
      [
        "Ġaard",
        -10.690994056570066
      ],
      [
        "mij",
[...]
