{
  "version": "1.0",
  "truncation": null,
  "padding": null,
  "added_tokens": [
    {
      "id": 0,
      "content": "<UNK>",
      "single_word": false,
      "lstrip": false,
      "rstrip": false,
      "normalized": false,
      "special": true
    },
    {
      "id": 1,
      "content": "<PAD>",
      "single_word": false,
      "lstrip": false,
      "rstrip": false,
      "normalized": false,
      "special": true
    },
    {
      "id": 2,
      "content": "<CLS>",
      "single_word": false,
      "lstrip": false,
      "rstrip": false,
      "normalized": false,
      "special": true
    },
    {
      "id": 3,
      "content": "<SEP>",
      "single_word": false,
      "lstrip": false,
      "rstrip": false,
      "normalized": false,
      "special": true
    },
    {
      "id": 4,
      "content": "<MASK>",
      "single_word": false,
      "lstrip": false,
      "rstrip": false,
      "normalized": false,
      "special": true
    },
    {
      "id": 5,
      "content": "<EN>",
      "single_word": false,
      "lstrip": false,
      "rstrip": false,
      "normalized": false,
      "special": true
    }
  ],
  "normalizer": {
    "type": "Sequence",
    "normalizers": [
      {
        "type": "NFD"
      },
      {
        "type": "StripAccents"
      },
      {
        "type": "Lowercase"
      }
    ]
  },
  "pre_tokenizer": {
    "type": "Metaspace",
    "replacement": " ",
    "prepend_scheme": "always",
    "split": true
  },
  "post_processor": null,
  "decoder": {
    "type": "Metaspace",
    "replacement": " ",
    "prepend_scheme": "always",
    "split": true
  },
  "model": {
    "type": "Unigram",
    "unk_id": null,
    "vocab": [
      [
        "<UNK>",
        0.0
      ],
      [
        "<PAD>",
        0.0
      ],
      [
        "<CLS>",
        0.0
      ],
      [
        "<SEP>",
        0.0
      ],
      [
        "<MASK>",
        0.0
      ],
      [
        "<EN>",
        0.0
      ],
      [
        " ",
        -3.1273642161736355
      ],
      [
        ".",
        -3.2470445004092454
      ],
      [
        " the",
        -3.6415242472333507
      ],
      [
        " you",
        -3.9356222301113952
      ],
      [
        "a",
        -3.9652480955881586
      ],
      [
        "?",
        -4.093549280681321
      ],
      [
        " to",
        -4.247764228531009
      ],
      [
        ",",
        -4.250262656637862
      ],
      [
        "i",
        -4.325209788276593
      ],
      [
        " and",
        -4.406591733355084
      ],
      [
        " it",
        -4.595766738030855
      ],
      [
        "s",
        -4.6719629376803855
      ],
      [
        " in",
        -4.704860474057217
      ],
      [
        " that",
        -4.713412525426804
      ],
      [
        " of",
        -4.869164343394736
      ],
      [
        " is",
        -4.93129596327301
      ],
      [
        " on",
        -4.997979851570468
      ],
      [
        "]",
        -5.162801711370468
      ],
      [
        " do",
        -5.245878169048304
      ],
      [
        "!",
        -5.39542645902559
      ],
      [
        " we",
        -5.40135631537232
      ],
      [
        " this",
        -5.416907000669289
      ],
      [
        " have",
        -5.498657146217067
      ],
      [
        " what",
        -5.520793973120195
      ],
      [
        " for",
        -5.546853167466674
      ],
      [
        " at",
        -5.553350161319633
      ],
      [
        " he",
        -5.567855925971758
      ],
      [
        " like",
        -5.5700766963123804
      ],
      [
        " don't",
        -5.58193641592514
      ],
      [
        " was",
        -5.594243295155032
      ],
      [
        " with",
        -5.598879217120878
      ],
      [
        " your",
        -5.677607880817714
      ],
      [
        " are",
        -5.707230765659048
      ],
      [
        "'s",
        -5.7275178642711655
      ],
      [
        " not",
        -5.732473142622512
      ],
      [
        " one",
        -5.7400514531260125
      ],
      [
        " can",
        -5.743917291472851
      ],
      [
        " go",
        -5.778283245994199
      ],
      [
        " *chi:\ti",
        -5.801260275566957
      ],
      [
        " they",
        -5.815769286246658
      ],
      [
        " be",
        -5.82260217101963
      ],
      [
        " got",
        -5.834558935767609
      ],
      [
        " know",
        -5.869237283434629
      ],
      [
        " it's",
        -5.876530560543751
      ],
      [
        " get",
        -5.877642976487055
      ],
      [
        " up",
        -5.8822750808059165
      ],
      [
        " all",
        -5.928822230101257
      ],
      [
        " think",
        -5.932005164919957
      ],
      [
        " *mot:\tyou",
        -5.952110937011181
      ],
      [
        "...",
        -5.968372345012558
      ],
      [
        " *chi:\tyeah.",
        -6.008438743415898
      ],
      [
        " me",
        -6.013555006382962
      ],
      [
        " my",
        -6.048046935596831
      ],
      [
        " *mot:\twhat",
        -6.064650289711944
      ],
      [
        " so",
        -6.068938059879287
      ],
      [
        " put",
        -6.071163386350362
      ],
      [
        " see",
        -6.102398163891271
      ],
      [
        " just",
        -6.1088816365601435
      ],
      [
        " it.",
        -6.112120283538223
      ],
      [
        " *chi:\t",
        -6.115533192698855
      ],
      [
        "t",
        -6.121684293391457
      ],
      [
        " but",
        -6.145203151524374
      ],
      [
        " she",
        -6.172386854986897
      ],
      [
        " that's",
        -6.174627735728791
      ],
      [
        " some",
        -6.17706982496224
      ],
      [
        " there",
        -6.1873404456803645
      ],
      [
        " want",
        -6.198343812092217
      ],
      [
        " *mot:\toh",
        -6.226169188324098
      ],
      [
        " then",
        -6.234720961205772
      ],
      [
        " out",
        -6.2407337845624635
      ],
      [
        " it?",
        -6.262153723506765
      ],
      [
        " if",
        -6.265224689546876
      ],
      [
        " *mot:\ti",
        -6.278504107222972
      ],
      [
        " about",
        -6.296009295831503
      ],
      [
        " going",
        -6.311650685374348
      ],
      [
        " gonna",
        -6.313174345933799
      ],
      [
        "e",
        -6.320250011614153
      ],
      [
        "=",
        -6.327543882980994
      ],
      [
        " *mot:\tand",
        -6.330317832417833
      ],
      [
        " her",
        -6.353023846382575
      ],
      [
        " did",
        -6.379811960945727
      ],
      [
        " er",
        -6.397726085096412
      ],
      [
        " *mot:\t",
        -6.4083528564961405
      ],
      [
        " as",
        -6.418778698624957
      ],
      [
        " his",
        -6.465313408401158
      ],
      [
        " xxx.",
        -6.465430019901909
      ],
      [
        " no",
        -6.473355733827564
      ],
      [
        " them",
        -6.479520085371428
      ],
      [
        " little",
        -6.480505543096976
      ],
      [
        " well",
        -6.485014305132491
      ],
      [
        " when",
        -6.485980625456847
      ],
      [
        "y",
        -6.520489567604555
      ],
      [
        " *chi:\tand",
        -6.521210079432265
      ],
      [
        " or",
        -6.538865765328579
      ],
      [
        " *chi:\tno.",
        -6.5404177551280505
      ],
      [
        " *mot:\tthat's",
        -6.565069501226851
      ],
      [
        "ing",
        -6.568871044140064
      ],
      [
        " wanna",
        -6.5789482817841485
      ],
      [
        "d",
        -6.58410941560501
      ],
      [
        " from",
        -6.628953003012679
      ],
      [
        " [",
        -6.635361645371562
      ],
      [
        " very",
        -6.636763423556378
      ],
      [
        " back",
        -6.655377079092508
      ],
      [
        " look",
        -6.656550047387768
      ],
      [
        " two",
        -6.6588080391935165
      ],
      [
        " xxx",
        -6.6592895226295905
      ],
      [
        " there.",
        -6.66481647903823
      ],
      [
        " i'm",
        -6.678205169477229
      ],
      [
        " oh",
        -6.693140645798534
      ],
      [
        " down",
        -6.696942004445631
      ],
      [
        "r",
        -6.710854280361904
      ],
      [
        " had",
        -6.716967668079855
      ],
      [
        " come",
        -6.722572131555376
      ],
      [
        " over",
        -6.725428598083951
      ],
      [
        " were",
        -6.730541128644996
      ],
      [
        "o",
        -6.735067833244333
      ],
      [
        " said",
        -6.757365865595768
      ],
      [
        " more",
        -6.78178091922052
      ],
      [
        "m",
        -6.797961178405011
      ],
      [
        "n",
        -6.800713255619401
      ],
      [
        " erm",
        -6.805946589141097
      ],
      [
        " would",
        -6.808608814827892
      ],
      [
        " didn't",
        -6.820746151045558
      ],
      [
        " *chi:\ta",
        -6.821036901293475
      ],
      [
        " say",
        -6.825604995174469
      ],
      [
        " yeah.",
        -6.840851126715261
      ],
      [
        " here.",
        -6.848514329270124
      ],
      [
        " good",
        -6.849035737209665
      ],
      [
        " can't",
        -6.849887311943281
      ],
      [
        " right",
        -6.853669190246865
      ],
      [
        " make",
        -6.857140661827101
      ],
      [
        " that?",
        -6.859237752463326
      ],
      [
        " how",
        -6.8626766726991875
      ],
      [
        " one.",
        -6.8662182395733
      ],
      [
        "h",
        -6.87138769501132
      ],
      [
        " big",
        -6.877356130208877
      ],
      [
        " you're",
        -6.879667084775118
      ],
      [
        " other",
        -6.893122413192483
      ],
      [
        " play",
        -6.899075744235033
      ],
      [
        " now",
        -6.917104166873788
      ],
      [
        " *mot:\tdo",
        -6.936649639746793
      ],
      [
        " looks",
        -6.937854478390118
      ],
      [
        " take",
        -6.950823297660168
      ],
      [
        " will",
        -6.970648320672385
      ],
      [
        " has",
        -6.97966772436701
      ],
      [
        " him",
        -6.98849080453618
      ],
      [
        " where",
        -7.004541401127836
      ],
      [
        " here",
        -7.007426105553488
      ],
      [
        " *mot:\tit's",
        -7.0076181680639955
      ],
      [
        "ed",
        -7.0094523423526045
      ],
      [
        " does",
        -7.025999504419314
      ],
      [
        " an",
        -7.026700863754913
      ],
      [
        " because",
        -7.040400641250139
      ],
      [
        " these",
        -7.053068439108687
      ],
      [
        " you?",
        -7.067596209829473
      ],
      [
        " could",
        -7.0721892074080905
      ],
      [
        " really",
        -7.072529836626984
      ],
      [
        " *fat:\t",
        -7.088914249296572
      ],
      [
        " isn't",
        -7.092752917902057
      ],
      [
        " *mot:\tno",
        -7.107861834945528
      ],
      [
        " *mot:\tis",
        -7.108399226474031
      ],
      [
        " he's",
        -7.1099125659526745
      ],
      [
        " tell",
        -7.113294565747227
      ],
      [
        " *chi:\twhat",
        -7.14156855280889
      ],
      [
        " *mot:\tyeah.",
        -7.143381411477005
      ],
      [
        " yeah",
        -7.1526143739426296
      ],
      [
        " *chi:\tyes.",
        -7.157984922716631
      ],
      [
        " *chi:\txxx",
        -7.16097693021856
      ],
      [
        " there's",
        -7.16412855932283
      ],
      [
        " [mot",
        -7.170438595516556
      ],
      [
        " been",
        -7.17141668316707
      ],
      [
        " *chi:\tno",
        -7.179859341518085
      ],
      [
        " off",
        -7.180796135277507
      ],
      [
        " right.",
        -7.18507104335127
      ],
      [
        " need",
        -7.188227825081697
      ],
      [
        " that.",
        -7.188738843774518
      ],
      [
        " any",
        -7.192594893245941
      ],
      [
        " something",
        -7.207631532092316
      ],
      [
        " *mot:\tno.",
        -7.211584960744615
      ],
      [
        " hafta",
        -7.211878712146039
      ],
      [
        " time",
        -7.21655269683432
      ],
      [
        " *mot:\twhat's",
        -7.231821445522355
      ],
      [
        " [chi",
        -7.235130398781939
      ],
      [
        " know.",
        -7.235245592924295
      ],
      [
        " another",
        -7.243167822950653
      ],
      [
        " bit",
        -7.244490334139259
      ],
      [
        "p",
        -7.252552014585964
      ],
      [
        " doesn't",
        -7.258157922751213
      ],
      [
        "er",
        -7.261843501462144
      ],
      [
        " those",
        -7.265535187281705
      ],
      [
        " by",
        -7.268292036855852
      ],
      [
        " who",
        -7.268676136558355
      ],
      [
        " mean",
        -7.273458363087332
      ],
      [
        " *chi:\tyou",
        -7.275713721493295
      ],
      [
        " into",
        -7.276924980184694
      ],
      [
        " eat",
        -7.285204981213045
      ],
      [
        " *chi:\toh",
        -7.297306569456833
      ],
      [
        " people",
        -7.3015225307822575
      ],
      [
        " went",
        -7.307432016463926
      ],
      [
        " they're",
        -7.327485953527631
      ],
      [
        " which",
        -7.328327264145802
      ],
      [
        " goes",
        -7.331334401266002
      ],
      [
        " this?",
        -7.332877910575476
      ],
      [
        " three",
        -7.346362054796137
      ],
      [
        " *mot:\twell",
        -7.350267909571995
      ],
      [
        " i'll",
        -7.354760696285171
      ],
      [
        " *mot:\tcan",
        -7.381331750534969
      ],
      [
        " *inv:\t",
        -7.393172723160463
      ],
      [
        " now.",
        -7.407359086901208
      ],
      [
        " doing",
        -7.416422892986022
      ],
      [
        " *mot:\tokay.",
        -7.420526328868734
      ],
      [
        "g",
        -7.433211727230804
      ],
      [
        " what's",
        -7.448641161018861
      ],
      [
        " there?",
        -7.448938868313386
      ],
      [
        "c",
        -7.455434050660886
      ],
      [
        " *mot:\tare",
        -7.463481394334583
      ],
      [
        " too",
        -7.465304390116335
      ],
      [
        " me.",
        -7.471055336848719
      ],
      [
        " give",
        -7.475395423205823
      ],
      [
        "l",
        -7.486950654004334
      ],
      [
        " way",
        -7.494424273705475
      ],
      [
        " baby",
        -7.503401828767272
      ],
      [
        " chi",
        -7.503881736173561
      ],
      [
        " *mot:\tit",
        -7.509549024316945
      ],
      [
        " things",
        -7.515013851431208
      ],
      [
        " *mot:\tthe",
        -7.515873322286071
      ],
      [
        " their",
        -7.523899261447026
      ],
      [
        " *mot:\ta",
        -7.526763869283117
      ],
      [
        " says",
        -7.530515409990505
      ],
      [
        " only",
        -7.5338709029574
      ],
      [
        " up.",
        -7.533921191011279
      ],
      [
        " i've",
        -7.535137784632534
      ],
      [
        "'",
        -7.537142489991124
      ],
      [
        " on.",
        -7.544246383686838
      ],
      [
        "\"",
        -7.5482698437425775
      ],
      [
        " our",
        -7.550814766416428
      ],
      [
        " *chi:\ti'm",
        -7.5734080228401535
      ],
      [
        " nice",
        -7.578488108641221
      ],
      [
        " still",
        -7.578619358046071
      ],
      [
        " no.",
        -7.585418383679858
      ],
      [
        "f",
        -7.5869780480660935
      ],
      [
        " else",
        -7.5906208292292945
      ],
      [
        " *chi:\tit's",
        -7.594387222779455
      ],
      [
        " we're",
        -7.595137979650055
      ],
      [
        " lot",
        -7.601266316864008
      ],
      [
        " should",
        -7.601449301009014
      ],
      [
        " why",
        -7.6017064611928085
      ],
      [
        " *mot:\tthere",
        -7.604402503598145
      ],
      [
        " *mot:\tyeah",
        -7.605221043619064
      ],
      [
        " much",
        -7.608109134538418
      ],
      [
        " go.",
        -7.6105501516041425
      ],
      [
        " thing",
        -7.613517641783536
      ],
      [
        " *mot:\tlook",
        -7.6169402007264875
      ],
      [
        " mm.",
        -7.624963541446297
      ],
      [
        " *inv:\twhat",
        -7.626943758849819
      ],
      [
        " *mot:\tthat",
        -7.627405180811756
      ],
      [
        " um",
        -7.6304567002235455
      ],
      [
        " what?",
        -7.64845133851613
      ],
      [
        " you've",
        -7.6499606167218825
      ],
      [
        " *mot:\toh.",
        -7.653891099501276
      ],
      [
        " she's",
        -7.658905737724478
      ],
      [
        " sit",
        -7.662844036618795
      ],
      [
        " *mot:\tokay",
        -7.669841994159066
      ],
      [
        " *chi:\tthe",
        -7.671040811130526
      ],
      [
        " *mot:\tso",
        -7.673035371212663
      ],
      [
        " find",
        -7.682423972843875
      ],
      [
        " car",
        -7.688330021595762
      ],
      [
        " next",
        -7.693325868428877
      ],
      [
        " *chi:\tthis",
        -7.702204006329586
      ],
      [
        "on",
        -7.704957275153088
      ],
      [
        " yes.",
        -7.708873639617913
      ],
      [
        " *mot:\tcome",
        -7.710661488081083
      ],
      [
        " *mot:\tyes.",
        -7.713890166845868
      ],
      [
        " *chi:\t[chi",
        -7.7293453520275825
      ],
      [
        " through",
        -7.730213211236093
      ],
      [
        " sec",
        -7.734731561424798
      ],
      [
        " four",
        -7.736305090208495
      ],
      [
        " *chi:\tthat",
        -7.738705843814431
      ],
      [
        " *chi:\the",
        -7.7392445373807135
      ],
      [
        " *mot:\tyou're",
        -7.73993204535379
      ],
      [
        " *mot:\twhere",
        -7.7548675272993535
      ],
      [
        " *mot:\twe",
        -7.758627906097415
      ],
      [
        "b",
        -7.760037327341308
      ],
      [
        " might",
        -7.767021183485555
      ],
      [
        " five",
        -7.768676705970602
      ],
      [
        "u",
        -7.7792038640329775
      ],
      [
        " *chi:\tum",
        -7.781385623662249
      ],
      [
        " last",
        -7.781495619604838
      ],
      [
        " down.",
        -7.784938333609059
      ],
      [
        " won't",
        -7.787152950919847
      ],
      [
        " done",
        -7.787418603185985
      ],
      [
        " *mot:\tbut",
        -7.7889468646793905
      ],
      [
        " one?",
        -7.791443867867695
      ],
      [
        ".]",
        -7.7973231534061345
      ],
      [
        " read",
        -7.798243239093278
      ],
      [
        " yes",
        -7.798919687546135
      ],
      [
        " *chi:\tyeah",
        -7.806359690835434
      ],
      [
        "-",
        -7.808415744097724
      ],
      [
        "w",
        -7.808730057956037
      ],
      [
        " *chi:\tthat's",
        -7.811507544627792
      ],
      [
        " first",
        -7.811582137456375
      ],
      [
        " *mot:\the",
        -7.813819269025563
      ],
      [
        " haven't",
        -7.8213566352967465
      ],
      [
        " *mot:\tdid",
        -7.834449604330199
      ],
      [
        " thought",
        -7.836811933304798
      ],
      [
        " turn",
        -7.858787880904135
      ],
      [
        " *inv:\toh",
        -7.859201228992717
      ],
      [
        " book",
        -7.86905692291584
      ],
      [
        " out.",
        -7.8862040661086095
      ],
      [
        " *mot:\t\"",
        -7.888440970867764
      ],
      [
        " *chi:\toh.",
        -7.893499584149579
      ],
      [
        " sort",
        -7.896237347236315
      ],
      [
        " after",
        -7.896578100993832
      ],
      [
        " this.",
        -7.8987272924117935
      ],
      [
        " new",
        -7.901915329090674
      ],
      [
        "cha",
        -7.916625320100069
      ],
      [
        " around",
        -7.918184913582106
      ],
      [
        " *chi:\tbut",
        -7.918496082297413
      ],
      [
        " okay.",
        -7.919388025424581
      ],
      [
        " *mot:\t[laughs]",
        -7.924837253204682
      ],
      [
        " made",
        -7.929026452535947
      ],
      [
        " cos",
        -7.935794995004846
      ],
      [
        " mot",
        -7.936016198303964
      ],
      [
        " we've",
        -7.9361373630078
      ],
      [
        " gotta",
        -7.937616091076178
      ],
      [
        " away",
        -7.9418990927031725
      ],
      [
        " long",
        -7.942467509693081
      ],
      [
        " help",
        -7.942594689136989
      ],
      [
        " we'll",
        -7.946238418110191
      ],
      [
        " looking",
        -7.9467952956513805
      ],
      [
        " man",
        -7.951559980660278
      ],
      [
        " good.",
        -7.954393752549844
      ],
      [
        " let",
        -7.95516938361906
      ],
      [
        " try",
        -7.955664272282927
      ],
      [
        " than",
        -7.956123142784129
      ],
      [
        " kind",
        -7.9592228158184195
      ],
      [
        "k",
        -7.961761554207158
      ],
      [
        " again.",
        -7.96199138337639
      ],
      [
        " *chi:\tit",
        -7.961993376255416
      ],
      [
        " quite",
        -7.963429851076182
      ],
      [
        " us",
        -7.965140007913282
      ],
      [
        " hear",
        -7.966123880586711
      ],
      [
        " let's",
        -7.966408184092938
      ],
      [
        " actually",
        -7.968291402065937
      ],
      [
        " getting",
        -7.971407657679798
      ],
      [
        " *mot:\txxx",
        -7.973492507424277
      ],
      [
        " them.",
        -7.974078884330572
      ],
      [
        "ly",
        -7.974876867003623
      ],
      [
        " many",
        -7.980096711728024
      ],
      [
        " remember",
        -7.981374590980359
      ],
      [
        " use",
        -7.9858189309220755
      ],
      [
        " *chi:\t[laughs]",
        -7.9941694278447795
      ],
      [
        " work",
        -7.994883152707423
      ],
      [
        " daddy",
        -7.996336531732913
      ],
      [
        " \"",
        -8.00069300324376
      ],
      [
        " *mot:\tlet's",
        -8.002958358348888
      ],
      [
        " too.",
        -8.003804594840567
      ],
      [
        " playing",
        -8.009966013937436
      ],
      [
        " ball",
        -8.01336329804904
      ],
      [
        " anything",
        -8.015081834662832
      ],
      [
        " show",
        -8.023220824858756
      ],
      [
        " yeah,",
        -8.029053138463528
      ],
      [
        " round",
        -8.030508538866531
      ],
      [
        "s,",
        -8.031473625716608
      ],
      [
        " red",
        -8.031537744091931
      ],
      [
        " house",
        -8.03340779853094
      ],
      [
        " day",
        -8.033528775725568
      ],
      [
        " *mot:\tnow",
        -8.037444696144707
      ],
      [
        " came",
        -8.043924042085505
      ],
      [
        " *tea:\t",
        -8.048191486394527
      ],
      [
        " *mot:\tright.",
        -8.049369977273994
      ],
      [
        " talking",
        -8.051332448784605
      ],
      [
        " coming",
        -8.054665738601553
      ],
      [
        " *mot:\tthis",
        -8.054751779691188
      ],
      [
        " *mot:\thow",
        -8.05849567157777
      ],
      [
        " box",
        -8.064873346084307
      ],
      [
        " wasn't",
        -8.068788195671225
      ],
      [
        " doing?",
        -8.072674086056399
      ],
      [
        " before",
        -8.074218222630662
      ],
      [
        " same",
        -8.077212776332296
      ],
      [
        " off.",
        -8.077485029754337
      ],
      [
        " *mot:\tdon't",
        -8.077888568478729
      ],
      [
        " aren't",
        -8.079038154153134
      ],
      [
        " *mch:\t",
        -8.080850990001384
      ],
      [
        " c",
        -8.080932128163042
      ],
      [
        " open",
        -8.083720395459737
      ],
      [
        " *mot:\ti'm",
        -8.085101989286734
      ],
      [
        " here?",
        -8.088394366631961
      ],
      [
        " they?",
        -8.090294668372591
      ],
      [
        " *exp:\t",
        -8.091690414754439
      ],
      [
        " never",
        -8.093969504485422
      ],
      [
        " hand",
        -8.094501015257514
      ],
      [
        "re",
        -8.095703814206518
      ],
      [
        " er,",
        -8.10027970272243
      ],
      [
        " head",
        -8.100403508721751
      ],
      [
        " see.",
        -8.10074886281203
      ],
      [
        " *mot:\tyes",
        -8.104040531034757
      ],
      [
        " talk",
        -8.109950021084169
      ],
      [
        " home",
        -8.11411234212338
      ],
      [
        " *mot:\twhy",
        -8.117819802297937
      ],
      [
        " better",
        -8.120633617290084
      ],
      [
        " *mot:\tthere's",
        -8.12079064790924
      ],
      [
        " *mot:\twhere's",
        -8.12504989084457
      ],
      [
        " different",
        -8.129407887875551
      ],
      [
        " called",
        -8.132217075982117
      ],
      [
        " *chi:\twhy",
        -8.139270637404728
      ],
      [
        " *bro:\t",
        -8.141526009507675
      ],
      [
        " *chi:\twhere",
        -8.143798232196982
      ],
      [
        " keep",
        -8.145818789375703
      ],
      [
        " know,",
        -8.147586301646605
      ],
      [
        " thank",
        -8.150381131494166
      ],
      [
        " top",
        -8.152093742543428
      ],
      [
        " *fat:\twhat",
        -8.155929306013537
      ],
      [
        " boy",
        -8.16138777942509
      ],
      [
        " it,",
        -8.161509202055502
      ],
      [
        " no,",
        -8.16490531739392
      ],
      [
        " *chi:\t[",
        -8.16630790855816
      ],
      [
        " even",
        -8.170147031089567
      ],
      [
        " twenty",
        -8.172744829819123
      ],
      [
        " do?",
        -8.177494944388352
      ],
      [
        " used",
        -8.17918360414534
      ],
      [
        " *chi:\twhat's",
        -8.182382670030348
      ],
      [
        " piece",
        -8.188064700238206
      ],
      [
        " water",
        -8.190583580474577
      ],
      [
        " *sis:\t",
        -8.191789425252837
      ],
      [
        " saw",
        -8.193823295349732
      ],
      [
        " now?",
        -8.198927935159194
      ],
      [
        " mother",
        -8.206256560599945
      ],
      [
        " then.",
        -8.206291253772607
      ],
      [
        " school",
        -8.211626879012167
      ],
      [
        " *inv:\ti",
        -8.213145450904488
      ],
      [
        " me?",
        -8.213263756889349
      ],
      [
        " making",
        -8.21499029271593
      ],
      [
        " mommy",
        -8.215243981603164
      ],
      [
        " blue",
        -8.219207895949843
      ],
      [
        "in",
        -8.219483070983843
      ],
      [
        " green",
        -8.22008073955523
      ],
      [
        " having",
        -8.221793987674744
      ],
      [
        " hundred",
        -8.222758150360855
      ],
      [
        " uh",
        -8.224537196324931
      ],
      [
        " sure",
        -8.226355331340212
      ],
      [
        " always",
        -8.226764374314289
      ],
      [
        " *mot:\there",
        -8.227308540330762
      ],
      [
        ";",
        -8.23026802211359
      ],
      [
        " comes",
        -8.230812669657832
      ],
      [
        "+",
        -8.2335368366051
      ],
      [
        " old",
        -8.239737517621123
      ],
      [
        " *inv:\tand",
        -8.242260822000572
      ],
      [
        " he?",
        -8.247312416873116
      ],
      [
        " under",
        -8.247439680388874
      ],
      [
        " chi]",
        -8.247448677022254
      ],
      [
        " *mot:\tsee",
        -8.24889557955926
      ],
      [
        " toy",
        -8.24987876069881
      ],
      [
        " *mot:\tshe",
        -8.25313532619524
      ],
      [
        " six",
        -8.255631478481021
      ],
      [
        " *gma:\t",
        -8.256084244640652
      ],
      [
        " gone",
        -8.259443219746526
      ],
      [
        " *chi:\tlook",
        -8.260260767568179
      ],
      [
        " 'cause",
        -8.270233135664364
      ],
      [
        " probably",
        -8.2709570086193
      ],
      [
        " [yes].",
        -8.271038907625162
      ],
      [
        " being",
        -8.277309535322205
      ],
      [
        " puts",
        -8.27856439821537
      ],
      [
        " *chi:\tmhm.",
        -8.279316567032323
      ],
      [
        " must",
        -8.28056104901276
      ],
      [
        " hold",
        -8.280633712278604
      ],
      [
        " erm,",
        -8.281045069044465
      ],
      [
        " *mot:\twho",
        -8.28134770683388
      ],
      [
        " again",
        -8.286049209356824
      ],
      [
        " noise].",
        -8.287437953871436
      ],
      [
        " number",
        -8.289269952140293
      ],
      [
        " *inv:\tyou",
        -8.291850646798526
      ],
      [
        "al",
        -8.294524728043179
      ],
      [
        " color",
        -8.301180162610118
      ],
      [
        " okay?",
        -8.302485724915998
      ],
      [
        "an",
        -8.306842168631459
      ],
      [
        " watch",
        -8.307907092375094
      ],
      [
        "/",
        -8.308898988269977
      ],
      [
        " trying",
        -8.310304527262904
      ],
      [
        " him.",
        -8.310781107459153
      ],
      [
        " mummy",
        -8.317081369116492
      ],
      [
        " *chi:\tokay.",
        -8.317295929482267
      ],
      [
        " *mot:\tmhm.",
        -8.318348165515683
      ],
      [
        " huh?",
        -8.319165672844676
      ],
      [
        " *chi:\tuh",
        -8.322366323804808
      ],
      [
        " name",
        -8.33047427551126
      ],
      [
        " maybe",
        -8.338405219565487
      ],
      [
        " *chi:\tcan",
        -8.338411723835303
      ],
      [
        " end",
        -8.353361835958456
      ],
      [
        " house.",
        -8.353620576841005
      ],
      [
        " start",
        -8.361609145718425
      ],
      [
        " girl.",
        -8.363357823952894
      ],
      [
        " mm",
        -8.363850358738931
      ],
      [
        " *mot:\tput",
        -8.365151737945965
      ],
      [
        "it",
        -8.365175982676435
      ],
      [
        " *mot:\thm",
        -8.369716614443922
      ],
      [
        " toys",
        -8.372816386221347
      ],
      [
        " saying",
        -8.375005506973805
      ],
      [
        " look.",
        -8.376775956083213
      ],
      [
        "v",
        -8.377978722049457
      ],
      [
        " paper",
        -8.379172855345837
      ],
      [
        " makes",
        -8.379656599192511
      ],
      [
        " love",
        -8.380521460646804
      ],
      [
        " please.",
        -8.3845997511293
      ],
      [
        " wants",
        -8.386055383875217
      ],
      [
        " *mot:\tum",
        -8.38640286335422
      ],
      [
        " *mot:\the's",
        -8.388332315473418
      ],
      [
        " dog",
        -8.389544261090874
      ],
      [
        " baby.",
        -8.392507599579051
      ],
      [
        " call",
        -8.392579530324092
      ],
      [
        " we?",
        -8.39580665432441
      ],
      [
        " girl",
        -8.395817623800683
      ],
      [
        " wouldn't",
        -8.396446775270318
      ],
      [
        " *chi:\twe",
        -8.398150179792486
      ],
      [
        "or",
        -8.398698968979808
      ],
      [
        " night",
        -8.401288321887959
      ],
      [
        " book]",
        -8.402986462822847
      ],
      [
        " while",
        -8.404982648886637
      ],
      [
        " *mot:\tgood",
        -8.405200226051099
      ],
      [
        " pick",
        -8.407438878929371
      ],
      [
        " time.",
        -8.41370156862653
      ],
      [
        " *chi:\tnow",
        -8.417324880298159
      ],
      [
        " leave",
        -8.418176154695944
      ],
      [
        " am",
        -8.419852087363129
      ],
      [
        " move",
        -8.426216533038788
      ],
      [
        " seen",
        -8.426981683215471
      ],
      [
        " *chi:\tmy",
        -8.431645056669812
      ],
      [
        " *chi:\tdo",
        -8.432435547028698
      ],
      [
        " pretty",
        -8.433372550328118
      ],
      [
        " points",
        -8.435433841009752
      ],
      [
        " wanted",
        -8.436671539063456
      ],
      [
        " *mot:\tthey",
        -8.440311679384735
      ],
      [
        " front",
        -8.446540174301342
      ],
      [
        " boy.",
        -8.447196302470068
      ],
      [
        " picture",
        -8.447821576624222
      ],
      [
        " found",
        -8.452718900219331
      ],
      [
        " b",
        -8.455416602042176
      ],
      [
        " [laughs]",
        -8.459612508544058
      ],
      [
        " told",
        -8.473331321717618
      ],
      [
        " yellow",
        -8.473819403985702
      ],
      [
        " car.",
        -8.474028161078834
      ],
      [
        " buy",
        -8.48208842672173
      ],
      [
        " *chi:\t[makes",
        -8.482902970614871
      ],
      [
        " takes",
        -8.484631194074929
      ],
      [
        " *fat:\ti",
        -8.486226537662924
      ],
      [
        " yes,",
        -8.487446389680633
      ],
      [
        " part",
        -8.4882140504303
      ],
      [
        " okay",
        -8.488887210102938
      ],
      [
        " *chi:\tthey",
        -8.490781066248367
      ],
      [
        " feel",
        -8.490914936663758
      ],
      [
        " *fat:\tyou",
        -8.492673081427382
      ],
      [
        " back.",
        -8.498568695925114
      ],
      [
        "in'",
        -8.504319907163822
      ],
      [
        " room",
        -8.506483142812877
      ],
      [
        " bring",
        -8.508705508148143
      ],
      [
        " *par:\t",
        -8.511945262867568
      ],
      [
        " book.",
        -8.513039560671189
      ],
      [
        " way.",
        -8.516335040213562
      ],
      [
        " done.",
        -8.519194628610387
      ],
      [
        " own",
        -8.523465179354782
      ],
      [
        " right?",
        -8.524094429695655
      ],
      [
        " go?",
        -8.524631262760504
      ],
      [
        " picks",
        -8.525399964914671
      ],
      [
        " *mot:\tbecause",
        -8.529362931027137
      ],
      [
        " left",
        -8.530378454639541
      ],
      [
        " *mot:\tthank",
        -8.531656601831227
      ],
      [
        " hands",
        -8.53232948676232
      ],
      [
        " stay",
        -8.534079533317195
      ],
      [
        " write",
        -8.534922656923031
      ],
      [
        " money",
        -8.535130961258595
      ],
      [
        " both",
        -8.536835213167619
      ],
      [
        "and",
        -8.543083995389562
      ],
      [
        " *mot:\tjust",
        -8.543464847237825
      ],
      [
        " *inv:\tmhm",
        -8.547381362267933
      ],
      [
        " train",
        -8.54803861500987
      ],
      [
        " ask",
        -8.549219567251896
      ],
      [
        " mot]",
        -8.54998403639289
      ],
      [
        " door",
        -8.551444502691544
      ],
      [
        " half",
        -8.553159776238967
      ],
      [
        " ten",
        -8.554380986272674
      ],
      [
        " fire",
        -8.554463946370108
      ],
      [
        " *fch:\t",
        -8.55479309144144
      ],
      [
        " dear.",
        -8.555171336138224
      ],
      [
        " turns",
        -8.558556868837252
      ],
      [
        " stuff",
        -8.558772271964747
      ],
      [
        " thomas.",
        -8.559484207179379
      ],
      [
        " lots",
        -8.559938866651876
      ],
      [
        " birthday",
        -8.561996602197455
      ],
      [
        " cup",
        -8.562101775916844
      ],
      [
        " ever",
        -8.56243502063201
      ],
      [
        " may",
        -8.562602974486282
      ],
      [
        "childes/childes_",
        -8.563537173651712
      ],
      [
        " gets",
        -8.564709123777352
      ],
      [
        " side",
        -8.571889257693929
      ],
      [
        " 'em",
        -8.57332592489928
      ],
      [
        " *gra:\t",
        -8.575383321467047
      ],
      [
        " also",
        -8.57892842954547
      ],
      [
        " *mot:\tgo",
        -8.579138605414578
      ],
      [
        " took",
        -8.580000420552315
      ],
      [
        " say?",
        -8.580387205619035
      ],
      [
        " funny",
        -8.582883422509662
      ],
      [
        " table",
        -8.58393051107571
      ],
      [
        " *chi:\tis",
        -8.58421623744823
      ],
      [
        " wait",
        -8.585454182622355
      ],
      [
        " drink",
        -8.586209772363956
      ],
      [
        " *chi:\tone",
        -8.587394720204223
      ],
      [
        " an'",
        -8.593993993782474
      ],
      [
        " black",
        -8.594579495151589
      ],
      [
        " you'll",
        -8.597139493551525
      ],
      [
        " *chi:\twhere's",
        -8.597405295073747
      ],
      [
        " *mot:\tah",
        -8.601563060101245
      ],
      [
        " cut",
        -8.602261148778643
      ],
      [
        " *chi:\tthere",
        -8.602477557276671
      ],
      [
        " couldn't",
        -8.603041679009985
      ],
      [
        " *cds:\t",
        -8.607778188922586
      ],
      [
        " eight",
        -8.611110011514905
      ],
      [
        " away.",
        -8.613814824426965
      ],
      [
        " point",
        -8.614482041056037
      ],
      [
        " shall",
        -8.616660121333604
      ],
      [
        " food",
        -8.617614814750004
      ],
      [
        " year",
        -8.625910675980908
      ],
      [
        " happened",
        -8.627162659780257
      ],
      [
        " *mot:\tshall",
        -8.628319239865805
      ],
      [
        " real",
        -8.62853981351177
      ],
      [
        " box]",
        -8.630430539047513
      ],
      [
        "→",
        -8.634498507062156
      ],
      [
        " bed",
        -8.636579235563456
      ],
      [
        "'d",
        -8.636692749888182
      ],
      [
        " *chi:\tah",
        -8.639340521652949
      ],
      [
        " hard",
        -8.639497395873622
      ],
      [
        " fall",
        -8.641657516785019
      ],
      [
        " right,",
        -8.641691794805613
      ],
      [
        " somebody",
        -8.642067399802437
      ],
      [
        " who's",
        -8.643831194327374
      ],
      [
        "'ll",
        -8.644137648690954
      ],
      [
        " stop",
        -8.644664866855997
      ],
      [
        " eating",
        -8.645093505957151
      ],
      [
        " child",
        -8.6473967109461
      ],
      [
        " i'd",
        -8.647535751675704
      ],
      [
        " putting",
        -8.651722648684538
      ],
      [
        " *chi:\tlook.",
        -8.65225788979631
      ],
      [
        " *inv:\tdo",
        -8.652311485539212
      ],
      [
        " dis",
        -8.657846881775312
      ],
      [
        " mr",
        -8.658069524196678
      ],
      [
        " *chi:\the's",
        -8.658169436420833
      ],
      [
        " seven",
        -8.659100522482577
      ],
      [
        " *mot:\tnot",
        -8.659882257975859
      ],
      [
        " *inv:\tokay.",
        -8.661116390705166
      ],
      [
        " laughs]",
        -8.6614491615478
      ],
      [
        " every",
        -8.663119161755672
      ],
      [
        " sitting",
        -8.663873834304475
      ],
      [
        " tape",
        -8.664968751808228
      ],
      [
        " whole",
        -8.669013859536316
      ],
      [
        " 'as",
        -8.670961683232653
      ],
      [
        " ready",
        -8.673530198033793
      ],
      [
        " more.",
        -8.673929634324692
      ],
      [
        " *chi:\tso",
        -8.674129406112495
      ],
      [
        " de",
        -8.677572605676417
      ],
      [
        " course",
        -8.679212914966842
      ],
      [
        " ya",
        -8.682426224148157
      ],
      [
        " *mar:\t",
        -8.687677091715761
      ],
      [
        " nine",
        -8.689373021136458
      ],
      [
        " *inv:\tthat's",
        -8.690009773373042
      ],
      [
        " *mot:\tright",
        -8.691755673286744
      ],
      [
        " *mot:\tdoes",
        -8.692191879167419
      ],
      [
        " great",
        -8.693311868202505
      ],
      [
        " *chi:\tdon't",
        -8.696179205622087
      ],
      [
        " *mot:\ti'll",
        -8.696754763914432
      ],
      [
        " few",
        -8.698952669632586
      ],
      [
        " [points",
        -8.69919977470171
      ],
      [
        " *mot:\tthey're",
        -8.700687205648057
      ],
      [
        " bad",
        -8.702880486482702
      ],
      [
        " each",
        -8.703894434621834
      ],
      [
        " *chi:\tmommy",
        -8.70510749479364
      ],
      [
        " fell",
        -8.705861641468154
      ],
      [
        " cat",
        -8.706595218278327
      ],
      [
        " *par1:\t",
        -8.707826259212785
      ],
      [
        "at",
        -8.708774985212017
      ],
      [
        " she?",
        -8.711512265763444
      ],
      [
        " chair",
        -8.716243767157138
      ],
      [
        " children",
        -8.718157320540703
      ],
      [
        " that,",
        -8.719318327554525
      ],
      [
        " already",
        -8.72151196742299
      ],
      [
        " *mot:\tone",
        -8.721723477102929
      ],
      [
        " *chi:\they",
        -8.722389862905404
      ],
      [
        " bed.",
        -8.725151094020438
      ],
      [
        "do",
        -8.725539106777171
      ],
      [
        " draw",
        -8.72871419839023
      ],
      [
        " *mot:\tlook.",
        -8.73041187813862
      ],
      [
        " holds",
        -8.734192299934518
      ],
      [
        " today",
        -8.736161849890143
      ],
      [
        " *chi:\tthere's",
        -8.737678706674776
      ],
      [
        " *mot:\t'cause",
        -8.740101494477294
      ],
      [
        " home.",
        -8.740226259158135
      ],
      [
        " [child",
        -8.741152468143259
      ],
      [
        " *chi:\tyes",
        -8.742852940577398
      ],
      [
        " *mot:\twho's",
        -8.746149130751451
      ],
      [
        " everything",
        -8.74691601880786
      ],
      [
        " they've",
        -8.747251798649954
      ],
      [
        " morning",
        -8.748017035856037
      ],
      [
        " second",
        -8.748781710093441
      ],
      [
        " white",
        -8.749347722885634
      ],
      [
        " *mot:\thave",
        -8.752196283795888
      ],
      [
        " stand",
        -8.756337681835873
      ],
      [
        " place",
        -8.75674101549582
      ],
      [
        " behind",
        -8.762868961273751
      ],
      [
        " *mot:\thuh",
        -8.763402179536884
      ],
      [
        " *chi:\thuh",
        -8.763422077131215
      ],
      [
        " throw",
        -8.766385595950137
      ],
      [
        " small",
        -8.766648456292597
      ],
      [
        " wee",
        -8.767427068776424
      ],
      [
        " then?",
        -8.76753327634119
      ],
      [
        " [read]",
        -8.772495944632432
      ],
      [
        " *chi:\tnot",
        -8.772980556215096
      ],
      [
        " nice.",
        -8.773473531761667
      ],
      [
        " floor",
        -8.776472332895471
      ],
      [
        "le",
        -8.77760221249622
      ],
      [
        " well.",
        -8.778639982918207
      ],
      [
        " *chi:\tthere.",
        -8.784010929395244
      ],
      [
        " bear",
        -8.784858135693534
      ],
      [
        " [friend]",
        -8.787455987731038
      ],
      [
        " enough",
        -8.788518003606944
      ],
      [
        " hair",
        -8.789645906560175
      ],
      [
        " happy",
        -8.79051495072775
      ],
      [
        "no",
        -8.791424041299896
      ],
      [
        " *chi:\tsee",
        -8.796929319580746
      ],
      [
        " [m",
        -8.797951509037674
      ],
      [
        " years",
        -8.798311720532334
      ],
      [
        " minute.",
        -8.798403577388504
      ],
      [
        " where's",
        -8.798676593552893
      ],
      [
        " sleep",
        -8.799368203490546
      ],
      [
        " *pat:\t",
        -8.801596700878676
      ],
      [
        " most",
        -8.801857013469798
      ],
      [
        " today.",
        -8.80421031304258
      ],
      [
        " ones",
        -8.805568327548963
      ],
      [
        " thirty",
        -8.80757950993279
      ],
      [
        " walk",
        -8.809016369341366
      ],
      [
        " story",
        -8.810701296827045
      ],
      [
        " *chi:\tshe",
        -8.810988741927254
      ],
      [
        " inside",
        -8.811174361357786
      ],
      [
        " *mot:\t[",
        -8.812717159895662
      ],
      [
        " fifty",
        -8.814236727142868
      ],
      [
        " run",
        -8.817219983471507
      ],
      [
        " milk",
        -8.818491819571836
      ],
      [
        " *fat:\tand",
        -8.818555806404287
      ],
      [
        " da",
        -8.819195122802084
      ],
      [
        " [looks",
        -8.819720751776817
      ],
      [
        " taking",
        -8.828053315926528
      ],
      [
        " *chi:\tthen",
        -8.828649817758606
      ],
      [
        " *chi:\t'cause",
        -8.828806084238394
      ],
      [
        " outside",
        -8.82944327790884
      ],
      [
        " *chi:\thow",
        -8.830315133459587
      ],
      [
        " *chi:\there",
        -8.830527291368103
      ],
      [
        " mhm.",
        -8.83088943803987
      ],
      [
        " *chi:\tgo",
        -8.831789799963012
      ],
      [
        " *chi:\tin",
        -8.834770028526437
      ],
      [
        " page]",
        -8.837303094655194
      ],
      [
        " [mother",
        -8.839337650710306
      ],
      [
        " close",
        -8.839671423971184
      ],
      [
        " far",
        -8.844448826612343
      ],
      [
        " hat",
        -8.845247389099823
      ],
      [
        " mom",
        -8.845670321914174
      ],
      [
        " are.",
        -8.849884290056488
      ],
      [
        " fit",
        -8.850261339162705
      ],
      [
        " orange",
        -8.850629491285082
      ],
      [
        " *mot:\tin",
        -8.851759246757009
      ],
      [
        " *nan:\t",
        -8.852990920403375
      ],
      [
        " *mot:\tlet",
        -8.853147481823216
      ],
      [
        " %add:\tmot",
        -8.85594582246201
      ],
      [
        ".\"",
        -8.856204567181651
      ],
      [
        " wear",
        -8.856952128540405
      ],
      [
        " *chi:\twell",
        -8.858186182537827
      ],
      [
        "x",
        -8.85986434285116
      ],
      [
        " one's",
        -8.859908006487034
      ],
      [
        " *mot:\tyou've",
        -8.861384301037317
      ],
      [
        " *loi:\t",
        -8.862032599294439
      ],
      [
        " though",
        -8.862484923275092
      ],
      [
        " set",
        -8.86289589725739
      ],
      [
        " *chi:\tput",
        -8.865323340393298
      ],
      [
        " well,",
        -8.867051640119945
      ],
      [
        " tea",
        -8.86705324568159
      ],
      [
        " *chi:\tbecause",
        -8.867834547208137
      ],
      [
        " *inv:\tis",
        -8.868144348837555
      ],
      [
        " week",
        -8.87526935630323
      ],
      [
        " heard",
        -8.875429080160346
      ],
      [
        " else?",
        -8.880142640679853
      ],
      [
        "[picks",
        -8.884220533956935
      ],
      [
        " mommy.",
        -8.885916568047977
      ],
      [
        " *adu:\t",
        -8.886646644104536
      ],
      [
        " nothing",
        -8.891525888339983
      ],
      [
        " sound",
        -8.89231400421807
      ],
      [
        " noises].",
        -8.893451357232749
      ],
      [
        " mummy.",
        -8.89358637205074
      ],
      [
        " animals",
        -8.893906734008215
      ],
      [
        " school.",
        -8.898428212956059
      ],
      [
        " water.",
        -8.899453845309639
      ],
      [
        " finished",
        -8.906639480711334
      ],
      [
        " there,",
        -8.908102749078218
      ],
      [
        " break",
        -8.908107853018768
      ],
      [
        " daddy.",
        -8.908185127560287
      ],
      [
        " pull",
        -8.908680526224245
      ],
      [
        " light",
        -8.908962253948248
      ],
      [
        " *mot:\twould",
        -8.910823729490566
      ],
      [
        " thousand",
        -8.912668010027748
      ],
      [
        " *mot:\twhen",
        -8.914420704944177
      ],
      [
        " between",
        -8.916187216884227
      ],
      [
        " job",
        -8.917861191969735
      ],
      [
        " [singing].",
        -8.918107742718215
      ],
      [
        " *mot:\tor",
        -8.918461243353104
      ],
      [
        " fraser",
        -8.927995594469222
      ],
      [
        " person",
        -8.92990730785487
      ],
      [
        " *mot:\tshe's",
        -8.935468405178684
      ],
      [
        " crayon",
        -8.939878169158629
      ],
      [
        " hot",
        -8.94170228812562
      ],
      [
        " *mot:\tall",
        -8.942155860990649
      ],
      [
        " face",
        -8.942908690847101
      ],
      [
        " darling.",
        -8.943740675782283
      ],
      [
        " able",
        -8.943932274346208
      ],
      [
        " stick",
        -8.945298077009083
      ],
      [
        " again?",
        -8.945410979098668
      ],
      [
        " sounds",
        -8.947353117424171
      ],
      [
        " hasn't",
        -8.9507046915885
      ],
      [
        " yet.",
        -8.951601040658447
      ],
      [
        " *mot:\toh,",
        -8.955030809814941
      ],
      [
        " phone",
        -8.955179646347691
      ],
      [
        " *par2:\t",
        -8.95624104702959
      ],
      [
        "er.",
        -8.95848217429471
      ],
      [
        " *mot:\tif",
        -8.958672388833904
      ],
      [
        " starts",
        -8.958960962631117
      ],
      [
        " best",
        -8.959664906547285
      ],
      [
        " finish",
        -8.960146537322599
      ],
      [
        " started",
        -8.961768008665626
      ],
      [
        " alright",
        -8.966278082486323
      ],
      [
        " *mot:\tsay",
        -8.9666590287712
      ],
      [
        " *chi:\tokay",
        -8.96774243764425
      ],
      [
        " page",
        -8.968328131240561
      ],
      [
        " bus",
        -8.968537870318828
      ],
      [
        " wrong",
        -8.972848308057884
      ],
      [
        " %add:\tchi",
        -8.973043825563003
      ],
      [
        " push",
        -8.976000632255968
      ],
      [
        "'re",
        -8.97926514512214
      ],
      [
        " looked",
        -8.979895669362248
      ],
      [
        "you",
        -8.980993494857024
      ],
      [
        " *fat:\toh",
        -8.981507441476825
      ],
      [
        " chair.",
        -8.985469003736377
      ],
      [
        " christmas",
        -8.98663096821136
      ],
      [
        " now,",
        -8.986773732289212
      ],
      [
        " along",
        -8.987545216951764
      ],
      [
        " mind",
        -8.98821109862432
      ],
      [
        " touch",
        -8.988927110996494
      ],
      [
        " [as",
        -8.988998932291627
      ],
      [
        " *chi:\tmm.",
        -8.989300839687388
      ],
      [
        " noise",
        -8.989413166710948
      ],
      [
        " floor]",
        -8.99014920537448
      ],
      [
        " hurt",
        -8.990281184810575
      ],
      [
        " *chi:\thm.",
        -8.991616518731448
      ],
      [
        " ice",
        -8.994711519049968
      ],
      [
        "ation",
        -8.997546020632326
      ],
      [
        " high",
        -8.998994789528137
      ],
      [
        " th",
        -8.999817604726047
      ],
      [
        " eyes",
        -9.001193759685703
      ],
      [
        " ha",
        -9.003532103060694
      ],
      [
        " sing",
        -9.004112786729705
      ],
      [
        " pay",
        -9.0046569835382
      ],
      [
        " word",
        -9.006186523604736
      ],
      [
        " ate",
        -9.007606489433831
      ],
      [
        " live",
        -9.008123953752975
      ],
      [
        " means",
        -9.010319676818964
      ],
      [
        " gave",
        -9.010863480745043
      ],
      [
        " weren't",
        -9.012608493371433
      ],
      [
        " you'd",
        -9.012962823756432
      ],
      [
        " *mot:\twe'll",
        -9.015514192324444
      ],
      [
        " door.",
        -9.016912179484777
      ],
      [
        " horse",
        -9.016999614202968
      ],
      [
        " fact",
        -9.017020151119306
      ],
      [
        " dat",
        -9.017113147559119
      ],
      [
        " dad",
        -9.017436885239112
      ],
      [
        " *chi:\ti'll",
        -9.019343304223497
      ],
      [
        " please",
        -9.02087387299429
      ],
      [
        " *fat:\tthat's",
        -9.021095457973319
      ],
      [
        " working",
        -9.021122755838316
      ],
      [
        " box.",
        -9.026666770686997
      ],
      [
        " shoes",
        -9.03000389907963
      ],
      [
        " whether",
        -9.031506012691425
      ],
      [
        " today?",
        -9.03243123872427
      ],
      [
        " sometimes",
        -9.03732336304483
      ],
      [
        " guess",
        -9.038276778129232
      ],
      [
        " table]",
        -9.04026223469757
      ],
      [
        "ah.",
        -9.041515776695082
      ],
      [
        " favorite",
        -9.042091625419145
      ],
      [
        " clean",
        -9.046729126236674
      ],
      [
        " ring",
        -9.048859088737471
      ],
      [
        " *unk:\t",
        -9.050961039216784
      ],
      [
        " thing.",
        -9.051716249464743
      ],
      [
        " *mot:\tuh",
        -9.052217802463323
      ],
      [
        " pieces",
        -9.053337037956709
      ],
      [
        " floor.",
        -9.05462403280304
      ],
      [
        " *chi:\tright",
        -9.056777936760135
      ],
      [
        " fish",
        -9.058184396812207
      ],
      [
        "ne",
        -9.059399668893276
      ],
      [
        "to",
        -9.059967811153767
      ],
      [
        " lovely",
        -9.060242368970515
      ],
      [
        " cold",
        -9.060414802602615
      ],
      [
        " until",
        -9.060618858495367
      ],
      [
        " [the",
        -9.06095460219612
      ],
      [
        " up?",
        -9.065907809194893
      ],
      [
        " needta",
        -9.066823301535507
      ],
      [
        " feet",
        -9.070566769543449
      ],
      [
        " something.",
        -9.07073061369265
      ],
      [
        " *inv:\tso",
        -9.07286705074085
      ],
      [
        " across",
        -9.073502083631249
      ],
      [
        " almost",
        -9.074144245568913
      ],
      [
        " *chi:\tah.",
        -9.07450746562126
      ],
      [
        " bag",
        -9.074680967539866
      ],
      [
        " books",
        -9.075767184992724
      ],
      [
        " catch",
        -9.07756155569762
      ],
      [
        " *mot:\tlike",
        -9.07805531436112
      ],
      [
        " *chi:\tuh.",
        -9.080592675701066
      ],
      [
        " perhaps",
        -9.08180763005169
      ],
      [
        "um",
        -9.082955603232206
      ],
      [
        " *chi:\tlet's",
        -9.083227226680409
      ],
      [
        " table.",
        -9.085181650373913
      ],
      [
        " %int:\t",
        -9.085471570175924
      ],
      [
        " together",
        -9.08730958001944
      ],
      [
        " game",
        -9.089402150636582
      ],
      [
        " see?",
        -9.093262070899176
      ],
      [
        " *mot:\they",
        -9.093983243905889
      ],
      [
        " past",
        -9.096361772863684
      ],
      [
        " needs",
        -9.097437493549787
      ],
      [
        " bought",
        -9.099189267120655
      ],
      [
        " *fat:\tokay.",
        -9.103512566630473
      ],
      [
        " *mot:\ton",
        -9.103670753024529
      ],
      [
        " *mot:\t[mot",
        -9.105068106925762
      ],
      [
        " *mot:\t[gasps]",
        -9.10770094478146
      ],
      [
        " bet",
        -9.109654559734333
      ],
      [
        "⌉.",
        -9.111535638208506
      ],
      [
        " alright.",
        -9.11186349409991
      ],
      [
        " wash",
        -9.112410203456552
      ],
      [
        " wonder",
        -9.113688415064937
      ],
      [
        " *chi:\tall",
        -9.114000008809372
      ],
      [
        " thomas",
        -9.114004191059482
      ],
      [
        " fix",
        -9.114916495607046
      ],
      [
        " down]",
        -9.116720733065517
      ],
      [
        " once",
        -9.117691826515456
      ],
      [
        " change",
        -9.11966150791757
      ],
      [
        " here's",
        -9.12016140579872
      ],
      [
        " kids",
        -9.120167023006715
      ],
      [
        " hope",
        -9.120714937647055
      ],
      [
        " mine",
        -9.121506979095098
      ],
      [
        "ry",
        -9.121720752580476
      ],
      [
        "ur",
        -9.122455865537496
      ],
      [
        "that's",
        -9.124519408521229
      ],
      [
        " towards",
        -9.126937090278442
      ],
      [
        " %int:\trising",
        -9.127301351241638
      ],
      [
        " holding",
        -9.130604568840903
      ],
      [
        " forty",
        -9.130740260921936
      ],
      [
        " [1",
        -9.131664070513533
      ],
      [
        " [noise].",
        -9.131955596282623
      ],
      [
        " *chi:\tlike",
        -9.132436483466108
      ],
      [
        " xxx?",
        -9.13463695707766
      ],
      [
        " man.",
        -9.136180680953363
      ],
      [
        " *mot:\tmaybe",
        -9.136670773493512
      ],
      [
        " nin",
        -9.137166817648556
      ],
      [
        " *mot:\twanna",
        -9.137175837651071
      ],
      [
        " hi",
        -9.139557463719493
      ],
      [
        " *inv:\tokay",
        -9.140157580034481
      ],
      [
        " moves",
        -9.141923677511251
      ],
      [
        " asked",
        -9.142385229567253
      ],
      [
        " day.",
        -9.144645137358607
      ],
      [
        "ent",
        -9.145461886364012
      ],
      [
        " *inv:\tit's",
        -9.14671677220434
      ],
      [
        " *chi:\tcome",
        -9.149428062310188
      ],
      [
        " pounds",
        -9.149800282922685
      ],
      [
        " everybody",
        -9.150210035943159
      ],
      [
        " gone.",
        -9.15097903715383
      ],
      [
        " *chi:\tum.",
        -9.151973761301297
      ],
      [
        " one,",
        -9.152972726977895
      ],
      [
        " oh.",
        -9.155675169981633
      ],
      [
        " *chi:\tuhhuh.",
        -9.157671439617765
      ],
      [
        "xxx",
        -9.158320233030683
      ],
      [
        " full",
        -9.160056222997541
      ],
      [
        " [c",
        -9.163272386470222
      ],
      [
        " bird",
        -9.164171161959773
      ],
      [
        " couple",
        -9.16549428234467
      ],
      [
        " her.",
        -9.166130303128769
      ],
      [
        " [s",
        -9.167916585591104
      ],
      [
        " *chi:\ton",
        -9.168139434120937
      ],
      [
        " party",
        -9.16847273939241
      ],
      [
        " shape",
        -9.16877393747604
      ],
      [
        " cow",
        -9.169314058459708
      ],
      [
        " *fad:\t",
        -9.16950534226841
      ],
      [
        " though.",
        -9.170793079925902
      ],
      [
        " book?",
        -9.172592195493628
      ],
      [
        " *chi:\twhen",
        -9.173755771155253
      ],
      [
        " *mot:\tmm.",
        -9.17449634393108
      ],
      [
        " ball.",
        -9.174770915798398
      ],
      [
        " *inv:\toh.",
        -9.176479203845274
      ],
      [
        " lost",
        -9.177647755691003
      ],
      [
        " here,",
        -9.17781369664205
      ],
      [
        " doll",
        -9.178761268397853
      ],
      [
        " “",
        -9.179104142720107
      ],
      [
        " [brother]",
        -9.182786700217326
      ],
      [
        " [filler]",
        -9.183003698335433
      ],
      [
        " it!",
        -9.184927799031323
      ],
      [
        " believe",
        -9.18522575625487
      ],
      [
        " *chi:\tjust",
        -9.186041122989673
      ],
      [
        " *mot:\tyour",
        -9.188958228188639
      ],
      [
        " them?",
        -9.189392804374812
      ],
      [
        " oh!",
        -9.189730120799089
      ],
      [
        " ⌈",
        -9.190555294834978
      ],
      [
        " rest",
        -9.192568906715954
      ],
      [
        " teddy",
        -9.194385847347636
      ],
      [
        " hit",
        -9.19570798645194
      ],
      [
        " head.",
        -9.19722286021565
      ],
      [
        " such",
        -9.198693965987902
      ],
      [
        " jwww",
        -9.199992779924766
      ],
      [
        " line",
        -9.200379955452185
      ],
      [
        " reaches",
        -9.202120639910593
      ],
      [
        " rather",
        -9.204275432983387
      ],
      [
        "lo",
        -9.20529816835331
      ],
      [
        " stuck",
        -9.20530573360021
      ],
      [
        " two.",
        -9.205319496969526
      ],
      [
        " letter",
        -9.20699333288248
      ],
      [
        " out?",
        -9.208176589776894
      ],
      [
        " *mot:\tmm",
        -9.20965386309092
      ],
      [
        " clothes",
        -9.21163781953127
      ],
      [
        " ball]",
        -9.211959183737664
      ],
      [
        " picture]",
        -9.214618285657906
      ],
      [
        " juice.",
        -9.214931164632262
      ],
      [
        " fun",
        -9.215439540436186
      ],
      [
        " *mot:\twhich",
        -9.215805648469791
      ],
      [
        " things.",
        -9.215964260247985
      ],
      [
        " *fat:\tno",
        -9.21823144083679
      ],
      [
        " running",
        -9.218453068813675
      ],
      [
        " peter",
        -9.21876196002902
      ],
      [
        " miss",
        -9.219824037995812
      ],
      [
        " la",
        -9.221222843737577
      ],
      [
        " *fri:\t",
        -9.222838813770245
      ],
      [
        " room.",
        -9.222848255315405
      ],
      [
        " *chi:\t[babbles]",
        -9.224915558207314
      ],
      [
        " *inv:\tcan",
        -9.225405608931839
      ],
      [
        " foot",
        -9.22586267495294
      ],
      [
        "ive",
        -9.228383225480124
      ],
      [
        " chocolate",
        -9.228559624130643
      ],
      [
        " likes",
        -9.229041653912178
      ],
      [
        " mum",
        -9.23731176215489
      ],
      [
        " *chi:\tmummy.",
        -9.237495190982603
      ],
      [
        " dog.",
        -9.23777264553465
      ],
      [
        " lady",
        -9.238610144841143
      ],
      [
        "ch",
        -9.238861311303957
      ],
      [
        " build",
        -9.239269747453205
      ],
      [
        " *chi:\tmummy",
        -9.24106757382854
      ],
      [
        " drive",
        -9.242664745222342
      ],
      [
        " *mot:\talright",
        -9.24294413541847
      ],
      [
        " without",
        -9.243363547016658
      ],
      [
        " truck",
        -9.243694341862284
      ],
      [
        " juice",
        -9.244119630451465
      ],
      [
        " walking",
        -9.244126122860678
      ],
      [
        " special",
        -9.246639734235837
      ],
      [
        " *chi:\tmummy,",
        -9.246911827319973
      ],
      [
        " *chi:\twho",
        -9.24705311988753
      ],
      [
        " *inv:\twhat's",
        -9.24722925405305
      ],
      [
        " un",
        -9.247389570747163
      ],
      [
        " usually",
        -9.249064696155004
      ],
      [
        " walks",
        -9.250638064256254
      ],
      [
        " food.",
        -9.251101014533605
      ],
      [
        " pink",
        -9.252455733375758
      ],
      [
        " *inv:\twell",
        -9.252879677082724
      ],
      [
        "we",
        -9.25420595516527
      ],
      [
        " work.",
        -9.255265257119277
      ],
      [
        " pretend",
        -9.255913776748978
      ],
      [
        " men",
        -9.256308435363698
      ],
      [
        " bear.",
        -9.257172372092855
      ],
      [
        " *chi:\ttwo",
        -9.258605803528292
      ],
      [
        " *chi:\thm",
        -9.260067090220385
      ],
      [
        " adult",
        -9.261336321583878
      ],
      [
        " goin'",
        -9.261891361760327
      ],
      [
        " *chi:\tthey're",
        -9.263998744047974
      ],
      [
        "[puts",
        -9.264342253322951
      ],
      [
        " house?",
        -9.264800415512756
      ],
      [
        " him?",
        -9.265335556137446
      ],
      [
        " name?",
        -9.265366446450184
      ],
      [
        " mine.",
        -9.26573001546381
      ],
      [
        " darling?",
        -9.266902281645217
      ],
      [
        " choo",
        -9.26729219355699
      ],
      [
        " friend",
        -9.267360078949729
      ],
      [
        " ninety",
        -9.267882317548207
      ],
      [
        " duck",
        -9.267962234334947
      ],
      [
        " sorry",
        -9.268781700427484
      ],
      [
        " it'll",
        -9.272697305535502
      ],
      [
        " [aft",
        -9.273848398564153
      ],
      [
        " ain't",
        -9.275995146235735
      ],
      [
        " anybody",
        -9.276729780529193
      ],
      [
        " listen",
        -9.277508693869821
      ],
      [
        " silver",
        -9.280495823011924
      ],
      [
        " oh,",
        -9.281606956233716
      ],
      [
        " first.",
        -9.283070016027766
      ],
      [
        " [?",
        -9.283686837118292
      ],
      [
        " later",
        -9.284074830836936
      ],
      [
        " hm.",
        -9.284912697495207
      ],
      [
        " did.",
        -9.286011429278574
      ],
      [
        " a...",
        -9.286692849105192
      ],
      [
        " mrs",
        -9.287310269766197
      ],
      [
        " someone",
        -9.289076901328027
      ],
      [
        " idea",
        -9.289092002038949
      ],
      [
        " huh.",
        -9.289503344467196
      ],
      [
        " brought",
        -9.290304351284455
      ],
      [
        "us",
        -9.290366143369301
      ],
      [
        " kitchen",
        -9.290541204941881
      ],
      [
        " hair.",
        -9.291774852083927
      ],
      [
        " lid",
        -9.293906379547188
      ],
      [
        " road",
        -9.294177802022315
      ],
      [
        " gone?",
        -9.294944144867637
      ],
      [
        " minutes",
        -9.295372519812434
      ],
      [
        " tree",
        -9.295462593980144
      ],
      [
        " *mot:\there's",
        -9.296143667879583
      ],
      [
        " nineteen",
        -9.2964683389236
      ],
      [
        " night.",
        -9.297423964842721
      ],
      [
        " *chi:\tdaddy",
        -9.298039381144843
      ],
      [
        " whatever",
        -9.300133451751988
      ],
      [
        " near",
        -9.301907155752536
      ],
      [
        " *mot:\there.",
        -9.302533898233845
      ],
      [
        " brown",
        -9.303022275063203
      ],
      [
        " father",
        -9.303402792212719
      ],
      [
        "one",
        -9.304015705220934
      ],
      [
        " sun",
        -9.30734019044231
      ],
      [
        " happens",
        -9.30847941737968
      ],
      [
        " *mot:\talright.",
        -9.309148170045983
      ],
      [
        " minute",
        -9.31260349097196
      ],
      [
        " [1w",
        -9.31308157332246
      ],
      [
        " *mot:\twe're",
        -9.313822674268806
      ],
      [
        " ride",
        -9.314538476041182
      ],
      [
        " baby?",
        -9.315687186593843
      ],
      [
        " said,",
        -9.316409156622218
      ],
      [
        "me",
        -9.318357969334262
      ],
      [
        "i'm",
        -9.319851579061075
      ],
      [
        "can",
        -9.32004694875068
      ],
      [
        "est",
        -9.322122235639089
      ],
      [
        " tired",
        -9.323053461696684
      ],
      [
        " dear",
        -9.32341952373173
      ],
      [
        " shop",
        -9.323885779768293
      ],
      [
        " ma",
        -9.325306481352792
      ],
      [
        " watching",
        -9.32555905938016
      ],
      [
        " chicken",
        -9.326235170175591
      ],
      [
        " [takes",
        -9.327495976480932
      ],
      [
        " hand.",
        -9.328125161837749
      ],
      [
        "all",
        -9.332610484470917
      ],
      [
        " together.",
        -9.333569317060721
      ],
      [
        " times",
        -9.334145707676246
      ],
      [
        "he",
        -9.335002165944555
      ],
      [
        " *car:\t",
        -9.335252516522218
      ],
      [
        " onto",
        -9.336998223560741
      ],
      [
        " *chi:\tyep.",
        -9.33824885838777
      ],
      [
        " three.",
        -9.343875897709985
      ],
      [
        "up",
        -9.344206016154375
      ],
      [
        " understand",
        -9.345027524885156
      ],
      [
        " suppose",
        -9.34616490206324
      ],
      [
        " cream",
        -9.346311034440129
      ],
      [
        " *chi:\tget",
        -9.347340996368622
      ],
      [
        " bottom",
        -9.348514845418201
      ],
      [
        " jump",
        -9.348773203324832
      ],
      [
        " reading",
        -9.350417335874347
      ],
      [
        " dinner",
        -9.350594849709838
      ],
      [
        " room]",
        -9.350733548748915
      ],
      [
        " *mot:\tthen",
        -9.35105572397219
      ],
      [
        " anyway",
        -9.351831433087813
      ],
      [
        "it's",
        -9.352205061817358
      ],
      [
        " cheese",
        -9.355549206340406
      ],
      [
        " *mch:\ti",
        -9.35723710306359
      ],
      [
        " *val:\t",
        -9.358343650570328
      ],
      [
        " milk.",
        -9.358605789730719
      ],
      [
        " toward",
        -9.359534959708373
      ],
      [
        " standing",
        -9.360772778999214
      ],
      [
        " roll",
        -9.360833578701422
      ],
      [
        "the",
        -9.363331398267874
      ],
      [
        " pop",
        -9.363922671568808
      ],
      [
        " words",
        -9.364786118438866
      ],
      [
        " thinking",
        -9.364859586840197
      ],
      [
        " morning.",
        -9.366108399736616
      ],
      [
        " *fat:\tokay",
        -9.366378089009144
      ],
      [
        " police",
        -9.366891610066574
      ],
      [
        " daddy's",
        -9.367530703138586
      ],
      [
        " *inv:\t[laughs]",
        -9.36818024823873
      ],
      [
        " matter",
        -9.368195531156877
      ],
      [
        " twelve",
        -9.370816850082926
      ],
      [
        " bob",
        -9.371627879191042
      ],
      [
        " mouth",
        -9.371637144183206
      ],
      [
        " *chi:\tmm",
        -9.373743682478807
      ],
      [
        " *fat:\tyeah.",
        -9.37440535561032
      ],
      [
        " *inv:\tmm",
        -9.375072505466822
      ],
      [
        "z",
        -9.377016940024
      ],
      [
        " *mot:\ts",
        -9.37843004656662
      ],
      [
        " boys",
        -9.378479903267735
      ],
      [
        " case",
        -9.37947812040868
      ],
      [
        " pound",
        -9.380842354464384
      ],
      [
        "ling",
        -9.383638010088754
      ],
      [
        " duh",
        -9.38436847694777
      ],
      [
        " *tur:\t",
        -9.385180606211257
      ],
      [
        " care",
        -9.385929346847742
      ],
      [
        " *mot:\tget",
        -9.386456202902119
      ],
      [
        " straight",
        -9.386546817350279
      ],
      [
        " *mot:\tuhhuh.",
        -9.387246013462292
      ],
      [
        " puppet",
        -9.387385454785932
      ],
      [
        " god",
        -9.387450046444364
      ],
      [
        " against",
        -9.390497805918748
      ],
      [
        " question",
        -9.392455146729823
      ],
      [
        " truck.",
        -9.392787856792104
      ],
      [
        " *mot:\thm.",
        -9.393514458483644
      ],
      [
        " either",
        -9.393539575709891
      ],
      [
        " *mot:\tvery",
        -9.395119617747742
      ],
      [
        " kitty",
        -9.39531363134107
      ],
      [
        " apple",
        -9.395808565896925
      ],
      [
        " guys",
        -9.398920637202437
      ],
      [
        " living",
        -9.40274215960219
      ],
      [
        "oh",
        -9.403076576098439
      ],
      [
        " helen",
        -9.403471608454435
      ],
      [
        " *chi:\tmom",
        -9.40531308467967
      ],
      [
        " turned",
        -9.405728020844546
      ],
      [
        " *fat:\tdo",
        -9.405843186067605
      ],
      [
        " cat.",
        -9.407046428014471
      ],
      [
        " john",
        -9.410943524302112
      ],
      [
        " know?",
        -9.411902150318351
      ],
      [
        " *mot:\tto",
        -9.412684663900244
      ],
      [
        " group",
        -9.413000473245773
      ],
      [
        " up]",
        -9.413350080825253
      ],
      [
        " *chi:\tnin",
        -9.413892318984946
      ],
      [
        " knew",
        -9.414506875778244
      ],
      [
        " better.",
        -9.416224233693843
      ],
      [
        " tries",
        -9.417363523692917
      ],
      [
        " mummy's",
        -9.417696203116154
      ],
      [
        " bit.",
        -9.418020787314136
      ],
      [
        " telling",
        -9.418394210202703
      ],
      [
        " hand]",
        -9.419153257270409
      ],
      [
        " happened?",
        -9.420142798083663
      ],
      [
        " council",
        -9.420447915723575
      ],
      [
        " butter",
        -9.423071798162008
      ],
      [
        " yet",
        -9.424171524401842
      ],
      [
        " check",
        -9.424226314022409
      ],
      [
        "well",
        -9.424629992130068
      ],
      [
        " mean,",
        -9.425892541467123
      ],
      [
        " *a3:\t",
        -9.425902017407477
      ],
      [
        "*chi:\t[vocalize]",
        -9.427817306042172
      ],
      [
        " sits",
        -9.42851547366968
      ],
      [
        " building",
        -9.430573309110722
      ],
      [
        "”.",
        -9.4309878148099
      ],
      [
        " cake",
        -9.433258400179671
      ],
      [
        " days",
        -9.433782399640993
      ],
      [
        " *inv:\tyeah.",
        -9.43589287990388
      ],
      [
        " bath",
        -9.435987787881945
      ],
      [
        " *sib:\t",
        -9.436181999900324
      ],
      [
        " too?",
        -9.436206730412355
      ],
      [
        " street",
        -9.436817468339292
      ],
      [
        " *inv:\tyeah",
        -9.438129098272537
      ],
      [
        " count",
        -9.43843509396325
      ],
      [
        " friends",
        -9.43984702005752
      ],
      [
        " guy",
        -9.44018884879478
      ],
      [
        " *chi:\tto",
        -9.440498233053377
      ],
      [
        "so",
        -9.440736893952126
      ],
      [
        " brother",
        -9.441415388177015
      ],
      [
        " till",
        -9.44180602792854
      ],
      [
        " seems",
        -9.442265093194532
      ],
      [
        " called?",
        -9.443076981646747
      ],
      [
        " *urs:\t",
        -9.444475237185486
      ],
      [
        "how",
        -9.444652934477825
      ],
      [
        " off?",
        -9.44521576400087
      ],
      [
        " taken",
        -9.446277716448648
      ],
      [
        " story.",
        -9.44710246759829
      ],
      [
        " hat.",
        -9.447119076587427
      ],
      [
        " *exp:\ti",
        -9.448014016616769
      ],
      [
        "man",
        -9.450311330573317
      ],
      [
        " cover",
        -9.450709159287634
      ],
      [
        " [sings].",
        -9.451605329638532
      ],
      [
        " local",
        -9.452366341177331
      ],
      [
        " outside.",
        -9.453632542970524
      ],
      [
        " continues",
        -9.45379893027021
      ],
      [
        "what",
        -9.454057161773264
      ],
      [
        " *mot:\tah.",
        -9.454696568544277
      ],
      [
        " train.",
        -9.454729990901875
      ],
      [
        " grandma",
        -9.454828629818401
      ],
      [
        " *mot:\ttwo",
        -9.45687270484442
      ],
      [
        " problem",
        -9.45746405508093
      ],
      [
        " *inv:\tare",
        -9.46101380272263
      ],
      [
        " much.",
        -9.461495835131316
      ],
      [
        " *chi:\t[cries]",
        -9.463858546788973
      ],
      [
        " middle",
        -9.46622521728527
      ],
      [
        " post",
        -9.466402326067055
      ],
      [
        " certainly",
        -9.467823406960013
      ],
      [
        " important",
        -9.468127076817854
      ],
      [
        " lunch",
        -9.468544088035998
      ],
      [
        " sixty",
        -9.468738807301872
      ],
      [
        " toys.",
        -9.469670175048567
      ],
      [
        " since",
        -9.470349195863871
      ],
      [
        " eighty",
        -9.471244565124723
      ],
      [
        " places",
        -9.47137697422393
      ],
      [
        " bigger",
        -9.472098583316992
      ],
      [
        " short",
        -9.472875801708291
      ],
      [
        "ted",
        -9.47392738344248
      ],
      [
        "per",
        -9.474199392748869
      ],
      [
        " played",
        -9.477814646744289
      ],
      [
        " ones.",
        -9.477821137121854
      ],
      [
        "be",
        -9.479080507417645
      ],
      [
        " plate",
        -9.479878081648437
      ],
      [
        " bunny",
        -9.480350864182128
      ],
      [
        " moving",
        -9.481179032741029
      ],
      [
        " teacher",
        -9.482592795373707
      ],
      [
        " paper]",
        -9.483690988643344
      ],
      [
        " mark",
        -9.484214606842214
      ],
      [
        " gives",
        -9.484796637332408
      ],
      [
        " *mot:\t[silence]",
        -9.485152070544684
      ],
      [
        "”",
        -9.486656140279468
      ],
      [
        "[laughs].",
        -9.489521637271856
      ],
      [
        " yourself",
        -9.490656538821653
      ],
      [
        "ed.",
        -9.490813294459336
      ],
      [
        " sposta",
        -9.491146839951101
      ],
      [
        " *sis:\ti",
        -9.491160471512377
      ],
      [
        " *chi:\tn",
        -9.491307489911563
      ],
      [
        " *soa:\t",
        -9.491926328629518
      ],
      [
        "[vocalizes]",
        -9.492389363330954
      ],
      [
        " world",
        -9.493080506166427
      ],
      [
        " bread",
        -9.493241495708197
      ],
      [
        " voice",
        -9.494337707504283
      ],
      [
        " using",
        -9.49509356850216
      ],
      [
        " [sung]",
        -9.499067424303215
      ],
      [
        " noises]",
        -9.50063195103776
      ],
      [
        " *jen:\t",
        -9.501866224222354
      ],
      [
        " *mot:\tmhm",
        -9.502590267432439
      ],
      [
        " *mot:\twe've",
        -9.502795020294595
      ],
      [
        "uh",
        -9.503005665792847
      ],
      [
        " *mot:\tbe",
        -9.503142924799068
      ],
      [
        " visit",
        -9.504407335846013
      ],
      [
        " family",
        -9.504780654979939
      ],
      [
        " frog",
        -9.505524335356206
      ],
      [
        " *mot:\tpardon",
        -9.50673113040439
      ],
      [
        " pulls",
        -9.508376746061405
      ],
      [
        " arm",
        -9.50872926281902
      ],
      [
        " silly",
        -9.508933220629489
      ],
      [
        " card",
        -9.509379665012467
      ],
      [
        " carry",
        -9.511274810441854
      ],
      [
        " hang",
        -9.513937262946143
      ],
      [
        " obviously",
        -9.515538023097287
      ],
      [
        " farm",
        -9.515674664615172
      ],
      [
        " they'll",
        -9.517002494238543
      ],
      [
        " again]",
        -9.51732674219598
      ],
      [
        " government",
        -9.517413061743355
      ],
      [
        " *chi:\tme",
        -9.517663231520999
      ],
      [
        " window",
        -9.518791330542498
      ],
      [
        " chi's",
        -9.519193141406296
      ],
      [
        " nose",
        -9.519700286904335
      ],
      [
        " [to",
        -9.523225494584256
      ],
      [
        " begins",
        -9.52328101711969
      ],
      [
        " di",
        -9.523613189838459
      ],
      [
        " soon",
        -9.523762812555972
      ],
      [
        " *fat:\tyeah",
        -9.526610077297049
      ],
      [
        "ate",
        -9.528364661779268
      ],
      [
        "my",
        -9.533584841925315
      ],
      [
        " clear",
        -9.533976698541053
      ],
      [
        " beautiful",
        -9.534517601738585
      ],
      [
        " pictures",
        -9.536914708087231
      ],
      [
        " around.",
        -9.536978228490035
      ],
      [
        " cook",
        -9.53749507146999
      ],
      [
        " somewhere",
        -9.53807385703759
      ],
      [
        " page.",
        -9.538528416036621
      ],
      [
        " *chi:\tlet",
        -9.540713364346328
      ],
      [
        "el",
        -9.541433106527126
      ],
      [
        " forward",
        -9.54302882346616
      ],
      [
        " he'll",
        -9.543176978723604
      ],
      [
        "ce",
        -9.543946708391239
      ],
      [
        " feed",
        -9.544206203958002
      ],
      [
        " cars",
        -9.545743730574522
      ],
      [
        " *exp:\toh",
        -9.54663625290104
      ],
      [
        "ie.",
        -9.54740585600744
      ],
      [
        " [peter",
        -9.549234859878158
      ],
      [
        " forget",
        -9.549545790508445
      ],
      [
        " four.",
        -9.550159678045201
      ],
      [
        " *bro:\ti",
        -9.552429928481743
      ],
      [
        " tv",
        -9.552535580140017
      ],
      [
        " life",
        -9.552553180901107
      ],
      [
        " forgot",
        -9.553541038865172
      ],
      [
        " doctor",
        -9.55391174592588
      ],
      [
        " bite",
        -9.554121030862007
      ],
      [
        " brush",
        -9.554824749865084
      ],
      [
        " more?",
        -9.555273456578277
      ],
      [
        " air",
        -9.556971664732968
      ],
      [
        " giving",
        -9.557005614951684
      ],
      [
        " 'bout",
        -9.557644243990639
      ],
      [
        " egg",
        -9.557767064182116
      ],
      [
        " *mot:\twas",
        -9.558955907058891
      ],
      [
        " stuff.",
        -9.559620116363803
      ],
      [
        " *inv:\tthe",
        -9.560391655312685
      ],
      [
        "able",
        -9.560786200874478
      ],
      [
        " down?",
        -9.560937028264657
      ],
      [
        " broke",
        -9.561590278163155
      ],
      [
        " [chi]",
        -9.561846552918984
      ],
      [
        " [d",
        -9.562180278494488
      ],
      [
        " careful",
        -9.563521402131228
      ],
      [
        " side.",
        -9.56352861145075
      ],
      [
        " car?",
        -9.563869567510494
      ],
      [
        " bottle",
        -9.564280373957832
      ],
      [
        " helen.",
        -9.564774367954291
      ],
      [
        " *oth:\t",
        -9.564975647044195
      ],
      [
        " taste",
        -9.565272688262084
      ],
      [
        " given",
        -9.565723167541186
      ],
      [
        "5",
        -9.566376605254241
      ],
      [
        "ment",
        -9.566479014619093
      ],
      [
        " *chi:\there.",
        -9.566529209262619
      ],
      [
        " *chi:\there's",
        -9.56700776095909
      ],
      [
        "de",
        -9.567084223814202
      ],
      [
        " monkey",
        -9.567363851375724
      ],
      [
        " over.",
        -9.568160405215803
      ],
      [
        " wish",
        -9.569838137736793
      ],
      [
        " please?",
        -9.570256890369363
      ],
      [
        " *chi:\tno,",
        -9.570710504138408
      ],
      [
        " fast",
        -9.571028557467217
      ],
      [
        " job.",
        -9.571977223394338
      ],
      [
        " tomorrow",
        -9.572533403026313
      ],
      [
        " finger",
        -9.57277093454972
      ],
      [
        " *exp:\tyou",
        -9.573934192747956
      ],
      [
        " sorry.",
        -9.575380698126084
      ],
      [
        " answer",
        -9.5776341957785
      ],
      [
        " going?",
        -9.57921491191302
      ],
      [
        " *chi:\tthank",
        -9.579832040067465
      ],
      [
        " *par:\tyou",
        -9.580902676171153
      ],
      [
        " five.",
        -9.581662984541381
      ],
      [
        " no!",
        -9.581842905433673
      ],
      [
        "mm",
        -9.583623541143414
      ],
      [
        " *cat:\t",
        -9.58437377539854
      ],
      [
        " rabbit",
        -9.586352599719428
      ],
      [
        " noise]",
        -9.587701871824404
      ],
      [
        " tree.",
        -9.590509760205066
      ],
      [
        " animal",
        -9.591923189697496
      ],
      [
        " hole",
        -9.592400304191477
      ],
      [
        "un",
        -9.593421506696124
      ],
      [
        " ran",
        -9.59408642267136
      ],
      [
        " noises",
        -9.594353186475782
      ],
      [
        " tried",
        -9.59452680416813
      ],
      [
        " em",
        -9.596354418560779
      ],
      [
        " bye",
        -9.596528073665588
      ],
      [
        "put",
        -9.596858482300295
      ],
      [
        "now",
        -9.59689693481112
      ],
      [
        " *ste:\t",
        -9.59749038767288
      ],
      [
        " legs",
        -9.59818157786168
      ],
      [
        " hungry.",
        -9.598269339695417
      ],
      [
        " engine",
        -9.59865192229984
      ],
      [
        " *rya:\t",
        -9.598982414191918
      ],
      [
        " aft",
        -9.599343158963524
      ],
      [
        " least",
        -9.600210981976062
      ],
      [
        " mouse",
        -9.601748518524916
      ],
      [
        " um...",
        -9.601911325134843
      ],
      [
        " report",
        -9.60244054321199
      ],
      [
        " *chi:\tare",
        -9.60267494931501
      ],
      [
        " during",
        -9.603047156117634
      ],
      [
        " [nina",
        -9.603146968773695
      ],
      [
        " cookie",
        -9.603607939372797
      ],
      [
        " jigsaw",
        -9.603986776200081
      ],
      [
        " sister",
        -9.604663723136287
      ],
      [
        " present",
        -9.605479006166826
      ],
      [
        " driving",
        -9.60609134288164
      ],
      [
        " plays",
        -9.607117704384407
      ],
      [
        "are",
        -9.60965137220731
      ],
      [
        " nearly",
        -9.609764950619159
      ],
      [
        "ies",
        -9.610392581588885
      ],
      [
        " *inv:\the",
        -9.610752165617146
      ],
      [
        "look",
        -9.6121585262619
      ],
      [
        " garden",
        -9.614921337172044
      ],
      [
        " *fat:\tit's",
        -9.615283950818675
      ],
      [
        " ooh",
        -9.61538590567315
      ],
      [
        " drawing",
        -9.61650993967516
      ],
      [
        "go",
        -9.61691077200473
      ],
      [
        " paint",
        -9.618189132355933
      ],
      [
        " say,",
        -9.619421413920811
      ],
      [
        " *mot:\twant",
        -9.620201894680786
      ],
      [
        " [friend].",
        -9.620490552134921
      ],
      [
        " *mot:\ti've",
        -9.622480236606702
      ],
      [
        " j",
        -9.623845000264422
      ],
      [
        " song",
        -9.624332568770836
      ],
      [
        " *fat:\tis",
        -9.62468080652113
      ],
      [
        " object",
        -9.625083519070147
      ],
      [
        "'ve",
        -9.625607308688291
      ],
      [
        " [t",
        -9.626053726504644
      ],
      [
        " snow",
        -9.626542053620836
      ],
      [
        " nose.",
        -9.627928540090606
      ],
      [
        " wind",
        -9.628632374769065
      ],
      [
        " *mot:\tthere.",
        -9.628663812888181
      ],
      [
        " clever",
        -9.628838710883471
      ],
      [
        " cake.",
        -9.630822365382354
      ],
      [
        " shouldn't",
        -9.631269556195079
      ],
      [
        " hungry",
        -9.632024860107254
      ],
      [
        " *mot:\tshould",
        -9.633428550634061
      ],
      [
        " *fat:\twell",
        -9.634099922757212
      ],
      [
        " exactly",
        -9.634743760394283
      ],
      [
        " difficult",
        -9.634808891028312
      ],
      [
        "6",
        -9.635051002189515
      ],
      [
        " us.",
        -9.635438407864367
      ],
      [
        " [makes",
        -9.635742406418197
      ],
      [
        " *chi:\tbig",
        -9.636354813285386
      ],
      [
        " okay,",
        -9.637387892757701
      ],
      [
        " instead",
        -9.637843507604078
      ],
      [
        "2",
        -9.638023101026526
      ],
      [
        " *inv:\tdid",
        -9.638339432703338
      ],
      [
        " blocks",
        -9.639918036048407
      ],
      [
        " interested",
        -9.641930487970564
      ],
      [
        " park",
        -9.642456497375797
      ],
      [
        " land",
        -9.643239968459667
      ],
      [
        " *jes:\t",
        -9.643398839038726
      ],
      [
        " kinda",
        -9.644196800865842
      ],
      [
        "[vocalizes].",
        -9.645690998446906
      ],
      [
        " [hold",
        -9.64597454238545
      ],
      [
        " eyes.",
        -9.646499787660074
      ],
      [
        " *fat:\thow",
        -9.646654032898397
      ],
      [
        "\"]",
        -9.646952403025514
      ],
      [
        " ⌊",
        -9.64700944728712
      ],
      [
        " cup.",
        -9.647493592733591
      ],
      [
        " wan'",
        -9.648921537689654
      ],
      [
        " *mot:\twith",
        -9.650445074712971
      ],
      [
        " yesterday",
        -9.650635187283333
      ],
      [
        " wearing",
        -9.650814006553068
      ],
      [
        " button",
        -9.651096756869793
      ],
      [
        "if",
        -9.651272507580744
      ],
      [
        " letters",
        -9.652106891200841
      ],
      [
        " camera",
        -9.654798686710187
      ],
      [
        " drop",
        -9.6558372005383
      ],
      [
        " *mot:\tsit",
        -9.656673183354958
      ],
      [
        " smell",
        -9.657831396631398
      ],
      [
        " *chi:\tyup",
        -9.658154529104412
      ],
      [
        " space",
        -9.658386543619628
      ],
      [
        " girls",
        -9.658576230828944
      ],
      [
        " paul",
        -9.66006198681557
      ],
      [
        " mum.",
        -9.660322749710648
      ],
      [
        " *mot:\thello",
        -9.660495333148376
      ],
      [
        " coffee",
        -9.66098471506543
      ],
      [
        " puzzle",
        -9.661279545427423
      ],
      [
        " view",
        -9.661422184660063
      ],
      [
        " mo",
        -9.661564533483965
      ],
      [
        " *inv:\tno",
        -9.662157968279534
      ],
      [
        " music",
        -9.662432723621276
      ],
      [
        " trouble",
        -9.662605133577205
      ],
      [
        " idea.",
        -9.665451813516132
      ],
      [
        " honey",
        -9.665762102597245
      ],
      [
        " ho",
        -9.66582862849999
      ],
      [
        " opens",
        -9.666801700333744
      ],
      [
        " late",
        -9.66757113483876
      ],
      [
        " sleep.",
        -9.667751729138779
      ],
      [
        " *mot:\tthose",
        -9.668091703451912
      ],
      [
        " class",
        -9.668301775809052
      ],
      [
        " block",
        -9.669389815568612
      ],
      [
        " press",
        -9.669687013738708
      ],
      [
        " home?",
        -9.670283024983753
      ],
      [
        " else.",
        -9.67030414310464
      ],
      [
        " wake",
        -9.67090620840682
      ],
      [
        " dropped",
        -9.671310449322117
      ],
      [
        " *fat:\tthere",
        -9.671739081290832
      ],
      [
        " %add:\t",
        -9.6725395946179
      ],
      [
        " *mot:\tmy",
        -9.67401251276401
      ],
      [
        " useta",
        -9.674332661943723
      ],
      [
        " bag.",
        -9.674630380205365
      ],
      [
        " xxx...",
        -9.674634799712734
      ],
      [
        " these?",
        -9.675233296153946
      ],
      [
        " pat",
        -9.675490022644237
      ],
      [
        " *chi:\tdid",
        -9.67643123222722
      ],
      [
        "7",
        -9.676971117964088
      ],
      [
        " warm",
        -9.67726943611298
      ],
      [
        "did",
        -9.677513402821582
      ],
      [
        " *mot:\tyeah,",
        -9.677545388601041
      ],
      [
        " tiny",
        -9.67789184007827
      ],
      [
        " *inv:\twhere",
        -9.67803058067055
      ],
      [
        " *inv:\tthat",
        -9.678086138473471
      ],
      [
        " mom.",
        -9.679519205252433
      ],
      [
        " figure",
        -9.680372795120814
      ],
      [
        " school?",
        -9.680698416892184
      ],
      [
        " busy",
        -9.680730881832623
      ],
      [
        "[involuntary]",
        -9.681805529277113
      ],
      [
        " o'clock",
        -9.682273651978273
      ],
      [
        " fifteen",
        -9.68467080776041
      ],
      [
        " weeks",
        -9.68528805722882
      ],
      [
        " pen",
        -9.687054558276674
      ],
      [
        " mess",
        -9.687117363941672
      ],
      [
        " county",
        -9.687671519546914
      ],
      [
        " baby's",
        -9.687945853045688
      ],
      [
        " towel",
        -9.688533787388742
      ],
      [
        " hasta",
        -9.688836934254137
      ],
      [
        " *fat:\tit",
        -9.691422805519082
      ],
      [
        " reason",
        -9.692554109407018
      ],
      [
        "come",
        -9.692605555391014
      ],
      [
        "es.",
        -9.693747253480764
      ],
      [
        " *mot:\tno,",
        -9.694584035691765
      ],
      [
        " drops",
        -9.695936582924611
      ],
      [
        "this",
        -9.696011682419101
      ],
      [
        " po",
        -9.696715577505165
      ],
      [
        " bus.",
        -9.696840759964996
      ],
      [
        " daddy?",
        -9.6973328109773
      ],
      [
        " *chi:\tp",
        -9.697604486522255
      ],
      [
        " me,",
        -9.698293164837372
      ],
      [
        " particular",
        -9.698350515398369
      ],
      [
        " *exp:\tokay.",
        -9.698945613145826
      ],
      [
        " swimming",
        -9.698982267567565
      ],
      [
        "⌉",
        -9.69905786381467
      ],
      [
        " boat",
        -9.701164669105202
      ],
      [
        " sh",
        -9.7015056414869
      ],
      [
        " eat.",
        -9.701762241164634
      ],
      [
        "⌋.",
        -9.705133695726907
      ],
      [
        " thomas?",
        -9.705691166307556
      ],
      [
        " later.",
        -9.705981722514135
      ],
      [
        " lives",
        -9.706317832075072
      ],
      [
        " mama",
        -9.706889189005722
      ],
      [
        " [2",
        -9.708460157602172
      ],
      [
        " *kf:\t",
        -9.708996144005097
      ],
      [
        " [3",
        -9.70899821507037
      ],
      [
        " microphone",
        -9.70910025628535
      ],
      [
        " [pointing",
        -9.709172903651577
      ],
      [
        " *chi:\tshe's",
        -9.710236214527125
      ],
      [
        " fly",
        -9.710376626704292
      ],
      [
        " *kat:\t",
        -9.712382892763696
      ],
      [
        " young",
        -9.712617188193597
      ],
      [
        " *par1:\tand",
        -9.713272602904919
      ],
      [
        " picture.",
        -9.713915001104526
      ],
      [
        " hadta",
        -9.714982629676042
      ],
      [
        " washing",
        -9.717085202359822
      ],
      [
        " early",
        -9.717507621687295
      ],
      [
        " spoon",
        -9.718344624346987
      ],
      [
        " wheel",
        -9.718697987781837
      ],
      [
        " hello",
        -9.71881252651048
      ],
      [
        " per",
        -9.719603748855928
      ],
      [
        " blue.",
        -9.719851321156792
      ],
      [
        " paper.",
        -9.720244127847163
      ],
      [
        " speak",
        -9.721082273235496
      ],
      [
        " falling",
        -9.721491614877905
      ],
      [
        " funny.",
        -9.72169718168471
      ],
      [
        " colors",
        -9.723359666702736
      ],
      [
        " writing",
        -9.723827014792718
      ],
      [
        " plastic",
        -9.724154157768993
      ],
      [
        " *chi:\twant",
        -9.725799312541717
      ],
      [
        " purple",
        -9.726421751197933
      ],
      [
        " leans",
        -9.726674352430852
      ],
      [
        " within",
        -9.72731703686416
      ],
      [
        " moment",
        -9.72767091566438
      ],
      [
        " *chi:\tmum.",
        -9.728610527250545
      ],
      [
        " *mot:\tfor",
        -9.730291918529854
      ],
      [
        " head]",
        -9.73075542568301
      ],
      [
        " wa",
        -9.730789704365664
      ],
      [
        " david",
        -9.732076738881988
      ],
      [
        " slide",
        -9.73245625224526
      ],
      [
        " tea.",
        -9.73272310404777
      ],
      [
        " hide",
        -9.733176583030303
      ],
      [
        " happen",
        -9.7335349857739
      ],
      [
        " *fat:\tthat",
        -9.736262477139782
      ],
      [
        " sunday",
        -9.73627308395278
      ],
      [
        " name.",
        -9.736650817929595
      ],
      [
        " bro",
        -9.736781397422618
      ],
      [
        " *a2:\t",
        -9.737171513601703
      ],
      [
        " picked",
        -9.739030519027537
      ],
      [
        " cross",
        -9.739079714444802
      ],
      [
        " seem",
        -9.739401428856628
      ],
      [
        " *inv:\tthis",
        -9.73998968205029
      ],
      [
        " *mot:\tfraser",
        -9.740315661077714
      ],
      [
        "you're",
        -9.740438078476501
      ],
      [
        " waiting",
        -9.740641945981459
      ],
      [
        " months",
        -9.740752651917175
      ],
      [
        " *chi:\tan'",
        -9.741447656368413
      ],
      [
        " quiet",
        -9.742177741248794
      ],
      [
        " *chi:\teh",
        -9.7433704095818
      ],
      [
        " [noise]",
        -9.743889971686677
      ],
      [
        " star",
        -9.74391072587041
      ],
      [
        " *fat:\toh.",
        -9.743974999646444
      ],
      [
        "ting",
        -9.745132099497107
      ],
      [
        " cost",
        -9.745215754960023
      ],
      [
        " sat",
        -9.745576297465124
      ],
      [
        " supposed",
        -9.745752869527742
      ],
      [
        " background]",
        -9.745916462324441
      ],
      [
        " order",
        -9.746057671162825
      ],
      [
        "way",
        -9.747466205858668
      ],
      [
        " leaves",
        -9.747626238830586
      ],
      [
        " saturday",
        -9.747772160545981
      ],
      [
        " shoes.",
        -9.747858135495846
      ],
      [
        " talks",
        -9.748777438887625
      ],
      [
        " knock",
        -9.748936270129246
      ],
      [
        " mister",
        -9.748954173636589
      ],
      [
        " free",
        -9.749201782655163
      ],
      [
        " red.",
        -9.749995614528196
      ],
      [
        " broken",
        -9.750386990287327
      ],
      [
        " *chi:\ti've",
        -9.75149049023651
      ],
      [
        " ba",
        -9.752114485361954
      ],
      [
        " soft",
        -9.752488347492868
      ],
      [
        " *inv:\tit",
        -9.752504170007807
      ],
      [
        " cause",
        -9.753982472690375
      ],
      [
        "⌋",
        -9.754846474674157
      ],
      [
        " shoe",
        -9.755743158043153
      ],
      [
        "9",
        -9.756146407497631
      ],
      [
        " leg",
        -9.756690967809803
      ],
      [
        " two,",
        -9.757434745702813
      ],
      [
        " *roz:\t",
        -9.75750226466466
      ],
      [
        " [actually",
        -9.758980186790353
      ],
      [
        " *mot:\tthomas",
        -9.760032280305783
      ],
      [
        " breakfast",
        -9.760424213432874
      ],
      [
        " reach",
        -9.762523150979316
      ],
      [
        " he'd",
        -9.76278572767417
      ],
      [
        "3",
        -9.764936508970258
      ],
      [
        " *att:\t",
        -9.765551770263038
      ],
      [
        "ng",
        -9.76811111521181
      ],
      [
        "ge",
        -9.768187794069172
      ],
      [
        " coat",
        -9.768290445969672
      ],
      [
        " record",
        -9.768970969108885
      ],
      [
        " share",
        -9.76996554728741
      ],
      [
        " them,",
        -9.770435847061453
      ],
      [
        " *mot:\twill",
        -9.77043599543524
      ],
      [
        "let",
        -9.77106737916488
      ],
      [
        " hands.",
        -9.771476292674384
      ],
      [
        "8",
        -9.772507247459009
      ],
      [
        " business",
        -9.773698874097025
      ],
      [
        " *mot:\ttell",
        -9.773920029598443
      ],
      [
        " she'll",
        -9.775180520090473
      ],
      [
        " people.",
        -9.775203809563243
      ],
      [
        " sounds]",
        -9.775341798938925
      ],
      [
        " fat",
        -9.776683641745784
      ],
      [
        " car]",
        -9.77773949495723
      ],
      [
        " *inv:\tnow",
        -9.777899011462896
      ],
      [
        " game.",
        -9.778691478135707
      ],
      [
        " mommy?",
        -9.778707823586206
      ],
      [
        " war",
        -9.779392182222505
      ],
      [
        " *chi:\thi",
        -9.780234120530665
      ],
      [
        "n't",
        -9.780818052809892
      ],
      [
        " it]",
        -9.782928094484497
      ],
      [
        " *inv:\tlook",
        -9.783263127558978
      ],
      [
        " *fat:\twhat's",
        -9.785186804553714
      ],
      [
        " fine.",
        -9.785548275007702
      ],
      [
        " meeting",
        -9.78628553448468
      ],
      [
        " *mot:\thas",
        -9.78643777194906
      ],
      [
        " *fat:\tthe",
        -9.787222151705631
      ],
      [
        " money.",
        -9.787557015449158
      ],
      [
        " *gma:\toh",
        -9.787601253100853
      ],
      [
        "thank",
        -9.788668998062462
      ],
      [
        " chair]",
        -9.789240970504633
      ],
      [
        " think?",
        -9.789421836600088
      ],
      [
        "s].",
        -9.789554220622309
      ],
      [
        " hour",
        -9.789627222313586
      ],
      [
        " top.",
        -9.789961803293526
      ],
      [
        "but",
        -9.790572035938306
      ],
      [
        " naughty",
        -9.791714091578076
      ],
      [
        " seventy",
        -9.791977359728467
      ],
      [
        " often",
        -9.792293141111733
      ],
      [
        " hot.",
        -9.795559848687162
      ],
      [
        " *mot:\tmummy",
        -9.796493268035857
      ],
      [
        "on.",
        -9.796924049543776
      ],
      [
        " friday",
        -9.797524106564385
      ],
      [
        " %add:\tsis",
        -9.797862381546881
      ],
      [
        " elephant",
        -9.799398287077285
      ],
      [
        " quick",
        -9.799727563541673
      ],
      [
        " *chi:\tright.",
        -9.80050263342059
      ],
      [
        " falls",
        -9.800713100902769
      ],
      [
        " shirt",
        -9.801157192391784
      ],
      [
        " missed",
        -9.80191394648033
      ],
      [
        " dark",
        -9.802264110151828
      ],
      [
        " telephone",
        -9.803323333870605
      ],
      [
        "[",
        -9.80340974407505
      ],
      [
        " *mot:\tgive",
        -9.8040189652245
      ],
      [
        " ah,",
        -9.804225175939267
      ],
      [
        "where",
        -9.80521464087392
      ],
      [
        " myself",
        -9.805376245271603
      ],
      [
        " *ela:\t",
        -9.80568260633722
      ],
      [
        " kiss",
        -9.805848441157142
      ],
      [
        " learn",
        -9.806378030868952
      ],
      [
        " dry",
        -9.806478392206095
      ],
      [
        " runs",
        -9.809597519254176
      ],
      [
        "see",
        -9.811182420196426
      ],
      [
        " problems",
        -9.811377519561098
      ],
      [
        " *chi:\tb",
        -9.811397641638987
      ],
      [
        " careful.",
        -9.811613855769998
      ],
      [
        "by",
        -9.812121183952918
      ],
      [
        " football",
        -9.812345612113049
      ],
      [
        " *mot:\tsome",
        -9.812524330883896
      ],
      [
        " *chi:\tmaybe",
        -9.813961525430257
      ],
      [
        " time,",
        -9.81540139260258
      ],
      [
        "ble",
        -9.816173915656236
      ],
      [
        " *mot:\tturn",
        -9.816661558597215
      ],
      [
        " *chi:\tyou're",
        -9.816707713525425
      ],
      [
        " mouth.",
        -9.816708479313766
      ],
      [
        " alright?",
        -9.817644849179485
      ],
      [
        " end.",
        -9.817880130843383
      ],
      [
        " face.",
        -9.818241460492349
      ],
      [
        " less",
        -9.818555918988286
      ],
      [
        " loud",
        -9.818679045862755
      ],
      [
        " *inv:\tbut",
        -9.819448862603974
      ],
      [
        "let's",
        -9.82103936818564
      ],
      [
        " ago",
        -9.821725986492545
      ],
      [
        " why?",
        -9.822103011030412
      ],
      [
        " mean?",
        -9.823685002612157
      ],
      [
        " monster",
        -9.823829002533845
      ],
      [
        " *inv:\thow",
        -9.824084625927867
      ],
      [
        " bits",
        -9.824839272953543
      ],
      [
        " *mot:\tc",
        -9.826009310876074
      ],
      [
        "www",
        -9.826206036249094
      ],
      [
        " *chi:\tyeah,",
        -9.82650717391978
      ],
      [
        " throws",
        -9.826646531310537
      ],
      [
        " cold.",
        -9.82668204884556
      ],
      [
        " service",
        -9.82779808636343
      ],
      [
        " knows",
        -9.828101658465865
      ],
      [
        " *inv:\tmhm.",
        -9.828355385557845
      ],
      [
        " *fat:\txxx",
        -9.829024347822298
      ],
      [
        "4",
        -9.829131961061712
      ],
      [
        " felt",
        -9.829498821154237
      ],
      [
        " up,",
        -9.829951602115875
      ],
      [
        " *mot:\twait",
        -9.830015069900885
      ],
      [
        " large",
        -9.830368737828284
      ],
      [
        " mm,",
        -9.830390727839234
      ],
      [
        " conversation",
        -9.831180538046887
      ],
      [
        " bar",
        -9.832061756605768
      ],
      [
        " utterances",
        -9.833028693157157
      ],
      [
        " stands",
        -9.834755965057141
      ],
      [
        "making",
        -9.835005037827031
      ],
      [
        " *mot:\tmommy",
        -9.835254573567724
      ],
      [
        " inv",
        -9.835876494505072
      ],
      [
        " allowed",
        -9.836235297059574
      ],
      [
        " we'd",
        -9.836616851183017
      ],
      [
        " interesting",
        -9.836799809504447
      ],
      [
        " pushes",
        -9.836991974384386
      ],
      [
        " singing",
        -9.837794717558161
      ],
      [
        " send",
        -9.837907222433609
      ],
      [
        " *chi:\ttwo.",
        -9.83896109389444
      ],
      [
        " rain",
        -9.839073193437844
      ],
      [
        " save",
        -9.840455357989498
      ],
      [
        " fish.",
        -9.840942758806044
      ],
      [
        " grow",
        -9.84165962955432
      ],
      [
        " nobody",
        -9.842557207434288
      ],
      [
        " video",
        -9.843295386870333
      ],
      [
        " fingers",
        -9.844992687622042
      ],
      [
        " dress",
        -9.845096398389298
      ],
      [
        " horse.",
        -9.846013394138172
      ],
      [
        " bed?",
        -9.847266633367754
      ],
      [
        " cheese.",
        -9.847282080815877
      ],
      [
        " bang",
        -9.847708367909473
      ],
      [
        " teeth",
        -9.847932241297721
      ],
      [
        " sugar",
        -9.848102350742659
      ],
      [
        " *chi:\tif",
        -9.848344883827014
      ],
      [
        " crayons",
        -9.848392962870665
      ],
      [
        "ow",
        -9.849147034412773
      ],
      [
        " *mot:\twatch",
        -9.849830025026872
      ],
      [
        " cards",
        -9.849853454094962
      ],
      [
        " *tea:\tyou",
        -9.85038847249889
      ],
      [
        " eleven",
        -9.851013429007471
      ],
      [
        " third",
        -9.851133868301691
      ],
      [
        " babies",
        -9.851246694276977
      ],
      [
        " carl",
        -9.851863291878988
      ],
      [
        " happening",
        -9.853698743612568
      ],
      [
        " easy",
        -9.85398790954779
      ],
      [
        " percent",
        -9.855066571489402
      ],
      [
        " tiger",
        -9.855207863021256
      ],
      [
        "age",
        -9.855919031410126
      ],
      [
        " sec,",
        -9.856137586623014
      ],
      [
        " michael",
        -9.857113730861894
      ],
      [
        "ring",
        -9.859793540849168
      ],
      [
        " *mot:\tuhoh.",
        -9.860631688672918
      ],
      [
        " mummy?",
        -9.861969395336732
      ],
      [
        " scared",
        -9.862916689768074
      ],
      [
        " rising",
        -9.863264231843308
      ],
      [
        " women",
        -9.86328546230228
      ],
      [
        " *inv:\the's",
        -9.8634942913237
      ],
      [
        " pass",
        -9.865206251226583
      ],
      [
        " glass",
        -9.865535969757474
      ],
      [
        " climb",
        -9.865892755155652
      ],
      [
        " *exp:\tno",
        -9.866032575248298
      ],
      [
        " *mot:\twow.",
        -9.866223052510442
      ],
      [
        " sheep",
        -9.86643841840289
      ],
      [
        " green.",
        -9.867432700936611
      ],
      [
        " wall",
        -9.867487492665674
      ],
      [
        " eye",
        -9.868028006271203
      ],
      [
        " base",
        -9.868530854313587
      ],
      [
        " they'd",
        -9.868761446021331
      ],
      [
        " *par:\twhat",
        -9.869423499804611
      ],
      [
        " honey.",
        -9.869699531495256
      ],
      [
        " *par:\tand",
        -9.87058185516335
      ],
      [
        " fun.",
        -9.871030531352172
      ],
      [
        " anyway.",
        -9.871227031638586
      ],
      [
        " board",
        -9.871602747420969
      ],
      [
        " corner",
        -9.872324902931709
      ],
      [
        " *col:\t",
        -9.872506936779903
      ],
      [
        " poor",
        -9.873017522915621
      ],
      [
        " week.",
        -9.873131186427774
      ],
      [
        " co",
        -9.874962563110378
      ],
      [
        " difference",
        -9.876986531245905
      ],
      [
        " bo",
        -9.877189863688724
      ],
      [
        " fruit",
        -9.87776196757514
      ],
      [
        " those?",
        -9.878643763656633
      ],
      [
        " remember?",
        -9.879621103429137
      ],
      [
        " pig",
        -9.880605441054461
      ],
      [
        " level",
        -9.882183540942965
      ],
      [
        " *aun:\t",
        -9.88475205213588
      ],
      [
        " tomorrow.",
        -9.885818263736311
      ],
      [
        " plan",
        -9.88626626235909
      ],
      [
        " lion",
        -9.886271065216414
      ],
      [
        "ping",
        -9.88634221647213
      ],
      [
        " noise.",
        -9.886605571124301
      ],
      [
        " yours.",
        -9.888649581127325
      ],
      [
        " shake",
        -9.88884706943142
      ],
      [
        " house]",
        -9.888928113847058
      ],
      [
        " upstairs",
        -9.889984131152497
      ],
      [
        " downstairs",
        -9.89067840048601
      ],
      [
        " committee",
        -9.89089733868267
      ],
      [
        " absolutely",
        -9.891461119265028
      ],
      [
        " changed",
        -9.89220847515292
      ],
      [
        " power",
        -9.892672951395223
      ],
      [
        " woman",
        -9.893360347369526
      ],
      [
        " bowl",
        -9.893530779072652
      ],
      [
        " *chi:\tthese",
        -9.893637292796171
      ],
      [
        " *chi:\tbaby",
        -9.893763828829705
      ],
      [
        " *mot:\tooh.",
        -9.893906684605778
      ],
      [
        " pot",
        -9.894815214197589
      ],
      [
        " asking",
        -9.895181987027808
      ],
      [
        " *mot:\tisn't",
        -9.895411258425664
      ],
      [
        " *chi:\tfor",
        -9.895882479846161
      ],
      [
        " back?",
        -9.895908776758155
      ],
      [
        " members",
        -9.896890785138588
      ],
      [
        " bill",
        -9.89776987708769
      ],
      [
        " office",
        -9.899417591166301
      ],
      [
        " *chi:\tma",
        -9.89985292434222
      ],
      [
        " tie",
        -9.899884320538224
      ],
      [
        " *inv1:\t",
        -9.900286331920395
      ],
      [
        "tic",
        -9.900518554284368
      ],
      [
        " ears",
        -9.90172127158837
      ],
      [
        "ness",
        -9.903273169066129
      ],
      [
        " silence]",
        -9.903584794411426
      ],
      [
        " support",
        -9.904133589738926
      ],
      [
        " arms",
        -9.904922295224914
      ],
      [
        " ready?",
        -9.9050754151706
      ],
      [
        " either.",
        -9.905706322933895
      ],
      [
        " deal",
        -9.905731770104794
      ],
      [
        " *mot:\tp",
        -9.906176282662798
      ],
      [
        " feeling",
        -9.907834903226789
      ],
      [
        " 'a",
        -9.90787298374179
      ],
      [
        " [in",
        -9.90799726325411
      ],
      [
        " postman",
        -9.908638479694465
      ],
      [
        " [turns",
        -9.908785950813042
      ],
      [
        " toys]",
        -9.909108178589676
      ],
      [
        "when",
        -9.909131522179912
      ],
      [
        " fair",
        -9.909356817446437
      ],
      [
        " himself",
        -9.909988068843127
      ],
      [
        " situation",
        -9.91070604368521
      ],
      [
        " *a3:\twhat",
        -9.910720666138534
      ],
      [
        " before.",
        -9.910861287955347
      ],
      [
        " jack",
        -9.912478515198451
      ],
      [
        "referring",
        -9.913468613979372
      ],
      [
        " bloody",
        -9.914136978745354
      ],
      [
        " cool",
        -9.914397419621922
      ],
      [
        " policy",
        -9.914714786023186
      ],
      [
        " kept",
        -9.915865142442
      ],
      [
        "k.",
        -9.916085951280888
      ],
      [
        " ball?",
        -9.916356000282626
      ],
      [
        " *mad:\t",
        -9.916437870317559
      ],
      [
        " terms",
        -9.916855523909932
      ],
      [
        " yeah?",
        -9.91725705078887
      ],
      [
        " afternoon",
        -9.9203988147504
      ],
      [
        " town",
        -9.920430842870005
      ],
      [
        " *chi:\t[voc].",
        -9.920470147070564
      ],
      [
        " *inv:\twe",
        -9.92085052240285
      ],
      [
        " general",
        -9.921437254046332
      ],
      [
        " summer",
        -9.922148123453834
      ],
      [
        " *fat:\the",
        -9.922160387835753
      ],
      [
        " *inv:\tuhhuh.",
        -9.922190956975683
      ],
      [
        " watches",
        -9.923130634791667
      ],
      [
        " *chi:\tm",
        -9.92316278418144
      ],
      [
        " done?",
        -9.92317501873308
      ],
      [
        " *mel:\t",
        -9.923643129110706
      ],
      [
        " wheels",
        -9.924083483145882
      ],
      [
        " circle",
        -9.924487417270417
      ],
      [
        " hey",
        -9.925500147172183
      ],
      [
        " sad",
        -9.927176132727485
      ],
      [
        " spell",
        -9.927756033313633
      ],
      [
        " form",
        -9.927953366057778
      ],
      [
        " body",
        -9.928060688671575
      ],
      [
        " matter?",
        -9.928628425373272
      ],
      [
        " mommy's",
        -9.928699000339734
      ],
      [
        " [refer",
        -9.929036113554055
      ],
      [
        " *chi:\thello.",
        -9.929164125579703
      ],
      [
        " *inv:\tthere",
        -9.929299806053578
      ],
      [
        " six.",
        -9.929383520464764
      ],
      [
        "ding",
        -9.930026055306126
      ],
      [
        " then,",
        -9.930107613727703
      ],
      [
        " step",
        -9.930551710028087
      ],
      [
        " certain",
        -9.931052141230033
      ],
      [
        "ve",
        -9.93215521338433
      ],
      [
        " feet.",
        -9.932333058458806
      ],
      [
        " um,",
        -9.932545704063944
      ],
      [
        " eat?",
        -9.932759294186095
      ],
      [
        " *mot:\tready",
        -9.932764342113163
      ],
      [
        " dinosaur",
        -9.932882844266878
      ],
      [
        "ill",
        -9.933164852055533
      ],
      [
        " caught",
        -9.933891251376858
      ],
      [
        " *kar:\t",
        -9.934797385028487
      ],
      [
        " flying",
        -9.934823909916208
      ],
      [
        " window.",
        -9.93515594350026
      ],
      [
        "ten",
        -9.935556694425852
      ],
      [
        " *mot:\td",
        -9.936156573591308
      ],
      [
        " *tea:\tokay",
        -9.93675769270044
      ],
      [
        " everyone",
        -9.93689151722421
      ],
      [
        " dad.",
        -9.938007895237245
      ],
      [
        " *chi:\thave",
        -9.93855863631147
      ],
      [
        " crayon]",
        -9.938730275135917
      ],
      [
        " *inv:\tlet's",
        -9.938896741421473
      ],
      [
        " *fat:\twhere",
        -9.939784863469551
      ],
      [
        " see,",
        -9.94018491552245
      ],
      [
        " round.",
        -9.94136692630177
      ],
      [
        " *mot:\twell.",
        -9.94139025051376
      ],
      [
        "very",
        -9.942619226114761
      ],
      [
        " ground",
        -9.942628453197436
      ],
      [
        " key",
        -9.942892760403323
      ],
      [
        " bye.",
        -9.943222590248809
      ],
      [
        " pour",
        -9.943944911092112
      ],
      [
        " hm",
        -9.945067978274526
      ],
      [
        " type",
        -9.945160058197828
      ],
      [
        " monday",
        -9.94543259607464
      ],
      [
        "get",
        -9.945479330956065
      ],
      [
        " moved",
        -9.94599592901927
      ],
      [
        " liked",
        -9.94622186041262
      ],
      [
        " mother]",
        -9.94681303343702
      ],
      [
        " flowers",
        -9.948051315716494
      ],
      [
        " closer",
        -9.94810377983777
      ],
      [
        " *mot:\teleanor",
        -9.948425100026675
      ],
      [
        " handle",
        -9.948553490621837
      ],
      [
        " *fat:\tno.",
        -9.94860607949569
      ],
      [
        " strong",
        -9.949270916851969
      ],
      [
        " *mot:\tthese",
        -9.949468148560452
      ],
      [
        "there",
        -9.950000529413689
      ],
      [
        " *mot:\thi",
        -9.95020739625554
      ],
      [
        " *mot:\tremember",
        -9.950833643359982
      ],
      [
        " [voice]",
        -9.950922178047602
      ],
      [
        " june",
        -9.951100217900269
      ],
      [
        " anymore",
        -9.952374841140074
      ],
      [
        " three,",
        -9.952410888213944
      ],
      [
        " clock",
        -9.952568874829062
      ],
      [
        " works",
        -9.953666840370325
      ],
      [
        " *chi:\tmore",
        -9.954065489303575
      ],
      [
        " aye",
        -9.95457524229229
      ],
      [
        " *fat:\tcan",
        -9.955728681352007
      ],
      [
        " moon",
        -9.956073599561831
      ],
      [
        " *mot:\tsorry",
        -9.956284313098607
      ],
      [
        " *mot:\tdaddy",
        -9.957220992869807
      ],
      [
        " ahead",
        -9.95739113810098
      ],
      [
        " *inv:\thave",
        -9.957771372422975
      ],
      [
        " *mot:\tum.",
        -9.957938155429016
      ],
      [
        " indeed",
        -9.958136461276538
      ],
      [
        " rock",
        -9.95859579098429
      ],
      [
        "that",
        -9.959267715662753
      ],
      [
        "we're",
        -9.95937269099258
      ],
      [
        " *inv:\ta",
        -9.959999952028348
      ],
      [
        " purdie",
        -9.960248950381379
      ],
      [
        " *inv:\tyes",
        -9.960367529125882
      ],
      [
        " sandwich",
        -9.961038074375605
      ],
      [
        "ster",
        -9.961038534796048
      ],
      [
        " stopped",
        -9.962454578862012
      ],
      [
        " position",
        -9.96344426549312
      ],
      [
        "ll",
        -9.963537252630175
      ],
      [
        " names",
        -9.966327674462796
      ],
      [
        " [a",
        -9.96660669582233
      ],
      [
        " information",
        -9.968373691040195
      ],
      [
        " *par:\ti",
        -9.968966836360188
      ],
      [
        " place.",
        -9.96914633794679
      ],
      [
        " time?",
        -9.969423983559569
      ],
      [
        " anything.",
        -9.970547185215786
      ],
      [
        "like",
        -9.971000864542953
      ],
      [
        "ell",
        -9.971477292569354
      ],
      [
        " hospital",
        -9.971760962175043
      ],
      [
        " *inv:\twhy",
        -9.971883462571661
      ],
      [
        " size",
        -9.971951673042707
      ],
      [
        "right",
        -9.973758030424463
      ],
      [
        "ley",
        -9.974234318319024
      ],
      [
        " *chi:\tsome",
        -9.974426733481138
      ],
      [
        " sp",
        -9.974796246827754
      ],
      [
        " apart",
        -9.976735182414654
      ],
      [
        " age",
        -9.976771620985772
      ],
      [
        " meet",
        -9.976898926576872
      ],
      [
        "der",
        -9.977047410910078
      ],
      [
        "ke",
        -9.9781908106384
      ],
      [
        " again,",
        -9.97853150964071
      ],
      [
        " potato",
        -9.979329893673043
      ],
      [
        " juice?",
        -9.97983526781301
      ],
      [
        " does.",
        -9.979919129167554
      ],
      [
        " *chi:\ttake",
        -9.981004322113247
      ],
      [
        " quickly",
        -9.981048005790722
      ],
      [
        " [yes]",
        -9.981121064880067
      ],
      [
        " *mot:\tooh",
        -9.98115325151653
      ],
      [
        " race",
        -9.982308738609024
      ],
      [
        "ating",
        -9.98420155474446
      ],
      [
        " station",
        -9.984286903667535
      ],
      [
        " super",
        -9.984522715439097
      ],
      [
        " nursery",
        -9.985095444855997
      ],
      [
        " bank",
        -9.986454887042669
      ],
      [
        " *chi:\tplease.",
        -9.986612031106173
      ],
      [
        " *chi:\tdis",
        -9.987392089952714
      ],
      [
        " flat",
        -9.988099091925505
      ],
      [
        " pause]",
        -9.988329382875332
      ],
      [
        " tuesday",
        -9.9885785000623
      ],
      [
        " animals.",
        -9.98863929840201
      ],
      [
        " *par3:\t",
        -9.989153836377879
      ],
      [
        " bread.",
        -9.98951947582287
      ],
      [
        " kid",
        -9.991379698697514
      ],
      [
        " york",
        -9.991616188220696
      ],
      [
        "don't",
        -9.991759766103966
      ],
      [
        " dance",
        -9.991818159643165
      ],
      [
        " *mot:\ttake",
        -9.99281876395207
      ],
      [
        " dinner.",
        -9.994160256056226
      ],
      [
        " steven",
        -9.99437640385133
      ],
      [
        " huh",
        -9.994549420228687
      ],
      [
        " *chi:\tda",
        -9.994684167298402
      ],
      [
        " extra",
        -9.994722488884161
      ],
      [
        " turn.",
        -9.995084886104951
      ],
      [
        " bell",
        -9.995166831100686
      ],
      [
        " yeah!",
        -9.995600113579357
      ],
      [
        " story?",
        -9.99628169725878
      ],
      [
        " *par:\tyeah",
        -9.996561249611567
      ],
      [
        "qu",
        -9.996900581846123
      ],
      [
        " pooh",
        -9.997299613752938
      ],
      [
        " sleeping",
        -9.99804510427202
      ],
      [
        " *chi:\tgot",
        -9.998079625650337
      ],
      [
        " [laughing].",
        -9.998108833104698
      ],
      [
        "1",
        -9.999683117872292
      ],
      [
        " bird.",
        -9.999775807596308
      ],
      [
        " d'",
        -9.999906068353592
      ],
      [
        " *chi:\topen",
        -9.999993601266802
      ],
      [
        " *fat:\tdid",
        -10.000203108416486
      ],
      [
        " box?",
        -10.000935166086073
      ],
      [
        " o'",
        -10.001178494398424
      ],
      [
        " *exp:\twhat",
        -10.001542647351688
      ],
      [
        " system",
        -10.001589226433406
      ],
      [
        "ful",
        -10.002128383711
      ],
      [
        " 'em.",
        -10.002942518855425
      ],
      [
        " drinking",
        -10.00334067237392
      ],
      [
        " anyone",
        -10.003732373908342
      ],
      [
        " mar",
        -10.003775766990636
      ],
      [
        " public",
        -10.004110664537698
      ],
      [
        " [inv",
        -10.004691982203205
      ],
      [
        " flower",
        -10.005860849220245
      ],
      [
        " *chi:\tdoes",
        -10.005982687694146
      ],
      [
        " *lyn:\t",
        -10.006066585391494
      ],
      [
        " [e",
        -10.00623970097347
      ],
      [
        " spoon.",
        -10.00640008721767
      ],
      [
        " sell",
        -10.006965806578936
      ],
      [
        " seat",
        -10.007696011472113
      ],
      [
        " boat.",
        -10.007803412236225
      ],
      [
        " anymore.",
        -10.00817087536783
      ],
      [
        "just",
        -10.008249362406229
      ],
      [
        " hiding",
        -10.008416002121585
      ],
      [
        " machine",
        -10.009126078249325
      ],
      [
        " radio",
        -10.009134873727998
      ],
      [
        " further",
        -10.009143771942608
      ],
      [
        " crying",
        -10.009204474413622
      ],
      [
        " plate.",
        -10.00953928267615
      ],
      [
        " questions",
        -10.009659398178986
      ],
      [
        " *mot:\tb",
        -10.011155936204457
      ],
      [
        " aye.",
        -10.012112574895685
      ],
      [
        " *chi:\t[babble]",
        -10.013560553997298
      ],
      [
        "ated",
        -10.014504063009179
      ],
      [
        " sec;",
        -10.014900478723977
      ],
      [
        " great.",
        -10.015678025604508
      ],
      [
        "here",
        -10.015860959907979
      ],
      [
        " *chi:\tg",
        -10.01633573878727
      ],
      [
        " square",
        -10.01638219136369
      ],
      [
        " these.",
        -10.016574512417264
      ],
      [
        " turning",
        -10.016632872847513
      ],
      [
        "why",
        -10.01778485021071
      ],
      [
        " [chi].",
        -10.018258952165649
      ],
      [
        " talking]",
        -10.018611635708936
      ],
      [
        " enough.",
        -10.019227110454988
      ],
      [
        " hard.",
        -10.019331690867148
      ],
      [
        " chris",
        -10.019773692760925
      ],
      [
        "her",
        -10.02007583898745
      ],
      [
        " city",
        -10.020417073288142
      ],
      [
        "there's",
        -10.020803421802835
      ],
      [
        " listening",
        -10.021692316603163
      ],
      [
        " company",
        -10.021840839231292
      ],
      [
        " pet",
        -10.022039042981579
      ],
      [
        " peanut",
        -10.02234250946494
      ],
      [
        " television",
        -10.022426378233003
      ],
      [
        " lose",
        -10.022484857163722
      ],
      [
        " sense",
        -10.023108780114773
      ],
      [
        "tell",
        -10.024179141932642
      ],
      [
        " bin",
        -10.024656793331111
      ],
      [
        " duck.",
        -10.02526593527045
      ],
      [
        "1]",
        -10.025294965347651
      ],
      [
        " wednesday",
        -10.025861313801974
      ],
      [
        " sent",
        -10.026020727655048
      ],
      [
        " *mot:\ttry",
        -10.0261460320089
      ],
      [
        " king",
        -10.026606516882735
      ],
      [
        "i'll",
        -10.027460656508637
      ],
      [
        " sweet",
        -10.02775062307666
      ],
      [
        " worked",
        -10.02778534368974
      ],
      [
        " [4",
        -10.027906990582958
      ],
      [
        " lovely.",
        -10.028810340283407
      ],
      [
        " traffic",
        -10.029324715797912
      ],
      [
        " *glo:\t",
        -10.029353678454436
      ],
      [
        " bath.",
        -10.029820930696673
      ],
      [
        "lly",
        -10.030225281254012
      ],
      [
        " *",
        -10.030282658173006
      ],
      [
        " *mot:\tyou'll",
        -10.031002756771755
      ],
      [
        " paid",
        -10.0314714771904
      ],
      [
        " dressed",
        -10.031872994438132
      ],
      [
        " lights",
        -10.031964024605752
      ],
      [
        " lie",
        -10.031972393764494
      ],
      [
        " hours",
        -10.03215919804406
      ],
      [
        " meant",
        -10.032365697750462
      ],
      [
        "king",
        -10.032863799190286
      ],
      [
        " mot's",
        -10.03485672476602
      ],
      [
        " dolls",
        -10.03494474109431
      ],
      [
        " lay",
        -10.035587300500268
      ],
      [
        " fine",
        -10.036584610676453
      ],
      [
        " *chi:\twho's",
        -10.037639526440723
      ],
      [
        " wood",
        -10.038347453512493
      ],
      [
        " boo",
        -10.038766928497884
      ],
      [
        " market",
        -10.0394932106481
      ],
      [
        " friend.",
        -10.039748690439549
      ],
      [
        " jumping",
        -10.039782765067045
      ],
      [
        "ary",
        -10.04010940082416
      ],
      [
        " health",
        -10.040332092874216
      ],
      [
        " mike",
        -10.04046570473414
      ],
      [
        " list",
        -10.040640853633047
      ],
      [
        " laugh]",
        -10.040986392270636
      ],
      [
        " hadn't",
        -10.041435635546271
      ],
      [
        " socks",
        -10.041809108177121
      ],
      [
        "they're",
        -10.042148323275816
      ],
      [
        " den",
        -10.042166560916128
      ],
      [
        " north",
        -10.042557094923831
      ],
      [
        " li",
        -10.043086066344832
      ],
      [
        " horsie",
        -10.04344479233971
      ],
      [
        " underneath",
        -10.044441102880407
      ],
      [
        "jack+in+the+box]",
        -10.045497127166886
      ],
      [
        " good?",
        -10.046066526172766
      ],
      [
        " *mar:\ti",
        -10.046747524901434
      ],
      [
        " shows",
        -10.046840735804821
      ],
      [
        " year.",
        -10.047923217884954
      ],
      [
        " voice]",
        -10.048457717227555
      ],
      [
        " shut",
        -10.0489129464117
      ],
      [
        " pointing",
        -10.049509293893422
      ],
      [
        "land",
        -10.050177391818789
      ],
      [
        " *a1:\t",
        -10.05026414914277
      ],
      [
        " *ger:\t",
        -10.050338891364163
      ],
      [
        " *exp:\tyeah.",
        -10.0503536033428
      ],
      [
        " centre",
        -10.050687649902248
      ],
      [
        ":\t",
        -10.050995144864594
      ],
      [
        " out,",
        -10.051528942908082
      ],
      [
        " 2",
        -10.052197786960548
      ],
      [
        " quarter",
        -10.052523913293093
      ],
      [
        " so,",
        -10.052526193274476
      ],
      [
        " recording",
        -10.053017539153732
      ],
      [
        " *inv:\thm.",
        -10.05304031675002
      ],
      [
        " seconds",
        -10.053337319732742
      ],
      [
        " water?",
        -10.053598323017678
      ],
      [
        " main",
        -10.054423563497654
      ],
      [
        " conversation]",
        -10.054825277994919
      ],
      [
        " loves",
        -10.055274486112724
      ],
      [
        " thing?",
        -10.055501183940635
      ],
      [
        "2]",
        -10.056161013769017
      ],
      [
        " finished.",
        -10.05690153415756
      ],
      [
        " *chi:\tc",
        -10.05755433279905
      ],
      [
        " lift",
        -10.05771406563333
      ],
      [
        " clown",
        -10.058925716668192
      ],
      [
        " yellow.",
        -10.059594275824445
      ],
      [
        " string",
        -10.060673548505235
      ],
      [
        " [laugh].",
        -10.061927561530801
      ],
      [
        " low",
        -10.061951625592602
      ],
      [
        " tired.",
        -10.06299546911427
      ],
      [
        "red",
        -10.063054513412766
      ],
      [
        " gas",
        -10.063427877575734
      ],
      [
        " london",
        -10.064903887682533
      ],
      [
        " five,",
        -10.066040373332989
      ],
      [
        " *fat:\twhy",
        -10.066540245620345
      ],
      [
        " shopping",
        -10.066605485174907
      ],
      [
        " add",
        -10.066796923691818
      ],
      [
        ":",
        -10.067087662991927
      ],
      [
        " alright,",
        -10.067914655472057
      ],
      [
        " *mot:\tup",
        -10.068458255944662
      ],
      [
        " *jo:\t",
        -10.068913223438464
      ],
      [
        " cj",
        -10.069193276404782
      ],
      [
        " stops",
        -10.069481408902274
      ],
      [
        " win",
        -10.06972636392068
      ],
      [
        " door]",
        -10.071033271958772
      ],
      [
        " away?",
        -10.071355525372995
      ],
      [
        " *fat:\tnow",
        -10.071709005900322
      ],
      [
        " beginning",
        -10.071757463713638
      ],
      [
        " breakfast.",
        -10.072068467943453
      ],
      [
        " longer",
        -10.07208124940969
      ],
      [
        " [p",
        -10.072283100469404
      ],
      [
        " vocalises.",
        -10.072324330166706
      ],
      [
        " trees",
        -10.07325081957875
      ],
      [
        " glasses",
        -10.073251787065779
      ],
      [
        " drink.",
        -10.074540351820277
      ],
      [
        " jo",
        -10.076225357503432
      ],
      [
        " worry",
        -10.07818166743822
      ],
      [
        " chance",
        -10.07904012476552
      ],
      [
        " *mot:\thello.",
        -10.079598428926882
      ],
      [
        " ready.",
        -10.082082644443346
      ],
      [
        " *chi:\tmum",
        -10.082192395369546
      ],
      [
        " earlier",
        -10.082395100868583
      ],
      [
        " doing.",
        -10.082785997295549
      ],
      [
        " national",
        -10.082909974270544
      ],
      [
        " *par1:\ti",
        -10.083132731037928
      ],
      [
        " *chi:\t[looks",
        -10.083347657117951
      ],
      [
        " store",
        -10.083417603944941
      ],
      [
        " [g",
        -10.084133049540288
      ],
      [
        " here!",
        -10.084288753014025
      ],
      [
        " above",
        -10.084433101910241
      ],
      [
        " agree",
        -10.084473668780364
      ],
      [
        " parents",
        -10.085146220497203
      ],
      [
        " awful",
        -10.085442343836739
      ],
      [
        " *fat:\ta",
        -10.085916607776365
      ],
      [
        " [reaches",
        -10.086143556603094
      ],
      [
        " hall",
        -10.086326400838693
      ],
      [
        " eighteen",
        -10.086655500588277
      ],
      [
        " goodness",
        -10.086780743141048
      ],
      [
        " holiday",
        -10.086948574494595
      ],
      [
        " *par:\toh",
        -10.08798261957568
      ],
      [
        "een",
        -10.088709383338173
      ],
      [
        " ah!",
        -10.089040221298589
      ],
      [
        " *mot:\tmore",
        -10.089173669144676
      ],
      [
        " pizza",
        -10.089235101400277
      ],
      [
        "3]",
        -10.090388056561784
      ],
      [
        " frog.",
        -10.091313006964262
      ],
      [
        " won",
        -10.091425186752106
      ],
      [
        " heavy",
        -10.091458806884358
      ],
      [
        " numbers",
        -10.091770606370076
      ],
      [
        "unnecessary",
        -10.091941668824033
      ],
      [
        " *mot:\thold",
        -10.092064405889873
      ],
      [
        " *fat:\twe",
        -10.092774955452954
      ],
      [
        " amount",
        -10.094138094812772
      ],
      [
        " *mot:\tbig",
        -10.094859725776733
      ],
      [
        " open.",
        -10.095130383793789
      ],
      [
        " magnet",
        -10.0957987301876
      ],
      [
        " [playing",
        -10.096525382433974
      ],
      [
        " sign",
        -10.097003214742863
      ],
      [
        " pan",
        -10.097080682323522
      ],
      [
        "hey",
        -10.097482247955703
      ],
      [
        "7]",
        -10.098922692382558
      ],
      [
        " *inv:\tyou're",
        -10.099076230186938
      ],
      [
        " *dad:\t",
        -10.09983635534168
      ],
      [
        " month",
        -10.100398175083285
      ],
      [
        " ross",
        -10.100540981942405
      ],
      [
        " party.",
        -10.101256708708554
      ],
      [
        " birthday.",
        -10.102033523386211
      ],
      [
        " million",
        -10.102308744608507
      ],
      [
        " missing",
        -10.102391945342255
      ],
      [
        " *mot:\tyep.",
        -10.10262412669591
      ],
      [
        " cwww",
        -10.102713499986972
      ],
      [
        " doggy",
        -10.104309151824298
      ],
      [
        " *inv:\ti'm",
        -10.104410149245082
      ],
      [
        " rolls",
        -10.105156947830555
      ],
      [
        " normally",
        -10.105405287288951
      ],
      [
        " *inv:\ttell",
        -10.105712160367798
      ],
      [
        " spider",
        -10.105857070751917
      ],
      [
        " eats",
        -10.106792152584765
      ],
      [
        " minutes.",
        -10.106998049663938
      ],
      [
        " *jw:\t",
        -10.10713008584395
      ],
      [
        " track",
        -10.107689010998037
      ],
      [
        "4]",
        -10.10769456251305
      ],
      [
        " jumped",
        -10.108574325864371
      ],
      [
        " *mot:\tmake",
        -10.108678433682583
      ],
      [
        " sandwich.",
        -10.108911726935183
      ],
      [
        " missus",
        -10.109046822012122
      ],
      [
        "ing]",
        -10.109201112109227
      ],
      [
        " bike",
        -10.110396682204925
      ],
      [
        " foot.",
        -10.110745138140217
      ],
      [
        " mirror",
        -10.111517527780062
      ],
      [
        " older",
        -10.112296720839652
      ],
      [
        " blanket",
        -10.112586256644997
      ],
      [
        " plus",
        -10.112711743844983
      ],
      [
        " books.",
        -10.113175053479821
      ],
      [
        " tony",
        -10.114770250319445
      ],
      [
        " dirty",
        -10.115311772676257
      ],
      [
        " *chi:\twe're",
        -10.115964881821412
      ],
      [
        " training",
        -10.116587935174234
      ],
      [
        " santa",
        -10.116683965478202
      ],
      [
        " upside",
        -10.11722316484749
      ],
      [
        "les",
        -10.118190999153285
      ],
      [
        " *a:\t",
        -10.118323821852751
      ],
      [
        " *chi:\twith",
        -10.119291332471033
      ],
      [
        "yeah.",
        -10.119295800028196
      ],
      [
        " *mot:\twow",
        -10.120135025323005
      ],
      [
        " coming.",
        -10.12019016542414
      ],
      [
        " excuse",
        -10.120222399181866
      ],
      [
        " puppy",
        -10.120224846276484
      ],
      [
        " tail",
        -10.121109399063297
      ],
      [
        " *fch:\ti",
        -10.121377061059203
      ],
      [
        " big.",
        -10.121509988087482
      ],
      [
        " tank",
        -10.121882491127185
      ],
      [
        " brian",
        -10.121933914167645
      ],
      [
        " *chi:\twanna",
        -10.121982728947785
      ],
      [
        " interest",
        -10.122323808438699
      ],
      [
        "5]",
        -10.122948590008045
      ],
      [
        " *mot:\twhoops",
        -10.123931885278285
      ],
      [
        " [june",
        -10.123967262163774
      ],
      [
        " *chi:\tuhhuh",
        -10.124175091477913
      ],
      [
        " *chi:\twhich",
        -10.124553896669058
      ],
      [
        " swim",
        -10.124647925743732
      ],
      [
        " sea",
        -10.125244471693716
      ],
      [
        " eliminated",
        -10.125412417829008
      ],
      [
        " jack+in+the+box",
        -10.125601899435011
      ],
      [
        " *chi:\tdaddy.",
        -10.125886622745607
      ],
      [
        " south",
        -10.12751502573021
      ],
      [
        " heart",
        -10.129835263124228
      ],
      [
        " *chi:\tup",
        -10.130607897211029
      ],
      [
        " attention",
        -10.130661848133602
      ],
      [
        " definitely",
        -10.131439450610895
      ],
      [
        " lorry",
        -10.131762248501119
      ],
      [
        " [5",
        -10.131901961222601
      ],
      [
        " computer",
        -10.132193947424359
      ],
      [
        "mhm.",
        -10.132935445405803
      ],
      [
        " *chi:\tcan't",
        -10.134328821169536
      ],
      [
        " country",
        -10.134444839662665
      ],
      [
        " trade",
        -10.134671727741923
      ],
      [
        "less",
        -10.134842722710758
      ],
      [
        " doin'?",
        -10.135001827910123
      ],
      [
        " *mot:\tthink",
        -10.135971445776239
      ],
      [
        " *mot:\tbaby",
        -10.136017653728775
      ],
      [
        " although",
        -10.137504850281879
      ],
      [
        " ear",
        -10.137515646647955
      ],
      [
        " *chi:\t[nods",
        -10.137520003312954
      ],
      [
        " nesting",
        -10.138050034958743
      ],
      [
        "have",
        -10.138212095056684
      ],
      [
        " objects",
        -10.139026305897897
      ],
      [
        " toast",
        -10.139136486610962
      ],
      [
        " icecream",
        -10.139428479077752
      ],
      [
        " fraser.",
        -10.13990934038835
      ],
      [
        " dead",
        -10.140515790076117
      ],
      [
        " bottle.",
        -10.141363320205064
      ],
      [
        "no.",
        -10.142946415850492
      ],
      [
        " cup]",
        -10.143662862248211
      ],
      [
        " that'll",
        -10.14411612924573
      ],
      [
        " *chi:\tmommy.",
        -10.144170087623213
      ],
      [
        " cry",
        -10.145258851898419
      ],
      [
        " stage",
        -10.14619830991289
      ],
      [
        " lisa",
        -10.146338235735271
      ],
      [
        " *chi:\tone.",
        -10.146776478821437
      ],
      [
        " *chi:\tmum,",
        -10.146902991217232
      ],
      [
        " yes]",
        -10.147025227685837
      ],
      [
        "who",
        -10.147594167317688
      ],
      [
        "ck",
        -10.14759605052317
      ],
      [
        "pe",
        -10.148213713405465
      ],
      [
        " puppet]",
        -10.14832429351966
      ],
      [
        "p.",
        -10.148621728749283
      ],
      [
        "she",
        -10.149199994481183
      ],
      [
        " auntie",
        -10.149435509255715
      ],
      [
        " expect",
        -10.149502578700698
      ],
      [
        " control",
        -10.151244661197342
      ],
      [
        " fox",
        -10.151340387913555
      ],
      [
        "9]",
        -10.151535831806491
      ],
      [
        " play.",
        -10.151942314203257
      ],
      [
        " eleanor",
        -10.152041865389059
      ],
      [
        " choose",
        -10.152628264039638
      ],
      [
        " awww",
        -10.152728160565804
      ],
      [
        " son",
        -10.152759328442876
      ],
      [
        " riding",
        -10.152905217930837
      ],
      [
        "zz",
        -10.153024808435028
      ],
      [
        " four,",
        -10.153162748796731
      ],
      [
        " match",
        -10.15323900132217
      ],
      [
        " basket",
        -10.153531111801083
      ],
      [
        " doin'",
        -10.15355942755872
      ],
      [
        " magic",
        -10.15357781249163
      ],
      [
        " %add:\tto",
        -10.153594364586867
      ],
      [
        " meat",
        -10.155261637262917
      ],
      [
        " balloon",
        -10.155290742845759
      ],
      [
        " boy?",
        -10.156276164236543
      ],
      [
        " sis",
        -10.15679040376125
      ],
      [
        " *mch:\tyou",
        -10.156876625840834
      ],
      [
        " mouth]",
        -10.157231011378084
      ],
      [
        " others",
        -10.157347744807993
      ],
      [
        " me!",
        -10.157746770730999
      ],
      [
        " lord",
        -10.157827521208574
      ],
      [
        " corn",
        -10.15807008582193
      ],
      [
        " recorder",
        -10.158104198799945
      ],
      [
        " *exp:\tum",
        -10.15820182617454
      ],
      [
        " something?",
        -10.158577947776434
      ],
      [
        " away]",
        -10.158745550067371
      ],
      [
        "'cause",
        -10.158921142003553
      ],
      [
        " *tea:\twhat",
        -10.159413622644355
      ],
      [
        " test",
        -10.159515090972477
      ],
      [
        "gu",
        -10.159644647613087
      ],
      [
        " poo",
        -10.160231064782176
      ],
      [
        " i...",
        -10.160387675004987
      ],
      [
        " snake",
        -10.160455758555589
      ],
      [
        " keeps",
        -10.16063957291502
      ],
      [
        " plane",
        -10.160930757963857
      ],
      [
        " walked",
        -10.161567552300703
      ],
      [
        " sa",
        -10.161635522950704
      ],
      [
        " *chi:\they.",
        -10.16183864445203
      ],
      [
        " wet.",
        -10.162008764204302
      ],
      [
        "line",
        -10.16269041950279
      ],
      [
        " *mot:\tstop",
        -10.163248524469186
      ],
      [
        " [looking",
        -10.163344608845879
      ],
      [
        " *chi:\tyyy",
        -10.163882170740706
      ],
      [
        " possible",
        -10.164390809276133
      ],
      [
        " *fat:\tyes",
        -10.164768128011337
      ],
      [
        " *chi:\tw",
        -10.164786873718576
      ],
      [
        " empty",
        -10.164802161479715
      ],
      [
        " opened",
        -10.165029060018641
      ],
      [
        " easier",
        -10.165127730863139
      ],
      [
        " *inv:\tshe",
        -10.165447887707916
      ],
      [
        " *chi:\twatch",
        -10.165985253453034
      ],
      [
        " *chi:\tgood",
        -10.1665601320334
      ],
      [
        " afraid",
        -10.167369709096324
      ],
      [
        " picking",
        -10.167371582303014
      ],
      [
        " fight",
        -10.168322447808876
      ],
      [
        " church",
        -10.168719642041118
      ],
      [
        " barn",
        -10.169100503830403
      ],
      [
        "for",
        -10.169324586550275
      ],
      [
        " *chi:\tyour",
        -10.169591282453126
      ],
      [
        " *ric:\t",
        -10.169841362071185
      ],
      [
        " base]",
        -10.16990269735042
      ],
      [
        " cow.",
        -10.170607429259178
      ],
      [
        " driver",
        -10.170705220176092
      ],
      [
        "they",
        -10.172192449373135
      ],
      [
        " on!",
        -10.172526809691867
      ],
      [
        " wand",
        -10.172746368859135
      ],
      [
        " lying",
        -10.173234721731237
      ],
      [
        " built",
        -10.1750715140803
      ],
      [
        " chair?",
        -10.175782594129382
      ],
      [
        " *exp:\tokay",
        -10.175803189928274
      ],
      [
        " fireman",
        -10.176208141762991
      ],
      [
        " uncle",
        -10.176416324447919
      ],
      [
        " pause",
        -10.17643486781322
      ],
      [
        " *nan:\tyou",
        -10.176703846702765
      ],
      [
        " jenny",
        -10.17694784037402
      ],
      [
        " those.",
        -10.177393914531855
      ],
      [
        " owl",
        -10.177899591365481
      ],
      [
        " [j",
        -10.178306017308728
      ],
      [
        " plant",
        -10.178329589403457
      ],
      [
        " goodness.",
        -10.17881180316288
      ],
      [
        " nice?",
        -10.179207691784658
      ],
      [
        " ya?",
        -10.179432844464586
      ],
      [
        " airplane",
        -10.17943442890274
      ],
      [
        " team",
        -10.179657631868778
      ],
      [
        " %add:\tinv",
        -10.17998140767343
      ],
      [
        " *exp:\tand",
        -10.180052420547565
      ],
      [
        " thanks",
        -10.180913155971888
      ],
      [
        " *inv:\tthere's",
        -10.181148565791528
      ],
      [
        " *chi:\tbe",
        -10.181189280335595
      ],
      [
        "yes.",
        -10.181260966432875
      ],
      [
        " cups",
        -10.181444409709313
      ],
      [
        " *chi:\t'",
        -10.182118364081123
      ],
      [
        " mummie",
        -10.18262852561866
      ],
      [
        " zoo",
        -10.183330376990915
      ],
      [
        " innit?",
        -10.184118337171906
      ],
      [
        " laugh",
        -10.184249941261815
      ],
      [
        " french",
        -10.184781540216058
      ],
      [
        " *chi:\t[giggles]",
        -10.185232779077205
      ],
      [
        "two",
        -10.185235231003027
      ],
      [
        " fallen",
        -10.185288260351225
      ],
      [
        " suit",
        -10.185631179584938
      ],
      [
        "igh",
        -10.186287491735573
      ],
      [
        " background",
        -10.186485191059841
      ],
      [
        " *chi:\tooh.",
        -10.186662622285017
      ],
      [
        " *chi:\tplay",
        -10.186707061162902
      ],
      [
        " *mot:\tuhoh",
        -10.186866101072454
      ],
      [
        "cing",
        -10.187413114275689
      ],
      [
        " particularly",
        -10.187423188708808
      ],
      [
        " mary",
        -10.187615418414481
      ],
      [
        " coloring",
        -10.187793925842758
      ],
      [
        " notice",
        -10.189006398590834
      ],
      [
        " easter",
        -10.189039227971804
      ],
      [
        " pulling",
        -10.189685438885423
      ],
      [
        "ance",
        -10.189688696398388
      ],
      [
        " unless",
        -10.189862169609107
      ],
      [
        " act",
        -10.190611714703127
      ],
      [
        " she'd",
        -10.190637688805953
      ],
      [
        " yo",
        -10.190680112041207
      ],
      [
        " eh?",
        -10.191304361217654
      ],
      [
        " goes.",
        -10.191333975745227
      ],
      [
        " pre",
        -10.19176823568645
      ],
      [
        " caterpillar",
        -10.192489886554934
      ],
      [
        " *mch:\txxx",
        -10.192889738869331
      ],
      [
        " tower",
        -10.192912845349326
      ],
      [
        " sarah",
        -10.19309879794278
      ],
      [
        " bedroom",
        -10.193984705819904
      ],
      [
        " herself",
        -10.194096733818188
      ],
      [
        "house",
        -10.194823916579862
      ],
      [
        "8]",
        -10.194857395996912
      ],
      [
        " film",
        -10.195060216491978
      ],
      [
        " eggs",
        -10.195161806728203
      ],
      [
        " laughs",
        -10.196518541728778
      ],
      [
        " club",
        -10.19661966363494
      ],
      [
        " *fat:\tlook",
        -10.197085341288442
      ],
      [
        "car",
        -10.197342905685781
      ],
      [
        " wipe",
        -10.198453266848095
      ],
      [
        " *chi:\tba",
        -10.199684741343166
      ],
      [
        "du",
        -10.200312482035791
      ],
      [
        "ard",
        -10.200601401587974
      ],
      [
        " dump",
        -10.200744196708266
      ],
      [
        " *chi:\thuh.",
        -10.201796944891605
      ],
      [
        "yes",
        -10.201845708698322
      ],
      [
        " y'",
        -10.202776548589014
      ],
      [
        " involved",
        -10.202982578065807
      ],
      [
        " decided",
        -10.203065295063066
      ],
      [
        " trip",
        -10.204412443223983
      ],
      [
        "ies.",
        -10.204613833635795
      ],
      [
        "out",
        -10.204686407755979
      ],
      [
        " laughing",
        -10.205491112822564
      ],
      [
        " rustling]",
        -10.205576047079948
      ],
      [
        " *mot:\tgot",
        -10.206771847578233
      ],
      [
        " *mot:\tat",
        -10.207201444521342
      ],
      [
        " *inv:\tdoes",
        -10.207228458358387
      ],
      [
        " cream.",
        -10.207739246898687
      ],
      [
        " worth",
        -10.208651377216848
      ],
      [
        " *mot:\tpush",
        -10.209180702034255
      ],
      [
        " sam",
        -10.20921399986852
      ],
      [
        " themselves",
        -10.209598061102785
      ],
      [
        " action",
        -10.21071977554643
      ],
      [
        "ging",
        -10.211046080359164
      ],
      [
        " yyy",
        -10.211415803603531
      ],
      [
        " *mot:\tw",
        -10.211713460663947
      ],
      [
        " mickey",
        -10.212528477213903
      ],
      [
        " mess.",
        -10.2131630845447
      ],
      [
        " 1",
        -10.213333865237352
      ],
      [
        " spot",
        -10.213537997170441
      ],
      [
        "led",
        -10.213613647722894
      ],
      [
        " tonight",
        -10.214101808653082
      ],
      [
        " *chi:\td",
        -10.214723446303626
      ],
      [
        " dunno.",
        -10.215487692848484
      ],
      [
        " mama.",
        -10.21560284355306
      ],
      [
        "okay.",
        -10.215765844674792
      ],
      [
        " down,",
        -10.215862656408865
      ],
      [
        " lock",
        -10.216110142170507
      ],
      [
        " rings",
        -10.21617086193172
      ],
      [
        " mat",
        -10.216324778042349
      ],
      [
        " price",
        -10.216432640357048
      ],
      [
        " *fat:\tmhm.",
        -10.216899307755952
      ],
      [
        " *mot:\tchi",
        -10.216928639063752
      ],
      [
        " *mot:\tlooks",
        -10.217582959156761
      ],
      [
        "ze",
        -10.217757808942029
      ],
      [
        "ers.",
        -10.217995244111446
      ],
      [
        " *fat:\tso",
        -10.218117677895188
      ],
      [
        " mad",
        -10.220237734411018
      ],
      [
        " tall",
        -10.220380604702445
      ],
      [
        " broken.",
        -10.221478373290775
      ],
      [
        " *chi:\tdat",
        -10.22200507739892
      ],
      [
        " speaking",
        -10.223193994544651
      ],
      [
        " teeth.",
        -10.22335080387115
      ],
      [
        "ped",
        -10.223571845082873
      ],
      [
        " programme",
        -10.223660117829102
      ],
      [
        " pages",
        -10.223997375071754
      ],
      [
        " slow",
        -10.224209189471487
      ],
      [
        "6]",
        -10.225359115577202
      ],
      [
        "okay",
        -10.225860240037624
      ],
      [
        " head?",
        -10.226411872887795
      ],
      [
        " [laughing]",
        -10.227608314166794
      ],
      [
        " aha.",
        -10.22793546900027
      ],
      [
        " jwww's",
        -10.227978041323361
      ],
      [
        " *mot:\tlittle",
        -10.228181971968691
      ],
      [
        " nina",
        -10.228190200697954
      ],
      [
        " sixteen",
        -10.22863389069632
      ],
      [
        " *exp:\twell",
        -10.230155537529502
      ],
      [
        " knocked",
        -10.230572720307672
      ],
      [
        " labour",
        -10.230629275855112
      ],
      [
        " *tea:\ti",
        -10.230833049652574
      ],
      [
        " grass",
        -10.230842416549596
      ],
      [
        " date",
        -10.231734430646398
      ],
      [
        " [f",
        -10.23253573823608
      ],
      [
        " tail.",
        -10.233228484454454
      ],
      [
        " jelly",
        -10.233808800360208
      ],
      [
        "[makes",
        -10.233965933305067
      ],
      [
        " wo",
        -10.234127785413289
      ],
      [
        " kick",
        -10.23428082510629
      ],
      [
        " bridge",
        -10.234434227028945
      ],
      [
        " lucky",
        -10.234541794220075
      ],
      [
        "[laughing].",
        -10.235009037763977
      ],
      [
        " inside.",
        -10.235021660750292
      ],
      [
        " sticks",
        -10.235280005600735
      ],
      [
        " sick",
        -10.23538878042753
      ],
      [
        " sure.",
        -10.23575204735194
      ],
      [
        " *mot:\tgood.",
        -10.235989057804638
      ],
      [
        "does",
        -10.236970269474764
      ],
      [
        " [singing]",
        -10.237129363366634
      ],
      [
        " fence",
        -10.237724702433505
      ],
      [
        " example",
        -10.237734526353545
      ],
      [
        " figures",
        -10.237995807850975
      ],
      [
        " *chi:\twill",
        -10.238085913431224
      ],
      [
        "time",
        -10.238469396506403
      ],
      [
        " *chi:\tuhuh.",
        -10.238717910781599
      ],
      [
        " seven.",
        -10.238732854587667
      ],
      [
        " eight.",
        -10.23883692772549
      ],
      [
        " orange.",
        -10.239532209828498
      ],
      [
        "sit",
        -10.239877950936695
      ],
      [
        " painting",
        -10.24026591238448
      ],
      [
        " hair?",
        -10.240295543452202
      ],
      [
        " shapes",
        -10.241626101821137
      ],
      [
        " ann",
        -10.241692080803661
      ],
      [
        "oop",
        -10.242010970550151
      ],
      [
        " fourteen",
        -10.242500510640745
      ],
      [
        " *inv:\tthey",
        -10.242743769550408
      ],
      [
        " thursday",
        -10.242928695508827
      ],
      [
        " *inv:\twho",
        -10.243149029065618
      ],
      [
        " *chi:\t[puts",
        -10.243549286999748
      ],
      [
        " chicken.",
        -10.244033928942347
      ],
      [
        "oo.",
        -10.244325382495402
      ],
      [
        " sets",
        -10.244498246414555
      ],
      [
        " joe",
        -10.24486288487185
      ],
      [
        " mouse.",
        -10.245556336997257
      ],
      [
        " mother's",
        -10.246069128752346
      ],
      [
        " anywhere",
        -10.246382997255093
      ],
      [
        " yesterday.",
        -10.246507039013593
      ],
      [
        " *nan:\twhat",
        -10.246916963220286
      ],
      [
        " today,",
        -10.247467708881151
      ],
      [
        " closed",
        -10.248020367076263
      ],
      [
        " *fat:\twho",
        -10.24822599930456
      ],
      [
        " lunch.",
        -10.24835710476247
      ],
      [
        " dogs",
        -10.248819435054898
      ],
      [
        "ly.",
        -10.249387084579215
      ],
      [
        "uff",
        -10.249579244999973
      ],
      [
        "because",
        -10.25116951950611
      ],
      [
        " *mot:\toops",
        -10.251687458245247
      ],
      [
        " *chi:\tk",
        -10.251789858477704
      ],
      [
        " birds",
        -10.25181903639075
      ],
      [
        " clearly",
        -10.252103000377335
      ],
      [
        " *e:\t",
        -10.252105685295176
      ],
      [
        " mhm",
        -10.253104610588466
      ],
      [
        " builder",
        -10.25391727964
      ],
      [
        " stuck.",
        -10.254058056676268
      ],
      [
        " beat",
        -10.254471513041288
      ],
      [
        " salt",
        -10.254482499727212
      ],
      [
        " correct",
        -10.254865503884249
      ],
      [
        " *chi:\tthree.",
        -10.254980901786974
      ],
      [
        " glad",
        -10.255571623163046
      ],
      [
        " really.",
        -10.25567150787007
      ],
      [
        " pro",
        -10.255923374126883
      ],
      [
        " milk?",
        -10.256171026918858
      ],
      [
        " *inv:\tright.",
        -10.256249156787629
      ],
      [
        " *nic:\t",
        -10.257750765903161
      ],
      [
        "ries",
        -10.257758139937012
      ],
      [
        " evening",
        -10.257801147359931
      ],
      [
        " tin",
        -10.258027746142488
      ],
      [
        " *mar:\tyeah",
        -10.258109316997968
      ],
      [
        " starting",
        -10.258873342325105
      ],
      [
        " *chi:\tor",
        -10.259181165861762
      ],
      [
        " *chi:\tow.",
        -10.259420185967468
      ],
      [
        " pin",
        -10.259435282215804
      ],
      [
        " *chi:\tanother",
        -10.2600523277465
      ],
      [
        " sand",
        -10.26014324815003
      ],
      [
        "j",
        -10.260533280391233
      ],
      [
        " pants",
        -10.260570822270736
      ],
      [
        " gb",
        -10.261307311939161
      ],
      [
        "side",
        -10.261557044158518
      ],
      [
        " look!",
        -10.261668096677488
      ],
      [
        " balls",
        -10.261772332674594
      ],
      [
        " ga",
        -10.263080814312334
      ],
      [
        " pitched",
        -10.263295631546324
      ],
      [
        " tickle",
        -10.264746423309383
      ],
      [
        " pencil",
        -10.265494037714515
      ],
      [
        " state",
        -10.265776858031817
      ],
      [
        "ex",
        -10.266452182624686
      ],
      [
        " *chi:\t[coughs]",
        -10.267157615207973
      ],
      [
        " jeannine",
        -10.267177931181077
      ],
      [
        " *chi:\t[laugh]",
        -10.26720546566752
      ],
      [
        " *chi:\ter",
        -10.267399207039869
      ],
      [
        "i've",
        -10.268137086840401
      ],
      [
        "where's",
        -10.268388079887139
      ],
      [
        " everything.",
        -10.268789936983236
      ],
      [
        " yum",
        -10.268949143638253
      ],
      [
        " camera]",
        -10.269109617354033
      ],
      [
        "mm.",
        -10.269475226903872
      ],
      [
        " mind.",
        -10.269795178345326
      ],
      [
        " therefore",
        -10.269960077736638
      ],
      [
        " *mot:\toops.",
        -10.27029086684242
      ],
      [
        " games",
        -10.270418728412178
      ],
      [
        " bee",
        -10.270564911781282
      ],
      [
        " tidy",
        -10.27115733046027
      ],
      [
        " clap",
        -10.27156226577285
      ],
      [
        "ward",
        -10.271988078415948
      ],
      [
        " rabbit.",
        -10.273061745707182
      ],
      [
        " spill",
        -10.274170489657001
      ],
      [
        " yet?",
        -10.274386453418435
      ],
      [
        " want?",
        -10.275007857113044
      ],
      [
        "what's",
        -10.275323835135403
      ],
      [
        " *fat:\ti'm",
        -10.276317571634426
      ],
      [
        " enjoy",
        -10.276808776518887
      ],
      [
        "ham",
        -10.277182974843653
      ],
      [
        " steve",
        -10.277289377298473
      ],
      [
        " sticker",
        -10.277305101938506
      ],
      [
        " coffee.",
        -10.277355318610995
      ],
      [
        " slice",
        -10.277448493922245
      ],
      [
        " *mot:\twhoa",
        -10.277514064662526
      ],
      [
        " basically",
        -10.279838902829862
      ],
      [
        "ug",
        -10.280344843666402
      ],
      [
        " development",
        -10.280678014265433
      ],
      [
        " lwww",
        -10.28152211998935
      ],
      [
        " doggie",
        -10.281961615388909
      ],
      [
        " weekend",
        -10.282631944476796
      ],
      [
        " *chi:\too",
        -10.28380794322095
      ],
      [
        "good",
        -10.283851980594857
      ],
      [
        " motion",
        -10.284818723468415
      ],
      [
        "an'",
        -10.285055903723283
      ],
      [
        " *chi:\tthose",
        -10.28550302560707
      ],
      [
        " *geo:\t",
        -10.286464794643006
      ],
      [
        " girl?",
        -10.286866653034942
      ],
      [
        " grandad",
        -10.28744694737576
      ],
      [
        "nd",
        -10.288057144403883
      ],
      [
        " queen",
        -10.288135142716424
      ],
      [
        "chi",
        -10.288135719981717
      ],
      [
        " *chi:\tnope",
        -10.289502228569052
      ],
      [
        " good!",
        -10.289629657261749
      ],
      [
        " farm.",
        -10.289669757446521
      ],
      [
        " *chi:\tan",
        -10.29003682646384
      ],
      [
        " con",
        -10.291106612730278
      ],
      [
        "par",
        -10.293432015689298
      ],
      [
        " pile",
        -10.293747782166609
      ],
      [
        " ar",
        -10.29414426427968
      ],
      [
        " concerned",
        -10.294617486776179
      ],
      [
        " chew",
        -10.295432886246484
      ],
      [
        " park.",
        -10.296028885012369
      ],
      [
        " stairs",
        -10.297204480966492
      ],
      [
        " nine.",
        -10.297763565774261
      ],
      [
        " [continues",
        -10.298083058959811
      ],
      [
        " *chi:\tbye",
        -10.29885680333705
      ],
      [
        " follow",
        -10.299242146211697
      ],
      [
        " imagine",
        -10.299717710018783
      ],
      [
        " period",
        -10.299871443677848
      ],
      [
        " hook",
        -10.301269109780698
      ],
      [
        " strange",
        -10.301788322617426
      ],
      [
        " her?",
        -10.302384220970556
      ],
      [
        " major",
        -10.30240428964045
      ],
      [
        " hat?",
        -10.303760196670474
      ],
      [
        " tractor",
        -10.303982848667353
      ],
      [
        " double",
        -10.304982696784254
      ],
      [
        " him,",
        -10.305098159464833
      ],
      [
        " *mot:\tcould",
        -10.305132946091526
      ],
      [
        " myself.",
        -10.306142112152674
      ],
      [
        "ail",
        -10.306471348422788
      ],
      [
        " mail",
        -10.3065282579416
      ],
      [
        " upset",
        -10.307212087633287
      ],
      [
        "give",
        -10.307361258042562
      ],
      [
        " elephant.",
        -10.307671863594251
      ],
      [
        "end",
        -10.307959871186755
      ],
      [
        " *inv:\tgood",
        -10.308015996056572
      ],
      [
        " wow.",
        -10.30823447253249
      ],
      [
        " [moves",
        -10.30835169454709
      ],
      [
        " staff",
        -10.30861624409029
      ],
      [
        " *exp:\tyeah",
        -10.30918634623054
      ],
      [
        " bad.",
        -10.30930257909286
      ],
      [
        " boxes",
        -10.309633017553079
      ],
      [
        " engine.",
        -10.309684340734531
      ],
      [
        " haha.",
        -10.30969678998874
      ],
      [
        " dere.",
        -10.310069261894728
      ],
      [
        " *chi:\tmake",
        -10.310365470681532
      ],
      [
        " row",
        -10.311453797113991
      ],
      [
        " ahead.",
        -10.311643963228125
      ],
      [
        "ou",
        -10.311970634327142
      ],
      [
        " van",
        -10.312099442834082
      ],
      [
        " hate",
        -10.312114472529451
      ],
      [
        " spend",
        -10.31254266660547
      ],
      [
        "work",
        -10.312982785157956
      ],
      [
        " stack",
        -10.313020044231676
      ],
      [
        " *chi:\tshall",
        -10.313084905861146
      ],
      [
        " experience",
        -10.313459262417037
      ],
      [
        " helping",
        -10.314452303248004
      ],
      [
        " picture?",
        -10.315106038433072
      ],
      [
        " *fat:\tbut",
        -10.315582488392605
      ],
      [
        "ver",
        -10.315724642727027
      ],
      [
        " quack",
        -10.316099880887755
      ],
      [
        " *fat:\tare",
        -10.316183670637741
      ],
      [
        " throwing",
        -10.316305651601573
      ],
      [
        " showing",
        -10.316433416754863
      ],
      [
        " roof",
        -10.316547982600387
      ],
      [
        " none",
        -10.316784417861417
      ],
      [
        " road.",
        -10.316925686428725
      ],
      [
        " toy.",
        -10.317593665342605
      ],
      [
        " up!",
        -10.318781829498395
      ],
      [
        " *nan:\toh",
        -10.319200359838732
      ],
      [
        " district",
        -10.319462835574443
      ],
      [
        " firstname",
        -10.319484885225306
      ],
      [
        " calling",
        -10.320117142463253
      ],
      [
        " *chi:\t[sings]",
        -10.320463018956517
      ],
      [
        " *par:\tmhm",
        -10.321083999453325
      ],
      [
        " color.",
        -10.321122089703618
      ],
      [
        " union",
        -10.32128584922571
      ],
      [
        " closes",
        -10.321852413000938
      ],
      [
        " second.",
        -10.322781872276618
      ],
      [
        " future",
        -10.323773077005038
      ],
      [
        " child.",
        -10.323890703659785
      ],
      [
        " [no",
        -10.324089256262491
      ],
      [
        " shoe.",
        -10.324113275579665
      ],
      [
        "he's",
        -10.324477255910395
      ],
      [
        " crying.",
        -10.325164831169118
      ],
      [
        " cutting",
        -10.325386941940138
      ],
      [
        "[vocalization]",
        -10.325461043706078
      ],
      [
        "ld",
        -10.32578974764184
      ],
      [
        " hello.",
        -10.32585394442373
      ],
      [
        " farmer",
        -10.325930303894928
      ],
      [
        " z",
        -10.326311276857481
      ],
      [
        "more",
        -10.326641629207934
      ],
      [
        " rub",
        -10.326931710097519
      ],
      [
        " tax",
        -10.32700435734818
      ],
      [
        " wide",
        -10.327045237004592
      ],
      [
        " comb",
        -10.32775680201173
      ],
      [
        " *mot:\tcan't",
        -10.328265900433703
      ],
      [
        " there!",
        -10.328328980518775
      ],
      [
        " noise?",
        -10.328347879586165
      ],
      [
        " fast.",
        -10.328563833437919
      ],
      [
        " *chi:\tbaby.",
        -10.328691178026435
      ],
      [
        " written",
        -10.328970156863413
      ],
      [
        " alone",
        -10.329062598208974
      ],
      [
        " holes",
        -10.330476260483202
      ],
      [
        " hands]",
        -10.33073408645483
      ],
      [
        " tonight.",
        -10.330980056310253
      ],
      [
        " *inv:\tmaybe",
        -10.33126199384984
      ],
      [
        " piggy",
        -10.331601974905631
      ],
      [
        " fixed",
        -10.331627462159387
      ],
      [
        " *mot:\tanother",
        -10.332998145397514
      ],
      [
        " *lau:\t",
        -10.333361539581974
      ],
      [
        " seeing",
        -10.333575224211272
      ],
      [
        " dee",
        -10.333629538004248
      ],
      [
        " somethin'",
        -10.333878973791437
      ],
      [
        " penny",
        -10.334732677184448
      ],
      [
        " cookie.",
        -10.334845877336416
      ],
      [
        " %add:\tste",
        -10.335067778381152
      ],
      [
        " kitchen.",
        -10.33522179081198
      ],
      [
        " *loi:\twhat",
        -10.335568635069519
      ],
      [
        " knee",
        -10.336427069055505
      ],
      [
        " born",
        -10.336616432578303
      ],
      [
        " woke",
        -10.33684243904002
      ],
      [
        " work?",
        -10.33693805639552
      ],
      [
        " snap",
        -10.339129594241657
      ],
      [
        " ya.",
        -10.339409607424482
      ],
      [
        " lines",
        -10.34016978061554
      ],
      [
        " *mch:\tno",
        -10.340237448048086
      ],
      [
        " sharp",
        -10.3403156410902
      ],
      [
        " silence",
        -10.340346270169727
      ],
      [
        " news",
        -10.341184217645019
      ],
      [
        " rid",
        -10.341686909463291
      ],
      [
        " shop.",
        -10.342052245488274
      ],
      [
        " touches",
        -10.342192100150195
      ],
      [
        " nan",
        -10.342207551329484
      ],
      [
        " mix",
        -10.342266093045078
      ],
      [
        " beads",
        -10.342379579229966
      ],
      [
        " eaten",
        -10.342789119890941
      ],
      [
        " way?",
        -10.342862122805732
      ],
      [
        " *chi:\tmhm",
        -10.34291407147582
      ],
      [
        " married",
        -10.343843572274643
      ],
      [
        " several",
        -10.343932649466744
      ],
      [
        " shakes",
        -10.344046573608185
      ],
      [
        " charge",
        -10.344140078759825
      ],
      [
        " *tca:\t",
        -10.344725376302554
      ],
      [
        " *chi:\twait",
        -10.345322804491335
      ],
      [
        " true",
        -10.345336164257187
      ],
      [
        " tea?",
        -10.345568014449654
      ],
      [
        " dream",
        -10.345852839157049
      ],
      [
        " gra",
        -10.346244604961147
      ],
      [
        " watch.",
        -10.346937054614152
      ],
      [
        "eat",
        -10.348870482095906
      ],
      [
        " *mot:\teat",
        -10.348914844793724
      ],
      [
        " *fat:\tthis",
        -10.348968540918428
      ],
      [
        " clip",
        -10.349912987302858
      ],
      [
        " pa",
        -10.350520642847416
      ],
      [
        " *mot:\tan",
        -10.350890638977766
      ],
      [
        " beach",
        -10.351143013393454
      ],
      [
        " tip",
        -10.351165369121324
      ],
      [
        " [he",
        -10.351205330089268
      ],
      [
        " tissue",
        -10.35180818804809
      ],
      [
        " *chi:\tcould",
        -10.352457605138737
      ],
      [
        " *mot:\taw",
        -10.352735413852038
      ],
      [
        " *mot:\td'",
        -10.353058873829193
      ],
      [
        "row",
        -10.35317567814036
      ],
      [
        " areas",
        -10.353784763945976
      ],
      [
        "yeah",
        -10.353929307533352
      ],
      [
        " yours",
        -10.353957788469742
      ],
      [
        " *mot:\topen",
        -10.354577510406436
      ],
      [
        " thirteen",
        -10.35536620593634
      ],
      [
        " *chi:\tlittle",
        -10.355545754153127
      ],
      [
        " meal",
        -10.355677696218947
      ],
      [
        "lic",
        -10.355913870538437
      ],
      [
        " blow",
        -10.35619995679102
      ],
      [
        "den",
        -10.356983937815833
      ],
      [
        " garage",
        -10.357092625766942
      ],
      [
        " *mot:\tplease",
        -10.357432165149543
      ],
      [
        "y's",
        -10.357703965372258
      ],
      [
        "take",
        -10.357776536563687
      ],
      [
        " continue",
        -10.359145041929963
      ],
      [
        " *exp:\tmhm.",
        -10.359147157273519
      ],
      [
        " candy",
        -10.359466051584516
      ],
      [
        " issue",
        -10.359523375968003
      ],
      [
        " bat",
        -10.360022722043114
      ],
      [
        " horses",
        -10.36007622127217
      ],
      [
        " fits",
        -10.36015524023723
      ],
      [
        " tray",
        -10.360445479405993
      ],
      [
        " *mot:\twere",
        -10.360500769249237
      ],
      [
        " *chi:\t[take",
        -10.361801397742624
      ],
      [
        " circle.",
        -10.361819926445431
      ],
      [
        " *lou:\t",
        -10.362527359511054
      ],
      [
        " asleep",
        -10.362614066864769
      ],
      [
        " wi",
        -10.362647441394799
      ],
      [
        " *gma:\tno",
        -10.363421045749346
      ],
      [
        " way,",
        -10.363643473836824
      ],
      [
        " wife",
        -10.364012688016144
      ],
      [
        " *mot:\tg",
        -10.364074309347483
      ],
      [
        " dancing",
        -10.365306456949188
      ],
      [
        " [cj",
        -10.36625286080631
      ],
      [
        " better?",
        -10.366562157698453
      ],
      [
        " actually.",
        -10.36675019224882
      ],
      [
        "men",
        -10.366889676781533
      ],
      [
        " *mot:\tme",
        -10.367398755875179
      ],
      [
        " drink?",
        -10.367521532649038
      ],
      [
        "sure",
        -10.367535147310006
      ],
      [
        " iron",
        -10.367588879187604
      ],
      [
        "wh",
        -10.36798882747743
      ],
      [
        " jacket",
        -10.36850622102201
      ],
      [
        " hammer",
        -10.368903567019672
      ],
      [
        " bother",
        -10.368961645168078
      ],
      [
        " bright",
        -10.36898057357929
      ],
      [
        " *chi:\t[gasps]",
        -10.369076645898202
      ],
      [
        " otherwise",
        -10.369103688806629
      ],
      [
        " [overlap",
        -10.369747160419648
      ],
      [
        "ldes/childes_uk/",
        -10.369851044407042
      ],
      [
        " pretending",
        -10.372345031011333
      ],
      [
        " *gai:\t",
        -10.37279239376194
      ],
      [
        " lived",
        -10.373324610548867
      ],
      [
        " right!",
        -10.373476938239925
      ],
      [
        " [bef",
        -10.374273392537425
      ],
      [
        " *chi:\tdad",
        -10.374639096301959
      ],
      [
        " says,",
        -10.375359269367612
      ],
      [
        " ago.",
        -10.37756330719998
      ],
      [
        " higher",
        -10.377898820219098
      ],
      [
        " moon.",
        -10.378097693329476
      ],
      [
        " *mot:\tmummy's",
        -10.378285824042653
      ],
      [
        " pulled",
        -10.379330605402581
      ],
      [
        " *chi:\tread",
        -10.380982804041441
      ],
      [
        " purse",
        -10.381087195588618
      ],
      [
        " cor",
        -10.381789539035474
      ],
      [
        " response",
        -10.382537693214346
      ],
      [
        " *chi:\toh,",
        -10.382741495354374
      ],
      [
        " single",
        -10.383147212707168
      ],
      [
        " section",
        -10.383491846613747
      ],
      [
        " *inv:\there",
        -10.383505344992539
      ],
      [
        " pie",
        -10.383650439062205
      ],
      [
        " 'ere",
        -10.383870540881048
      ],
      [
        "ly]",
        -10.384014335390855
      ],
      [
        " become",
        -10.38426033534694
      ],
      [
        " shot",
        -10.386414265420262
      ],
      [
        " lamb",
        -10.386553620761283
      ],
      [
        " crocodile",
        -10.38676161865773
      ],
      [
        " *chi:\tplease",
        -10.386806119112855
      ],
      [
        " [whispers].",
        -10.386996205229
      ],
      [
        " pair",
        -10.387030249832087
      ],
      [
        " toilet",
        -10.38727690942503
      ],
      [
        " decide",
        -10.387575171603528
      ],
      [
        "um.",
        -10.388106982533827
      ],
      [
        "lin",
        -10.388113776150174
      ],
      [
        " [they",
        -10.388763432209611
      ],
      [
        " light.",
        -10.388962461856583
      ],
      [
        " houses",
        -10.389228929867286
      ],
      [
        " *chi:\tha",
        -10.39010675410335
      ],
      [
        "che",
        -10.390635816381327
      ],
      [
        " room?",
        -10.390666125138939
      ],
      [
        " door?",
        -10.390920201299952
      ],
      [
        " snack",
        -10.391112531347819
      ],
      [
        " yourself.",
        -10.391238483587067
      ],
      [
        " dem",
        -10.391423768245811
      ],
      [
        " *mot:\tshow",
        -10.391963812727337
      ],
      [
        " windows",
        -10.392133387736731
      ],
      [
        " ears.",
        -10.393321048090517
      ],
      [
        " *mot:\t[laugh]",
        -10.393739003312188
      ],
      [
        " cannot",
        -10.393751429953543
      ],
      [
        " slightly",
        -10.393904671234253
      ],
      [
        " *chi:\tblue.",
        -10.394197345162713
      ],
      [
        " soon.",
        -10.394394799657052
      ],
      [
        " nose?",
        -10.39547703848249
      ],
      [
        " cereal",
        -10.395604384192772
      ],
      [
        " join",
        -10.39579646046536
      ],
      [
        "[chuckles].",
        -10.395888897158521
      ],
      [
        "set",
        -10.396265112547955
      ],
      [
        "uhhuh.",
        -10.396270853860148
      ],
      [
        " british",
        -10.396320528721018
      ],
      [
        " fi",
        -10.397104355100183
      ],
      [
        "sing",
        -10.397181719860875
      ],
      [
        " *chi:\tsit",
        -10.397547076863964
      ],
      [
        " sings",
        -10.397653186416486
      ],
      [
        " named",
        -10.397937772489291
      ],
      [
        " butterfly",
        -10.398944141276305
      ],
      [
        " choice",
        -10.399111778749306
      ],
      [
        " nap",
        -10.400104610470938
      ],
      [
        " *chi:\tthat.",
        -10.40133526431177
      ],
      [
        " yyy.",
        -10.401729333946836
      ],
      [
        " *mat:\t",
        -10.401909734303896
      ],
      [
        " nana",
        -10.402137292165769
      ],
      [
        " *fat:\tlet's",
        -10.402821642631014
      ],
      [
        " steps",
        -10.403739350162226
      ],
      [
        " *chi:\teat",
        -10.403770727002149
      ],
      [
        "ence",
        -10.403947177668124
      ],
      [
        " le",
        -10.404114999258258
      ],
      [
        " calls",
        -10.404210634633781
      ],
      [
        " page?",
        -10.404545998788006
      ],
      [
        " cookies",
        -10.404634491115464
      ],
      [
        " chairman",
        -10.40477633631388
      ],
      [
        " *chi:\t[shakes",
        -10.405257451379024
      ],
      [
        " really?",
        -10.40534772996336
      ],
      [
        " oven",
        -10.405542685953488
      ],
      [
        " bear?",
        -10.405601315656615
      ],
      [
        " bowl.",
        -10.406579526901027
      ],
      [
        " puzzle.",
        -10.406589719197509
      ],
      [
        " *chi:\teh.",
        -10.406715074258265
      ],
      [
        " cupboard",
        -10.406832341013981
      ],
      [
        " *chi:\tsay",
        -10.40751851327277
      ],
      [
        " cars.",
        -10.407720187014693
      ],
      [
        " lo",
        -10.40868611157292
      ],
      [
        " cute",
        -10.409327734529981
      ],
      [
        " normal",
        -10.409416941090019
      ],
      [
        " chess",
        -10.409701281231886
      ],
      [
        " field",
        -10.410024475005244
      ],
      [
        " dr",
        -10.410261354445797
      ],
      [
        " hop",
        -10.410900526103326
      ],
      [
        " *mot:\tnice",
        -10.411132128856114
      ],
      [
        " dustbin",
        -10.411305784341085
      ],
      [
        " *chi:\tuhoh.",
        -10.411726908165376
      ],
      [
        " *ann:\t",
        -10.412238463870668
      ],
      [
        " husband",
        -10.412238464253413
      ],
      [
        " stayed",
        -10.412951736322384
      ],
      [
        " following",
        -10.413050481872581
      ],
      [
        "three",
        -10.413312594701683
      ],
      [
        " *mot:\this",
        -10.413950460045664
      ],
      [
        " necklace",
        -10.41412793276496
      ],
      [
        " self",
        -10.414518479499586
      ],
      [
        "ned",
        -10.414544745658015
      ],
      [
        " cuts",
        -10.414700673279476
      ],
      [
        "lie",
        -10.414753088121515
      ],
      [
        " together]",
        -10.414878160615359
      ],
      [
        " scary",
        -10.415261291093804
      ],
      [
        "nny",
        -10.415853052265856
      ],
      [
        " ne",
        -10.416022392938945
      ],
      [
        " [holding",
        -10.416196034874442
      ],
      [
        " deep",
        -10.417021378066899
      ],
      [
        " *inv:\txxx",
        -10.417229515399349
      ],
      [
        " bag]",
        -10.418108013715983
      ],
      [
        " cloth",
        -10.418141622610882
      ],
      [
        " neck",
        -10.418193137077193
      ],
      [
        " dolly",
        -10.418645001119721
      ],
      [
        " fill",
        -10.418796159805336
      ],
      [
        " various",
        -10.418867492122004
      ],
      [
        " se",
        -10.418919432376386
      ],
      [
        " activity",
        -10.42076357113979
      ],
      [
        " ju",
        -10.421037853179953
      ],
      [
        " pushing",
        -10.421165236813351
      ],
      [
        " fa",
        -10.421458849542038
      ],
      [
        " paying",
        -10.42179318179339
      ],
      [
        " jesus",
        -10.421798415682158
      ],
      [
        " *exp:\tright.",
        -10.422394891658914
      ],
      [
        " back]",
        -10.4225098857263
      ],
      [
        " mentioned",
        -10.423306816115698
      ],
      [
        " cool.",
        -10.423345642407202
      ],
      [
        " doll]",
        -10.42339418688738
      ],
      [
        " %add:\tbro",
        -10.42392532345923
      ],
      [
[...]
