{
  "version": "1.0",
  "truncation": null,
  "padding": null,
  "added_tokens": [
    {
      "id": 0,
      "content": "<UNK>",
      "single_word": false,
      "lstrip": false,
      "rstrip": false,
      "normalized": false,
      "special": true
    },
    {
      "id": 1,
      "content": "<PAD>",
      "single_word": false,
      "lstrip": false,
      "rstrip": false,
      "normalized": false,
      "special": true
    },
    {
      "id": 2,
      "content": "<CLS>",
      "single_word": false,
      "lstrip": false,
      "rstrip": false,
      "normalized": false,
      "special": true
    },
    {
      "id": 3,
      "content": "<SEP>",
      "single_word": false,
      "lstrip": false,
      "rstrip": false,
      "normalized": false,
      "special": true
    },
    {
      "id": 4,
      "content": "<MASK>",
      "single_word": false,
      "lstrip": false,
      "rstrip": false,
      "normalized": false,
      "special": true
    }
  ],
  "normalizer": {
    "type": "Sequence",
    "normalizers": [
      {
        "type": "NFD"
      },
      {
        "type": "StripAccents"
      },
      {
        "type": "Lowercase"
      }
    ]
  },
  "pre_tokenizer": {
    "type": "ByteLevel",
    "add_prefix_space": false,
    "trim_offsets": true,
    "use_regex": true
  },
  "post_processor": {
    "type": "ByteLevel",
    "add_prefix_space": true,
    "trim_offsets": true,
    "use_regex": true
  },
  "decoder": {
    "type": "ByteLevel",
    "add_prefix_space": true,
    "trim_offsets": true,
    "use_regex": true
  },
  "model": {
    "type": "Unigram",
    "unk_id": 0,
    "vocab": [
      [
        "<UNK>",
        0.0
      ],
      [
        "<PAD>",
        0.0
      ],
      [
        "<CLS>",
        0.0
      ],
      [
        "<SEP>",
        0.0
      ],
      [
        "<MASK>",
        0.0
      ],
      [
        ":",
        -2.628479806930052
      ],
      [
        "ĉ",
        -2.6292003862803686
      ],
      [
        "*",
        -2.6392421977592004
      ],
      [
        ".",
        -2.8443280035053764
      ],
      [
        "Ġ",
        -3.258645892893698
      ],
      [
        "mot",
        -3.4686134803975452
      ],
      [
        "s",
        -3.505352044964468
      ],
      [
        "chi",
        -3.631773458893772
      ],
      [
        "'",
        -3.657227465677895
      ],
      [
        "?",
        -3.972184803820804
      ],
      [
        "a",
        -4.070233544454897
      ],
      [
        "i",
        -4.142890643192864
      ],
      [
        "Ġthe",
        -4.252362335205749
      ],
      [
        "t",
        -4.320302759589607
      ],
      [
        "o",
        -4.41393676282858
      ],
      [
        ",",
        -4.443123323764958
      ],
      [
        "Ġyou",
        -4.447715690658288
      ],
      [
        "[",
        -4.578034148688838
      ],
      [
        "]",
        -4.5788217758648955
      ],
      [
        "Ġit",
        -4.68414975783322
      ],
      [
        "Ġto",
        -4.846510437480211
      ],
      [
        "h",
        -4.9196084310263934
      ],
      [
        "Ġthat",
        -4.997586113156915
      ],
      [
        "Ġand",
        -5.120879634244494
      ],
      [
        "m",
        -5.235633943905411
      ],
      [
        "n",
        -5.2467074843410515
      ],
      [
        "d",
        -5.269236808317739
      ],
      [
        "Ġin",
        -5.329555863072198
      ],
      [
        "Ġon",
        -5.455123360813172
      ],
      [
        "inv",
        -5.458181577051132
      ],
      [
        "Ġis",
        -5.472107283699666
      ],
      [
        "Ġof",
        -5.4773512045233375
      ],
      [
        "yeah",
        -5.515733586736724
      ],
      [
        "what",
        -5.619711867714086
      ],
      [
        "you",
        -5.681300666640901
      ],
      [
        "y",
        -5.704575253843446
      ],
      [
        "e",
        -5.749281329302422
      ],
      [
        "!",
        -5.7698292621122445
      ],
      [
        "Ġwe",
        -5.772002417705059
      ],
      [
        "and",
        -5.791578969670784
      ],
      [
        "fat",
        -5.793545773692216
      ],
      [
        "ing",
        -5.802342138420084
      ],
      [
        "Ġdo",
        -5.8201033997681115
      ],
      [
        "Ġthis",
        -5.838210048546468
      ],
      [
        "Ġone",
        -5.883867723856499
      ],
      [
        "Ġhe",
        -5.957865080677214
      ],
      [
        "Ġthere",
        -5.996252472158728
      ],
      [
        "Ġwhat",
        -6.04656894265344
      ],
      [
        "that",
        -6.047211043909664
      ],
      [
        "Ġcan",
        -6.091467285900048
      ],
      [
        "Ġhave",
        -6.120354415376635
      ],
      [
        "Ġknow",
        -6.128512682585756
      ],
      [
        "Ġlike",
        -6.146059895705884
      ],
      [
        "Ġfor",
        -6.153380468458083
      ],
      [
        "re",
        -6.15348638122598
      ],
      [
        "Ġthey",
        -6.1628477898393434
      ],
      [
        "Ġgo",
        -6.163467282875478
      ],
      [
        "Ġwas",
        -6.201402635653746
      ],
      [
        "Ġdon",
        -6.208265987732563
      ],
      [
        "Ġwith",
        -6.2104840679914
      ],
      [
        "Ġup",
        -6.236679425411371
      ],
      [
        "Ġyour",
        -6.254338260234054
      ],
      [
        "Ġme",
        -6.297291881067213
      ],
      [
        "Ġare",
        -6.302588489539753
      ],
      [
        "Ġnot",
        -6.369859632541319
      ],
      [
        "...",
        -6.376513568804073
      ],
      [
        "Ġbe",
        -6.389145958572813
      ],
      [
        "yes",
        -6.400042902623911
      ],
      [
        "Ġget",
        -6.426288094802551
      ],
      [
        "Ġxxx",
        -6.428349912643235
      ],
      [
        "Ġgot",
        -6.4477990072833204
      ],
      [
        "ly",
        -6.475181979592488
      ],
      [
        "Ġlook",
        -6.484602119127345
      ],
      [
        "Ġthink",
        -6.5150632897765295
      ],
      [
        "Ġsee",
        -6.526216439755663
      ],
      [
        "okay",
        -6.530460503195924
      ],
      [
        "Ġall",
        -6.545166183111313
      ],
      [
        "Ġshe",
        -6.555989863029549
      ],
      [
        "Ġput",
        -6.556505247682535
      ],
      [
        "ll",
        -6.580238348506667
      ],
      [
        "Ġout",
        -6.60385415100577
      ],
      [
        "Ġhere",
        -6.617793290656872
      ],
      [
        "Ġmy",
        -6.6302937524396555
      ],
      [
        "Ġwant",
        -6.655866578592429
      ],
      [
        "Ġthen",
        -6.685561741451648
      ],
      [
        "ve",
        -6.703511783855742
      ],
      [
        "Ġsome",
        -6.731812004394532
      ],
      [
        "he",
        -6.745514916352912
      ],
      [
        "Ġjust",
        -6.7570173733067325
      ],
      [
        "well",
        -6.810049986065081
      ],
      [
        "the",
        -6.81711341541582
      ],
      [
        "there",
        -6.837951343966676
      ],
      [
        "par",
        -6.854070039683931
      ],
      [
        "Ġthem",
        -6.855562837114691
      ],
      [
        "Ġher",
        -6.861854287906144
      ],
      [
        "Ġdown",
        -6.882556535249321
      ],
      [
        "Ġgoing",
        -6.889376324656091
      ],
      [
        "Ġright",
        -6.889383965251193
      ],
      [
        "Ġabout",
        -6.908900491049927
      ],
      [
        "Ġnow",
        -6.918688606406295
      ],
      [
        "Ġgonna",
        -6.921071007754959
      ],
      [
        "=",
        -6.929646135552495
      ],
      [
        "r",
        -6.935869707600084
      ],
      [
        "look",
        -6.951931011188327
      ],
      [
        "where",
        -6.956181017533465
      ],
      [
        "Ġif",
        -6.9602198378878075
      ],
      [
        "exp",
        -6.960767816149392
      ],
      [
        "Ġer",
        -6.980003776038609
      ],
      [
        "we",
        -6.981104636648267
      ],
      [
        "Ġno",
        -6.987617791082746
      ],
      [
        "Ġdid",
        -6.990033214121496
      ],
      [
        "u",
        -6.994038764695421
      ],
      [
        "g",
        -6.996180189968618
      ],
      [
        "Ġbut",
        -7.022043252198461
      ],
      [
        "Ġback",
        -7.0561758016368366
      ],
      [
        "Ġhis",
        -7.077081396058629
      ],
      [
        "xxx",
        -7.087512645570069
      ],
      [
        "Ġlittle",
        -7.090677002833747
      ],
      [
        "but",
        -7.103050632881585
      ],
      [
        "Ġplay",
        -7.121185004781331
      ],
      [
        "Ġgood",
        -7.146190012233548
      ],
      [
        "Ġwhen",
        -7.148408611644353
      ],
      [
        "\"",
        -7.157314024110635
      ],
      [
        "can",
        -7.170676337999954
      ],
      [
        "Ġcome",
        -7.174237084902668
      ],
      [
        "laughs",
        -7.178636872931847
      ],
      [
        "Ġor",
        -7.181026598656784
      ],
      [
        "Ġwanna",
        -7.188356659574007
      ],
      [
        "Ġtwo",
        -7.188425713555434
      ],
      [
        "mhm",
        -7.195229732893576
      ],
      [
        "Ġmore",
        -7.206021831164698
      ],
      [
        "c",
        -7.206877076689681
      ],
      [
        "Ġsay",
        -7.21047479802542
      ],
      [
        "%",
        -7.223588486275135
      ],
      [
        "1",
        -7.22450059959613
      ],
      [
        "Ġhim",
        -7.236419327398046
      ],
      [
        "Ġhad",
        -7.247589134566429
      ],
      [
        "Ġfrom",
        -7.248434959223262
      ],
      [
        "/",
        -7.253311595550974
      ],
      [
        "Ġwere",
        -7.259848700991084
      ],
      [
        "right",
        -7.264413228604257
      ],
      [
        "Ġvery",
        -7.270398505672784
      ],
      [
        "Ġover",
        -7.271982888991067
      ],
      [
        "they",
        -7.274557688814937
      ],
      [
        "Ġsaid",
        -7.287153840843564
      ],
      [
        "Ġoff",
        -7.318817802443439
      ],
      [
        "this",
        -7.344139992342333
      ],
      [
        "w",
        -7.372924021192308
      ],
      [
        "um",
        -7.424111899016168
      ],
      [
        "Ġwould",
        -7.430271408834665
      ],
      [
        "Ġtime",
        -7.430472301603771
      ],
      [
        "Ġother",
        -7.440059656420402
      ],
      [
        "Ġdidn",
        -7.448639294089038
      ],
      [
        "Ġbig",
        -7.453907324040452
      ],
      [
        "Ġmake",
        -7.455519782195028
      ],
      [
        "Ġan",
        -7.457336422494706
      ],
      [
        "here",
        -7.4600887964534035
      ],
      [
        "she",
        -7.484016507991079
      ],
      [
        "Ġwell",
        -7.495406174856223
      ],
      [
        "tea",
        -7.499749478301364
      ],
      [
        "now",
        -7.504389327167475
      ],
      [
        "er",
        -7.50870085973194
      ],
      [
        "let",
        -7.517208738646033
      ],
      [
        "in",
        -7.518086562981898
      ],
      [
        "f",
        -7.522620745278296
      ],
      [
        "add",
        -7.524965228477567
      ],
      [
        "Ġneed",
        -7.535627024679762
      ],
      [
        "sis",
        -7.540405094423843
      ],
      [
        "Ġwhere",
        -7.544830781741057
      ],
      [
        "Ġbook",
        -7.547476793622321
      ],
      [
        "Ġerm",
        -7.548264295044699
      ],
      [
        "Ġdoing",
        -7.550088795166953
      ],
      [
        "Ġtake",
        -7.550729842461283
      ],
      [
        "Ġthese",
        -7.568183655199725
      ],
      [
        "how",
        -7.568759813617392
      ],
      [
        "Ġcould",
        -7.5792637910948635
      ],
      [
        "Ġbaby",
        -7.580019804280129
      ],
      [
        "are",
        -7.581594420833341
      ],
      [
        "Ġwill",
        -7.583727712834163
      ],
      [
        "Ġhow",
        -7.596790765822689
      ],
      [
        "those",
        -7.607439752367995
      ],
      [
        "Ġsomething",
        -7.608085432032741
      ],
      [
        "Ġhas",
        -7.611861496413283
      ],
      [
        "why",
        -7.614401521382218
      ],
      [
        "Ġdoes",
        -7.6186249321735495
      ],
      [
        "Ġreally",
        -7.61876286700363
      ],
      [
        "Ġmean",
        -7.623709607925257
      ],
      [
        "mch",
        -7.626487492362463
      ],
      [
        "who",
        -7.626878797681696
      ],
      [
        "Ġeat",
        -7.6369502511794245
      ],
      [
        "Ġagain",
        -7.637173885057246
      ],
      [
        "bro",
        -7.659494590060682
      ],
      [
        "Ġany",
        -7.6616332930283875
      ],
      [
        "one",
        -7.675722443314639
      ],
      [
        "Ġtoo",
        -7.6777865140290285
      ],
      [
        "Ġway",
        -7.6802373833375395
      ],
      [
        "Ġtell",
        -7.71137578233342
      ],
      [
        "Ġwho",
        -7.713430714402641
      ],
      [
        "Ġcar",
        -7.7151551781469205
      ],
      [
        "Ġbit",
        -7.721597499393225
      ],
      [
        "-",
        -7.730926945398609
      ],
      [
        "did",
        -7.74303749647304
      ],
      [
        "gma",
        -7.7521063885843535
      ],
      [
        "2",
        -7.7585990879930495
      ],
      [
        "come",
        -7.761652440327838
      ],
      [
        "Ġbecause",
        -7.764614191352454
      ],
      [
        "Ġhouse",
        -7.7818989905224445
      ],
      [
        "Ġbeen",
        -7.783813913361028
      ],
      [
        "Ġpeople",
        -7.791958939211661
      ],
      [
        "l",
        -7.795896608562186
      ],
      [
        "afta",
        -7.800094818927924
      ],
      [
        "cause",
        -7.80470903894412
      ],
      [
        "Ġthree",
        -7.810554817044997
      ],
      [
        "Ġnice",
        -7.819401225627827
      ],
      [
        "don",
        -7.828178350020741
      ],
      [
        "Ġelse",
        -7.840116154494325
      ],
      [
        "Ġanother",
        -7.865945063199829
      ],
      [
        "Ġgoes",
        -7.870126015087335
      ],
      [
        "Ġthing",
        -7.88231952354689
      ],
      [
        "Ġtalk",
        -7.884114793789527
      ],
      [
        "Ġdoesn",
        -7.8846887774772405
      ],
      [
        "Ġinto",
        -7.887595178824855
      ],
      [
        "Ġdone",
        -7.889877555968768
      ],
      [
        "Ġby",
        -7.895518331246759
      ],
      [
        "Ġgive",
        -7.896159649204968
      ],
      [
        "Ġbox",
        -7.901371880286531
      ],
      [
        "Ġwent",
        -7.919531989888082
      ],
      [
        "Ġthings",
        -7.9215317014647475
      ],
      [
        "Ġlet",
        -7.948384987927726
      ],
      [
        "Ġokay",
        -7.965228029309147
      ],
      [
        "Ġaway",
        -7.967669424350957
      ],
      [
        "on",
        -7.988126682116873
      ],
      [
        "see",
        -7.9964099709670435
      ],
      [
        "Ġball",
        -8.000305897102537
      ],
      [
        "Ġboy",
        -8.002840299285836
      ],
      [
        "Ġgirl",
        -8.010548068497062
      ],
      [
        "Ġdaddy",
        -8.018096193598815
      ],
      [
        "not",
        -8.018954630768876
      ],
      [
        "Ġday",
        -8.021345797062095
      ],
      [
        "Ġwhich",
        -8.024761388132395
      ],
      [
        "Ġum",
        -8.034265824959437
      ],
      [
        "Ġmuch",
        -8.053638641863182
      ],
      [
        "+",
        -8.066168956366953
      ],
      [
        "Ġnoise",
        -8.068931961213298
      ],
      [
        "good",
        -8.103351460663827
      ],
      [
        "put",
        -8.104743864773324
      ],
      [
        "nan",
        -8.108895559483836
      ],
      [
        "Ġhome",
        -8.115650666689184
      ],
      [
        "Ġsit",
        -8.128554145733107
      ],
      [
        "3",
        -8.138163448843823
      ],
      [
        "Ġsays",
        -8.138629576581984
      ],
      [
        "Ġsec",
        -8.140887540311768
      ],
      [
        "Ġtheir",
        -8.141737792536606
      ],
      [
        "Ġour",
        -8.142879712956645
      ],
      [
        "hey",
        -8.144304145157992
      ],
      [
        "Ġlot",
        -8.14469072492098
      ],
      [
        "Ġschool",
        -8.145947939506739
      ],
      [
        "Ġhand",
        -8.152758448583437
      ],
      [
        "Ġfour",
        -8.161595009770863
      ],
      [
        "Ġman",
        -8.163008732010761
      ],
      [
        "Ġfirst",
        -8.16763328187068
      ],
      [
        "huh",
        -8.168214408757056
      ],
      [
        "because",
        -8.171448037148187
      ],
      [
        "Ġmommy",
        -8.178654813463494
      ],
      [
        "Ġfive",
        -8.17988919959051
      ],
      [
        "Ġhead",
        -8.196934986958937
      ],
      [
        "Ġaround",
        -8.201831729339549
      ],
      [
        "Ġmummy",
        -8.202109433111705
      ],
      [
        "p",
        -8.20928100011324
      ],
      [
        "Ġstill",
        -8.209839966192282
      ],
      [
        "Ġshould",
        -8.215543055604632
      ],
      [
        "just",
        -8.225551280158793
      ],
      [
        "Ġwork",
        -8.2298825505555
      ],
      [
        "Ġtable",
        -8.233023176183114
      ],
      [
        "thank",
        -8.2389144146499
      ],
      [
        "Ġfind",
        -8.264531938844824
      ],
      [
        "Ġname",
        -8.264639886032128
      ],
      [
        "Ġwater",
        -8.266922898765786
      ],
      [
        "Ġtoday",
        -8.270159449954958
      ],
      [
        "Ġnext",
        -8.274130773911478
      ],
      [
        "Ġyes",
        -8.27887810113123
      ],
      [
        "pat",
        -8.292178075102706
      ],
      [
        "k",
        -8.292984989596356
      ],
      [
        "Ġthrough",
        -8.301187458590016
      ],
      [
        "Ġroom",
        -8.304569188650733
      ],
      [
        "Ġgone",
        -8.30499566827216
      ],
      [
        "Ġwon",
        -8.30896422915113
      ],
      [
        "Ġus",
        -8.310696917554852
      ],
      [
        "Ġyear",
        -8.316981689522265
      ],
      [
        "Ġcolor",
        -8.318648015532455
      ],
      [
        "uhhuh",
        -8.330904073431704
      ],
      [
        "Ġplease",
        -8.331545389858043
      ],
      [
        "Ġwhy",
        -8.333585142801079
      ],
      [
        "Ġchair",
        -8.337532336147165
      ],
      [
        "Ġfloor",
        -8.350387526029463
      ],
      [
        "Ġbed",
        -8.352340792199875
      ],
      [
        "when",
        -8.358462269455822
      ],
      [
        "mar",
        -8.36038075004366
      ],
      [
        "Ġturn",
        -8.364396924765297
      ],
      [
        "anything",
        -8.36697312626
      ],
      [
        "Ġhelp",
        -8.371810485302676
      ],
      [
        "Ġremember",
        -8.37524378807595
      ],
      [
        "mummy",
        -8.376014272162623
      ],
      [
        "Ġuse",
        -8.382667289923832
      ],
      [
        "Ġkind",
        -8.38665686516466
      ],
      [
        "Ġpicture",
        -8.387374686796928
      ],
      [
        "Ġmight",
        -8.389634334228287
      ],
      [
        "Ġopen",
        -8.391403982512708
      ],
      [
        "all",
        -8.391419031551106
      ],
      [
        "Ġread",
        -8.395393663042487
      ],
      [
        "have",
        -8.402588027838478
      ],
      [
        "Ġdoor",
        -8.404327725295826
      ],
      [
        "Ġsort",
        -8.41251059176894
      ],
      [
        "alright",
        -8.413011817317528
      ],
      [
        "Ġbetter",
        -8.416679137172414
      ],
      [
        "Ġlast",
        -8.416881883749522
      ],
      [
        "int",
        -8.417377621490477
      ],
      [
        "Ġpaper",
        -8.425375572636923
      ],
      [
        "erm",
        -8.428301759145384
      ],
      [
        "Ġhold",
        -8.435932523019176
      ],
      [
        "Ġthought",
        -8.438216850188613
      ],
      [
        "Ġmother",
        -8.460346775564789
      ],
      [
        "Ġstart",
        -8.460763879694632
      ],
      [
        "Ġdog",
        -8.464715282717302
      ],
      [
        "Ġbefore",
        -8.472625851853579
      ],
      [
        "Ġpage",
        -8.472877986587768
      ],
      [
        "Ġnight",
        -8.47833281746447
      ],
      [
        "Ġsound",
        -8.480468576532575
      ],
      [
        "Ġactually",
        -8.486009231295588
      ],
      [
        "loi",
        -8.490324462066035
      ],
      [
        "Ġred",
        -8.496102655575339
      ],
      [
        "Ġtoys",
        -8.497289951239363
      ],
      [
        "Ġnew",
        -8.498765436148847
      ],
      [
        "Ġhaven",
        -8.49934990389282
      ],
      [
        "Ġlong",
        -8.499992613710347
      ],
      [
        "Ġcalled",
        -8.500082276152218
      ],
      [
        "Ġhuh",
        -8.505985945925078
      ],
      [
        "Ġround",
        -8.507559166939837
      ],
      [
        "gra",
        -8.517030180520615
      ],
      [
        "Ġthomas",
        -8.517458094256448
      ],
      [
        "Ġcoming",
        -8.521184291913396
      ],
      [
        "two",
        -8.525152542781363
      ],
      [
        "does",
        -8.536251183505096
      ],
      [
        "Ġmade",
        -8.53713620134286
      ],
      [
        "Ġtop",
        -8.538612562803857
      ],
      [
        "v",
        -8.540705466373517
      ],
      [
        "Ġafter",
        -8.541077790819628
      ],
      [
        "then",
        -8.54117630495861
      ],
      [
        "Ġwatch",
        -8.553119056177808
      ],
      [
        "makes",
        -8.556851105286073
      ],
      [
        "Ġthan",
        -8.568150335660109
      ],
      [
        "mommy",
        -8.571210015900522
      ],
      [
        "Ġhear",
        -8.57487359372318
      ],
      [
        "Ġmany",
        -8.576716298023003
      ],
      [
        "adu",
        -8.585925698982217
      ],
      [
        "Ġtry",
        -8.588567055262855
      ],
      [
        "Ġgetting",
        -8.593769257732955
      ],
      [
        "Ġkeep",
        -8.594138033253508
      ],
      [
        "cha",
        -8.596546484971899
      ],
      [
        "like",
        -8.604990223610924
      ],
      [
        "Ġquite",
        -8.61023218380224
      ],
      [
        "Ġdrink",
        -8.611450148945698
      ],
      [
        "Ġbear",
        -8.61225720449617
      ],
      [
        "Ġblue",
        -8.613176361429138
      ],
      [
        ";",
        -8.61739720672073
      ],
      [
        "Ġshow",
        -8.618361458447056
      ],
      [
        "Ġsure",
        -8.61851040452736
      ],
      [
        "fch",
        -8.624120852359908
      ],
      [
        "Ġcup",
        -8.629127263574645
      ],
      [
        "Ġpiece",
        -8.631000117850672
      ],
      [
        "b",
        -8.634283406572422
      ],
      [
        "Ġgreen",
        -8.645612908696416
      ],
      [
        "Ġsame",
        -8.64696153167286
      ],
      [
        "Ġtoy",
        -8.655190775053482
      ],
      [
        "ies",
        -8.657533680922722
      ],
      [
        "hello",
        -8.657546900273898
      ],
      [
        "Ġcame",
        -8.658896563414068
      ],
      [
        "Ġsix",
        -8.669716471583904
      ],
      [
        "Ġgott",
        -8.671068462198344
      ],
      [
        "Ġpick",
        -8.674654875769573
      ],
      [
        "Ġfood",
        -8.680682177203932
      ],
      [
        "Ġdifferent",
        -8.689372343850797
      ],
      [
        "Ġtrain",
        -8.694645807675768
      ],
      [
        "childe",
        -8.696628512578117
      ],
      [
        "_",
        -8.698919612237285
      ],
      [
        "Ġside",
        -8.704468138910123
      ],
      [
        "Ġeight",
        -8.70623306273076
      ],
      [
        "Ġweek",
        -8.707055391292979
      ],
      [
        "Ġdear",
        -8.707668426129446
      ],
      [
        "Ġnever",
        -8.730425181479303
      ],
      [
        "Ġend",
        -8.734724430821482
      ],
      [
        "Ġmorning",
        -8.73586750359932
      ],
      [
        "Ġhair",
        -8.745905941341762
      ],
      [
        "Ġmove",
        -8.750606133539101
      ],
      [
        "Ġwasn",
        -8.751278327282296
      ],
      [
        "Ġwalk",
        -8.751359174015416
      ],
      [
        "Ġcat",
        -8.752340916536985
      ],
      [
        "Ġstory",
        -8.755974918768326
      ],
      [
        "Ġhands",
        -8.760897677475615
      ],
      [
        "Ġminute",
        -8.765226230018529
      ],
      [
        "Ġaren",
        -8.76539962739503
      ],
      [
        "Ġthough",
        -8.766135024639977
      ],
      [
        "isn",
        -8.766479130498631
      ],
      [
        "Ġeven",
        -8.772677154101732
      ],
      [
        "Ġchilde",
        -8.7749965285707
      ],
      [
        "Ġcall",
        -8.777808339252928
      ],
      [
        "Ġleave",
        -8.781584431424978
      ],
      [
        "Ġhappened",
        -8.782742119062098
      ],
      [
        "Ġmoney",
        -8.78409151919241
      ],
      [
        "car",
        -8.786686223539848
      ],
      [
        "Ġnoises",
        -8.786930011161664
      ],
      [
        "Ġanimal",
        -8.791156156354816
      ],
      [
        "Ġsaying",
        -8.792938579825167
      ],
      [
        "Ġstuff",
        -8.795431302497454
      ],
      [
        "pretty",
        -8.795500717512216
      ],
      [
        "Ġmilk",
        -8.798687852798674
      ],
      [
        "Ġsaw",
        -8.802371323927426
      ],
      [
        "Ġfall",
        -8.803872831358063
      ],
      [
        "Ġused",
        -8.805526047387517
      ],
      [
        "Ġmust",
        -8.807141459587731
      ],
      [
        "Ġold",
        -8.807793560113497
      ],
      [
        "Ġhundred",
        -8.810982110951043
      ],
      [
        "Ġtogether",
        -8.811524087568465
      ],
      [
        "shall",
        -8.812876050872344
      ],
      [
        "which",
        -8.818181556569774
      ],
      [
        "daddy",
        -8.818873404947672
      ],
      [
        "Ġlove",
        -8.819256199751058
      ],
      [
        "Ġfunny",
        -8.821263258799124
      ],
      [
        "more",
        -8.825371775360116
      ],
      [
        "Ġmaking",
        -8.827029643682746
      ],
      [
        "Ġalright",
        -8.831279212283805
      ],
      [
        "Ġcrayon",
        -8.841436946974069
      ],
      [
        "Ġhaving",
        -8.844029003205254
      ],
      [
        "Ġalways",
        -8.84867935203842
      ],
      [
        "maybe",
        -8.851084968454632
      ],
      [
        "Ġask",
        -8.852038046641502
      ],
      [
        "Ġtruck",
        -8.85364478557267
      ],
      [
        "Ġoutside",
        -8.857661784704305
      ],
      [
        "get",
        -8.861304962250902
      ],
      [
        "Ġyet",
        -8.868500868054094
      ],
      [
        "Ġready",
        -8.868987540049318
      ],
      [
        "Ġyellow",
        -8.874285220129599
      ],
      [
        "www",
        -8.878582179119611
      ],
      [
        "Ġtwenty",
        -8.88489015123012
      ],
      [
        "Ġdarling",
        -8.899219557007443
      ],
      [
        "Ġunder",
        -8.900192524818753
      ],
      [
        "Ġjuice",
        -8.900629274073268
      ],
      [
        "Ġsleep",
        -8.906609536103952
      ],
      [
        "Ġthrow",
        -8.910166103418675
      ],
      [
        "friend",
        -8.911267700414962
      ],
      [
        "Ġbeing",
        -8.91242252148512
      ],
      [
        "Ġnumber",
        -8.913403418726665
      ],
      [
        "yep",
        -8.914509606897019
      ],
      [
        "Ġstop",
        -8.92473309536753
      ],
      [
        "singing",
        -8.928711739559164
      ],
      [
        "Ġjob",
        -8.931548053552163
      ],
      [
        "Ġtrying",
        -8.931669113655401
      ],
      [
        "Ġmom",
        -8.936587857206177
      ],
      [
        "Ġcos",
        -8.941180972522451
      ],
      [
        "Ġwhile",
        -8.94150061200107
      ],
      [
        "Ġprobabl",
        -8.944418345462523
      ],
      [
        "picks",
        -8.947614403604723
      ],
      [
        "Ġhard",
        -8.96174031401033
      ],
      [
        "would",
        -8.963116250947055
      ],
      [
        "Ġbring",
        -8.963886823465623
      ],
      [
        "Ġplace",
        -8.964932656721327
      ],
      [
        "Ġbag",
        -8.965176106220207
      ],
      [
        "vocalize",
        -8.97198356673504
      ],
      [
        "Ġstay",
        -8.972313808890837
      ],
      [
        "Ġbirthday",
        -8.97335462895817
      ],
      [
        "Ġpart",
        -8.978682202113962
      ],
      [
        "child",
        -8.982104448716612
      ],
      [
        "Ġmaybe",
        -8.98367218398707
      ],
      [
        "hat",
        -8.984444449663325
      ],
      [
        "Ġfeel",
        -8.9865847016528
      ],
      [
        "Ġguy",
        -8.986639508915877
      ],
      [
        "say",
        -8.989718320315259
      ],
      [
        "Ġpoints",
        -8.993420338816604
      ],
      [
        "Ġfront",
        -8.994415384115186
      ],
      [
        "Ġgreat",
        -8.996213673992193
      ],
      [
        "Ġface",
        -8.997166175485129
      ],
      [
        "points",
        -9.008598352184968
      ],
      [
        "wow",
        -9.00952463475289
      ],
      [
        "Ġbuy",
        -9.013994609332993
      ],
      [
        "Ġleft",
        -9.014249865232443
      ],
      [
        "happy",
        -9.015371197924933
      ],
      [
        "Ġha",
        -9.01786966260287
      ],
      [
        "noise",
        -9.020366076245635
      ],
      [
        "very",
        -9.020626516136234
      ],
      [
        "Ġmine",
        -9.025356980825368
      ],
      [
        "Ġtape",
        -9.028487324149566
      ],
      [
        "your",
        -9.028580790050917
      ],
      [
        "Ġseven",
        -9.030959820243398
      ],
      [
        "Ġten",
        -9.031092149813515
      ],
      [
        "for",
        -9.032591226085595
      ],
      [
        "j",
        -9.04002145665627
      ],
      [
        "read",
        -9.040058073477166
      ],
      [
        "Ġenough",
        -9.049239341668805
      ],
      [
        "Ġhurt",
        -9.052507440699356
      ],
      [
        "Ġbus",
        -9.05372166225051
      ],
      [
        "Ġwear",
        -9.054181897518832
      ],
      [
        "Ġwouldn",
        -9.05544244365719
      ],
      [
        "gasps",
        -9.056291055222653
      ],
      [
        "eating",
        -9.0630749315889
      ],
      [
        "Ġfire",
        -9.064625549373133
      ],
      [
        "Ġevery",
        -9.065641864590981
      ],
      [
        "Ġnine",
        -9.076106915344944
      ],
      [
        "Ġfound",
        -9.078458192596225
      ],
      [
        "Ġletter",
        -9.078877300610372
      ],
      [
        "Ġfinishe",
        -9.080603021297149
      ],
      [
        "Ġcourse",
        -9.085564459688564
      ],
      [
        "Ġtold",
        -9.085778391769502
      ],
      [
        "Ġrun",
        -9.085883714780271
      ],
      [
        "Ġphone",
        -9.089434412562355
      ],
      [
        "Ġgame",
        -9.089681346427303
      ],
      [
        "Ġseen",
        -9.094100231773478
      ],
      [
        "Ġpull",
        -9.100593139596272
      ],
      [
        "Ġpoint",
        -9.1016196867371
      ],
      [
        "Ġbad",
        -9.102968622416213
      ],
      [
        "laugh",
        -9.107553833677125
      ],
      [
        "Ġown",
        -9.109553677743378
      ],
      [
        "Ġsecond",
        -9.11167959005039
      ],
      [
        "Ġfish",
        -9.112000875150112
      ],
      [
        "Ġwait",
        -9.115796225761857
      ],
      [
        "Ġwrite",
        -9.120933379935009
      ],
      [
        "Ġhappen",
        -9.121383481915972
      ],
      [
        "Ġhorse",
        -9.12213552452743
      ],
      [
        "Ġhalf",
        -9.127144776636548
      ],
      [
        "Ġinside",
        -9.130631695202103
      ],
      [
        "some",
        -9.13706999572318
      ],
      [
        "Ġsmall",
        -9.137519771813695
      ],
      [
        "Ġdad",
        -9.138360112643209
      ],
      [
        "Ġorange",
        -9.142630479059656
      ],
      [
        "Ġchange",
        -9.147660624227969
      ],
      [
        "Ġeverything",
        -9.149487963331072
      ],
      [
        "Ġshoes",
        -9.150236830322811
      ],
      [
        "Ġfit",
        -9.150678509964962
      ],
      [
        "Ġblack",
        -9.151556409365487
      ],
      [
        "Ġchildren",
        -9.15197476293498
      ],
      [
        "cat",
        -9.15386316953994
      ],
      [
        "Ġmouth",
        -9.15542183810888
      ],
      [
        "Ġbird",
        -9.155567197931942
      ],
      [
        "uhoh",
        -9.156082027911404
      ],
      [
        "Ġb",
        -9.16291021849111
      ],
      [
        "Ġmakes",
        -9.163028065785955
      ],
      [
        "Ġboth",
        -9.163192637570285
      ],
      [
        "Ġmay",
        -9.164101604933297
      ],
      [
        "Ġtea",
        -9.16561715842379
      ],
      [
        "tell",
        -9.165643280071164
      ],
      [
        "baby",
        -9.166381033941471
      ],
      [
        "Ġthank",
        -9.171221112250644
      ],
      [
        "Ġcookie",
        -9.17225841776727
      ],
      [
        "ch",
        -9.173002332851349
      ],
      [
        "Ġstick",
        -9.186124325682364
      ],
      [
        "self",
        -9.190136259870428
      ],
      [
        "Ġever",
        -9.190674792243394
      ],
      [
        "Ġsomebod",
        -9.192594757446296
      ],
      [
        "Ġhot",
        -9.194113821721743
      ],
      [
        "sings",
        -9.19519623917165
      ],
      [
        "wanna",
        -9.196257409489844
      ],
      [
        "Ġtook",
        -9.196399037623287
      ],
      [
        "Ġeyes",
        -9.197447484763202
      ],
      [
        "Ġset",
        -9.199167234362541
      ],
      [
        "with",
        -9.21314424612818
      ],
      [
        "Ġalso",
        -9.213445685904627
      ],
      [
        "Ġwhite",
        -9.21398254698058
      ],
      [
        "Ġdraw",
        -9.21436213050482
      ],
      [
        "orry",
        -9.215727892625427
      ],
      [
        "mo",
        -9.217194507258247
      ],
      [
        "5",
        -9.218354184560631
      ],
      [
        "Ġalread",
        -9.219221925668245
      ],
      [
        "Ġnose",
        -9.220284197809828
      ],
      [
        "Ġtree",
        -9.224398306732692
      ],
      [
        "Ġtakes",
        -9.224634017127032
      ],
      [
        "up",
        -9.225661098847953
      ],
      [
        "please",
        -9.23050730141722
      ],
      [
        "mum",
        -9.230557595766792
      ],
      [
        "Ġcut",
        -9.230862346951794
      ],
      [
        "Ġturns",
        -9.231261008846042
      ],
      [
        "Ġchild",
        -9.232016212097605
      ],
      [
        "Ġmum",
        -9.23267384634946
      ],
      [
        "Ġcry",
        -9.232924345824452
      ],
      [
        "4",
        -9.233044065048096
      ],
      [
        "Ġfraser",
        -9.234374312154346
      ],
      [
        "lovely",
        -9.236401770594693
      ],
      [
        "was",
        -9.23673578697902
      ],
      [
        "âĨĴ",
        -9.23861383049028
      ],
      [
        "Ġlight",
        -9.238751065384312
      ],
      [
        "Ġfeet",
        -9.24036972198687
      ],
      [
        "Ġdis",
        -9.243931524317903
      ],
      [
        "Ġlots",
        -9.246584448644915
      ],
      [
        "Ġduck",
        -9.247049923827841
      ],
      [
        "wait",
        -9.247327121032372
      ],
      [
        "Ġreal",
        -9.247443170543256
      ],
      [
        "Ġwants",
        -9.253121921638837
      ],
      [
        "Ġfriend",
        -9.259164708227303
      ],
      [
        "three",
        -9.263642412956433
      ],
      [
        "play",
        -9.264650180158164
      ],
      [
        "Ġmatter",
        -9.267667522983256
      ],
      [
        "Ġcake",
        -9.267923792231803
      ],
      [
        "Ġleg",
        -9.269407857685342
      ],
      [
        "fad",
        -9.271168081207906
      ],
      [
        "Ġclose",
        -9.273733092067195
      ],
      [
        "Ġwrong",
        -9.274065964849358
      ],
      [
        "Ġsitting",
        -9.275228590796392
      ],
      [
        "want",
        -9.276332802111945
      ],
      [
        "Ġidea",
        -9.27638577681488
      ],
      [
        "Ġparty",
        -9.278342797602349
      ],
      [
        "Ġwhole",
        -9.283338117903977
      ],
      [
        "Ġcold",
        -9.29147193534323
      ],
      [
        "hold",
        -9.298118239593464
      ],
      [
        "Ġfell",
        -9.298686002121949
      ],
      [
        "Ġstand",
        -9.3012226475437
      ],
      [
        "Ġbreak",
        -9.304715040687082
      ],
      [
        "mother",
        -9.305386659309324
      ],
      [
        "Ġnear",
        -9.305859952807635
      ],
      [
        "Ġfew",
        -9.308324798484863
      ],
      [
        "Ġpretend",
        -9.32022080959996
      ],
      [
        "unk",
        -9.320746845898853
      ],
      [
        "Ġlive",
        -9.32112449016876
      ],
      [
        "Ġeach",
        -9.323887296878864
      ],
      [
        "Ġfun",
        -9.329290516449378
      ],
      [
        "Ġproblem",
        -9.331021835153923
      ],
      [
        "Ġquestion",
        -9.331309468429401
      ],
      [
        "Ġvoice",
        -9.333405131348318
      ],
      [
        "Ġplate",
        -9.333655054013722
      ],
      [
        "Ġlater",
        -9.33574154746307
      ],
      [
        "Ġspoon",
        -9.337303630475233
      ],
      [
        "Ġdoll",
        -9.342712852939368
      ],
      [
        "Ġring",
        -9.343231150638273
      ],
      [
        "urs",
        -9.3459638507614
      ],
      [
        "watch",
        -9.349251059893444
      ],
      [
        "Ġkitchen",
        -9.352435526484786
      ],
      [
        "Ġbottle",
        -9.353658221479144
      ],
      [
        "oops",
        -9.35836880272489
      ],
      [
        "Ġcard",
        -9.358404398954473
      ],
      [
        "Ġshall",
        -9.36084084802495
      ],
      [
        "bye",
        -9.362679677039777
      ],
      [
        "Ġmost",
        -9.364221338308552
      ],
      [
        "will",
        -9.366818120421527
      ],
      [
        "Ġchristmas",
        -9.371280906462756
      ],
      [
        "Ġcheese",
        -9.373130046660595
      ],
      [
        "Ġword",
        -9.375389179643461
      ],
      [
        "rself",
        -9.375406876551262
      ],
      [
        "Ġbath",
        -9.37642481545759
      ],
      [
        "Ġfar",
        -9.377156065129437
      ],
      [
        "laughing",
        -9.377644290762671
      ],
      [
        "Ġbehind",
        -9.378087813869369
      ],
      [
        "these",
        -9.37811298326683
      ],
      [
        "Ġclean",
        -9.382264104935604
      ],
      [
        "Ġhungr",
        -9.383379985608263
      ],
      [
        "Ġcareful",
        -9.385153370028757
      ],
      [
        "give",
        -9.389066323617065
      ],
      [
        "Ġdinner",
        -9.390324271669845
      ],
      [
        "Ġtouch",
        -9.390605578852773
      ],
      [
        "Ġfoot",
        -9.390714521074301
      ],
      [
        "val",
        -9.390742020811294
      ],
      [
        "Ġwindow",
        -9.393663125320757
      ],
      [
        "Ġpuppet",
        -9.394977929090087
      ],
      [
        "Ġchicken",
        -9.395072040429378
      ],
      [
        "Ġline",
        -9.399331759744141
      ],
      [
        "Ġdat",
        -9.400090498250929
      ],
      [
        "take",
        -9.403142269949283
      ],
      [
        "Ġpounds",
        -9.411052790593896
      ],
      [
        "Ġwee",
        -9.412615685929252
      ],
      [
        "Ġperson",
        -9.414749124421062
      ],
      [
        "Ġhelen",
        -9.420681966092904
      ],
      [
        "Ġflower",
        -9.420975870321568
      ],
      [
        "Ġmind",
        -9.425506476299242
      ],
      [
        "Ġmiss",
        -9.427571036187047
      ],
      [
        "cries",
        -9.428958629481077
      ],
      [
        "Ġpay",
        -9.433419452966477
      ],
      [
        "tur",
        -9.433811845747455
      ],
      [
        "sib",
        -9.439076049931995
      ],
      [
        "box",
        -9.43948595622196
      ],
      [
        "got",
        -9.440418895374128
      ],
      [
        "Ġroad",
        -9.450240471033467
      ],
      [
        "peter",
        -9.450438215246745
      ],
      [
        "Ġtaking",
        -9.450966753337019
      ],
      [
        "Ġnothing",
        -9.451647471165593
      ],
      [
        "pardon",
        -9.451944347340808
      ],
      [
        "Ġtomorro",
        -9.452368199302045
      ],
      [
        "Ġguess",
        -9.455371860589118
      ],
      [
        "Ġlisten",
        -9.456108223230796
      ],
      [
        "Ġcow",
        -9.456277061650283
      ],
      [
        "Ġpuzzle",
        -9.456632386542232
      ],
      [
        "Ġlady",
        -9.457415490911556
      ],
      [
        "Ġthirty",
        -9.459030585152469
      ],
      [
        "Ġanyway",
        -9.464876310237129
      ],
      [
        "Ġhigh",
        -9.465005989532967
      ],
      [
        "Ġthousand",
        -9.468871260477949
      ],
      [
        "be",
        -9.46989083271147
      ],
      [
        "Ġwheel",
        -9.47332628193216
      ],
      [
        "Ġfifty",
        -9.48204633258176
      ],
      [
        "Ġheard",
        -9.49313731379843
      ],
      [
        "7",
        -9.493280057099952
      ],
      [
        "Ġquick",
        -9.499390757274043
      ],
      [
        "Ġwonder",
        -9.501679090686855
      ],
      [
        "Ġbread",
        -9.504144195740167
      ],
      [
        "Ġboat",
        -9.504909870723921
      ],
      [
        "dad",
        -9.507430883021389
      ],
      [
        "brother",
        -9.507489871028088
      ],
      [
        "Ġsister",
        -9.5080710560849
      ],
      [
        "Ġcream",
        -9.509424556208833
      ],
      [
        "puts",
        -9.509993061894326
      ],
      [
        "big",
        -9.510706576499574
      ],
      [
        "Ġsometime",
        -9.513019648167244
      ],
      [
        "Ġjwww",
        -9.513020196376079
      ],
      [
        "Ġstuck",
        -9.513721192832381
      ],
      [
        "Ġfinish",
        -9.513921428961446
      ],
      [
        "Ġsong",
        -9.516198431418786
      ],
      [
        "Ġyesterday",
        -9.516334322018427
      ],
      [
        "takes",
        -9.518797954616854
      ],
      [
        "Ġsing",
        -9.520697264211902
      ],
      [
        "fri",
        -9.52088136420239
      ],
      [
        "Ġfact",
        -9.521499900065143
      ],
      [
        "Ġjack",
        -9.529256338075243
      ],
      [
        "Ġminutes",
        -9.529767289814972
      ],
      [
        "Ġworking",
        -9.530260697977758
      ],
      [
        "Ġpieces",
        -9.530779071240612
      ],
      [
        "Ġelephant",
        -9.534139505405788
      ],
      [
        "Ġbetwee",
        -9.536280034070344
      ],
      [
        "Ġshop",
        -9.53753601734516
      ],
      [
        "kay",
        -9.541451088742727
      ],
      [
        "cos",
        -9.542768829508937
      ],
      [
        "whisper",
        -9.542902622686087
      ],
      [
        "Ġtired",
        -9.544381217404574
      ],
      [
        "Ġlunch",
        -9.546742736973215
      ],
      [
        "Ġclothes",
        -9.546973993970203
      ],
      [
        "Ġde",
        -9.548140816741086
      ],
      [
        "Ġfavorite",
        -9.548964516496717
      ],
      [
        "Ġapple",
        -9.549102275690837
      ],
      [
        "Ġable",
        -9.54913015134905
      ],
      [
        "thomas",
        -9.55663244862732
      ],
      [
        "Ġobject",
        -9.558743530646652
      ],
      [
        "6",
        -9.559661091823324
      ],
      [
        "Ġbooks",
        -9.561518637119452
      ],
      [
        "Ġride",
        -9.561680904463124
      ],
      [
        "Ġnin",
        -9.562171812430446
      ],
      [
        "Ġpush",
        -9.564700861265068
      ],
      [
        "Ġfrog",
        -9.565112429143587
      ],
      [
        "Ġcamera",
        -9.565928198449662
      ],
      [
        "Ġdoctor",
        -9.565974894059528
      ],
      [
        "Ġbutton",
        -9.568180209992178
      ],
      [
        "Ġkids",
        -9.570032925308086
      ],
      [
        "jen",
        -9.57201019958009
      ],
      [
        "Ġeithe",
        -9.573186723235487
      ],
      [
        "Ġda",
        -9.577807728142052
      ],
      [
        "head",
        -9.580764352006284
      ],
      [
        "Ġlooked",
        -9.583863528323715
      ],
      [
        "Ġstarte",
        -9.584126411772584
      ],
      [
        "Ġmonth",
        -9.587531683375277
      ],
      [
        "Ġpresent",
        -9.589795097003806
      ],
      [
        "Ġbest",
        -9.590801513594467
      ],
      [
        "Ġshape",
        -9.59086703713695
      ],
      [
        "Ġfull",
        -9.59293503969894
      ],
      [
        "Ġbrother",
        -9.594542715208146
      ],
      [
        "rya",
        -9.595075303011841
      ],
      [
        "Ġalong",
        -9.600946998878142
      ],
      [
        "Ġseem",
        -9.604710218419049
      ],
      [
        "ĠâĢľ",
        -9.605013893806742
      ],
      [
        "Ġhasn",
        -9.606276129902357
      ],
      [
        "has",
        -9.610500545815697
      ],
      [
        "âĮī.",
        -9.611454587244124
      ],
      [
        "Ġengine",
        -9.61738128476188
      ],
      [
        "Ġeverybody",
        -9.620423908993065
      ],
      [
        "Ġgave",
        -9.62164714342225
      ],
      [
        "Ġchocolate",
        -9.624224276048679
      ],
      [
        "Ġcount",
        -9.632730750947548
      ],
      [
        "Ġcatch",
        -9.633053840211872
      ],
      [
        "Ġfast",
        -9.634042016462447
      ],
      [
        "Ġbreakfast",
        -9.635986351164595
      ],
      [
        "Ġhour",
        -9.636025566720132
      ],
      [
        "Ġmama",
        -9.643338478651502
      ],
      [
        "should",
        -9.643937288451824
      ],
      [
        "turn",
        -9.645769896309552
      ],
      [
        "Ġcertain",
        -9.646023715074762
      ],
      [
        "Ġcircle",
        -9.646188055516793
      ],
      [
        "uhuh",
        -9.647869060573802
      ],
      [
        "Ġice",
        -9.648536364059753
      ],
      [
        "rising",
        -9.649627209486338
      ],
      [
        "Ġlid",
        -9.650097625141166
      ],
      [
        "Ġblocks",
        -9.650116196997178
      ],
      [
        "Ġdrive",
        -9.650988165183017
      ],
      [
        "Ġcontinue",
        -9.656254742064522
      ],
      [
        "could",
        -9.661768095927988
      ],
      [
        "Ġrabbit",
        -9.662329503277983
      ],
      [
        "Ġpast",
        -9.662605702695183
      ],
      [
        "âĮĭ.",
        -9.66271607685659
      ],
      [
        "four",
        -9.664469716067687
      ],
      [
        "stop",
        -9.665968176969681
      ],
      [
        "âĮĬ",
        -9.67537897100314
      ],
      [
        "Ġfarm",
        -9.678104231104536
      ],
      [
        "Ġhit",
        -9.678666187694036
      ],
      [
        "Ġgrandma",
        -9.679409702490561
      ],
      [
        "Ġfigure",
        -9.681781574493497
      ],
      [
        "babbles",
        -9.683443011130711
      ],
      [
        "Ġhoney",
        -9.684800004399769
      ],
      [
        "x",
        -9.685259467678039
      ],
      [
        "Ġmouse",
        -9.68576832855803
      ],
      [
        "Ġteddy",
        -9.686218054767481
      ],
      [
        "Ġacross",
        -9.686991625400983
      ],
      [
        "Ġholding",
        -9.687408448468414
      ],
      [
        "Ġwhether",
        -9.692199094758069
      ],
      [
        "Ġpink",
        -9.692852201171892
      ],
      [
        "Ġfriends",
        -9.69383759338581
      ],
      [
        "Ġchoo",
        -9.693951976891528
      ],
      [
        "Ġfather",
        -9.69439080063549
      ],
      [
        "Ġbottom",
        -9.694409376023145
      ],
      [
        "Ġcoffee",
        -9.694800207820045
      ],
      [
        "Ġuntil",
        -9.695646582703
      ],
      [
        "Ġbutter",
        -9.696774302559843
      ],
      [
        "Ġalmost",
        -9.697625419513496
      ],
      [
        "Ġrest",
        -9.69785958159344
      ],
      [
        "really",
        -9.699096292987429
      ],
      [
        "Ġlost",
        -9.701793144387201
      ],
      [
        "ĠâĮĪ",
        -9.702457271043613
      ],
      [
        "Ġwords",
        -9.703180998248474
      ],
      [
        "Ġcook",
        -9.70387458503689
      ],
      [
        "Ġmess",
        -9.70436348459577
      ],
      [
        "pointing",
        -9.704742298143653
      ],
      [
        "nina",
        -9.706886216721001
      ],
      [
        "Ġrunning",
        -9.707911346059761
      ],
      [
        "Ġsoft",
        -9.707998429728887
      ],
      [
        "Ġonce",
        -9.709815730288534
      ],
      [
        "red",
        -9.714243749462575
      ],
      [
        "Ġbought",
        -9.716118932285722
      ],
      [
        "Ġpark",
        -9.71801147119151
      ],
      [
        "Ġcase",
        -9.719552053214164
      ],
      [
        "Ġroll",
        -9.720179809771693
      ],
      [
        "Ġreache",
        -9.720635702503111
      ],
      [
        "Ġbackground",
        -9.722296704980268
      ],
      [
        "yyy",
        -9.72580451361671
      ],
      [
        "8",
        -9.725926819004568
      ],
      [
        "Ġdinosaur",
        -9.726472081608426
      ],
      [
        "asked",
        -9.727080759650507
      ],
      [
        "Ġbrown",
        -9.728427819415973
      ],
      [
        "Ġhole",
        -9.731016579086942
      ],
      [
        "Ġpictures",
        -9.734480522464843
      ],
      [
        "Ġegg",
        -9.738254503570626
      ],
      [
        "Ġbase",
        -9.738965563892542
      ],
      [
        "Ġarm",
        -9.739675647730273
      ],
      [
        "Ġsoon",
        -9.74097963495289
      ],
      [
        "Ġwall",
        -9.741843374159538
      ],
      [
        "make",
        -9.744244735442043
      ],
      [
        "Ġtowards",
        -9.75480272630535
      ],
      [
        "silence",
        -9.755303837635482
      ],
      [
        "Ġcouncil",
        -9.755678828208245
      ],
      [
        "blue",
        -9.756864935270384
      ],
      [
        "Ġpause",
        -9.757050869484925
      ],
      [
        "filler",
        -9.757951617753154
      ],
      [
        "Ġfix",
        -9.759606283007388
      ],
      [
        "clock",
        -9.761139665165878
      ],
      [
        "Ġteeth",
        -9.762991579212377
      ],
      [
        "Ġmonkey",
        -9.768116655011186
      ],
      [
        "Ġlate",
        -9.771887743601955
      ],
      [
        "Ġusual",
        -9.7726664534605
      ],
      [
        "Ġhope",
        -9.774349573367434
      ],
      [
        "Ġbunny",
        -9.778702200905268
      ],
      [
        "another",
        -9.778850513779766
      ],
      [
        "Ġquiet",
        -9.780725497009952
      ],
      [
        "Ġbroken",
        -9.780993588554658
      ],
      [
        "Ġspeak",
        -9.783535690867295
      ],
      [
        "Ġmoment",
        -9.784909216571167
      ],
      [
        "Ġcouple",
        -9.788030719826853
      ],
      [
        "actually",
        -9.78913071730026
      ],
      [
        "Ġshirt",
        -9.78916800514012
      ],
      [
        "Ġadult",
        -9.789401961045241
      ],
      [
        "Ġkitty",
        -9.789451500977473
      ],
      [
        "five",
        -9.790140421142958
      ],
      [
        "Ġbelieve",
        -9.797571704079381
      ],
      [
        "out",
        -9.799101740086817
      ],
      [
        "Ġlion",
        -9.799700887606509
      ],
      [
        "Ġsun",
        -9.800767315816923
      ],
      [
        "Ġbye",
        -9.800936146911617
      ],
      [
        "Ġmicrophone",
        -9.801227030445077
      ],
      [
        "Ġstreet",
        -9.801345624281785
      ],
      [
        "Ġteacher",
        -9.802761785677294
      ],
      [
        "aft",
        -9.805133452457323
      ],
      [
        "Ġmeans",
        -9.806489568111303
      ],
      [
        "Ġfine",
        -9.80687008037554
      ],
      [
        "Ġgarden",
        -9.80843039573083
      ],
      [
        "Ġforty",
        -9.808747228465041
      ],
      [
        "Ġgroup",
        -9.810759924763115
      ],
      [
        "Ġshoe",
        -9.812805264826402
      ],
      [
        "yup",
        -9.819363427687534
      ],
      [
        "ela",
        -9.820492817632621
      ],
      [
        "Ġfinger",
        -9.822989257787208
      ],
      [
        "Ġmark",
        -9.82557403441721
      ],
      [
        "Ġsuch",
        -9.826239820108125
      ],
      [
        "Ġmen",
        -9.826423141880918
      ],
      [
        "Ġgod",
        -9.827217127926321
      ],
      [
        "Ġmoves",
        -9.827950790981612
      ],
      [
        "Ġago",
        -9.828172333931112
      ],
      [
        "Ġcars",
        -9.828715039916974
      ],
      [
        "Ġsorr",
        -9.831021299806922
      ],
      [
        "ready",
        -9.831409751889963
      ],
      [
        "jes",
        -9.83185702951531
      ],
      [
        "Ġpeter",
        -9.83326411821722
      ],
      [
        "Ġperhap",
        -9.838341757647017
      ],
      [
        "Ġsilence",
        -9.83848281403182
      ],
      [
        "Ġjump",
        -9.83947424381236
      ],
      [
        "open",
        -9.839538034742482
      ],
      [
        "Ġbuilding",
        -9.8456395115557
      ],
      [
        "Ġparticular",
        -9.845704833843772
      ],
      [
        "Ġsomewhere",
        -9.848615873325906
      ],
      [
        "nice",
        -9.852178756949286
      ],
      [
        "Ġair",
        -9.856218965742558
      ],
      [
        "Ġloud",
        -9.858219851965828
      ],
      [
        "Ġbowl",
        -9.858423968824033
      ],
      [
        "mama",
        -9.859305489270078
      ],
      [
        "Ġbang",
        -9.860820196383564
      ],
      [
        "sure",
        -9.861320740629095
      ],
      [
        "Ġconversation",
        -9.862086788350927
      ],
      [
        "Ġcover",
        -9.863448620701714
      ],
      [
        "Ġkiss",
        -9.863673072316914
      ],
      [
        "Ġrath",
        -9.866117679002835
      ],
      [
        "Ġwhatever",
        -9.866705298461001
      ],
      [
        "Ġbite",
        -9.870360304164185
      ],
      [
        "Ġbuild",
        -9.87408181266921
      ],
      [
        "Ġgoin",
        -9.87543837326855
      ],
      [
        "Ġsilver",
        -9.875912915264115
      ],
      [
        "Ġpop",
        -9.876938308254838
      ],
      [
        "Ġtonight",
        -9.878563257137264
      ],
      [
        "Ġblock",
        -9.879101482116074
      ],
      [
        "Ġpound",
        -9.881385733072376
      ],
      [
        "his",
        -9.884723069800499
      ],
      [
        "Ġtimes",
        -9.886052773347627
      ],
      [
        "Ġanswer",
        -9.887017273111617
      ],
      [
        "Ġorder",
        -9.888424069236653
      ],
      [
        "nope",
        -9.889990297777839
      ],
      [
        "Ġsilly",
        -9.89047522025251
      ],
      [
        "Ġspecial",
        -9.893577602255808
      ],
      [
        "Ġbrush",
        -9.893660953824114
      ],
      [
        "Ġtowel",
        -9.896187401505207
      ],
      [
        "little",
        -9.897603438304666
      ],
      [
        "Ġlaugh",
        -9.897614139875584
      ],
      [
        "Ġbigger",
        -9.897954018263855
      ],
      [
        "Ġnineteen",
        -9.89828117034851
      ],
      [
        "Ġbrought",
        -9.90173078958198
      ],
      [
        "Ġfamily",
        -9.90187921232051
      ],
      [
        "Ġtail",
        -9.903630821945079
      ],
      [
        "Ġworld",
        -9.905241806083174
      ],
      [
        "Ġbeautiful",
        -9.906323282009613
      ],
      [
        "Ġmiddle",
        -9.907774832581374
      ],
      [
        "Ġbegin",
        -9.91234578627395
      ],
      [
        "kat",
        -9.91580806129075
      ],
      [
        "Ġclimb",
        -9.915946338253397
      ],
      [
        "walking",
        -9.916565138991198
      ],
      [
        "Ġbabie",
        -9.918014820285341
      ],
      [
        "Ġtwelve",
        -9.918883289925624
      ],
      [
        "ever",
        -9.919999024312444
      ],
      [
        "think",
        -9.923619285752599
      ],
      [
        "Ġbroke",
        -9.930198578437533
      ],
      [
        "roz",
        -9.930996348892403
      ],
      [
        "giggle",
        -9.931906537913234
      ],
      [
        "Ġputtin",
        -9.932329412521112
      ],
      [
        "ahhah",
        -9.934564981653006
      ],
      [
        "Ġcare",
        -9.935291637403658
      ],
      [
        "Ġninet",
        -9.935313635205555
      ],
      [
        "sound",
        -9.935420391311903
      ],
      [
        "Ġtoward",
        -9.93729117545946
      ],
      [
        "Ġlife",
        -9.941807908567615
      ],
      [
        "try",
        -9.94287451341573
      ],
      [
        "Ġupstairs",
        -9.944633442424518
      ],
      [
        "Ġmrs",
        -9.944649503447659
      ],
      [
        "Ġsandwich",
        -9.945505251827738
      ],
      [
        "Ġanybody",
        -9.947925930944324
      ],
      [
        "cough",
        -9.955300513745778
      ],
      [
        "Ġbike",
        -9.956802846047278
      ],
      [
        "ball",
        -9.957129297398371
      ],
      [
        "Ġslide",
        -9.957956959297672
      ],
      [
        "fraser",
        -9.958399510902787
      ],
      [
        "Ġview",
        -9.958984203628159
      ],
      [
        "Ġsheep",
        -9.961023297164033
      ],
      [
        "whispers",
        -9.962441791752635
      ],
      [
        "Ġunderstand",
        -9.964373954774546
      ],
      [
        "Ġdrawing",
        -9.965397519970315
      ],
      [
        "Ġwash",
        -9.96639297946451
      ],
      [
        "Ġsuppose",
        -9.966832861561684
      ],
      [
        "shout",
        -9.968248231307102
      ],
      [
        "Ġbob",
        -9.970773558432798
      ],
      [
        "Ġmoon",
        -9.973042044426533
      ],
      [
        "eleanor",
        -9.973838358868027
      ],
      [
        "Ġfair",
        -9.974011945647156
      ],
      [
        "Ġreading",
        -9.97457282427451
      ],
      [
        "Ġsnow",
        -9.975442951825029
      ],
      [
        "Ġboys",
        -9.975849556358812
      ],
      [
        "standing",
        -9.97641983884063
      ],
      [
        "Ġhimself",
        -9.977023579833869
      ],
      [
        "Ġeye",
        -9.977834032882255
      ],
      [
        "zzz",
        -9.978141697716852
      ],
      [
        "Ġfootball",
        -9.978206705159499
      ],
      [
        "Ġstore",
        -9.978684404404639
      ],
      [
        "eat",
        -9.979137682462992
      ],
      [
        "Ġth",
        -9.97985532240545
      ],
      [
        "nothing",
        -9.982050182450354
      ],
      [
        "giving",
        -9.986426026829147
      ],
      [
        "Ġpurdie",
        -9.986775012293297
      ],
      [
        "remember",
        -9.987615373958356
      ],
      [
        "\"]",
        -9.989579241515804
      ],
      [
        "Ġfingers",
        -9.99097940929049
      ],
      [
        "down",
        -9.991365735578716
      ],
      [
        "man",
        -9.994753082823006
      ],
      [
        "Ġshort",
        -9.996102405851925
      ],
      [
        "yellow",
        -9.99913461493055
      ],
      [
        "Ġwarm",
        -9.999600519076669
      ],
      [
        "couldn",
        -10.0035530946803
      ],
      [
        "time",
        -10.003589341578497
      ],
      [
        "Ġgrow",
        -10.004103224197685
      ],
      [
        "Ġpolice",
        -10.004187711372902
      ],
      [
        "Ġcheck",
        -10.006407695884231
      ],
      [
        "going",
        -10.006811969494725
      ],
      [
        "Ġservice",
        -10.007145146284307
      ],
      [
        "Ġseat",
        -10.01027550475725
      ],
      [
        "Ġduh",
        -10.011806053506733
      ],
      [
        "Ġliving",
        -10.012672364957709
      ],
      [
        "bout",
        -10.013736863422448
      ],
      [
        "Ġma",
        -10.01421897238151
      ],
      [
        "Ġreason",
        -10.014689862125266
      ],
      [
        "Ġhid",
        -10.015326018106844
      ],
      [
        "Ġforgot",
        -10.018125438413097
      ],
      [
        "whoops",
        -10.02052346345562
      ],
      [
        "pretend",
        -10.021700472303568
      ],
      [
        "Ġdress",
        -10.022628220576033
      ],
      [
        "Ġknew",
        -10.023133659182252
      ],
      [
        "Ġcoat",
        -10.023968688510546
      ],
      [
        "throw",
        -10.023990857299891
      ],
      [
        "Ġstraight",
        -10.024243542381404
      ],
      [
        "Ġknock",
        -10.025968441378424
      ],
      [
        "turns",
        -10.026558163033961
      ],
      [
        "Ġtiger",
        -10.026817876114949
      ],
      [
        "âĮĪ",
        -10.027892378932716
      ],
      [
        "Ġbell",
        -10.02842635462402
      ],
      [
        "sung",
        -10.029965340264251
      ],
      [
        "Ġturne",
        -10.031586618643182
      ],
      [
        "ger",
        -10.03386137336448
      ],
      [
        "Ġdifficult",
        -10.03448209414022
      ],
      [
        "Ġclock",
        -10.035116960564702
      ],
      [
        "Ġthinking",
        -10.035326647321504
      ],
      [
        "Ġlocal",
        -10.035647245384869
      ],
      [
        "Ġtries",
        -10.042594281267899
      ],
      [
        "âĢĿ.",
        -10.042666695112203
      ],
      [
        "Ġsleeping",
        -10.04301365605805
      ],
      [
        "Ġfly",
        -10.043210431358467
      ],
      [
        "Ġdavid",
        -10.043896080480197
      ],
      [
        "Ġclever",
        -10.048152851470627
      ],
      [
        "Ġpurple",
        -10.048518112767368
      ],
      [
        "green",
        -10.049188349008295
      ],
      [
        "Ġpizza",
        -10.05056381799746
      ],
      [
        "Ġtelling",
        -10.050740332590568
      ],
      [
        "Ġears",
        -10.051241587902776
      ],
      [
        "Ġpoor",
        -10.051452593206285
      ],
      [
        "ally",
        -10.056803154560527
      ],
      [
        "cry",
        -10.057526392865125
      ],
      [
        "Ġballoon",
        -10.057915138226619
      ],
      [
        "Ġsnake",
        -10.05912206407458
      ],
      [
        "Ġpot",
        -10.059864936253039
      ],
      [
        "Ġpushe",
        -10.060066304999728
      ],
      [
        "Ġtelephone",
        -10.061262036789227
      ],
      [
        "Ġjohn",
        -10.062016935336864
      ],
      [
        "Ġobvious",
        -10.062986364575243
      ],
      [
        "her",
        -10.063682043897263
      ],
      [
        "9",
        -10.064202930391293
      ],
      [
        "Ġpen",
        -10.065526024523125
      ],
      [
        "Ġwithou",
        -10.065712661619871
      ],
      [
        "by",
        -10.067455802377522
      ],
      [
        "yay",
        -10.068756676376648
      ],
      [
        "Ġgoodness",
        -10.068862214107895
      ],
      [
        "posta",
        -10.069863679426362
      ],
      [
        "Ġdoin",
        -10.07066952234389
      ],
      [
        "nin",
        -10.071006910396182
      ],
      [
        "Ġsinging",
        -10.071028120212196
      ],
      [
        "Ġreport",
        -10.07156068047157
      ],
      [
        "Ġtrouble",
        -10.071769631745958
      ],
      [
        "Ġclass",
        -10.072292454663803
      ],
      [
        "Ġcarry",
        -10.07471448233204
      ],
      [
        "Ġfollow",
        -10.078866708151473
      ],
      [
        "able",
        -10.079067377352949
      ],
      [
        "Ġboard",
        -10.079165813422938
      ],
      [
        "Ġzoo",
        -10.079712952435308
      ],
      [
        "Ġarea",
        -10.08001013270808
      ],
      [
        "Ġimportant",
        -10.08051355952387
      ],
      [
        "pull",
        -10.082947698079149
      ],
      [
        "Ġtill",
        -10.0860624281517
      ],
      [
        "Ġclown",
        -10.086723511148058
      ],
      [
        "help",
        -10.088419503298004
      ],
      [
        "Ġmonster",
        -10.08991042236579
      ],
      [
        "Ġnaught",
        -10.090242997147072
      ],
      [
        "Ġdirt",
        -10.09097081068531
      ],
      [
        "Ġvisit",
        -10.092784971013142
      ],
      [
        "Ġla",
        -10.094452924647909
      ],
      [
        "col",
        -10.09498541181669
      ],
      [
        "dis",
        -10.09676582799639
      ],
      [
        "Ġterm",
        -10.097299224425306
      ],
      [
        "âĢĿ",
        -10.098111228657721
      ],
      [
        "âĮĭ",
        -10.09846354388881
      ],
      [
        "haha",
        -10.098869023490819
      ],
      [
        "Ġear",
        -10.101333726968157
      ],
      [
        "Ġpaint",
        -10.102759042825015
      ],
      [
        "Ġdark",
        -10.103745370226159
      ],
      [
        "Ġmusic",
        -10.105757005377647
      ],
      [
        "Ġsmell",
        -10.106644968459783
      ],
      [
        "six",
        -10.111294083428483
      ],
      [
        "kar",
        -10.111997648772476
      ],
      [
        "ĠâĮĬ",
        -10.1168329520907
      ],
      [
        "Ġtaken",
        -10.118060723136784
      ],
      [
        "Ġspace",
        -10.122874104122676
      ],
      [
        "Ġusing",
        -10.123301710876028
      ],
      [
        "Ġcool",
        -10.123390914402783
      ],
      [
        "making",
        -10.124516015121083
      ],
      [
        "Ġmoving",
        -10.12551822552842
      ],
      [
        "whoa",
        -10.126483440115205
      ],
      [
        "Ġforward",
        -10.129839940261713
      ],
      [
        "sigh",
        -10.13018972750821
      ],
      [
        "Ġgovernment",
        -10.130606684073634
      ],
      [
        "Ġdownstair",
        -10.130740865729088
      ],
      [
        "Ġblanket",
        -10.13140266696844
      ],
      [
        "Ġmagnet",
        -10.137257279212808
      ],
      [
        "Ġdry",
        -10.13868678355653
      ],
      [
        "Ġplaye",
        -10.139482941207106
      ],
      [
        "Ġyoung",
        -10.142364917885548
      ],
      [
        "Ġrecorder",
        -10.143018330988365
      ],
      [
        "during",
        -10.144288015725976
      ],
      [
        "Ġtoast",
        -10.14581014055561
      ],
      [
        "Ġstar",
        -10.14622629228477
      ],
      [
        "Ġcost",
        -10.147617420019007
      ],
      [
        "Ġsixty",
        -10.148025027620193
      ],
      [
        "over",
        -10.148152129596902
      ],
      [
        "Ġdoggie",
        -10.148453021620945
      ],
      [
        "Ġwan",
        -10.14888782245425
      ],
      [
        "Ġpost",
        -10.149053365435474
      ],
      [
        "Ġpie",
        -10.14935742846573
      ],
      [
        "Ġtaste",
        -10.154253749420754
      ],
      [
        "Ġdere",
        -10.154842119910551
      ],
      [
        "Ġmachine",
        -10.155637237646024
      ],
      [
        "Ġdriver",
        -10.158455897500005
      ],
      [
        "Ġsince",
        -10.161056672698589
      ],
      [
        "Ġswimming",
        -10.161403832161266
      ],
      [
        "Ġmovie",
        -10.163915547151712
      ],
      [
        "Ġplaces",
        -10.165281672960653
      ],
      [
        "Ġairplane",
        -10.165713541115053
      ],
      [
        "from",
        -10.166565190432118
      ],
      [
        "Ġleas",
        -10.169909986050172
      ],
      [
        "Ġstrong",
        -10.170528493386971
      ],
      [
        "Ġpress",
        -10.172090920450819
      ],
      [
        "Ġforget",
        -10.172604778222944
      ],
      [
        "Ġtower",
        -10.173385461657274
      ],
      [
        "were",
        -10.173721200355539
      ],
      [
        "Ġbedroom",
        -10.176239524270066
      ],
      [
        "Ġfeed",
        -10.176715925673388
      ],
      [
        "Ġbusy",
        -10.178927638270945
      ],
      [
        "Ġlift",
        -10.180570899926998
      ],
      [
        "Ġproper",
        -10.181055881850448
      ],
      [
        "toys",
        -10.181122039276254
      ],
      [
        "Ġnursery",
        -10.185224452077527
      ],
      [
        "z",
        -10.186229242068933
      ],
      [
        "Ġscared",
        -10.1872017011353
      ],
      [
        "Ġlaughing",
        -10.187457210939348
      ],
      [
        "Ġsunday",
        -10.190581539849862
      ],
      [
        "Ġreach",
        -10.191006749335102
      ],
      [
        "Ġpencil",
        -10.1916900401483
      ],
      [
        "Ġsaturday",
        -10.192401959068473
      ],
      [
        "Ġnormal",
        -10.194530720804988
      ],
      [
        "Ġsticker",
        -10.199546560093513
      ],
      [
        "Ġmeeting",
        -10.202923473264274
      ],
      [
        "Ġrecord",
        -10.203302896858904
      ],
      [
        "Ġwriting",
        -10.204196044230759
      ],
      [
        "Ġsugar",
        -10.204337776610824
      ],
      [
        "ar",
        -10.205349071620978
      ],
      [
        "about",
        -10.206756968872853
      ],
      [
        "voluntar",
        -10.208677254514452
      ],
      [
        "Ġeggs",
        -10.208715780663812
      ],
      [
        "Ġal",
        -10.209074319275395
      ],
      [
        "Ġglass",
        -10.209478293096307
      ],
      [
        "Ġjigsaw",
        -10.210485096880614
      ],
      [
        "Ġtried",
        -10.210942938618134
      ],
      [
        "Ġfriday",
        -10.211537089958538
      ],
      [
        "Ġgrass",
        -10.214846809177748
      ],
      [
        "Ġearly",
        -10.218167678693586
      ],
      [
        "Ġeasy",
        -10.218801913891848
      ],
      [
        "any",
        -10.220766137096518
      ],
      [
        "Ġclear",
        -10.222396493105936
      ],
      [
        "Ġinteresting",
        -10.223559743514151
      ],
      [
        "glo",
        -10.223972723185579
      ],
      [
        "Ġboo",
        -10.228018699707508
      ],
      [
        "Ġfight",
        -10.22898661869491
      ],
      [
        "Ġwind",
        -10.229187129356102
      ],
      [
        "Ġholiday",
        -10.229398108039467
      ],
      [
        "Ġpat",
        -10.231015162915368
      ],
      [
        "Ġcountry",
        -10.232055336103564
      ],
      [
        "Ġhide",
        -10.233878211655139
      ],
      [
        "Ġdunn",
        -10.235790957444383
      ],
      [
        "Ġcross",
        -10.236202461582966
      ],
      [
        "oop",
        -10.239663446946373
      ],
      [
        "voc",
        -10.240353622936592
      ],
      [
        "Ġrain",
        -10.240513853969954
      ],
      [
        "Ġarms",
        -10.240875304570096
      ],
      [
        "Ġtractor",
        -10.243102079821632
      ],
      [
        "Ġbanana",
        -10.243134349301561
      ],
      [
        "first",
        -10.244875779725376
      ],
      [
        "Ġsad",
        -10.244970525737902
      ],
      [
        "after",
        -10.245463757731304
      ],
      [
        "Ġage",
        -10.246933456482324
      ],
      [
        "Ġhappening",
        -10.247163490318492
      ],
      [
        "Ġcorner",
        -10.248329122654225
      ],
      [
        "Ġcarl",
        -10.248382845978236
      ],
      [
        "Ġblood",
        -10.248967723876717
      ],
      [
        "Ġbathroom",
        -10.250037651987135
      ],
      [
        "Ġwish",
        -10.251219027095079
      ],
      [
        "Ġinterested",
        -10.251356875030782
      ],
      [
        "Ġground",
        -10.251942250543433
      ],
      [
        "Ġhello",
        -10.252686434452368
      ],
      [
        "Ġafternoon",
        -10.2577071843396
      ],
      [
        "stead",
        -10.2590178823204
      ],
      [
        "mine",
        -10.26001776515593
      ],
      [
        "whose",
        -10.26007620020183
      ],
      [
        "Ġdrop",
        -10.260327167243478
      ],
      [
        "Ġpour",
        -10.261115431729564
      ],
      [
        "âĮī",
        -10.261912998951914
      ],
      [
        "Ġaft",
        -10.26465924543178
      ],
      [
        "Ġhorsie",
        -10.264997348514402
      ],
      [
        "Ġsummer",
        -10.266933634734976
      ],
      [
        "Ġenjoy",
        -10.26847947746899
      ],
      [
        "Ġlarge",
        -10.269258715608519
      ],
      [
        "Ġdresse",
        -10.26932417549458
      ],
      [
        "Ġtrack",
        -10.271932474949793
      ],
      [
        "Ġeleven",
        -10.273401736779658
      ],
      [
        "Ġbiscuit",
        -10.274465974029585
      ],
      [
        "babble",
        -10.275171683838952
      ],
      [
        "Ġpolic",
        -10.275252265933911
      ],
      [
        "Ġshare",
        -10.27573700192881
      ],
      [
        "Ġlap",
        -10.278652585006693
      ],
      [
        "Ġdroppe",
        -10.279130140422506
      ],
      [
        "Ġgeneral",
        -10.282077158333458
      ],
      [
        "Ġland",
        -10.282578602133796
      ],
      [
        "Ġplan",
        -10.28307445369316
      ],
      [
        "Ġnotice",
        -10.284894435035959
      ],
      [
        "mel",
        -10.28526819741817
      ],
      [
        "Ġtiny",
        -10.286133403575846
      ],
      [
        "push",
        -10.288798733948049
      ],
      [
        "helen",
        -10.28919705836416
      ],
      [
        "Ġstation",
        -10.28968378468593
      ],
      [
        "Ġlearn",
        -10.290526028692936
      ],
      [
        "Ġwood",
        -10.291026236539395
      ],
      [
        "Ġpeas",
        -10.291346101777023
      ],
      [
        "Ġran",
        -10.292010870297311
      ],
      [
        "Ġtrees",
        -10.292261106825393
      ],
      [
        "Ġhospital",
        -10.292846378165965
      ],
      [
        "Ġsave",
        -10.29556181159804
      ],
      [
        "doesn",
        -10.295638355120596
      ],
      [
        "Ġsick",
        -10.295993297914674
      ],
      [
        "Ġcarrot",
        -10.296903977061657
      ],
      [
        "Ġhasta",
        -10.296997903610471
      ],
      [
        "Ġapart",
        -10.298894873581897
      ],
      [
        "Ġlevel",
        -10.299860236878558
      ],
      [
        "Ġchip",
        -10.300908788444914
      ],
      [
        "Ġnest",
        -10.301331287147573
      ],
      [
        "Ġbridge",
        -10.301610668769618
      ],
      [
        "Ġbubble",
        -10.303764426162548
      ],
      [
        "Ġhang",
        -10.305989095229496
      ],
      [
        "night",
        -10.306553829631337
      ],
      [
        "Ġcounty",
        -10.306675682388658
      ],
      [
        "Ġvan",
        -10.308365369011558
      ],
      [
        "Ġspider",
        -10.308471504549189
      ],
      [
        "Ġlay",
        -10.308633183296397
      ],
      [
        "Ġtrue",
        -10.309013481359298
      ],
      [
        "Ġlorry",
        -10.309599074398353
      ],
      [
        "Ġwashing",
        -10.311685564639696
      ],
      [
        "Ġsquare",
        -10.31267017715259
      ],
      [
        "Ġhug",
        -10.312873417490676
      ],
      [
        "Ġoffice",
        -10.313952344673474
      ],
      [
        "Ġross",
        -10.314752547403279
      ],
      [
        "Ġsarah",
        -10.315571417886328
      ],
      [
        "Ġwake",
        -10.315724948898115
      ],
      [
        "something",
        -10.316916103885823
      ],
      [
        "Ġshouldn",
        -10.317940333816495
      ],
      [
        "shakes",
        -10.318190525580752
      ],
      [
        "twenty",
        -10.318329603658027
      ],
      [
        "bob",
        -10.319109833395697
      ],
      [
        "Ġsend",
        -10.31941229036865
      ],
      [
        "onto",
        -10.320632232248737
      ],
      [
        "lou",
        -10.320947355688602
      ],
      [
        "chuckle",
        -10.321283285201833
      ],
      [
        "Ġpocket",
        -10.322731513173913
      ],
      [
        "Ġplant",
        -10.32411332427456
      ],
      [
        "Ġhandle",
        -10.324659233729797
      ],
      [
        "Ġfifteen",
        -10.326421251926558
      ],
      [
        "Ġking",
        -10.327153561547245
      ],
      [
        "leave",
        -10.329080745553242
      ],
      [
        "know",
        -10.331817694156966
      ],
      [
        "owed",
        -10.334028042438476
      ],
      [
        "Ġdrops",
        -10.334717697025074
      ],
      [
        "Ġexact",
        -10.334730931705483
      ],
      [
        "orange",
        -10.33572466717822
      ],
      [
        "excuse",
        -10.335808710833582
      ],
      [
        "Ġplastic",
        -10.338923775449045
      ],
      [
        "voice",
        -10.340271704323031
      ],
      [
        "Ġdoggy",
        -10.341477191029549
      ],
      [
        "Ġbead",
        -10.34245259937212
      ],
      [
        "Ġbarn",
        -10.344406961006632
      ],
      [
        "Ġsell",
        -10.345983229736285
      ],
      [
        "Ġfruit",
        -10.346254542857654
      ],
      [
        "Ġpicked",
        -10.349634798817082
      ],
      [
        "Ġvocalise",
        -10.351283554363238
      ],
      [
        "Ġbody",
        -10.35216345237551
      ],
      [
        "jo",
        -10.354694132507603
      ],
      [
        "Ġheavy",
        -10.356936869314218
      ],
      [
        "Ġkey",
        -10.35826246374501
      ],
      [
        "Ġglasses",
        -10.359224337002892
      ],
      [
        "Ġtown",
        -10.3606807683705
      ],
      [
        "Ġsky",
        -10.3627969722545
      ],
      [
        "didn",
        -10.363219592060116
      ],
      [
        "Ġshake",
        -10.36446185636908
      ],
      [
        "Ġmichael",
        -10.366196275886022
      ],
      [
        "Ġwaiting",
        -10.36752900415992
      ],
      [
        "Ġmister",
        -10.369179425371494
      ],
      [
        "Ġsweet",
        -10.370864709256317
      ],
      [
        "Ġpuppy",
        -10.371153067843112
      ],
      [
        "Ġlaur",
        -10.372079754361936
      ],
      [
        "steven",
        -10.375261954749424
      ],
      [
        "aun",
        -10.375945071373124
      ],
      [
        "Ġpaul",
        -10.375960219650414
      ],
      [
        "Ġlives",
        -10.377105180252249
      ],
      [
        "Ġsupposed",
        -10.378283631300214
      ],
      [
        "Ġsocks",
        -10.37829678357787
      ],
      [
        "goes",
        -10.379494129246549
      ],
      [
        "Ġwithin",
        -10.381686585536793
      ],
      [
        "Ġco",
        -10.38205559746429
      ],
      [
        "sometime",
        -10.382504766646765
      ],
      [
        "Ġagree",
        -10.382653979573075
      ],
      [
        "gonna",
        -10.382984180287771
      ],
      [
        "listen",
        -10.383385842958425
      ],
      [
        "though",
        -10.383641809233168
      ],
      [
        "reache",
        -10.384618472430782
      ],
      [
        "Ġhealth",
        -10.385218631953098
      ],
      [
        "Ġcaterpillar",
        -10.385594926587302
      ],
      [
        "Ġflat",
        -10.386176830376616
      ],
      [
        "Ġmirror",
        -10.388270152792739
      ],
      [
        "Ġbasket",
        -10.390502223456178
      ],
      [
        "Ġbusiness",
        -10.391993852011979
      ],
      [
        "Ġplane",
        -10.393927056112304
      ],
      [
        "Ġslow",
        -10.395404947583835
      ],
      [
        "Ġsurprise",
        -10.395650705345496
      ],
      [
        "Ġpooh",
        -10.396751030550764
      ],
      [
        "keep",
        -10.400448944293927
      ],
      [
        "Ġmonday",
        -10.400778317537208
      ],
      [
        "Ġoften",
        -10.40152333234128
      ],
      [
        "Ġmcdonald",
        -10.401900768936127
      ],
      [
        "Ġmain",
        -10.403869078752306
      ],
      [
        "Ġsafe",
        -10.404495384162448
      ],
      [
        "Ġfeeling",
        -10.404643953803173
      ],
      [
        "Ġpeanut",
        -10.405885701220129
      ],
      [
        "Ġwand",
        -10.414544967839415
      ],
      [
        "Ġtelevision",
        -10.414788170644758
      ],
      [
        "Ġmeat",
        -10.415126284989352
      ],
      [
        "Ġmissed",
        -10.415564243857062
      ],
      [
        "Ġsize",
        -10.416832669325842
      ],
      [
        "Ġladder",
        -10.417357981135961
      ],
      [
        "eight",
        -10.418044960488032
      ],
      [
        "Ġdeal",
        -10.418303384203284
      ],
      [
        "Ġworry",
        -10.418681569880231
      ],
      [
        "Ġhaha",
        -10.41904104671531
      ],
      [
        "Ġmike",
        -10.421454813110751
      ],
      [
        "Ġicecream",
        -10.425553578452227
      ],
      [
        "Ġrock",
        -10.425574384280482
      ],
      [
        "mad",
        -10.42669721092474
      ],
      [
        "leans",
        -10.427020481002113
      ],
      [
        "Ġowl",
        -10.428411610243792
      ],
      [
        "wha",
        -10.431088041541164
      ],
      [
        "[$",
        -10.432170491374542
      ],
      [
        "Ġgrab",
        -10.432268883244259
      ],
      [
        "Ġwow",
        -10.432848955333814
      ],
      [
        "Ġgarage",
        -10.433501316533842
      ],
      [
        "Ġstep",
        -10.434982605035565
      ],
      [
        "Ġeleanor",
        -10.434987494032068
      ],
      [
        "Ġfirstname",
        -10.437142514633353
      ],
      [
        "Ġsupport",
        -10.438125155308486
      ],
      [
        "scream",
        -10.440356682446554
      ],
      [
        "Ġless",
        -10.440776970843569
      ],
      [
        "Ġfelt",
        -10.441864852838105
      ],
      [
        "Ġpass",
        -10.442806517600683
      ],
      [
        "Ġstring",
        -10.446035710252577
      ],
      [
        "Ġshut",
        -10.449608187238635
      ],
      [
        "Ġconcern",
        -10.45100621593734
      ],
      [
        "Ġbin",
        -10.451282296350536
      ],
      [
        "Ġalone",
        -10.451631821929972
      ],
      [
        "stairs",
        -10.454034200727211
      ],
      [
        "Ġutterances",
        -10.455340742249213
      ],
      [
        "jwww",
        -10.45749170394768
      ],
      [
        "Ġcups",
        -10.457614476830068
      ],
      [
        "back",
        -10.459118807220499
      ],
      [
        "Ġswing",
        -10.459681616546732
      ],
      [
        "other",
        -10.46126451097301
      ],
      [
        "seven",
        -10.461421005833271
      ],
      [
        "Ġtickle",
        -10.463050511432698
      ],
      [
        "Ġpercent",
        -10.46338490116387
      ],
      [
        "Ġbutterfly",
        -10.464007943705123
      ],
      [
        "Ġdance",
        -10.46425444863462
      ],
      [
        "Ġyum",
        -10.464914530887366
      ],
      [
        "vocalization",
        -10.466901857694413
      ],
      [
        "Ġadam",
        -10.467284547728038
      ],
      [
        "Ġlie",
        -10.468058976619634
      ],
      [
        "Ġagains",
        -10.468935450746748
      ],
      [
        "Ġshopping",
        -10.470066830862345
      ],
      [
        "Ġsystem",
        -10.471650710982289
      ],
      [
        "squeal",
        -10.472099536766834
      ],
      [
        "Ġcute",
        -10.473309115939786
      ],
      [
        "Ġasleep",
        -10.47332192032097
      ],
      [
        "again",
        -10.47639172952182
      ],
      [
        "lau",
        -10.480076079934726
      ],
      [
        "Ġtummy",
        -10.480626213377551
      ],
      [
        "Ġcough",
        -10.482150548411166
      ],
      [
        "referr",
        -10.485275432838911
      ],
      [
        "Ġthird",
        -10.486142817774336
      ],
      [
        "Ġwomen",
        -10.486275494307337
      ],
      [
        "start",
        -10.486511409040457
      ],
      [
        "Ġpages",
        -10.487189937370701
      ],
      [
        "Ġdifference",
        -10.488834238824051
      ],
      [
        "Ġdead",
        -10.488852741564816
      ],
      [
        "ellie",
        -10.490281783594607
      ],
      [
        "Ġfarmer",
        -10.490960981031328
      ],
      [
        "Ġvideo",
        -10.491940158548806
      ],
      [
        "Ġworks",
        -10.496169342351259
      ],
      [
        "Ġeveryone",
        -10.496282619228902
      ],
      [
        "Ġpool",
        -10.496412174113653
      ],
      [
        "Ġwar",
        -10.49718601281786
      ],
      [
        "Ġquack",
        -10.49738147046016
      ],
      [
        "whine",
        -10.498214523607155
      ],
      [
        "round",
        -10.498389338499745
      ],
      [
        "Ġprice",
        -10.499174473070799
      ],
      [
        "Ġboots",
        -10.500996085188248
      ],
      [
        "Ġbee",
        -10.50130166072956
      ],
      [
        "Ġsweetie",
        -10.501615339950943
      ],
      [
        "june",
        -10.501706050360871
      ],
      [
        "Ġwin",
        -10.501927396536804
      ],
      [
        "Ġwoman",
        -10.50298961487566
      ],
      [
        "ber",
        -10.503398163194444
      ],
      [
        "Ġcommittee",
        -10.504419846366059
      ],
      [
        "high",
        -10.504497884021713
      ],
      [
        "Ġdolly",
        -10.504691487178915
      ],
      [
        "Ġnobod",
        -10.505093439057003
      ],
      [
        "Ġfence",
        -10.505425207227347
      ],
      [
        "Ġfree",
        -10.5079691958658
      ],
      [
        "Ġbump",
        -10.511196021436419
      ],
      [
        "Ġfireman",
        -10.511696033037584
      ],
      [
        "Ġreturn",
        -10.512692377188504
      ],
      [
        "nic",
        -10.512838072773803
      ],
      [
        "wise",
        -10.513066364786201
      ],
      [
        "Ġsevent",
        -10.514873180240539
      ],
      [
        "still",
        -10.515061759659519
      ],
      [
        "next",
        -10.515285193606271
      ],
      [
        "Ġstands",
        -10.516607136817148
      ],
      [
        "whee",
        -10.516654964059335
      ],
      [
        "Ġpig",
        -10.517060560179083
      ],
      [
        "teacher",
        -10.51762954171126
      ],
      [
        "Ġkick",
        -10.517753011365546
      ],
      [
        "Ġbeginning",
        -10.520823797202524
      ],
      [
        "Ġsoup",
        -10.520869200581291
      ],
      [
        "Ġsituation",
        -10.52146212275078
      ],
      [
        "Ġheart",
        -10.521549715537988
      ],
      [
        "Ġquarter",
        -10.521926176858383
      ],
      [
        "Ġmembers",
        -10.522171926868532
      ],
      [
        "somebod",
        -10.522250840218879
      ],
      [
        "Ġissue",
        -10.523878273136795
      ],
      [
        "Ġlights",
        -10.525763802374298
      ],
      [
        "Ġwipe",
        -10.526485113504936
      ],
      [
        "Ġknee",
        -10.526902646307335
      ],
      [
        "nik",
        -10.527269447241682
      ],
      [
        "dog",
        -10.528778228483231
      ],
      [
        "Ġclosed",
        -10.528928919418554
      ],
      [
        "Ġcereal",
        -10.529109792378275
      ],
      [
        "Ġscar",
        -10.529130125630417
      ],
      [
        "Ġpoo",
        -10.52951553596073
      ],
      [
        "Ġdesk",
        -10.530243580738727
      ],
      [
        "boo",
        -10.53075001892264
      ],
      [
        "Ġwatches",
        -10.533335324849489
      ],
      [
        "Ġpostman",
        -10.533478273945878
      ],
      [
        "Ġkept",
        -10.533961105903312
      ],
      [
        "Ġcomment",
        -10.53470318565515
      ],
      [
        "Ġspell",
        -10.535097114579267
      ],
      [
        "Ġsign",
        -10.535259050598953
      ],
      [
        "lots",
        -10.535752482121598
      ],
      [
        "probabl",
        -10.536290659044056
      ],
      [
        "Ġshout",
        -10.53630449641836
      ],
      [
        "Ġdollar",
        -10.538448804424117
      ],
      [
        "Ġcomplete",
        -10.538698311016077
      ],
      [
        "Ġbar",
        -10.538913755673462
      ],
      [
        "ere",
        -10.539746799037644
      ],
      [
        "Ġexample",
        -10.539882788822121
      ],
      [
        "Ġtype",
        -10.540008579685743
      ],
      [
        "Ġbother",
        -10.54017192008956
      ],
      [
        "flying",
        -10.540853640929381
      ],
      [
        "Ġresponse",
        -10.540914359284194
      ],
      [
        "Ġactivity",
        -10.54201686507713
      ],
      [
        "Ġcomputer",
        -10.542393348936889
      ],
      [
        "boy",
        -10.543462893705112
      ],
      [
        "Ġcontainer",
        -10.544893463455264
      ],
      [
        "Ġwelcome",
        -10.546291208889741
      ],
      [
        "Ġbeach",
        -10.546338315542574
      ],
      [
        "Ġempty",
        -10.547933982637673
      ],
      [
        "Ġawful",
        -10.54859445635093
      ],
      [
        "falling",
        -10.549577405181388
      ],
      [
        "Ġcaught",
        -10.551531489474682
      ],
      [
        "byebye",
        -10.553076118516788
      ],
      [
        "Ġmention",
        -10.553092613354787
      ],
      [
        "Ġcloser",
        -10.553279135070099
      ],
      [
        "Ġturtle",
        -10.553572449521344
      ],
      [
        "Ġmarket",
        -10.555350320182303
      ],
      [
        "Ġpants",
        -10.555689228434538
      ],
      [
        "Ġspot",
        -10.55661289199817
      ],
      [
        "Ġkid",
        -10.557470658783416
      ],
      [
        "Ġpurse",
        -10.558462311071045
      ],
      [
        "Ġbuilder",
        -10.558468266757698
      ],
      [
        "Ġroof",
        -10.55926892230628
      ],
      [
        "continue",
        -10.56047661282703
      ],
      [
        "room",
        -10.560489038046839
      ],
      [
        "Ġchurch",
        -10.561159386190393
      ],
      [
        "Ġhop",
        -10.561978321984915
      ],
      [
        "Ġrising",
        -10.562179668590929
      ],
      [
        "Ġcouch",
        -10.56226514981974
      ],
      [
        "Ġluck",
        -10.562661846585094
      ],
      [
        "choo",
        -10.562968492426547
      ],
      [
        "Ġseconds",
        -10.564116349236112
      ],
      [
        "Ġtidy",
        -10.565556430180894
      ],
      [
        "Ġposition",
        -10.566695926799412
      ],
      [
        "Ġba",
        -10.567867736216336
      ],
      [
        "Ġnumbers",
        -10.569338166148544
      ],
      [
        "ric",
        -10.569695347813832
      ],
      [
        "Ġalien",
        -10.570311609327188
      ],
      [
        "thanks",
        -10.570331372133127
      ],
      [
        "Ġitem",
        -10.57058166605664
      ],
      [
        "refer",
        -10.572558841509233
      ],
      [
        "Ġanywhere",
        -10.572822941480663
      ],
      [
        "Ġper",
        -10.572945037058306
      ],
      [
        "Ġpo",
        -10.57340508094673
      ],
      [
        "Ġcorn",
        -10.574686571474903
      ],
      [
        "Ġcrawl",
        -10.575783868704292
      ],
      [
        "Ġbill",
        -10.576349401392072
      ],
      [
        "ouch",
        -10.577641188274802
      ],
      [
        "Ġyummy",
        -10.577846148091602
      ],
      [
        "Ġmeal",
        -10.577865575926374
      ],
      [
        "Ġle",
        -10.578637274112104
      ],
      [
        "Ġinterest",
        -10.580018060793659
      ],
      [
        "Ġthanks",
        -10.581107063284728
      ],
      [
        "Ġinformation",
        -10.583370330640976
      ],
      [
        "Ġupside",
        -10.584600879463299
      ],
      [
        "Ġbucket",
        -10.584794983921139
      ],
      [
        "lyn",
        -10.585246903726631
      ],
      [
        "Ġmeet",
        -10.58571552418794
      ],
      [
        "move",
        -10.58782122325999
      ],
      [
        "Ġmillion",
        -10.588019908319207
      ],
      [
        "Ġexplain",
        -10.588383856652616
      ],
      [
        "Ġbasic",
        -10.588490271944275
      ],
      [
        "Ġbrief",
        -10.588565147042942
      ],
      [
        "Ġawww",
        -10.589913518717125
      ],
      [
        "Ġwa",
        -10.59142822595874
      ],
      [
        "Ġboxes",
        -10.591624292704271
      ],
      [
        "aren",
        -10.593637606356722
      ],
      [
        "Ġstoppe",
        -10.594454918454392
      ],
      [
        "Ġpotato",
        -10.59448797966634
      ],
      [
        "Ġattention",
        -10.595757721953166
      ],
      [
        "Ġgiraffe",
        -10.59667652243277
      ],
      [
        "moves",
        -10.596956786412285
      ],
      [
        "Ġbrick",
        -10.598038598369342
      ],
      [
        "gai",
        -10.601358527272541
      ],
      [
        "speech",
        -10.602143890927557
      ],
      [
        "Ġpats",
        -10.602175237119098
      ],
      [
        "david",
        -10.602221761678635
      ],
      [
        "Ġtoes",
        -10.602974307866095
      ],
      [
        "Ġfork",
        -10.603430873522909
      ],
      [
        "Ġabsolute",
        -10.604323890802089
      ],
      [
        "careful",
        -10.606080532379945
      ],
      [
        "Ġsausage",
        -10.606701950656205
      ],
      [
        "Ġhammer",
        -10.607381856717986
      ],
      [
        "Ġtall",
        -10.607698100905342
      ],
      [
        "Ġyork",
        -10.6077101885012
      ],
      [
        "ary",
        -10.613484082681259
      ],
      [
        "Ġaye",
        -10.6175547423286
      ],
      [
        "Ġinvolve",
        -10.617637296232346
      ],
      [
        "close",
        -10.617857086046197
      ],
      [
        "Ġaction",
        -10.619566687370174
      ],
      [
        "Ġauthorit",
        -10.62023801324585
      ],
      [
        "Ġcrocodile",
        -10.621039871468826
      ],
      [
        "Ġnap",
        -10.621540576963463
      ],
      [
        "Ġpumpkin",
        -10.622238702757933
      ],
      [
        "Ġtuesday",
        -10.622668416560108
      ],
      [
        "yum",
        -10.623400426477648
      ],
      [
        "Ġjune",
        -10.625437881826212
      ],
      [
        "Ġpower",
        -10.625548970162232
      ],
      [
        "Ġpainting",
        -10.626502323364798
      ],
      [
        "Ġsir",
        -10.626584338622786
      ],
      [
        "Ġtony",
        -10.627620425841066
      ],
      [
        "Ġkeys",
        -10.62863592092439
      ],
      [
        "Ġmad",
        -10.628813714082568
      ],
      [
        "Ġrings",
        -10.629384262349134
      ],
      [
        "Ġsense",
        -10.630518694701859
      ],
      [
        "quick",
        -10.631138893192901
      ],
      [
        "Ġcandy",
        -10.631377182518337
      ],
      [
        "Ġoven",
        -10.631463782099974
      ],
      [
        "Ġcity",
        -10.632287717775643
      ],
      [
        "Ġpai",
        -10.632429461040815
      ],
      [
        "Ġsomethin",
        -10.633770003042729
      ],
      [
        "Ġbeep",
        -10.635921911289945
      ],
      [
        "Ġcompany",
        -10.637780036489527
      ],
      [
        "everybody",
        -10.639187342934193
      ],
      [
        "Ġfurther",
        -10.640960885670495
      ],
      [
        "Ġbeans",
        -10.645198974668837
      ],
      [
        "Ġextra",
        -10.64666172706405
      ],
      [
        "Ġrace",
        -10.6468553858031
      ],
      [
        "Ġradio",
        -10.647682065552793
      ],
      [
        "Ġindeed",
        -10.6483014435079
      ],
      [
        "Ġjelly",
        -10.65083952664671
      ],
      [
        "Ġneck",
        -10.651070575009463
      ],
      [
        "Ġspaghetti",
        -10.652525143346356
      ],
      [
        "nine",
        -10.653050275505995
      ],
      [
        "Ġtap",
        -10.653139466980303
      ],
      [
        "Ġweekend",
        -10.653661550853148
      ],
      [
        "tries",
        -10.654700360813022
      ],
      [
        "Ġneat",
        -10.655388908603802
      ],
      [
        "Ġjumping",
        -10.656424799836959
      ],
      [
        "Ġlose",
        -10.657424592065151
      ],
      [
        "last",
        -10.65765338177087
      ],
      [
        "Ġtraffic",
        -10.658894294609805
      ],
      [
        "Ġearlie",
        -10.65929929790411
      ],
      [
        "dada",
        -10.661233822814793
      ],
      [
        "Ġtight",
        -10.661342925831585
      ],
      [
        "water",
        -10.662412304270617
      ],
      [
        "Ġcone",
        -10.662907582013863
      ],
      [
        "Ġcentre",
        -10.662961367326902
      ],
      [
        "Ġbelong",
        -10.663010089377202
      ],
      [
        "Ġsea",
        -10.664848918822864
      ],
      [
        "Ġturning",
        -10.665253644775374
      ],
      [
        "Ġgames",
        -10.665841701803398
      ],
      [
        "Ġknife",
        -10.666289184642043
      ],
      [
        "Ġundernea",
        -10.666675192431347
      ],
      [
        "Ġpan",
        -10.66915393154435
      ],
      [
        "Ġfinal",
        -10.669686100573312
      ],
      [
        "Ġsent",
        -10.6699230363529
      ],
      [
        "Ġpublic",
        -10.67008283436105
      ],
      [
        "Ġcupboard",
        -10.67140790491682
      ],
      [
        "Ġworke",
        -10.672267043040558
      ],
      [
        "bring",
        -10.672550136929207
      ],
      [
        "Ġcj",
        -10.673174889960519
      ],
      [
        "mummie",
        -10.674879134139664
      ],
      [
        "Ġlonger",
        -10.675846721390569
      ],
      [
        "Ġtoilet",
        -10.676033737090076
      ],
      [
        "Ġwednesday",
        -10.67800993475473
      ],
      [
        "unnecessar",
        -10.679746763023196
      ],
      [
        "Ġpicnic",
        -10.679870753867382
      ],
      [
        "moving",
        -10.680185862535676
      ],
      [
        "Ġrecording",
        -10.681141600207244
      ],
      [
        "drink",
        -10.681269533648805
      ],
      [
        "Ġchris",
        -10.682683156946588
      ],
      [
        "gives",
        -10.68414956803575
      ],
      [
        "Ġlow",
        -10.684255466403014
      ],
      [
        "Ġinterrupt",
        -10.684763789415635
      ],
      [
        "Ġsuggest",
        -10.684861337379992
      ],
      [
        "never",
        -10.685126859916704
      ],
      [
        "Ġclap",
        -10.685479975292846
      ],
      [
        "Ġinni",
        -10.686162101942346
      ],
      [
        "Ġjoin",
        -10.686557495459695
      ],
      [
        "Ġjeannine",
        -10.688608084821386
      ],
      [
        "Ġtrip",
        -10.689586135847794
      ],
      [
        "Ġsteven",
        -10.689614593448297
      ],
      [
        "grunt",
        -10.691529886412415
      ],
      [
        "Ġterribl",
        -10.694028190275557
      ],
      [
        "Ġchance",
        -10.695305147178978
      ],
      [
        "Ġlondon",
        -10.696620365120193
      ],
      [
        "Ġthursday",
        -10.697305800712883
      ],
      [
        "Ġdirect",
        -10.697358393327654
      ],
      [
        "Ġgranddad",
        -10.698552214420623
      ],
      [
        "Ġeighteen",
        -10.69892689465542
      ],
      [
        "Ġchew",
        -10.699807411722194
      ],
      [
        "Ġsteps",
        -10.699971980421019
      ],
      [
        "Ġdi",
        -10.700509598864741
      ],
      [
        "gimme",
        -10.701553431755006
      ],
      [
        "Ġamount",
        -10.702007814482682
      ],
      [
        "ness",
        -10.70205401422514
      ],
      [
        "0",
        -10.70242696166717
      ],
      [
        "Ġeliminate",
        -10.705005117975936
      ],
      [
        "overlap",
        -10.70600889318208
      ],
      [
        "gasp",
        -10.708876264176128
      ],
      [
        "Ġjacket",
        -10.70942398026702
      ],
      [
        "off",
        -10.710635244509234
      ],
      [
        "Ġparents",
        -10.712633476562933
      ],
      [
        "before",
        -10.713240354549821
      ],
      [
        "Ġplayer",
        -10.713974214649856
      ],
      [
        "places",
        -10.71403441920916
      ],
      [
        "Ġjumped",
        -10.714309612848236
      ],
      [
        "Ġrustling",
        -10.715528234202552
      ],
      [
        "ann",
        -10.718427026297823
      ],
      [
        "Ġdada",
        -10.719149220904232
      ],
      [
        "apple",
        -10.721899490592232
      ],
      [
        "poor",
        -10.722050594525424
      ],
      [
        "Ġtalks",
        -10.722303074256887
      ],
      [
        "day",
        -10.722476290523513
      ],
      [
        "house",
        -10.722479317406664
      ],
      [
        "Ġolder",
        -10.724616180679355
      ],
      [
        "Ġofficer",
        -10.725247774428105
      ],
      [
        "Ġmissu",
        -10.726661516425601
      ],
      [
        "Ġhall",
        -10.728452959097211
      ],
      [
        "Ġbirds",
        -10.728942483141662
      ],
      [
        "talk",
        -10.729554404699222
      ],
      [
        "eva",
        -10.730155682835331
      ],
      [
        "Ġgas",
        -10.730244780040291
      ],
      [
        "Ġsanta",
        -10.730628108718516
      ],
      [
        "Ġthroat",
        -10.731046587866212
      ],
      [
        "Ġpet",
        -10.7317029605228
      ],
      [
        "Ġlist",
        -10.73308128865121
      ],
      [
        "Ġshoulder",
        -10.733831035625236
      ],
      [
        "Ġsam",
        -10.73421047560873
      ],
      [
        "show",
        -10.734795912928536
      ],
      [
        "Ġdolls",
        -10.736843834586196
      ],
      [
        "Ġdefinite",
        -10.736952028923508
      ],
      [
        "bove",
        -10.738932563357066
      ],
      [
        "Ġmanage",
        -10.740113612284386
      ],
      [
        "even",
        -10.740324075580535
      ],
      [
        "great",
        -10.743420015062565
      ],
      [
        "hands",
        -10.74448194999183
      ],
      [
        "carl",
        -10.746196619029416
      ],
      [
        "Ġshower",
        -10.746428452509232
      ],
      [
        "Ġgrandad",
        -10.747014869957805
      ],
      [
        "Ġnorth",
        -10.747831601507261
      ],
      [
        "Ġscream",
        -10.748821600828894
      ],
      [
        "Ġrealize",
        -10.75022869566094
      ],
      [
        "Ġworth",
        -10.752092406222058
      ],
      [
        "book",
        -10.755034991796158
      ],
      [
        "Ġbackward",
        -10.756579902981208
      ],
      [
        "clap",
        -10.756918062058201
      ],
      [
        "Ġriding",
        -10.75785329195801
      ],
      [
        "Ġbreath",
        -10.758430279941514
      ],
      [
        "Ġstage",
        -10.758828366150574
      ],
      [
        "ice",
        -10.759295482583788
      ],
      [
        "michael",
        -10.75995855255243
      ],
      [
        "Ġsnack",
        -10.76021798182944
      ],
      [
        "Ġbank",
        -10.760582712552992
      ],
      [
        "Ġself",
        -10.7623637115646
      ],
      [
        "ugh",
        -10.762375061940725
      ],
      [
        "Ġchoose",
        -10.763061782852368
      ],
      [
        "Ġcorrect",
        -10.763434453452268
      ],
      [
        "Ġtray",
        -10.766240957885042
      ],
      [
        "pop",
        -10.768059247310205
      ],
      [
        "hum",
        -10.768686704338355
      ],
      [
        "Ġwalked",
        -10.768891079022463
      ],
      [
        "Ġtraining",
        -10.770856107561105
      ],
      [
        "Ġslight",
        -10.771018265975467
      ],
      [
        "Ġmix",
        -10.7737426798525
      ],
      [
        "Ġact",
        -10.77434774203422
      ],
      [
        "Ġauntie",
        -10.774777397800975
      ],
      [
        "Ġtotal",
        -10.776544089723268
      ],
      [
        "Ġafraid",
        -10.777251251785774
      ],
      [
        "pick",
        -10.778419481118405
      ],
      [
        "Ġpossible",
        -10.779629023672154
      ],
      [
        "Ġunion",
        -10.780673056213379
      ],
      [
        "bar",
        -10.782327215802624
      ],
      [
        "Ġdogs",
        -10.783558633913751
      ],
      [
        "Ġmotion",
        -10.783651694916937
      ],
      [
        "Ġsofa",
        -10.783684058697617
      ],
      [
        "Ġlying",
        -10.784405836472711
      ],
      [
        "Ġlisa",
        -10.785011995621785
      ],
      [
        "lois",
        -10.787663437866776
      ],
      [
        "Ġbuilt",
        -10.788254962506574
      ],
      [
        "while",
        -10.78859286106385
      ],
      [
        "Ġchairman",
        -10.788934604179087
      ],
      [
        "Ġremove",
        -10.789209309902045
      ],
      [
        "Ġutterance",
        -10.789422343857861
      ],
      [
        "Ġrolls",
        -10.789508362768775
      ],
      [
        "tape",
        -10.790433734560759
      ],
      [
        "Ġpenny",
        -10.79099241055145
      ],
      [
        "speaking",
        -10.792418060821959
      ],
      [
        "Ġincrease",
        -10.792980121182467
      ],
      [
        "our",
        -10.794279654172145
      ],
      [
        "Ġtank",
        -10.794802387338509
      ],
      [
        "lemm",
        -10.797073294441002
      ],
      [
        "anyway",
        -10.797132262304501
      ],
      [
        "Ġpair",
        -10.798512126828513
      ],
      [
        "Ġdrawer",
        -10.79927793174393
      ],
      [
        "Ġsalad",
        -10.799318815900815
      ],
      [
        "Ġopene",
        -10.800025324633804
      ],
      [
        "Ġbounce",
        -10.800299263387439
      ],
      [
        "Ġtrick",
        -10.801921448686233
      ],
      [
        "Ġnational",
        -10.803168849819116
      ],
      [
        "pushe",
        -10.803299867606714
      ],
      [
        "people",
        -10.80342901274209
      ],
      [
        "Ġfrench",
        -10.80632603737172
      ],
      [
        "jer",
        -10.806784806028105
      ],
      [
        "bef",
        -10.808512799331961
      ],
      [
        "Ġwide",
        -10.809263592942958
      ],
      [
        "Ġfalle",
        -10.810091211551027
      ],
      [
        "Ġson",
        -10.811135539537702
      ],
      [
        "Ġeaster",
        -10.812674301871835
      ],
      [
        "Ġsouth",
        -10.812816570344875
      ],
      [
        "Ġdream",
        -10.813007406685546
      ],
      [
        "Ġloves",
        -10.813451415452814
      ],
      [
        "Ġclub",
        -10.814253148236599
      ],
      [
        "ross",
        -10.814279881482985
      ],
      [
        "Ġbrian",
        -10.814512663872808
      ],
      [
        "Ġuncle",
        -10.815936597393634
      ],
      [
        "raining",
        -10.816068619039534
      ],
      [
        "Ġcoloring",
        -10.816306289914255
      ],
      [
        "Ġthemsel",
        -10.816433007878839
      ],
      [
        "Ġbeside",
        -10.816648578670556
      ],
      [
        "Ġfilm",
        -10.817746749178081
      ],
      [
        "Ġpoliceman",
        -10.8185596888189
      ],
      [
        "peekaboo",
        -10.818604790279986
      ],
      [
        "every",
        -10.819024157959344
      ],
      [
        "Ġmummie",
        -10.819432974575689
      ],
      [
        "Ġcontrol",
        -10.819598226686548
      ],
      [
        "Ġlines",
        -10.819719470302323
      ],
      [
        "Ġaunt",
        -10.82018517387664
      ],
      [
        "Ġcharge",
        -10.82157481453589
      ],
      [
        "Ġjenny",
        -10.822357103695062
      ],
      [
        "untranscrib",
        -10.822368974511072
      ],
      [
        "Ġleaf",
        -10.822625299319768
      ],
      [
        "beep",
        -10.822710035916892
      ],
      [
        "Ġteam",
        -10.823164731793241
      ],
      [
        "Ġcent",
        -10.823793800699367
      ],
      [
        "walk",
        -10.82491332333107
      ],
      [
        "Ġpicking",
        -10.825135524379313
      ],
      [
        "Ġsupper",
        -10.82548651959694
      ],
      [
        "Ġpulling",
        -10.82628530567764
      ],
      [
        "Ġsue",
        -10.826516036515406
      ],
      [
        "holding",
        -10.826676476487295
      ],
      [
        "Ġfourteen",
        -10.826793022608538
      ],
      [
        "end",
        -10.828680444926178
      ],
      [
        "Ġrug",
        -10.829712833086306
      ],
      [
        "Ġaccept",
        -10.830354981642756
      ],
      [
        "touche",
        -10.830681746534287
      ],
      [
        "Ġbits",
        -10.831194388569903
      ],
      [
        "Ġlad",
        -10.831397638319565
      ],
      [
        "purdie",
        -10.831626716932695
      ],
      [
        "home",
        -10.832767140126652
      ],
      [
        "Ġmickey",
        -10.83325218132078
      ],
      [
        "Ġsmartie",
        -10.833665073503377
      ],
      [
        "Ġhill",
        -10.83430765135213
      ],
      [
        "Ġought",
        -10.834956863949182
      ],
      [
        "Ġdate",
        -10.835577625304786
      ],
      [
        "Ġprogramme",
        -10.835957062936618
      ],
      [
        "cookie",
        -10.836256394067092
      ],
      [
        "[$=",
        -10.836291073822004
      ],
      [
        "Ġfox",
        -10.836382437991187
      ],
      [
        "Ġplus",
        -10.837711771034254
      ],
      [
        "Ġpitche",
        -10.840198824429029
      ],
      [
        "Ġswim",
        -10.84071663644997
      ],
      [
        "Ġmoo",
        -10.841879385312748
      ],
      [
        "Ġnoisy",
        -10.842734386217547
      ],
      [
        "Ġknocked",
        -10.843045079446572
      ],
      [
        "once",
        -10.846968566307304
      ],
      [
        "Ġsplash",
        -10.847640143426077
      ],
      [
        "Ġdriv",
        -10.848026743304526
      ],
      [
        "Ġtongue",
        -10.848578859906862
      ],
      [
        "Ġtest",
        -10.851201006370326
      ],
      [
        "Ġmatch",
        -10.852496268615013
      ],
      [
        "Ġspend",
        -10.856975973817967
      ],
      [
        "Ġhorses",
        -10.857210921417288
      ],
      [
        "Ġstack",
        -10.857337581584723
      ],
      [
        "today",
        -10.857396082126026
      ],
      [
        "Ġhate",
        -10.85763116861548
      ],
      [
        "Ġdecide",
        -10.859514755818907
      ],
      [
        "Ġstate",
        -10.859568806390762
      ],
      [
        "Ġedge",
        -10.859730538006518
      ],
      [
        "Ġnana",
        -10.861212609059773
      ],
      [
        "Ġnames",
        -10.86273589378425
      ],
      [
        "Ġshows",
        -10.862984613629415
      ],
      [
        "Ġwoof",
        -10.863016200286763
      ],
      [
        "Ġlamb",
        -10.866468783389315
      ],
      [
        "Ġattempt",
        -10.867727202164112
      ],
      [
        "Ġsweetheart",
        -10.868800337094122
      ],
      [
        "mind",
        -10.868811991993304
      ],
      [
        "Ġzebra",
        -10.869158126916268
      ],
      [
        "Ġaccident",
        -10.86975494179507
      ],
      [
        "father",
        -10.870065178401966
      ],
      [
        "Ġtrouser",
        -10.870689162087652
      ],
      [
        "Ġblow",
        -10.870980109297374
      ],
      [
        "Ġhook",
        -10.871101133979021
      ],
      [
        "may",
        -10.872226458524954
      ],
      [
        "Ġwoke",
        -10.872404127989189
      ],
      [
        "Ġdirection",
        -10.872410947169774
      ],
      [
        "Ġjames",
        -10.873938657962956
      ],
      [
        "color",
        -10.873992525371033
      ],
      [
        "Ġgun",
        -10.874744588592243
      ],
      [
        "soft",
        -10.876174803239604
      ],
      [
        "Ġmagic",
        -10.876598698754094
      ],
      [
        "Ġtrade",
        -10.876723099477799
      ],
      [
        "black",
        -10.87678587236274
      ],
      [
        "Ġzorg",
        -10.877733434586569
      ],
      [
        "Ġsoap",
        -10.87774244365163
      ],
      [
        "ped",
        -10.88019894490083
      ],
      [
        "Ġstor",
        -10.882516412716344
      ],
      [
        "Ġsuper",
        -10.883088590721663
      ],
      [
        "Ġglad",
        -10.884593525406617
      ],
      [
        "call",
        -10.886261280454256
      ],
      [
        "Ġslice",
        -10.887357908102585
      ],
      [
        "milk",
        -10.888103391922035
      ],
      [
        "Ġhenry",
        -10.888242496799501
      ],
      [
        "Ġmomma",
        -10.890445420826225
      ],
      [
        "lin",
        -10.892222626525328
      ],
      [
        "Ġsink",
        -10.892346465692302
      ],
      [
        "nobod",
        -10.89323588885797
      ],
      [
        "Ġpotty",
        -10.89601997675743
      ],
      [
        "Ġevening",
        -10.896646428870831
      ],
      [
        "pink",
        -10.899440002143493
      ],
      [
        "Ġlwww",
        -10.900083043320464
      ],
      [
        "fish",
        -10.900264287414485
      ],
      [
        "Ġprevious",
        -10.900567640847719
      ],
      [
        "Ġpile",
        -10.901963965931145
      ],
      [
        "Ġrice",
        -10.902146081323826
      ],
      [
        "Ġrefer",
        -10.902453453922483
      ],
      [
        "Ġar",
        -10.902764351137126
      ],
      [
        "eaten",
        -10.903018912694677
      ],
      [
        ")",
        -10.903883986569973
      ],
      [
        "Ġstrawberr",
        -10.904569168302299
      ],
      [
        "Ġdevelopment",
        -10.904581532994793
      ],
      [
        "Ġgate",
        -10.905404560537423
      ],
      [
        "Ġmary",
        -10.905776431412253
      ],
      [
        "Ġbend",
        -10.90860630022862
      ],
      [
        "ask",
        -10.90913654514317
      ],
      [
        "Ġsixteen",
        -10.909559048985201
      ],
      [
        "stay",
        -10.910297989213975
      ],
      [
        "sarah",
        -10.912235091080085
      ],
      [
        "trying",
        -10.912263709415054
      ],
      [
        "Ġrule",
        -10.912417118478142
      ],
      [
        "Ġstrawberry",
        -10.91274538679782
      ],
      [
        "need",
        -10.913026183448483
      ],
      [
        "Ġjoe",
        -10.914643387493298
      ],
      [
        "find",
        -10.91469543533897
      ],
      [
        "Ġdaisy",
        -10.914849167108557
      ],
      [
        "Ġupset",
        -10.915444284976964
      ],
      [
        "Ġprovide",
        -10.91641174624031
      ],
      [
        "Ġlabour",
        -10.916939510412213
      ],
      [
        "Ġclearly",
        -10.917020248376268
      ],
      [
        "Ġexpect",
        -10.91766204464868
      ],
      [
        "Ġboom",
        -10.918035326759995
      ],
      [
        "Ġcrash",
        -10.91931786399835
      ],
      [
        "Ġcloud",
        -10.91933074781581
      ],
      [
        "said",
        -10.921040524635515
      ],
      [
        "Ġmedicine",
        -10.921087373710895
      ],
      [
        "mark",
        -10.921540068732796
      ],
      [
        "Ġclick",
        -10.92244586885824
      ],
      [
        "Ġcastle",
        -10.922879137179123
      ],
      [
        "stand",
        -10.922901398277354
      ],
      [
        "Ġship",
        -10.923777414330317
      ],
      [
        "number",
        -10.9241722886151
      ],
      [
        "tony",
        -10.924361029487235
      ],
      [
        "way",
        -10.924589237550002
      ],
      [
        "Ġpitcher",
        -10.924758301357341
      ],
      [
        "Ġpeekaboo",
        -10.925022306061164
      ],
      [
        "Ġcarrie",
        -10.925587345599155
      ],
      [
        "Ġshapes",
        -10.926019189871162
      ],
      [
        "Ġdrivin",
        -10.926137831454511
      ],
      [
        "Ġeffect",
        -10.926297121432853
      ],
      [
        "Ġmajor",
        -10.929041884395946
      ],
      [
        "Ġsalt",
        -10.929375763229787
      ],
      [
        "decided",
        -10.929430035004168
      ],
      [
        "Ġnecessar",
        -10.930951575588987
      ],
      [
        "Ġliked",
        -10.932204693655653
      ],
      [
        "Ġexperience",
        -10.932470010105412
      ],
      [
        "Ġdragon",
        -10.93250461624288
      ],
      [
        "Ġdied",
        -10.932929383990409
      ],
      [
        "Ġbrilliant",
        -10.93300319461541
      ],
      [
        "Ġtomato",
        -10.933437895374988
      ],
      [
        "Ġdistrict",
        -10.933485473735583
      ],
      [
        "Ġexcited",
        -10.933537108357587
      ],
      [
        "Ġeasi",
        -10.93448550927741
      ],
      [
        "Ġimagine",
        -10.935291957806204
      ],
      [
        "Ġfuture",
        -10.937140753711684
      ],
      [
        "Ġmagazine",
        -10.93811801378499
      ],
      [
        "Ġsmiles",
        -10.938392209866079
      ],
      [
        "Ġden",
        -10.939792088700031
      ],
      [
        "Ġrecognize",
        -10.940291506572422
      ],
      [
        "Ġperiod",
        -10.940760946053977
      ],
      [
        "Ġmarker",
        -10.942131912918171
      ],
      [
        "Ġcutting",
        -10.944373092916628
      ],
      [
        "getting",
        -10.945249425819473
      ],
      [
        "Ġmarrie",
        -10.945480716592407
      ],
      [
        "Ġticket",
        -10.945795651454834
      ],
      [
        "Ġfixed",
        -10.946070019896052
      ],
      [
        "Ġsteve",
        -10.946303669053586
      ],
      [
        "Ġbow",
        -10.947526569969373
      ],
      [
        "Ġspill",
        -10.94778944012255
      ],
      [
        "Ġthirteen",
        -10.948226401034884
      ],
      [
        "clever",
        -10.948294744299435
      ],
      [
        "Ġwritt",
        -10.948933280166418
      ],
      [
        "duck",
        -10.949921958753109
      ],
      [
        "loud",
        -10.951565874546286
      ],
      [
        "Ġserious",
        -10.95207599714069
      ],
      [
        "Ġbenefit",
        -10.952996043551288
      ],
      [
        "Ġstrange",
        -10.953579442057675
      ],
      [
        "Ġcolour",
        -10.95578884408802
      ],
      [
        "Ġshops",
        -10.955862631538876
      ],
      [
        "Ġhelping",
        -10.955996223264833
      ],
      [
        "Ġtriangle",
        -10.959183056685013
      ],
      [
        "Ġcharacter",
        -10.959243867417147
      ],
      [
        "Ġsite",
        -10.960272161744928
      ],
      [
        "miss",
        -10.961833292267162
      ],
      [
        "âĢľ",
        -10.962147490841172
      ],
      [
        "Ġtissue",
        -10.962610039883412
      ],
      [
        "jack",
        -10.962624867087706
      ],
      [
        "Ġshowing",
        -10.962950423445763
      ],
      [
        "Ġpiggy",
        -10.964082715535628
      ],
      [
        "chicken",
        -10.96594591728061
      ],
      [
        "Ġellie",
        -10.966106056996622
      ],
      [
        "Ġmail",
        -10.96622554710019
      ],
      [
        "Ġstaff",
        -10.966390039348788
      ],
      [
        "Ġdeer",
        -10.966476291751299
      ],
      [
        "cheese",
        -10.96681530405132
      ],
      [
        "Ġambulance",
        -10.968387894326526
      ],
      [
        "Ġproject",
        -10.968643060439838
      ],
      [
        "Ġrattle",
        -10.970095855232506
      ],
      [
        "Ġwonderful",
        -10.970916397532529
      ],
      [
        "Ġsevera",
        -10.971005548656962
      ],
      [
        "den",
        -10.972054119404829
      ],
      [
        "Ġwife",
        -10.972538861264812
      ],
      [
        "Ġdishe",
        -10.973188313090219
      ],
      [
        "Ġdecision",
        -10.973292711062605
      ],
      [
        "Ġunle",
        -10.973813764097384
      ],
      [
        "Ġtherefor",
        -10.974585616396674
      ],
      [
        "Ġsudden",
        -10.975357222062279
      ],
      [
        "Ġsharp",
        -10.975549718682107
      ],
      [
        "Ġsqueeze",
        -10.976949140855213
      ],
      [
        "Ġcopy",
        -10.97756103267674
      ],
      [
        "perhap",
        -10.978078993987722
      ],
      [
        "Ġstamp",
        -10.978130671558182
      ],
      [
        "Ġwhisper",
        -10.978995731636418
      ],
      [
        "Ġraise",
        -10.979724467912034
      ],
      [
        "Ġlord",
        -10.980118537996194
      ],
      [
        "Ġrow",
        -10.980328555636842
      ],
      [
        "light",
        -10.981616069205419
      ],
      [
        "Ġhelicopter",
        -10.983361560067031
      ],
      [
        "hang",
        -10.983434749728026
      ],
      [
        "Ġjar",
        -10.986110658666549
      ],
      [
        "Ġpillow",
        -10.986655663796572
      ],
      [
        "Ġtip",
        -10.987013602879042
      ],
      [
        "coming",
        -10.987068689142802
      ],
      [
        "gone",
        -10.987649607965873
      ],
      [
        "Ġexcuse",
        -10.988011817843109
      ],
      [
        "Ġpa",
        -10.989771071378442
      ],
      [
        "Ġqueen",
        -10.989948621561389
      ],
      [
        "Ġfield",
        -10.990414854745966
      ],
      [
        "Ġsheet",
        -10.990849672177845
      ],
      [
        "shire",
        -10.990906426905257
      ],
      [
        "Ġfridge",
        -10.991089771712527
      ],
      [
        "Ġcracker",
        -10.991157437651903
      ],
      [
        "bang",
        -10.991230323244555
      ],
      [
        "Ġhigher",
        -10.99178518746551
      ],
      [
        "Ġrate",
        -10.993766616892273
      ],
      [
        "meow",
        -10.993926590588739
      ],
      [
        "Ġcarpet",
        -10.995669889213225
      ],
      [
        "Ġexcit",
        -10.996225557378946
      ],
      [
        "Ġborn",
        -10.997360426203109
      ],
      [
        "Ġpipe",
        -10.997598329174282
      ],
      [
        "Ġpulle",
        -10.999270087710673
      ],
      [
        "men",
        -10.999379388373674
      ],
      [
        "Ġchildsname",
        -10.999385131345841
      ],
      [
        "Ġtouche",
        -11.00155886645723
      ],
      [
        "Ġdollhouse",
        -11.003348255795501
      ],
      [
        "Ġducks",
        -11.00398977043738
      ],
      [
        "ance",
        -11.004653715539876
      ],
      [
        "Ġbecome",
        -11.00474667944049
      ],
      [
        "silver",
        -11.0048998479756
      ],
      [
        "pushing",
        -11.006039903667013
      ],
      [
        "Ġslipper",
        -11.006244649753523
      ],
      [
        "kiss",
        -11.007231092179218
      ],
      [
        "god",
        -11.00854233407549
      ],
      [
        "Ġgrapes",
        -11.011557604928242
      ],
      [
        "Ġsmile",
        -11.011713581937922
      ],
      [
        "Ġsingle",
        -11.012263116007743
      ],
      [
        "Ġbobby",
        -11.012608658461538
      ],
      [
        "kitty",
        -11.012681671940001
      ],
      [
        "moan",
        -11.013081787556372
      ],
      [
        "teddy",
        -11.013207759235307
      ],
      [
        "Ġchoice",
        -11.013281839129274
      ],
      [
        "Ġdouble",
        -11.013569139797259
      ],
      [
        "yummy",
        -11.014862658344187
      ],
      [
        "Ġleavin",
        -11.015893758659807
      ],
      [
        "Ġchess",
        -11.017430660467166
      ],
      [
        "Ġbright",
        -11.018048434769963
      ],
      [
        "Ġremind",
        -11.018542357904131
      ],
      [
        "blows",
        -11.019168203761588
      ],
      [
        "chris",
        -11.019928190345343
      ],
      [
        "Ġdustbin",
        -11.02011953695544
      ],
      [
        "Ġresult",
        -11.020307202830285
      ],
      [
        "Ġholes",
        -11.02090868641319
      ],
      [
        "Ġsock",
        -11.022751737301693
      ],
      [
        "Ġcloth",
        -11.02453925449511
      ],
      [
        "Ġnecklace",
        -11.024753276555028
      ],
      [
        "crayon",
        -11.026471973260936
      ],
      [
        "Ġeffects",
        -11.02757425774348
      ],
      [
        "Ġcathy",
        -11.027891685260062
      ],
      [
        "picture",
        -11.028151955084592
      ],
      [
        "Ġpotatoe",
        -11.029373099391186
      ],
      [
        "Ġann",
        -11.029555044076757
      ],
      [
        "Ġhusband",
        -11.030172720862744
      ],
      [
        "Ġsentence",
        -11.030292226123384
      ],
      [
        "Ġnewspaper",
        -11.030493981028519
      ],
      [
        "Ġsings",
        -11.031125805941263
      ],
      [
        "use",
        -11.032063170318711
      ],
      [
        "Ġmat",
        -11.032578731759756
      ],
      [
        "Ġcommunit",
        -11.033534653851401
      ],
      [
        "Ġgina",
        -11.03481612230981
      ],
      [
        "Ġiron",
        -11.036427452615657
      ],
      [
        "Ġshot",
        -11.036609293947768
      ],
      [
        "Ġglue",
        -11.036663089561122
      ],
      [
        "Ġconsider",
        -11.036902058487655
      ],
      [
        "Ġtalked",
        -11.037544775542386
      ],
      [
        "Ġvarious",
        -11.03878421425722
      ],
      [
        "Ġpack",
        -11.039386166130692
      ],
      [
        "briti",
        -11.041435015873207
      ],
      [
        "Ġwashed",
        -11.04154257390254
      ],
      [
        "flies",
        -11.041875395522162
      ],
      [
        "Ġstaye",
        -11.043429790984794
      ],
      [
        "Ġnone",
        -11.043694722281966
      ],
      [
        "cou",
        -11.044264196603832
      ],
      [
        "juice",
        -11.04560913389183
      ],
      [
        "Ġumbrella",
        -11.046742548416711
      ],
      [
        "Ġcousin",
        -11.048180849058262
      ],
      [
        "Ġdaughter",
        -11.048288906529702
      ],
      [
        "Ġthrew",
        -11.04857556086089
      ],
      [
        "Ġtrunk",
        -11.049101429303889
      ],
      [
        "Ġupon",
        -11.049116505276716
      ],
      [
        "Ġstraw",
        -11.050151349967003
      ],
      [
        "gott",
        -11.05029085272442
      ],
      [
        "Ġgum",
        -11.050334862078767
      ],
      [
        "Ġsection",
        -11.050905121424435
      ],
      [
        "under",
        -11.05164314681394
      ],
      [
        "Ġdee",
        -11.052166417485447
      ],
      [
        "Ġcurtain",
        -11.053957582012576
      ],
      [
        "opens",
        -11.054047370210741
      ],
      [
        "white",
        -11.05471423120975
      ],
      [
        "Ġtax",
        -11.055204106594916
      ],
      [
        "Ġpenguin",
        -11.058397349711978
      ],
      [
        "Ġjean",
        -11.059532725265376
      ],
      [
        "Ġbug",
        -11.059969935181135
      ],
      [
        "vir",
        -11.060149401819801
      ],
      [
        "Ġbeat",
        -11.060906326403927
      ],
      [
        "Ġsuit",
        -11.062184627624193
      ],
      [
        "woof",
        -11.06297474545054
      ],
      [
        "Ġneeded",
        -11.063003663720929
      ],
      [
        "Ġrecent",
        -11.063244710098633
      ],
      [
        "Ġsweets",
        -11.06327101240496
      ],
      [
        "Ġcloses",
        -11.064828968291671
      ],
      [
        "Ġabe",
        -11.066159044673398
      ],
      [
        "Ġshakes",
        -11.066523303706298
      ],
      [
        "whining",
        -11.068910641246976
      ],
      [
        "Ġwest",
        -11.069188909905927
      ],
      [
        "fine",
        -11.069565362150403
      ],
      [
        "Ġrid",
        -11.070019805716917
      ],
      [
        "Ġthirst",
        -11.070912653091728
      ],
      [
        "Ġdraws",
        -11.071194024384749
      ],
      [
        "Ġsnap",
        -11.071302743249852
      ],
      [
        "Ġfill",
        -11.071584394545102
      ],
      [
        "Ġbags",
        -11.07343629026681
      ],
      [
        "truck",
        -11.073931700065488
      ],
      [
        "Ġeasie",
        -11.0742594177695
      ],
      [
        "tiger",
        -11.074795992420478
      ],
      [
        "Ġscissors",
        -11.076598227570774
      ],
      [
        "Ġindividual",
        -11.077436570152887
      ],
      [
        "Ġcats",
        -11.077496956157106
      ],
      [
        "Ġswitch",
        -11.078187581131496
      ],
      [
        "Ġge",
        -11.07846611056464
      ],
      [
        "br",
        -11.078680916850391
      ],
      [
        "Ġlanguage",
        -11.081055111504043
      ],
      [
        "boom",
        -11.081079253517494
      ],
      [
        "Ġproduce",
        -11.082109548476824
      ],
      [
        "Ġlead",
        -11.08237809579505
      ],
      [
        "both",
        -11.082702661218228
      ],
      [
        "cup",
        -11.083261468730559
      ],
      [
        "quack",
        -11.083560956632105
      ],
      [
        "Ġplannin",
        -11.084297900818616
      ],
      [
        "Ġbelt",
        -11.08496243294848
      ],
      [
        "alking",
        -11.085400476008168
      ],
      [
        "laur",
        -11.085437293278453
      ],
      [
        "jump",
        -11.08558250261105
      ],
      [
        "side",
        -11.08745612392384
      ],
      [
        "Ġopposite",
        -11.08869712992408
      ],
      [
        "almost",
        -11.088958835838028
      ],
      [
        "Ġdoors",
        -11.089464193802858
      ],
      [
        "elephant",
        -11.089918563113056
      ],
      [
        "Ġvote",
        -11.090113190134558
      ],
      [
        "Ġindian",
        -11.095802069310235
      ],
      [
        "Ġnurse",
        -11.095944333331996
      ],
      [
        "Ġstove",
        -11.096806236452547
      ],
      [
        "Ġjam",
        -11.096834820043714
      ],
      [
        "cut",
        -11.097418356538684
      ],
      [
        "Ġdigger",
        -11.098008611904582
      ],
      [
        "Ġdangerous",
        -11.098321283739946
      ],
      [
        "Ġmarky",
        -11.099464479532335
      ],
      [
        "less",
        -11.099622521662159
      ],
      [
        "Ġsmart",
        -11.101564971266278
      ],
      [
        "Ġoink",
        -11.102792720685699
      ],
      [
        "Ġeducation",
        -11.104689792214488
      ],
      [
        "Ġgosh",
        -11.104710203787274
      ],
      [
        "Ġaccount",
        -11.105579676771889
      ],
      [
        "roll",
        -11.106032953821646
      ],
      [
        "Ġlibrar",
        -11.106550791942489
      ],
      [
        "Ġcollect",
        -11.10656583251659
      ],
      [
        "Ġodd",
        -11.106567230484007
      ],
      [
        "Ġvegetable",
        -11.10688237779513
      ],
      [
        "bottle",
        -11.106980884787337
      ],
      [
        "Ġhonest",
        -11.107421942322903
      ],
      [
        "Ġwooden",
        -11.107632911354427
      ],
      [
        "Ġqualit",
        -11.107727130796633
      ],
      [
        "Ġgrandpa",
        -11.108138757482465
      ],
      [
        "Ġenglish",
        -11.10853576915947
      ],
      [
        "(",
        -11.11123923696432
      ],
      [
        "grandma",
        -11.111280622110847
      ],
      [
        "thirty",
        -11.1134361608556
      ],
      [
        "Ġhay",
        -11.114192538310053
      ],
      [
        "Ġloads",
        -11.115367996288786
      ],
      [
        "Ġpin",
        -11.115452662043662
      ],
      [
        "Ġforth",
        -11.115545065831894
      ],
      [
        "Ġgraeme",
        -11.117596413906853
      ],
      [
        "gina",
        -11.117860753099823
      ],
      [
        "Ġbudget",
        -11.117978394583231
      ],
      [
        "Ġmatthew",
        -11.11882536151009
      ],
      [
        "shows",
        -11.118970788273117
      ],
      [
        "bit",
        -11.119042517187003
      ],
      [
        "Ġfuss",
        -11.1209815971889
      ],
      [
        "Ġoxford",
        -11.121723729884916
      ],
      [
        "Ġactual",
        -11.122094685432359
      ],
      [
        "purple",
        -11.123215330747453
      ],
      [
        "Ġreckon",
        -11.123383752878903
      ],
      [
        "Ġworrie",
        -11.123747658785447
      ],
      [
        "Ġrocket",
        -11.12454142917458
      ],
      [
        "Ġclip",
        -11.124967666540885
      ],
      [
        "Ġbyebye",
        -11.1250547479534
      ],
      [
        "Ġcuddle",
        -11.12717150945316
      ],
      [
        "Ġperfect",
        -11.128703099441132
      ],
      [
        "Ġtwic",
        -11.130313841176212
      ],
      [
        "Ġnapkin",
        -11.131240971758153
      ],
      [
        "Ġseeing",
        -11.132298950737749
      ],
      [
        "Ġchannel",
        -11.13258688577409
      ],
      [
        "Ġsocial",
        -11.133509728134662
      ],
      [
        "ken",
        -11.133617907403817
      ],
      [
        "Ġskin",
        -11.134642956603095
      ],
      [
        "Ġknees",
        -11.135057501060615
      ],
      [
        "ember",
        -11.135461003266277
      ],
      [
        "Ġrobin",
        -11.136712796739776
      ],
      [
        "Ġsore",
        -11.137640972738147
      ],
      [
        "Ġvillage",
        -11.138492868780604
      ],
      [
        "Ġca",
        -11.139971179289942
      ],
      [
        "Ġgeorge",
        -11.140552905286405
      ],
      [
        "Ġgentle",
        -11.140612889928427
      ],
      [
        "Ġcage",
        -11.142396351351177
      ],
      [
        "Ġjesu",
        -11.14492651329316
      ],
      [
        "Ġbicycle",
        -11.147161885960118
      ],
      [
        "11",
        -11.147471308010509
      ],
      [
        "Ġsandwiche",
        -11.147611524017098
      ],
      [
        "Ġsticky",
        -11.147689561875461
      ],
      [
        "Ġcuts",
        -11.14931482021559
      ],
      [
        "cool",
        -11.149806216047551
      ],
      [
        "Ġhamburger",
        -11.14996194916657
      ],
      [
        "humming",
        -11.15015011421643
      ],
      [
        "Ġdeep",
        -11.150472208989676
      ],
      [
        "ation",
        -11.150962808951908
      ],
      [
        "Ġrubber",
        -11.15128470760945
      ],
      [
        "Ġequal",
        -11.151828711032511
      ],
      [
        "Ġsubject",
        -11.152548838182733
      ],
      [
        "Ġgiant",
        -11.153671424593721
      ],
      [
        "point",
        -11.153762559494297
      ],
      [
        "name",
        -11.153815303074008
      ],
      [
        "Ġdepend",
        -11.153900916278527
      ],
      [
        "Ġsleepy",
        -11.154319404535535
      ],
      [
        "Ġscale",
        -11.15567315872904
      ],
      [
        "dear",
        -11.15817585085874
      ],
      [
        "Ġnod",
        -11.1584118046882
      ],
      [
        "Ġeve",
        -11.158456850861537
      ],
      [
        "zoe",
        -11.158928023410542
      ],
      [
        "Ġrough",
        -11.159022347589238
      ],
      [
        "jas",
        -11.159079247610233
      ],
      [
        "Ġtrains",
        -11.15943393439822
      ],
      [
        "racing",
        -11.159578600446991
      ],
      [
        "new",
        -11.159770097156226
      ],
      [
        "Ġdump",
        -11.159976000467601
      ],
      [
        "breathing",
        -11.159992467105695
      ],
      [
        "Ġweather",
        -11.160512136077532
      ],
      [
        "Ġdepartment",
        -11.161850341410961
      ],
      [
        "kisse",
        -11.161917854923043
      ],
      [
        "Ġpasse",
        -11.16220926585673
      ],
      [
        "Ġcowboy",
        -11.162286495263633
      ],
      [
        "Ġwire",
        -11.165101985708116
      ],
      [
        "ex",
        -11.166623232753592
      ],
      [
        "dere",
        -11.168086116250198
      ],
      [
        "Ġ(",
        -11.169111145933446
      ],
      [
        "fire",
        -11.169476319213064
      ],
      [
        "Ġstomach",
        -11.16964751012073
      ],
      [
        "taking",
        -11.171492479439337
      ],
      [
        "picking",
        -11.172326797221872
      ],
      [
        "newman",
        -11.173746779382377
      ],
      [
        "Ġbone",
        -11.173789740538666
      ],
      [
        "adam",
        -11.174784879207603
      ],
      [
        "tickle",
        -11.175174891417463
      ],
      [
        "Ġpossibl",
        -11.175257213452081
      ],
      [
        "Ġteachers",
        -11.175745488588547
      ],
      [
        "Ġpajamas",
        -11.176085310708256
      ],
      [
        "Ġlego",
        -11.17646578160166
      ],
      [
        "Ĺ",
        -11.177846080645992
      ],
      [
        "guess",
        -11.178226833079954
      ],
      [
        "Ġcheeky",
        -11.179861419356394
      ],
      [
        "Ġsimilar",
        -11.180004733385012
      ],
      [
        "ĠâĨ",
        -11.180066877688796
      ],
      [
        "Ġwaste",
        -11.180787675372482
      ],
      [
        "yuck",
        -11.180799646752682
      ],
      [
        "Ġmarch",
        -11.181345654524147
      ],
      [
        "ratner",
        -11.182293262677877
      ],
      [
        "Ġwatched",
        -11.183208414091489
      ],
      [
        "Ġdue",
        -11.183605420503243
      ],
      [
        "Ġexcept",
        -11.183761510174907
      ],
      [
        "ither",
        -11.184050773788634
      ],
      [
        "Ġkisse",
        -11.185928851928793
      ],
      [
        "Ġscrew",
        -11.185983282273593
      ],
      [
        "feel",
        -11.18682644581784
      ],
      [
        "Ġyuck",
        -11.187297601119862
      ],
      [
        "Ġnappie",
        -11.187552488947407
      ],
      [
        "Ġhanging",
        -11.187604804299475
      ],
      [
        "old",
        -11.187631900088348
      ],
      [
        "better",
        -11.18854732677941
      ],
      [
        "Ġtend",
        -11.189507807400272
      ],
      [
        "Ġwinter",
        -11.192368869428813
      ],
      [
        "knock",
        -11.192509838391356
      ],
      [
        "Ġstructure",
        -11.193972257262487
      ],
      [
        "wald",
        -11.195018967512453
      ],
      [
        "Ġprincess",
        -11.195095555837689
      ],
      [
        "Ġbarrel",
        -11.1952564489979
      ],
      [
        "write",
        -11.196863048496871
      ],
      [
        "Ġlock",
        -11.197679009762801
      ],
      [
        "lift",
        -11.198193362993745
      ],
      [
        "Ġjo",
        -11.19866373483168
      ],
      [
        "noises",
        -11.201554700600786
      ],
      [
        "Ġenter",
        -11.202037548871811
      ],
      [
        "pet",
        -11.202310016526987
      ],
      [
        "Ġtunnel",
        -11.202394381624902
      ],
      [
        "Ġplent",
        -11.202535841135632
      ],
      [
        "Ġopening",
        -11.202583472782056
      ],
      [
        "Ġnews",
        -11.20338372778024
      ],
      [
        "Ġweight",
        -11.20352988560659
      ],
      [
        "Ġmotor",
        -11.204868370663284
      ],
      [
        "Ġpond",
        -11.204883895484887
      ],
      [
        "funny",
        -11.205153021182102
      ],
      [
        "Ġcash",
        -11.205509427306136
      ],
      [
        "draw",
        -11.205824846186605
      ],
      [
        "chocolate",
        -11.206352415651795
      ],
      [
        "Ġbees",
        -11.206504953759973
      ],
      [
        "train",
        -11.206746005335532
      ],
      [
        "Ġbalance",
        -11.206863449422269
      ],
      [
        "Ġcircus",
        -11.207261388912109
      ],
      [
        "Ġriver",
        -11.207340383761462
      ],
      [
        "aunt",
        -11.207365354851289
      ],
      [
        "Ġcheap",
        -11.207779280903083
      ],
      [
        "Ġjane",
        -11.208227174521028
      ],
      [
        "everything",
        -11.208703177678268
      ],
      [
        "Ġbo",
        -11.2089137100576
      ],
      [
        "Ġlower",
        -11.209195875224022
      ],
      [
        "Ġpickle",
        -11.209479163411618
      ],
      [
        "count",
        -11.210327027600483
      ],
      [
        "Ġscheme",
        -11.210933592109807
      ],
      [
        "Ġtaperecorder",
        -11.2126109651939
      ],
      [
        "Ġspots",
        -11.213442792258196
      ],
      [
        "Ġwrote",
        -11.21516208977163
      ],
      [
        "Ġseparate",
        -11.215378274859699
      ],
      [
        "clears",
        -11.21583516881825
      ],
      [
        "Ġkaren",
        -11.217291646495386
      ],
      [
        "Ġcovere",
        -11.21760923421988
      ],
      [
        "Ġgold",
        -11.218056450517917
      ],
      [
        "Ġteach",
        -11.218075926269314
      ],
      [
        "braun",
        -11.218636660634422
      ],
      [
        "Ġexercise",
        -11.219686363595999
      ],
      [
        "Ġstudy",
        -11.219921499222144
      ],
      [
        "Ġcarriage",
        -11.22124077726172
      ],
      [
        "brown",
        -11.221404306606793
      ],
      [
        "Ġcomb",
        -11.222018153802164
      ],
      [
        "sneeze",
        -11.22221459527563
      ],
      [
        "Ġchanging",
        -11.22235211670968
      ],
      [
        "Ġkangaroo",
        -11.22381614853644
      ],
      [
        "ring",
        -11.223875372135034
      ],
      [
        "rog",
        -11.22424687817908
      ],
      [
        "Ġlean",
        -11.225492988592741
      ],
      [
        "Ġgranny",
        -11.2255442656695
      ],
      [
        "Ġstars",
        -11.226698680868648
      ],
      [
        "mwww",
        -11.227706670519982
      ],
      [
        "Ġoffer",
        -11.227801137170996
      ],
      [
        "Ġtreat",
        -11.231454104765177
      ],
      [
        "ur",
        -11.23163788089964
      ],
      [
        "yawn",
        -11.232020646912051
      ],
      [
        "Ġhuge",
        -11.232608775017388
      ],
      [
        "cli",
        -11.23286712349216
      ],
      [
        "Ġapples",
        -11.233561400471887
      ],
      [
        "Ġappear",
        -11.23422446702769
      ],
      [
        "Ġjim",
        -11.234407032600036
      ],
      [
        "Ġseventeen",
        -11.235593348537218
      ],
      [
        "Ġkitten",
        -11.236107277748143
      ],
      [
        "Ġwindows",
        -11.236132881725286
      ],
      [
        "Ġmiles",
        -11.236338651773597
      ],
      [
        "Ġglove",
        -11.237273264790026
      ],
      [
        "Ġquid",
        -11.237699239287874
      ],
      [
        "Ġpence",
        -11.237927713315887
      ],
      [
        "Ġaddress",
        -11.238074863071503
      ],
      [
        "Ġreferr",
        -11.238302661406209
      ],
      [
        "begin",
        -11.23887948679487
      ],
      [
        "Ġunit",
        -11.239117512483816
      ],
      [
        "Ġrepeat",
        -11.240862757044443
      ],
      [
        "had",
        -11.24169189016046
      ],
      [
        "Ġmeasure",
        -11.241937788248103
      ],
      [
        "Ġstuffe",
        -11.242000773333746
      ],
      [
        "Ġhelmet",
        -11.242380903188174
      ],
      [
        "Ġmud",
        -11.243192780452773
      ],
      [
        "Ġrub",
        -11.244756944437448
      ],
      [
        "Ġwhistle",
        -11.244984384614627
      ],
      [
        "Ġwagon",
        -11.246787629328416
      ],
      [
        "Ġli",
        -11.247197350148827
      ],
      [
        "Ġsmoke",
        -11.248491097418903
      ],
      [
        "wash",
        -11.248815481240968
      ],
      [
        "ben",
        -11.25062530188428
      ],
      [
        "Ġfac",
        -11.250766589232342
      ],
      [
        "brush",
        -11.25080941787963
      ],
      [
        "undercurrent",
        -11.251511182297364
      ],
      [
        "Ġdora",
        -11.252123414450075
      ],
      [
        "Ġequipment",
        -11.254667250771199
      ],
      [
        "Ġshark",
        -11.254752281232136
      ],
      [
        "Ġannoy",
        -11.255434460792731
      ],
      [
        "Ġlinda",
        -11.255772742847551
      ],
      [
        "age",
        -11.256406534742414
      ],
      [
        "âĨ«",
        -11.258674815663635
      ],
      [
        "Ġwitch",
        -11.261311846890184
      ],
      [
        "Ġblowing",
        -11.26188451020217
      ],
      [
        "pause",
        -11.262272668957593
      ],
      [
        "Ġpony",
        -11.262491989503062
      ],
      [
        "Ġcap",
        -11.26253733110833
      ],
      [
        "Ġdem",
        -11.263285877707215
      ],
      [
        "Ġdey",
        -11.26406636027724
      ],
      [
        "Ġtools",
        -11.264719061478413
      ],
      [
        "Ġpromise",
        -11.26525581389022
      ],
      [
        "chair",
        -11.265266348842887
      ],
      [
        "Ġinvestigator",
        -11.265280235610101
      ],
      [
        "Ġspeed",
        -11.265675767161603
      ],
      [
        "Ġforce",
        -11.26827994701333
      ],
      [
        "mister",
        -11.268911899986408
      ],
      [
        "Ġfrogs",
        -11.269080307993248
      ],
      [
        "Ġprogram",
        -11.2690917983544
      ],
      [
        "Ġopportunit",
        -11.269825608742563
      ],
      [
        "sister",
        -11.27017407071753
      ],
      [
        "Ġcollege",
        -11.270847895363652
      ],
      [
        "Ġearth",
        -11.271128884439005
      ],
      [
        "Ġrichard",
        -11.27157348237217
      ],
      [
        "Ġeast",
        -11.271685451046933
      ],
      [
        "Ġaeroplane",
        -11.27289682330861
      ],
      [
        "Ġband",
        -11.274143259072668
      ],
      [
        "Ġsticking",
        -11.274757131849054
      ],
      [
        "Ġbunch",
        -11.275061692917337
      ],
      [
        "Ġweird",
        -11.27555816043826
      ],
      [
        "Ġstatement",
        -11.276573451697727
      ],
      [
        "ment",
        -11.27688362890969
      ],
      [
        "Ġstone",
        -11.277638070344938
      ],
      [
        "Ġchimney",
        -11.277884988355783
      ],
      [
        "Ġcrisps",
        -11.278058901439994
      ],
      [
        "Ġworse",
        -11.278876719350436
      ],
      [
        "Ġseeme",
        -11.281259819783072
      ],
      [
        "Ġstool",
        -11.281524568319089
      ],
      [
        "Ġbattery",
        -11.281631582407645
      ],
      [
        "nce",
        -11.281684272944016
      ],
      [
        "Ġbirdie",
        -11.282125665076702
      ],
      [
        "Ġfries",
        -11.282387623477849
      ],
      [
        "Ġcupcake",
        -11.28329111592908
      ],
      [
        "Ġgettin",
        -11.284211211555302
      ],
      [
        "Ġprocess",
        -11.286436175496437
      ],
      [
        "Ġcontact",
        -11.28644484863181
      ],
      [
        "must",
        -11.288044540214228
      ],
      [
        "Ġnut",
        -11.288867947857774
      ],
      [
        "sniff",
        -11.288936772887348
      ],
      [
        "cow",
        -11.289779297431839
      ],
      [
        "Ġmixe",
        -11.29009720088814
      ],
      [
        "catch",
        -11.29022675765458
      ],
      [
        "Ġturkey",
        -11.290519991134563
      ],
      [
        "Ġfresh",
        -11.290555869712492
      ],
      [
        "Ġgrey",
        -11.291015595760026
      ],
      [
        "Ġsimple",
        -11.291320747064916
      ],
      [
        "Ġeric",
        -11.29268088388054
      ],
      [
        "Ġrange",
        -11.292796701086075
      ],
      [
        "Ġcomin",
        -11.293462532817804
      ],
      [
        "Ġcommon",
        -11.294122689989823
      ],
      [
        "Ġraisin",
        -11.294276824359375
      ],
      [
        "Ġhurry",
        -11.294613855743297
      ],
      [
        "Ġspeaker",
        -11.294781508114955
      ],
      [
        "Ġbat",
        -11.29492018592839
      ],
      [
        "Ġsecretary",
        -11.294968347993514
      ],
      [
        "Ġflew",
        -11.29523416593613
      ],
      [
        "unknown",
        -11.295442163473448
      ],
      [
        "imitates",
        -11.297104519803396
      ],
      [
        "Ġjason",
        -11.297273747487115
      ],
      [
        "Ġmodel",
        -11.297469544468118
      ],
      [
        "shirt",
        -11.297875664687563
      ],
      [
        "Ġwedding",
        -11.297965124007723
      ],
      [
        "Ġstandard",
        -11.298215677058886
      ],
      [
        "roar",
        -11.298384794572316
      ],
      [
        "england",
        -11.29917114335056
      ],
      [
        "Ġavail",
        -11.299182290310554
      ],
      [
        "Ġmetal",
        -11.299778182502148
      ],
      [
        "Ġballoons",
        -11.30041904501338
      ],
      [
        "Ġcamp",
        -11.30048378234848
      ],
      [
        "roman",
        -11.30133696074098
      ],
      [
        "Ġpacket",
        -11.30218438500139
      ],
      [
        "Ġwolf",
        -11.30236823785885
      ],
      [
        "ling",
        -11.303681829348633
      ],
      [
        "Ġparrot",
        -11.303869794860658
      ],
      [
        "Ġangr",
        -11.305252124485001
      ],
      [
        "Ġshowe",
        -11.305370114305394
      ],
      [
        "Ġdelicious",
        -11.305938965836134
      ],
      [
        "Ġdust",
        -11.306319128335154
      ],
      [
        "Ġpractice",
        -11.306365844024391
      ],
      [
        "Ġlaw",
        -11.306461240240676
      ],
      [
        "Ġcows",
        -11.306691643051952
      ],
      [
        "Ġgerman",
        -11.306875483448106
      ],
      [
        "Ġdrum",
        -11.306944439811687
      ],
      [
        "Ġrainbow",
        -11.30696784407385
      ],
      [
        "Ġuniversit",
        -11.307395691288821
      ],
      [
        "Ġgoat",
        -11.308128599637417
      ],
      [
        "Ġregular",
        -11.308305646952661
      ],
      [
        "Ġlesson",
        -11.308357824562723
      ],
      [
        "gets",
        -11.309788415650537
      ],
      [
        "Ġbathtub",
        -11.310086871756742
      ],
      [
        "Ġpepper",
        -11.31069154328718
      ],
      [
        "mic",
        -11.312203991644898
      ],
      [
        "Ġregion",
        -11.31241156878782
      ],
      [
        "paper",
        -11.31297644642783
      ],
      [
        "Ġloft",
        -11.314600526971066
      ],
      [
        "Ġsimpl",
        -11.314706918773503
      ],
      [
        "Ġroman",
        -11.315025048294212
      ],
      [
        "Ġmember",
        -11.31518639576624
      ],
      [
        "Ġclaus",
        -11.315458473351942
      ],
      [
        "carrying",
        -11.315500831393223
      ],
      [
        "phone",
        -11.31584628503107
      ],
      [
        "Ġbake",
        -11.316628714798902
      ],
      [
        "maisie",
        -11.316955639463739
      ],
      [
        "quite",
        -11.317209462169082
      ],
      [
        "Ġforest",
        -11.317242785189652
      ],
      [
        "haven",
        -11.31785160977961
      ],
      [
        "Ġwhale",
        -11.318286415160488
      ],
      [
        "Ġwaffle",
        -11.318367294917852
      ],
      [
        "Ġworm",
        -11.318911696066321
      ],
      [
        "fall",
        -11.31932070727234
      ],
      [
        "Ġrope",
        -11.319415366149144
      ],
      [
        "Ġpattern",
        -11.319753053020278
      ],
      [
        "Ġdetail",
        -11.320042081517405
      ],
      [
        "long",
        -11.320381348111702
      ],
      [
        "Ġdoubt",
        -11.321087402052694
      ],
      [
        "gro",
        -11.321925743852198
      ],
      [
        "bear",
        -11.322564764290709
      ],
      [
        "Ġsauce",
        -11.323566967206421
      ],
      [
        "Ġminus",
        -11.323669826140122
      ],
      [
        "gosh",
        -11.324814618731253
      ],
      [
        "came",
        -11.325263667414985
      ],
      [
        "Ġspen",
        -11.326321260213078
      ],
      [
        "Ġcapital",
        -11.327206462872521
      ],
      [
        "bunny",
        -11.32730276989695
      ],
      [
        "Ġladybird",
        -11.327690043316313
      ],
      [
        "low",
        -11.327725403122148
      ],
      [
        "Ġreceive",
        -11.329071189742184
      ],
      [
        "girl",
        -11.329944236222637
      ],
      [
        "Â°",
        -11.330792130013778
      ],
      [
        "Ġcrab",
        -11.331621139870418
      ],
      [
        "Ġbaseball",
        -11.332433053964092
      ],
      [
        "press",
        -11.332803098695262
      ],
      [
        "rac",
        -11.33339050334464
      ],
      [
        "Ġapparent",
        -11.336406190619655
      ],
      [
        "wee",
        -11.337130779858612
      ],
      [
        "Ġdig",
        -11.337262222966466
      ],
      [
        "Ġlane",
        -11.337609874445779
      ],
      [
        "Ġhorrible",
        -11.339298481735856
      ],
      [
        "Ġhum",
        -11.339418300204995
      ],
      [
        "paul",
        -11.34005565408015
      ],
      [
        "Ġbuzz",
        -11.34081658331232
      ],
      [
        "Ġcurrent",
        -11.34115082863708
      ],
      [
        "work",
        -11.341809338039585
      ],
      [
        "firstname",
        -11.342174492165753
      ],
      [
        "Ġdancin",
        -11.342512424191614
      ],
      [
        "Ġfold",
        -11.342593854235531
      ],
      [
        "Ġcoke",
        -11.342644292616038
      ],
      [
        "Ġpirate",
        -11.342820671689509
      ],
      [
        "Ġspecific",
        -11.342958583139794
      ],
      [
        "Ġcourt",
        -11.344091939809921
      ],
      [
        "Ġexist",
        -11.344901459929385
      ],
      [
        "Ġeffort",
        -11.345093544327423
      ],
      [
        "Ġgentl",
        -11.345527003869002
      ],
      [
        "Ġrespond",
        -11.345558965334966
      ],
      [
        "won",
        -11.345573209624412
      ],
      [
        "Ġafford",
        -11.34647928939517
      ],
      [
        "steve",
        -11.346541874973568
      ],
      [
        "live",
        -11.346626834815972
      ],
      [
        "Ġapril",
        -11.346819868110249
      ],
      [
        "Ġchristopher",
        -11.346966809263357
      ],
      [
        "Ġregard",
        -11.34701456645448
      ],
      [
        "Ġhous",
        -11.347926925549295
      ],
      [
        "Ġwings",
        -11.348701998380031
      ],
      [
        "Ġpee",
        -11.349565556324274
      ],
      [
        "Ġscratch",
        -11.35006538057155
      ],
      [
        "Ġbush",
        -11.350089843578417
      ],
      [
        "Ġpurpose",
        -11.351735893865754
      ],
      [
        "Ġaware",
        -11.351949878464724
      ],
      [
        "Ġtalkin",
        -11.352619264715212
      ],
      [
        "Ġbatterie",
        -11.354243700815307
      ],
      [
        "Ġyard",
        -11.354376670947037
      ],
      [
        "Ġdiscussion",
        -11.354515668730267
      ],
      [
        "wan",
        -11.35485235031954
      ],
      [
        "Ġfirm",
        -11.354916839644396
      ],
      [
        "Ġload",
        -11.355055810383037
      ],
      [
        "Ġgrant",
        -11.356327058333338
      ],
      [
        "monkey",
        -11.357257337028265
      ],
      [
        "poo",
        -11.35749489392256
      ],
      [
        "Ġexpensive",
        -11.358958037725579
      ],
      [
        "Ġbuddy",
        -11.359889785674593
      ],
      [
        "Ġdimitra",
        -11.360832376543451
      ],
      [
        "Ġproduct",
        -11.361153191370496
      ],
      [
        "doggie",
        -11.361497458277535
      ],
      [
        "Ġoil",
        -11.362676616741107
      ],
      [
        "Ġsneeze",
        -11.363305739711556
      ],
      [
        "Ġding",
        -11.363519576039504
      ],
      [
        "Ġwinnie",
        -11.363926820518094
      ],
      [
        "flower",
        -11.364230358783612
      ],
      [
        "might",
        -11.365147763777037
      ],
      [
        "bobby",
        -11.365630785685447
      ],
      [
        "Ġclaim",
        -11.36627675305699
      ],
      [
        "Ġthick",
        -11.36661644355409
      ],
      [
        "Ġpersonal",
        -11.367082207401378
      ],
      [
        "Ġtrailer",
        -11.36712696825599
      ],
      [
        "ĠâĢĶ",
        -11.3675565349237
      ],
      [
        "Ġforgotte",
        -11.36830700733574
      ],
      [
        "Ġindustr",
        -11.368534303814787
      ],
      [
        "Ġmanagement",
        -11.368815048877753
      ],
      [
        "Ġsession",
        -11.369193263380247
      ],
      [
        "mancheste",
        -11.369522874639404
      ],
      [
        "Ġfur",
        -11.369968297364894
      ],
      [
        "Ġrhyme",
        -11.37156907135121
      ],
      [
        "Ġzoe",
        -11.37170122635046
      ],
      [
        "Ġsettlement",
        -11.371890392802005
      ],
      [
        "chant",
        -11.372722229419296
      ],
      [
        "Ġparts",
        -11.3731870138241
      ],
      [
        "bu",
        -11.373466642154469
      ],
      [
        "honey",
        -11.373486675803974
      ],
      [
        "Ġtelly",
        -11.37354652343212
      ],
      [
        "investigator",
        -11.375291594406091
      ],
      [
        "horsie",
        -11.375308676089315
      ],
      [
        "Ġlog",
        -11.37541802329763
      ],
      [
        "sort",
        -11.37698505949669
      ],
      [
        "Ġamerican",
        -11.376990788656151
      ],
      [
        "Ġbelly",
        -11.378822859135752
      ],
      [
        "Ġrocks",
        -11.379168067407843
      ],
      [
        "Ġinvite",
        -11.380064572033323
      ],
      [
        "Ġespecial",
        -11.38025388683093
      ],
      [
        "baa",
        -11.380451157341952
      ],
      [
        "Ġpatient",
        -11.380684561932059
      ],
      [
        "Ġpear",
        -11.381230845346115
      ],
      [
        "Ġrose",
        -11.381390565996853
      ],
      [
        "Ġgoodbye",
        -11.384038444524538
      ],
      [
        "missu",
        -11.385179132759115
      ],
      [
        "softl",
        -11.386242919434622
      ],
      [
        "april",
        -11.386600620932233
      ],
      [
        "Ġpressure",
        -11.386626337000505
      ],
      [
        "Ġsmil",
        -11.387639126773678
      ],
      [
        "ended",
        -11.387774606079901
      ],
      [
        "momma",
        -11.389461664828888
      ],
      [
        "Ġfeeding",
        -11.390326723422053
      ],
      [
        "same",
        -11.391726380242211
      ],
      [
        "Ġdish",
        -11.391785793648939
      ],
      [
        "Ġunited",
        -11.392193235512824
      ],
      [
        "Ġcounter",
        -11.393976817847904
      ],
      [
        "Ġclient",
        -11.394026013322826
      ],
      [
        "Ġsociet",
        -11.395569434026067
      ],
      [
        "Ġfile",
        -11.395870121348453
      ],
      [
        "Ġpancake",
        -11.396145140928896
      ],
      [
        "ries",
        -11.398214353151129
      ],
      [
        "wright",
        -11.398311758789955
      ],
      [
        "Ġoriginal",
        -11.39930883492164
      ],
      [
        "Ġairport",
        -11.39946634727508
      ],
      [
        "kissing",
        -11.399592371246268
      ],
      [
        "diar",
        -11.399768384382927
      ],
      [
        "Ġtune",
        -11.399825306887138
      ],
      [
        "Ġmessy",
        -11.400562058462953
      ],
      [
        "Ġfancy",
        -11.400606520132023
      ],
      [
        "most",
        -11.400669832721375
      ],
      [
        "Ġkinds",
        -11.40221421487118
      ],
      [
        "Ġkim",
        -11.40250430256581
      ],
      [
        "Ġpopcorn",
        -11.40331794699512
      ],
      [
        "vroom",
        -11.40429202678421
      ],
      [
        "Ġjoey",
        -11.404450034005276
      ],
      [
        "imitating",
        -11.404742147917467
      ],
      [
        "media",
        -11.405520003465789
      ],
      [
        "Ġlocke",
        -11.4055872742445
      ],
      [
        "katie",
        -11.406417815386481
      ],
      [
        "Ġgorgeous",
        -11.40694446487962
      ],
      [
        "Ġdiscuss",
        -11.407355488124743
      ],
      [
        "Ġmaggie",
        -11.407424099856685
      ],
      [
        "Ġphotograph",
        -11.40831845247688
      ],
      [
        "Ġspeech",
        -11.40851850792668
      ],
      [
        "Ġlips",
        -11.409848344003711
      ],
      [
        "Ġvalue",
        -11.409991212298774
      ],
      [
        "Ġscrewdriver",
        -11.413270658460668
      ],
      [
        "meal",
        -11.415353437187239
      ],
      [
        "Ġshelf",
        -11.415545084751097
      ],
      [
        "Ġdeliver",
        -11.415700197982028
      ],
      [
        "Ġpowder",
        -11.415899948364842
      ],
      [
        "Ġrole",
        -11.416656236347094
      ],
      [
        "course",
        -11.416856551717949
      ],
      [
        "Ġsquirrel",
        -11.417684999242123
      ],
      [
        "Ġbaa",
        -11.4179771225803
      ],
      [
        "Ġfurniture",
        -11.418276883764381
      ],
      [
        "Ġwave",
        -11.41899459802657
      ],
      [
        "Ġinclude",
        -11.419183882232419
      ],
      [
        "mouth",
        -11.419640446090497
      ],
      [
        "Ġskirt",
        -11.419954428721391
      ],
      [
        "enters",
        -11.420444884814383
      ],
      [
        "shoes",
        -11.42122422385118
      ],
      [
        "reading",
        -11.421695453280385
      ],
      [
        "Ġsweep",
        -11.422873638766932
      ],
      [
        "Ġdessert",
        -11.423085288748696
      ],
      [
        "outside",
        -11.424359830645272
      ],
      [
        "Ġrobert",
        -11.425286854977344
      ],
      [
        "clean",
        -11.42571270608624
      ],
      [
        "bee",
        -11.426197310266435
      ],
      [
        "Ġlookin",
        -11.426490646495704
      ],
      [
        "discard",
        -11.427012852501285
      ],
      [
        "Ġsnail",
        -11.428378424422066
      ],
      [
        "Ġmistake",
        -11.428621421613766
      ],
      [
        "Ġshoot",
        -11.429021661244901
      ],
      [
        "Ġlollipop",
        -11.429417819714516
      ],
      [
        "Ġcustomer",
        -11.429693803496725
      ],
      [
        "ada",
        -11.430069014213991
      ],
      [
        "Ġbasi",
        -11.43291064337255
      ],
      [
        "fa",
        -11.432942490819507
      ],
      [
        "demonstrate",
        -11.43326828482945
      ],
      [
        "Ġhomework",
        -11.433966936596969
      ],
      [
        "Ġsnowman",
        -11.434059369199822
      ],
      [
        "Ġenvelope",
        -11.434357467051758
      ],
      [
        "Ġchest",
        -11.434870612271894
      ],
      [
        "Ġstir",
        -11.437300727298743
      ],
      [
        "Ġmaterial",
        -11.437472114621777
      ],
      [
        "tomorro",
        -11.437980209439925
      ],
      [
        "Ġregister",
        -11.437990377164539
      ],
      [
        "draws",
        -11.438128498942646
      ],
      [
        "Ġtire",
        -11.438319923978629
      ],
      [
        "puttin",
        -11.438513358006126
      ],
      [
        "Ġspille",
        -11.439796676070944
      ],
      [
        "Ġwasher",
        -11.439883729651287
      ],
      [
        "Ġcontract",
        -11.440143144765035
      ],
      [
        "done",
        -11.44109339462528
      ],
      [
        "Ġnee",
        -11.44210965691618
      ],
      [
        "Ġattack",
        -11.442256395279497
      ],
      [
        "hose",
        -11.442893628844567
      ],
      [
        "Ġse",
        -11.443251626553568
      ],
      [
        "Ġmeow",
        -11.443647883628353
      ],
      [
        "Ġchase",
        -11.444124724288876
      ],
      [
        "Ġhalloween",
        -11.444521556740213
      ],
      [
        "Ġpresident",
        -11.446232538538109
      ],
      [
        "Ġyell",
        -11.446898003768913
      ],
      [
        "joe",
        -11.447174588635185
      ],
      [
        "lot",
        -11.447731863878325
      ],
      [
        "john",
        -11.449048053364077
      ],
      [
        "nana",
        -11.449472430126896
      ],
      [
        "Ġprivate",
        -11.450329897679069
      ],
      [
        "Ġprefer",
        -11.450914946995457
      ],
      [
        "Ġrachel",
        -11.451129456575531
      ],
      [
        "Ġballet",
        -11.451993649510417
      ],
      [
        "pizza",
        -11.452721277612262
      ],
      [
        "Ġawake",
        -11.453727491054682
      ],
      [
        "Ġfourth",
        -11.455277806074106
      ],
      [
        "horse",
        -11.455467315530612
      ],
      [
        "Ġclue",
        -11.455489381774358
      ],
      [
        "Ġcondition",
        -11.455741490657596
      ],
      [
        "Ġbedtime",
        -11.45610703354512
      ],
      [
        "Ġbib",
        -11.456194937066348
      ],
      [
        "attempt",
        -11.457290893987658
      ],
      [
        "Ġglance",
        -11.457392856806955
      ],
      [
        "Ġthumb",
        -11.458446618033046
      ],
      [
        "Ġpiano",
        -11.458593750328046
      ],
      [
        "duh",
        -11.459043640380228
      ],
      [
        "Ġjumper",
        -11.460407679063113
      ],
      [
        "Ġwh",
        -11.460878997522611
      ],
      [
        "Ġwine",
        -11.461083750220965
      ],
      [
        "Ġspread",
        -11.461175045212208
      ],
      [
        "Ġsco",
        -11.461386821634377
      ],
      [
        "shake",
        -11.462997311049929
      ],
      [
        "Ġseeds",
        -11.464083669159397
      ],
      [
        "Ġbench",
        -11.464299427621143
      ],
      [
        "doing",
        -11.464752901071925
      ],
      [
        "Ġbloke",
        -11.465418277318491
      ],
      [
        "Ġoctopus",
        -11.465419542941602
      ],
      [
        "Ġconference",
        -11.466010748199226
      ],
      [
        "Ġheld",
        -11.466255086065273
      ],
      [
        "Ġhelpe",
        -11.467731585472936
      ],
      [
        "Ġbigges",
        -11.468208200481655
      ],
      [
        "Ġdegree",
        -11.468264981228074
      ],
      [
        "Ġdistance",
        -11.468738041103066
      ],
      [
        "ĠâĢĺ",
        -11.469095547403949
      ],
      [
        "Ġcrie",
        -11.469362419535173
      ],
      [
        "Ġsecret",
        -11.469894086789449
      ],
      [
        "Ġrush",
        -11.470129151975579
      ],
      [
        "unc",
        -11.473259004729183
      ],
      [
        "Ġcharlie",
        -11.474282783107295
      ],
      [
        "Ġcushion",
        -11.474331078705593
      ],
      [
        "Ġroz",
        -11.474673743858787
      ],
      [
        "yells",
        -11.474727360280895
      ],
      [
        "love",
        -11.474996258388458
      ],
      [
        "Ġewww",
        -11.475034374959376
      ],
      [
        "Ġpeg",
        -11.475971808053773
      ],
      [
        "Ġmuffin",
        -11.476548148730462
      ],
      [
        "Ġmolly",
        -11.47709543803473
      ],
      [
        "Ġdie",
        -11.477801447072133
      ],
      [
        "Ġpopped",
        -11.478189166276504
      ],
      [
        "Ġsuitcase",
        -11.478431979488523
      ],
      [
        "remove",
        -11.479371099383174
      ],
      [
        "drops",
        -11.480159521476853
      ],
      [
        "twelve",
        -11.480438504656465
      ],
      [
        "Ġfifi",
        -11.480792610509308
      ],
      [
        "Ġbu",
        -11.482546562576555
      ],
      [
        "Ġmotorcycle",
        -11.482603876936935
      ],
      [
        "him",
        -11.48283563954039
      ],
      [
        "Ġafterward",
        -11.482994114262159
      ],
      [
        "Ġargument",
        -11.483367371299465
      ],
      [
        "Ġcakes",
        -11.483918020213503
      ],
      [
        "door",
        -11.484037719247821
      ],
      [
        "Ġfrightene",
        -11.484043320056589
      ],
      [
        "Ġfinancial",
        -11.48404893005733
      ],
      [
        "Ġminister",
        -11.484384984029822
      ],
      [
        "goodbye",
        -11.484505947047072
      ],
      [
        "Ġalligator",
        -11.484594052457378
      ],
      [
        "reach",
        -11.484785820967655
      ],
      [
        "Ġbor",
        -11.484906793588227
      ],
      [
        "Ġtast",
        -11.485444396968127
      ],
      [
        "Ġwild",
        -11.485607580989974
      ],
      [
        "Ġmax",
        -11.485998742609894
      ],
      [
        "Ġboot",
        -11.487274582204435
      ],
      [
        "Ġalarm",
        -11.48737808558823
      ],
      [
        "Ġresource",
        -11.48742276076711
      ],
      [
        "Ġeuropean",
        -11.487983609733956
      ],
      [
        "Ġsqueak",
        -11.48841527988883
      ],
      [
        "Ġworker",
        -11.491288156635072
      ],
      [
        "hurry",
        -11.491719793552642
      ],
      [
        "led",
        -11.492406658327736
      ],
      [
        "Ġoursel",
        -11.49280940829961
      ],
      [
        "whoop",
        -11.493242249222877
      ],
      [
        "Ġmovement",
        -11.49436175835445
      ],
      [
        "auntie",
        -11.49476048381969
      ],
      [
        "Ġstripe",
        -11.495284093493128
      ],
      [
        "crash",
        -11.496047943489867
      ],
      [
        "Ġmarks",
        -11.496528316254599
      ],
      [
        "Ġpitch",
        -11.499684194698066
      ],
      [
        "Ġmarble",
        -11.50020924072713
      ],
      [
        "Ġtub",
        -11.500324507292836
      ],
      [
        "Ġcouncillor",
        -11.500435180113612
      ],
      [
        "Ġplayin",
        -11.500435793058843
      ],
      [
        "Ġhotel",
        -11.50071795742489
      ],
      [
        "having",
        -11.501373135889246
      ],
      [
        "Ġheat",
        -11.503802298103704
      ],
      [
        "Ġstacker",
        -11.503856326155914
      ],
      [
        "Ġjoke",
        -11.504716034678651
      ],
      [
        "Ġappropriate",
        -11.505243531964258
      ],
      [
        "Ġrefrigerator",
        -11.505673011151563
      ],
      [
        "Ġproposal",
        -11.506105587557201
      ],
      [
        "rabbit",
        -11.506363036339021
      ],
      [
        "uncle",
        -11.50727746337989
      ],
      [
        "run",
        -11.507697245438717
      ],
      [
        "Ġkneel",
        -11.50892273560836
      ],
      [
        "Ġpension",
        -11.51050599166306
      ],
      [
        "went",
        -11.510600817734064
      ],
      [
        "parent",
        -11.512166080917371
      ],
      [
        "Ġfunction",
        -11.512533933773312
      ],
      [
        "addresse",
        -11.512964253957964
      ],
      [
        "Ġfinding",
        -11.514614216896089
      ],
      [
        ")]",
        -11.515265829903505
      ],
      [
        "derwoo",
        -11.515320837353215
      ],
      [
        "Ġdiamond",
        -11.516477932713531
      ],
      [
        "Ġhuman",
        -11.518299581735791
      ],
      [
        "oink",
        -11.518406696468595
      ],
      [
        "Ġevidence",
        -11.518502897803156
      ],
      [
        "Ġnick",
        -11.52133257296955
      ],
      [
        "buzz",
        -11.521706054355151
      ],
      [
        "Ġskip",
        -11.522461892613583
      ],
      [
        "cake",
        -11.5224741707508
      ],
      [
        "jim",
        -11.522904738765554
      ],
      [
        "Ġpeach",
        -11.524091273190114
      ],
      [
        "Ġlettuce",
        -11.524198711283562
      ],
      [
        "deb",
        -11.524502908636926
      ],
      [
        "Ġkite",
        -11.525709893099942
      ],
      [
        "their",
        -11.526230236566619
      ],
      [
        "Ġchrist",
        -11.526676971570058
      ],
      [
        "cmon",
        -11.527683719106747
      ],
      [
        "Ġtreasure",
        -11.52774654992534
      ],
      [
        "Ġmerry",
        -11.52815896371489
      ],
      [
        "Ġcornflakes",
        -11.528396889530523
      ],
      [
        "shoe",
        -11.529140178282704
      ],
      [
        "hear",
        -11.529565560572461
      ],
      [
        "babbl",
        -11.529785721305045
      ],
      [
        "Ġtick",
        -11.530048091747286
      ],
      [
        "Ġwool",
        -11.530153757021889
      ],
      [
        "Ġtooth",
        -11.53119716893004
      ],
      [
        "Ġparcel",
        -11.531234521794216
      ],
      [
        "Ġcentral",
        -11.531804285745249
      ],
      [
        "Ġbert",
        -11.531843863533279
      ],
      [
        "stick",
        -11.532355162092559
      ],
      [
        "anybody",
        -11.533360186247798
      ],
      [
        "Ġyoghurt",
        -11.53346159964255
      ],
      [
        "sitting",
        -11.534472651706444
      ],
      [
        "Ġsweater",
        -11.534647823791198
      ],
      [
        "sits",
        -11.53474064255941
      ],
      [
        "runs",
        -11.535388495394258
      ],
      [
        "early",
        -11.535465905469184
      ],
      [
        "Ġpolitical",
        -11.53556900052584
      ],
      [
        "postman",
        -11.536644101824612
      ],
      [
        "Ġq",
        -11.536699869658927
      ],
      [
        "Ġmartin",
        -11.538359860839167
      ],
      [
        "Ġsub",
        -11.538581409936597
      ],
      [
        "song",
        -11.53932417036034
      ],
      [
        "Ġscare",
        -11.54010426160298
      ],
      [
        "âĢĻ",
        -11.54053882551411
      ],
      [
        "Ġmale",
        -11.541104863776477
      ],
      [
        "relative",
        -11.541561115384823
      ],
      [
        "Ġchoos",
        -11.543838835247545
      ],
      [
        "Ġimmediate",
        -11.544028557208907
      ],
      [
        "Ġcoin",
        -11.544513991632781
      ],
      [
        "Ġdolphin",
        -11.545183161700926
      ],
      [
        "Ġchop",
        -11.54589824496147
      ],
      [
        "mandy",
        -11.547037229998402
      ],
      [
        "Ġmate",
        -11.548161042334822
      ],
      [
        "Ġbugs",
        -11.54824190575148
      ],
      [
        "Ġclay",
        -11.549044874100836
      ],
      [
        "Ġhighchair",
        -11.549650022922211
      ],
      [
        "Ġsponge",
        -11.549739738546926
      ],
      [
        "Ġtask",
        -11.551187334867146
      ],
      [
        "Ġcrib",
        -11.551926358085439
      ],
      [
        "illa",
        -11.552047554569466
      ],
      [
        "Ġfund",
        -11.552381619658076
      ],
      [
        "Ġnail",
        -11.553019952764295
      ],
      [
        "Ġpapa",
        -11.553535606423097
      ],
      [
        "half",
        -11.553675316503888
      ],
      [
        "Ġlearning",
        -11.554340376576716
      ],
      [
        "Ġfactor",
        -11.554449679397298
      ],
      [
        "neighbor",
        -11.554949060955128
      ],
      [
        "aid",
        -11.55507642281114
      ],
      [
        "Ġgrown",
        -11.555954900422224
      ],
      [
        "everyone",
        -11.555960978090415
      ],
      [
        "Ġtransport",
        -11.556938661047504
      ],
      [
        "smiles",
        -11.557310253747634
      ],
      [
        "Ġbroom",
        -11.557459994483587
      ],
      [
        "Ġsleeve",
        -11.557721790675696
      ],
      [
        "Ġnatural",
        -11.558150250275784
      ],
      [
        "Ġplaygroup",
        -11.558380941638422
      ],
      [
        "Ġpears",
        -11.558852503652083
      ],
      [
        "Ġcartoon",
        -11.559833992456939
      ],
      [
        "pool",
        -11.560454950000558
      ],
      [
        "hoora",
        -11.561278928543459
      ],
      [
        "Ġcomfortabl",
        -11.561527340247125
      ],
      [
        "Ġlouder",
        -11.561737646492464
      ],
      [
        "whatever",
        -11.561853264544611
      ],
      [
        "chelle",
        -11.562022315417405
      ],
      [
        "luk",
        -11.562349812093078
      ],
      [
        "Ġprocedure",
        -11.563215575926751
      ],
      [
        "Ġpasta",
        -11.563600726337206
      ],
      [
        "Ġginger",
        -11.563792892323956
      ],
      [
        "ver",
        -11.563885261707007
      ],
      [
        "Ġpippin",
        -11.564044604074912
      ],
      [
        "Ġfed",
        -11.564364732001579
      ],
      [
        "Ġcoal",
        -11.564514057974083
      ],
      [
        "Ġmemor",
        -11.564538989239932
      ],
      [
        "Ġju",
        -11.565010568292077
      ],
      [
        "frog",
        -11.566349431616384
      ],
      [
        "Ġplug",
        -11.56731720549503
      ],
      [
        "Ġmanager",
        -11.567552145083276
      ],
      [
        "Ġcleaner",
        -11.567880702934279
      ],
      [
        "finishe",
        -11.568378075284961
      ],
      [
        "Ġgoal",
        -11.569026312565938
      ],
      [
        "Ġlength",
        -11.569727789600538
      ],
      [
        "Ġfault",
        -11.569752459895247
      ],
      [
        "Ġzero",
        -11.56997447997178
      ],
      [
        "Ġpeek",
        -11.570331243774287
      ],
      [
        "ful",
        -11.570623847563617
      ],
      [
        "spoken",
        -11.571646074697789
      ],
      [
        "Ġwoo",
        -11.572438185574436
      ],
      [
        "Ġhood",
        -11.572452606465717
      ],
      [
        "mpi",
        -11.573269948087082
      ],
      [
        "nose",
        -11.57429265518153
      ],
      [
        "Ġjumps",
        -11.57438170624945
      ],
      [
        "vid",
        -11.575115090153545
      ],
      [
        "Ġscore",
        -11.575165842825434
      ],
      [
        "Ġvehicle",
        -11.576678350938435
      ],
      [
        "Ġsold",
        -11.576806979931817
      ],
      [
        "quiet",
        -11.57708775723076
      ],
      [
        "Ġlastname",
        -11.578737859618816
      ],
      [
        "sharp",
        -11.579961585569176
      ],
      [
        "Ġsoda",
        -11.581534733540153
      ],
      [
        "Ġjess",
        -11.581910083629467
      ],
      [
        "bread",
        -11.583074880499439
      ],
      [
        "Ġpops",
        -11.583387252709759
      ],
      [
        "touch",
        -11.583954133951492
      ],
      [
        "Ġmessage",
        -11.585262659649569
      ],
      [
        "Ġmath",
        -11.585653025848124
      ],
      [
        "Ġstare",
        -11.58575653752649
      ],
      [
        "Ġdisappear",
        -11.586367069352278
      ],
      [
        "lisa",
        -11.588078556582598
      ],
      [
        "Ġcrack",
        -11.588613332115333
      ],
      [
        "Ġteletubbie",
        -11.588654022169926
      ],
      [
        "break",
        -11.589305259575012
      ],
      [
        "Ġdave",
        -11.589418358780172
      ],
      [
        "made",
        -11.590776511158474
      ],
      [
        "says",
        -11.590808592522738
      ],
      [
        "Ġmitten",
        -11.590929769677235
      ],
      [
        "bad",
        -11.592608793579226
      ],
      [
        "growl",
        -11.592899025210304
      ],
      [
        "forty",
        -11.593248736741346
      ],
      [
        "kim",
        -11.594369632000355
      ],
      [
        "Ġfan",
        -11.594745383415248
      ],
      [
        "Ġseptem",
        -11.594820995457926
      ],
      [
        "Ġmatche",
        -11.594937212405327
      ],
      [
        "bed",
        -11.595233291999211
      ],
      [
        "Ġdah",
        -11.595746162119365
      ],
      [
        "banana",
        -11.596176820270054
      ],
      [
        "Ġclimbe",
        -11.596879859435655
      ],
      [
        "Ġexamine",
        -11.597515182077757
      ],
      [
        "Ġadvance",
        -11.598125099480004
      ],
      [
        "Ġprepared",
        -11.599363339734454
      ],
      [
        "lion",
        -11.60054857872531
      ],
      [
        "Ġcrane",
        -11.601010354850677
      ],
      [
        "exact",
        -11.601443230449814
      ],
      [
        "fix",
        -11.601567321574972
      ],
      [
        "Ġtryin",
        -11.602093533279795
      ],
      [
        "Ġyorkshire",
        -11.602508697725078
      ],
      [
        "Ġdebate",
        -11.603032259509718
      ],
      [
        "below",
        -11.603275828202532
      ],
      [
        "Ġnanny",
        -11.60403242367006
      ],
      [
        "Ġernie",
        -11.604371188308335
      ],
      [
        "children",
        -11.605396751212492
      ],
      [
        "Ġtrust",
        -11.60574599240125
      ],
      [
        "Ġrattl",
        -11.606669881428925
      ],
      [
        "Ġfavour",
        -11.606888618939575
      ],
      [
        "Ġlanded",
        -11.607216304323199
      ],
      [
        "field",
        -11.607520381880327
      ],
      [
        "tland",
        -11.607673973494116
      ],
      [
        "Ġcherry",
        -11.607778505633274
      ],
      [
        "Ġpram",
        -11.607815770593788
      ],
      [
        "Ġteaching",
        -11.608433716324644
      ],
      [
        "Ġfrank",
        -11.609222290140487
      ],
      [
        "ley",
        -11.609612338143382
      ],
      [
        "companie",
        -11.611138541616041
      ],
      [
        "Ġprotect",
        -11.61123937125296
      ],
      [
        "Ġelection",
        -11.611677867802118
      ],
      [
        "Ġsale",
        -11.612353002460786
      ],
      [
        "Ġamong",
        -11.613377465113086
      ],
      [
        "Ġbrita",
        -11.614030695142384
      ],
      [
        "Ġspring",
        -11.614470139147144
      ],
      [
        "Ġsector",
        -11.61461069156806
      ],
      [
        "Ġstates",
        -11.615185146874108
      ],
      [
        "Ġlobster",
        -11.615371261829072
      ],
      [
        "wasn",
        -11.615491734475825
      ],
      [
        "Ġgrand",
        -11.616073194708237
      ],
      [
        "Ġextreme",
        -11.61619425689343
      ],
      [
        "Ġlengthen",
        -11.61620340558607
      ],
      [
        "Ġhorn",
        -11.617724700535788
      ],
      [
        "Ġstoo",
        -11.61777391608085
      ],
      [
        "peanut",
        -11.617950686400022
      ],
      [
        "into",
        -11.618921445308379
      ],
      [
        "Ġcocoon",
        -11.61913335350157
      ],
      [
        "Ġstones",
        -11.62013978153741
      ],
      [
        "Ġseek",
        -11.620939600703498
      ],
      [
        "hard",
        -11.621064260131575
      ],
      [
        "Ġindicate",
        -11.621144593055515
      ],
      [
        "rob",
        -11.62134560437378
      ],
      [
        "Ġresponsibilit",
        -11.622471481289821
      ],
      [
        "microphone",
        -11.622819420988982
      ],
      [
        "mumble",
        -11.622885277508775
      ],
      [
        "free",
        -11.624801146601358
      ],
      [
        "Ġapproach",
        -11.626008323755613
      ],
      [
        "jan",
        -11.626091953185544
      ],
      [
        "Ġcooke",
        -11.626718068245292
      ],
      [
        "Ġdesign",
        -11.626921282884911
      ],
      [
        "ka",
        -11.627154751728643
      ],
      [
        "climb",
        -11.627368246528476
      ],
      [
        "Ġintroduce",
        -11.627646309347478
      ],
      [
        "jenny",
        -11.628367794859287
      ],
      [
        "finish",
        -11.628663355301695
      ],
      [
        "Ġresearch",
        -11.628854229609852
      ],
      [
        "Ġflip",
        -11.628963965266777
      ],
      [
        "Ġtaugh",
        -11.62916249910608
      ],
      [
        "Ġcatche",
        -11.62992714861338
      ],
      [
        "jeannine",
        -11.630047548370422
      ],
      [
        "Ġcraz",
        -11.632501132847734
      ],
      [
        "Ġplum",
        -11.632573381615712
      ],
      [
        "Ġangel",
        -11.632847981962495
      ],
      [
        "Ġhats",
        -11.632976402444728
      ],
      [
        "Ġcheek",
        -11.633245885127703
      ],
      [
        "graeme",
        -11.633663573014807
      ],
      [
        "Ġcostume",
        -11.634739551849865
      ],
      [
        "Ġrestaurant",
        -11.635078559812175
      ],
      [
        "Ġinstance",
        -11.635396595095674
      ],
      [
        "Ġchap",
        -11.635830934415427
      ],
      [
        "wood",
        -11.636295514642505
      ],
      [
        "Ġamerica",
        -11.636338970509556
      ],
      [
        "Ġmakin",
        -11.636414836405802
      ],
      [
        "Ġmeliss",
        -11.636656785678317
      ],
      [
        "Ġteapot",
        -11.636882922382316
      ],
      [
        "Ġdese",
        -11.637039797281576
      ],
      [
        "pour",
        -11.637094722837297
      ],
      [
        "Ġspin",
        -11.637323845096933
      ],
      [
        "Ġcrunch",
        -11.637610588196935
      ],
      [
        "Ġtaxi",
        -11.637750175134691
      ],
      [
        "Ġmuscle",
        -11.638551545756087
      ],
      [
        "Ġsail",
        -11.638557255328593
      ],
      [
        "Ġjus",
        -11.639055014516334
      ],
      [
        "Ġnast",
        -11.639064103585937
      ],
      [
        "Ġrocking",
        -11.639601639439398
      ],
      [
        "Ġocean",
        -11.64098409257717
      ],
      [
        "Ġceiling",
        -11.641496275219382
      ],
      [
        "Ġdan",
        -11.641649846746438
      ],
      [
        "Ġallow",
        -11.6421177946138
      ],
      [
        "Ġrepresent",
        -11.642454112187934
      ],
      [
        "Ġuseful",
        -11.643505249829499
      ],
      [
        "Ġcenter",
        -11.643613497611462
      ],
      [
        "Ġsides",
        -11.644219659167604
      ],
      [
        "food",
        -11.646549549729755
      ],
      [
        "Ġrespect",
        -11.647473171832438
      ],
      [
        "slight",
        -11.647574715596893
      ],
      [
        "urgh",
        -11.648096428005749
      ],
      [
        "bouncing",
        -11.648414679938906
      ],
      [
        "Ġzoom",
        -11.648756057860524
      ],
      [
        "corn",
        -11.648853325142476
      ],
      [
        "Ġnails",
        -11.649008598100965
      ],
      [
        "Ġdough",
        -11.649116420382473
      ],
      [
        "Ġwrap",
        -11.650137273079004
      ],
      [
        "hiya",
        -11.650299549314866
      ],
      [
        "Ġwendy",
        -11.651441386296828
      ],
      [
        "silly",
        -11.651457814219064
      ],
      [
        "Ġrooster",
        -11.652347749008626
      ],
      [
        "Ġnature",
        -11.653085532391973
      ],
      [
        "Ġtruth",
        -11.653149068986282
      ],
      [
        "uhhu",
        -11.653711850703168
      ],
      [
        "ble",
        -11.653824718866982
      ],
      [
        "sheep",
        -11.654084116719467
      ],
      [
        "Ġpudding",
        -11.654360140594676
      ],
      [
        "Ġmap",
        -11.654532001138072
      ],
      [
        "repeat",
        -11.654830080086207
      ],
      [
        "Ġdonkey",
        -11.65515575096824
      ],
      [
        "Ġdescribe",
        -11.655201659770361
      ],
      [
        "beautiful",
        -11.655758164165302
      ],
      [
        "through",
        -11.655789335155948
      ],
      [
        "Ġbark",
        -11.656744733116863
      ],
      [
        "Ġpackage",
        -11.65716667874884
      ],
      [
        "Ġrescue",
        -11.658324888951912
      ],
      [
        "fifty",
        -11.659507059389146
      ],
      [
        "Ġrequire",
        -11.66085251908039
      ],
      [
        "Ġdec",
        -11.66130709462993
      ],
      [
        "puppet",
        -11.661357887921389
      ],
      [
        "Ġlo",
        -11.661365028769575
      ],
      [
        "Ġmarie",
        -11.661674196250722
      ],
      [
        "peek",
        -11.662847751682662
      ],
      [
        "Ġfairy",
        -11.66399080673401
      ],
      [
        "counter",
        -11.665901901112465
      ],
      [
        "Ġlamp",
        -11.667533057541778
      ],
      [
        "school",
        -11.667582268555442
      ],
      [
        "bus",
        -11.668583134366912
      ],
      [
        "Ġghost",
        -11.66942741263981
      ],
      [
        "Ġroute",
        -11.670086547286214
      ],
      [
        "henry",
        -11.67074505097079
      ],
      [
        "Ġpeasant",
        -11.671753359348369
      ],
      [
        "Ġslip",
        -11.67252748403209
      ],
      [
        "Ġdrawn",
        -11.673071274278776
      ],
      [
        "Ġcharlotte",
        -11.67309113655686
      ],
      [
        "Ġex",
        -11.673851046815134
      ],
      [
        "bow",
        -11.674521004610504
      ],
      [
        "Ġrich",
        -11.674551049607238
      ],
      [
        "Ġwav",
        -11.675163786565232
      ],
      [
        "yesterday",
        -11.676437754475678
      ],
      [
        "Ġeventual",
        -11.676956777602669
      ],
      [
        "abe",
        -11.67723570343847
      ],
      [
        "Ġlabel",
        -11.678402045004248
      ],
      [
        "Ġwage",
        -11.678589060644331
      ],
      [
        "Ġsniff",
        -11.678889266970433
      ],
      [
        "Ġapplication",
        -11.679068128869545
      ],
      [
        "Ġdeath",
        -11.679261213353021
      ],
      [
        "Ġalex",
        -11.67941392809961
      ],
      [
        "line",
        -11.679575717714464
      ],
      [
        "peas",
        -11.679643361706393
      ],
      [
        "Ġtough",
        -11.680054745114205
      ],
      [
        "Ġpositive",
        -11.6811958392498
      ],
      [
        "Ġloose",
        -11.681225681017354
      ],
      [
        "Ġinsurance",
        -11.681342201740332
      ],
      [
[...]
