{
  "version": "1.0",
  "truncation": null,
  "padding": null,
  "added_tokens": [
    {
      "id": 0,
      "content": "<UNK>",
      "single_word": false,
      "lstrip": false,
      "rstrip": false,
      "normalized": false,
      "special": true
    },
    {
      "id": 1,
      "content": "<PAD>",
      "single_word": false,
      "lstrip": false,
      "rstrip": false,
      "normalized": false,
      "special": true
    },
    {
      "id": 2,
      "content": "<CLS>",
      "single_word": false,
      "lstrip": false,
      "rstrip": false,
      "normalized": false,
      "special": true
    },
    {
      "id": 3,
      "content": "<SEP>",
      "single_word": false,
      "lstrip": false,
      "rstrip": false,
      "normalized": false,
      "special": true
    },
    {
      "id": 4,
      "content": "<MASK>",
      "single_word": false,
      "lstrip": false,
      "rstrip": false,
      "normalized": false,
      "special": true
    }
  ],
  "normalizer": {
    "type": "Sequence",
    "normalizers": [
      {
        "type": "NFD"
      },
      {
        "type": "StripAccents"
      },
      {
        "type": "Lowercase"
      }
    ]
  },
  "pre_tokenizer": {
    "type": "ByteLevel",
    "add_prefix_space": false,
    "trim_offsets": true,
    "use_regex": true
  },
  "post_processor": {
    "type": "ByteLevel",
    "add_prefix_space": true,
    "trim_offsets": true,
    "use_regex": true
  },
  "decoder": {
    "type": "ByteLevel",
    "add_prefix_space": true,
    "trim_offsets": true,
    "use_regex": true
  },
  "model": {
    "type": "Unigram",
    "unk_id": 0,
    "vocab": [
      [
        "<UNK>",
        0.0
      ],
      [
        "<PAD>",
        0.0
      ],
      [
        "<CLS>",
        0.0
      ],
      [
        "<SEP>",
        0.0
      ],
      [
        "<MASK>",
        0.0
      ],
      [
        "Ġ",
        -2.828637345258736
      ],
      [
        "çļĦ",
        -3.748011914304028
      ],
      [
        "äºĨ",
        -4.485132057214239
      ],
      [
        "åķĬ",
        -4.541449928637002
      ],
      [
        "æĪĳ",
        -5.008673282259085
      ],
      [
        "ä½ł",
        -5.024278339594124
      ],
      [
        "ĠæĪĳ",
        -5.224075286473788
      ],
      [
        "åĳ¢",
        -5.230871697832422
      ],
      [
        "æĺ¯",
        -5.274353447680461
      ],
      [
        "Ġä½ł",
        -5.375003754061316
      ],
      [
        "åľ¨",
        -5.425649362805718
      ],
      [
        "ä»ĸ",
        -5.638176122909883
      ],
      [
        "åĲĹ",
        -5.642436433061151
      ],
      [
        "åĴĮ",
        -5.675859212600026
      ],
      [
        "å°±",
        -5.688111667894324
      ],
      [
        "è¯´",
        -5.762276322839098
      ],
      [
        "ä¸į",
        -5.800490580165103
      ],
      [
        "æľī",
        -5.825488949906472
      ],
      [
        "åĲ§",
        -5.842886861136273
      ],
      [
        "åİ»",
        -5.868413957851391
      ],
      [
        "æĿ¥",
        -5.900551254120906
      ],
      [
        "äºº",
        -5.930219298201768
      ],
      [
        "Ġä»ĸ",
        -6.002360904234115
      ],
      [
        "è¿Ļä¸ª",
        -6.0274252183601575
      ],
      [
        "éĥ½",
        -6.092681971679658
      ],
      [
        "ä¸Ģ",
        -6.120900157445666
      ],
      [
        "å°±æĺ¯",
        -6.123698325514065
      ],
      [
        "æĪĳä»¬",
        -6.1555436618984825
      ],
      [
        "ä¸Ĭ",
        -6.1557767633637095
      ],
      [
        "åĳĢ",
        -6.161414902559059
      ],
      [
        "è¦ģ",
        -6.204010473954153
      ],
      [
        "å¤§",
        -6.214057141554765
      ],
      [
        "ä¹Ł",
        -6.245243105148285
      ],
      [
        "èĩªå·±",
        -6.266962349799986
      ],
      [
        "è¿Ļ",
        -6.270444382893363
      ],
      [
        "ä¸Ģä¸ª",
        -6.289984555395101
      ],
      [
        "å¥½",
        -6.327067555380985
      ],
      [
        "çļĦæĹ¶åĢĻ",
        -6.340222353742105
      ],
      [
        "åĪ°",
        -6.3830431512164445
      ],
      [
        "ĠéĤ£",
        -6.423914859199375
      ],
      [
        "ä¼ļ",
        -6.44161801902124
      ],
      [
        "å¯¹",
        -6.462328802361759
      ],
      [
        "Ġè¿Ļ",
        -6.462600385349399
      ],
      [
        "åľ°",
        -6.4717414907752975
      ],
      [
        "éĤ£",
        -6.480652227062533
      ],
      [
        "ĠæĪĳä»¬",
        -6.5500242026997295
      ],
      [
        "æ²¡æľī",
        -6.556496154404636
      ],
      [
        "å°ı",
        -6.557575738055267
      ],
      [
        "å¥¹",
        -6.605853168933061
      ],
      [
        "è¿ĺ",
        -6.61851860422694
      ],
      [
        "è¿ĩ",
        -6.654502814667682
      ],
      [
        "ä¸Ń",
        -6.680385124066714
      ],
      [
        "éĤ£ä¸ª",
        -6.700654302342281
      ],
      [
        "ĠçĦ¶åĲİ",
        -6.7135766828153844
      ],
      [
        "ä»Ģä¹Ī",
        -6.713578339642293
      ],
      [
        "ç»Ļ",
        -6.71723237873174
      ],
      [
        "çļĦäºº",
        -6.76012554549812
      ],
      [
        "æĥ³",
        -6.791200108710228
      ],
      [
        "å¾Ĺ",
        -6.793059385022691
      ],
      [
        "ä»ĸä»¬",
        -6.820399106397172
      ],
      [
        "æĬĬ",
        -6.822978712886483
      ],
      [
        "ä½łä»¬",
        -6.834174180752996
      ],
      [
        "èĥ½",
        -6.839120721399928
      ],
      [
        "è·Ł",
        -6.853314623918948
      ],
      [
        "è¢«",
        -6.854711220975702
      ],
      [
        "æ²¡",
        -6.8552496562556815
      ],
      [
        "ä¸º",
        -6.863660649449189
      ],
      [
        "éĩĮ",
        -6.876293009703774
      ],
      [
        "åıĪ",
        -6.895131307163274
      ],
      [
        "çĿĢ",
        -6.897300419859139
      ],
      [
        "å®¶",
        -6.906491479533857
      ],
      [
        "Ġå°±",
        -6.917193282494088
      ],
      [
        "å¤ļ",
        -6.920833188146677
      ],
      [
        "çľĭ",
        -6.928588833299493
      ],
      [
        "çļĦè¯Ŀ",
        -6.932827609417606
      ],
      [
        "åĺĽ",
        -6.942280166437241
      ],
      [
        "åģļ",
        -6.943105966019235
      ],
      [
        "çĶ¨",
        -6.958083242199356
      ],
      [
        "åĦ¿",
        -6.968626402284155
      ],
      [
        "ä»İ",
        -6.974307561272029
      ],
      [
        "ä¸ª",
        -7.007145073693943
      ],
      [
        "åı¯ä»¥",
        -7.010309499396074
      ],
      [
        "åŃĲ",
        -7.0103248139016685
      ],
      [
        "çİ°åľ¨",
        -7.016678921370239
      ],
      [
        "Ġå°±æĺ¯",
        -7.01780820459884
      ],
      [
        "å¾Ī",
        -7.025641391627783
      ],
      [
        "ä¸ĭ",
        -7.028127817386084
      ],
      [
        "æĤ¨",
        -7.030057994319327
      ],
      [
        "Ġä½Ĩæĺ¯",
        -7.045821545861822
      ],
      [
        "ä¸įæĺ¯",
        -7.046857763073724
      ],
      [
        "èµ°",
        -7.058148358870833
      ],
      [
        "åĩº",
        -7.072611995579235
      ],
      [
        "è¿ĺæĺ¯",
        -7.081418293614625
      ],
      [
        "çĤ¹",
        -7.0825924669405484
      ],
      [
        "Ġåľ¨",
        -7.089768089366379
      ],
      [
        "æīĵ",
        -7.129371576367795
      ],
      [
        "å·²ç»ı",
        -7.134696776744926
      ],
      [
        "èĢģ",
        -7.1433871222600835
      ],
      [
        "åĨį",
        -7.148783683925394
      ],
      [
        "ä¸ī",
        -7.155110110212215
      ],
      [
        "åĲĥ",
        -7.1696821745930865
      ],
      [
        "ä¸Ģä¸ĭ",
        -7.1840638300452895
      ],
      [
        "å¿ĥ",
        -7.190383479773475
      ],
      [
        "åĲİ",
        -7.252736759264078
      ],
      [
        "Ġä½Ĩ",
        -7.25711201037482
      ],
      [
        "å¤©",
        -7.2810141215255015
      ],
      [
        "çŃī",
        -7.282689141735464
      ],
      [
        "æĹ¶",
        -7.283625729639317
      ],
      [
        "éĥ½æĺ¯",
        -7.288074315321007
      ],
      [
        "Ġè¿Ļä¸ª",
        -7.309794185970244
      ],
      [
        "é«ĺ",
        -7.311730746722297
      ],
      [
        "ĠåĽłä¸º",
        -7.320049506556725
      ],
      [
        "æľĢ",
        -7.327958232125265
      ],
      [
        "åı«",
        -7.3293526523351105
      ],
      [
        "å·¥ä½ľ",
        -7.333938705483472
      ],
      [
        "ä¹ĭåĲİ",
        -7.345375741751003
      ],
      [
        "æ°´",
        -7.350673299775009
      ],
      [
        "è¿Ļæł·",
        -7.361328108334096
      ],
      [
        "ä¸ĢäºĽ",
        -7.36612134963128
      ],
      [
        "å¼Ģ",
        -7.400293599345673
      ],
      [
        "Ġä½łä»¬",
        -7.400736348784065
      ],
      [
        "è¿Ļä¹Ī",
        -7.412336413464335
      ],
      [
        "ä¹ĭ",
        -7.42585064147667
      ],
      [
        "çĪ±",
        -7.430902239143194
      ],
      [
        "åı¯èĥ½",
        -7.431828815804019
      ],
      [
        "è®©",
        -7.442727221077888
      ],
      [
        "éĴ±",
        -7.44634987191521
      ],
      [
        "ĠæīĢä»¥",
        -7.449293421651912
      ],
      [
        "åŃ©åŃĲ",
        -7.452931918025982
      ],
      [
        "ç»ĻæĪĳ",
        -7.45966731362782
      ],
      [
        "Ġæĺ¯",
        -7.46090428061561
      ],
      [
        "æĢİä¹Ī",
        -7.463913075465101
      ],
      [
        "éķ¿",
        -7.466074135819051
      ],
      [
        "å¤ª",
        -7.47457848957286
      ],
      [
        "å°Ĩ",
        -7.482072640108148
      ],
      [
        "ä»¥åĲİ",
        -7.490397207551894
      ],
      [
        "å®ĥ",
        -7.499159171417263
      ],
      [
        "Ġä»ĸä»¬",
        -7.499205609459061
      ],
      [
        "åı¯",
        -7.501950855642628
      ],
      [
        "Ġçİ°åľ¨",
        -7.505062201471196
      ],
      [
        "ä¸İ",
        -7.509100492887612
      ],
      [
        "å¤´",
        -7.51551400209981
      ],
      [
        "å½ĵ",
        -7.516937410888314
      ],
      [
        "èĬ±",
        -7.518652837783447
      ],
      [
        "èĢĮ",
        -7.521572690305321
      ],
      [
        "åĲ¬",
        -7.540559271107766
      ],
      [
        "åĽŀ",
        -7.542044629732107
      ],
      [
        "çĶŁ",
        -7.543011029344326
      ],
      [
        "åīį",
        -7.543545932780152
      ],
      [
        "åıĳ",
        -7.54359005481472
      ],
      [
        "ä¸ĢçĤ¹",
        -7.553569482192087
      ],
      [
        "å¼Ģå§ĭ",
        -7.556651966795236
      ],
      [
        "Ġå¥¹",
        -7.559095753195043
      ],
      [
        "Ġå¦Ĥæŀľ",
        -7.56287926901245
      ],
      [
        "ä¹Łæĺ¯",
        -7.56844390706577
      ],
      [
        "æĪĲ",
        -7.5821345027421145
      ],
      [
        "æĹł",
        -7.596031443176749
      ],
      [
        "è¿Ļç§į",
        -7.596670596548355
      ],
      [
        "ĠæĪĳæĺ¯",
        -7.598870466490059
      ],
      [
        "åĽĽ",
        -7.604144447237397
      ],
      [
        "è¿ĻäºĽ",
        -7.606912099415354
      ],
      [
        "è¿ĺæľī",
        -7.609664535631362
      ],
      [
        "äºĮ",
        -7.61019891008705
      ],
      [
        "äºĶ",
        -7.610467803399503
      ],
      [
        "åĵ¥",
        -7.61127947125401
      ],
      [
        "åĽłä¸º",
        -7.612943798386041
      ],
      [
        "åķ¦",
        -7.617527042945689
      ],
      [
        "æīĭ",
        -7.625007866781752
      ],
      [
        "æ¯Ķ",
        -7.626765011424398
      ],
      [
        "è¡Į",
        -7.627728992765707
      ],
      [
        "æŃ»",
        -7.6289279517206605
      ],
      [
        "åĲĳ",
        -7.636474157759263
      ],
      [
        "è½¦",
        -7.63653622748696
      ],
      [
        "æīį",
        -7.639348190044027
      ],
      [
        "æĹ¶éĹ´",
        -7.643197602153446
      ],
      [
        "èĢģå¸Ī",
        -7.644801654689983
      ],
      [
        "éĤ£ä¹Ī",
        -7.646008335734786
      ],
      [
        "äºİ",
        -7.646821378136867
      ],
      [
        "ä»Ĭå¤©",
        -7.649210889238464
      ],
      [
        "æĸ°",
        -7.649488254721449
      ],
      [
        "æĺ¯ä¸įæĺ¯",
        -7.64978416039531
      ],
      [
        "æī¾",
        -7.651407704903692
      ],
      [
        "å±±",
        -7.656927398827007
      ],
      [
        "åĴ±ä»¬",
        -7.660705223184959
      ],
      [
        "ç»Ļä½ł",
        -7.670768333298122
      ],
      [
        "åħĪ",
        -7.671792641772591
      ],
      [
        "åĪĨ",
        -7.679174193393969
      ],
      [
        "ĠèĢĮ",
        -7.680782219292633
      ],
      [
        "å¸¦",
        -7.6841276639337455
      ],
      [
        "åĹ¯",
        -7.685158125016077
      ],
      [
        "çľŁçļĦ",
        -7.688870044339467
      ],
      [
        "çī¹åĪ«",
        -7.689652008399044
      ],
      [
        "Ġåħ¶å®ŀ",
        -7.689751317829968
      ],
      [
        "ä¸Ģæł·",
        -7.690313592008257
      ],
      [
        "æĽ´",
        -7.691725225523701
      ],
      [
        "æ°Ķ",
        -7.697776747360141
      ],
      [
        "åĳĥ",
        -7.6989028682754554
      ],
      [
        "åĽŀæĿ¥",
        -7.699547758301403
      ],
      [
        "éĹ®",
        -7.702018717654495
      ],
      [
        "åħ¬åı¸",
        -7.702331482747772
      ],
      [
        "æĭ¿",
        -7.706975460731275
      ],
      [
        "åĩºæĿ¥",
        -7.7095604223749525
      ],
      [
        "è°ģ",
        -7.71251444752097
      ],
      [
        "ä¸¤",
        -7.718519766493079
      ],
      [
        "ä»¥",
        -7.721468661421898
      ],
      [
        "çŁ¥éģĵ",
        -7.72151625704511
      ],
      [
        "è§īå¾Ĺ",
        -7.725241483842968
      ],
      [
        "ä½łçļĦ",
        -7.727935923705131
      ],
      [
        "èµ·",
        -7.732171013139668
      ],
      [
        "åĵª",
        -7.733647966669505
      ],
      [
        "åĥı",
        -7.742599954365513
      ],
      [
        "çİĭ",
        -7.752158572396501
      ],
      [
        "æĶ¾",
        -7.7546807943485785
      ],
      [
        "åĪ«",
        -7.7555932953653315
      ],
      [
        "çĶŁæ´»",
        -7.757556705578935
      ],
      [
        "ĠæĪĳå°±",
        -7.758774711490636
      ],
      [
        "å¤§å®¶",
        -7.760107583244736
      ],
      [
        "Ġåı¯æĺ¯",
        -7.76159764546377
      ],
      [
        "ä¸įèĥ½",
        -7.776157574604138
      ],
      [
        "Ġæľī",
        -7.776797753633179
      ],
      [
        "æīĢ",
        -7.779879289933998
      ],
      [
        "ä¹ĭåīį",
        -7.781166280169479
      ],
      [
        "éĹ®é¢ĺ",
        -7.784456362197382
      ],
      [
        "éľĢè¦ģ",
        -7.785558682125329
      ],
      [
        "èĥ½å¤Ł",
        -7.786786372758344
      ],
      [
        "åºĶè¯¥",
        -7.791401530376726
      ],
      [
        "èĩªå·±çļĦ",
        -7.791616443770213
      ],
      [
        "äºĭ",
        -7.7943553784984925
      ],
      [
        "åĪ«äºº",
        -7.7954673469540605
      ],
      [
        "è·ŁæĪĳ",
        -7.799156758896327
      ],
      [
        "æľĭåıĭ",
        -7.8033488105230955
      ],
      [
        "åħ¶å®ŀ",
        -7.810306017876204
      ],
      [
        "é£İ",
        -7.824295334838988
      ],
      [
        "ĠæĤ¨",
        -7.827787319209264
      ],
      [
        "æĢ§",
        -7.828086503236566
      ],
      [
        "åĸľæ¬¢",
        -7.829651164708041
      ],
      [
        "ĠéĤ£ä¹Ī",
        -7.839331696019647
      ],
      [
        "åŃ¦",
        -7.841489979357403
      ],
      [
        "ä¸ŃåĽ½",
        -7.849003577376935
      ],
      [
        "Ġè¿Ļæĺ¯",
        -7.850943717575801
      ],
      [
        "å¦Īå¦Ī",
        -7.854331199141473
      ],
      [
        "Ġè¿ĺæľī",
        -7.859425491273633
      ],
      [
        "ä¸ĢçĽ´",
        -7.864599115855057
      ],
      [
        "å¹²",
        -7.868713234088489
      ],
      [
        "çľŁ",
        -7.870928421574005
      ],
      [
        "æĿ¥äºĨ",
        -7.871636402315151
      ],
      [
        "è®²",
        -7.881578106094455
      ],
      [
        "çļĦäºĭæĥħ",
        -7.8819079853489935
      ],
      [
        "ä¹°",
        -7.8853064665687995
      ],
      [
        "æĪĳå°±",
        -7.890416056931235
      ],
      [
        "è¯·",
        -7.893387534595572
      ],
      [
        "åį´",
        -7.9014384087195
      ],
      [
        "åħŃ",
        -7.902144467181172
      ],
      [
        "ç»Ļä»ĸ",
        -7.905529013101278
      ],
      [
        "ĠæĪĳè§īå¾Ĺ",
        -7.90764661503159
      ],
      [
        "ä»¬",
        -7.910018675828237
      ],
      [
        "éģĵ",
        -7.910148889810092
      ],
      [
        "å¿«",
        -7.910296521290599
      ],
      [
        "è¿ĩæĿ¥",
        -7.910557403684354
      ],
      [
        "çĻ½",
        -7.910820696783999
      ],
      [
        "è®©æĪĳ",
        -7.915342883404737
      ],
      [
        "éĩĳ",
        -7.918908902043389
      ],
      [
        "ĠéĤ£ä½ł",
        -7.921139207993255
      ],
      [
        "äººå®¶",
        -7.9221502055083555
      ],
      [
        "åıĳçİ°",
        -7.92502492754382
      ],
      [
        "èµ·æĿ¥",
        -7.926270339792289
      ],
      [
        "ä½ı",
        -7.9283101982547795
      ],
      [
        "è·Łä½ł",
        -7.929053119292954
      ],
      [
        "åħ«",
        -7.9292220562960445
      ],
      [
        "åĩºåİ»",
        -7.9333788984057865
      ],
      [
        "éĩĮéĿ¢",
        -7.935862525575795
      ],
      [
        "ä¸ĥ",
        -7.936134465633801
      ],
      [
        "Ġå°ı",
        -7.938006497335778
      ],
      [
        "æĢ»",
        -7.939734901131436
      ],
      [
        "éĿŀå¸¸",
        -7.955193242651552
      ],
      [
        "äºĨåĲĹ",
        -7.957663073058317
      ],
      [
        "å¼ł",
        -7.959914842574323
      ],
      [
        "ä¸Ģä¸ªäºº",
        -7.961835673622824
      ],
      [
        "è¿ŀ",
        -7.9632251774092495
      ],
      [
        "åħĪçĶŁ",
        -7.96444738798677
      ],
      [
        "æ¯Ķè¾ĥ",
        -7.965438816066413
      ],
      [
        "çľĭåĪ°",
        -7.9667591605030665
      ],
      [
        "åĲį",
        -7.969410560696716
      ],
      [
        "éĤ£äºĽ",
        -7.970206438101611
      ],
      [
        "æĸĩ",
        -7.976734971458843
      ],
      [
        "åĵĪ",
        -7.976771588244498
      ],
      [
        "Ġä¹Ł",
        -7.983597780535611
      ],
      [
        "é©¬",
        -7.983635314495119
      ],
      [
        "æµ·",
        -7.983954824262057
      ],
      [
        "éĹ¨",
        -7.984431191771879
      ],
      [
        "åĪ°äºĨ",
        -7.985803346325925
      ],
      [
        "æĪĳçļĦ",
        -7.987309971540373
      ],
      [
        "éĢģ",
        -7.988869610298746
      ],
      [
        "å¾Īå¤ļ",
        -7.989508970972837
      ],
      [
        "è¿Ľ",
        -7.990129085726014
      ],
      [
        "è¯Ŀ",
        -7.991296616271384
      ],
      [
        "è§ģ",
        -7.998401048790985
      ],
      [
        "ĠèĢĮä¸Ķ",
        -8.004520464368248
      ],
      [
        "åĽ½",
        -8.008034940562533
      ],
      [
        "éĿ¢",
        -8.009805553969796
      ],
      [
        "æľīçĤ¹",
        -8.019645959026613
      ],
      [
        "æŃ£",
        -8.021080273028106
      ],
      [
        "éĩį",
        -8.021768031766904
      ],
      [
        "ä¸Ģèµ·",
        -8.024301822284846
      ],
      [
        "ĠåĹ¯",
        -8.024456422417288
      ],
      [
        "åĨĽ",
        -8.026357163235021
      ],
      [
        "è¿ĩåİ»",
        -8.030739175167788
      ],
      [
        "æľīä¸Ģä¸ª",
        -8.033195251616933
      ],
      [
        "æĪĳæĺ¯",
        -8.034015764431722
      ],
      [
        "Ġè¿ĺ",
        -8.035833960023098
      ],
      [
        "åħ¨",
        -8.036060193223356
      ],
      [
        "æĮº",
        -8.037246918860687
      ],
      [
        "åıª",
        -8.03929218327872
      ],
      [
        "åľ¨ä¸Ģèµ·",
        -8.044773112760714
      ],
      [
        "çģ«",
        -8.045880921666399
      ],
      [
        "éĢīæĭ©",
        -8.047415192529957
      ],
      [
        "çļĦä¸Ģä¸ª",
        -8.04902705974246
      ],
      [
        "ç»ĵå©ļ",
        -8.049691209885928
      ],
      [
        "Ġä»Ĭå¤©",
        -8.050492534471998
      ],
      [
        "Ġä¸į",
        -8.05171761234052
      ],
      [
        "ä¸ºä»Ģä¹Ī",
        -8.051760808619425
      ],
      [
        "ä¸įä¼ļ",
        -8.055050656113917
      ],
      [
        "åĬł",
        -8.057256990437093
      ],
      [
        "è·¯",
        -8.05924663208426
      ],
      [
        "èĢħ",
        -8.059948416854509
      ],
      [
        "èĩª",
        -8.062550149847695
      ],
      [
        "æĿİ",
        -8.07134613973805
      ],
      [
        "Ġä¸įæĺ¯",
        -8.072825806200628
      ],
      [
        "æĺİ",
        -8.073131267015821
      ],
      [
        "æĭī",
        -8.078420687505282
      ],
      [
        "æĺ¯åĲ§",
        -8.083485489617424
      ],
      [
        "é£ŀ",
        -8.083624229139222
      ],
      [
        "åĸĿ",
        -8.084256447477935
      ],
      [
        "Ġä½łè¯´",
        -8.090678474609323
      ],
      [
        "åĬ¨",
        -8.091869374259378
      ],
      [
        "è·ĳ",
        -8.112428939492638
      ],
      [
        "æĹ¥",
        -8.11248449470182
      ],
      [
        "çļĦæĺ¯",
        -8.112799557119217
      ],
      [
        "Ġä»İ",
        -8.115276293075185
      ],
      [
        "ä»ĸçļĦ",
        -8.116590010964691
      ],
      [
        "éħĴ",
        -8.119580575753988
      ],
      [
        "ä¹Ŀ",
        -8.119608664161172
      ],
      [
        "å¦Ĥæŀľ",
        -8.121248396726509
      ],
      [
        "å¤ĸ",
        -8.123054269153622
      ],
      [
        "ä¸įå¥½",
        -8.123131549466374
      ],
      [
        "å®ī",
        -8.123981719541806
      ],
      [
        "ä¹¦",
        -8.12416434344292
      ],
      [
        "å§Ĳ",
        -8.12623556575893
      ],
      [
        "ç¾İ",
        -8.130491856266064
      ],
      [
        "è¿Ļæĺ¯",
        -8.130626823400563
      ],
      [
        "ä¸įè¦ģ",
        -8.14002294555456
      ],
      [
        "åĵ¦",
        -8.146930021533114
      ],
      [
        "åĽŀå®¶",
        -8.147154539341045
      ],
      [
        "Ġåı¯",
        -8.147507052010937
      ],
      [
        "åĬĽ",
        -8.149002794739049
      ],
      [
        "ç»§ç»Ń",
        -8.150395919729007
      ],
      [
        "çĪ¶æ¯į",
        -8.153512194220474
      ],
      [
        "æ¸ħ",
        -8.154174762537997
      ],
      [
        "åħī",
        -8.157489126847812
      ],
      [
        "åı£",
        -8.162127486398642
      ],
      [
        "çĦ¶åĲİ",
        -8.162185119297188
      ],
      [
        "åħ³ç³»",
        -8.162342594239039
      ],
      [
        "æľ¬",
        -8.165482801618271
      ],
      [
        "Ġæ²¡æľī",
        -8.168458569313328
      ],
      [
        "çļĦäºĭåĦ¿",
        -8.169701486737116
      ],
      [
        "åĨħ",
        -8.171980545920963
      ],
      [
        "è¯¥",
        -8.175592379289652
      ],
      [
        "æĦŁè§ī",
        -8.176206989293208
      ],
      [
        "åįĸ",
        -8.177675096302611
      ],
      [
        "å¼º",
        -8.178419019391209
      ],
      [
        "åĩĨå¤ĩ",
        -8.182977239595447
      ],
      [
        "åıĺ",
        -8.184090018120296
      ],
      [
        "å½ĵä¸Ń",
        -8.18928314796621
      ],
      [
        "è½¬",
        -8.189879737309884
      ],
      [
        "Ġåĵİ",
        -8.190093201993431
      ],
      [
        "è®©ä½ł",
        -8.194161411629045
      ],
      [
        "åĵİ",
        -8.19431206578441
      ],
      [
        "åĨĻ",
        -8.195767559418412
      ],
      [
        "ĠæĪĳè¯´",
        -8.203590666274428
      ],
      [
        "åĽŀåİ»",
        -8.20441724263761
      ],
      [
        "å°ĳ",
        -8.204765955021974
      ],
      [
        "Ġå¯¹",
        -8.214882274815611
      ],
      [
        "å½ĵæĹ¶",
        -8.224952481252828
      ],
      [
        "è¯´è¯Ŀ",
        -8.225037365528138
      ],
      [
        "æĥħ",
        -8.226444468838679
      ],
      [
        "ä¸Ģæ¬¡",
        -8.227640980471627
      ],
      [
        "èµ°äºĨ",
        -8.228494691005274
      ],
      [
        "éļ¾",
        -8.229723532004458
      ],
      [
        "å¥³äºº",
        -8.23161009561156
      ],
      [
        "ĠåĪ«",
        -8.234414227846715
      ],
      [
        "æĪĳè§īå¾Ĺ",
        -8.237333048743894
      ],
      [
        "ä¿¡",
        -8.237420307078468
      ],
      [
        "å¹´",
        -8.24064188663758
      ],
      [
        "è¿Ľè¡Į",
        -8.243952328490442
      ],
      [
        "å¥½äºĨ",
        -8.245324580338648
      ],
      [
        "è·Łä»ĸ",
        -8.24691876840575
      ],
      [
        "Ġåĳĥ",
        -8.24905999902936
      ],
      [
        "åİ»äºĨ",
        -8.251677969135308
      ],
      [
        "æĺ¯ä¸Ģä¸ª",
        -8.252094527603123
      ],
      [
        "åĮĸ",
        -8.25234619602828
      ],
      [
        "èº«",
        -8.253790225301929
      ],
      [
        "åħ¥",
        -8.254244194592752
      ],
      [
        "å¸ĮæľĽ",
        -8.255271192166308
      ],
      [
        "ä¸ºäºĨ",
        -8.267035176702061
      ],
      [
        "ĠåĴ±ä»¬",
        -8.26857286153907
      ],
      [
        "ĠæĪĳæĥ³",
        -8.273637770585067
      ],
      [
        "æŀĹ",
        -8.274342042512757
      ],
      [
        "çļĦè¿Ļä¸ª",
        -8.282158062329737
      ],
      [
        "ä¸įçŁ¥éģĵ",
        -8.282875439494044
      ],
      [
        "Ġå®ĥ",
        -8.282895621007913
      ],
      [
        "æ³ķ",
        -8.285877875741079
      ],
      [
        "è¿ľ",
        -8.287506051276413
      ],
      [
        "æİ¥",
        -8.287685808760306
      ],
      [
        "çĹħ",
        -8.288545210995306
      ],
      [
        "ç®¡",
        -8.289268876514472
      ],
      [
        "æĸ¹",
        -8.290557633836878
      ],
      [
        "çĶ·äºº",
        -8.290603686760225
      ],
      [
        "åħ³",
        -8.292989573938668
      ],
      [
        "æĬ¥",
        -8.29421268822321
      ],
      [
        "çļĦä¸ľè¥¿",
        -8.29482101975686
      ],
      [
        "å·²",
        -8.300106659560324
      ],
      [
        "è¡¨ç¤º",
        -8.30292944895485
      ],
      [
        "Ġå¥½",
        -8.303496303702008
      ],
      [
        "è®¤ä¸º",
        -8.305514404942723
      ],
      [
        "é»ĳ",
        -8.306542318787482
      ],
      [
        "æį¢",
        -8.308974810857876
      ],
      [
        "éĥ½æ²¡æľī",
        -8.309201981258168
      ],
      [
        "æĢİä¹Īæł·",
        -8.309226904785612
      ],
      [
        "åĪļ",
        -8.309603398263418
      ],
      [
        "èį¯",
        -8.312009405914237
      ],
      [
        "çĽ¸",
        -8.31216487861201
      ],
      [
        "æĪĳä»¬çļĦ",
        -8.314615061996376
      ],
      [
        "çº¢",
        -8.314802608909794
      ],
      [
        "å¾Ģ",
        -8.315862328133274
      ],
      [
        "åĢĴ",
        -8.316642159784262
      ],
      [
        "å¦Ĥ",
        -8.317087406239285
      ],
      [
        "åıªæĺ¯",
        -8.321311607146196
      ],
      [
        "çİ©",
        -8.322057122392925
      ],
      [
        "çĪ¸çĪ¸",
        -8.322445905319988
      ],
      [
        "åįģ",
        -8.325402439000536
      ],
      [
        "åĳĹ",
        -8.32597295712626
      ],
      [
        "æľŁ",
        -8.327332558027502
      ],
      [
        "è°Ī",
        -8.328450729694852
      ],
      [
        "ä¸ľ",
        -8.32909999807421
      ],
      [
        "å°±ä¼ļ",
        -8.329110408472065
      ],
      [
        "ä¸ľè¥¿",
        -8.329252870804803
      ],
      [
        "åĿĲ",
        -8.334419138110333
      ],
      [
        "æĺ¯æĪĳ",
        -8.335055209450053
      ],
      [
        "å¥³",
        -8.335970051459336
      ],
      [
        "æ´»",
        -8.335992537267645
      ],
      [
        "æĥ³è¦ģ",
        -8.34184841852337
      ],
      [
        "ä½Ĩæĺ¯",
        -8.343220862360857
      ],
      [
        "åŁİ",
        -8.346009860522603
      ],
      [
        "å§ĳå¨ĺ",
        -8.346846477174623
      ],
      [
        "å¤Ħ",
        -8.34724954435201
      ],
      [
        "æīĭæľº",
        -8.348901611381597
      ],
      [
        "Ġä¸įè¿ĩ",
        -8.350998111256583
      ],
      [
        "æĺ¯ä¸ª",
        -8.352779209848697
      ],
      [
        "åĦ¿åŃĲ",
        -8.35389266573381
      ],
      [
        "çļĦéĹ®é¢ĺ",
        -8.35399709420729
      ],
      [
        "åĴ±",
        -8.354753699994827
      ],
      [
        "ä¸¤ä¸ª",
        -8.35606030639301
      ],
      [
        "åıªæľī",
        -8.356251283123262
      ],
      [
        "è¿Ļæł·çļĦ",
        -8.363010741222423
      ],
      [
        "å¯¹æĸ¹",
        -8.36419521540584
      ],
      [
        "Ġä»ĸè¯´",
        -8.3704344591632
      ],
      [
        "éĢļè¿ĩ",
        -8.373439400790206
      ],
      [
        "æĪĸèĢħ",
        -8.374638781572198
      ],
      [
        "ç¥ŀ",
        -8.37467562082755
      ],
      [
        "è®©ä»ĸ",
        -8.377963452208093
      ],
      [
        "åĳ¨",
        -8.378002012332948
      ],
      [
        "ç¦»",
        -8.380838864551759
      ],
      [
        "çĿ¡",
        -8.381646564166562
      ],
      [
        "è¶Ĭ",
        -8.383781149478146
      ],
      [
        "åħ»",
        -8.38650720724383
      ],
      [
        "çľ¼",
        -8.388099863548765
      ],
      [
        "å¸Ĥåľº",
        -8.388564252309681
      ],
      [
        "æľĢåĲİ",
        -8.38991887103396
      ],
      [
        "åĬªåĬĽ",
        -8.390160959790853
      ],
      [
        "ĠéĤ£æĪĳ",
        -8.390430253265448
      ],
      [
        "æĶ¶",
        -8.392807805273948
      ],
      [
        "æķ°",
        -8.394159097350919
      ],
      [
        "æľīä»Ģä¹Ī",
        -8.397403264814756
      ],
      [
        "æīĢä»¥",
        -8.400522062097654
      ],
      [
        "ä¹Łä¸į",
        -8.402804102285392
      ],
      [
        "æĹ©",
        -8.403125070604185
      ],
      [
        "è¥¿",
        -8.404728889863044
      ],
      [
        "åĨ³å®ļ",
        -8.405549810921002
      ],
      [
        "ä¸Ģç§į",
        -8.411153438600333
      ],
      [
        "å®ļ",
        -8.416547899534017
      ],
      [
        "æľīä¸ª",
        -8.416678461048159
      ],
      [
        "å¿Ļ",
        -8.420798305678638
      ],
      [
        "å¹³",
        -8.42111049704837
      ],
      [
        "ç¦»å©ļ",
        -8.42314688121157
      ],
      [
        "äº¤",
        -8.424389270853284
      ],
      [
        "çĭĹ",
        -8.425690871510694
      ],
      [
        "å¦Ī",
        -8.425814427553586
      ],
      [
        "äºĨåĲ§",
        -8.426288159980503
      ],
      [
        "ä½łå°±",
        -8.426949555012957
      ],
      [
        "çļĦåľ°æĸ¹",
        -8.427893882599385
      ],
      [
        "äºĳ",
        -8.4280002136464
      ],
      [
        "ç®Ĺ",
        -8.428337496286632
      ],
      [
        "é¾Ļ",
        -8.42846305443632
      ],
      [
        "å®Į",
        -8.42913405341278
      ],
      [
        "çī¹",
        -8.430167865347093
      ],
      [
        "æĪĺ",
        -8.432842699545425
      ],
      [
        "æĦŁæĥħ",
        -8.433139359203572
      ],
      [
        "æĿ¥è¯´",
        -8.434681159733174
      ],
      [
        "è£ħ",
        -8.435233267437063
      ],
      [
        "è¦ģæ±Ĥ",
        -8.436356412912549
      ],
      [
        "æĸ¹éĿ¢",
        -8.437249496761867
      ],
      [
        "æĢķ",
        -8.439045783517985
      ],
      [
        "å¿ĥéĩĮ",
        -8.439309496984858
      ],
      [
        "åħ¶",
        -8.440709002996691
      ],
      [
        "ä¸įäºĨ",
        -8.441513689441331
      ],
      [
        "çļĦæĹ¶éĹ´",
        -8.442455156483586
      ],
      [
        "Ġè¿ĺæĺ¯",
        -8.443350197615326
      ],
      [
        "åħ³æ³¨",
        -8.444479397586269
      ],
      [
        "åĳ½",
        -8.444910406404306
      ],
      [
        "æµģ",
        -8.447837834451695
      ],
      [
        "çº¿",
        -8.450688262200005
      ],
      [
        "éĢī",
        -8.451775796931223
      ],
      [
        "éĺŁ",
        -8.45216219416858
      ],
      [
        "æľĪ",
        -8.452267956326484
      ],
      [
        "ä¸ĩ",
        -8.456522581545691
      ],
      [
        "å¥½åĥı",
        -8.459793861692427
      ],
      [
        "å®¶éĩĮ",
        -8.462171573029908
      ],
      [
        "Ġè¦ģ",
        -8.462591699980269
      ],
      [
        "å¾·",
        -8.465487112124087
      ],
      [
        "éĢļ",
        -8.468619496835768
      ],
      [
        "åŃ¦ä¹ł",
        -8.468830419785242
      ],
      [
        "çº¦",
        -8.470416893845215
      ],
      [
        "ç¬ĳ",
        -8.470959996117895
      ],
      [
        "éĤ£ç§į",
        -8.471897458617683
      ],
      [
        "ĠæĬĬ",
        -8.472123501448593
      ],
      [
        "æľīäºº",
        -8.473207656651871
      ],
      [
        "åĪĺ",
        -8.473426610855306
      ],
      [
        "æľº",
        -8.473754570715936
      ],
      [
        "éĥ¨",
        -8.475640378778264
      ],
      [
        "çĶ±",
        -8.47859967479624
      ],
      [
        "é»Ħ",
        -8.480513284043196
      ],
      [
        "å¥½å¥½",
        -8.48101663980398
      ],
      [
        "å¤§åĵ¥",
        -8.481531365307635
      ],
      [
        "Ġä½łè¦ģ",
        -8.48158510880935
      ],
      [
        "åĬŀ",
        -8.483465872459924
      ],
      [
        "åıĳå±ķ",
        -8.484072372395485
      ],
      [
        "æĦŁ",
        -8.484152906637016
      ],
      [
        "ä¸ĸçķĮ",
        -8.48465462542445
      ],
      [
        "ĠåıĪ",
        -8.487367068574493
      ],
      [
        "ä¸Ģå¤©",
        -8.488576134433846
      ],
      [
        "ç©¿",
        -8.491277183461145
      ],
      [
        "ĠæĢİä¹Ī",
        -8.494702475306545
      ],
      [
        "æ·±",
        -8.496822246638768
      ],
      [
        "åı·",
        -8.498377770950587
      ],
      [
        "åĲĥé¥Ń",
        -8.499040864181648
      ],
      [
        "åº¦",
        -8.500507808649331
      ],
      [
        "æİī",
        -8.5011315181282
      ],
      [
        "äºĨè§£",
        -8.501380423086966
      ],
      [
        "èĤ¯å®ļ",
        -8.50211379643245
      ],
      [
        "åľº",
        -8.503612445684071
      ],
      [
        "Ġä½łå°±",
        -8.503956528546121
      ],
      [
        "éĶĻ",
        -8.504458079808243
      ],
      [
        "å¥³åĦ¿",
        -8.504902401530442
      ],
      [
        "å£°",
        -8.505924721783913
      ],
      [
        "äº²",
        -8.507829843253333
      ],
      [
        "åĩºçİ°",
        -8.508960665725397
      ],
      [
        "æķħäºĭ",
        -8.51217726266565
      ],
      [
        "åħĥ",
        -8.51219491732863
      ],
      [
        "ĠåĨį",
        -8.513248938154474
      ],
      [
        "å¯¹äºİ",
        -8.51502687787177
      ],
      [
        "çĽ´æİ¥",
        -8.51628570211917
      ],
      [
        "Ġä¸ºä»Ģä¹Ī",
        -8.516635073082206
      ],
      [
        "æīĢæľīçļĦ",
        -8.51720318677918
      ],
      [
        "æĪ¿",
        -8.520280876048238
      ],
      [
        "ĠéĤ£ä¸ª",
        -8.52032488783017
      ],
      [
        "éĻĪ",
        -8.520817829066667
      ],
      [
        "ä¸»",
        -8.521977349422777
      ],
      [
        "ä¸ĭæĿ¥",
        -8.524787546161999
      ],
      [
        "åĽ½å®¶",
        -8.527887906145454
      ],
      [
        "ĠæĪĳä¹Ł",
        -8.530271990892304
      ],
      [
        "è°ĥ",
        -8.532475678536064
      ],
      [
        "äºĭæĥħ",
        -8.532604891954403
      ],
      [
        "åĮº",
        -8.533447387148152
      ],
      [
        "æĦ¿æĦı",
        -8.533698073373014
      ],
      [
        "åĮħ",
        -8.535799788298498
      ],
      [
        "Ġè°ģ",
        -8.537135818928817
      ],
      [
        "æĺ¯ä»Ģä¹Ī",
        -8.53752536047875
      ],
      [
        "ä»¥åīį",
        -8.537649203689897
      ],
      [
        "ç©º",
        -8.539162043708512
      ],
      [
        "æ±Ĥ",
        -8.539261967790884
      ],
      [
        "ä¸Ģå®ļ",
        -8.539894294445928
      ],
      [
        "é¦Ļ",
        -8.540912997391848
      ],
      [
        "æŃ£åľ¨",
        -8.542698474445205
      ],
      [
        "å¸Ī",
        -8.544453257513094
      ],
      [
        "Ġä½Ĩæĺ¯æĪĳ",
        -8.54489389055894
      ],
      [
        "æĥħåĨµ",
        -8.545110531431277
      ],
      [
        "èĢģæĿ¿",
        -8.545829728107162
      ],
      [
        "ä½Ĩ",
        -8.546707220605548
      ],
      [
        "çĶ»",
        -8.548221964424432
      ],
      [
        "èģĬ",
        -8.548497041149572
      ],
      [
        "åıĹ",
        -8.54893961076159
      ],
      [
        "éĥ½ä¼ļ",
        -8.549650717503903
      ],
      [
        "èıľ",
        -8.549758384251312
      ],
      [
        "åĲĮ",
        -8.550847203700652
      ],
      [
        "ç¦»å¼Ģ",
        -8.551226229115771
      ],
      [
        "å¹¸ç¦ı",
        -8.552317379029711
      ],
      [
        "Ġå¦Ĥæŀľä½ł",
        -8.552567799809479
      ],
      [
        "ä¹±",
        -8.552633567208021
      ],
      [
        "ç¤¾ä¼ļ",
        -8.556582273448047
      ],
      [
        "è¯´æĪĳ",
        -8.558415369439437
      ],
      [
        "ä¸Ģå®ļè¦ģ",
        -8.558953136166808
      ],
      [
        "åħµ",
        -8.561472601628719
      ],
      [
        "Ġæĺ¯ä¸įæĺ¯",
        -8.562047143588174
      ],
      [
        "èĦ¸",
        -8.56286151291221
      ],
      [
        "ĠæĪĳè¦ģ",
        -8.563170072257549
      ],
      [
        "ç«Ļ",
        -8.564360781240937
      ],
      [
        "è¨Ģ",
        -8.564363107734877
      ],
      [
        "çľĭçľĭ",
        -8.565126188497638
      ],
      [
        "æĪĲä¸º",
        -8.565484037230998
      ],
      [
        "ç»ıæµİ",
        -8.568509598263653
      ],
      [
        "æĪĳä¹Ł",
        -8.569757742520839
      ],
      [
        "éĩı",
        -8.569941351330673
      ],
      [
        "çļĦäºĭ",
        -8.570288465871297
      ],
      [
        "è¡Ģ",
        -8.57218824280412
      ],
      [
        "å¤ļå°ĳ",
        -8.573464103470094
      ],
      [
        "åľ¨è¿ĻåĦ¿",
        -8.576136395844447
      ],
      [
        "åħ¬",
        -8.5769799210698
      ],
      [
        "è®¤è¯Ĩ",
        -8.577075100705143
      ],
      [
        "Ġä½łæĺ¯",
        -8.57777110333674
      ],
      [
        "æĿĢ",
        -8.580537073140649
      ],
      [
        "åĮ»çĶŁ",
        -8.581793027211612
      ],
      [
        "èĲ½",
        -8.58240680285385
      ],
      [
        "æŁ¥",
        -8.583522988703487
      ],
      [
        "åįİ",
        -8.584206755402615
      ],
      [
        "åķ¥",
        -8.584282941557062
      ],
      [
        "ä½İ",
        -8.586252041925496
      ],
      [
        "å¼Ħ",
        -8.587166471621646
      ],
      [
        "èĬĤçĽ®",
        -8.587264816611466
      ],
      [
        "æĽ¾ç»ı",
        -8.591056431058524
      ],
      [
        "åĪ°åºķ",
        -8.593806201774544
      ],
      [
        "æĶ¹åıĺ",
        -8.595087082881788
      ],
      [
        "ä¼¤",
        -8.597025373126238
      ],
      [
        "ä¼ģä¸ļ",
        -8.598268406422132
      ],
      [
        "æīįèĥ½",
        -8.599288889497426
      ],
      [
        "æķĻ",
        -8.59955137401489
      ],
      [
        "åĪ©",
        -8.599638104411659
      ],
      [
        "æĭį",
        -8.602411776659343
      ],
      [
        "åĮ»éĻ¢",
        -8.607072346929172
      ],
      [
        "åĶ±",
        -8.60779780221566
      ],
      [
        "æĢ»æĺ¯",
        -8.608108189067774
      ],
      [
        "åįĬ",
        -8.609246220902904
      ],
      [
        "é¥Ń",
        -8.609282499676702
      ],
      [
        "æľīæ²¡æľī",
        -8.611154891145302
      ],
      [
        "ç»ıå¸¸",
        -8.612999708204253
      ],
      [
        "æıĲ",
        -8.613121190117669
      ],
      [
        "å¦ĤæŃ¤",
        -8.615513651905799
      ],
      [
        "çªģçĦ¶",
        -8.617062037138547
      ],
      [
        "åĵŃ",
        -8.617492688054018
      ],
      [
        "é±¼",
        -8.61838128968488
      ],
      [
        "åºĹ",
        -8.620210279220496
      ],
      [
        "åĲ¬åĪ°",
        -8.62075821072227
      ],
      [
        "ĠèĢĮæĺ¯",
        -8.624300219407615
      ],
      [
        "å·®",
        -8.625175616821107
      ],
      [
        "å¸®",
        -8.62572781608797
      ],
      [
        "è¿ĳ",
        -8.625871404839275
      ],
      [
        "èĩ³",
        -8.628007494434964
      ],
      [
        "çĥŃ",
        -8.628125217906218
      ],
      [
        "æ¯ıå¤©",
        -8.629135100308678
      ],
      [
        "çĤ¹åĦ¿",
        -8.62916353694738
      ],
      [
        "åĩł",
        -8.629828473767038
      ],
      [
        "åħĦå¼Ł",
        -8.630476766906481
      ],
      [
        "åıĸ",
        -8.631874857355747
      ],
      [
        "èĦļ",
        -8.633636911500096
      ],
      [
        "ç¬¬ä¸Ģ",
        -8.63385412624206
      ],
      [
        "ä»ĸå¦Ī",
        -8.63962926032291
      ],
      [
        "åįĹ",
        -8.640655054831079
      ],
      [
        "å§Ĳå§Ĳ",
        -8.641061851745338
      ],
      [
        "äºĭåĦ¿",
        -8.641573960085097
      ],
      [
        "éĽ¶",
        -8.643534948058246
      ],
      [
        "äºĨä¸Ģä¸ª",
        -8.64366721091031
      ],
      [
        "ä¸ªäºº",
        -8.643678159934945
      ],
      [
        "è¾¹",
        -8.64373354023031
      ],
      [
        "ä½ľ",
        -8.643952259561102
      ],
      [
        "è·³",
        -8.649142224214204
      ],
      [
        "çŁ³",
        -8.649601657944375
      ],
      [
        "è¿Ļæ¬¡",
        -8.649987401000262
      ],
      [
        "åĳĬè¯īä½ł",
        -8.652552725815628
      ],
      [
        "Ġä¸įè¦ģ",
        -8.653009629513901
      ],
      [
        "æľĢè¿ĳ",
        -8.65320717620508
      ],
      [
        "å°±æĺ¯è¯´",
        -8.657537861495078
      ],
      [
        "Ġéĥ½",
        -8.660379368038747
      ],
      [
        "çĶµè¯Ŀ",
        -8.662373162717687
      ],
      [
        "ĠåĲİæĿ¥",
        -8.664310365044463
      ],
      [
        "Ġåį´",
        -8.665395290893363
      ],
      [
        "æī¾åĪ°",
        -8.666828903875153
      ],
      [
        "åĩłä¸ª",
        -8.6672030321951
      ],
      [
        "æĺİçĻ½",
        -8.668593629944914
      ],
      [
        "æĪ¿åŃĲ",
        -8.669869205726084
      ],
      [
        "çļĦçĶŁæ´»",
        -8.670113971796702
      ],
      [
        "ä¸įæĥ³",
        -8.67037229738732
      ],
      [
        "åį¡",
        -8.672723484458775
      ],
      [
        "å¤§äºº",
        -8.67692561683545
      ],
      [
        "å¯¹ä½ł",
        -8.677123454470115
      ],
      [
        "å¯¹æĪĳ",
        -8.677134702689052
      ],
      [
        "Ġç»ĵæŀľ",
        -8.67905551262066
      ],
      [
        "çķĻ",
        -8.679506039291724
      ],
      [
        "åħĭ",
        -8.679822239131443
      ],
      [
        "å®Ŀ",
        -8.681096789554688
      ],
      [
        "å±Ģ",
        -8.683212408841332
      ],
      [
        "Ġä½łçľĭ",
        -8.683577315201083
      ],
      [
        "åĪļæīį",
        -8.68385117865192
      ],
      [
        "æľªæĿ¥",
        -8.686222045345728
      ],
      [
        "å¤©å¤©",
        -8.689191016941482
      ],
      [
        "å¯¹ä¸įå¯¹",
        -8.690058314661442
      ],
      [
        "åı¯æĺ¯",
        -8.690644306277665
      ],
      [
        "ä¹Ĳ",
        -8.692759538990371
      ],
      [
        "åĪļåĪļ",
        -8.693110716895509
      ],
      [
        "å¸¦çĿĢ",
        -8.694093546877733
      ],
      [
        "ĠæĪĳçİ°åľ¨",
        -8.69663338377962
      ],
      [
        "å¦Ĥä½ķ",
        -8.6971017580811
      ],
      [
        "è´¹",
        -8.697689783092526
      ],
      [
        "å¸Ĥ",
        -8.699814312086868
      ],
      [
        "æĭħå¿ĥ",
        -8.700196076057766
      ],
      [
        "éĹ¹",
        -8.702657801874759
      ],
      [
        "çļĦéĤ£ä¸ª",
        -8.704156512950401
      ],
      [
        "æĻļä¸Ĭ",
        -8.705621875741764
      ],
      [
        "çľŁæĺ¯",
        -8.706430844372747
      ],
      [
        "æ´¾",
        -8.707324414679475
      ],
      [
        "åıĳçĶŁ",
        -8.707564019499534
      ],
      [
        "è·ŁæĪĳè¯´",
        -8.709885534523695
      ],
      [
        "éĺ¿",
        -8.711625423982722
      ],
      [
        "æ±Ł",
        -8.712118072420703
      ],
      [
        "å½±åĵį",
        -8.712890732727844
      ],
      [
        "è¶ħ",
        -8.71418724352668
      ],
      [
        "è¾¾",
        -8.714599873823996
      ],
      [
        "çĶµ",
        -8.714972669783608
      ],
      [
        "æĺ¯ä½ł",
        -8.715138794159223
      ],
      [
        "æķ¢",
        -8.715694016853552
      ],
      [
        "èĤī",
        -8.716591508913902
      ],
      [
        "æĹłæ³ķ",
        -8.718469300878098
      ],
      [
        "èĭ¦",
        -8.718655621316936
      ],
      [
        "åĨ²",
        -8.718892415599624
      ],
      [
        "åıªèĥ½",
        -8.719584333019238
      ],
      [
        "åĨ·",
        -8.719592968486305
      ],
      [
        "ä½łèĩªå·±",
        -8.719808237216494
      ],
      [
        "ä½į",
        -8.719909221998495
      ],
      [
        "åĽ¾",
        -8.720234294569416
      ],
      [
        "ä¸Ģå¹´",
        -8.721939961074183
      ],
      [
        "è¯´ä½ł",
        -8.722250131879859
      ],
      [
        "Ġå¤§å®¶",
        -8.72393484828976
      ],
      [
        "ä½ĵ",
        -8.725656361373618
      ],
      [
        "ä¼ł",
        -8.726672328402067
      ],
      [
        "æīĢæľī",
        -8.729260732762075
      ],
      [
        "æĥħç»ª",
        -8.729780491379405
      ],
      [
        "ĠåĽłä¸ºæĪĳ",
        -8.73004575178264
      ],
      [
        "å¾ĹåĪ°",
        -8.730885147447287
      ],
      [
        "ç»ĵæŀľ",
        -8.73391533523948
      ],
      [
        "çĲĨ",
        -8.734266637947645
      ],
      [
        "èº«ä¸Ĭ",
        -8.735256734494598
      ],
      [
        "å°ıå§Ĳ",
        -8.736829022149928
      ],
      [
        "Ġè°¢è°¢",
        -8.73707270728286
      ],
      [
        "æĬĬæĪĳ",
        -8.73787125911532
      ],
      [
        "éĤ£è¾¹",
        -8.737896173448922
      ],
      [
        "å¥½ä¸įå¥½",
        -8.738519475976062
      ],
      [
        "åĽŀæĿ¥äºĨ",
        -8.738648072045015
      ],
      [
        "åĺ´",
        -8.740234559494644
      ],
      [
        "æ°ĳ",
        -8.740682558012487
      ],
      [
        "æĶ¹",
        -8.741184704378929
      ],
      [
        "æĪĳéĥ½",
        -8.742443697827111
      ],
      [
        "ç½ĳ",
        -8.74472488925552
      ],
      [
        "æĿ¨",
        -8.745284286304994
      ],
      [
        "çīĽ",
        -8.746190276849243
      ],
      [
        "æĪı",
        -8.746731544818724
      ],
      [
        "ä¹Łä¼ļ",
        -8.747753929538673
      ],
      [
        "åĩºäºĨ",
        -8.7478659625803
      ],
      [
        "ä»Ĭå¹´",
        -8.748299094886256
      ],
      [
        "æĲŀ",
        -8.749044879802232
      ],
      [
        "éŁ³ä¹Ĳ",
        -8.74937350663203
      ],
      [
        "èĥ½åĬĽ",
        -8.74993252290407
      ],
      [
        "ĠçĦ¶åĲİæĪĳ",
        -8.749979996119652
      ],
      [
        "Ġè®©",
        -8.749987981566825
      ],
      [
        "ä¸įè¡Į",
        -8.750287196754455
      ],
      [
        "æŃ»äºĨ",
        -8.751224879585417
      ],
      [
        "ç§į",
        -8.751622135579135
      ],
      [
        "æĿ¡",
        -8.751629516423165
      ],
      [
        "ç§°",
        -8.75350829055961
      ],
      [
        "ä¸ĢæĿ¡",
        -8.754677967046
      ],
      [
        "ĠéĤ£å°±",
        -8.754963844806161
      ],
      [
        "Ġæĥ³",
        -8.75509196594346
      ],
      [
        "ä¸įåĪ°",
        -8.755989580471155
      ],
      [
        "æķ´ä¸ª",
        -8.757483629154793
      ],
      [
        "éĿŀ",
        -8.758184442491888
      ],
      [
        "æİ¥åıĹ",
        -8.758270357735839
      ],
      [
        "çł´",
        -8.758938407261965
      ],
      [
        "å¿ħé¡»",
        -8.759584361916609
      ],
      [
        "çļ®",
        -8.760057559162334
      ],
      [
        "æ»¡",
        -8.760768292347814
      ],
      [
        "æĸ¯",
        -8.761489200221911
      ],
      [
        "éĽ¨",
        -8.761590886394826
      ],
      [
        "ä¹Łæľī",
        -8.762341950056372
      ],
      [
        "åįķ",
        -8.762982383892808
      ],
      [
        "ç¾İåĽ½",
        -8.763489374058558
      ],
      [
        "åĳĬè¯īæĪĳ",
        -8.765769213902244
      ],
      [
        "ä¸¤ä¸ªäºº",
        -8.766271270077832
      ],
      [
        "è¿Ļä¸ªäºº",
        -8.766968854521162
      ],
      [
        "Ġåıªæĺ¯",
        -8.767059928434325
      ],
      [
        "æĪĲåĬŁ",
        -8.76850428415727
      ],
      [
        "å®¶åºŃ",
        -8.769318234251282
      ],
      [
        "ĠèĻ½çĦ¶",
        -8.772335686561119
      ],
      [
        "å¤§åŃ¦",
        -8.772550135470066
      ],
      [
        "å·¥",
        -8.773296472389829
      ],
      [
        "éĥ½æľī",
        -8.773537228556672
      ],
      [
        "è¿ĺè¦ģ",
        -8.774679236767176
      ],
      [
        "åĲĮå¿Ĺ",
        -8.774913256115955
      ],
      [
        "åĲİæĿ¥",
        -8.778647025938264
      ],
      [
        "ä¸ĭåİ»",
        -8.779698124413164
      ],
      [
        "Ġåı¯èĥ½",
        -8.781232810253458
      ],
      [
        "å¼Ģå¿ĥ",
        -8.782063631845206
      ],
      [
        "Ġå½ĵ",
        -8.78212707928396
      ],
      [
        "ä¸ĸ",
        -8.783183493083476
      ],
      [
        "çĲĨè§£",
        -8.783227588507128
      ],
      [
        "æĪĸ",
        -8.784694628194961
      ],
      [
        "åĳĬè¯ī",
        -8.785698869335034
      ],
      [
        "çħ§",
        -8.78654400746548
      ],
      [
        "ä½ķ",
        -8.786656362655394
      ],
      [
        "ä¹ĭéĹ´",
        -8.788471110974308
      ],
      [
        "çıŃ",
        -8.788512124706507
      ],
      [
        "Ġè¿Ļæł·",
        -8.78873273294434
      ],
      [
        "ĠæľĢåĲİ",
        -8.789808722363778
      ],
      [
        "è¯´äºĨ",
        -8.790391458227118
      ],
      [
        "çİī",
        -8.790671818321082
      ],
      [
        "ĠèĢģ",
        -8.791140567934251
      ],
      [
        "åŃ¦æł¡",
        -8.792971294761397
      ],
      [
        "åĵ¥åĵ¥",
        -8.793154050319005
      ],
      [
        "éĥ½ä¸į",
        -8.796559424408107
      ],
      [
        "å¥³æľĭåıĭ",
        -8.798563484829263
      ],
      [
        "æĬĬä½ł",
        -8.799183628655012
      ],
      [
        "Ġäººå®¶",
        -8.799806862064907
      ],
      [
        "æ¢¦",
        -8.800133799418246
      ],
      [
        "åĲĮåŃ¦",
        -8.80122345622241
      ],
      [
        "èģĶç³»",
        -8.802922068458544
      ],
      [
        "çĪ±æĥħ",
        -8.804186794679271
      ],
      [
        "åŃĹ",
        -8.804665319044163
      ],
      [
        "Ġåı¯ä»¥",
        -8.804976566925392
      ],
      [
        "åĿļæĮģ",
        -8.805979803810619
      ],
      [
        "ä¹Łæ²¡æľī",
        -8.806290959474381
      ],
      [
        "å®īåħ¨",
        -8.806511199589584
      ],
      [
        "å¿«ä¹Ĳ",
        -8.806891289787494
      ],
      [
        "æĦı",
        -8.808077743832328
      ],
      [
        "éĿł",
        -8.808138657655427
      ],
      [
        "çľģ",
        -8.808483111649785
      ],
      [
        "æ¼Ķ",
        -8.811287670873066
      ],
      [
        "ç±³",
        -8.811945887945457
      ],
      [
        "ä¾¿",
        -8.812050997942478
      ],
      [
        "åİŁ",
        -8.812718645049092
      ],
      [
        "çľŁçļĦæĺ¯",
        -8.813535886569785
      ],
      [
        "æľ¨",
        -8.814651262863036
      ],
      [
        "ĠçĦ¶åĲİåĳ¢",
        -8.815112783099796
      ],
      [
        "å®ĺ",
        -8.816376392854137
      ],
      [
        "å®īæİĴ",
        -8.816690634813558
      ],
      [
        "éĩĮè¾¹",
        -8.81711993141054
      ],
      [
        "è®¡åĪĴ",
        -8.81753614583481
      ],
      [
        "ä½ľä¸º",
        -8.818029079467399
      ],
      [
        "è¿½",
        -8.818540340871794
      ],
      [
        "çİ©åĦ¿",
        -8.81860776335016
      ],
      [
        "æĺ¯è°ģ",
        -8.819094246639157
      ],
      [
        "ä½łè¦ģ",
        -8.820569717131816
      ],
      [
        "åı°",
        -8.821431659863624
      ],
      [
        "Ġä¸ºäºĨ",
        -8.822346522577096
      ],
      [
        "éĿĴ",
        -8.823667687348152
      ],
      [
        "èĩªæĪĳ",
        -8.824740883407335
      ],
      [
        "å®Įåħ¨",
        -8.825409434508014
      ],
      [
        "å®³æĢķ",
        -8.825524034193782
      ],
      [
        "çŁ¥",
        -8.825750102643028
      ],
      [
        "éĽª",
        -8.82610604888355
      ],
      [
        "èº«ä½ĵ",
        -8.826507034094629
      ],
      [
        "çĽ´æĴŃ",
        -8.83074674177986
      ],
      [
        "å¥½åĲĹ",
        -8.831056959442023
      ],
      [
        "çłĶç©¶",
        -8.832603089731412
      ],
      [
        "äºĮåįģ",
        -8.833502015135444
      ],
      [
        "çļĦå°ı",
        -8.833637815781083
      ],
      [
        "åĽ¢",
        -8.833822192293159
      ],
      [
        "æľīäºĽ",
        -8.833892504696859
      ],
      [
        "è¿ĩäºĨ",
        -8.834361662762198
      ],
      [
        "çľĭçĿĢ",
        -8.835378187973811
      ],
      [
        "åĲĪ",
        -8.836089093611333
      ],
      [
        "åģļäºĨ",
        -8.837107864797236
      ],
      [
        "è¿ĺæ²¡",
        -8.83768106566356
      ],
      [
        "åıį",
        -8.839134267591914
      ],
      [
        "æ¥¼",
        -8.839254767905175
      ],
      [
        "çī©",
        -8.840161581285681
      ],
      [
        "åģ¥åº·",
        -8.841345412222886
      ],
      [
        "æĬĵ",
        -8.842199777025114
      ],
      [
        "ç«ĭ",
        -8.843066083307628
      ],
      [
        "çĶ°",
        -8.844813284399862
      ],
      [
        "éĵ¶è¡Į",
        -8.84689270464097
      ],
      [
        "ä½łçľĭ",
        -8.847796828092182
      ],
      [
        "çĿ¡è§ī",
        -8.847797523947195
      ],
      [
        "å°±è¦ģ",
        -8.853004221531068
      ],
      [
        "å¾ħ",
        -8.853054068650234
      ],
      [
        "å®ĮæĪĲ",
        -8.855512635592376
      ],
      [
        "çļĦæľĭåıĭ",
        -8.857335512637414
      ],
      [
        "æĺ¯åľ¨",
        -8.858519644398747
      ],
      [
        "æķĳ",
        -8.859859468016332
      ],
      [
        "æĺİå¤©",
        -8.861121253820352
      ],
      [
        "å¯¹åĲ§",
        -8.861788595389893
      ],
      [
        "åľ¨è¿ĻéĩĮ",
        -8.862833020801284
      ],
      [
        "æ²¹",
        -8.863052755906983
      ],
      [
        "ĠçĶļèĩ³",
        -8.863162195649533
      ],
      [
        "éģĩåĪ°",
        -8.86318234898306
      ],
      [
        "çļĦæķħäºĭ",
        -8.865105140814476
      ],
      [
        "ä½łè¯´",
        -8.86567062628263
      ],
      [
        "åĪĢ",
        -8.868026181685497
      ],
      [
        "é¦ĸ",
        -8.868658125011896
      ],
      [
        "è¿Ľåİ»",
        -8.869124617350831
      ],
      [
        "èī²",
        -8.869540935618236
      ],
      [
        "ä¸Ģä¼ļåĦ¿",
        -8.869598909131327
      ],
      [
        "å°±åı¯ä»¥",
        -8.870348572785142
      ],
      [
        "ç¡®å®ŀ",
        -8.872363442894171
      ],
      [
        "åĪĨæīĭ",
        -8.872531165501757
      ],
      [
        "ä¹Łæ²¡",
        -8.872815456595433
      ],
      [
        "Ġä¸Ģ",
        -8.873392729201305
      ],
      [
        "äººçĶŁ",
        -8.873875488208963
      ],
      [
        "åĮĹ",
        -8.87595940621433
      ],
      [
        "åĪĨäº«",
        -8.877023111078143
      ],
      [
        "åĢŁ",
        -8.877569710825648
      ],
      [
        "å¥½çļĦ",
        -8.878169984659875
      ],
      [
        "Ġä¸Ģä¸ª",
        -8.87940830675232
      ],
      [
        "ä¸»æĴŃ",
        -8.879997126217054
      ],
      [
        "ä¿¡æģ¯",
        -8.880052246006596
      ],
      [
        "é¬¼",
        -8.880055599727292
      ],
      [
        "åľ°æĸ¹",
        -8.88075187845509
      ],
      [
        "Ġå½ĵæĹ¶",
        -8.88208138463754
      ],
      [
        "æķĻèĤ²",
        -8.882222270484936
      ],
      [
        "ä¸įåĲĮ",
        -8.88233052867858
      ],
      [
        "çļĦåŃ©åŃĲ",
        -8.882902771285497
      ],
      [
        "ä¸ĬäºĨ",
        -8.883296058268828
      ],
      [
        "èĥ½ä¸įèĥ½",
        -8.883685090019881
      ],
      [
        "æĿ¥çľĭ",
        -8.883812574876204
      ],
      [
        "éĥ½æ²¡",
        -8.884051008718455
      ],
      [
        "æŃĮ",
        -8.885173289317803
      ],
      [
        "æ¯ı",
        -8.886596987874515
      ],
      [
        "åħ¨éĥ¨",
        -8.887361624860574
      ],
      [
        "ä¸»åĬ¨",
        -8.888794906746774
      ],
      [
        "æĿ¡ä»¶",
        -8.889230607399107
      ],
      [
        "ä¸ĬçıŃ",
        -8.88971170722429
      ],
      [
        "ä¸Ģåı¥",
        -8.890189859936974
      ],
      [
        "åıĬ",
        -8.89019906070379
      ],
      [
        "ĠçľŁçļĦ",
        -8.890632166874509
      ],
      [
        "æ¯Ľ",
        -8.891611268420373
      ],
      [
        "éĢĢ",
        -8.893890288687464
      ],
      [
        "è¿ĺèĥ½",
        -8.89430763032003
      ],
      [
        "æ¬¡",
        -8.894485535174145
      ],
      [
        "æ²³",
        -8.89631448566834
      ],
      [
        "ĠåĴ±",
        -8.897236625305053
      ],
      [
        "Ġåıªæľī",
        -8.897613196756604
      ],
      [
        "æĪĳè¦ģ",
        -8.898252452314832
      ],
      [
        "è°ĥæŁ¥",
        -8.898917790757675
      ],
      [
        "è¦ģæĺ¯",
        -8.898970768467512
      ],
      [
        "å¹¶ä¸į",
        -8.899829869574187
      ],
      [
        "ä½¿",
        -8.900064028631439
      ],
      [
        "å¨ĺ",
        -8.90042743600782
      ],
      [
        "ç¬¬ä¸Ģæ¬¡",
        -8.901614710442182
      ],
      [
        "ç®¡çĲĨ",
        -8.902002206670035
      ],
      [
        "Ġä»Ģä¹Ī",
        -8.902414041301855
      ],
      [
        "å¹²ä»Ģä¹Ī",
        -8.902915550942456
      ],
      [
        "è¿Ľåħ¥",
        -8.905031007891303
      ],
      [
        "åģĩ",
        -8.905705278635455
      ],
      [
        "æĿĥ",
        -8.90728577063849
      ],
      [
        "äºĨåķĬ",
        -8.907478625654262
      ],
      [
        "æŀª",
        -8.90826004819229
      ],
      [
        "åĮħæĭ¬",
        -8.908512768558717
      ],
      [
        "çĽ¸ä¿¡",
        -8.91017984059586
      ],
      [
        "è§£åĨ³",
        -8.91084390421168
      ],
      [
        "åĽł",
        -8.910884263263366
      ],
      [
        "æ¶Īæģ¯",
        -8.911333277064928
      ],
      [
        "Ġå¹¶",
        -8.91172118887089
      ],
      [
        "å°Ķ",
        -8.91206467039499
      ],
      [
        "æľįåĬ¡",
        -8.912074985662805
      ],
      [
        "æ¯įäº²",
        -8.913575683017992
      ],
      [
        "æİ¨",
        -8.913790626272835
      ],
      [
        "æĬķèµĦ",
        -8.914286507099993
      ],
      [
        "å¤±",
        -8.915377044304234
      ],
      [
        "åıªè¦ģ",
        -8.915401247971218
      ],
      [
        "è·Łä½łè¯´",
        -8.917383060164877
      ],
      [
        "å¤ĦçĲĨ",
        -8.917517353720632
      ],
      [
        "è´§",
        -8.91871351875493
      ],
      [
        "ĠæĪĸèĢħ",
        -8.91910242430524
      ],
      [
        "å¤ľ",
        -8.920024907022501
      ],
      [
        "èĢģåħ¬",
        -8.921783453804997
      ],
      [
        "æĬ¢",
        -8.92248245047234
      ],
      [
        "Ġæ²¡",
        -8.922566202595714
      ],
      [
        "è´µ",
        -8.923289691109694
      ],
      [
        "æŁĲ",
        -8.923500825497904
      ],
      [
        "æĢİä¹ĪåĬŀ",
        -8.92532803351865
      ],
      [
        "æĬĢæľ¯",
        -8.925921776624017
      ],
      [
        "ç»ĵ",
        -8.92649561245796
      ],
      [
        "å®ĮäºĨ",
        -8.927692996740683
      ],
      [
        "ä¸įè¿ĩ",
        -8.92857226427985
      ],
      [
        "æİĴ",
        -8.92912615133994
      ],
      [
        "èĻ½çĦ¶",
        -8.93018976841961
      ],
      [
        "è¡£æľį",
        -8.930259570442486
      ],
      [
        "åħ¶ä»ĸ",
        -8.93082700263616
      ],
      [
        "è¯´çļĦ",
        -8.933642897555044
      ],
      [
        "æĪĳèĩªå·±",
        -8.935437378494763
      ],
      [
        "ä¿®",
        -8.93597255543107
      ],
      [
        "è§£",
        -8.93614747827727
      ],
      [
        "æĪĳçİ°åľ¨",
        -8.936479543496317
      ],
      [
        "ç¿»",
        -8.937039027995974
      ],
      [
        "çĦ¶",
        -8.938111265527088
      ],
      [
        "çĪ¶äº²",
        -8.93811574524812
      ],
      [
        "è¯»",
        -8.939556112035895
      ],
      [
        "ç¦ı",
        -8.941082710879003
      ],
      [
        "æĽ¾",
        -8.941640637227556
      ],
      [
        "æīĵçĶµè¯Ŀ",
        -8.942034531752203
      ],
      [
        "èµ¶ç´§",
        -8.94232344878992
      ],
      [
        "è°¢è°¢",
        -8.94254929644194
      ],
      [
        "Ġå½ĵçĦ¶",
        -8.942609352819288
      ],
      [
        "æĪĳæĥ³",
        -8.9426900321467
      ],
      [
        "æĬķ",
        -8.943427632597578
      ],
      [
        "èĢĥ",
        -8.944176221005883
      ],
      [
        "ç»ı",
        -8.946216841042324
      ],
      [
        "éĹ®æĪĳ",
        -8.946285763550927
      ],
      [
        "ä¸ĬæĿ¥",
        -8.947006964018309
      ],
      [
        "è®°",
        -8.947216480133253
      ],
      [
        "çľŁæŃ£",
        -8.947538325735158
      ],
      [
        "Ġå¤§",
        -8.948612012410168
      ],
      [
        "ä¸įçĶ¨",
        -8.94882121550936
      ],
      [
        "éĩįè¦ģ",
        -8.949221780911081
      ],
      [
        "å½Ĵ",
        -8.949354619455995
      ],
      [
        "çĹĽ",
        -8.950157922391437
      ],
      [
        "å¹³æĹ¶",
        -8.95120284009431
      ],
      [
        "èĢĮä¸Ķ",
        -8.951789549274466
      ],
      [
        "æĭĽ",
        -8.952864810771421
      ],
      [
        "éĤ£æł·",
        -8.955997664459952
      ],
      [
        "åºĶè¯¥æĺ¯",
        -8.957062765551836
      ],
      [
        "èĢĥèĻĳ",
        -8.957748554545205
      ],
      [
        "éĵģ",
        -8.958102105690406
      ],
      [
        "é¢Ĩ",
        -8.958777284724825
      ],
      [
        "æĶ¯æĮģ",
        -8.95912170176277
      ],
      [
        "ä¿ĿæĬ¤",
        -8.959494708206341
      ],
      [
        "æĸ°éĹ»",
        -8.959991918233362
      ],
      [
        "å¸ĥ",
        -8.961695152026357
      ],
      [
        "å©ļå§»",
        -8.961832828316261
      ],
      [
        "Ġä½łè¿Ļ",
        -8.96185953105998
      ],
      [
        "Ġä½łçİ°åľ¨",
        -8.962340773052476
      ],
      [
        "åıĮ",
        -8.962917759794868
      ],
      [
        "çĸ«æĥħ",
        -8.963707744727108
      ],
      [
        "å¸®åĬ©",
        -8.96398887366888
      ],
      [
        "æĺŁ",
        -8.965019739389458
      ],
      [
        "ç½ª",
        -8.965196903968977
      ],
      [
        "åİ»æī¾",
        -8.967348478334909
      ],
      [
        "çĻ¾",
        -8.968594360492837
      ],
      [
        "çľĭè§ģ",
        -8.969607571894223
      ],
      [
        "Ġè¿ĻäºĽ",
        -8.969994827246675
      ],
      [
        "æĪĳå¦Ī",
        -8.970152937069878
      ],
      [
        "åģļçļĦ",
        -8.970419453242153
      ],
      [
        "èįī",
        -8.970486265302718
      ],
      [
        "çĶ·",
        -8.971318301430673
      ],
      [
        "ç²¾",
        -8.971495520293859
      ],
      [
        "æĬĬå®ĥ",
        -8.97169354227865
      ],
      [
        "åĲĪä½ľ",
        -8.971718351342139
      ],
      [
        "éĢ¼",
        -8.975204662380117
      ],
      [
        "çĽ´",
        -8.975705578972397
      ],
      [
        "ä¼¤å®³",
        -8.97650713193055
      ],
      [
        "ä¸įä¸Ģæł·",
        -8.976684216135858
      ],
      [
        "æĸ¹å¼ı",
        -8.977042651992898
      ],
      [
        "ç½Ĺ",
        -8.979950042366921
      ],
      [
        "ä»¥åıĬ",
        -8.980032624681845
      ],
      [
        "æĪĲéķ¿",
        -8.98035371702363
      ],
      [
        "éĹ´",
        -8.980596430307605
      ],
      [
        "ä¸įæķ¢",
        -8.981587233933139
      ],
      [
        "è¯Ń",
        -8.981629204511778
      ],
      [
        "ä»Ģä¹ĪæĹ¶åĢĻ",
        -8.982145927802588
      ],
      [
        "è¡¥",
        -8.983468412526843
      ],
      [
        "å¸®æĪĳ",
        -8.984286690932796
      ],
      [
        "å°½",
        -8.984623487103057
      ],
      [
        "æİ§åĪ¶",
        -8.985605095011751
      ],
      [
        "åĲĦç§į",
        -8.985746994509649
      ],
      [
        "ĠæĪĳçŁ¥éģĵ",
        -8.986003135074743
      ],
      [
        "èµµ",
        -8.986293957938043
      ],
      [
        "åĪĻ",
        -8.986590787106529
      ],
      [
        "æĿĳ",
        -8.987098423369082
      ],
      [
        "ç¬¬äºĮ",
        -8.987827732376651
      ],
      [
        "ä¸īåįģ",
        -8.988441551729194
      ],
      [
        "æ¯Ĵ",
        -8.98892444726832
      ],
      [
        "æ°¸è¿ľ",
        -8.989351630932749
      ],
      [
        "åıĺæĪĲ",
        -8.989455595045804
      ],
      [
        "ä¿Ŀ",
        -8.989694662610892
      ],
      [
        "æĢª",
        -8.990073855718709
      ],
      [
        "å¾®ä¿¡",
        -8.990387767351988
      ],
      [
        "æĭ¥æľī",
        -8.991982640739032
      ],
      [
        "èĬĤ",
        -8.992462058205133
      ],
      [
        "çĶ·æľĭåıĭ",
        -8.99256716746788
      ],
      [
        "æĸĩåĮĸ",
        -8.994496127473834
      ],
      [
        "å®¶äºº",
        -8.994529770645736
      ],
      [
        "ç»Īäºİ",
        -8.994851024998585
      ],
      [
        "æľĿ",
        -8.994941714408627
      ],
      [
        "å®Ī",
        -8.995587723421332
      ],
      [
        "ä»£",
        -8.995830197298465
      ],
      [
        "éĿ¢å¯¹",
        -8.997021688930335
      ],
      [
        "çļĦä¸ĢäºĽ",
        -8.997955255324817
      ],
      [
        "æ¡Ī",
        -8.998039127180752
      ],
      [
        "éĻ¤äºĨ",
        -8.998483714479846
      ],
      [
        "å»º",
        -8.998878649782744
      ],
      [
        "ä»»ä½ķ",
        -8.999073246475973
      ],
      [
        "æĻļ",
        -8.999115875805431
      ],
      [
        "Ġåıªè¦ģ",
        -9.000331679707676
      ],
      [
        "åºĶ",
        -9.00231809801627
      ],
      [
        "å¹¶",
        -9.003069098412443
      ],
      [
        "è¿ĺåľ¨",
        -9.003319685992869
      ],
      [
        "åķĨ",
        -9.003337891901072
      ],
      [
        "é©¬ä¸Ĭ",
        -9.003380088004363
      ],
      [
        "æ´Ĺ",
        -9.004126649390075
      ],
      [
        "åİĭ",
        -9.004245546363151
      ],
      [
        "éĻ¢",
        -9.00426916403305
      ],
      [
        "ç²¾ç¥ŀ",
        -9.004955887512505
      ],
      [
        "æŃ¦",
        -9.005068414183317
      ],
      [
        "åĮĹäº¬",
        -9.00624066238034
      ],
      [
        "çīĩ",
        -9.006382219540729
      ],
      [
        "æĬĬä»ĸ",
        -9.007143426226753
      ],
      [
        "åĨįè§ģ",
        -9.008107778147908
      ],
      [
        "çĶµå½±",
        -9.008692830993363
      ],
      [
        "è®°å¾Ĺ",
        -9.00878639968042
      ],
      [
        "ä¸½",
        -9.009134593442791
      ],
      [
        "è¿ĻåĦ¿",
        -9.010781363537122
      ],
      [
        "Ġè¯·",
        -9.01150833919477
      ],
      [
        "åĲĽ",
        -9.011773310642736
      ],
      [
        "å°±èĥ½",
        -9.011968512455542
      ],
      [
        "åłĤ",
        -9.012008382172906
      ],
      [
        "éĥ½åľ¨",
        -9.012356052487387
      ],
      [
        "çĥŁ",
        -9.013797795635213
      ],
      [
        "æľºä¼ļ",
        -9.014317703086347
      ],
      [
        "æľĢå¤§çļĦ",
        -9.015701251996063
      ],
      [
        "æĢ¥",
        -9.016045720693137
      ],
      [
        "èĥĮ",
        -9.016271312006541
      ],
      [
        "å¦¹å¦¹",
        -9.016312546692097
      ],
      [
        "ĠåıįæŃ£",
        -9.018030216523893
      ],
      [
        "éĿ¢åīį",
        -9.01991322813453
      ],
      [
        "è®©äºº",
        -9.021015635310151
      ],
      [
        "è¡Įä¸ļ",
        -9.021169585501534
      ],
      [
        "èĮ¶",
        -9.022097733907911
      ],
      [
        "å°±è¯´",
        -9.022314670444914
      ],
      [
        "ä»·",
        -9.023457341807955
      ],
      [
        "Ġäºİæĺ¯",
        -9.02445699193644
      ],
      [
        "è¯¾",
        -9.025983650219422
      ],
      [
        "åĵģ",
        -9.027562492575525
      ],
      [
        "çİ°åľº",
        -9.029093103127314
      ],
      [
        "è¡ĮåĬ¨",
        -9.029760196361707
      ],
      [
        "æĶ¾å¼ĥ",
        -9.031624703912398
      ],
      [
        "åľŁ",
        -9.031910780273831
      ],
      [
        "åĸĬ",
        -9.032788363787501
      ],
      [
        "å¤ļäºĨ",
        -9.033099836333069
      ],
      [
        "åĲĦ",
        -9.033386013239248
      ],
      [
        "è¶ĬæĿ¥è¶Ĭ",
        -9.033635203742847
      ],
      [
        "æłĳ",
        -9.033874950492011
      ],
      [
        "æĪĲäºĨ",
        -9.036934949614533
      ],
      [
        "æ±ī",
        -9.037868619704044
      ],
      [
        "ä»ĭç»į",
        -9.040489697372246
      ],
      [
        "ä¸įå¤Ł",
        -9.04067874547139
      ],
      [
        "é¢Ĩå¯¼",
        -9.04137142285094
      ],
      [
        "è¿ĺæ²¡æľī",
        -9.04172403404398
      ],
      [
        "åŁİå¸Ĥ",
        -9.043969418357102
      ],
      [
        "è§£éĩĬ",
        -9.044249033277929
      ],
      [
        "ä½łæĺ¯",
        -9.044314108912618
      ],
      [
        "éŁ³",
        -9.045122577913597
      ],
      [
        "çĶļèĩ³",
        -9.04548082674962
      ],
      [
        "éĺ³",
        -9.046781379066086
      ],
      [
        "ä¸īä¸ª",
        -9.046929423792717
      ],
      [
        "ĠåĮħæĭ¬",
        -9.047226756192137
      ],
      [
        "Ġä½łæĢİä¹Ī",
        -9.04817783388989
      ],
      [
        "äººåĳĺ",
        -9.049779599415363
      ],
      [
        "ä¸Ģåıª",
        -9.050862191924793
      ],
      [
        "å¿Ĺ",
        -9.051623966754004
      ],
      [
        "ç»Ŀ",
        -9.051830842586984
      ],
      [
        "åħ°",
        -9.051954259784878
      ],
      [
        "ä¸įå¾Ĺ",
        -9.053445205472576
      ],
      [
        "çļĦå·¥ä½ľ",
        -9.053760453859574
      ],
      [
        "ä¸ĬéĿ¢",
        -9.054510860936233
      ],
      [
        "Ġä½łè¿ĺ",
        -9.054579327117185
      ],
      [
        "èĢģå©Ĩ",
        -9.055370175791158
      ],
      [
        "å·ŀ",
        -9.056812522781064
      ],
      [
        "è¿ĻéĩĮ",
        -9.057601120534793
      ],
      [
        "è¿Ļä¸Ģ",
        -9.05812749256685
      ],
      [
        "çĶŁæ°Ķ",
        -9.058265963967198
      ],
      [
        "æ´»åĬ¨",
        -9.058611321717098
      ],
      [
        "ä¸ļ",
        -9.060774808549453
      ],
      [
        "åĽŀåĪ°",
        -9.061469584172423
      ],
      [
        "ä»£è¡¨",
        -9.062474887136455
      ],
      [
        "ĠæīĢä»¥æĪĳ",
        -9.062687131669733
      ],
      [
        "å£°éŁ³",
        -9.0635641897809
      ],
      [
        "è¡¨è¾¾",
        -9.063999461343455
      ],
      [
        "åŃ¦çĶŁ",
        -9.065627748743736
      ],
      [
        "Ġå¯¹äºİ",
        -9.065854754803262
      ],
      [
        "åĤ»",
        -9.065888490639438
      ],
      [
        "çĲĥ",
        -9.06594677601595
      ],
      [
        "æł¹",
        -9.066467114427361
      ],
      [
        "ä»Ģä¹ĪåĳĢ",
        -9.066602191299072
      ],
      [
        "ä¸Ĭæµ·",
        -9.067219832777312
      ],
      [
        "ç»Ħç»ĩ",
        -9.067508838694122
      ],
      [
        "å¸¸",
        -9.067808067398015
      ],
      [
        "ä¸įåı¯èĥ½",
        -9.068063007622866
      ],
      [
        "èº«è¾¹",
        -9.069495774553555
      ],
      [
        "Ġä»ĸå°±",
        -9.069973910431367
      ],
      [
        "ä¸ĢåĪĩ",
        -9.071558082074295
      ],
      [
        "å°±æĺ¯æĪĳ",
        -9.071742943775188
      ],
      [
        "éĤ£å¤©",
        -9.071804658018396
      ],
      [
        "æ²¡äºĭ",
        -9.071870806581309
      ],
      [
        "æ¸¸",
        -9.072310940880982
      ],
      [
        "Ġä»¥",
        -9.07247512980292
      ],
      [
        "åħ³äºİ",
        -9.072926365673043
      ],
      [
        "åĸĿéħĴ",
        -9.073418745187567
      ],
      [
        "ç»ĻæĪĳä»¬",
        -9.074807757295464
      ],
      [
        "åħ±",
        -9.075614919915969
      ],
      [
        "Ġå¦Īå¦Ī",
        -9.075698494882245
      ],
      [
        "åıĤåĬł",
        -9.076083301096839
      ],
      [
        "æĺ¯åĲĹ",
        -9.07675693449651
      ],
      [
        "ä¸ĢèĪ¬",
        -9.076979665755974
      ],
      [
        "å°±åĥı",
        -9.077482663793075
      ],
      [
        "Ġå°±åĥı",
        -9.077513207561902
      ],
      [
        "çĮ«",
        -9.078148737504788
      ],
      [
        "å¤Ł",
        -9.078191722309851
      ],
      [
        "æķ£",
        -9.079868216556607
      ],
      [
        "åĸľé©¬æĭīéĽħ",
        -9.081659643998657
      ],
      [
        "ä¸Ģåľº",
        -9.08175147381142
      ],
      [
        "åĽŀçŃĶ",
        -9.082735280383504
      ],
      [
        "ä¸įç®¡",
        -9.082830866122622
      ],
      [
        "è¿ĽæĿ¥",
        -9.086976582247006
      ],
      [
        "æĩĤ",
        -9.087778465884337
      ],
      [
        "éĴŁ",
        -9.089652783360242
      ],
      [
        "çİĩ",
        -9.089652829982187
      ],
      [
        "å¾Īå¥½",
        -9.089658547138635
      ],
      [
        "è¯´ä»Ģä¹Ī",
        -9.090387117775586
      ],
      [
        "çħ§é¡¾",
        -9.091059847494622
      ],
      [
        "æĶ¿åºľ",
        -9.09158149611423
      ],
      [
        "ä¸Ģä¸ªæľĪ",
        -9.092369207816084
      ],
      [
        "ä¸ĢçĽ´åľ¨",
        -9.09290093006819
      ],
      [
        "çļĦåħ³ç³»",
        -9.093625813927725
      ],
      [
        "éĿĻ",
        -9.093942971754483
      ],
      [
        "éĤ£ä¹Īå¤ļ",
        -9.094212045436825
      ],
      [
        "åŃĻ",
        -9.09453850171832
      ],
      [
        "ä¸Ģå®ļä¼ļ",
        -9.094902168680003
      ],
      [
        "æĬ½",
        -9.095029545454972
      ],
      [
        "ĠæĪĳä¼ļ",
        -9.095360900100433
      ],
      [
        "å®ŀçİ°",
        -9.09547317265752
      ],
      [
        "å¹³åı°",
        -9.09589662472198
      ],
      [
        "ä¸Ģä½į",
        -9.095927969030798
      ],
      [
        "åº§",
        -9.097319206507034
      ],
      [
        "ä¸Ģåı¥è¯Ŀ",
        -9.09858267674388
      ],
      [
        "çļĦæĦŁè§ī",
        -9.101428379072466
      ],
      [
        "åĳĲ",
        -9.1019056672484
      ],
      [
        "å®ŀ",
        -9.1032019304477
      ],
      [
        "ĠæīĢä»¥è¯´",
        -9.103398117266167
      ],
      [
        "çļĦæł·åŃĲ",
        -9.103558024399955
      ],
      [
        "äº¤æµģ",
        -9.104734969652752
      ],
      [
        "åĲĥäºĨ",
        -9.105142730415887
      ],
      [
        "éĩįæĸ°",
        -9.105674409580297
      ],
      [
        "è½»",
        -9.106700419862769
      ],
      [
        "åľ°è¯´",
        -9.10714104658719
      ],
      [
        "æĪĳçĪ¸",
        -9.10773707637306
      ],
      [
        "ç¥¨",
        -9.108511695170789
      ],
      [
        "å°ĨåĨĽ",
        -9.108829338197747
      ],
      [
        "åı¶",
        -9.109692607852065
      ],
      [
        "ä¸įåı¯",
        -9.10980497480396
      ],
      [
        "çĮª",
        -9.110006354130114
      ],
      [
        "èĪ¹",
        -9.110048443081073
      ],
      [
        "åĲ´",
        -9.110147574065568
      ],
      [
        "çĽ®åīį",
        -9.110600422664636
      ],
      [
        "è¿ĻäºĭåĦ¿",
        -9.111437496937755
      ],
      [
        "Ġè¯¥",
        -9.112165973522663
      ],
      [
        "æħ¢æħ¢",
        -9.112538387563927
      ],
      [
        "æķ´",
        -9.114081531206786
      ],
      [
        "è¯ģ",
        -9.11413731014774
      ],
      [
        "çĽ¸å¤Ħ",
        -9.114154681942184
      ],
      [
        "äºĨæĪĳ",
        -9.11415828607633
      ],
      [
        "é¸¡",
        -9.114947392935026
      ],
      [
        "æĸŃ",
        -9.116533407040688
      ],
      [
        "å®¹æĺĵ",
        -9.119100368171527
      ],
      [
        "éĤ£åĦ¿",
        -9.119144578684097
      ],
      [
        "è°¢",
        -9.119751361056405
      ],
      [
        "å±ŀäºİ",
        -9.119963900198103
      ],
      [
        "å°±ä¸į",
        -9.120799026791296
      ],
      [
        "æĺ¯ä¸Ģç§į",
        -9.120902240888388
      ],
      [
        "çĪ¸",
        -9.121136045522675
      ],
      [
        "ä¸Ģå®¶",
        -9.121236741419978
      ],
      [
        "æĸ°çļĦ",
        -9.12251439349765
      ],
      [
        "åĳĺ",
        -9.123273975613412
      ],
      [
        "ä¸įå¤ª",
        -9.124310281372729
      ],
      [
        "éĽ·",
        -9.125754128579699
      ],
      [
        "ä¸Ģä»½",
        -9.12658216833403
      ],
      [
        "åİŁåĽł",
        -9.127119831057978
      ],
      [
        "èĩªçĦ¶",
        -9.127243009149758
      ],
      [
        "é¡¶",
        -9.12857090359352
      ],
      [
        "çĬ¯",
        -9.128624856140547
      ],
      [
        "åİĭåĬĽ",
        -9.128873778768293
      ],
      [
        "äºĶåįģ",
        -9.129306547330188
      ],
      [
        "è®©æĪĳä»¬",
        -9.130053367929666
      ],
      [
        "å·¦åı³",
        -9.13053795760779
      ],
      [
        "åĿı",
        -9.131809793034694
      ],
      [
        "æĬ¥åĳĬ",
        -9.131889371687471
      ],
      [
        "å»ºè®®",
        -9.132796936919028
      ],
      [
        "æĮĳ",
        -9.13332165287974
      ],
      [
        "Ġä½łåı¯ä»¥",
        -9.133390073178504
      ],
      [
        "Ġåħ¶ä¸Ń",
        -9.134811349404847
      ],
      [
        "ç´¯",
        -9.134823957184405
      ],
      [
        "ä½łå¥½",
        -9.135779462204866
      ],
      [
        "ĠæĪĳè¿Ļ",
        -9.137425241953734
      ],
      [
        "çģ¯",
        -9.137490445554876
      ],
      [
        "è´Łè´£",
        -9.137908939328202
      ],
      [
        "æĲľç´¢",
        -9.137960541721597
      ],
      [
        "åİ»åģļ",
        -9.137973982138814
      ],
      [
        "èİ·å¾Ĺ",
        -9.138724632124159
      ],
      [
        "äº§åĵģ",
        -9.13933777972777
      ],
      [
        "ä¹Łå¥½",
        -9.139413396817325
      ],
      [
        "Ġæį®",
        -9.139801049673629
      ],
      [
        "ä»¥ä¸º",
        -9.13997136238913
      ],
      [
        "å¹¶æ²¡æľī",
        -9.141348664638745
      ],
      [
        "ĠæĿİ",
        -9.143241802200642
      ],
      [
        "åİ¿",
        -9.143470719465062
      ],
      [
        "æŃ¤",
        -9.14400532352224
      ],
      [
        "æĺ¥",
        -9.144172697053431
      ],
      [
        "å¿µ",
        -9.144512911464183
      ],
      [
        "æ¬¾",
        -9.145286634617808
      ],
      [
        "èħ¿",
        -9.146739273420824
      ],
      [
        "è¿Ĳ",
        -9.147221470789736
      ],
      [
        "åıĺå¾Ĺ",
        -9.148780798811107
      ],
      [
        "Ġä¹Łæĺ¯",
        -9.14950842945255
      ],
      [
        "ä¿ĿæĮģ",
        -9.149807315073744
      ],
      [
        "æ¸¸æĪı",
        -9.149927664324817
      ],
      [
        "åı¤",
        -9.150182352203124
      ],
      [
        "åĲĦä½į",
        -9.150190173080794
      ],
      [
        "æĺ¨å¤©",
        -9.150197254171239
      ],
      [
        "æĢĿ",
        -9.150482780475404
      ],
      [
        "å¼łå¾·èĬ¬ç©ºéĹ´",
        -9.150646870703675
      ],
      [
        "åĽ½éĻħ",
        -9.153377415531924
      ],
      [
        "æł¼",
        -9.153530317914864
      ],
      [
        "ç§ĳ",
        -9.153607337335298
      ],
      [
        "åģ·",
        -9.15375468376265
      ],
      [
        "æĶ¾åľ¨",
        -9.154566772784118
      ],
      [
        "èĭ¥",
        -9.155427508615917
      ],
      [
        "æ²ŁéĢļ",
        -9.15599911039235
      ],
      [
        "æľª",
        -9.15676909049272
      ],
      [
        "ä¸įæĦ¿æĦı",
        -9.157355156859524
      ],
      [
        "èĤ¡",
        -9.157609491889385
      ],
      [
        "è¿Ļä¹Īå¤ļ",
        -9.15895574613566
      ],
      [
        "ä¼ĳæģ¯",
        -9.159569337631096
      ],
      [
        "ä»»",
        -9.160426841346105
      ],
      [
        "çİ°å®ŀ",
        -9.160992363198527
      ],
      [
        "ç»Ħ",
        -9.16157107415706
      ],
      [
        "è¿Ļè¾¹",
        -9.161806118116052
      ],
      [
        "åıĶ",
        -9.161807782988731
      ],
      [
        "éĥ½åı¯ä»¥",
        -9.162170082604689
      ],
      [
        "ä»Ģä¹Īæł·çļĦ",
        -9.163083705782237
      ],
      [
        "éĻª",
        -9.163714417411596
      ],
      [
        "å®«",
        -9.163741944946446
      ],
      [
        "ç»ıè¿ĩ",
        -9.164739116497216
      ],
      [
        "ä½¿çĶ¨",
        -9.165344436168425
      ],
      [
        "å¥¶å¥¶",
        -9.16589129293832
      ],
      [
        "ä¸»ä»»",
        -9.166216105827797
      ],
      [
        "ç½ĳç»ľ",
        -9.16775452789035
      ],
      [
        "åĨ°",
        -9.168559206902298
      ],
      [
        "ħ",
        -9.169025207954753
      ],
      [
        "åįĥ",
        -9.169813536146235
      ],
      [
        "å¸®ä½ł",
        -9.169913303056443
      ],
      [
        "åĪ·",
        -9.169940476484442
      ],
      [
        "æĹ¥æľ¬",
        -9.169989067843506
      ],
      [
        "çĬ¶æĢģ",
        -9.170384256326109
      ],
      [
        "åºķ",
        -9.173537633785926
      ],
      [
        "ä¸īå¹´",
        -9.173732698227965
      ],
      [
        "æĬĬè¿Ļä¸ª",
        -9.174433254956442
      ],
      [
        "åĬŁ",
        -9.175091614848323
      ],
      [
        "æ³¢",
        -9.175356850130107
      ],
      [
        "å®ģ",
        -9.176458217282068
      ],
      [
        "åĻ¨",
        -9.17680615152803
      ],
      [
        "éº»çĥ¦",
        -9.177205230166903
      ],
      [
        "èĻİ",
        -9.178131703545489
      ],
      [
        "é¡¹çĽ®",
        -9.178133320556972
      ],
      [
        "èĹı",
        -9.178820317252768
      ],
      [
        "æĺ¯åĽłä¸º",
        -9.17939470182244
      ],
      [
        "äº®",
        -9.180193279915962
      ],
      [
        "ä¸ĬçļĦ",
        -9.180456566159416
      ],
      [
        "æĽ´å¤ļ",
        -9.180508902509182
      ],
      [
        "æĬ±",
        -9.180531800358278
      ],
      [
        "éħį",
        -9.18106087450822
      ],
      [
        "å¯¹ä»ĸ",
        -9.181101336387972
      ],
      [
        "æ¸ħæ¥ļ",
        -9.182470619097709
      ],
      [
        "ç«Ļåľ¨",
        -9.183708447879745
      ],
      [
        "å©ļ",
        -9.183847546353466
      ],
      [
        "æĮī",
        -9.184421473477595
      ],
      [
        "éĥ½è¦ģ",
        -9.184947494968668
      ],
      [
        "æĿ¥çļĦ",
        -9.185593429519177
      ],
      [
        "Ġä¸ŃåĽ½",
        -9.186834012870529
      ],
      [
        "éĤ£æĺ¯",
        -9.189152217572385
      ],
      [
        "éĩİ",
        -9.189281140880887
      ],
      [
        "ç¡¬",
        -9.189423090276104
      ],
      [
        "çļĦå¥³äºº",
        -9.189661019193979
      ],
      [
        "çİ¯å¢ĥ",
        -9.189673472875512
      ],
      [
        "èĭı",
        -9.190094692521395
      ],
      [
        "Ġæ¯Ķå¦Ĥ",
        -9.190322597838612
      ],
      [
        "æĭ¿çĿĢ",
        -9.190448009049689
      ],
      [
        "çĭ¼",
        -9.19129076135168
      ],
      [
        "ç´§",
        -9.191609018157717
      ],
      [
        "å½ĵçĦ¶",
        -9.192605169738389
      ],
      [
        "Ġèĥ½",
        -9.193128762999521
      ],
      [
        "Ġéĥ½æĺ¯",
        -9.193909942221316
      ],
      [
        "åĪ¶",
        -9.194392587717928
      ],
      [
        "åĲµæŀ¶",
        -9.194969859373655
      ],
      [
        "å¹²åĺĽ",
        -9.194973250506191
      ],
      [
        "æĮĩ",
        -9.196275698025534
      ],
      [
        "ĠçĦ¶åĲİå°±",
        -9.196359849685784
      ],
      [
        "å½ĵåĪĿ",
        -9.197391272982289
      ],
      [
        "æĽ´å¤ļçļĦ",
        -9.197936068635055
      ],
      [
        "åľ¨å®¶",
        -9.19800204841206
      ],
      [
        "ç»ıåİĨ",
        -9.198218509344379
      ],
      [
        "çľ¼çĿĽ",
        -9.198726080046061
      ],
      [
        "Ġä½łæĥ³",
        -9.199959560572347
      ],
      [
        "åĸľ",
        -9.200406996420867
      ],
      [
        "é¡º",
        -9.200525397274072
      ],
      [
        "åľ¨è¿Ļä¸ª",
        -9.20060853559849
      ],
      [
        "åĨħå®¹",
        -9.200877520588957
      ],
      [
        "Ġä½łåĪ«",
        -9.202285901872436
      ],
      [
        "åħ±åĲĮ",
        -9.202699025969602
      ],
      [
        "ç¤¼",
        -9.20313204880425
      ],
      [
        "èģĬå¤©",
        -9.20315826651071
      ],
      [
        "ä»¤",
        -9.2037404992019
      ],
      [
        "æıĲä¾Ľ",
        -9.204004076552028
      ],
      [
        "æ¶Īè´¹",
        -9.20432888478175
      ],
      [
        "ä¹ī",
        -9.206268130011646
      ],
      [
        "è§Ĩé¢ĳ",
        -9.206624225391117
      ],
      [
        "å®¢",
        -9.206959712384803
      ],
      [
        "åĿĹ",
        -9.207553938405006
      ],
      [
        "åĶīåĳĢ",
        -9.20759650837292
      ],
      [
        "åħ¬ä¸»",
        -9.208462256556263
      ],
      [
        "ä¸ĢåĿĹ",
        -9.208515552006611
      ],
      [
        "åŃĺåľ¨",
        -9.208543324526083
      ],
      [
        "ä¸Ģæ®µ",
        -9.208961590033805
      ],
      [
        "åģľ",
        -9.209527689691672
      ],
      [
        "æīĵç®Ĺ",
        -9.21015353966154
      ],
      [
        "èĥ¡",
        -9.212090545416274
      ],
      [
        "ä½Ļ",
        -9.212293958549882
      ],
      [
        "çļĦæĸ¹å¼ı",
        -9.213039768845132
      ],
      [
        "ĠåİŁæĿ¥",
        -9.21319958488177
      ],
      [
        "æ»¡è¶³",
        -9.21358690238846
      ],
      [
        "èµ¶",
        -9.215080737687279
      ],
      [
        "éĺ¿å§¨",
        -9.215383666820905
      ],
      [
        "åŃĺ",
        -9.215548714505651
      ],
      [
        "èĢĮå·²",
        -9.215649691113498
      ],
      [
        "åī¯",
        -9.215670329294523
      ],
      [
        "çŁŃ",
        -9.215976719081102
      ],
      [
        "åĶĲ",
        -9.218357402384015
      ],
      [
        "æĪĳä»¬å®¶",
        -9.218650953667767
      ],
      [
        "ä¸Ģå¼ł",
        -9.218724275793269
      ],
      [
        "è§ģéĿ¢",
        -9.21888400869322
      ],
      [
        "èĥĸ",
        -9.219459867232661
      ],
      [
        "é«ĺåħ´",
        -9.22037463327715
      ],
      [
        "åįģäºĮ",
        -9.221563448483803
      ],
      [
        "çĸ¼",
        -9.221655950932778
      ],
      [
        "æĪĳè¿Ļ",
        -9.221908296422805
      ],
      [
        "åĲĮæĦı",
        -9.222532709371594
      ],
      [
        "æĬĬèĩªå·±",
        -9.222671546681717
      ],
      [
        "ä¸Ģè¾ĪåŃĲ",
        -9.222749906579114
      ],
      [
        "æĿ¥åĪ°",
        -9.223194154790892
      ],
      [
        "åĵªä¸ª",
        -9.224009537610588
      ],
      [
        "æīįæĺ¯",
        -9.224602502497738
      ],
      [
        "æĦŁåĪ°",
        -9.224962378743072
      ],
      [
        "åª³å¦ĩåĦ¿",
        -9.225057212470281
      ],
      [
        "ä¼¼çļĦ",
        -9.225208679059026
      ],
      [
        "æ²»çĸĹ",
        -9.22582006412349
      ],
      [
        "å§ĵ",
        -9.225916143328124
      ],
      [
        "ä½łè¿Ļ",
        -9.226056196844134
      ],
      [
        "å¾Īéļ¾",
        -9.22697843605993
      ],
      [
        "è°ĪæģĭçĪ±",
        -9.22757362615615
      ],
      [
        "æ²¡äºĭåĦ¿",
        -9.227678022813144
      ],
      [
        "çŃīçŃī",
        -9.227721439591708
      ],
      [
        "æģĭçĪ±",
        -9.228187466137143
      ],
      [
        "åĲ¹",
        -9.228451175797378
      ],
      [
        "åĴĮä½ł",
        -9.228510052940887
      ],
      [
        "ĠæĪĳå°±æĺ¯",
        -9.228828210814115
      ],
      [
        "ä¸Ģè¾¹",
        -9.229991443126266
      ],
      [
        "çĽĺ",
        -9.230033938387553
      ],
      [
        "è¶ħè¿ĩ",
        -9.230515889696267
      ],
      [
        "å¥Ĺ",
        -9.23066612129789
      ],
      [
        "åĪ«çļĦ",
        -9.231017220267898
      ],
      [
        "ķ",
        -9.231936803547878
      ],
      [
        "å¿ĺäºĨ",
        -9.232077609951562
      ],
      [
        "Ġå°±æĺ¯è¯´",
        -9.232131882011274
      ],
      [
        "ä½łçİ°åľ¨",
        -9.232724725886861
      ],
      [
        "è¾¾åĪ°",
        -9.233345262708546
      ],
      [
        "å»ºè®¾",
        -9.233608600806633
      ],
      [
        "å¸ĪåĤħ",
        -9.234314964948506
      ],
      [
        "æľīæĹ¶åĢĻ",
        -9.234402611905821
      ],
      [
        "åįģå¹´",
        -9.234822779369456
      ],
      [
        "æĽ´åĬł",
        -9.235036930133361
      ],
      [
        "åĪĩ",
        -9.235088247770747
      ],
      [
        "æ··",
        -9.235919269968676
      ],
      [
        "æĻļå®ī",
        -9.237004336596152
      ],
      [
        "Ġæ¬¢è¿İ",
        -9.237696648489779
      ],
      [
        "ĠçĦ¶åĲİä»ĸ",
        -9.2382554128579
      ],
      [
        "ĠæĪĳä¸į",
        -9.239072620265851
      ],
      [
        "æ³¨æĦı",
        -9.239177323615817
      ],
      [
        "éĥ½èĥ½",
        -9.240734423178296
      ],
      [
        "æĥħæĦŁ",
        -9.240936342044696
      ],
      [
        "Ġä½łçŁ¥éģĵ",
        -9.241058044201125
      ],
      [
        "çĽ¸åħ³",
        -9.242651013522927
      ],
      [
        "ĠéĻ¤äºĨ",
        -9.243338853952917
      ],
      [
        "å¼Łå¼Ł",
        -9.244389973609385
      ],
      [
        "åħ´",
        -9.244813315304983
      ],
      [
        "éĢĥ",
        -9.245282666985805
      ],
      [
        "è¡¨",
        -9.245290720287876
      ],
      [
        "ç¡®å®ļ",
        -9.2463797765036
      ],
      [
        "ç±»",
        -9.247708262968255
      ],
      [
        "æĢİä¹ĪäºĨ",
        -9.247898550381857
      ],
      [
        "æľīä¸ĢäºĽ",
        -9.248648915447998
      ],
      [
        "Ġä¹Łè®¸",
        -9.248939560179116
      ],
      [
        "éĺŁéķ¿",
        -9.249029986275229
      ],
      [
        "ç§Ģ",
        -9.249274688868454
      ],
      [
        "å½ĵå¹´",
        -9.249843171348264
      ],
      [
        "åĽ°éļ¾",
        -9.250774892318628
      ],
      [
        "æľį",
        -9.252636860793297
      ],
      [
        "è§ģè¿ĩ",
        -9.252821462540716
      ],
      [
        "å¹²åĲĹ",
        -9.253093538900584
      ],
      [
        "çĪ·çĪ·",
        -9.254161488797669
      ],
      [
        "è¿ĲåĬ¨",
        -9.254206144199406
      ],
      [
        "æĽ²",
        -9.254558652337074
      ],
      [
        "ä¸»è¦ģ",
        -9.25460056243163
      ],
      [
        "æŃ¥",
        -9.255643936863448
      ],
      [
        "éĥ¨éĺŁ",
        -9.255750647273404
      ],
      [
        "åĲµ",
        -9.25656131894601
      ],
      [
        "ä¸ºä½ł",
        -9.256903812579868
      ],
      [
        "æĮºå¥½çļĦ",
        -9.256986585880352
      ],
      [
        "ç¾¤",
        -9.257403058548043
      ],
      [
        "ä»ĺåĩº",
        -9.257819645105272
      ],
      [
        "éķĩ",
        -9.258389378904312
      ],
      [
        "æĻĵ",
        -9.258804671387267
      ],
      [
        "ç»Ļä½łä»¬",
        -9.258898404474472
      ],
      [
        "æŃ£å¸¸",
        -9.260736318954812
      ],
      [
        "èĭ±",
        -9.26089227557542
      ],
      [
        "ä¸ĢçĤ¹åĦ¿",
        -9.260969779207358
      ],
      [
        "äºĶå¹´",
        -9.26146670014607
      ],
      [
        "æ¼Ĥäº®",
        -9.26322936444275
      ],
      [
        "æĺ¯åĲ¦",
        -9.26496409752162
      ],
      [
        "é¢ĺ",
        -9.265586678200064
      ],
      [
        "æľĢå¥½çļĦ",
        -9.265990469451205
      ],
      [
        "éĥ¨åĪĨ",
        -9.26614627961809
      ],
      [
        "Ġä»Ĭå¹´",
        -9.266852052337969
      ],
      [
        "éªĤ",
        -9.267404208093708
      ],
      [
        "ä¹łæĥ¯",
        -9.267582927870063
      ],
      [
        "ĠéĤ£æĺ¯",
        -9.268709890065743
      ],
      [
        "æĢĢçĸĳ",
        -9.269774076451395
      ],
      [
        "çīĮ",
        -9.270317071081958
      ],
      [
        "çļĦéĤ£ç§į",
        -9.270794068391886
      ],
      [
        "ç»ĥ",
        -9.271754768004039
      ],
      [
        "å¾®",
        -9.271846131205807
      ],
      [
        "ä¸įéĶĻ",
        -9.274266485861848
      ],
      [
        "åħ¨åĽ½",
        -9.274833626508967
      ],
      [
        "çģµ",
        -9.275092793979542
      ],
      [
        "ä¿©",
        -9.275484892340515
      ],
      [
        "ç´§å¼ł",
        -9.275590278499184
      ],
      [
        "ä¹ĭåĲİåĳ¢",
        -9.27560301059508
      ],
      [
        "éĺ²",
        -9.276347796159984
      ],
      [
        "Ġæ¯Ķå¦Ĥè¯´",
        -9.276579085894902
      ],
      [
        "éĢļçŁ¥",
        -9.277179883091298
      ],
      [
        "ä»¶",
        -9.27850252540641
      ],
      [
        "å¥³åŃ©åŃĲ",
        -9.278711792383463
      ],
      [
        "æģ©",
        -9.279899083520418
      ],
      [
        "åĲĮäºĭ",
        -9.280180469862312
      ],
      [
        "æĮīçħ§",
        -9.280271336274073
      ],
      [
        "å¤«äºº",
        -9.281268873571719
      ],
      [
        "è¯ģæĺİ",
        -9.281354893643833
      ],
      [
        "Ġä¸įçŁ¥éģĵ",
        -9.281403055624452
      ],
      [
        "æīĵå¼Ģ",
        -9.281437321675345
      ],
      [
        "Ġä»¥åĲİ",
        -9.2814955135505
      ],
      [
        "æ²»",
        -9.281930313435595
      ],
      [
        "å¯Ĵ",
        -9.282071384967129
      ],
      [
        "åĪĽéĢł",
        -9.282283999807667
      ],
      [
        "å°Ĭéĩį",
        -9.282917784532723
      ],
      [
        "èĩªçĶ±",
        -9.28304633337834
      ],
      [
        "äºĨä½ł",
        -9.283192940754892
      ],
      [
        "ä¿Ŀè¯ģ",
        -9.283941622255767
      ],
      [
        "èī¯",
        -9.284084061912397
      ],
      [
        "éĢł",
        -9.284435278563144
      ],
      [
        "ç«¯",
        -9.284760478376315
      ],
      [
        "çĪ·",
        -9.284969501954219
      ],
      [
        "éĶĻäºĨ",
        -9.285605803385636
      ],
      [
        "è®¸",
        -9.287074985385495
      ],
      [
        "ç§ĳæĬĢ",
        -9.28765017916902
      ],
      [
        "å¤ı",
        -9.288108486604454
      ],
      [
        "è¯»ä¹¦",
        -9.290539560830657
      ],
      [
        "é£Ł",
        -9.29138533745633
      ],
      [
        "å¥³çĶŁ",
        -9.2920005169534
      ],
      [
        "æķĻæİĪ",
        -9.29229790599107
      ],
      [
        "ä»»åĬ¡",
        -9.292710908678881
      ],
      [
        "ä¼ļä¸įä¼ļ",
        -9.293397812447612
      ],
      [
        "ä¸įåİ»",
        -9.294614482118387
      ],
      [
        "çļĦåĳĢ",
        -9.29958973989206
      ],
      [
        "ç»Ļèĩªå·±",
        -9.300142181499174
      ],
      [
        "åı¯èĥ½æĺ¯",
        -9.300839051651847
      ],
      [
        "Ġå¿«",
        -9.300932413387589
      ],
      [
        "äºĽ",
        -9.30095089750669
      ],
      [
        "è¯ķ",
        -9.301105805225939
      ],
      [
        "çĥ§",
        -9.30196354970723
      ],
      [
        "ĠæĪĳéĥ½",
        -9.302463246725605
      ],
      [
        "ä¹Łä¸įæĺ¯",
        -9.302636366684139
      ],
      [
        "ĠæĪĳåľ¨",
        -9.303580432441116
      ],
      [
        "åĦ¿åķĬ",
        -9.303667950179088
      ],
      [
        "å¯Į",
        -9.304219222966967
      ],
      [
        "ä¸ŃéĹ´",
        -9.30423754467825
      ],
      [
        "ä¹°äºĨ",
        -9.305007599608444
      ],
      [
        "åĩºæĿ¥äºĨ",
        -9.305240073410314
      ],
      [
        "ä¸įå¯¹",
        -9.305840112221919
      ],
      [
        "ä¹Łåı¯ä»¥",
        -9.306072923555227
      ],
      [
        "äº§",
        -9.30614045505301
      ],
      [
        "è¿Ļä¹Īè¯´",
        -9.307951040208941
      ],
      [
        "è§Ĥ",
        -9.308661590297248
      ],
      [
        "ä¸ĵä¸ļ",
        -9.309068487401134
      ],
      [
        "çļĦçĶ·äºº",
        -9.309962105413755
      ],
      [
        "æĹ§",
        -9.310880118349898
      ],
      [
        "çĶŁäº§",
        -9.311094242587833
      ],
      [
        "è¡£",
        -9.311198740569687
      ],
      [
        "éŀĭ",
        -9.311364357831067
      ],
      [
        "ĠæĪĳæĪĳ",
        -9.311488645188444
      ],
      [
        "åĪĿ",
        -9.312640044860052
      ],
      [
        "æī¾æĪĳ",
        -9.31279874272257
      ],
      [
        "æĿ°",
        -9.312871558396637
      ],
      [
        "Ġè¿Ļå°±æĺ¯",
        -9.313350938727188
      ],
      [
        "Ġæĺİå¤©",
        -9.31390431301757
      ],
      [
        "¬",
        -9.314140608593863
      ],
      [
        "Ġé¦ĸåħĪ",
        -9.31420622519833
      ],
      [
        "ä¸Ńå¿ĥ",
        -9.314302424525392
      ],
      [
        "çĽ®æłĩ",
        -9.315125055168224
      ],
      [
        "ä½łè¿ĺ",
        -9.316438181229861
      ],
      [
        "ä¸Ģä»¶",
        -9.317689122229996
      ],
      [
        "çĹĽèĭ¦",
        -9.318208655100934
      ],
      [
        "çľŁæŃ£çļĦ",
        -9.318503696901452
      ],
      [
        "ä¸ĢçĻ¾",
        -9.318716238524871
      ],
      [
        "å¯¹ä¸įèµ·",
        -9.319921902697729
      ],
      [
        "åľ¨è¿Ļ",
        -9.320281762667278
      ],
      [
        "åĩłå¤©",
        -9.320449409927708
      ],
      [
        "è¡¨çİ°",
        -9.321454410309492
      ],
      [
        "æĮģç»Ń",
        -9.322116799370553
      ],
      [
        "ä¸Ģçľĭ",
        -9.323294461673147
      ],
      [
        "æĸ¹æ³ķ",
        -9.323719639017256
      ],
      [
        "æĶ¿çŃĸ",
        -9.325308433189466
      ],
      [
        "çĽĸ",
        -9.32552098637963
      ],
      [
        "ç¬Ķ",
        -9.326641169456703
      ],
      [
        "å½±",
        -9.327238777887153
      ],
      [
        "è¯´ä»ĸ",
        -9.327434031399704
      ],
      [
        "çļĦåİŁåĽł",
        -9.327535990371086
      ],
      [
        "åİŁæĿ¥",
        -9.327589595024044
      ],
      [
        "ç»¿",
        -9.32796351426251
      ],
      [
        "å·®ä¸įå¤ļ",
        -9.328191369707621
      ],
      [
        "åĪĨæŀĲ",
        -9.329525316153461
      ],
      [
        "ä»¥æĿ¥",
        -9.329599531499968
      ],
      [
        "å¿ĥçĲĨ",
        -9.329936188201767
      ],
      [
        "æĭĴç»Ŀ",
        -9.330893384965862
      ],
      [
        "åı¯èĥ½ä¼ļ",
        -9.330911334961208
      ],
      [
        "éĩĮçļĦ",
        -9.331189050078098
      ],
      [
        "ĠçľŁ",
        -9.33166059041027
      ],
      [
        "çļĦè¿Ļç§į",
        -9.331673765493075
      ],
      [
        "ä¾ĿçĦ¶",
        -9.332063397860463
      ],
      [
        "æķ°æį®",
        -9.332640771459443
      ],
      [
        "åħ³å¿ĥ",
        -9.333045639712445
      ],
      [
        "æľŁéĹ´",
        -9.333743137637047
      ],
      [
        "åİĤ",
        -9.333790508787118
      ],
      [
        "åıĺåĮĸ",
        -9.33380116825134
      ],
      [
        "è¿Ļä»¶äºĭæĥħ",
        -9.33404925153113
      ],
      [
        "ç§ĭ",
        -9.334688433524935
      ],
      [
        "ä»·æł¼",
        -9.334705839438683
      ],
      [
        "ĠåĽłä¸ºä»ĸ",
        -9.335309092250533
      ],
      [
        "åĽŀå¤´",
        -9.335351568910552
      ],
      [
        "èµĦéĩĳ",
        -9.338836518926449
      ],
      [
        "åŁºæľ¬",
        -9.338889634153183
      ],
      [
        "ä½łä¹Ł",
        -9.339612071910707
      ],
      [
        "ĠåĽłä¸ºä½ł",
        -9.339890028647819
      ],
      [
        "æĿ¥è®²",
        -9.340837078346564
      ],
      [
        "æĺ¯æľī",
        -9.341907287866984
      ],
      [
        "ä½łä»¬ä¿©",
        -9.342216590707164
      ],
      [
        "äº«åıĹ",
        -9.34309411401912
      ],
      [
        "åĴ±ä¿©",
        -9.34353142544689
      ],
      [
        "åīĳ",
        -9.344242724353398
      ],
      [
        "èŃ¦å¯Ł",
        -9.34437277554057
      ],
      [
        "Ġä½łè¯´ä½ł",
        -9.344735573888993
      ],
      [
        "æ¯ıæ¬¡",
        -9.345106738469752
      ],
      [
        "ä¸¥",
        -9.345308164489596
      ],
      [
        "é¸Ł",
        -9.345468360199867
      ],
      [
        "æĪĳè¿ĺ",
        -9.345517049307396
      ],
      [
        "èĲ¥",
        -9.345626365685899
      ],
      [
        "Ġåħ¶å®ŀæĪĳ",
        -9.345935000195896
      ],
      [
        "åĢ¼",
        -9.345951840442954
      ],
      [
        "Ġä»ĸæĺ¯",
        -9.346194972034997
      ],
      [
        "åıĶåıĶ",
        -9.34643098281737
      ],
      [
        "æľŁå¾ħ",
        -9.346592819807725
      ],
      [
        "æ¡¥",
        -9.34709756997505
      ],
      [
        "æł·",
        -9.347760987418717
      ],
      [
        "éģĩè§ģ",
        -9.348011737348497
      ],
      [
        "ç®Ģåįķ",
        -9.348479912558512
      ],
      [
        "Ġä¸įç®¡",
        -9.34864465258692
      ],
      [
        "æĿ¿",
        -9.348816835584298
      ],
      [
        "ä¸Ĭåİ»",
        -9.34896129101081
      ],
      [
        "Ġä½Ĩæĺ¯ä½ł",
        -9.349280512595701
      ],
      [
        "æĥ³æĥ³",
        -9.349583202732518
      ],
      [
        "ĠåŃ©åŃĲ",
        -9.35000954667687
      ],
      [
        "æľīå¾Īå¤ļ",
        -9.350426480214061
      ],
      [
        "æĹ¶åĢĻ",
        -9.35095575904983
      ],
      [
        "éª¨",
        -9.350961282555675
      ],
      [
        "ä¼ļæľī",
        -9.351703896968422
      ],
      [
        "è®°èĢħ",
        -9.351884739807069
      ],
      [
        "æł¡",
        -9.35228050731675
      ],
      [
        "æľīéĴ±",
        -9.35251730167589
      ],
      [
        "åĽłä¸ºæĪĳ",
        -9.352596333064401
      ],
      [
        "æĮĤ",
        -9.353714623402809
      ],
      [
        "ä»ĸå°±",
        -9.354973743346552
      ],
      [
        "ä¸Ģå£°",
        -9.355544385705318
      ],
      [
        "èĦĳ",
        -9.355766378495588
      ],
      [
        "æĥ³çĿĢ",
        -9.356308943430875
      ],
      [
        "å¤ªå¤ļ",
        -9.356853502282279
      ],
      [
        "éĽĨåĽ¢",
        -9.35706087485869
      ],
      [
        "å½¼æŃ¤",
        -9.357568421261048
      ],
      [
        "å¸ħ",
        -9.357691083414524
      ],
      [
        "çīĻ",
        -9.357926602074487
      ],
      [
        "å®ĭ",
        -9.358041332031029
      ],
      [
        "è¯´è¿ĩ",
        -9.358370757063215
      ],
      [
        "ç»Ĩ",
        -9.358414842990516
      ],
      [
        "åįķä½į",
        -9.359220973153132
      ],
      [
        "çļĦéĴ±",
        -9.359476144368983
      ],
      [
        "åĩºæĿ¥çļĦ",
        -9.360779700964674
      ],
      [
        "æĺ¯ä¸ºäºĨ",
        -9.361731664125433
      ],
      [
        "Ġæ¯ķç«Ł",
        -9.36177382055466
      ],
      [
        "æĿ¾",
        -9.361921769461928
      ],
      [
        "åĵªåĦ¿",
        -9.361997764567276
      ],
      [
        "æĳĨ",
        -9.362090122600932
      ],
      [
        "Ġè¿Ļç§į",
        -9.362408813471198
      ],
      [
        "ä¸ĵå®¶",
        -9.362861615810296
      ],
      [
        "æĪĳè¯´",
        -9.362972805994925
      ],
      [
        "éĹ®ä½ł",
        -9.363834716442284
      ],
      [
        "åİ»åĲ§",
        -9.364774791556446
      ],
      [
        "æľĽ",
        -9.365059065147573
      ],
      [
        "ä¸ļåĬ¡",
        -9.36514202357829
      ],
      [
        "éķ¿å¾Ĺ",
        -9.36517124630926
      ],
      [
        "çŁĽçĽ¾",
        -9.365352164827598
      ],
      [
        "æıĲåĩº",
        -9.365414827912314
      ],
      [
        "æ®µ",
        -9.366314948450027
      ],
      [
        "ä½łåĪ«",
        -9.36680887363061
      ],
      [
        "å¹´é¾Ħ",
        -9.366883667718769
      ],
      [
        "åĩī",
        -9.36746506365185
      ],
      [
        "ĠåħĪ",
        -9.368725152563863
      ],
      [
        "å³°",
        -9.368889594481509
      ],
      [
        "ä»ĸæĺ¯",
        -9.368918874293197
      ],
      [
        "çļĦæĥħåĨµ",
        -9.369303230105253
      ],
      [
        "åīįéĿ¢",
        -9.369318604157373
      ],
      [
        "ä¸ĭéĿ¢",
        -9.369685284093718
      ],
      [
        "å¹´è½»",
        -9.370186412203978
      ],
      [
        "ä»ĸä»¬çļĦ",
        -9.370381137695546
      ],
      [
        "æ¬ł",
        -9.370766791117147
      ],
      [
        "åŀĭ",
        -9.37183240371269
      ],
      [
        "Ķ",
        -9.372031585875531
      ],
      [
        "åĲĮæĹ¶",
        -9.372169714212472
      ],
      [
        "åįģåĪĨ",
        -9.372344751280917
      ],
      [
        "ä¸įåĸľæ¬¢",
        -9.372535907749215
      ],
      [
        "Ġè¿Ļæ¬¡",
        -9.372710841430095
      ],
      [
        "Ġæ¯ıå¤©",
        -9.372879048409061
      ],
      [
        "ĠåĹ¯åĹ¯",
        -9.373019304377324
      ],
      [
        "ĠæľĢè¿ĳ",
        -9.373225354245251
      ],
      [
        "éªĹ",
        -9.37382959854239
      ],
      [
        "è¡Įä¸º",
        -9.373916694786125
      ],
      [
        "èĦ¾æ°Ķ",
        -9.374737702651029
      ],
      [
        "åĩºéĹ¨",
        -9.375167923082063
      ],
      [
        "ç³»ç»Ł",
        -9.37528794631297
      ],
      [
        "æĽ¿",
        -9.375333019301415
      ],
      [
        "æ²ī",
        -9.375595937982446
      ],
      [
        "ç³ĸ",
        -9.376128113541913
      ],
      [
        "åĴĮä»ĸ",
        -9.376182083644657
      ],
      [
        "ç»ĵæĿŁ",
        -9.376800364832958
      ],
      [
        "å¥³æĢ§",
        -9.377653761068082
      ],
      [
        "ĠåĵİåĳĢ",
        -9.377683293611664
      ],
      [
        "æľīåħ³",
        -9.378498962300837
      ],
      [
        "æ£ĢæŁ¥",
        -9.379639304327117
      ],
      [
        "ĠçĦ¶åĲİæĪĳå°±",
        -9.379913334851082
      ],
      [
        "é½Ĳ",
        -9.380176747058231
      ],
      [
        "Ġéĺ¿",
        -9.380687554585828
      ],
      [
        "Ġè¿ŀ",
        -9.380722455908442
      ],
      [
        "æ±¤",
        -9.381145796356616
      ],
      [
        "è¿Ļä¸ªéĹ®é¢ĺ",
        -9.381242343932175
      ],
      [
        "å¢ŀåĬł",
        -9.381270685460457
      ],
      [
        "å¤©ä¸ĭ",
        -9.38131850118264
      ],
      [
        "è¿ĺä¼ļ",
        -9.381332796418615
      ],
      [
        "ĩ",
        -9.38146469914048
      ],
      [
        "åĵªéĩĮ",
        -9.381520784956386
      ],
      [
        "ĠçĽ®åīį",
        -9.381885387765113
      ],
      [
        "¸",
        -9.38262599233665
      ],
      [
        "µ",
        -9.38292465766526
      ],
      [
        "ĠéĤ£æĪĳä»¬",
        -9.384340488467995
      ],
      [
        "è°ĥæķ´",
        -9.384498917523164
      ],
      [
        "åĪ©çĶ¨",
        -9.384716742257078
      ],
      [
        "å¤§å¤«",
        -9.385022205839448
      ],
      [
        "èĽĭ",
        -9.385711203008182
      ],
      [
        "å°ıåŃ©",
        -9.386743799242314
      ],
      [
        "ä¸Īå¤«",
        -9.38685502211362
      ],
      [
        "éļı",
        -9.38707043665457
      ],
      [
        "æĢ§çļĦ",
        -9.38798058148619
      ],
      [
        "çļĩä¸Ĭ",
        -9.388262224608704
      ],
      [
        "å¸®å¿Ļ",
        -9.388733851638749
      ],
      [
        "å¤į",
        -9.388775483657524
      ],
      [
        "åĢ¼å¾Ĺ",
        -9.389684250659666
      ],
      [
        "å¾Īå¤ļäºº",
        -9.389847316517526
      ],
      [
        "åı«åģļ",
        -9.390262959252384
      ],
      [
        "å¥ĩ",
        -9.390688334432175
      ],
      [
        "Ġè¿ĻéĩĮæĺ¯",
        -9.390874709202581
      ],
      [
        "ĠæĪĳè¿ĺ",
        -9.390914478388158
      ],
      [
        "Ġåı«",
        -9.39128328824335
      ],
      [
        "æĹ¥åŃĲ",
        -9.39165149579809
      ],
      [
        "ä¸ģ",
        -9.391749952265673
      ],
      [
        "ĠæĪĳä¸įçŁ¥éģĵ",
        -9.391830077510448
      ],
      [
        "è·ŁçĿĢ",
        -9.392030581199979
      ],
      [
        "çĮľ",
        -9.39206559077694
      ],
      [
        "çĿĢæĢ¥",
        -9.392230991585055
      ],
      [
        "Ġä½łä¹Ł",
        -9.39272792887895
      ],
      [
        "Ġè®©æĪĳ",
        -9.392817027922748
      ],
      [
        "Ġåĥı",
        -9.393726103853739
      ],
      [
        "åģı",
        -9.393847410596525
      ],
      [
        "çļĦå£°éŁ³",
        -9.394113591146109
      ],
      [
        "çĪ¹",
        -9.394364566465354
      ],
      [
        "åĲİéĿ¢",
        -9.394864912361847
      ],
      [
        "çŃīçĿĢ",
        -9.395935839107825
      ],
      [
        "åŁºéĩĳ",
        -9.396006127438653
      ],
      [
        "è¿ĺå¾Ĺ",
        -9.396017548946073
      ],
      [
        "æĹ¥æľ¬äºº",
        -9.396022048899027
      ],
      [
        "æħ¢",
        -9.39639137971848
      ],
      [
        "æŃ£å¼ı",
        -9.397154438614844
      ],
      [
        "ä¹Łä¸įä¼ļ",
        -9.397783410294466
      ],
      [
        "äººçļĦ",
        -9.397847750361056
      ],
      [
        "æİ¥è§¦",
        -9.399358910310843
      ],
      [
        "åĨħå¿ĥ",
        -9.399825684112592
      ],
      [
        "Ġä½łæĺ¯ä¸įæĺ¯",
        -9.399880289974176
      ],
      [
        "å¤«å¦»",
        -9.400037758257865
      ],
      [
        "å¦»åŃĲ",
        -9.401881876960415
      ],
      [
        "ç¬¬ä¸Ģä¸ª",
        -9.401882665790806
      ],
      [
        "ĠæľīæĹ¶åĢĻ",
        -9.4021239893024
      ],
      [
        "å¤±åİ»",
        -9.402308968583647
      ],
      [
        "äºļ",
        -9.402315865023692
      ],
      [
        "åıĤä¸İ",
        -9.403206163973344
      ],
      [
        "Ġéļ¾éģĵ",
        -9.403480893240543
      ],
      [
        "éļıä¾¿",
        -9.403814938556032
      ],
      [
        "ä¸Ģçīĩ",
        -9.404486260041864
      ],
      [
        "ä¸įæĸŃ",
        -9.405874097508715
      ],
      [
        "çļĦæľºä¼ļ",
        -9.406438945751646
      ],
      [
        "Ġå¼ł",
        -9.406795896853653
      ],
      [
        "çĥ¦",
        -9.40704930851856
      ],
      [
        "Ġä½łä¸į",
        -9.407908406140361
      ],
      [
        "åºĬ",
        -9.408254433166565
      ],
      [
        "æłĩ",
        -9.408905101899864
      ],
      [
        "åĪ°çİ°åľ¨",
        -9.409494185089066
      ],
      [
        "ç©·",
        -9.409825640699001
      ],
      [
        "è´£ä»»",
        -9.411303650801264
      ],
      [
        "è®©å¥¹",
        -9.411391511854333
      ],
      [
        "è¿Ļä½į",
        -9.411444888751571
      ],
      [
        "çķĻä¸ĭ",
        -9.413007730419842
      ],
      [
        "å®ŀåľ¨",
        -9.413134610103045
      ],
      [
        "æ²Ļ",
        -9.413703407960716
      ],
      [
        "æłĩåĩĨ",
        -9.414657903710303
      ],
      [
        "Ġæĺ¯æĪĳ",
        -9.41485824707493
      ],
      [
        "ĠçĪ¸çĪ¸",
        -9.414865839319582
      ],
      [
        "äº¿",
        -9.414974798783105
      ],
      [
        "ĠæĪĳçľĭ",
        -9.4153767838867
      ],
      [
        "ä¸¾",
        -9.415934400606412
      ],
      [
        "æľīå¤ļ",
        -9.416251643376269
      ],
      [
        "æĹ©å°±",
        -9.41707023492605
      ],
      [
        "ĠæĪĳè¯´ä½ł",
        -9.4170885340931
      ],
      [
        "äºī",
        -9.417586479447689
      ],
      [
        "éĥ½å·²ç»ı",
        -9.417751561364362
      ],
      [
        "ļ",
        -9.417862569322374
      ],
      [
        "ĠæĹ¢çĦ¶",
        -9.418643130637529
      ],
      [
        "ç»Ļå¥¹",
        -9.418783686455463
      ],
      [
        "çĭ¬ç«ĭ",
        -9.419183943290111
      ],
      [
        "ä»Ģä¹Īåĳ¢",
        -9.42011321539146
      ],
      [
        "çº§",
        -9.421431586456944
      ],
      [
        "å®¤",
        -9.421787758393183
      ],
      [
        "æĪ¿éĹ´",
        -9.421835758630392
      ],
      [
        "å¢ŀéķ¿",
        -9.422224008331444
      ],
      [
        "æīĢè°ĵçļĦ",
        -9.422252767291539
      ],
      [
        "æīĺ",
        -9.4224022118247
      ],
      [
        "åħļ",
        -9.422850701197852
      ],
      [
        "åģļä»Ģä¹Ī",
        -9.424789477532658
      ],
      [
        "Ġåĵ¦",
        -9.424813772336975
      ],
      [
        "åĨįæ¬¡",
        -9.425121661644527
      ],
      [
        "åľ¨åĵªåĦ¿",
        -9.425198515639423
      ],
      [
        "è¿½æ±Ĥ",
        -9.426090275528528
      ],
      [
        "ĠæĽ´",
        -9.42672460018397
      ],
      [
        "æĦŁè°¢",
        -9.427325120849273
      ],
      [
        "æĮĳæĪĺ",
        -9.427591563873332
      ],
      [
        "è¦ģåİ»",
        -9.427608567622869
      ],
      [
        "åŃ¤çĭ¬",
        -9.42820208606711
      ],
      [
        "èĴĻ",
        -9.42821992248903
      ],
      [
        "ç¨ĭ",
        -9.4286024668613
      ],
      [
        "æĺ¾ç¤º",
        -9.428691805636593
      ],
      [
        "Ġå½ĵä½ł",
        -9.430222746165317
      ],
      [
        "æŀģ",
        -9.430673288858886
      ],
      [
        "èµļ",
        -9.431081519302596
      ],
      [
        "å§Ķå±Ī",
        -9.43175056781405
      ],
      [
        "åĬŀæ³ķ",
        -9.431796868948382
      ],
      [
        "ä¸ĭåįĪ",
        -9.432217866128
      ],
      [
        "æĤ£èĢħ",
        -9.433008190461443
      ],
      [
        "æĶ¾å¿ĥ",
        -9.43346147667507
      ],
      [
        "çĶŁåĳ½",
        -9.433680073119092
      ],
      [
        "æ¼Ķåĳĺ",
        -9.437028663149263
      ],
      [
        "è§Ħå®ļ",
        -9.438305567894151
      ],
      [
        "ĠçĶ¨",
        -9.438771636321704
      ],
      [
        "å®Ŀå®Ŀ",
        -9.439192946598657
      ],
      [
        "åĸĦ",
        -9.439616317601704
      ],
      [
        "é£ŀæľº",
        -9.439633134174878
      ],
      [
        "å°ıæľĭåıĭ",
        -9.44158045832566
      ],
      [
        "ç®Ĺæĺ¯",
        -9.442546082387711
      ],
      [
        "Ĭ",
        -9.442783861891888
      ],
      [
        "å¤§æ¦Ĥ",
        -9.44344146707688
      ],
      [
        "è®¾è®¡",
        -9.44460922384064
      ],
      [
        "å®Ĺ",
        -9.445670640091908
      ],
      [
        "å¯¹è±¡",
        -9.446121841270987
      ],
      [
        "æĸĹ",
        -9.44616763919375
      ],
      [
        "æ±½è½¦",
        -9.446231789701159
      ],
      [
        "Ľ",
        -9.446612952017468
      ],
      [
        "å®ĥçļĦ",
        -9.44671131071571
      ],
      [
        "ä¸¤å¹´",
        -9.447215757633845
      ],
      [
        "å·´",
        -9.447337749721953
      ],
      [
        "è½®",
        -9.44754443989613
      ],
      [
        "ĠåĪĺ",
        -9.447921075056243
      ],
      [
        "¶",
        -9.44871226241507
      ],
      [
        "ç«ŁçĦ¶",
        -9.449289577924064
      ],
      [
        "å¹¶ä¸įæĺ¯",
        -9.449721827321657
      ],
      [
        "æ¯Ķå¦Ĥè¯´",
        -9.449832404169323
      ],
      [
        "çļĦæĦŁæĥħ",
        -9.450156145438989
      ],
      [
        "éĹ®ä»ĸ",
        -9.45022181212917
      ],
      [
        "Ġçİĭ",
        -9.450324571354642
      ],
      [
        "èģĶ",
        -9.45054220251738
      ],
      [
        "ä¹Łè¦ģ",
        -9.450649526591258
      ],
      [
        "æĪĳä¼ļ",
        -9.450770861428161
      ],
      [
        "å°±è¡ĮäºĨ",
        -9.450874181234825
      ],
      [
        "æıĲåīį",
        -9.452340422189906
      ],
      [
        "º",
        -9.45249672917873
      ],
      [
        "ä¸ĢæĬĬ",
        -9.453245270475165
      ],
      [
        "ä¹Łå°±",
        -9.453465560688215
      ],
      [
        "ĠæĢİä¹ĪäºĨ",
        -9.453811338891011
      ],
      [
        "æĸĻ",
        -9.453824716582345
      ],
      [
        "çº¸",
        -9.454227163081516
      ],
      [
        "èĢĥè¯ķ",
        -9.454524719297906
      ],
      [
        "çĭ¬",
        -9.454916724349385
      ],
      [
        "å¤±è´¥",
        -9.455760166307929
      ],
      [
        "æľīäºĨ",
        -9.45604652672143
      ],
      [
        "æŀľ",
        -9.456328114055204
      ],
      [
        "åĩı",
        -9.456421372922511
      ],
      [
        "¤",
        -9.456614023686615
      ],
      [
        "çľĭåĪ°äºĨ",
        -9.457209622704733
      ],
      [
        "å¼¹",
        -9.457460043509288
      ],
      [
        "æ¸©",
        -9.457505357388982
      ],
      [
        "éĺ¶æ®µ",
        -9.45789287417843
      ],
      [
        "åįļ",
        -9.458477450492564
      ],
      [
        "ç¼º",
        -9.458676464582652
      ],
      [
        "å®¶éķ¿",
        -9.459733604700975
      ],
      [
        "å¯Ĩ",
        -9.45993090982586
      ],
      [
        "å¦¹åŃĲ",
        -9.46072002605449
      ],
      [
        "ç´ł",
        -9.46104817081655
      ],
      [
        "åįł",
        -9.461142903364028
      ],
      [
        "åľĪ",
        -9.461969854326384
      ],
      [
        "Ġå°±ç®Ĺ",
        -9.462354669975971
      ],
      [
        "¾",
        -9.46262509826877
      ],
      [
        "è§īå¾Ĺèĩªå·±",
        -9.462890401911284
      ],
      [
        "çļĦå¤§",
        -9.463305191014566
      ],
      [
        "ĠåĪļæīį",
        -9.465212689152647
      ],
      [
        "å±Ĥ",
        -9.465793306645114
      ],
      [
        "çķĻè¨Ģ",
        -9.465929978817035
      ],
      [
        "§",
        -9.46608232624969
      ],
      [
        "æĲ¬",
        -9.467896253049325
      ],
      [
        "æīĭéĩĮ",
        -9.469325831999196
      ],
      [
        "åŃ¦ä¼ļ",
        -9.469872814150587
      ],
      [
        "å°ģ",
        -9.470477959828827
      ],
      [
        "åİīå®³",
        -9.470513482354779
      ],
      [
        "è¿Ļä¸ªä¸ľè¥¿",
        -9.470747347146084
      ],
      [
        "çĽ®",
        -9.470993375571938
      ],
      [
        "éĹ»",
        -9.471171988331772
      ],
      [
        "ĠæĪĳåĳĬè¯īä½ł",
        -9.471833062686224
      ],
      [
        "çĽĽ",
        -9.47184098874432
      ],
      [
        "Ġæľīäºº",
        -9.471909671229174
      ],
      [
        "åıĳå¸ĥ",
        -9.472010066976274
      ],
      [
        "è¿·",
        -9.472033389428113
      ],
      [
        "å®¶çļĦ",
        -9.472213381582153
      ],
      [
        "æĸ¹åĲĳ",
        -9.472584256582426
      ],
      [
        "å¾Ĳ",
        -9.47325317795114
      ],
      [
        "æĹħæ¸¸",
        -9.473463692059992
      ],
      [
        "æģ¢å¤į",
        -9.473466935165582
      ],
      [
        "é¡¾",
        -9.473963636638658
      ],
      [
        "æºĲ",
        -9.474665049115343
      ],
      [
        "éĩĳèŀį",
        -9.475578111706847
      ],
      [
        "äºĶçĻ¾",
        -9.475580297413753
      ],
      [
        "åģļå¥½",
        -9.476044603844384
      ],
      [
        "Ŀ",
        -9.476936706385496
      ],
      [
        "åĩĨ",
        -9.477356298517133
      ],
      [
        "æĪĳä»¬ä¿©",
        -9.477414894598914
      ],
      [
        "Ġåıª",
        -9.477944610537214
      ],
      [
        "éĽħ",
        -9.478269710144136
      ],
      [
        "åĴĮæĪĳ",
        -9.478478201311137
      ],
      [
        "éľ²",
        -9.479049806517857
      ],
      [
        "å±ħ",
        -9.47944044509691
      ],
      [
        "èĤ¯å®ļæĺ¯",
        -9.4795185243965
      ],
      [
        "åĽĽåįģ",
        -9.479643208901464
      ],
      [
        "Ġä½łä¸įæĺ¯",
        -9.480047301523062
      ],
      [
        "è·Łå¥¹",
        -9.481236452333045
      ],
      [
        "Ġå¹¶ä¸Ķ",
        -9.481391661391704
      ],
      [
        "åĴĭ",
        -9.482141616191893
      ],
      [
        "æľĢå¥½",
        -9.482233366666868
      ],
      [
        "æ¢¦æĥ³",
        -9.482561575966095
      ],
      [
        "åįĩ",
        -9.482625810935424
      ],
      [
        "è·ŁæĪĳä»¬",
        -9.483139833673636
      ],
      [
        "æ¯į",
        -9.483192774826087
      ],
      [
        "è´´",
        -9.483484268114415
      ],
      [
        "æł¹æľ¬",
        -9.483784569380749
      ],
      [
        "æķ¬",
        -9.484722559524034
      ],
      [
        "èĥľ",
        -9.485349155835834
      ],
      [
        "å¾ĹäºĨ",
        -9.485489774388158
      ],
      [
        "·",
        -9.486162100925805
      ],
      [
        "åĿĲåľ¨",
        -9.486257137296732
      ],
      [
        "èº²",
        -9.487131346440412
      ],
      [
        "èĢģäºº",
        -9.487179298154544
      ],
      [
        "æ¢ģ",
        -9.488167432933839
      ],
      [
        "ä»ĸè¯´",
        -9.488426020639768
      ],
      [
        "å®½",
        -9.488795623182664
      ],
      [
        "çĪ±ä½ł",
        -9.489009365420282
      ],
      [
        "å¿ĥçģµ",
        -9.489748848241053
      ],
      [
        "åľ°åĮº",
        -9.490355465028014
      ],
      [
        "äºĴçĽ¸",
        -9.490675283851543
      ],
      [
        "æĴĴ",
        -9.491085962033086
      ],
      [
        "è®¤",
        -9.491733247000903
      ],
      [
        "ĠçľŁæĺ¯",
        -9.491982669547799
      ],
      [
        "å¤ªå¤ª",
        -9.492016952474017
      ],
      [
        "æĶ¾ä¸ĭ",
        -9.492057482223032
      ],
      [
        "Ġæ²¡æĥ³åĪ°",
        -9.492142352265505
      ],
      [
        "å°±åľ¨",
        -9.492152864776585
      ],
      [
        "æĺ¯ä»ĸ",
        -9.492549586564238
      ],
      [
        "ä¸įåĨį",
        -9.492833620604575
      ],
      [
        "åĬ¿",
        -9.493043989792456
      ],
      [
        "å¸¦æĿ¥",
        -9.493421555231496
      ],
      [
        "ç¨³å®ļ",
        -9.493776303328396
      ],
      [
        "çİ°",
        -9.493935196951284
      ],
      [
        "åĬĿ",
        -9.495263928931347
      ],
      [
        "å¹¿",
        -9.495901919537141
      ],
      [
        "åı«æĪĳ",
        -9.496466282546244
      ],
      [
        "æĪĳæĪĳ",
        -9.496779627887062
      ],
      [
        "æĥ³åĪ°",
        -9.496985451172955
      ],
      [
        "é£İéĻ©",
        -9.49762841453461
      ],
      [
        "äºĨå¾Īå¤ļ",
        -9.498182553447183
      ],
      [
        "èİ«",
        -9.498273075429164
      ],
      [
        "æ¯ĶèµĽ",
        -9.498633468609018
      ],
      [
        "å¥³åŃ©",
        -9.499064088878416
      ],
      [
        "åĿıäºĨ",
        -9.499254507008416
      ],
      [
        "ä¹ĭå¤ĸ",
        -9.500331774508599
      ],
      [
        "é¦ĸåħĪ",
        -9.500341171714407
      ],
      [
        "åľ¨å®¶éĩĮ",
        -9.500484779205046
      ],
      [
        "åį±éĻ©",
        -9.501246464126805
      ],
      [
        "ç©ºéĹ´",
        -9.501525699513707
      ],
      [
        "ç¤¼çī©",
        -9.501633048948118
      ],
      [
        "å°±æĺ¯ä½ł",
        -9.50228546347804
      ],
      [
        "è§ģåĪ°",
        -9.502389735958385
      ],
      [
        "è¯Ĺ",
        -9.502423882285932
      ],
      [
        "å¿ħ",
        -9.502505106271045
      ],
      [
        "çĳŀ",
        -9.503022259565924
      ],
      [
        "æķĮ",
        -9.503106670348329
      ],
      [
        "æĺ¯è¦ģ",
        -9.503829123141111
      ],
      [
        "æī¾ä½ł",
        -9.505077707816861
      ],
      [
        "éĤ£ä¸ªæĹ¶åĢĻ",
        -9.505196740121324
      ],
      [
        "å®¹",
        -9.505779621437219
      ],
      [
        "æī¾åĪ°äºĨ",
        -9.505829777032528
      ],
      [
        "æĢİä¹Īè¯´",
        -9.505957776931162
      ],
      [
        "éĻĨ",
        -9.506261817688056
      ],
      [
        "æĬĺ",
        -9.506533966191956
      ],
      [
        "İ",
        -9.506748360021923
      ],
      [
        "Ġçľĭ",
        -9.507075458799374
      ],
      [
        "éº¦",
        -9.507849034360728
      ],
      [
        "èĪŀ",
        -9.508178441559629
      ],
      [
        "æİ¥ä¸ĭæĿ¥",
        -9.508381239771609
      ],
      [
        "éĩįçĤ¹",
        -9.50872160890488
      ],
      [
        "éķ¿æľŁ",
        -9.508890839752667
      ],
      [
        "æŀ¶",
        -9.508962964585265
      ],
      [
        "æģ¶",
        -9.509058750711741
      ],
      [
        "èĻļ",
        -9.511395015667018
      ],
      [
        "ä½łçŁ¥éģĵåĲĹ",
        -9.511630756576068
      ],
      [
        "æĪ´",
        -9.511754341344869
      ],
      [
        "£",
        -9.512475848367867
      ],
      [
        "Ġè¦ģæĺ¯",
        -9.512977533577562
      ],
      [
        "æĢİæł·",
        -9.513352007331648
      ],
      [
        "è§ī",
        -9.513400726179082
      ],
      [
        "çļĦæĹ¥åŃĲ",
        -9.513792367100324
      ],
      [
        "äºĴåĬ¨",
        -9.513806112216788
      ],
      [
        "å¼ĢäºĨ",
        -9.514239118419683
      ],
      [
        "åģļåĩº",
        -9.51637362905879
      ],
      [
        "ĠæĪĳå·²ç»ı",
        -9.516553863932945
      ],
      [
        "Ġä½Ĩæĺ¯ä»ĸ",
        -9.517226602587591
      ],
      [
        "ä¸¥éĩį",
        -9.518428029565468
      ],
      [
        "åĳĬ",
        -9.518589358230852
      ],
      [
        "Ġä¸įèĥ½",
        -9.519074786771318
      ],
      [
        "è¿ĩå¾Ĺ",
        -9.519194055798149
      ],
      [
        "æ´»çĿĢ",
        -9.519360828891632
      ],
      [
        "å¯¼èĩ´",
        -9.519666617959654
      ],
      [
        "çĶŁæĦı",
        -9.520793322093116
      ],
      [
        "Ļ",
        -9.520864131560128
      ],
      [
        "æĩĤå¾Ĺ",
        -9.521080807337459
      ],
      [
        "Ĥ",
        -9.521206756903885
      ],
      [
        "çĶ·çĶŁ",
        -9.521245482390915
      ],
      [
        "ä½łæĥ³",
        -9.52215070688709
      ],
      [
        "èĵĿ",
        -9.522646387106363
      ],
      [
        "æľīæīĢ",
        -9.52332080235158
      ],
      [
        "åĲİæĤĶ",
        -9.523328491956946
      ],
      [
        "éľĢæ±Ĥ",
        -9.523773477595567
      ],
      [
        "ä¹Łå¾Ĺ",
        -9.524284622576035
      ],
      [
        "æĢĢ",
        -9.52435361329809
      ],
      [
        "åĳ³",
        -9.524490204961488
      ],
      [
        "Ġå¥½åĥı",
        -9.52453794281606
      ],
      [
        "æĢģåº¦",
        -9.52464730102745
      ],
      [
        "åıĳçİ°äºĨ",
        -9.52467185812441
      ],
      [
        "åĳĬè¯īä»ĸ",
        -9.525077226839358
      ],
      [
        "è®©èĩªå·±",
        -9.525403712344442
      ],
      [
        "éĤ£æĹ¶åĢĻ",
        -9.52567632478586
      ],
      [
        "æĭĸ",
        -9.525793724655886
      ],
      [
        "åħ¨çĲĥ",
        -9.526332952157176
      ],
      [
        "æľīä¸Ģç§į",
        -9.526645953304453
      ],
      [
        "è´¦",
        -9.528832377305935
      ],
      [
        "è®Ńç»ĥ",
        -9.529152499348747
      ],
      [
        "Ġå°±æĺ¯æĪĳ",
        -9.529165314087457
      ],
      [
        "ç¾Ĭ",
        -9.52956191672152
      ],
      [
        "æľĢç»Ī",
        -9.52966135175724
      ],
      [
        "ä¸Ģå®ļæĺ¯",
        -9.530618322966408
      ],
      [
        "å®£å¸ĥ",
        -9.53065034534226
      ],
      [
        "åĽŃ",
        -9.53161054332912
      ],
      [
        "Ġæĺ¯åķĬ",
        -9.53189045794391
      ],
      [
        "è§Ĵ",
        -9.533382762232073
      ],
      [
        "ä¸ŃçļĦ",
        -9.533658010796836
      ],
      [
        "ĵ",
        -9.533676896274537
      ],
      [
        "éħįåĲĪ",
        -9.5337426724813
      ],
      [
        "æĪĳçŁ¥éģĵ",
        -9.53404124555918
      ],
      [
        "åĲįåŃĹ",
        -9.534399564958173
      ],
      [
        "äººç±»",
        -9.534545748185236
      ],
      [
        "å¥ĸ",
        -9.537051143822222
      ],
      [
        "ç»Ļå¤§å®¶",
        -9.538044177918525
      ],
      [
        "äººä»¬",
        -9.538248207205076
      ],
      [
        "è´¢ç»ıèµĦè®¯",
        -9.538510976044414
      ],
      [
        "è½¯",
        -9.538640045656045
      ],
      [
        "èģªæĺİ",
        -9.538909389264942
      ],
      [
        "éļ¾è¿ĩ",
        -9.539104262552478
      ],
      [
        "æ°¸",
        -9.539313182700024
      ],
      [
        "åĿĩ",
        -9.539378453224659
      ],
      [
        "ç§¦",
        -9.539750279559513
      ],
      [
        "¹",
        -9.54009205502172
      ],
      [
        "æ¢ħ",
        -9.540822180084202
      ],
      [
        "ç§¯æŀģ",
        -9.541509227979105
      ],
      [
        "ç»ıèĲ¥",
        -9.541644074909449
      ],
      [
        "çļĦæĹ¶åĢĻåĳ¢",
        -9.54181748643124
      ],
      [
        "æĪĳä¸į",
        -9.542074110004762
      ],
      [
        "æĥ¹",
        -9.542370237741146
      ],
      [
        "æĪĳåľ¨",
        -9.5424812677412
      ],
      [
        "åĶ±æŃĮ",
        -9.542979286943467
      ],
      [
        "æ²¡æĥ³åĪ°",
        -9.543054261299583
      ],
      [
        "åº·",
        -9.543186990102491
      ],
      [
        "±",
        -9.543305796831628
      ],
      [
        "åį·",
        -9.543655121293215
      ],
      [
        "¥",
        -9.5436993666465
      ],
      [
        "è¢«äºº",
        -9.544216247221836
      ],
      [
        "åİļ",
        -9.544428672754286
      ],
      [
        "Ġè·Ł",
        -9.544840428019162
      ],
      [
        "æĺĵ",
        -9.545157697571181
      ],
      [
        "è¾ĵ",
        -9.545475341763652
      ],
      [
        "æ°´å¹³",
        -9.546541276588709
      ],
      [
        "ı",
        -9.546901144147828
      ],
      [
        "è¾Ľèĭ¦",
        -9.546918464237823
      ],
      [
        "ä¸įæĩĤ",
        -9.547060914344984
      ],
      [
        "åİ»å¹´",
        -9.547165117129587
      ],
      [
        "æĪĸèĢħæĺ¯",
        -9.547168869687718
      ],
      [
        "ĠçŃī",
        -9.547672683552026
      ],
      [
        "æīįä¼ļ",
        -9.547719452688439
      ],
      [
        "äºĭä¸ļ",
        -9.547834956040816
      ],
      [
        "æīĭæľ¯",
        -9.548679670556368
      ],
      [
        "éĻªä¼´",
        -9.550180902508028
      ],
      [
        "ä¸ŃåĮ»",
        -9.55116253306454
      ],
      [
        "å°±è¿Ļæł·",
        -9.551374088071126
      ],
      [
        "éĶĢåĶ®",
        -9.551383469765884
      ],
      [
        "åĸ½",
        -9.551599969195117
      ],
      [
        "åİĨåı²",
        -9.551602452805586
      ],
      [
        "å®³",
        -9.551624990146799
      ],
      [
        "è·Łä»ĸè¯´",
        -9.552477850693379
      ],
      [
        "è¿Ļä¹Īå¤§",
        -9.552754115841214
      ],
      [
        "è¿ĺä¸į",
        -9.552915331996015
      ],
      [
        "ç»Ŀå¯¹",
        -9.552985934507038
      ],
      [
        "å¤«",
        -9.55348403814132
      ],
      [
        "å¹´è½»äºº",
        -9.554128573124277
      ],
      [
        "è§Ĩ",
        -9.55413815822082
      ],
      [
        "ä½łæĢİä¹Ī",
        -9.554352422223378
      ],
      [
        "ä¹Łä¸įèĥ½",
        -9.55448541068179
      ],
      [
        "Ġä½łè§īå¾Ĺ",
        -9.555183720131046
      ],
      [
        "æ³¡",
        -9.555391879661366
      ],
      [
        "ä¸įè¯´",
        -9.555479073113478
      ],
      [
        "ä»Ģä¹Īéĥ½",
        -9.555653214182477
      ],
      [
        "æģ¨",
        -9.556420796018681
      ],
      [
        "æĶ¶åħ¥",
        -9.556509903627834
      ],
      [
        "æ²¡ä»Ģä¹Ī",
        -9.556721869256258
      ],
      [
        "åķ¥åĳĢ",
        -9.556872647392584
      ],
      [
        "ä¸ĢçĶŁ",
        -9.557211435534246
      ],
      [
        "éĹ¨åı£",
        -9.557445009986365
      ],
      [
        "Ġå¯¹ä¸įèµ·",
        -9.557829017623105
      ],
      [
        "éļ¾åıĹ",
        -9.557950148604792
      ],
      [
        "çĶ·çļĦ",
        -9.558168424753616
      ],
      [
        "å¿ĥæĥħ",
        -9.558495243649288
      ],
      [
        "ä¸ĵ",
        -9.55862585913533
      ],
      [
        "éĵ¶",
        -9.559221407420475
      ],
      [
        "èģĮ",
        -9.559516184419447
      ],
      [
        "ä¸įå¦Ĥ",
        -9.559954414758536
      ],
      [
        "æľīä¸Ģå¤©",
        -9.560308137536458
      ],
      [
        "ç¼ĸ",
        -9.560370043520523
      ],
      [
        "å¥¹çļĦ",
        -9.56046276220079
      ],
      [
        "ä½łå¦Ī",
        -9.560487537619462
      ],
      [
        "ç§ģ",
        -9.560568269054581
      ],
      [
        "è¯º",
        -9.560910471324027
      ],
      [
        "çļĦå°±æĺ¯",
        -9.561364504458913
      ],
      [
        "Ġè¿Ļä¸įæĺ¯",
        -9.561681660961476
      ],
      [
        "®",
        -9.561818131730885
      ],
      [
        "æľ±",
        -9.56248387059451
      ],
      [
        "æıĲé«ĺ",
        -9.562599791471314
      ],
      [
        "æĶ¯",
        -9.562608365773938
      ],
      [
        "çħ§çīĩ",
        -9.563207709744713
      ],
      [
        "åľ¨æĪĳ",
        -9.563223197506716
      ],
      [
        "çŃĶåºĶ",
        -9.563593153023891
      ],
      [
        "¡",
        -9.563917883884464
      ],
      [
        "æĹ¶ä»£",
        -9.564299608443022
      ],
      [
        "ä¹ħ",
        -9.564639575262726
      ],
      [
        "éĿ¢åŃĲ",
        -9.564981398795275
      ],
      [
        "æľºæŀĦ",
        -9.565256832012347
      ],
      [
        "éĹ²",
        -9.565374123730416
      ],
      [
        "æĻ¯",
        -9.565872347302019
      ],
      [
        "åĽĽå¹´",
        -9.566617248607677
      ],
      [
        "æĦŁåıĹ",
        -9.567779478270417
      ],
      [
        "æĺİç¡®",
        -9.568541972164542
      ],
      [
        "å±ĭ",
        -9.568803521514004
      ],
      [
        "åĬ³",
        -9.569074527143224
      ],
      [
        "åĪĹ",
        -9.569435086817105
      ],
      [
        "åĩºçİ°äºĨ",
        -9.570041980609854
      ],
      [
        "éŃĶ",
        -9.570521621794624
      ],
      [
        "åģļé¥Ń",
        -9.5707713082459
      ],
      [
        "äºĭä»¶",
        -9.57100207227178
      ],
      [
        "æĥĬ",
        -9.571272172308486
      ],
      [
        "Ġå¸ĮæľĽ",
        -9.571392416878512
      ],
      [
        "æĺ¯è¿Ļæł·",
        -9.572114080748861
      ],
      [
        "æĺ¯æĪĳä»¬",
        -9.572333996371384
      ],
      [
        "å¯¹èĩªå·±",
        -9.572404938424716
      ],
      [
        "å½ķ",
        -9.57334874827233
      ],
      [
        "åī§",
        -9.573395736063866
      ],
      [
        "æī¾ä¸ª",
        -9.573522344476691
      ],
      [
        "æĶ¶æĭ¾",
        -9.573547722332501
      ],
      [
        "çľĭä½ł",
        -9.574506693272241
      ],
      [
        "ä¸ŃåĽ½äºº",
        -9.574587869120183
      ],
      [
        "ç½ĳåıĭ",
        -9.575003264255404
      ],
      [
        "äº²èĩª",
        -9.576523855353983
      ],
      [
        "ä¾ĭ",
        -9.576594793571008
      ],
      [
        "åķĨéĩı",
        -9.576596661557659
      ],
      [
        "æ²Ī",
        -9.576691852387606
      ],
      [
        "é¦Ļæ¸¯",
        -9.576902362935648
      ],
      [
        "èŃ¦",
        -9.577067534639038
      ],
      [
        "è¶³",
        -9.577540647898285
      ],
      [
        "å±ħçĦ¶",
        -9.578761819562708
      ],
      [
        "å°±å¥½äºĨ",
        -9.579109343320827
      ],
      [
        "æĢ§æł¼",
        -9.579609053237062
      ],
      [
        "ä¹¡",
        -9.579955215254373
      ],
      [
        "èĦ±",
        -9.580114558641679
      ],
      [
        "æĿ¥èĩª",
        -9.580281903704659
      ],
      [
        "ĠçĽ´åĪ°",
        -9.581021729315239
      ],
      [
        "èĩªä¿¡",
        -9.581335569651092
      ],
      [
        "çľĭäºĨ",
        -9.581562958368696
      ],
      [
        "ī",
        -9.581835808827412
      ],
      [
        "Ġä½ĨæĪĳ",
        -9.58211951577539
      ],
      [
        "å¾®ä¿¡åħ¬ä¼Ĺåı·",
        -9.583092251411815
      ],
      [
        "Ġæł¹æį®",
        -9.58322356172033
      ],
      [
        "å°ĨæĿ¥",
        -9.583493476899315
      ],
      [
        "Ġä¸ī",
        -9.583503165179792
      ],
      [
        "æ¸©æŁĶ",
        -9.58355049138109
      ],
      [
        "è¯į",
        -9.583677260794843
      ],
      [
        "æĬĬè¿Ļ",
        -9.583768731822214
      ],
      [
        "æļĹ",
        -9.583908307512084
      ],
      [
        "éĤ£éĩĮ",
        -9.584456910325104
      ],
      [
        "Ĳ",
        -9.584729742264548
      ],
      [
        "æī§è¡Į",
        -9.584780560654952
      ],
      [
        "éĽĨ",
        -9.586317880230474
      ],
      [
        "æŃ£å¥½",
        -9.586469291516998
      ],
      [
        "ç²ī",
        -9.586480800167118
      ],
      [
        "åıįæŃ£",
        -9.586570592810768
      ],
      [
        "ĠæĪĸèĢħæĺ¯",
        -9.586703579659908
      ],
      [
        "Ġä¸º",
        -9.586721165412502
      ],
      [
        "èĤļåŃĲ",
        -9.587114150294486
      ],
      [
        "æĳ¸",
        -9.5871479018742
      ],
      [
        "éĥ¨éĹ¨",
        -9.58741700829665
      ],
      [
        "èĤ¡ä»½",
        -9.587960266792804
      ],
      [
        "Ġè®©ä»ĸ",
        -9.588126850773493
      ],
      [
        "ĠçľĭæĿ¥",
        -9.588233224445096
      ],
      [
        "ä¸įéľĢè¦ģ",
        -9.588287628914562
      ],
      [
        "æĹ¢çĦ¶",
        -9.58930370739603
      ],
      [
        "è®©ä»ĸä»¬",
        -9.5897182713875
      ],
      [
        "ĠæĪĳè·Łä½łè¯´",
        -9.590104225914644
      ],
      [
        "ä¹ĿçĤ¹",
        -9.590240804199492
      ],
      [
        "è¯´æĺ¯",
        -9.590330178157554
      ],
      [
        "çĵ¶",
        -9.59065974189388
      ],
      [
        "Ġä½łè¦ģæĺ¯",
        -9.590986638292016
      ],
      [
        "åĩ¡",
        -9.591067356591005
      ],
      [
        "è¿ĩå¹´",
        -9.591122309776669
      ],
      [
        "çļĦæĹ¶åĢĻåķĬ",
        -9.592126731096155
      ],
      [
        "è§Ĥå¯Ł",
        -9.592817632615926
      ],
      [
        "èĩŃ",
        -9.593259091841457
      ],
      [
        "åĩ»",
        -9.593929121876082
      ],
      [
        "ä»¥ä¸Ĭ",
        -9.594507123271661
      ],
      [
        "å²Ľ",
        -9.594766368774707
      ],
      [
        "æĹı",
        -9.595636108625449
      ],
      [
        "å¢Ļ",
        -9.595946646003394
      ],
      [
        "èĭ±éĽĦ",
        -9.596137389432858
      ],
      [
        "æļĤæĹ¶",
        -9.596320091730895
      ],
      [
        "èŃ¦æĸ¹",
        -9.596936453065632
      ],
      [
        "æĦŁåĬ¨",
        -9.597183663094075
      ],
      [
        "è·ĳäºĨ",
        -9.597875697369084
      ],
      [
        "äº§çĶŁ",
        -9.598326707315962
      ],
      [
        "Ĵ",
        -9.599050319214268
      ],
      [
        "Ġä»ĸä¹Ł",
        -9.59950159810071
      ],
      [
        "åįĬå¹´",
        -9.599795549001659
      ],
      [
        "åį«",
        -9.600064713019528
      ],
      [
        "Ġä½łä¼ļ",
        -9.600093694259932
      ],
      [
        "æĬ¤",
        -9.603481342159693
      ],
      [
        "é¦Ĩ",
        -9.603599903680502
      ],
      [
        "ä¸ľåĮĹ",
        -9.604080771075168
      ],
      [
        "å·Ŀ",
        -9.604187335355215
      ],
      [
        "åĲ¬äºĨ",
        -9.604353740493394
      ],
      [
        "Ġè¢«",
        -9.604587971572919
      ],
      [
        "æĹģè¾¹",
        -9.60546406243795
      ],
      [
        "èµļéĴ±",
        -9.605919364331553
      ],
      [
        "äºĨä¸Ģä¸ĭ",
        -9.606510209358863
      ],
      [
        "äº§ä¸ļ",
        -9.60691569176582
      ],
      [
        "æĪĳåİ»",
        -9.607129117897784
      ],
      [
        "ä¹Łå¾Ī",
        -9.607432229249223
      ],
      [
        "çŃīä½ł",
        -9.60788013100898
      ],
      [
        "å¼ı",
        -9.608292755620539
      ],
      [
        "å¼Ģè½¦",
        -9.60840427069811
      ],
      [
        "ä¸įåĩº",
        -9.60852489060915
      ],
      [
        "ç³»",
        -9.608829729324075
      ],
      [
        "æ³ķå¾ĭ",
        -9.609001666165849
      ],
      [
        "ä¸įå°ĳ",
        -9.609469357012703
      ],
      [
        "ĠéĤ£å°±æĺ¯",
        -9.609722359605978
      ],
      [
        "ç»´",
        -9.610171749862168
      ],
      [
        "æī¾ä¸įåĪ°",
        -9.610615279276946
      ],
      [
        "ä»Ļ",
        -9.610696865357468
      ],
      [
        "èĪĴæľį",
        -9.610814754525546
      ],
      [
        "å¼łå¾·èĬ¬",
        -9.611013175878178
      ],
      [
        "åĵį",
        -9.611447190205046
      ],
      [
        "æł¹æį®",
        -9.61164474768086
      ],
      [
        "ä¸ºä»Ģä¹Īè¦ģ",
        -9.612113550978801
      ],
      [
        "åĮ»",
        -9.612218194251962
      ],
      [
        "ä»İæĿ¥æ²¡æľī",
        -9.612382645518498
      ],
      [
        "èĥĮåĲİ",
        -9.612550165501169
      ],
      [
        "éĻį",
        -9.612819529338736
      ],
      [
        "ä¸ĢåĿĹåĦ¿",
        -9.613805334958698
      ],
      [
        "åİ»çľĭ",
        -9.614038349314345
      ],
      [
        "è§Ħæ¨¡",
        -9.61421395758843
      ],
      [
        "é¬¼åŃĲ",
        -9.614389118446859
      ],
      [
        "Ġæİ¥ä¸ĭæĿ¥",
        -9.615064943128672
      ],
      [
        "Ġæĺ¨å¤©",
        -9.615683393578824
      ],
      [
        "å¤´åıĳ",
        -9.615779607705875
      ],
      [
        "æĸ¹æ¡Ī",
        -9.615978613633182
      ],
      [
        "ç¬¬ä¸ī",
        -9.616019414154968
      ],
      [
        "å·¥èµĦ",
        -9.616229472157485
      ],
      [
        "ĠæĪĳçľŁçļĦ",
        -9.616430251615665
      ],
      [
        "çľĭè¿ĩ",
        -9.617093234722969
      ],
      [
        "ç¢°",
        -9.617377563848336
      ],
      [
        "åĽĽä¸ª",
        -9.618311085290092
      ],
      [
        "ç»ĻæĤ¨",
        -9.618502470669862
      ],
      [
        "å¤§å®¶éĥ½",
        -9.619027195261738
      ],
      [
        "å¤ļå°ĳéĴ±",
        -9.619241190669843
      ],
      [
        "Ġåı¯æĺ¯æĪĳ",
        -9.619659625372098
      ],
      [
        "å¾Ĺå¾Ī",
        -9.619714113527467
      ],
      [
        "æ²¡æľīåĬŀæ³ķ",
        -9.620092598486696
      ],
      [
        "è¯¶",
        -9.620295777458757
      ],
      [
        "åįķèº«",
        -9.620387593036817
      ],
      [
        "çĺ¦",
        -9.620439150201907
      ],
      [
        "çĭĤ",
        -9.62055572966932
      ],
      [
        "ĠåĲĮæĹ¶",
        -9.620734376253886
      ],
      [
        "å°±å¼Ģå§ĭ",
        -9.62110256641768
      ],
      [
        "å½»åºķ",
        -9.62124045207484
      ],
      [
        "æ¬¢",
        -9.621444449373747
      ],
      [
        "į",
        -9.621447837598156
      ],
      [
        "Ł",
        -9.621875654738584
      ],
      [
        "è´¢",
        -9.62212295733691
      ],
      [
        "éĺ³åħī",
        -9.62297092291953
      ],
      [
        "Ġä½łèĥ½",
        -9.622990779003938
      ],
      [
        "çķĮ",
        -9.623188922858546
      ],
      [
        "Ħ",
        -9.62336451475047
      ],
      [
        "èµĽ",
        -9.623516263427215
      ],
      [
        "åĢº",
        -9.623733466167998
      ],
      [
        "é«ĺèĢĥ",
        -9.62387269755265
      ],
      [
        "ä¸įä½ı",
        -9.624960894856596
      ],
      [
        "çļĦéĤ£",
        -9.625144579059725
      ],
      [
        "æĺ¯æĪĳçļĦ",
        -9.625323931225964
      ],
      [
        "è´¨",
        -9.626004283661965
      ],
      [
        "è¯´è¯´",
        -9.626274324320129
      ],
      [
        "çŀİ",
        -9.627230133031365
      ],
      [
        "çļĦæĦıæĢĿ",
        -9.62780494058365
      ],
      [
        "æ¯ķä¸ļ",
        -9.62832504348955
      ],
      [
        "å£«",
        -9.628835902208277
      ],
      [
        "å¯¹å¾ħ",
        -9.628896372763744
      ],
      [
        "ĠæĪĳè·Ł",
        -9.629157759315785
      ],
      [
        "éĶħ",
        -9.629658037180135
      ],
      [
        "°",
        -9.630048560174668
      ],
      [
        "æī£",
        -9.630262043430427
      ],
      [
        "åĽ½åĨħ",
        -9.630415834662845
      ],
      [
        "ä¸ĭäºĨ",
        -9.630427408205431
      ],
      [
        "æĬ¥éģĵ",
        -9.630812199437626
      ],
      [
        "è·¯ä¸Ĭ",
        -9.631320915088573
      ],
      [
        "åħ¬åŃĲ",
        -9.63159481321147
      ],
      [
        "å°±ç®Ĺ",
        -9.631614018577672
      ],
      [
        "Ģ",
        -9.632112573336542
      ],
      [
        "æ»ļ",
        -9.63211768909511
      ],
      [
        "æıĲåįĩ",
        -9.632935000782238
      ],
      [
        "æ²¡æľīä»Ģä¹Ī",
        -9.633552132489754
      ],
      [
        "çī©è´¨",
        -9.633658432748998
      ],
      [
        "è¿Ľä¸ĢæŃ¥",
        -9.634804621200406
      ],
      [
        "å°ıæĹ¶åĢĻ",
        -9.634820333817228
      ],
      [
        "æŃ»äº¡",
        -9.635075483933885
      ],
      [
        "å·§",
        -9.635675593635884
      ],
      [
        "åħ¨éĥ½",
        -9.635826313525818
      ],
      [
        "æİīäºĨ",
        -9.636240447866612
      ],
      [
        "è¯ģåĪ¸",
        -9.63682288763206
      ],
      [
        "æĥ³è±¡",
        -9.636930314276977
      ],
      [
        "æ´ŀ",
        -9.637765813188818
      ],
      [
        "¯",
        -9.638458584757956
      ],
      [
        "æĦıè§ģ",
        -9.638489420767439
      ],
      [
        "äºĮéĽ¶ä¸Ģä¹Ŀå¹´",
        -9.639627960794826
      ],
      [
        "ĠæĪĳä¸įæĺ¯",
        -9.640289854261514
      ],
      [
        "æĺ¯çľŁçļĦ",
        -9.640495571552002
      ],
      [
        "è®¡",
        -9.640953104108934
      ],
      [
        "åģļä¸Ģä¸ª",
        -9.641140749161064
      ],
      [
        "å¹¿å·ŀ",
        -9.641266251647966
      ],
      [
        "æĵį",
        -9.6420535680708
      ],
      [
        "ä¸Ģä¸ĩ",
        -9.642163574496063
      ],
      [
        "å½©",
        -9.642489892186052
      ],
      [
        "¨",
        -9.643072361712488
      ],
      [
        "éĩĩ",
        -9.643171409947122
      ],
      [
        "çĨĬ",
        -9.643413314401375
      ],
      [
        "ĠäººçĶŁ",
        -9.643515736134832
      ],
      [
        "ŀ",
        -9.64373821081223
      ],
      [
        "¼",
        -9.643963190691434
      ],
      [
        "åºĨ",
        -9.644060952618648
      ],
      [
        "çĹħäºº",
        -9.644097838041993
      ],
      [
        "æĺİæĺ¾",
        -9.644143046753072
      ],
      [
        "ĠéĻĪ",
        -9.644246572734648
      ],
      [
        "æľ¬èº«",
        -9.644316367079362
      ],
      [
        "éħ¸",
        -9.644725445261527
      ],
      [
        "æıĲéĨĴ",
        -9.64550225630502
      ],
      [
        "æĭ¼",
        -9.645930742735137
      ],
      [
        "ĠæĪĳå¦Ī",
        -9.646044541881832
      ],
      [
        "åĵŁ",
        -9.646050929048124
      ],
      [
        "å¯»æī¾",
        -9.646120399774617
      ],
      [
        "éħĴåºĹ",
        -9.646716101911437
      ],
      [
        "äººæ°ĳ",
        -9.647423404198651
      ],
      [
        "æĴŀ",
        -9.64746532486309
      ],
      [
        "åľĨ",
        -9.647962356473267
      ],
      [
        "æĥ³æ³ķ",
        -9.648165396798504
      ],
      [
        "ä½³",
        -9.648903962723717
      ],
      [
        "ĠéĤ£äºĽ",
        -9.648917930147238
      ],
      [
        "ç»ıéªĮ",
        -9.649248958910423
      ],
      [
        "ĳ",
        -9.6496964507357
      ],
      [
        "éĤ£ä½ł",
        -9.65106391573521
      ],
      [
        "åºľ",
        -9.651269180214573
      ],
      [
        "çļĦæĢģåº¦",
        -9.651274550038128
      ],
      [
        "æĦıå¤ĸ",
        -9.65252592414036
      ],
      [
        "å°±æ²¡æľī",
        -9.65253525660247
      ],
      [
        "å¼±",
        -9.652699542570888
      ],
      [
        "æĶ¿",
        -9.653582569704813
      ],
      [
        "ç«ł",
        -9.654170820398068
      ],
      [
        "åıĹåĪ°",
        -9.65424062170071
      ],
      [
        "ä½ĵéªĮ",
        -9.655354244550699
      ],
      [
        "æĺİçĻ½äºĨ",
        -9.655383080625676
      ],
      [
        "æĵ¦",
        -9.655546821832267
      ],
      [
        "åĴ¬",
        -9.655659425981842
      ],
      [
        "ä¸¤åįĥ",
        -9.655708095995482
      ],
      [
        "åħ±äº§åħļ",
        -9.65579719290553
      ],
      [
        "çļĦæĥ³æ³ķ",
        -9.656087117749214
      ],
      [
        "çŁ¥éģĵåĲĹ",
        -9.656645583720364
      ],
      [
        "ä¸ĵéĹ¨",
        -9.656801359857877
      ],
      [
        "åıĺæĪĲäºĨ",
        -9.657248214898704
      ],
      [
        "å¼ķ",
        -9.657473995333813
      ],
      [
        "ä¸įå¥½æĦıæĢĿ",
        -9.657708122881495
      ],
      [
        "éķ¿å¤§",
        -9.658122220138637
      ],
      [
        "æĪĳè·Ł",
        -9.65843011975521
      ],
      [
        "ä¸įèµ·",
        -9.658756678874816
      ],
      [
        "è§Ĥä¼Ĺ",
        -9.659259418645721
      ],
      [
        "æĪ·",
        -9.659522281277976
      ],
      [
        "æĲŃ",
        -9.660233937377198
      ],
      [
        "æĤ¨çļĦ",
        -9.660235977415166
      ],
      [
        "è¿ĽäºĨ",
        -9.660406514948525
      ],
      [
        "è¯´æĺİ",
        -9.660438633604736
      ],
      [
        "ĠæĪĳçĪ¸",
        -9.660447668159179
      ],
      [
        "è°·",
        -9.660636125803489
      ],
      [
        "ä»·åĢ¼",
        -9.660679466668254
      ],
      [
        "çĲĨçĶ±",
        -9.660811193268552
      ],
      [
        "è®°ä½ı",
        -9.660836410092823
      ],
      [
        "å¼Ģçİ©ç¬ĳ",
        -9.661025304061008
      ],
      [
        "çĶµèĦĳ",
        -9.661182317504087
      ],
      [
        "ä¸įåľ¨",
        -9.661293097090603
      ],
      [
        "åľ¨å¤ĸéĿ¢",
        -9.661353683565245
      ],
      [
        "è¿Ļåı¥è¯Ŀ",
        -9.662510998697359
      ],
      [
        "Ġè¿Ļæĺ¯æĪĳ",
        -9.662583488189874
      ],
      [
        "å¾Īå¤§",
        -9.66279599744329
      ],
      [
        "æĶ¿æ²»",
        -9.662825429909079
      ],
      [
        "å¥¹ä»¬",
        -9.662913408899161
      ],
      [
        "Ġè¦ģä¸į",
        -9.662948985500627
      ],
      [
        "å°±è¿Ļä¹Ī",
        -9.66320072308054
      ],
      [
        "éĢŁ",
        -9.66325290235185
      ],
      [
        "æİ¨èįĲ",
        -9.663806164783892
      ],
      [
        "çļĦäººçĶŁ",
        -9.665045212646758
      ],
      [
        "å¿į",
        -9.665572624099987
      ],
      [
        "ä¸¢",
        -9.666143942637486
      ],
      [
        "éģĵæŃī",
        -9.666342224999376
      ],
      [
        "çĨŁ",
        -9.666367333475328
      ],
      [
        "ĠåĵªæĢķ",
        -9.666663022375456
      ],
      [
        "æµª",
        -9.666953771562701
      ],
      [
        "äº¤æĺĵ",
        -9.666994106856286
      ],
      [
        "è¿Ļä¹Īåģļ",
        -9.66706348330958
      ],
      [
        "åı²",
        -9.667691793214836
      ],
      [
        "å®¢æĪ·",
        -9.668265407285569
      ],
      [
        "æĬ±æĢ¨",
        -9.668763313563048
      ],
      [
        "è¥¿å®ī",
        -9.66918280266463
      ],
      [
        "æĥ³åĬŀæ³ķ",
        -9.669612349420214
      ],
      [
        "äºĨä¸ª",
        -9.670445048952907
      ],
      [
        "ä¹Łåľ¨",
        -9.671053666498466
      ],
      [
        "èīºæľ¯",
        -9.671172051967801
      ],
      [
        "ä¸įæĢķ",
        -9.671747477503185
      ],
      [
        "Ġä¸įä¼ļ",
        -9.671876838000973
      ],
      [
        "åģļåĪ°",
        -9.671930032668875
      ],
      [
        "ä¿¡ä»»",
        -9.67289549998588
      ],
      [
        "è´¥",
        -9.673059491498943
      ],
      [
        "æīĵäºĨ",
        -9.673418635454542
      ],
      [
        "æ´ĭ",
        -9.673523684095173
      ],
      [
        "ĠæĪĳä»Ĭå¤©",
        -9.673694026852111
      ],
      [
        "ä¸Ŀ",
        -9.673808080778336
      ],
      [
        "è¿Ļä»½",
        -9.67487732573627
      ],
      [
        "éŁ©",
        -9.675801974473552
      ],
      [
        "åľ¨éĤ£åĦ¿",
        -9.676384830486917
      ],
      [
        "åĸľæ¬¢ä½ł",
        -9.677059561102777
      ],
      [
        "è´Ł",
        -9.677277323116378
      ],
      [
        "éĹºå¥³",
        -9.677421796893931
      ],
      [
        "å¨ģ",
        -9.67758482943054
      ],
      [
        "ä»Ģä¹ĪçļĦ",
        -9.677614990782656
      ],
      [
        "çļĦå¿ĥ",
        -9.677976024999158
      ],
      [
        "é¢Ħ",
        -9.67817297130664
      ],
      [
        "ç§ĳåŃ¦",
        -9.678282998895266
      ],
      [
        "æ¸©æļĸ",
        -9.67842043437443
      ],
      [
        "å°±æĺ¯è¿ĻäºĽ",
        -9.678563897251987
      ],
      [
        "ĠæĹłè®º",
        -9.678713141551288
      ],
      [
        "å®ĩ",
        -9.679334961416222
      ],
      [
        "çĶľ",
        -9.67966739907951
      ],
      [
        "ä¸īåįĥ",
        -9.679739929102901
      ],
      [
        "å¥½åĲ§",
        -9.679809076270633
      ],
      [
        "æ¨¡å¼ı",
        -9.680034366311213
      ],
      [
        "ä¹ĭä¸ĭ",
        -9.680343218437256
      ],
      [
        "Ġä»¥åīį",
        -9.681294764923528
      ],
      [
        "è®¨åİĮ",
        -9.681393268671744
      ],
      [
        "å»ºç«ĭ",
        -9.681457460399821
      ],
      [
        "ä¸ĢåĪ»",
        -9.681508898191163
      ],
      [
        "æī¿è®¤",
        -9.681711033949622
      ],
      [
        "éĶģ",
        -9.681798414328878
      ],
      [
        "å¹²åķ¥",
        -9.682565479243099
      ],
      [
        "æĢĿèĢĥ",
        -9.683050868246992
      ],
      [
        "æĭĶ",
        -9.683754464419252
      ],
      [
        "è¡¨æ¼Ķ",
        -9.684750700316112
      ],
      [
        "ĠäºĮ",
        -9.685194928492194
      ],
      [
        "å¡ŀ",
        -9.685704280213553
      ],
      [
        "åĪĨå¼Ģ",
        -9.685714006832534
      ],
      [
        "æ²¡åħ³ç³»",
        -9.686246060008617
      ],
      [
        "äºĨä»ĸ",
        -9.686280080437406
      ],
      [
        "çŃ¾",
        -9.686395253939256
      ],
      [
        "æ»ĳ",
        -9.686805292089891
      ],
      [
        "ä¸įåºĶè¯¥",
        -9.6869731903172
      ],
      [
        "æľīçļĦæĹ¶åĢĻ",
        -9.687339076172691
      ],
      [
        "èĢ³",
        -9.687961059507561
      ],
      [
        "è´·æ¬¾",
        -9.688065080983524
      ],
      [
        "å¢ŀ",
        -9.689454742025035
      ],
      [
        "ä½ıäºĨ",
        -9.68949423527734
      ],
      [
        "è¿Ļä¸ªäºĭæĥħ",
        -9.689639636702816
      ],
      [
        "åħŃåįģ",
        -9.690527348332173
      ],
      [
        "å¼Ĥ",
        -9.690710049915818
      ],
      [
        "äºĮéĽ¶äºĮéĽ¶å¹´",
        -9.691587936077905
      ],
      [
        "è¿ĺæĮº",
        -9.691804791112036
      ],
      [
        "Į",
        -9.69381080466292
      ],
      [
        "å¥½åķĬ",
        -9.694140614435682
      ],
      [
        "Ġæ¯ıæ¬¡",
        -9.694182531993974
      ],
      [
        "çļĦåĲįåŃĹ",
        -9.695349010070572
      ],
      [
        "å¥³çļĦ",
        -9.696255202913632
      ],
      [
        "èħ°",
        -9.696358540728326
      ],
      [
        "åıĪæĺ¯",
        -9.696630391500573
      ],
      [
        "ä¸Ģåįĥ",
        -9.699340754095509
      ],
      [
        "æ¹ĸ",
        -9.699471435992688
      ],
      [
        "çļĦçĬ¶æĢģ",
        -9.699538442032225
      ],
      [
        "ç»ĨèĬĤ",
        -9.69957419877635
      ],
      [
        "æ¹¿",
        -9.699755118173998
      ],
      [
        "æī¯",
        -9.700594892316804
      ],
      [
        "çºłç»ĵ",
        -9.700801350315603
      ],
      [
        "çļĦè¯Ŀåĳ¢",
        -9.701076276979343
      ],
      [
        "æĬĬå¥¹",
        -9.70115700439781
      ],
      [
        "æķĮäºº",
        -9.701230388569215
      ],
      [
        "ä¸Ńå¤®",
        -9.701857580487786
      ],
      [
        "æī¾ä¸Ģä¸ª",
        -9.702433227033477
      ],
      [
        "è¡Ĺ",
        -9.702814529573551
      ],
      [
        "å°±æĺ¯ä¸Ģä¸ª",
        -9.703150383175826
      ],
      [
        "åıĳçĶŁäºĨ",
        -9.703348950259198
      ],
      [
        "åĪ«äººçļĦ",
        -9.703702515317312
      ],
      [
        "èĩ£",
        -9.704544039004283
      ],
      [
        "è¿ª",
        -9.70513105606118
      ],
      [
        "éģĵçĲĨ",
        -9.705303029723769
      ],
      [
        "ĠæĪĳæ²¡",
        -9.705548157220932
      ],
      [
        "å°¼",
        -9.705865485977169
      ],
      [
        "Ġæīį",
        -9.705962993933031
      ],
      [
        "æĹ¶æľŁ",
        -9.706109619534756
      ],
      [
        "åı¦å¤ĸ",
        -9.706906026630012
      ],
      [
        "å©Ĩå©Ĩ",
        -9.707096172433513
      ],
      [
        "ä½Ľ",
        -9.707149187692721
      ],
      [
        "Ġå¤ª",
        -9.70731098717482
      ],
      [
        "ĠæĪĳåı¯ä»¥",
        -9.708987064641637
      ],
      [
        "ç§ĺå¯Ĩ",
        -9.709175815568528
      ],
      [
        "éĻ¤",
        -9.709349396806209
      ],
      [
        "äºķ",
        -9.709767317132288
      ],
      [
        "å¤ĸéĿ¢",
        -9.709794454098564
      ],
      [
        "éĢĤåĲĪ",
        -9.709934114145277
      ],
      [
        "æ®µåŃĲ",
        -9.709940800056426
      ],
      [
        "æī¿æĭħ",
        -9.71092233150607
      ],
      [
        "èµĦäº§",
        -9.712024403688153
      ],
      [
        "ä¸¤å¤©",
        -9.71227235990223
      ],
      [
        "Ġåį³ä½¿",
        -9.71280133310199
      ],
      [
        "è®¤çľŁ",
        -9.713770849330821
      ],
      [
        "æķħæĦı",
        -9.714517897853703
      ],
      [
        "çĥŃçĤ¹",
        -9.714816642985838
      ],
      [
        "èĪª",
        -9.714820327210045
      ],
      [
        "ä¸įä»ħ",
        -9.714838938540986
      ],
      [
        "è¡ĮåĲĹ",
        -9.715229497614178
      ],
      [
        "çĪ¶",
        -9.715264521526707
      ],
      [
        "éĥĳ",
        -9.715494204529191
      ],
      [
        "Ń",
        -9.715538027953912
      ],
      [
        "é²ģ",
        -9.715912689913868
      ],
      [
        "çŁ¥è¯Ĩ",
        -9.71621595897164
      ],
      [
        "å®ŀæĸ½",
        -9.71635858465457
      ],
      [
        "å¿ĥä¸Ń",
        -9.71646443276953
      ],
      [
        "åĬĽéĩı",
        -9.716525882693887
      ],
      [
        "ç¥ĸ",
        -9.716527315286669
      ],
      [
        "åĬŀåħ¬å®¤",
        -9.716678261338766
      ],
      [
        "è¦ģä¸įè¦ģ",
        -9.716904572778159
      ],
      [
        "èĮĥ",
        -9.716972200075272
      ],
      [
        "æĮĩæķ°",
        -9.717129205804547
      ],
      [
        "ä¸įçŁ¥",
        -9.717316283344823
      ],
      [
        "å½¢æĪĲ",
        -9.717701499684836
      ],
      [
        "çī¹åĪ«å¥½",
        -9.718248850718329
      ],
      [
        "èĦĳåŃĲ",
        -9.718306025840672
      ],
      [
        "ĠåºĶè¯¥",
        -9.719354931111226
      ],
      [
        "Ġå¤ļ",
        -9.7197788881814
      ],
      [
        "ä¸ĢæĹ¦",
        -9.720648826439081
      ],
      [
        "åĪĽæĸ°",
        -9.721100906915924
      ],
      [
        "ä¸Ģéģį",
        -9.721295333978192
      ],
      [
        "é¡ºåĪ©",
        -9.721726917079017
      ],
      [
        "å°±å¥½",
        -9.721821975661513
      ],
      [
        "åı¸æľº",
        -9.721914012809517
      ],
      [
        "ä¸įåĲĮçļĦ",
        -9.722644022815803
      ],
      [
        "æĺ¯æĢİä¹Ī",
        -9.722658983829986
      ],
      [
        "å¹²åĩĢ",
        -9.724115016595178
      ],
      [
        "çļĦä½įç½®",
        -9.724285527173922
      ],
      [
        "åĲī",
        -9.724533460686065
      ],
      [
        "èĦ¸ä¸Ĭ",
        -9.724611162386116
      ],
      [
        "æıĴ",
        -9.725102025212065
      ],
      [
        "è®°å½ķ",
        -9.725140702682573
      ],
      [
        "ä½łéĥ½",
        -9.725156845563937
      ],
      [
        "æĦ¿",
        -9.725245956994923
      ],
      [
        "è¿Ļæł·åŃĲ",
        -9.72577402953522
      ],
      [
        "æĢİä¹Īèĥ½",
        -9.725786766114375
      ],
      [
        "åĵĦ",
        -9.725812351977364
      ],
      [
        "è·Ŀç¦»",
        -9.725871550415999
      ],
      [
        "ä¾Ľ",
        -9.725930284274487
      ],
      [
        "å½¢",
        -9.726062475201502
      ],
      [
        "çľĭä»ĸ",
        -9.726373872792973
      ],
      [
        "ä½ľçĶ¨",
        -9.726609987814827
      ],
      [
        "è¯ģæį®",
        -9.72668496537742
      ],
      [
        "æĪĲçĨŁ",
        -9.727118344478999
      ],
      [
        "å¾Īå°ĳ",
        -9.7277999370578
      ],
      [
        "å°±æ²¡",
        -9.728387489389156
      ],
      [
        "ä¸Ģé¡¿",
        -9.728891534175146
      ],
      [
        "å¥½æľĭåıĭ",
        -9.728917453710192
      ],
      [
        "éĻªä½ł",
        -9.729144561268487
      ],
      [
        "èį£",
        -9.729206010267589
      ],
      [
        "åĨįè¯´",
        -9.729540787050238
      ],
      [
        "èµ·äºĨ",
        -9.729639195179901
      ],
      [
        "åĲĥçļĦ",
        -9.731338520099616
      ],
      [
        "å¤ĩ",
        -9.731658017836097
      ],
      [
        "çī¹åĪ«çļĦ",
        -9.731855943430798
      ],
      [
        "åĽŀå¤į",
        -9.73360570148509
      ],
      [
        "åĩłå¹´",
        -9.73387231324363
      ],
      [
        "æ²¡åĬŀæ³ķ",
        -9.733953364705958
      ],
      [
        "åĬ¨çī©",
        -9.734037664919255
      ],
      [
        "æĪĳä»¬å°±",
        -9.734299745672669
      ],
      [
        "è¯ķè¯ķ",
        -9.73456175443714
      ],
      [
        "çŃĶæ¡Ī",
        -9.735108149452447
      ],
      [
        "æ¬²",
        -9.73517836979979
      ],
      [
        "è¿Ļä»¶äºĭ",
        -9.73530075798743
      ],
      [
        "åĩĢ",
        -9.735983055609747
      ],
      [
        "äº¤ç»Ļ",
        -9.736260513490862
      ],
      [
        "æĹħè¡Į",
        -9.736350238817728
      ],
      [
        "èĦı",
        -9.736609175179156
      ],
      [
        "å¹´çºª",
        -9.737671228805535
      ],
      [
        "è¿Ļä¸ĢåĪ»",
        -9.738424815769644
      ],
      [
        "ç¾¡æħķ",
        -9.738528303994109
      ],
      [
        "é¢Ŀ",
        -9.73875392757445
      ],
      [
        "è¯Ħè®º",
        -9.739479072001677
      ],
      [
        "éĵº",
        -9.740228679840005
      ],
      [
        "çĦ¦èĻĳ",
        -9.740438545949717
      ],
      [
        "æİªæĸ½",
        -9.740442233170455
      ],
      [
        "åģļå¾Ĺ",
        -9.741085166369407
      ],
      [
        "è®º",
        -9.741188918153199
      ],
      [
        "æĥ³èµ·",
        -9.741355004331297
      ],
      [
        "ä¸įåĲĮæĦı",
        -9.741526555384535
      ],
      [
        "å¥½çľĭ",
        -9.742362749967626
      ],
      [
        "æį®",
        -9.742700626122758
      ],
      [
        "è´¼",
        -9.742983227610129
      ],
      [
        "åĢĴæĺ¯",
        -9.743137186504253
      ],
      [
        "ç«ĭåĪ»",
        -9.743191153625261
      ],
      [
        "æĭľ",
        -9.743425670401912
      ],
      [
        "æĥ¨",
        -9.744177118144025
      ],
      [
        "Ġå°Ĩ",
        -9.74434417066223
      ],
      [
        "æĺİçĻ½åĲĹ",
        -9.744516025033967
      ],
      [
        "Ġè°¢è°¢ä½ł",
        -9.745608460747665
      ],
      [
        "èĬ±éĴ±",
        -9.746040369209599
      ],
      [
        "åĸĦèī¯",
        -9.746302905773383
      ],
      [
        "æļ´",
        -9.746456045404894
      ],
      [
        "çĪ¸å¦Ī",
        -9.746464719915226
      ],
      [
        "¦",
        -9.746702588839238
      ],
      [
        "Ġå°¤åħ¶æĺ¯",
        -9.74712227238299
      ],
      [
        "æ·¡",
        -9.747331681832371
      ],
      [
        "åĽ¢éķ¿",
        -9.74783476430795
      ],
      [
        "çľ¼æ³ª",
        -9.748435231542356
      ],
      [
        "éĻ©",
        -9.74873686187074
      ],
      [
        "è¿ĩåİ»äºĨ",
        -9.748816784140004
      ],
      [
        "å",
        -9.750094451045417
      ],
      [
        "æĸ¹ä¾¿",
        -9.750415331511112
      ],
      [
        "ä¸įæĺİçĻ½",
        -9.750444925183311
      ],
      [
        "éĹºèľľ",
        -9.751167669541346
      ],
      [
        "å¦¹",
        -9.75121967449358
      ],
      [
        "æĢİä¹Īä¼ļ",
        -9.751279306542433
      ],
      [
        "Ġä½łå¥½",
        -9.75183663304161
      ],
      [
        "å¥½å¥½çļĦ",
        -9.751863355530908
      ],
      [
        "è¿Ļé¦ĸæŃĮ",
        -9.752309559730955
      ],
      [
        "èµ°åĪ°",
        -9.752648400285082
      ],
      [
        "åĪº",
        -9.752725595223122
      ],
      [
        "ä¹Łè®¸",
        -9.752775437483036
      ],
      [
        "åĩºè½¨",
        -9.752965886906582
      ],
      [
        "Ġä½łåħĪ",
        -9.753046595767449
      ],
      [
        "è¿Ļä¸ªäºĭåĦ¿",
        -9.753147353770034
      ],
      [
        "è¯¯ä¼ļ",
        -9.75384532255742
      ],
      [
        "åĳĺå·¥",
        -9.753995755681006
      ],
      [
        "ä¸¤ä½į",
        -9.754573803205629
      ],
      [
        "å°±æľī",
        -9.754605525074425
      ],
      [
        "çľĭä¸Ģä¸ĭ",
        -9.754922423378094
      ],
      [
        "ä¸ĢåĲį",
        -9.754934417815203
      ],
      [
        "Ġä¸¤ä¸ªäºº",
        -9.75536653900806
      ],
      [
        "Ġå¦Ī",
        -9.755397540265893
      ],
      [
        "åįģäºĶ",
        -9.755704089988079
      ],
      [
        "åĪĽ",
        -9.756427479664273
      ],
      [
        "æĪĳä¸įçŁ¥éģĵ",
        -9.75643337209533
      ],
      [
        "ç®±",
        -9.75690734280759
      ],
      [
        "Ġä¸Ģä¸ªäºº",
        -9.757033518207429
      ],
      [
        "ä¸ĬåŃ¦",
        -9.75723346065177
      ],
      [
        "ĠæĪĳæ²¡æľī",
        -9.757484032554906
      ],
      [
        "æīĶ",
        -9.758396566799565
      ],
      [
        "Ġä½Ĩæĺ¯åĳ¢",
        -9.7587951241926
      ],
      [
        "½",
        -9.758972150282707
      ],
      [
        "åĨ¬",
        -9.759798114989568
      ],
      [
        "åĽ´",
        -9.759908977796517
      ],
      [
        "ä»ģ",
        -9.76091454826308
      ],
      [
        "éĺ´",
        -9.761384867196089
      ],
      [
        "éĺµ",
        -9.76187874531982
      ],
      [
        "æ¯ıä¸Ģä¸ª",
        -9.762174629218972
      ],
      [
        "è¿ĺåı¯ä»¥",
        -9.762182183410095
      ],
      [
        "æ¯Ķä½ł",
        -9.762360112301906
      ],
      [
        "è¿ŀç»Ń",
        -9.762564388144838
      ],
      [
        "ĠæĻļä¸Ĭ",
        -9.762600383069026
      ],
      [
        "å¤ªéĺ³",
        -9.762681413635478
      ],
      [
        "çº³",
        -9.762993657586534
      ],
      [
        "ç®Ģ",
        -9.763015516271725
      ],
      [
        "ĠæľĢ",
        -9.763188659095004
      ],
      [
        "èµĮ",
        -9.763397369116102
      ],
      [
        "æīİ",
        -9.76340498958103
      ],
      [
        "åıįåºĶ",
        -9.764770055691471
      ],
      [
        "å¿«éĢĴ",
        -9.76522950320296
      ],
      [
        "åĺī",
        -9.765452585823382
      ],
      [
        "Ġå°±æĺ¯ä½ł",
        -9.76550485933211
      ],
      [
        "Ġä½łè¯´æĪĳ",
        -9.765970071266583
      ],
      [
        "æ²¡äºº",
        -9.765985316671138
      ],
      [
        "çĤ®",
        -9.766024494804071
      ],
      [
        "å§ĭç»Ī",
        -9.766603716886005
      ],
      [
        "çĶ¨æĪ·",
        -9.767380163544328
      ],
      [
        "å¿ĺ",
        -9.767470844075206
      ],
      [
        "ĠæĪĳæĢİä¹Ī",
        -9.767627555149144
      ],
      [
        "ä¸ĥçĤ¹",
        -9.767735400437772
      ],
      [
        "Ġä¸Ģå®ļè¦ģ",
        -9.768662993894996
      ],
      [
        "çªĿ",
        -9.768699219359984
      ],
      [
        "é¼ĵ",
        -9.76872262243008
      ],
      [
        "åĩŃ",
        -9.769019360374855
      ],
      [
        "åŃ£",
        -9.769448834108964
      ],
      [
        "ä¸įèĪĴæľį",
        -9.770631087636913
      ],
      [
        "åİĨ",
        -9.771069008835278
      ],
      [
        "åĿĳ",
        -9.771337714999124
      ],
      [
        "ä¸Ģæ®µæĹ¶éĹ´",
        -9.771520473362099
      ],
      [
        "ç»Ļä»ĸä»¬",
        -9.771816014027518
      ],
      [
        "å°±æĺ¯ä»ĸ",
        -9.771833459921496
      ],
      [
        "å¦ĸ",
        -9.772199308757223
      ],
      [
        "æĬ±çĿĢ",
        -9.772411570242976
      ],
      [
        "å¸¸å¸¸",
        -9.773906623448799
      ],
      [
        "åĵ¥ä»¬åĦ¿",
        -9.774025925295252
      ],
      [
        "æİ¢",
        -9.77429236757066
      ],
      [
        "åĲĲ",
        -9.774889890781719
      ],
      [
        "æĿĢäºº",
        -9.775195886745749
      ],
      [
        "ä¸´",
        -9.775215508072682
      ],
      [
        "Ġä¸įçĶ¨",
        -9.775333169579843
      ],
      [
        "«",
        -9.775418825866891
      ],
      [
        "å¸ĪçĪ¶",
        -9.775661508838397
      ],
      [
        "æĢĿæĥ³",
        -9.776139438889206
      ],
      [
        "åĨ³",
        -9.776482575847481
      ],
      [
        "æ²¡éĴ±",
        -9.776838150936511
      ],
      [
        "æī¬",
        -9.776847938558443
      ],
      [
        "åĵİåĳĢ",
        -9.777494668793263
      ],
      [
        "åİ»çľĭçľĭ",
        -9.77771967697478
      ],
      [
        "ä¸įè¶³",
        -9.777960143229638
      ],
      [
        "ª",
        -9.778480845704092
      ],
      [
        "åĪ°åºķæĺ¯",
        -9.778990075177077
      ],
      [
        "åıĭ",
        -9.779732267887795
      ],
      [
        "é¤Ĳ",
        -9.77978210363143
      ],
      [
        "æĪĲç»©",
        -9.78040151488392
      ],
      [
        "çĪ¬",
        -9.780456497125508
      ],
      [
        "åľ¨åĵªéĩĮ",
        -9.780519305545951
      ],
      [
        "Ġå¥½äºĨ",
        -9.780712668174605
      ],
      [
        "ĠæĢİä¹Īæł·",
        -9.780962326787854
      ],
      [
        "æĳĶ",
        -9.78192959975625
      ],
      [
        "çľĭæĪĳ",
        -9.782058988859204
      ],
      [
        "ç½ĳä¸Ĭ",
        -9.78258087345529
      ],
      [
        "å¾Ģå¾Ģ",
        -9.782790856647424
      ],
      [
        "æĦŁæŁĵ",
        -9.782878863518704
      ],
      [
        "ç¨įå¾®",
        -9.782956134271146
      ],
      [
        "ç¢Ĺ",
        -9.783862291678538
      ],
      [
        "çĶŁæ´»çļĦ",
        -9.784072671274355
      ],
      [
        "çľĭæĿ¥",
        -9.784405328800862
      ],
      [
        "éĥİ",
        -9.784414097040479
      ],
      [
        "ä¸īå¤©",
        -9.784620793270395
      ],
      [
        "æ¶Ī",
        -9.78490571348907
      ],
      [
        "åĲĮæł·",
        -9.785108821087185
      ],
      [
        "å¿ħé¡»è¦ģ",
        -9.785330282708802
      ],
      [
        "åĽŀå¿Ĩ",
        -9.785348980296721
      ],
      [
        "æĳĩ",
        -9.785388488419045
      ],
      [
        "è®¾",
        -9.786040737367813
      ],
      [
        "ç¬ĳè¯Ŀ",
        -9.786286423675687
      ],
      [
        "æĮ£",
        -9.786357983703692
      ],
      [
        "å¤±æľĽ",
        -9.78650353694513
      ],
      [
        "éĢĹ",
        -9.78666683327656
      ],
      [
        "åĬŁèĥ½",
        -9.787294848244757
      ],
      [
        "åıĬæĹ¶",
        -9.787552780623496
      ],
      [
        "éĴĪ",
        -9.78764391022225
      ],
      [
        "ä¸ĭçıŃ",
        -9.78828242976363
      ],
      [
        "æĪĺäºī",
        -9.788571646867341
      ],
      [
        "æľīæĦıæĢĿ",
        -9.789131517449963
      ],
      [
        "æľīéĹ®é¢ĺ",
        -9.790724207833243
      ],
      [
        "æĿ¯",
        -9.790818864183981
      ],
      [
        "åĽ¢éĺŁ",
        -9.79089234139407
      ],
      [
        "å¾®åįļ",
        -9.790974815525166
      ],
      [
        "èĩ³å°ĳ",
        -9.791478720662635
      ],
      [
        "Ġå·²ç»ı",
        -9.791793312739212
      ],
      [
        "ä¼Ĺ",
        -9.792077327609015
      ],
      [
        "ä¸įå®¹æĺĵ",
        -9.792838180231211
      ],
      [
        "é¼ĵåĬ±",
        -9.7933571765108
      ],
      [
        "åħĦ",
        -9.793484479475783
      ],
      [
        "çĥĤ",
        -9.794558265860811
      ],
      [
        "Ġå¥½å¥½",
        -9.794705630745012
      ],
      [
        "å»ºçŃĳ",
        -9.794763563896968
      ],
      [
        "æ¬¢è¿İ",
        -9.794793393668218
      ],
      [
        "æĻº",
        -9.795386281667872
      ],
      [
        "ç»ĵå©ļäºĨ",
        -9.795518040945748
      ],
      [
        "æĮºå¥½",
        -9.795688787813326
      ],
      [
        "åįģä¸Ģ",
        -9.796225009930566
      ],
      [
        "ä¸ĳ",
        -9.797060579182027
      ],
      [
        "åħ¬åı¸çļĦ",
        -9.797209874623434
      ],
      [
        "è¿ĻäºĽä¸ľè¥¿",
        -9.797429171829034
      ],
      [
        "è¿ĩç¨ĭ",
        -9.797454798916672
      ],
      [
        "çŁ¥éģĵäºĨ",
        -9.797496888130393
      ],
      [
        "æ²¡éĹ®é¢ĺ",
        -9.798279339954458
      ],
      [
        "å¯¼æ¼Ķ",
        -9.798449364092384
      ],
      [
        "äº¤ä»£",
        -9.799156938504543
      ],
      [
        "ä¸ĢåįĬ",
        -9.79960424907146
      ],
      [
        "ä»Ķç»Ĩ",
        -9.799735756908955
      ],
      [
        "å°±æĬĬ",
        -9.799857123742242
      ],
      [
        "æľīåı¯èĥ½",
        -9.799937439598011
      ],
      [
        "åºķä¸ĭ",
        -9.801019331196365
      ],
      [
        "æĶ¶åĲ¬",
        -9.801245447458825
      ],
      [
        "çľŁçļĦå¾Ī",
        -9.80153193745835
      ],
      [
        "åħį",
        -9.802459153758303
      ],
      [
        "è°ĭ",
        -9.802491508638242
      ],
      [
        "åĩıèĤ¥",
        -9.802580662041887
      ],
      [
        "ä¸ŃåįĪ",
        -9.802795278083229
      ],
      [
        "ä¼¤å¿ĥ",
        -9.802809943830317
      ],
      [
        "éĿŀå¸¸çļĦ",
        -9.80289646859082
      ],
      [
        "Ġæ²¡äºĭ",
        -9.80346086688697
      ],
      [
        "è®¨è®º",
        -9.803532741330681
      ],
      [
        "çŃīæĪĳ",
        -9.803890787296588
      ],
      [
        "ä¸įä¸Ĭ",
        -9.803981442184988
      ],
      [
        "åĨĻçļĦ",
        -9.804558155579166
      ],
      [
        "ĠéĤ£æĪĳå°±",
        -9.80493523654187
      ],
      [
        "æĪĳç»Ļä½ł",
        -9.805120632173203
      ],
      [
        "åĩ¯",
        -9.805178402296715
      ],
      [
        "ä¸įåĩºæĿ¥",
        -9.805718450685148
      ],
      [
        "æĻ®",
        -9.806072172432309
      ],
      [
        "åĲ¬è¯´",
        -9.807011504415573
      ],
      [
        "åĲ¸å¼ķ",
        -9.807379470651314
      ],
      [
        "ĠæĿ¨",
        -9.807406165881645
      ],
      [
        "Ġèµ¶ç´§",
        -9.807658019283139
      ],
      [
        "éļ¾ä»¥",
        -9.807698423774255
      ],
      [
        "å¹¿åĳĬ",
        -9.807733431627671
      ],
      [
        "å¹³å¸¸",
        -9.807929007872271
      ],
      [
        "åĨįåİ»",
        -9.80853170736303
      ],
      [
        "æľĢéĩįè¦ģçļĦ",
        -9.809421312070988
      ],
      [
        "èº«ä»½",
        -9.809426503624781
      ],
      [
        "èĽ®",
        -9.809547230195816
      ],
      [
        "ä¾¿å®ľ",
        -9.809644968468646
      ],
      [
        "çĽ¸äº²",
        -9.809964537612295
      ],
      [
        "æĹ©ä¸Ĭ",
        -9.81020461498116
      ],
      [
        "å¥¶",
        -9.810237439008853
      ],
      [
        "Ġå¤§åĵ¥",
        -9.810598106189651
      ],
      [
        "è¿Ļæł·çļĦä¸Ģä¸ª",
        -9.810688510354966
      ],
      [
        "åħ·ä½ĵ",
        -9.811201631333159
      ],
      [
        "ç¬¬",
        -9.811498543516302
      ],
      [
        "ç£¨",
        -9.812534267040284
      ],
      [
        "å·¥ç¨ĭ",
        -9.812653779893486
      ],
      [
        "åŁº",
        -9.812966419051302
      ],
      [
        "ä»Ģä¹Īä¸ľè¥¿",
        -9.814276879435695
      ],
      [
        "éģĹæĨ¾",
        -9.814743809846238
      ],
      [
        "éĢģç»Ļ",
        -9.815336075388196
      ],
      [
        "é£Łçī©",
        -9.815540214482915
      ],
      [
        "èģĶåĲĪ",
        -9.815550564712463
      ],
      [
        "äºĴèģĶç½ĳ",
        -9.815749519712519
      ],
      [
        "å¤ļå¤§",
        -9.816017504565838
      ],
      [
        "éģį",
        -9.816284654717446
      ],
      [
        "çıįæĥľ",
        -9.8165937832515
      ],
      [
        "æĹ¢",
        -9.816594971519237
      ],
      [
        "ä¹ĭä¸Ń",
        -9.816613706714046
      ],
      [
        "è¿Ļä¸ªå¥³äºº",
        -9.816741922974888
      ],
      [
        "äºı",
        -9.817331834491563
      ],
      [
        "çĽ®çļĦ",
        -9.81769042282942
      ],
      [
        "å·¦",
        -9.818785839174124
      ],
      [
        "é»Ħéĩĳ",
        -9.819443801050625
      ],
      [
        "æİ¥çĿĢ",
        -9.819522003884117
      ],
      [
        "Ġåĳ¨",
        -9.819552327215936
      ],
      [
        "å¨¶",
        -9.819708743659433
      ],
      [
        "çĻ»",
        -9.81990644961451
      ],
      [
        "éĿ©åĳ½",
        -9.819912436006224
      ],
      [
        "Ġæīįèĥ½",
        -9.81993177807467
      ],
      [
        "ä¸įæĺ¯è¯´",
        -9.820542549329819
      ],
      [
        "è§īå¾ĹæĪĳ",
        -9.82104072452707
      ],
      [
        "é¢ĨåŁŁ",
        -9.82131609282998
      ],
      [
        "Ġæ²¡äºĭåĦ¿",
        -9.822486019388295
      ],
      [
        "ä¸Ĭæ¬¡",
        -9.823700198411323
      ],
      [
        "çģŃ",
        -9.823928415891306
      ],
      [
        "æ¨ª",
        -9.823993021413324
      ],
      [
        "æ¶Ľ",
        -9.824901218126085
      ],
      [
        "éĹ®éĹ®",
        -9.824928757492886
      ],
      [
        "èĤĿ",
        -9.825744224838589
      ],
      [
        "å¾ĭå¸Ī",
        -9.826521927123922
      ],
      [
        "æĮĸ",
        -9.826782397426001
      ],
      [
        "å¿«çĤ¹",
        -9.82691844972487
      ],
      [
        "æĶ¶åĪ°",
        -9.827174951284379
      ],
      [
        "¢",
        -9.82742032966814
      ],
      [
        "çĹĩ",
        -9.827672217478007
      ],
      [
        "åĬłåħ¥",
        -9.827887190793756
      ],
      [
        "ä¹ĭä¸Ģ",
        -9.828202456138094
      ],
      [
        "ĠçĶ±äºİ",
        -9.82832514193768
      ],
      [
        "æķ°æį®æĺ¾ç¤º",
        -9.828510754389693
      ],
      [
        "¿",
        -9.828661549435047
      ],
      [
        "Ġå¤§å®¶å¥½",
        -9.828731383504657
      ],
      [
        "æ¯ĽçĹħ",
        -9.829524602205186
      ],
      [
        "æĶ»",
        -9.830289253340656
      ],
      [
        "å¥¥",
        -9.83030977636652
      ],
      [
        "åħ¶ä»ĸçļĦ",
        -9.831079816247282
      ],
      [
        "åį°",
        -9.83137731900169
      ],
      [
        "çĶ³è¯·",
        -9.831869214174464
      ],
      [
        "æľĢé«ĺ",
        -9.831987334460099
      ],
      [
        "åĪºæ¿Ģ",
        -9.832388444881952
      ],
      [
        "çİ¯",
        -9.832579928036312
      ],
      [
        "ĠçľĭåĪ°",
        -9.832689982399494
      ],
      [
        "æĴ¤",
        -9.832911596444397
      ],
      [
        "éĢłæĪĲ",
        -9.833416551140727
      ],
      [
        "çŁ³å¤´",
        -9.834212298680443
      ],
      [
        "ä¿Ĺ",
        -9.834237515467429
      ],
      [
        "ĠæĪĳå½ĵæĹ¶",
        -9.834263366881522
      ],
      [
        "çķĻåľ¨",
        -9.834356711713593
      ],
      [
        "å°´å°¬",
        -9.834881275965083
      ],
      [
        "åª³å¦ĩ",
        -9.8349321967533
      ],
      [
        "æĦŁè§īåĪ°",
        -9.835104574264673
      ],
      [
        "ä¸Ģä¸ªå°ı",
        -9.835114795324543
      ],
      [
        "ĠæĪĳç»Ļä½ł",
        -9.835211320360465
      ],
      [
        "çĶ²",
        -9.835786409047287
      ],
      [
        "æĪĳå·²ç»ı",
        -9.835817759273347
      ],
      [
        "åĶ¯ä¸Ģ",
        -9.835956491429323
      ],
      [
        "åĩºåıĳ",
        -9.83637689008993
      ],
      [
        "ä½łä¸į",
        -9.837498801569067
      ],
      [
        "æģ¯",
        -9.837837419476362
      ],
      [
        "æĭ¿åĪ°",
        -9.837905657264567
      ],
      [
        "éĤ£æĪĳ",
        -9.838473830316374
      ],
      [
        "çļĦèĥ½åĬĽ",
        -9.838775642775632
      ],
      [
        "æ£Ĵ",
        -9.838944925721309
      ],
      [
        "åľ¨ä½ł",
        -9.839194893603821
      ],
      [
        "åĲ¸",
        -9.840597512626772
      ],
      [
        "Ġå¤§å®¶éĥ½",
        -9.84121185601705
      ],
      [
        "å±ŀ",
        -9.84168177861489
      ],
      [
        "æ¶¨",
        -9.841727364750723
      ],
      [
        "çģ°",
        -9.842327475890686
      ],
      [
        "éĥ½çŁ¥éģĵ",
        -9.842741107248116
      ],
      [
        "æľīäºĭ",
        -9.842803395379736
      ],
      [
        "èĢģå¤ªå¤ª",
        -9.843522911071345
      ],
      [
        "è·ĳåĪ°",
        -9.843864100210114
      ],
      [
        "å°±è¡Į",
        -9.844010912364794
      ],
      [
        "éĥŃ",
        -9.844200985908532
      ],
      [
        "åħ¶ä¸Ń",
        -9.845585766120351
      ],
      [
        "Ġä½łä»¬ä¿©",
        -9.845805396177694
      ],
      [
        "éĶĻè¯¯",
        -9.84610641659216
      ],
      [
        "Ġå¦ĤæŀľæĪĳ",
        -9.847080260098164
      ],
      [
        "èµĦæºĲ",
        -9.847289539736026
      ],
      [
        "çĲ´",
        -9.847730520546254
      ],
      [
        "å¥³å£«",
        -9.84791973773544
      ],
      [
        "åĨľ",
        -9.848202150581407
      ],
      [
        "ä¿º",
        -9.848384332513518
      ],
      [
        "ä¸įåĥı",
        -9.84918528134345
      ],
      [
        "ä»įçĦ¶",
        -9.84961373052619
      ],
      [
        "Ġè¡ĮäºĨ",
        -9.849656469618445
      ],
      [
        "åĩıå°ĳ",
        -9.85000055576942
      ],
      [
        "Ġä¸ĢçĽ´",
        -9.850011089288092
      ],
      [
        "æĿĤ",
        -9.850336525025249
      ],
      [
        "ĠæĪĳåİ»",
        -9.850664084524574
      ],
      [
        "å¤§å§Ĳ",
        -9.850809479804845
      ],
      [
        "æ´ª",
        -9.851043992989602
      ],
      [
        "åĽ°",
        -9.851352194494119
      ],
      [
        "äº²æĪļ",
        -9.851837685936431
      ],
      [
        "ä½ľåĵģ",
        -9.852187076875532
      ],
      [
        "ä¾Ŀ",
        -9.852345250774487
      ],
      [
        "èı²",
        -9.85249351248644
      ],
      [
        "çĻ¾åĪĨä¹ĭåįģ",
        -9.852597625551688
      ],
      [
        "Ġä½łçŁ¥éģĵåĲĹ",
        -9.853657841535771
      ],
      [
        "èĭ¹æŀľ",
        -9.85369826106045
      ],
      [
        "åĩºçĶŁ",
        -9.853701319082614
      ],
      [
        "èµĦæľ¬",
        -9.854777548757069
      ],
      [
        "ä¹Łèĥ½",
        -9.854791712607337
      ],
      [
        "äº¤éĢļ",
        -9.85523110392397
      ],
      [
        "ä¸ĭéĽ¨",
        -9.855514208158244
      ],
      [
        "ä¸īä¸ªæľĪ",
        -9.85565441952025
      ],
      [
        "ä½łåı¯ä»¥",
        -9.856025414750995
      ],
      [
        "ä¼ļè§īå¾Ĺ",
        -9.856049657868786
      ],
      [
        "çļĦä¸Ģç§į",
        -9.856512070817434
      ],
      [
        "ä¸ĥåįģ",
        -9.85652059058201
      ],
      [
        "éĤĢè¯·",
        -9.856591560324476
      ],
      [
        "æĲľ",
        -9.85719668247228
      ],
      [
        "åħ¶å®ŀæĺ¯",
        -9.857586383586163
      ],
      [
        "ľ",
        -9.85760633116702
      ],
      [
        "ç»ıçĲĨ",
        -9.857791288959314
      ],
      [
        "èģĮä¸ļ",
        -9.858454601366844
      ],
      [
        "è·Łä»ĸä»¬",
        -9.858820397057116
      ],
      [
        "æĴŃ",
        -9.858831240428309
      ],
      [
        "ç§Ł",
        -9.85888272811745
      ],
      [
        "æ²¡æľīäºº",
        -9.859311938879085
      ],
      [
        "çł¸",
        -9.859777621925154
      ],
      [
        "çĬ¶åĨµ",
        -9.859800047641048
      ],
      [
        "åģļè¿ĩ",
        -9.85986242201135
      ],
      [
        "è¿Ļä¸ªçĶ·äºº",
        -9.86020758327132
      ],
      [
        "ä¸įæĺ¯æĪĳ",
        -9.860875413412018
      ],
      [
        "äº¬",
        -9.860884416161987
      ],
      [
        "ç¾İä¸½",
        -9.861233353545948
      ],
      [
        "æĪĳæ²¡",
        -9.861411859669303
      ],
      [
        "éĤ»å±ħ",
        -9.861615092795006
      ],
      [
        "èµ°åĲ§",
        -9.86175606551047
      ],
      [
        "Ġæľ¬æĿ¥",
        -9.862282464361124
      ],
      [
        "ĠæĪĳçĽ¸ä¿¡",
        -9.862628921610705
      ],
      [
        "ä¼Ł",
        -9.862795147181608
      ],
      [
        "äº¤å¾Ģ",
        -9.863629346236664
      ],
      [
        "æŃ¦æ±ī",
        -9.86365806213506
      ],
      [
        "åĩłä¹İ",
        -9.864274025218375
      ],
      [
        "ä¸Ģä¸ªå¥³äºº",
        -9.864579372203725
      ],
      [
        "ä¼¼ä¹İ",
        -9.864697555011624
      ],
      [
        "è½»æĿ¾",
        -9.865346771871314
      ],
      [
        "ä½įç½®",
        -9.865526100883617
      ],
      [
        "é¡¿",
        -9.865587437066017
      ],
      [
        "åĪ¤æĸŃ",
        -9.865862532080936
      ],
      [
        "å¤§äºĭ",
        -9.866700659970395
      ],
      [
        "ä½łçŁ¥éģĵ",
        -9.866883608249147
      ],
      [
        "åĲĪåĲĮ",
        -9.86743347785313
      ],
      [
        "åĨ¬å¤©",
        -9.867788828724965
      ],
      [
        "åħ³éĶ®",
        -9.867878430729645
      ],
      [
        "Ġä½łåľ¨",
        -9.867998641585071
      ],
      [
        "Ġè¿Ļä½į",
        -9.8680497943693
      ],
      [
        "è¿ĺçľŁ",
        -9.868072868521608
      ],
      [
        "å°ĸ",
        -9.868134616523587
      ],
      [
        "å¿ĺè®°",
        -9.868196852777341
      ],
      [
        "Ġæľīæ²¡æľī",
        -9.868361075945641
      ],
      [
        "ä½łä¿©",
        -9.868420686085667
      ],
      [
        "çŁ¥éģĵä½ł",
        -9.86865642261277
      ],
      [
        "Ġä½łèĩªå·±",
        -9.869295575686678
      ],
      [
        "äºĭå®ŀ",
        -9.869386467892038
      ],
      [
        "åľ¨éĤ£",
        -9.869526355748345
      ],
      [
        "ĠæĪĳçŁ¥éģĵä½ł",
        -9.869531968140805
      ],
      [
        "ĠçĦ¶èĢĮ",
        -9.869551972524793
      ],
      [
        "ä½łèĥ½",
        -9.869775814635739
      ],
      [
        "è¯´è¿Ļä¸ª",
        -9.86979662637115
      ],
      [
        "éĴ",
        -9.870221952303641
      ],
      [
        "åĪ¶åº¦",
        -9.870480965015854
      ],
      [
        "åľ¨æĪĳä»¬",
        -9.87049385284039
      ],
      [
        "ĸ",
        -9.87057390642298
      ],
      [
        "åĲ¬è¿ĩ",
        -9.871373638735838
      ],
      [
        "æĮ¤",
        -9.871456938643945
      ],
      [
        "åĸĿäºĨ",
        -9.871508547069208
      ],
      [
        "Ġè®©ä½ł",
        -9.871621917655496
      ],
      [
        "æĢİä¹Īè¯´åĳ¢",
        -9.871717339731976
      ],
      [
        "ä¸įæĪĲ",
        -9.871950278044967
      ],
      [
        "ĠæĪĳè¯´æĪĳ",
        -9.871976815816572
      ],
      [
        "ç©¶ç«Ł",
        -9.872179832363217
      ],
      [
        "åıĳè¡Į",
        -9.872515586784242
      ],
      [
        "åĴ¨è¯¢",
        -9.87292116898086
      ],
      [
        "ä¸¤æ¬¡",
        -9.87294362048902
      ],
      [
        "æĪĳè·Łä½łè¯´",
        -9.873020688377487
      ],
      [
        "Ġåıªèĥ½",
        -9.873387660057293
      ],
      [
        "æĦıè¯Ĩ",
        -9.873822009693495
      ],
      [
        "è¾ĥ",
        -9.874856337205774
      ],
      [
        "ĠèĢĮä¸įæĺ¯",
        -9.875227787239332
      ],
      [
        "èĢĮè¨Ģ",
        -9.87537063079722
      ],
      [
        "å¥½åĲĥ",
        -9.876263223760464
      ],
      [
        "çĸ¾çĹħ",
        -9.876280842407928
      ],
      [
        "æ²¡äºĨ",
        -9.876566898313243
      ],
      [
        "ä¸ĢæŃ¥",
        -9.876647885519283
      ],
      [
        "åħ¨éĿ¢",
        -9.876785532822492
      ],
      [
        "çİĭåŃĲ",
        -9.877088916932511
      ],
      [
        "çļĩå¸Ŀ",
        -9.877325714925442
      ],
      [
        "ä¼ĺç§Ģ",
        -9.877512103911336
      ],
      [
        "èµĦ",
        -9.877611809344643
      ],
      [
        "ä¸ĭéĻį",
        -9.877626147335652
      ],
      [
        "´",
        -9.877712059465566
      ],
      [
        "è¿Ļäºĭ",
        -9.879093606151766
      ],
      [
        "Ġå°±åľ¨",
        -9.879751979858781
      ],
      [
        "åį«çĶŁ",
        -9.879880456070648
      ],
      [
        "æ´»å¾Ĺ",
        -9.8800502100625
      ],
      [
        "ç²Ĺ",
        -9.880221623089117
      ],
      [
        "åħ«çĤ¹",
        -9.880731346259568
      ],
      [
        "å¯¼",
        -9.880756220227067
      ],
      [
        "ä¸Ģå®¶äºº",
        -9.880785612531312
      ],
      [
        "ä»İæĿ¥ä¸į",
        -9.881074379682245
      ],
      [
        "è§īå¾Ĺä½ł",
        -9.881290082516362
      ],
      [
        "ä¼¯",
        -9.881928326165403
      ],
      [
        "æ¸¯",
        -9.882104812827555
      ],
      [
        "Ġæĺ¯ä½ł",
        -9.882821118360194
      ],
      [
        "èĢ³æľµ",
        -9.882821481104932
      ],
      [
        "Ĺ",
        -9.883372932243145
      ],
      [
        "ç¢°åĪ°",
        -9.883851524061583
      ],
      [
        "å¤ªå¤ļäºĨ",
        -9.88425646858336
      ],
      [
        "©",
        -9.884306034099753
      ],
      [
        "å¿ĥçĸ¼",
        -9.884791876070906
      ],
      [
        "æľīåķ¥",
        -9.884992878087022
      ],
      [
        "æľĪäº®",
        -9.88500372613666
      ],
      [
        "æ¬ºè´Ł",
        -9.885111472534078
      ],
      [
        "å°±ä¸įä¼ļ",
        -9.885238295945253
      ],
      [
        "å«ĤåŃĲ",
        -9.885550907095205
      ],
      [
        "å¤Ħäºİ",
        -9.885895553600443
      ],
      [
        "åı¸ä»¤",
        -9.886067649160914
      ],
      [
        "åı¥",
        -9.88621842860532
      ],
      [
        "éĩĮè¾¹åĦ¿",
        -9.886325639806383
      ],
      [
        "åĪĨåĪ«",
        -9.886378125567191
      ],
      [
        "èµ¢",
        -9.886538103695958
      ],
      [
        "ä¸ŃåĽ½çļĦ",
        -9.886888671494283
      ],
      [
        "æ¿ĢåĬ¨",
        -9.886989256095948
      ],
      [
        "åŁºç¡Ģ",
        -9.887028716058296
      ],
      [
        "ĠåĲĦä½į",
        -9.887091439320933
      ],
      [
        "å¦Ĥæŀľä½ł",
        -9.887316504488105
      ],
      [
        "æĺ¯éĿŀå¸¸",
        -9.8875457185955
      ],
      [
        "è¿Ļä¸ªæĹ¶åĢĻ",
        -9.887626820904565
      ],
      [
        "ä»ĸä¹Ł",
        -9.887673346317051
      ],
      [
        "å°ıå¿ĥ",
        -9.887821707774098
      ],
      [
        "æĻ®éĢļ",
        -9.887970692540074
      ],
      [
        "æĺ¯ä»Ģä¹Īåĳ¢",
        -9.888000044862252
      ],
      [
        "èĦĳè¢ĭ",
        -9.888008519482502
      ],
      [
        "å¸®ä»ĸ",
        -9.888754065264493
      ],
      [
        "æĶ¹éĿ©",
        -9.889026456920359
      ],
      [
        "åĬ¨æīĭ",
        -9.889248410317999
      ],
      [
        "æ²¡æ³ķ",
        -9.88927794138187
      ],
      [
        "ä¸Ģåı·",
        -9.889642145398764
      ],
      [
        "ä¸Ģå¼Ģå§ĭ",
        -9.889941147325992
      ],
      [
        "äº¿ç¾İåħĥ",
        -9.890082245031099
      ],
      [
        "æľīä¸Ģ",
        -9.89008785141733
      ],
      [
        "æ³ķéĻ¢",
        -9.890484058003516
      ],
      [
        "Ġæ¯ı",
        -9.890505268669278
      ],
      [
        "é¡¹",
        -9.890621306611848
      ],
      [
        "åįģåħ«",
        -9.890776545983332
      ],
      [
        "ĠéĤ£ä½łå°±",
        -9.890981310855654
      ],
      [
        "åĪ¶éĢł",
        -9.89122949815114
      ],
      [
        "èĥ¸",
        -9.891271330165386
      ],
      [
        "æ¯ıä¸ª",
        -9.891472762366465
      ],
      [
        "æķĪæŀľ",
        -9.891712072110316
      ],
      [
        "ä»½",
        -9.891754221579516
      ],
      [
        "å°ıåĮº",
        -9.892042940008722
      ],
      [
        "åºĦ",
        -9.892303281851952
      ],
      [
        "åıĪä¸įæĺ¯",
        -9.892717941541056
      ],
      [
        "çļĩ",
        -9.893163966255782
      ],
      [
        "çļĦè¿ĻäºĽ",
        -9.893279425320621
      ],
      [
        "èĩ´",
        -9.893836144350516
      ],
      [
        "æľ¬æĿ¥",
        -9.893966697517829
      ],
      [
        "æľªçŁ¥çļĦ",
        -9.894228172494921
      ],
      [
        "éĻĦè¿ĳ",
        -9.894240965786096
      ],
      [
        "Ġè®°å¾Ĺ",
        -9.894335895590412
      ],
      [
        "Ġå°±ä¼ļ",
        -9.894460528614765
      ],
      [
        "è´¨éĩı",
        -9.894896013629028
      ],
      [
        "çļĦè¡£æľį",
        -9.895111725037241
      ],
      [
        "ä¸¹",
        -9.89534301562199
      ],
      [
        "åĢį",
        -9.895509061066056
      ],
      [
        "æĥ³è¿ĩ",
        -9.895627619386369
      ],
      [
        "Ġç¾İåĽ½",
        -9.896416516189468
      ],
      [
        "çªĹ",
        -9.896706517798739
      ],
      [
        "åķ¥çļĦ",
        -9.897302644595374
      ],
      [
        "ä¸Ģé¢Ĺ",
        -9.897331318601774
      ],
      [
        "æĹ¥åĨĽ",
        -9.898285507718725
      ],
      [
        "èĪįä¸įå¾Ĺ",
        -9.898954339160927
      ],
      [
        "ĠéĤ£å¤©",
        -9.89897153840871
      ],
      [
        "åħ·æľī",
        -9.899014137400915
      ],
      [
        "çĪ¸çĪ¸å¦Īå¦Ī",
        -9.899062289894605
      ],
      [
        "å¿ł",
        -9.899232505861477
      ],
      [
        "å°±å¾Ĺ",
        -9.899607799895294
      ],
      [
        "åľ¨æĤ¨èº«è¾¹",
        -9.899843096409398
      ],
      [
        "æ²¡éĶĻ",
        -9.899858323057762
      ],
      [
        "æī«",
        -9.900345773684467
      ],
      [
        "ç¼ĺ",
        -9.900832858084346
      ],
      [
        "è¯·ä½ł",
        -9.901993666034027
      ],
      [
[...]
