{
  "version": "1.0",
  "truncation": null,
  "padding": null,
  "added_tokens": [
    {
      "id": 0,
      "content": "<UNK>",
      "single_word": false,
      "lstrip": false,
      "rstrip": false,
      "normalized": false,
      "special": true
    },
    {
      "id": 1,
      "content": "<PAD>",
      "single_word": false,
      "lstrip": false,
      "rstrip": false,
      "normalized": false,
      "special": true
    },
    {
      "id": 2,
      "content": "<CLS>",
      "single_word": false,
      "lstrip": false,
      "rstrip": false,
      "normalized": false,
      "special": true
    },
    {
      "id": 3,
      "content": "<SEP>",
      "single_word": false,
      "lstrip": false,
      "rstrip": false,
      "normalized": false,
      "special": true
    },
    {
      "id": 4,
      "content": "<MASK>",
      "single_word": false,
      "lstrip": false,
      "rstrip": false,
      "normalized": false,
      "special": true
    },
    {
      "id": 5,
      "content": "<NL>",
      "single_word": false,
      "lstrip": false,
      "rstrip": false,
      "normalized": false,
      "special": true
    }
  ],
  "normalizer": {
    "type": "Sequence",
    "normalizers": [
      {
        "type": "NFD"
      },
      {
        "type": "StripAccents"
      },
      {
        "type": "Lowercase"
      }
    ]
  },
  "pre_tokenizer": {
    "type": "Metaspace",
    "replacement": " ",
    "prepend_scheme": "always",
    "split": true
  },
  "post_processor": null,
  "decoder": {
    "type": "Metaspace",
    "replacement": " ",
    "prepend_scheme": "always",
    "split": true
  },
  "model": {
    "type": "Unigram",
    "unk_id": null,
    "vocab": [
      [
        "<UNK>",
        0.0
      ],
      [
        "<PAD>",
        0.0
      ],
      [
        "<CLS>",
        0.0
      ],
      [
        "<SEP>",
        0.0
      ],
      [
        "<MASK>",
        0.0
      ],
      [
        "<NL>",
        0.0
      ],
      [
        " de",
        -3.23811918695195
      ],
      [
        ".",
        -3.4010627863388567
      ],
      [
        " een",
        -3.933697321852989
      ],
      [
        " het",
        -3.9616618739404927
      ],
      [
        ",",
        -4.049780608385712
      ],
      [
        " van",
        -4.054414625739428
      ],
      [
        " ",
        -4.150338916740024
      ],
      [
        " in",
        -4.163051961831263
      ],
      [
        " en",
        -4.167822558299239
      ],
      [
        " is",
        -4.499658803229675
      ],
      [
        " op",
        -4.776508865165113
      ],
      [
        "s",
        -4.801850074198667
      ],
      [
        "en",
        -4.8559539520173605
      ],
      [
        " je",
        -4.861780272135352
      ],
      [
        " dat",
        -4.887593041027975
      ],
      [
        "e",
        -5.004395076621877
      ],
      [
        " zijn",
        -5.037127658516777
      ],
      [
        " met",
        -5.092990578923931
      ],
      [
        " te",
        -5.173322820322529
      ],
      [
        " die",
        -5.226925304637877
      ],
      [
        " ze",
        -5.230392390749852
      ],
      [
        " voor",
        -5.253386249556538
      ],
      [
        " niet",
        -5.306927189613489
      ],
      [
        " er",
        -5.327677995784919
      ],
      [
        ".\n*target_child:",
        -5.393145172450071
      ],
      [
        " hij",
        -5.399165365462009
      ],
      [
        "t",
        -5.460794160844928
      ],
      [
        " ook",
        -5.48252105208654
      ],
      [
        " aan",
        -5.521159578973146
      ],
      [
        " maar",
        -5.618955615857427
      ],
      [
        " uit",
        -5.634059242989094
      ],
      [
        " ik",
        -5.646408613905264
      ],
      [
        ":",
        -5.6565355807597175
      ],
      [
        " als",
        -5.669104947144021
      ],
      [
        " ·",
        -5.740664704093083
      ],
      [
        "?",
        -5.75659186602932
      ],
      [
        " naar",
        -5.773695926435366
      ],
      [
        " om",
        -5.774089903746811
      ],
      [
        " bij",
        -5.774496575839178
      ],
      [
        " dan",
        -5.812795122935341
      ],
      [
        "-",
        -5.840717803135201
      ],
      [
        " was",
        -5.840744032168319
      ],
      [
        " of",
        -5.853792199109394
      ],
      [
        " door",
        -5.858076882839418
      ],
      [
        ")",
        -5.948996895896132
      ],
      [
        " over",
        -5.964125616620816
      ],
      [
        "de",
        -6.001582127525694
      ],
      [
        "\n*target_child:\t",
        -6.026341779900154
      ],
      [
        " -",
        -6.052292179446432
      ],
      [
        " (",
        -6.052387474474152
      ],
      [
        " dit",
        -6.081683780564351
      ],
      [
        " deze",
        -6.082660308930498
      ],
      [
        " wat",
        -6.088893135447838
      ],
      [
        " '",
        -6.108594128887676
      ],
      [
        " nog",
        -6.115201751914162
      ],
      [
        " wordt",
        -6.119075258188511
      ],
      [
        "d",
        -6.140746469942577
      ],
      [
        " heeft",
        -6.154343405339233
      ],
      [
        "n",
        -6.156846819597703
      ],
      [
        "!",
        -6.190426827658582
      ],
      [
        ".\n*investigator:",
        -6.275920497679085
      ],
      [
        " zo",
        -6.27893064597308
      ],
      [
        " wel",
        -6.286694720792351
      ],
      [
        " kan",
        -6.297771022265808
      ],
      [
        " veel",
        -6.345535326351005
      ],
      [
        " meer",
        -6.349731103749194
      ],
      [
        " werd",
        -6.350630598532602
      ],
      [
        " worden",
        -6.35369036775346
      ],
      [
        " haar",
        -6.38266797858822
      ],
      [
        " we",
        -6.441153859250814
      ],
      [
        "er",
        -6.458580715286031
      ],
      [
        "\n",
        -6.533748970378689
      ],
      [
        " al",
        -6.537608384478418
      ],
      [
        " hebben",
        -6.591178922276317
      ],
      [
        " twee",
        -6.595818136208653
      ],
      [
        " moet",
        -6.635262808282285
      ],
      [
        " tot",
        -6.6411554390879886
      ],
      [
        "\txxx",
        -6.676737069655536
      ],
      [
        " mensen",
        -6.686613155903652
      ],
      [
        ".\n\n",
        -6.715792653638188
      ],
      [
        " gaat",
        -6.7211144299102905
      ],
      [
        " weer",
        -6.7582780388951775
      ],
      [
        " geen",
        -6.770859081624746
      ],
      [
        " na",
        -6.774868553988158
      ],
      [
        "je",
        -6.780451436417829
      ],
      [
        ",'",
        -6.781412512532896
      ],
      [
        " zich",
        -6.7850784527280545
      ],
      [
        " 1",
        -6.791993311254972
      ],
      [
        " andere",
        -6.798960526135128
      ],
      [
        "?\n*target_child:",
        -6.80700223252234
      ],
      [
        " kunnen",
        -6.809051991668662
      ],
      [
        " daar",
        -6.813031108203587
      ],
      [
        " nu",
        -6.8189847856356565
      ],
      [
        " goed",
        -6.833870360280679
      ],
      [
        " waar",
        -6.844934676161804
      ],
      [
        " hun",
        -6.850664308229684
      ],
      [
        " hier",
        -6.862965613536961
      ],
      [
        " ver",
        -6.864956854560203
      ],
      [
        " hem",
        -6.875269653351586
      ],
      [
        " ...",
        -6.87582252387932
      ],
      [
        ".'",
        -6.886759305827518
      ],
      [
        " had",
        -6.896512880820108
      ],
      [
        " jaar",
        -6.901400032994035
      ],
      [
        " onder",
        -6.933520461094668
      ],
      [
        "•",
        -6.94908996781872
      ],
      [
        " a",
        -6.954855062826601
      ],
      [
        " hoe",
        -6.96620433198091
      ],
      [
        " gaan",
        -6.9868831681065
      ],
      [
        " af",
        -6.993394671773894
      ],
      [
        " toen",
        -7.0010318142037224
      ],
      [
        " heel",
        -7.008673381678966
      ],
      [
        "'",
        -7.013201076966899
      ],
      [
        "en.",
        -7.013367287543225
      ],
      [
        " 2",
        -7.01666982775407
      ],
      [
        " ge",
        -7.030385284330057
      ],
      [
        "a",
        -7.053442856537647
      ],
      [
        " staat",
        -7.080167577652084
      ],
      [
        " tegen",
        -7.082792537346807
      ],
      [
        " heb",
        -7.090549555831528
      ],
      [
        " mijn",
        -7.094393506954326
      ],
      [
        " wil",
        -7.095542924301627
      ],
      [
        " zegt",
        -7.103058953210262
      ],
      [
        "us",
        -7.108705018400023
      ],
      [
        " komt",
        -7.133409944690644
      ],
      [
        " b",
        -7.146029645370529
      ],
      [
        "o",
        -7.149514355913997
      ],
      [
        " grote",
        -7.150036980089858
      ],
      [
        " alleen",
        -7.17460173866378
      ],
      [
        "\tja",
        -7.1981703444619125
      ],
      [
        "in",
        -7.198877322934651
      ],
      [
        "te",
        -7.207049121689003
      ],
      [
        " tussen",
        -7.209947375128076
      ],
      [
        " 3",
        -7.218048907139851
      ],
      [
        " jij",
        -7.219711475771993
      ],
      [
        " waren",
        -7.22123360314386
      ],
      [
        " zou",
        -7.223699184417189
      ],
      [
        "?'",
        -7.237198889048301
      ],
      [
        ".\n",
        -7.251143247757604
      ],
      [
        " water",
        -7.256038776053742
      ],
      [
        " eerste",
        -7.259739904602009
      ],
      [
        "k",
        -7.263283211982673
      ],
      [
        " toch",
        -7.271451643388367
      ],
      [
        " kinderen",
        -7.27330199057598
      ],
      [
        "f",
        -7.279758450761358
      ],
      [
        "\n*investigator:\t",
        -7.283381805177376
      ],
      [
        " mee",
        -7.287535535020979
      ],
      [
        " maken",
        -7.28977523161624
      ],
      [
        " doen",
        -7.295010509637633
      ],
      [
        " iets",
        -7.297617328043996
      ],
      [
        " c",
        -7.326817867948785
      ],
      [
        " be",
        -7.342993411606789
      ],
      [
        " even",
        -7.348688382981257
      ],
      [
        " alle",
        -7.3592336196531125
      ],
      [
        " tijd",
        -7.362279102322628
      ],
      [
        " nederland",
        -7.3624422248957035
      ],
      [
        " \"",
        -7.372383217760014
      ],
      [
        " weg",
        -7.383994018675024
      ],
      [
        " zij",
        -7.388824231237894
      ],
      [
        " land",
        -7.403867495350639
      ],
      [
        "ing",
        -7.4128811799297925
      ],
      [
        "\n\n",
        -7.414918065436677
      ],
      [
        " zei",
        -7.420807348730484
      ],
      [
        " dus",
        -7.424153476583278
      ],
      [
        " drie",
        -7.425544648273428
      ],
      [
        " i",
        -7.426209322386324
      ],
      [
        " me",
        -7.431274028498322
      ],
      [
        "tje",
        -7.469728104810875
      ],
      [
        " zoals",
        -7.475169206001636
      ],
      [
        " ga",
        -7.475846218325762
      ],
      [
        " ging",
        -7.4790873615464335
      ],
      [
        " 4",
        -7.481664317774641
      ],
      [
        " omdat",
        -7.485136858282248
      ],
      [
        " welke",
        -7.4986936910226625
      ],
      [
        " komen",
        -7.500740298854534
      ],
      [
        "den",
        -7.505333587479537
      ],
      [
        " nieuwe",
        -7.518880939383974
      ],
      [
        " keer",
        -7.519338126098193
      ],
      [
        "r",
        -7.519988362048569
      ],
      [
        " zien",
        -7.520812290155572
      ],
      [
        " vaak",
        -7.527494597278713
      ],
      [
        " mag",
        -7.530263487194301
      ],
      [
        " ben",
        -7.53977570219701
      ],
      [
        " per",
        -7.5438169946258355
      ],
      [
        "ge",
        -7.55117655987989
      ],
      [
        " ja",
        -7.558906920026224
      ],
      [
        " werden",
        -7.564799762720108
      ],
      [
        " zelf",
        -7.5807595390301135
      ],
      [
        "!'",
        -7.5836297290783445
      ],
      [
        "i",
        -7.585632450261773
      ],
      [
        " steeds",
        -7.587541675963937
      ],
      [
        ";",
        -7.590732865731839
      ],
      [
        ".\n*mother:\t",
        -7.593662050886378
      ],
      [
        " zit",
        -7.596054721041327
      ],
      [
        " elkaar",
        -7.596915355521048
      ],
      [
        " tekst",
        -7.605781851841057
      ],
      [
        "...",
        -7.613812277503417
      ],
      [
        " moeten",
        -7.617059656289005
      ],
      [
        " staan",
        -7.619202416645933
      ],
      [
        "y",
        -7.622933623515426
      ],
      [
        "m",
        -7.626529593655345
      ],
      [
        "b",
        -7.629396716124091
      ],
      [
        " achter",
        -7.640794695857217
      ],
      [
        " d",
        -7.641571531390721
      ],
      [
        " weet",
        -7.641835688924017
      ],
      [
        " samen",
        -7.650438324007196
      ],
      [
        "jes",
        -7.656363009577079
      ],
      [
        " nou",
        -7.658635061235959
      ],
      [
        " zie",
        -7.6617732666507425
      ],
      [
        " verschillende",
        -7.664526942261604
      ],
      [
        " eens",
        -7.67397166088398
      ],
      [
        "g",
        -7.6759161903777215
      ],
      [
        "/",
        -7.677980790870347
      ],
      [
        "l",
        -7.688662591303293
      ],
      [
        " schrijf",
        -7.692080472642598
      ],
      [
        " vind",
        -7.696428641663012
      ],
      [
        " he",
        -7.699264176185382
      ],
      [
        "p",
        -7.702685313807773
      ],
      [
        " stad",
        -7.710061855645156
      ],
      [
        " terug",
        -7.7130640730074305
      ],
      [
        "re",
        -7.718512494324713
      ],
      [
        " 5",
        -7.7201516924876294
      ],
      [
        " erg",
        -7.723298414495424
      ],
      [
        " dag",
        -7.73432620274561
      ],
      [
        " gebruik",
        -7.735478387105104
      ],
      [
        " kwam",
        -7.739820924373953
      ],
      [
        "se",
        -7.741088522916254
      ],
      [
        " groot",
        -7.742712039510641
      ],
      [
        " net",
        -7.744822013766612
      ],
      [
        "ten",
        -7.746305791631013
      ],
      [
        "tijdens",
        -7.7556999350861044
      ],
      [
        " eerst",
        -7.758252694757481
      ],
      [
        " ·\n",
        -7.762510132330613
      ],
      [
        " toe",
        -7.7626247708714065
      ],
      [
        " hele",
        -7.771889543124544
      ],
      [
        " 18",
        -7.773286230716993
      ],
      [
        "c",
        -7.773843469308472
      ],
      [
        " 'ik",
        -7.7747023754138755
      ],
      [
        "\tnee",
        -7.787524413501142
      ],
      [
        " want",
        -7.801741787277187
      ],
      [
        " v",
        -7.8074625480455815
      ],
      [
        " informatie",
        -7.809472663200131
      ],
      [
        "en,",
        -7.8100914911775625
      ],
      [
        " kun",
        -7.816484017734268
      ],
      [
        " school",
        -7.818228433659849
      ],
      [
        " huis",
        -7.822475484029848
      ],
      [
        " kon",
        -7.8250944643575355
      ],
      [
        " zal",
        -7.826122783829227
      ],
      [
        "ste",
        -7.833136477083702
      ],
      [
        " wie",
        -7.83504778982973
      ],
      [
        " bijvoorbeeld",
        -7.835217122634784
      ],
      [
        " doet",
        -7.83738395434751
      ],
      [
        " later",
        -7.838841827756562
      ],
      [
        " deel",
        -7.840755234616855
      ],
      [
        " gebruikt",
        -7.8419149019159935
      ],
      [
        " man",
        -7.843677276287892
      ],
      [
        "h",
        -7.855819686111362
      ],
      [
        " ie",
        -7.86498323010567
      ],
      [
        " altijd",
        -7.866384053684779
      ],
      [
        "ver",
        -7.87150723423032
      ],
      [
        "ers",
        -7.873088959871364
      ],
      [
        " eigen",
        -7.874630001372992
      ],
      [
        " tweede",
        -7.875105185121235
      ],
      [
        " ii",
        -7.881827356291911
      ],
      [
        " jullie",
        -7.8818541887955575
      ],
      [
        " vader",
        -7.886390930766217
      ],
      [
        " p",
        -7.88699699889831
      ],
      [
        " 6",
        -7.887395833835814
      ],
      [
        " echt",
        -7.887861734946419
      ],
      [
        " zitten",
        -7.8939080945645
      ],
      [
        " aantal",
        -7.897243189426597
      ],
      [
        ").",
        -7.899120186311325
      ],
      [
        " bron",
        -7.9002913610941885
      ],
      [
        " ligt",
        -7.901568380762315
      ],
      [
        " ons",
        -7.904894602277093
      ],
      [
        " k",
        -7.907239899898519
      ],
      [
        "al",
        -7.908031655298338
      ],
      [
        " volgens",
        -7.9165452042024
      ],
      [
        " binnen",
        -7.919599376299242
      ],
      [
        " verder",
        -7.920038993335936
      ],
      [
        " waarom",
        -7.923142447911779
      ],
      [
        "'s",
        -7.926725462522882
      ],
      [
        " vraag",
        -7.926942958577438
      ],
      [
        " volgende",
        -7.928154231276858
      ],
      [
        "st",
        -7.932182295456521
      ],
      [
        " helemaal",
        -7.932802599426436
      ],
      [
        "is",
        -7.934616589996592
      ],
      [
        " moeder",
        -7.9364970804876105
      ],
      [
        " plaats",
        -7.937999376664328
      ],
      [
        " lang",
        -7.940583674959722
      ],
      [
        " iemand",
        -7.950758643895629
      ],
      [
        "s.",
        -7.953411382788962
      ],
      [
        " allemaal",
        -7.954195244517209
      ],
      [
        " leven",
        -7.956849569180154
      ],
      [
        " kunt",
        -7.960543119161342
      ],
      [
        "le",
        -7.961811016427209
      ],
      [
        "\"",
        -7.966908580637364
      ],
      [
        " auto",
        -7.967691448868413
      ],
      [
        "ie",
        -7.972368416243729
      ],
      [
        " zo'n",
        -7.972625848206759
      ],
      [
        ".\n*mother:\tja",
        -7.973488260050853
      ],
      [
        " u",
        -7.976662550358155
      ],
      [
        " gemaakt",
        -7.977949804197836
      ],
      [
        " wereld",
        -7.984164773375598
      ],
      [
        "?\n*investigator:",
        -7.986776077430459
      ],
      [
        " vooral",
        -7.987202697561338
      ],
      [
        "\nde",
        -7.989067742546652
      ],
      [
        " hebt",
        -7.995671217173401
      ],
      [
        " hand",
        -8.005241570004696
      ],
      [
        " naam",
        -8.006584790409999
      ],
      [
        "w",
        -8.011558254522795
      ],
      [
        " alles",
        -8.015273986350476
      ],
      [
        " woorden",
        -8.018466370393524
      ],
      [
        " laten",
        -8.022188589565184
      ],
      [
        " nederlandse",
        -8.026065430693244
      ],
      [
        " goede",
        -8.026848548148633
      ],
      [
        "on",
        -8.028496995287382
      ],
      [
        " snel",
        -8.028748979228588
      ],
      [
        " woord",
        -8.030786800461568
      ],
      [
        " boek",
        -8.031885721170731
      ],
      [
        " 10",
        -8.034825010855222
      ],
      [
        " mij",
        -8.035401396873379
      ],
      [
        " geld",
        -8.04273000308511
      ],
      [
        " hadden",
        -8.043553265485011
      ],
      [
        " werk",
        -8.044101491735328
      ],
      [
        " vinden",
        -8.044190214332177
      ],
      [
        " landen",
        -8.046273900531329
      ],
      [
        " men",
        -8.047640028196467
      ],
      [
        " minder",
        -8.051884447349188
      ],
      [
        " vier",
        -8.059287300098074
      ],
      [
        " antwoord",
        -8.067198588955948
      ],
      [
        " beeld",
        -8.067353950856353
      ],
      [
        "heid",
        -8.074626048311192
      ],
      [
        " laat",
        -8.076591701216858
      ],
      [
        "op",
        -8.083059721051614
      ],
      [
        " kleine",
        -8.086818402288026
      ],
      [
        " 7",
        -8.089729792358668
      ],
      [
        " daarom",
        -8.091033615715094
      ],
      [
        "ke",
        -8.091270098379974
      ],
      [
        " f",
        -8.097306541194685
      ],
      [
        " wilde",
        -8.101928749008621
      ],
      [
        "el",
        -8.102105520044326
      ],
      [
        "na",
        -8.102512147815936
      ],
      [
        " beetje",
        -8.102809510459997
      ],
      [
        "ken",
        -8.104206157957199
      ],
      [
        " bijna",
        -8.10612679534996
      ],
      [
        " dieren",
        -8.108411576788978
      ],
      [
        "2",
        -8.108533980243413
      ],
      [
        " afbeelding",
        -8.112345981692718
      ],
      [
        "u",
        -8.115575462012435
      ],
      [
        " re",
        -8.117665579593528
      ],
      [
        " maakt",
        -8.11851559126963
      ],
      [
        " eten",
        -8.120107470440393
      ],
      [
        " hoofd",
        -8.120787045200482
      ],
      [
        "v",
        -8.122282015715088
      ],
      [
        " geeft",
        -8.123289576758733
      ],
      [
        " 8",
        -8.124379392401295
      ],
      [
        " bestaat",
        -8.12631166713529
      ],
      [
        " paar",
        -8.128743713226063
      ],
      [
        " ziet",
        -8.12937081361859
      ],
      [
        "ma",
        -8.132681600596378
      ],
      [
        "ig",
        -8.133379255509917
      ],
      [
        " geluid",
        -8.13377105589564
      ],
      [
        ".\n\nde",
        -8.1366434953882
      ],
      [
        "3",
        -8.136716548298864
      ],
      [
        " xxx",
        -8.137252409870321
      ],
      [
        " boven",
        -8.14019096892983
      ],
      [
        " koning",
        -8.140937662382164
      ],
      [
        " soms",
        -8.145031094822928
      ],
      [
        " jaren",
        -8.145828507856576
      ],
      [
        " laatste",
        -8.146352795899718
      ],
      [
        "be",
        -8.149104342299866
      ],
      [
        " daarna",
        -8.149670886240518
      ],
      [
        " nooit",
        -8.150687241581606
      ],
      [
        "land",
        -8.154291997892994
      ],
      [
        " vast",
        -8.154599742148202
      ],
      [
        " onderwerp",
        -8.155079272651534
      ],
      [
        " kijken",
        -8.155912875456751
      ],
      [
        " figuur",
        -8.156135420322627
      ],
      [
        "&",
        -8.157025462001458
      ],
      [
        " rond",
        -8.157507872110164
      ],
      [
        " m",
        -8.161333750054515
      ],
      [
        " anders",
        -8.16412224130755
      ],
      [
        " moest",
        -8.165672275322985
      ],
      [
        "z",
        -8.175289518332077
      ],
      [
        " vragen",
        -8.187864777296225
      ],
      [
        "tjes",
        -8.188019306567844
      ],
      [
        " kijk",
        -8.196406260077342
      ],
      [
        " g",
        -8.206313765195572
      ],
      [
        " soort",
        -8.207195341426562
      ],
      [
        " geef",
        -8.208999265312467
      ],
      [
        " zin",
        -8.212146008190004
      ],
      [
        " buiten",
        -8.215316182128209
      ],
      [
        " bekend",
        -8.215334881844212
      ],
      [
        "es",
        -8.220414714397428
      ],
      [
        " elke",
        -8.221855711114214
      ],
      [
        " hoor",
        -8.223205210226965
      ],
      [
        "man",
        -8.234504033689655
      ],
      [
        " lees",
        -8.235271024744794
      ],
      [
        " zelfs",
        -8.238422217532197
      ],
      [
        " film",
        -8.239079983100241
      ],
      [
        " pas",
        -8.24077172140151
      ],
      [
        " zonder",
        -8.24356405393922
      ],
      [
        " the",
        -8.24592427176021
      ],
      [
        " groep",
        -8.24770593677645
      ],
      [
        "\neen",
        -8.248814112702007
      ],
      [
        " iedereen",
        -8.250574289582932
      ],
      [
        "ja",
        -8.25123787085343
      ],
      [
        " maak",
        -8.251770740793956
      ],
      [
        " willen",
        -8.257286484043762
      ],
      [
        " worden.",
        -8.259625291475352
      ],
      [
        "len",
        -8.261518437276951
      ],
      [
        " uur",
        -8.264992731836537
      ],
      [
        " elk",
        -8.266581489129404
      ],
      [
        "t.",
        -8.273891115438353
      ],
      [
        " klein",
        -8.288308273926182
      ],
      [
        " gewoon",
        -8.290462682982993
      ],
      [
        " 15",
        -8.291726391765613
      ],
      [
        " weten",
        -8.296715824841133
      ],
      [
        " iii",
        -8.297261408124347
      ],
      [
        "ve",
        -8.299954412767946
      ],
      [
        " kennis",
        -8.300272290008618
      ],
      [
        " nodig",
        -8.300874987934103
      ],
      [
        " o",
        -8.301589275861339
      ],
      [
        " wij",
        -8.302182438934974
      ],
      [
        " beter",
        -8.312586607361816
      ],
      [
        "aan",
        -8.31346748472738
      ],
      [
        " krijgen",
        -8.318154726410183
      ],
      [
        " licht",
        -8.32088769669971
      ],
      [
        " hoeveel",
        -8.325340168548715
      ],
      [
        " kreeg",
        -8.325987597569569
      ],
      [
        " vindt",
        -8.32683060171067
      ],
      [
        " ander",
        -8.33651619939062
      ],
      [
        " zeggen",
        -8.34212206422646
      ],
      [
        " doe",
        -8.34311815006629
      ],
      [
        " 12",
        -8.345878269901489
      ],
      [
        " zee",
        -8.346111482194628
      ],
      [
        " leuk",
        -8.346976714342794
      ],
      [
        " jongen",
        -8.348973693330686
      ],
      [
        " hond",
        -8.349039480832655
      ],
      [
        " ",
        -8.354063719541859
      ],
      [
        " ongeveer",
        -8.35440982511009
      ],
      [
        " krijgt",
        -8.354410344221744
      ],
      [
        "s,",
        -8.355846498311081
      ],
      [
        " 20",
        -8.356696654053579
      ],
      [
        " waardoor",
        -8.358637709321858
      ],
      [
        " misschien",
        -8.358887765334575
      ],
      [
        " lekker",
        -8.359533230331305
      ],
      [
        "1",
        -8.360096059650509
      ],
      [
        " lucht",
        -8.36254950012311
      ],
      [
        " spelen",
        -8.364127183526662
      ],
      [
        " oude",
        -8.36481690923147
      ],
      [
        "an",
        -8.371057128930937
      ],
      [
        " 17",
        -8.37397121818656
      ],
      [
        " 9",
        -8.376745038261594
      ],
      [
        " eigenlijk",
        -8.377334484977936
      ],
      [
        "4",
        -8.3790167889061
      ],
      [
        " eeuw",
        -8.379187870157816
      ],
      [
        "0",
        -8.381408218707799
      ],
      [
        " onze",
        -8.3844755262492
      ],
      [
        " dingen",
        -8.384783361620146
      ],
      [
        " vroeg",
        -8.385810019921356
      ],
      [
        "terwijl",
        -8.38665023413477
      ],
      [
        " week",
        -8.389291782872137
      ],
      [
        " 16",
        -8.390887440955012
      ],
      [
        " meeste",
        -8.391631249975653
      ],
      [
        "\tdat",
        -8.397497387347867
      ],
      [
        " examen",
        -8.399474465635727
      ],
      [
        "x",
        -8.399545956015878
      ],
      [
        "ik",
        -8.400141800346216
      ],
      [
        " heet",
        -8.40272367856728
      ],
      [
        " welk",
        -8.403614508963688
      ],
      [
        " zet",
        -8.40460214151814
      ],
      [
        " grond",
        -8.405299656064107
      ],
      [
        " on",
        -8.408141885242179
      ],
      [
        "),",
        -8.409833157798728
      ],
      [
        " punten",
        -8.409990350567368
      ],
      [
        " sommige",
        -8.41002393259193
      ],
      [
        "ius",
        -8.410097667056244
      ],
      [
        "?\n*mother:\t",
        -8.413568802673897
      ],
      [
        "\tdie",
        -8.415978473387165
      ],
      [
        " staten",
        -8.418953201862388
      ],
      [
        " namelijk",
        -8.419053869922683
      ],
      [
        "pen",
        -8.421753170789007
      ],
      [
        " geven",
        -8.422024454413876
      ],
      [
        "af",
        -8.422387763952576
      ],
      [
        " nee",
        -8.42248827189285
      ],
      [
        " hierdoor",
        -8.424402766009445
      ],
      [
        " denk",
        -8.425047159626185
      ],
      [
        " partij",
        -8.427285040343262
      ],
      [
        "ra",
        -8.428406887900088
      ],
      [
        " vraagt",
        -8.43096773228348
      ],
      [
        " natuurlijk",
        -8.432893041728974
      ],
      [
        "ta",
        -8.434382105480964
      ],
      [
        " bent",
        -8.438884553573637
      ],
      [
        " betekent",
        -8.43907207351667
      ],
      [
        " stond",
        -8.440113581516773
      ],
      [
        " kamer",
        -8.441148208256886
      ],
      [
        " hard",
        -8.442127973113081
      ],
      [
        " kijkt",
        -8.44395831610597
      ],
      [
        " muziek",
        -8.444967475579547
      ],
      [
        "der",
        -8.448743521608664
      ],
      [
        " vanaf",
        -8.449879927741275
      ],
      [
        "ro",
        -8.450466912686204
      ],
      [
        "mo",
        -8.452232639679501
      ],
      [
        " grootste",
        -8.452268653682978
      ],
      [
        " vol",
        -8.45410026084904
      ],
      [
        " manier",
        -8.455708379832409
      ],
      [
        " hoort",
        -8.458269814094125
      ],
      [
        " w",
        -8.459401408243835
      ],
      [
        "et",
        -8.461723049506327
      ],
      [
        " vandaag",
        -8.463083167530895
      ],
      [
        "ven",
        -8.466007151176097
      ],
      [
        " verhaal",
        -8.470516947050234
      ],
      [
        " google",
        -8.472360302633916
      ],
      [
        " meestal",
        -8.473045482784787
      ],
      [
        "ter",
        -8.474941864076577
      ],
      [
        " gebied",
        -8.47496138949128
      ],
      [
        ".\nde",
        -8.475105821162959
      ],
      [
        " mogelijk",
        -8.479190156689572
      ],
      [
        " vrouw",
        -8.481042046270705
      ],
      [
        " vijf",
        -8.483310650808566
      ],
      [
        " best",
        -8.484203263199534
      ],
      [
        " meisje",
        -8.486157480434844
      ],
      [
        " npo",
        -8.487215903478207
      ],
      [
        " leg",
        -8.487883347524987
      ],
      [
        "la",
        -8.489450660034297
      ],
      [
        "\toh",
        -8.490424761960641
      ],
      [
        " via",
        -8.490940967654367
      ],
      [
        " oorlog",
        -8.496016537057615
      ],
      [
        " verenigde",
        -8.49874429429075
      ],
      [
        "5",
        -8.498995983760611
      ],
      [
        "ster",
        -8.506225855387582
      ],
      [
        " jou",
        -8.506495947393876
      ],
      [
        "om",
        -8.506822732928974
      ],
      [
        " bal",
        -8.507689406431426
      ],
      [
        " wikikids",
        -8.507776638048494
      ],
      [
        "ur",
        -8.509547838137548
      ],
      [
        " stuk",
        -8.51385457208183
      ],
      [
        "di",
        -8.517901424185686
      ],
      [
        " open",
        -8.519070752933398
      ],
      [
        " sinds",
        -8.520680208592552
      ],
      [
        " youtube",
        -8.521479876900656
      ],
      [
        ".\n\nin",
        -8.523737921751406
      ],
      [
        " kom",
        -8.526498655172418
      ],
      [
        " mooi",
        -8.530301391901352
      ],
      [
        " hoog",
        -8.532234053754632
      ],
      [
        " les",
        -8.53250050126595
      ],
      [
        " amerikaanse",
        -8.532636640879282
      ],
      [
        " gedaan",
        -8.53595499211261
      ],
      [
        " juist",
        -8.53658679335587
      ],
      [
        " maken.",
        -8.53763714256973
      ],
      [
        " foto",
        -8.540963245351046
      ],
      [
        "ch",
        -8.542807597576697
      ],
      [
        " waarin",
        -8.54371446184242
      ],
      [
        " lijkt",
        -8.545369432804153
      ],
      [
        " langs",
        -8.547788852840412
      ],
      [
        " wikipedia",
        -8.548195183593833
      ],
      [
        " tekst:",
        -8.549486873348476
      ],
      [
        " vond",
        -8.54991165298136
      ],
      [
        "ze",
        -8.55004884135636
      ],
      [
        " /",
        -8.551349125724482
      ],
      [
        " mama",
        -8.555935411614746
      ],
      [
        " zag",
        -8.556815566177724
      ],
      [
        " (oud",
        -8.557166309529379
      ],
      [
        " ha",
        -8.557887104741589
      ],
      [
        " beste",
        -8.558255199412775
      ],
      [
        " vi",
        -8.55863506902212
      ],
      [
        " kleur",
        -8.558765525189392
      ],
      [
        " hen",
        -8.560267945306926
      ],
      [
        " werken",
        -8.562993474818942
      ],
      [
        " dood",
        -8.56394371119263
      ],
      [
        "\tja.\n*",
        -8.564027175566768
      ],
      [
        "\tik",
        -8.5641448098352
      ],
      [
        " onderzoek",
        -8.564678755426586
      ],
      [
        " ten",
        -8.56778873621078
      ],
      [
        "jes:",
        -8.56880257179242
      ],
      [
        " schooltv",
        -8.56998237778383
      ],
      [
        " begin",
        -8.570425834258845
      ],
      [
        " ont",
        -8.57097770652631
      ],
      [
        " loopt",
        -8.571599037822299
      ],
      [
        "uit",
        -8.572443294487226
      ],
      [
        " regering",
        -8.574066467946714
      ],
      [
        "\nafbeeldingen",
        -8.574300121071591
      ],
      [
        " commons",
        -8.574551037251876
      ],
      [
        " wikimedia",
        -8.575579084119202
      ],
      [
        "ia",
        -8.576419187580806
      ],
      [
        " naast",
        -8.578920370394863
      ],
      [
        "\nclip",
        -8.57918694638095
      ],
      [
        "gen",
        -8.58072601207726
      ],
      [
        "beeldbank",
        -8.582693590259163
      ],
      [
        "\teen",
        -8.58686464516008
      ],
      [
        " deed",
        -8.588440242407913
      ],
      [
        " sch",
        -8.589483032221139
      ],
      [
        " weinig",
        -8.590085726879922
      ],
      [
        " roept",
        -8.59038720046805
      ],
      [
        "ige",
        -8.590714612286606
      ],
      [
        "\twat",
        -8.5910726836122
      ],
      [
        " zouden",
        -8.591648424850593
      ],
      [
        " iv",
        -8.592684987041709
      ],
      [
        " la",
        -8.593059092758423
      ],
      [
        " belangrijk",
        -8.594687829312068
      ],
      [
        " begon",
        -8.598598218200143
      ],
      [
        " echter",
        -8.59897779809418
      ],
      [
        "ar",
        -8.604626513971574
      ],
      [
        " =",
        -8.604714433181035
      ],
      [
        " 11",
        -8.60501259294454
      ],
      [
        " familie",
        -8.606809185432395
      ],
      [
        " ə",
        -8.613464361084409
      ],
      [
        " wanneer",
        -8.615255922605803
      ],
      [
        " zeker",
        -8.6156005173282
      ],
      [
        " genoeg",
        -8.616185340887244
      ],
      [
        " vrij",
        -8.619578095953802
      ],
      [
        "da",
        -8.620406336621938
      ],
      [
        " uiteindelijk",
        -8.62097270738741
      ],
      [
        " rol",
        -8.62160802948092
      ],
      [
        " 13",
        -8.623288042957014
      ],
      [
        " kwamen",
        -8.626607768634438
      ],
      [
        " 14",
        -8.628805055816647
      ],
      [
        "ha",
        -8.629131305169814
      ],
      [
        " 19",
        -8.632579895053036
      ],
      [
        " maakte",
        -8.635413263683729
      ],
      [
        " lange",
        -8.636751777610513
      ],
      [
        " beide",
        -8.641128319158625
      ],
      [
        " thuis",
        -8.642367000105125
      ],
      [
        " zat",
        -8.64304400386799
      ],
      [
        " 'dat",
        -8.650696655430298
      ],
      [
        " x",
        -8.650740628249585
      ],
      [
        "ga",
        -8.65222185306629
      ],
      [
        " dagen",
        -8.654307280745648
      ],
      [
        " miljoen",
        -8.655933008409272
      ],
      [
        " ouders",
        -8.658395379764867
      ],
      [
        " meester",
        -8.662073425983243
      ],
      [
        "huis",
        -8.662916185426933
      ],
      [
        "ul",
        -8.663764988382571
      ],
      [
        " blijven",
        -8.664022195732231
      ],
      [
        " stemmen",
        -8.664970196181462
      ],
      [
        " gezien",
        -8.668840886240668
      ],
      [
        " zeg",
        -8.669496629716187
      ],
      [
        ".\n*father:\t",
        -8.677694255369785
      ],
      [
        " begint",
        -8.679795892109526
      ],
      [
        " europese",
        -8.683829342240204
      ],
      [
        "\tnou",
        -8.683953816766467
      ],
      [
        ".\"",
        -8.686403629486302
      ],
      [
        " h",
        -8.688320017385637
      ],
      [
        ".\nleg",
        -8.68996595910188
      ],
      [
        " vorm",
        -8.694871825932264
      ],
      [
        "ka",
        -8.694902562986838
      ],
      [
        " ogen",
        -8.69509302215363
      ],
      [
        " politie",
        -8.701607319527211
      ],
      [
        " konden",
        -8.70300705215517
      ],
      [
        " valt",
        -8.705046550752982
      ],
      [
        "lo",
        -8.70668838615142
      ],
      [
        " precies",
        -8.708354418240395
      ],
      [
        "ij",
        -8.708950280896948
      ],
      [
        "co",
        -8.710338486821747
      ],
      [
        " moment",
        -8.711623205024942
      ],
      [
        "\nin",
        -8.71189494953564
      ],
      [
        " opgave",
        -8.713832537766569
      ],
      [
        "6",
        -8.717742463612055
      ],
      [
        " nummer",
        -8.7221771836754
      ],
      [
        "zen",
        -8.724222043436074
      ],
      [
        " liggen",
        -8.72610864611827
      ],
      [
        " keek",
        -8.730606263405672
      ],
      [
        " niks",
        -8.732761358809158
      ],
      [
        " blijft",
        -8.733801325762082
      ],
      [
        "at",
        -8.734016736788808
      ],
      [
        " vroeger",
        -8.734665182594002
      ],
      [
        " johannes",
        -8.735835369021274
      ],
      [
        " vis",
        -8.736891360435244
      ],
      [
        " steden",
        -8.737288587268372
      ],
      [
        "d.",
        -8.742058446389056
      ],
      [
        " enkele",
        -8.742389651242647
      ],
      [
        " heen",
        -8.74379125780404
      ],
      [
        " gingen",
        -8.743815324966905
      ],
      [
        " zon",
        -8.748369229217113
      ],
      [
        " 'wat",
        -8.749925954977213
      ],
      [
        "sch",
        -8.750480926012075
      ],
      [
        " lopen",
        -8.751945208032788
      ],
      [
        " meteen",
        -8.752264338317149
      ],
      [
        " jan",
        -8.752942199377634
      ],
      [
        "to",
        -8.754943401994575
      ],
      [
        " president",
        -8.75547213469555
      ],
      [
        " ter",
        -8.756789293374936
      ],
      [
        "atie",
        -8.759935664994687
      ],
      [
        " meter",
        -8.762198381735432
      ],
      [
        " kant",
        -8.762843079926128
      ],
      [
        " bloed",
        -8.763799462327052
      ],
      [
        " opdracht",
        -8.764732744961822
      ],
      [
        " natuur",
        -8.765855281660384
      ],
      [
        "8",
        -8.767569646991783
      ],
      [
        "he",
        -8.76877814706718
      ],
      [
        "waarbij",
        -8.769634223095606
      ],
      [
        " gelijk",
        -8.770787406022766
      ],
      [
        " se",
        -8.771101701233253
      ],
      [
        " l",
        -8.771335285744506
      ],
      [
        " uh",
        -8.771655214912572
      ],
      [
        " zorgen",
        -8.773686779972657
      ],
      [
        "00",
        -8.7755661649192
      ],
      [
        "il",
        -8.7789431846137
      ],
      [
        ".\ngeef",
        -8.77927662185508
      ],
      [
        " euro",
        -8.780683933098926
      ],
      [
        " doen.",
        -8.783852803325066
      ],
      [
        "\nhet",
        -8.784811895142713
      ],
      [
        " kies",
        -8.784918059821774
      ],
      [
        " duidelijk",
        -8.786344058977658
      ],
      [
        " vrouwen",
        -8.787252265870052
      ],
      [
        " belangrijke",
        -8.788062140006788
      ],
      [
        "pe",
        -8.788989786182698
      ],
      [
        " kind",
        -8.79009428789979
      ],
      [
        " ma",
        -8.790906153771346
      ],
      [
        "baar",
        -8.791650416138934
      ],
      [
        " gebruiken",
        -8.79248060271624
      ],
      [
        "me",
        -8.79351689477279
      ],
      [
        " houden",
        -8.794358856859484
      ],
      [
        " horen",
        -8.795642705093995
      ],
      [
        " nieuw",
        -8.798684416873863
      ],
      [
        " bed",
        -8.801269059680417
      ],
      [
        " uit.",
        -8.802188153851105
      ],
      [
        " kaart",
        -8.804321426841195
      ],
      [
        "po",
        -8.805735225445435
      ],
      [
        "do",
        -8.807602957267493
      ],
      [
        "as",
        -8.807644467840753
      ],
      [
        " her",
        -8.80766718828628
      ],
      [
        " frankrijk",
        -8.807855105387222
      ],
      [
        " geleden",
        -8.808423272623587
      ],
      [
        " planten",
        -8.808709480459738
      ],
      [
        " wist",
        -8.808854805546012
      ],
      [
        ".\n\nmeer",
        -8.80966392519174
      ],
      [
        " soorten",
        -8.810106834694604
      ],
      [
        " jouw",
        -8.811207152302163
      ],
      [
        " leger",
        -8.812150220476173
      ],
      [
        " dezelfde",
        -8.814629024514282
      ],
      [
        " niets",
        -8.814921551937255
      ],
      [
        ".\n*mother:\ten",
        -8.816122249130382
      ],
      [
        "ic",
        -8.816679280341399
      ],
      [
        ".\n\nhet",
        -8.817201678279925
      ],
      [
        ".\nin",
        -8.818078238574545
      ],
      [
        "elijk",
        -8.820906432268877
      ],
      [
        " energie",
        -8.822153934581486
      ],
      [
        "j",
        -8.822218842730495
      ],
      [
        " tien",
        -8.822296177839325
      ],
      [
        " deur",
        -8.823636104740759
      ],
      [
        " meneer",
        -8.827441990554158
      ],
      [
        " boeken",
        -8.828156417112274
      ],
      [
        " gebeurt",
        -8.82826952005434
      ],
      [
        " eind",
        -8.828893506707736
      ],
      [
        " r",
        -8.829175445947213
      ],
      [
        "ren",
        -8.830860100333807
      ],
      [
        " duitsland",
        -8.831570501285736
      ],
      [
        " sa",
        -8.831688494584478
      ],
      [
        " dicht",
        -8.831793958320308
      ],
      [
        " trein",
        -8.832716904491752
      ],
      [
        " gemeente",
        -8.833225262640093
      ],
      [
        " plek",
        -8.83424150030666
      ],
      [
        "ische",
        -8.834246855357827
      ],
      [
        "ni",
        -8.83548809030233
      ],
      [
        " europa",
        -8.835933022140145
      ],
      [
        " mogen",
        -8.835994690210967
      ],
      [
        "men",
        -8.836297051458576
      ],
      [
        " kunst",
        -8.83640023302577
      ],
      [
        " so",
        -8.840747229847675
      ],
      [
        " zullen",
        -8.842082060608748
      ],
      [
        ".\n*mother:\tnee",
        -8.844274921988058
      ],
      [
        " zoek",
        -8.846266781905156
      ],
      [
        "no",
        -8.846451022820172
      ],
      [
        "or",
        -8.846547000791276
      ],
      [
        " kerk",
        -8.848289939097022
      ],
      [
        " wonen",
        -8.84942380595662
      ],
      [
        " vervolgens",
        -8.850818504344677
      ],
      [
        "ho",
        -8.851527332829617
      ],
      [
        " leren",
        -8.852423768341133
      ],
      [
        ".\n*adult:\t",
        -8.853690223079461
      ],
      [
        " los",
        -8.857027042687056
      ],
      [
        "9",
        -8.862284032920291
      ],
      [
        " eh",
        -8.863806858536073
      ],
      [
        "go",
        -8.865677706013997
      ],
      [
        " gek",
        -8.876689513983923
      ],
      [
        " 's",
        -8.87786245722943
      ],
      [
        "li",
        -8.879942250089465
      ],
      [
        " aan.",
        -8.88035525048826
      ],
      [
        " hieronder",
        -8.880774350884769
      ],
      [
        " rest",
        -8.881693360899328
      ],
      [
        " lezen",
        -8.882403600515914
      ],
      [
        " stem",
        -8.882849766446846
      ],
      [
        "per",
        -8.886151439671695
      ],
      [
        " ontstaan",
        -8.886403789312155
      ],
      [
        " macht",
        -8.887070000467144
      ],
      [
        " boom",
        -8.888796396351285
      ],
      [
        " hoge",
        -8.890119305366907
      ],
      [
        " extra",
        -8.89047899593605
      ],
      [
        " eiland",
        -8.890557748921509
      ],
      [
        "over",
        -8.891292054775745
      ],
      [
        " leerlingen",
        -8.892027460929295
      ],
      [
        " mens",
        -8.8925705846835
      ],
      [
        " graag",
        -8.89297301208175
      ],
      [
        " taal",
        -8.89455918908493
      ],
      [
        " klas",
        -8.894865282224384
      ],
      [
        " kat",
        -8.894933382900215
      ],
      [
        " hetzelfde",
        -8.89673695085133
      ],
      [
        " co",
        -8.897751806521018
      ],
      [
        " klaar",
        -8.89925623368579
      ],
      [
        "zodat",
        -8.899720160974534
      ],
      [
        " fiets",
        -8.899814282804007
      ],
      [
        " mannen",
        -8.90141762843636
      ],
      [
        " lichaam",
        -8.905052802327017
      ],
      [
        " ervoor",
        -8.905217821010345
      ],
      [
        "we",
        -8.906534766974193
      ],
      [
        ".\n*mother:\twat",
        -8.906623298225387
      ],
      [
        " eerder",
        -8.907851896036
      ],
      [
        " daardoor",
        -8.90978219152868
      ],
      [
        "7",
        -8.909930048856099
      ],
      [
        "it",
        -8.910219682497976
      ],
      [
        "of",
        -8.910857678083476
      ],
      [
        "\tkijk",
        -8.912760900693783
      ],
      [
        ".\nbereken",
        -8.91349137326255
      ],
      [
        " ruimte",
        -8.913844602534487
      ],
      [
        "ingen",
        -8.914749511819156
      ],
      [
        " sport",
        -8.915707876465962
      ],
      [
        " inwoners",
        -8.916431449033348
      ],
      [
        "bo",
        -8.917078013010675
      ],
      [
        " einde",
        -8.917627022774587
      ],
      [
        " politieke",
        -8.91844142535835
      ],
      [
        " mei",
        -8.919940510571845
      ],
      [
        "th",
        -8.920607222156328
      ],
      [
        " geweest",
        -8.920756505833086
      ],
      [
        " franse",
        -8.922518292456031
      ],
      [
        " denken",
        -8.92271574824723
      ],
      [
        " dier",
        -8.926039790570762
      ],
      [
        "os",
        -8.92921470080263
      ],
      [
        "um",
        -8.929326667428702
      ],
      [
        " nieuws",
        -8.930149867963596
      ],
      [
        " bang",
        -8.930185830871743
      ],
      [
        " noem",
        -8.930508578468894
      ],
      [
        " kans",
        -8.93245469020506
      ],
      [
        " riep",
        -8.933413408237845
      ],
      [
        "val",
        -8.934060716473054
      ],
      [
        "ton",
        -8.93409790577594
      ],
      [
        " tuin",
        -8.934281595849058
      ],
      [
        " speelt",
        -8.934336732520533
      ],
      [
        " houdt",
        -8.93479737922716
      ],
      [
        " +",
        -8.93548474601453
      ],
      [
        " nemen",
        -8.937477730332219
      ],
      [
        "am",
        -8.938238741042356
      ],
      [
        "ir",
        -8.941105397954544
      ],
      [
        " genoemd",
        -8.941319453254094
      ],
      [
        " niemand",
        -8.941645130468716
      ],
      [
        " bos",
        -8.942901000067044
      ],
      [
        " duitse",
        -8.943266862087464
      ],
      [
        " voorbeeld",
        -8.94341384469373
      ],
      [
        "werk",
        -8.943697658239486
      ],
      [
        "ca",
        -8.945564604270258
      ],
      [
        "ep",
        -8.945793711099782
      ],
      [
        "eerd",
        -8.945803489790526
      ],
      [
        "tijd",
        -8.946884714342271
      ],
      [
        " zinnen",
        -8.946987522965314
      ],
      [
        " 'ja",
        -8.947093034187992
      ],
      [
        " idee",
        -8.949212753227073
      ],
      [
        " periode",
        -8.95157280352833
      ],
      [
        " dacht",
        -8.952483665921772
      ],
      [
        " rijk",
        -8.952586871174598
      ],
      [
        " 30",
        -8.952600944341246
      ],
      [
        " moesten",
        -8.95339990766425
      ],
      [
        " liet",
        -8.954192727230778
      ],
      [
        " denkt",
        -8.955150797106153
      ],
      [
        " midden",
        -8.955478770371048
      ],
      [
        " zien.",
        -8.956899001022048
      ],
      [
        " sp",
        -8.957078902475807
      ],
      [
        " alinea",
        -8.957268373119605
      ],
      [
        " stof",
        -8.957533440077475
      ],
      [
        " 'het",
        -8.95975446232913
      ],
      [
        " wind",
        -8.961131569171398
      ],
      [
        " rivier",
        -8.962912456701464
      ],
      [
        " belangrijkste",
        -8.963832093983331
      ],
      [
        " druk",
        -8.96430860789706
      ],
      [
        " oud",
        -8.96515103238478
      ],
      [
        "son",
        -8.966528276428399
      ],
      [
        "zo",
        -8.967681551929454
      ],
      [
        "lijk",
        -8.96834491738907
      ],
      [
        " tegenwoordig",
        -8.969770628619875
      ],
      [
        "ck",
        -8.9711962698267
      ],
      [
        " voedsel",
        -8.971336940119656
      ],
      [
        " rode",
        -8.971660905159933
      ],
      [
        "ly",
        -8.972182904206512
      ],
      [
        " mond",
        -8.972318422063523
      ],
      [
        "ə",
        -8.97241626319523
      ],
      [
        " blij",
        -8.97263517555043
      ],
      [
        " z",
        -8.974637031651907
      ],
      [
        " meest",
        -8.976689276611257
      ],
      [
        "?\n",
        -8.977233637091453
      ],
      [
        " amsterdam",
        -8.977720418670945
      ],
      [
        "gel",
        -8.979829135893796
      ],
      [
        "!\n*target_child:",
        -8.97994070251593
      ],
      [
        " groter",
        -8.98858843859388
      ],
      [
        " hart",
        -8.98963193312916
      ],
      [
        ":\n\n",
        -8.99192770102189
      ],
      [
        " bepaalde",
        -8.992091014753093
      ],
      [
        "investigator:\tja",
        -8.99239638690017
      ],
      [
        " ijs",
        -8.995764518675124
      ],
      [
        " willem",
        -8.995839221437121
      ],
      [
        " aarde",
        -8.996578045977285
      ],
      [
        " ka",
        -8.99688098687159
      ],
      [
        " enige",
        -8.998173664418594
      ],
      [
        "isch",
        -8.999042629833925
      ],
      [
        " stap",
        -9.000041640585938
      ],
      [
        " jongens",
        -9.00513065373229
      ],
      [
        "ak",
        -9.005482281402077
      ],
      [
        "ker",
        -9.007089329017829
      ],
      [
        " no",
        -9.007747275400115
      ],
      [
        "ko",
        -9.00798390025474
      ],
      [
        " vanuit",
        -9.008141651803152
      ],
      [
        " papa",
        -9.008516383321442
      ],
      [
        "ol",
        -9.01022262238625
      ],
      [
        "kel",
        -9.01099878880608
      ],
      [
        " stukje",
        -9.012670086932417
      ],
      [
        "ti",
        -9.013284384938212
      ],
      [
        " oma",
        -9.014211193232361
      ],
      [
        " januari",
        -9.014267355581483
      ],
      [
        " nederlands",
        -9.014426760403124
      ],
      [
        " gaf",
        -9.017698290278801
      ],
      [
        "io",
        -9.01913057761792
      ],
      [
        " plan",
        -9.019133505501069
      ],
      [
        "ut",
        -9.02034813970597
      ],
      [
        "uw",
        -9.021896541631707
      ],
      [
        "bel",
        -9.022501988729292
      ],
      [
        " ro",
        -9.025354651644143
      ],
      [
        " mooie",
        -9.027314542953205
      ],
      [
        "\thier",
        -9.0274994677847
      ],
      [
        "zowel",
        -9.029181992177762
      ],
      [
        "target_child:\ten",
        -9.029512551886366
      ],
      [
        " 25",
        -9.03078261610977
      ],
      [
        " reis",
        -9.03153279125729
      ],
      [
        " punt",
        -9.032398739111919
      ],
      [
        " wedstrijd",
        -9.035291321587545
      ],
      [
        " vakantie",
        -9.036111632363216
      ],
      [
        " vertellen",
        -9.036178372721219
      ],
      [
        "ad",
        -9.036793340572956
      ],
      [
        " lo",
        -9.03812271863051
      ],
      [
        " werkt",
        -9.038882813435738
      ],
      [
        "!\n*investigator:",
        -9.03888988848983
      ],
      [
        " kort",
        -9.039833205826742
      ],
      [
        "ri",
        -9.041442480731064
      ],
      [
        " park",
        -9.04154927082296
      ],
      [
        " moeilijk",
        -9.042687925868579
      ],
      [
        "em",
        -9.044391786776359
      ],
      [
        "',",
        -9.044838944479974
      ],
      [
        " redenen",
        -9.044984945223446
      ],
      [
        "ium",
        -9.045786909056657
      ],
      [
        " bestaan",
        -9.047358153494102
      ],
      [
        " behulp",
        -9.048202660447476
      ],
      [
        " bas",
        -9.048646301482975
      ],
      [
        " liep",
        -9.049312299449852
      ],
      [
        " handen",
        -9.049681943151084
      ],
      [
        "bi",
        -9.05045250873818
      ],
      [
        " doordat",
        -9.05095221113278
      ],
      [
        " 0",
        -9.051741530443513
      ],
      [
        " komen.",
        -9.052406196691695
      ],
      [
        " namen",
        -9.053130369574625
      ],
      [
        " af.",
        -9.054108676709749
      ],
      [
        " prijs",
        -9.059728809409362
      ],
      [
        " buurt",
        -9.060098441119308
      ],
      [
        " doel",
        -9.060962024379336
      ],
      [
        "gaan",
        -9.06181987413747
      ],
      [
        " past",
        -9.06230115047231
      ],
      [
        "\thij",
        -9.063167715321875
      ],
      [
        "les",
        -9.063724662624473
      ],
      [
        "'.",
        -9.063827439754826
      ],
      [
        " sam",
        -9.066082571765563
      ],
      [
        " vogel",
        -9.066520098991042
      ],
      [
        " helpen",
        -9.067457774914436
      ],
      [
        " genoemd.",
        -9.068247702238226
      ],
      [
        " witte",
        -9.074495463566063
      ],
      [
        " an",
        -9.075147185712856
      ],
      [
        " minuten",
        -9.076557334203054
      ],
      [
        " kop",
        -9.076848391055856
      ],
      [
        " st",
        -9.078580527430391
      ],
      [
        " waarschijnlijk",
        -9.07926789969074
      ],
      [
        "ai",
        -9.080460411740091
      ],
      [
        " voetbal",
        -9.081819706933832
      ],
      [
        " juiste",
        -9.083046846310465
      ],
      [
        " 'we",
        -9.083733785232491
      ],
      [
        " alsof",
        -9.08409915568936
      ],
      [
        " rood",
        -9.085341035569973
      ],
      [
        " neemt",
        -9.085549480431723
      ],
      [
        "sa",
        -9.085659625325615
      ],
      [
        " verklaring",
        -9.087508521951955
      ],
      [
        " belgie",
        -9.087559468717608
      ],
      [
        " blijkt",
        -9.08776195799803
      ],
      [
        " gelukkig",
        -9.088803081238018
      ],
      [
        " tafel",
        -9.089224674104035
      ],
      [
        " berekening",
        -9.090580984838123
      ],
      [
        "een",
        -9.090666393155116
      ],
      [
        ".\n\ninhoud\n",
        -9.091136420764302
      ],
      [
        " der",
        -9.093129427091148
      ],
      [
        " echte",
        -9.093280589302367
      ],
      [
        " juf",
        -9.093438167907511
      ],
      [
        " zoon",
        -9.09415431108916
      ],
      [
        " zand",
        -9.094597583091135
      ],
      [
        " wereldoorlog",
        -9.097349465736322
      ],
      [
        " delen",
        -9.097913403683776
      ],
      [
        " dorp",
        -9.098926805921225
      ],
      [
        " gezicht",
        -9.100068225521524
      ],
      [
        "ce",
        -9.100226104764435
      ],
      [
        " bleef",
        -9.101653890145815
      ],
      [
        "mer",
        -9.103138294055796
      ],
      [
        " straat",
        -9.103143149335239
      ],
      [
        "isme",
        -9.104609065415925
      ],
      [
        " toon",
        -9.10595502153776
      ],
      [
        " 'en",
        -9.10616019637436
      ],
      [
        "wa",
        -9.106854216963702
      ],
      [
        " band",
        -9.109755032396448
      ],
      [
        "ba",
        -9.113111874640042
      ],
      [
        " con",
        -9.11349070712601
      ],
      [
        " top",
        -9.1138009726718
      ],
      [
        "mp",
        -9.11521879642614
      ],
      [
        " koninkrijk",
        -9.115457471400944
      ],
      [
        " gevonden",
        -9.11755233759926
      ],
      [
        " regen",
        -9.118163277787648
      ],
      [
        " letter",
        -9.118481996067851
      ],
      [
        ".\n*mother:\tnou",
        -9.119306488097585
      ],
      [
        " to",
        -9.119799279292566
      ],
      [
        " hulp",
        -9.120410382219818
      ],
      [
        " hebben.",
        -9.120508882400156
      ],
      [
        " 100",
        -9.12088958848115
      ],
      [
        "aal",
        -9.122870052069308
      ],
      [
        "au",
        -9.123424772544391
      ],
      [
        " eet",
        -9.123671955945502
      ],
      [
        ".\n*mother:\tdat",
        -9.124524761575143
      ],
      [
        "wel",
        -9.12510848961347
      ],
      [
        " was.",
        -9.125161828447887
      ],
      [
        "tie",
        -9.12700124787784
      ],
      [
        " gegeven",
        -9.127928840083063
      ],
      [
        " reactie",
        -9.129717014045855
      ],
      [
        " waarop",
        -9.13079281193154
      ],
      [
        "voor",
        -9.131382527749166
      ],
      [
        " recht",
        -9.132340316452305
      ],
      [
        " daarbij",
        -9.132465442634002
      ],
      [
        " noemen",
        -9.133050046863431
      ],
      [
        " opnieuw",
        -9.133559149006448
      ],
      [
        " new",
        -9.133894793124753
      ],
      [
        "\tmoet",
        -9.133920014999912
      ],
      [
        "\tzo",
        -9.133953277028814
      ],
      [
        " krijg",
        -9.13436458137936
      ],
      [
        " computer",
        -9.135891588161096
      ],
      [
        " video",
        -9.137189800889605
      ],
      [
        " staan.",
        -9.137267048536675
      ],
      [
        " bouw",
        -9.13863702073081
      ],
      [
        " spel",
        -9.139980544431923
      ],
      [
        " slag",
        -9.141059151555964
      ],
      [
        " hoofdstad",
        -9.141463980847455
      ],
      [
        "ek",
        -9.142741106082347
      ],
      [
        " zoveel",
        -9.144207415324061
      ],
      [
        " kilometer",
        -9.14613858412799
      ],
      [
        "ger",
        -9.146249095734289
      ],
      [
        " 21",
        -9.147463636406188
      ],
      [
        " geboren",
        -9.148775029366753
      ],
      [
        " vormen",
        -9.148835544463614
      ],
      [
        " hout",
        -9.149399126018313
      ],
      [
        "die",
        -9.15078339670572
      ],
      [
        "\n*mother:\t",
        -9.15099057206526
      ],
      [
        " stelling",
        -9.151752136637182
      ],
      [
        " reden",
        -9.15221440405018
      ],
      [
        " gregori",
        -9.152780817763599
      ],
      [
        " super",
        -9.153044219391457
      ],
      [
        " station",
        -9.153428568249375
      ],
      [
        " fa",
        -9.154437905676735
      ],
      [
        " bevolking",
        -9.155618688048849
      ],
      [
        " le",
        -9.15569186587377
      ],
      [
        " totaal",
        -9.156214248580067
      ],
      [
        " bank",
        -9.157298233355975
      ],
      [
        " brand",
        -9.157618953490072
      ],
      [
        " tabel",
        -9.158626252952775
      ],
      [
        " minister",
        -9.158755311354678
      ],
      [
        " kregen",
        -9.159738715155978
      ],
      [
        " voorbeelden",
        -9.160633615334472
      ],
      [
        " geval",
        -9.162368391279037
      ],
      [
        "mi",
        -9.162954903054501
      ],
      [
        " ieder",
        -9.16361929957232
      ],
      [
        "weg",
        -9.164059195234687
      ],
      [
        "ron",
        -9.16500162234487
      ],
      [
        " zwarte",
        -9.166502405044449
      ],
      [
        " li",
        -9.16893398084131
      ],
      [
        " benedictus",
        -9.170562805591722
      ],
      [
        " juli",
        -9.171112168348852
      ],
      [
        "lijn",
        -9.17351434001206
      ],
      [
        " viel",
        -9.17460820246153
      ],
      [
        " provincie",
        -9.175096779279215
      ],
      [
        "\tdaar",
        -9.176174126621758
      ],
      [
        " 1.",
        -9.176961306180395
      ],
      [
        " rusland",
        -9.177113398224254
      ],
      [
        " invloed",
        -9.177650980103786
      ],
      [
        "yl",
        -9.178365210653766
      ],
      [
        " ne",
        -9.17905551641705
      ],
      [
        " 'maar",
        -9.179783932594727
      ],
      [
        " overheid",
        -9.180800485080113
      ],
      [
        " internet",
        -9.181964137352141
      ],
      [
        "aar",
        -9.182008519895936
      ],
      [
        " gemaakt.",
        -9.182223166319401
      ],
      [
        "un",
        -9.18277458519683
      ],
      [
        ".000",
        -9.184781712008048
      ],
      [
        " derde",
        -9.18497660369258
      ],
      [
        "heden",
        -9.185355485257103
      ],
      [
        " won",
        -9.186692381488843
      ],
      [
        " 24",
        -9.187711349865525
      ],
      [
        " ooit",
        -9.187742541419023
      ],
      [
        " ra",
        -9.189200478264496
      ],
      [
        " bedrijf",
        -9.189389843591936
      ],
      [
        "id",
        -9.189575684269512
      ],
      [
        " december",
        -9.191757529875112
      ],
      [
        "ci",
        -9.192512738139412
      ],
      [
        " daarnaast",
        -9.193395312711228
      ],
      [
        " bezig",
        -9.195739637771373
      ],
      [
        " koningin",
        -9.196926225120338
      ],
      [
        " nacht",
        -9.198898791752118
      ],
      [
        " middel",
        -9.19925581881293
      ],
      [
        " langer",
        -9.199979059653877
      ],
      [
        " 'je",
        -9.20195246499828
      ],
      [
        " vallen",
        -9.20331845008289
      ],
      [
        " winkel",
        -9.203763273398524
      ],
      [
        " pe",
        -9.206193063908264
      ],
      [
        " zetten",
        -9.206407124220895
      ],
      [
        " maanden",
        -9.206993513989955
      ],
      [
        " zomer",
        -9.208539127653358
      ],
      [
        " ta",
        -9.209095831121349
      ],
      [
        " sterk",
        -9.209775876918346
      ],
      [
        "ber",
        -9.21128082030349
      ],
      [
        " neus",
        -9.213486092847909
      ],
      [
        " vul",
        -9.213637407752435
      ],
      [
        "schap",
        -9.214455237772654
      ],
      [
        "kken",
        -9.214682362701407
      ],
      [
        " afgelopen",
        -9.2151469773151
      ],
      [
        " voordat",
        -9.215644365810329
      ],
      [
        " jonge",
        -9.216974235582093
      ],
      [
        " halen",
        -9.217519364301399
      ],
      [
        " jo",
        -9.21846360775287
      ],
      [
        "ier",
        -9.220663184543248
      ],
      [
        " vliegtuig",
        -9.222311556959516
      ],
      [
        "sel",
        -9.222341109867683
      ],
      [
        " mo",
        -9.222445835318124
      ],
      [
        " allerlei",
        -9.223203914992666
      ],
      [
        " lijn",
        -9.224380025145168
      ],
      [
        " hoewel",
        -9.224865017305637
      ],
      [
        " berg",
        -9.226087813935804
      ],
      [
        " arm",
        -9.227178876051678
      ],
      [
        "50",
        -9.22802859344189
      ],
      [
        " problemen",
        -9.228097093241296
      ],
      [
        " ho",
        -9.229018359770574
      ],
      [
        " antwoorden",
        -9.229320907175179
      ],
      [
        " zichzelf",
        -9.230044841600796
      ],
      [
        " ontstaat",
        -9.23169438497254
      ],
      [
        " zoeken",
        -9.231746354952989
      ],
      [
        "dag",
        -9.233138557800743
      ],
      [
        " lid",
        -9.23442128664769
      ],
      [
        " waarmee",
        -9.234914987391706
      ],
      [
        " tim",
        -9.236564185819377
      ],
      [
        " di",
        -9.237002021238215
      ],
      [
        "\tis",
        -9.23710574158466
      ],
      [
        " basis",
        -9.239272118870991
      ],
      [
        " onderdeel",
        -9.239504025148038
      ],
      [
        " weg.",
        -9.240061292616463
      ],
      [
        " ergens",
        -9.241150548243278
      ],
      [
        " korte",
        -9.242428172130179
      ],
      [
        " schrijven",
        -9.24279856051999
      ],
      [
        " verschil",
        -9.243126583787333
      ],
      [
        "si",
        -9.243680944197434
      ],
      [
        "groep",
        -9.24373336846518
      ],
      [
        " warm",
        -9.24384143193044
      ],
      [
        " anderen",
        -9.244624161569392
      ],
      [
        " weken",
        -9.245007304160072
      ],
      [
        " go",
        -9.245771832249382
      ],
      [
        " oog",
        -9.245773033200216
      ],
      [
        " vlak",
        -9.246642563727763
      ],
      [
        " teken",
        -9.246686986807221
      ],
      [
        "kt",
        -9.24678617922099
      ],
      [
        " 50",
        -9.24711484428796
      ],
      [
        " oktober",
        -9.24830709930795
      ],
      [
        " krant",
        -9.249169743994404
      ],
      [
        " rijden",
        -9.25051570891713
      ],
      [
        " gezegd",
        -9.25053100542969
      ],
      [
        " gevraagd",
        -9.251171432763766
      ],
      [
        " wilt",
        -9.254423085848282
      ],
      [
        "the",
        -9.255606684263999
      ],
      [
        " gebouw",
        -9.25579355484476
      ],
      [
        "ling",
        -9.256178512006638
      ],
      [
        " zeer",
        -9.257586347916378
      ],
      [
        " melk",
        -9.259151640616452
      ],
      [
        " formule",
        -9.260537688383645
      ],
      [
        " leo",
        -9.260630145151852
      ],
      [
        " gevolg",
        -9.260759474827463
      ],
      [
        " links",
        -9.262538681003656
      ],
      [
        " slecht",
        -9.262955407334191
      ],
      [
        " pakken",
        -9.263586658084664
      ],
      [
        " museum",
        -9.264529739879446
      ],
      [
        "vi",
        -9.266681157606682
      ],
      [
        " gebieden",
        -9.267654172620393
      ],
      [
        " mis",
        -9.268018671117684
      ],
      [
        " half",
        -9.2684103166183
      ],
      [
        " zeven",
        -9.268635177494833
      ],
      [
        " opa",
        -9.269264940640932
      ],
      [
        " steen",
        -9.269335472222037
      ],
      [
        " ineens",
        -9.269547105444639
      ],
      [
        ".\n*mother:\toh",
        -9.270557680235592
      ],
      [
        " regels",
        -9.27096717983153
      ],
      [
        " papier",
        -9.271497270017226
      ],
      [
        " probleem",
        -9.272056768096022
      ],
      [
        "bouw",
        -9.273805510059304
      ],
      [
        "nadat",
        -9.274634791191419
      ],
      [
        " bekende",
        -9.27625609822855
      ],
      [
        " dummie",
        -9.276402522866663
      ],
      [
        " gegevens",
        -9.277099773915214
      ],
      [
        " uitleg",
        -9.277559804135509
      ],
      [
        " goud",
        -9.277864710043279
      ],
      [
        " waarde",
        -9.278695320066488
      ],
      [
        " lag",
        -9.279356642273845
      ],
      [
        " boos",
        -9.280355273304504
      ],
      [
        " mar",
        -9.281484084829486
      ],
      [
        "boek",
        -9.28160373087783
      ],
      [
        " vertelt",
        -9.282025632259446
      ],
      [
        " paard",
        -9.282923547749068
      ],
      [
        " pro",
        -9.282984379890614
      ],
      [
        " ervan",
        -9.283890570952945
      ],
      [
        " oranje",
        -9.284356060790182
      ],
      [
        "\n\nde",
        -9.284386129278149
      ],
      [
        " juni",
        -9.284440545443493
      ],
      [
        " nederland.",
        -9.285400106949647
      ],
      [
        " 'nee",
        -9.287377630138318
      ],
      [
        "ist",
        -9.288023655485828
      ],
      [
        " god",
        -9.288072874714116
      ],
      [
        " april",
        -9.288390041880481
      ],
      [
        " schip",
        -9.288863986321763
      ],
      [
        " plaatsen",
        -9.289926315778267
      ],
      [
        " tekening",
        -9.292265107811616
      ],
      [
        " daarmee",
        -9.292467690654483
      ],
      [
        "net",
        -9.294013461072154
      ],
      [
        " boeren",
        -9.295027152420712
      ],
      [
        " 'de",
        -9.296289359869265
      ],
      [
        " telefoon",
        -9.297714962630774
      ],
      [
        " china",
        -9.298281830288598
      ],
      [
        " winter",
        -9.298601228825744
      ],
      [
        "\tnog",
        -9.300327208411579
      ],
      [
        " vele",
        -9.300461478756025
      ],
      [
        " wilden",
        -9.301040917409077
      ],
      [
        "ant",
        -9.301258121326969
      ],
      [
        "eg",
        -9.302503369230617
      ],
      [
        "water",
        -9.303028912223503
      ],
      [
        "ry",
        -9.303250760874304
      ],
      [
        "\",",
        -9.303783600519793
      ],
      [
        " aangezien",
        -9.306210018932157
      ],
      [
        "uk",
        -9.307007956151281
      ],
      [
        "clemens",
        -9.307186956986184
      ],
      [
        " republiek",
        -9.307334137838778
      ],
      [
        " goos",
        -9.307347536728503
      ],
      [
        "ler",
        -9.308008412283973
      ],
      [
        "dat",
        -9.309822784881483
      ],
      [
        " ar",
        -9.310507563583101
      ],
      [
        " parlement",
        -9.31064065973201
      ],
      [
        " acht",
        -9.312393404999794
      ],
      [
        "hi",
        -9.31243388190042
      ],
      [
        " verkiezingen",
        -9.314278955439722
      ],
      [
        " neer",
        -9.315680415075219
      ],
      [
        " vanwege",
        -9.315828807064207
      ],
      [
        "va",
        -9.316503054094738
      ],
      [
        " hierbij",
        -9.318241641514
      ],
      [
        " oplossing",
        -9.318560418605948
      ],
      [
        " kinder",
        -9.318801887776592
      ],
      [
        " zorgt",
        -9.31881963936406
      ],
      [
        " bepaald",
        -9.319237382572341
      ],
      [
        "!\n*mother:\t",
        -9.320060366723435
      ],
      [
        " praten",
        -9.3225408717114
      ],
      [
        " dr",
        -9.323324871999775
      ],
      [
        "zijn",
        -9.32347692396115
      ],
      [
        "meer",
        -9.324394245923022
      ],
      [
        " persoon",
        -9.324602998095182
      ],
      [
        "\ttoen",
        -9.32462966467715
      ],
      [
        " wit",
        -9.324894226945705
      ],
      [
        " mevrouw",
        -9.324997997418134
      ],
      [
        " pa",
        -9.326456650204635
      ],
      [
        " feest",
        -9.327321357275181
      ],
      [
        " (de",
        -9.328237555247908
      ],
      [
        "so",
        -9.328769825312296
      ],
      [
        " televisie",
        -9.328785416795384
      ],
      [
        " begonnen",
        -9.329025180994682
      ],
      [
        " boot",
        -9.331771492602547
      ],
      [
        " morgen",
        -9.333183641506512
      ],
      [
        " hoger",
        -9.334059802488676
      ],
      [
        " meisjes",
        -9.334297383786478
      ],
      [
        " koffie",
        -9.334354397368397
      ],
      [
        " titel",
        -9.334748140650783
      ],
      [
        " mening",
        -9.335204263597964
      ],
      [
        " peter",
        -9.335365880256418
      ],
      [
        " stil",
        -9.337033054930012
      ],
      [
        "sie",
        -9.337394930061938
      ],
      [
        " bo",
        -9.337572853819385
      ],
      [
        "eerde",
        -9.337895613093908
      ],
      [
        ".\nhet",
        -9.339426733588244
      ],
      [
        " frans",
        -9.339652704265209
      ],
      [
        " zitten.",
        -9.33970177455962
      ],
      [
        " geschiedenis",
        -9.339722746631004
      ],
      [
        " ni",
        -9.341331307372926
      ],
      [
        " iedere",
        -9.341873880507666
      ],
      [
        " mocht",
        -9.341928634202903
      ],
      [
        "toe",
        -9.342317865827688
      ],
      [
        " maand",
        -9.342414243247768
      ],
      [
        "lie",
        -9.342925683006062
      ],
      [
        " partijen",
        -9.342975070900453
      ],
      [
        " 22",
        -9.343054890288194
      ],
      [
        " si",
        -9.344070059059014
      ],
      [
        " september",
        -9.344738669464311
      ],
      [
        " po",
        -9.3448501680231
      ],
      [
        " bedenk",
        -9.345171291559511
      ],
      [
        " november",
        -9.345848701515154
      ],
      [
        " (19",
        -9.346179586226961
      ],
      [
        " maximaal",
        -9.346740468231308
      ],
      [
        "...'",
        -9.34685610075077
      ],
      [
        "slag",
        -9.34817872273473
      ],
      [
        " ei",
        -9.349074794036852
      ],
      [
        "ion",
        -9.349347022635596
      ],
      [
        "dig",
        -9.351148189912774
      ],
      [
        " gekozen",
        -9.352126881623093
      ],
      [
        " gesloten",
        -9.35222465681897
      ],
      [
        " onderwijs",
        -9.352712142257369
      ],
      [
        "10",
        -9.352972263585405
      ],
      [
        " tom",
        -9.353014513894719
      ],
      [
        "(",
        -9.353982202993867
      ],
      [
        " spanje",
        -9.35566745577324
      ],
      [
        " speciale",
        -9.35930765728284
      ],
      [
        " bedacht",
        -9.359764767098026
      ],
      [
        " trap",
        -9.360032523616939
      ],
      [
        " pop",
        -9.361037549909888
      ],
      [
        " ziek",
        -9.362343654763393
      ],
      [
        "jo",
        -9.363145985805224
      ],
      [
        " leiden",
        -9.365789528522344
      ],
      [
        " gang",
        -9.366459555498434
      ],
      [
        "vol",
        -9.366590159713743
      ],
      [
        " nam",
        -9.36774363329529
      ],
      [
        " mee.",
        -9.367829461958333
      ],
      [
        " 1,",
        -9.369091031326114
      ],
      [
        " rechter",
        -9.370064222107025
      ],
      [
        "eel",
        -9.37022928358904
      ],
      [
        " huizen",
        -9.371239287460972
      ],
      [
        " meerdere",
        -9.371579720115468
      ],
      [
        " vrienden",
        -9.373385874817338
      ],
      [
        " pakt",
        -9.373653869310504
      ],
      [
        "komen",
        -9.37466785329267
      ],
      [
        " waarvan",
        -9.376927941302192
      ],
      [
        "stand",
        -9.377186077793965
      ],
      [
        " brief",
        -9.377199383520425
      ],
      [
        "nee",
        -9.37775155086394
      ],
      [
        " gebouwd",
        -9.381104092755464
      ],
      [
        "nummer",
        -9.3825646328089
      ],
      [
        " geworden",
        -9.383164541419466
      ],
      [
        " car",
        -9.385791526408775
      ],
      [
        "gebied",
        -9.386246765456477
      ],
      [
        "ring",
        -9.386352224686558
      ],
      [
        " prins",
        -9.386581226138807
      ],
      [
        "pel",
        -9.386701770340055
      ],
      [
        " vuur",
        -9.388083059835374
      ],
      [
        " bi",
        -9.388158957807406
      ],
      [
        " temperatuur",
        -9.388283993645944
      ],
      [
        " stroom",
        -9.388808841151075
      ],
      [
        " kopen",
        -9.38887432652604
      ],
      [
        " sneeuw",
        -9.389009473743195
      ],
      [
        " veld",
        -9.390290123492854
      ],
      [
        " innocent",
        -9.390711693253397
      ],
      [
        " su",
        -9.39116960274665
      ],
      [
        " laag",
        -9.39171518602275
      ],
      [
        " neem",
        -9.392100680139121
      ],
      [
        "ings",
        -9.392226349139985
      ],
      [
        " keizer",
        -9.3941333742946
      ],
      [
        "ff",
        -9.394317294635295
      ],
      [
        " radio",
        -9.396086741816392
      ],
      [
        " woont",
        -9.396975883113328
      ],
      [
        "met",
        -9.399830759601334
      ],
      [
        "ijn",
        -9.400035489947086
      ],
      [
        " afstand",
        -9.400200580546224
      ],
      [
        " let",
        -9.402110276941281
      ],
      [
        " letters",
        -9.40222043372789
      ],
      [
        " jongeren",
        -9.402628184885566
      ],
      [
        " €",
        -9.40278734694066
      ],
      [
        " cultuur",
        -9.40369796627674
      ],
      [
        " foto's",
        -9.403849958739723
      ],
      [
        " volledig",
        -9.403908826512055
      ],
      [
        " overal",
        -9.404051485938055
      ],
      [
        " noorden",
        -9.405482864640623
      ],
      [
        " rug",
        -9.405762384513274
      ],
      [
        " publiek",
        -9.406442391328474
      ],
      [
        "vo",
        -9.407097766680309
      ],
      [
        " val",
        -9.407315315708587
      ],
      [
        " politiek",
        -9.407354078709073
      ],
      [
        " poes",
        -9.408222173348342
      ],
      [
        " massa",
        -9.409049924151534
      ],
      [
        "tel",
        -9.411229204609343
      ],
      [
        " doen?",
        -9.413335313049899
      ],
      [
        "uren",
        -9.413498283748025
      ],
      [
        " club",
        -9.413751983326948
      ],
      [
        " engeland",
        -9.41419967199303
      ],
      [
        " proberen",
        -9.414825873012846
      ],
      [
        " km",
        -9.41730167332026
      ],
      [
        " italie",
        -9.417527160480322
      ],
      [
        " stoel",
        -9.418188146889648
      ],
      [
        " muur",
        -9.41825143461557
      ],
      [
        " klimaat",
        -9.418826062500937
      ],
      [
        " bad",
        -9.419013801421196
      ],
      [
        " volk",
        -9.4201170600876
      ],
      [
        " britse",
        -9.420708250145223
      ],
      [
        " ju",
        -9.42223829538493
      ],
      [
        " beginnen",
        -9.422504215960197
      ],
      [
        " bus",
        -9.42387503801454
      ],
      [
        " geschreven",
        -9.424092369690026
      ],
      [
        " beneden",
        -9.424312616549779
      ],
      [
        " slechts",
        -9.425021774310885
      ],
      [
        "spel",
        -9.425158391697607
      ],
      [
        " gaan.",
        -9.42524170159495
      ],
      [
        " gevallen",
        -9.425945977501682
      ],
      [
        " kosten",
        -9.426081663295028
      ],
      [
        " viii",
        -9.427048920736262
      ],
      [
        " straks",
        -9.427313029799237
      ],
      [
        " 23",
        -9.427926698078341
      ],
      [
        " lijst",
        -9.429749530600045
      ],
      [
        " zes",
        -9.430376028972889
      ],
      [
        " zuiden",
        -9.43334807988833
      ],
      [
        "eert",
        -9.433363009097125
      ],
      [
        " eu",
        -9.433964369212836
      ],
      [
        " tu",
        -9.434005188199428
      ],
      [
        " bevat",
        -9.43518075749354
      ],
      [
        " daarvoor",
        -9.436094668247206
      ],
      [
        " scholen",
        -9.43615199439674
      ],
      [
        " amerika",
        -9.436909383251047
      ],
      [
        " elkaar.",
        -9.438345225246904
      ],
      [
        " slapen",
        -9.438606661652251
      ],
      [
        " kapot",
        -9.439080843869583
      ],
      [
        " oostenrijk",
        -9.439268155614572
      ],
      [
        "20",
        -9.439837284267005
      ],
      [
        " leer",
        -9.439878726260496
      ],
      [
        " pak",
        -9.440989242824697
      ],
      [
        "lang",
        -9.441277736061572
      ],
      [
        " hoop",
        -9.441621342438067
      ],
      [
        "\tmaar",
        -9.441678448795038
      ],
      [
        "sh",
        -9.442698761933192
      ],
      [
        " stoffen",
        -9.442894691230592
      ],
      [
        ".\n*mother:\txxx",
        -9.444421841306697
      ],
      [
        "oor",
        -9.44446372198317
      ],
      [
        " kasteel",
        -9.446735476566317
      ],
      [
        " broer",
        -9.446987108957961
      ],
      [
        " rotterdam",
        -9.447734317295183
      ],
      [
        "elijke",
        -9.448326333209563
      ],
      [
        " 40",
        -9.448777796741025
      ],
      [
        " onafhankelijk",
        -9.449261585753367
      ],
      [
        " kikker",
        -9.449609445247674
      ],
      [
        " ca",
        -9.450584304400953
      ],
      [
        "ook",
        -9.451092582339841
      ],
      [
        " (zie",
        -9.451570318796124
      ],
      [
        " keuken",
        -9.452425807592478
      ],
      [
        " hield",
        -9.452735086433737
      ],
      [
        " toe.",
        -9.453361381814936
      ],
      [
        "nk",
        -9.453663460861605
      ],
      [
        " rij",
        -9.454145495996407
      ],
      [
        "\tdit",
        -9.454195768873104
      ],
      [
        "ki",
        -9.455084061557086
      ],
      [
        " wet",
        -9.455300571076991
      ],
      [
        "hoe",
        -9.457483460970858
      ],
      [
        " krijgen.",
        -9.458528531496597
      ],
      [
        "vis",
        -9.458905907413422
      ],
      [
        " augustus",
        -9.459181217549203
      ],
      [
        " nummers",
        -9.460236834706944
      ],
      [
        " 2.",
        -9.460392000449348
      ],
      [
        "aat",
        -9.461025973098202
      ],
      [
        " kleuren",
        -9.461187496723953
      ],
      [
        "geven",
        -9.461406571823684
      ],
      [
        " bomen",
        -9.461624598392419
      ],
      [
        " suiker",
        -9.461980481458012
      ],
      [
        "je.",
        -9.462411631731966
      ],
      [
        " do",
        -9.462650677650952
      ],
      [
        ".\n*mother:\tik",
        -9.462851368514782
      ],
      [
        " maan",
        -9.462939128469474
      ],
      [
        "ica",
        -9.463040641480193
      ],
      [
        " bedrijven",
        -9.46434416583573
      ],
      [
        " (12",
        -9.464946976687502
      ],
      [
        " da",
        -9.46539001559546
      ],
      [
        "bij",
        -9.466034994219658
      ],
      [
        "ot",
        -9.46628296528718
      ],
      [
        " ba",
        -9.466332713117657
      ],
      [
        " alexander",
        -9.46676436980144
      ],
      [
        "waar",
        -9.467079363574884
      ],
      [
        " maart",
        -9.467931381259081
      ],
      [
        " kust",
        -9.468934998290269
      ],
      [
        " teksten",
        -9.46919290770885
      ],
      [
        "eur",
        -9.469463399817364
      ],
      [
        " eruit",
        -9.470277778448212
      ],
      [
        " donker",
        -9.47134466900905
      ],
      [
        " rechts",
        -9.472044873799646
      ],
      [
        " plaatje",
        -9.473635515583165
      ],
      [
        " ziekte",
        -9.474580806126585
      ],
      [
        " dochter",
        -9.474683646577102
      ],
      [
        " glas",
        -9.474739432306652
      ],
      [
        " bronnen",
        -9.474771046089057
      ],
      [
        " drinken",
        -9.475213997006412
      ],
      [
        " serie",
        -9.475339230643323
      ],
      [
        " es",
        -9.475834757751011
      ],
      [
        "maken",
        -9.476132957777784
      ],
      [
        " aandacht",
        -9.477098525555498
      ],
      [
        " vii",
        -9.478835223038331
      ],
      [
        "kracht",
        -9.478871409870866
      ],
      [
        "pa",
        -9.479630725712378
      ],
      [
        " 2000",
        -9.480390371212247
      ],
      [
        "tische",
        -9.480421593746389
      ],
      [
        " procent",
        -9.480533095321785
      ],
      [
        " functie",
        -9.481604311064052
      ],
      [
        " producten",
        -9.482888178908615
      ],
      [
        "bare",
        -9.48347106403658
      ],
      [
        "king",
        -9.483709395233754
      ],
      [
        " stel",
        -9.484023662276039
      ],
      [
        " ruim",
        -9.484288606149427
      ],
      [
        ".\n*mother:\tzo",
        -9.485150777099902
      ],
      [
        " mi",
        -9.485649783927586
      ],
      [
        " koe",
        -9.486461694408412
      ],
      [
        " media",
        -9.486706670453271
      ],
      [
        "bal",
        -9.486835576825145
      ],
      [
        " pre",
        -9.487438751972114
      ],
      [
        " as",
        -9.487834401833101
      ],
      [
        "ft",
        -9.488509844614425
      ],
      [
        "za",
        -9.488720030605199
      ],
      [
        "\tmama",
        -9.48887180162719
      ],
      [
        " enorm",
        -9.489232745481617
      ],
      [
        " lu",
        -9.489585968421972
      ],
      [
        "?\n*father:\t",
        -9.49026483366356
      ],
      [
        " actie",
        -9.490816022808787
      ],
      [
        " blauw",
        -9.490907143141204
      ],
      [
        " fi",
        -9.492413542367329
      ],
      [
        "rie",
        -9.492686845787402
      ],
      [
        "huidige",
        -9.493826565691382
      ],
      [
        " pan",
        -9.49512423617365
      ],
      [
        " olie",
        -9.49596458506581
      ],
      [
        " normaal",
        -9.495979171951292
      ],
      [
        " baby",
        -9.496963661856267
      ],
      [
        " hoeveelheid",
        -9.497013684723052
      ],
      [
        "ging",
        -9.497145967568004
      ],
      [
        " (13",
        -9.497976827514261
      ],
      [
        " vorige",
        -9.498960405901832
      ],
      [
        " kruis",
        -9.50011688009501
      ],
      [
        " huid",
        -9.500785275380867
      ],
      [
        " grens",
        -9.500803765953796
      ],
      [
        " geloof",
        -9.50098540305835
      ],
      [
        " vlees",
        -9.50108240504548
      ],
      [
        " vonden",
        -9.501827947149316
      ],
      [
        "door",
        -9.502378957828775
      ],
      [
        " kiezen",
        -9.502450926845617
      ],
      [
        "gaat",
        -9.502474115759378
      ],
      [
        " gisteren",
        -9.502510869183766
      ],
      [
        " rustig",
        -9.502573039469063
      ],
      [
        " jeugdjournaal",
        -9.502767508726233
      ],
      [
        "\tdeze",
        -9.502943527656312
      ],
      [
        "ll",
        -9.504420418856178
      ],
      [
        "recht",
        -9.506185036957627
      ],
      [
        "ale",
        -9.507132173828735
      ],
      [
        "bu",
        -9.507201693306264
      ],
      [
        " 't",
        -9.507422801396961
      ],
      [
        " milieu",
        -9.507937952602173
      ],
      [
        " leden",
        -9.5086635918655
      ],
      [
        " gas",
        -9.509520651977677
      ],
      [
        "lopen",
        -9.510155482007129
      ],
      [
        "pius",
        -9.510300331840849
      ],
      [
        ")\n",
        -9.511914660535323
      ],
      [
        " helft",
        -9.513241238978216
      ],
      [
        " ix",
        -9.513457325018386
      ],
      [
        " engels",
        -9.513947215578606
      ],
      [
        " bekijk",
        -9.515039154548115
      ],
      [
        " dak",
        -9.515474466435172
      ],
      [
        " hoogte",
        -9.515874203462044
      ],
      [
        " dikke",
        -9.516475635279349
      ],
      [
        " strand",
        -9.516525696242786
      ],
      [
        " bouwen",
        -9.520012010830131
      ],
      [
        "licht",
        -9.520108973989158
      ],
      [
        " erop",
        -9.52088476583029
      ],
      [
        " leeftijd",
        -9.522273771787274
      ],
      [
        " karel",
        -9.522327892108049
      ],
      [
        "sche",
        -9.522385706257634
      ],
      [
        " spullen",
        -9.522504993695724
      ],
      [
        "erd",
        -9.523056551651486
      ],
      [
        " schrijver",
        -9.52465743609928
      ],
      [
        "dan",
        -9.524672578559546
      ],
      [
        "sp",
        -9.524747185578487
      ],
      [
        " markt",
        -9.525420852735135
      ],
      [
        " engelse",
        -9.526477110375822
      ],
      [
        "kan",
        -9.527763357051564
      ],
      [
        " last",
        -9.527908427149143
      ],
      [
        " buik",
        -9.529283813698898
      ],
      [
        "rij",
        -9.529360356759359
      ],
      [
        " februari",
        -9.529420517966118
      ],
      [
        " uit:",
        -9.529742968095539
      ],
      [
        " kost",
        -9.530335169492762
      ],
      [
        " verhalen",
        -9.531565153959786
      ],
      [
        " bijzonder",
        -9.532329999556612
      ],
      [
        "uur",
        -9.532809839988124
      ],
      [
        "ang",
        -9.534845018004054
      ],
      [
        " utrecht",
        -9.535185478453595
      ],
      [
        " langzaam",
        -9.535249841881614
      ],
      [
        " succes",
        -9.535461237135817
      ],
      [
        " uw",
        -9.535478835904659
      ],
      [
        "taal",
        -9.53563585172299
      ],
      [
        " hoeft",
        -9.535684374093607
      ],
      [
        " min",
        -9.536188229129525
      ],
      [
        " vissen",
        -9.536221027909178
      ],
      [
        " ijzer",
        -9.536610247793782
      ],
      [
        "-1",
        -9.536860793390925
      ],
      [
        " bedoeld",
        -9.537363478160183
      ],
      [
        " motor",
        -9.539648113688283
      ],
      [
        " duurt",
        -9.540335587206021
      ],
      [
        "nu",
        -9.540721736914445
      ],
      [
        " plant",
        -9.54100523649834
      ],
      [
        "stad",
        -9.54144589613166
      ],
      [
        " regel",
        -9.54204410745266
      ],
      [
        " populair",
        -9.542325428891827
      ],
      [
        " groepen",
        -9.542955792788623
      ],
      [
        " voorkomen",
        -9.543223139920848
      ],
      [
        "komt",
        -9.544168668905296
      ],
      [
        "lig",
        -9.54437328373324
      ],
      [
        " gespeeld",
        -9.544494697125849
      ],
      [
        "mel",
        -9.544715012085952
      ],
      [
        "ting",
        -9.545783489920325
      ],
      [
        " artikel",
        -9.546328890347624
      ],
      [
        " oh",
        -9.546376157012908
      ],
      [
        "?\n*mother:\tja",
        -9.546729326275816
      ],
      [
        " ontdekt",
        -9.546896877437394
      ],
      [
        " kleding",
        -9.548020156375776
      ],
      [
        "her",
        -9.548538923105117
      ],
      [
        " uitspraak",
        -9.548809667927706
      ],
      [
        "mon",
        -9.549299328216154
      ],
      [
        " kar",
        -9.551306548818943
      ],
      [
        " nederlanders",
        -9.551435963579767
      ],
      [
        " gehouden",
        -9.552602237439823
      ],
      [
        "ah",
        -9.552673029706078
      ],
      [
        " loop",
        -9.554025283973218
      ],
      [
        " ke",
        -9.554168008783156
      ],
      [
        " bar",
        -9.555166537646107
      ],
      [
        " vogels",
        -9.556043468183564
      ],
      [
        " dik",
        -9.556306219307334
      ],
      [
        " brug",
        -9.556547146171686
      ],
      [
        " situatie",
        -9.556960110379379
      ],
      [
        " vriend",
        -9.557044080037246
      ],
      [
        " gi",
        -9.557057259104429
      ],
      [
        " avond",
        -9.558025151760386
      ],
      [
        " hiervoor",
        -9.55872090073232
      ],
      [
        " filmpje",
        -9.558807111741963
      ],
      [
        " verschillen",
        -9.558880078624387
      ],
      [
        "con",
        -9.561046331321856
      ],
      [
        "punt",
        -9.56133006152113
      ],
      [
        " strijd",
        -9.56285962634339
      ],
      [
        "isten",
        -9.563750535328174
      ],
      [
        "laat",
        -9.564378325083242
      ],
      [
        "van",
        -9.564530169940557
      ],
      [
        " daarvan",
        -9.564783822254425
      ],
      [
        " economische",
        -9.564815639922497
      ],
      [
        " houden.",
        -9.565116367681515
      ],
      [
        " productie",
        -9.56588040716229
      ],
      [
        "ty",
        -9.566105435269147
      ],
      [
        " (in",
        -9.566611386083068
      ],
      [
        "hu",
        -9.566670539435032
      ],
      [
        " richting",
        -9.567022143189076
      ],
      [
        "ag",
        -9.56707024274461
      ],
      [
        " direct",
        -9.568362117132041
      ],
      [
        " gedeelte",
        -9.569206191046408
      ],
      [
        "plaats",
        -9.569343071378245
      ],
      [
        " boer",
        -9.569987127276441
      ],
      [
        " bloemen",
        -9.570002681775842
      ],
      [
        " du",
        -9.570597387953931
      ],
      [
        " reacties",
        -9.571221590094481
      ],
      [
        " erin",
        -9.571311275389522
      ],
      [
        " tas",
        -9.571610498947113
      ],
      [
        " stonden",
        -9.57201869238823
      ],
      [
        " staart",
        -9.572586540439481
      ],
      [
        "wijk",
        -9.572912063868884
      ],
      [
        " opge",
        -9.572956909657096
      ],
      [
        "niet",
        -9.574202345736362
      ],
      [
        " zak",
        -9.574657657574782
      ],
      [
        " pijn",
        -9.575836352363071
      ],
      [
        " schreef",
        -9.575906902142648
      ],
      [
        "iek",
        -9.57654944253192
      ],
      [
        " snelheid",
        -9.576706683119982
      ],
      [
        " ru",
        -9.577297208517715
      ],
      [
        " koud",
        -9.577611753568075
      ],
      [
        "sta",
        -9.577760652547392
      ],
      [
        " trekt",
        -9.578363587099679
      ],
      [
        " hoorde",
        -9.578688564855836
      ],
      [
        " joost",
        -9.580080764788867
      ],
      [
        " jongetje",
        -9.580150390388877
      ],
      [
        " aanwezig",
        -9.582527817281019
      ],
      [
        " (9",
        -9.58262825701054
      ],
      [
        " sprake",
        -9.582699356530622
      ],
      [
        " toren",
        -9.582866632799462
      ],
      [
        " groen",
        -9.58312994723611
      ],
      [
        " gebruikte",
        -9.583751520392397
      ],
      [
        " bestond",
        -9.584041764000204
      ],
      [
        " diep",
        -9.58466124301287
      ],
      [
        " afrika",
        -9.584741883674635
      ],
      [
        " 26",
        -9.584787446653445
      ],
      [
        " land.",
        -9.585000629041115
      ],
      [
        " gemiddelde",
        -9.585297233906
      ],
      [
        " 31",
        -9.585897935217641
      ],
      [
        "berg",
        -9.586267720026607
      ],
      [
        " wacht",
        -9.586659887446107
      ],
      [
        " kracht",
        -9.587086505310422
      ],
      [
        " verband",
        -9.588341843407344
      ],
      [
        " wachten",
        -9.588446852393943
      ],
      [
        " betalen",
        -9.588774249949228
      ],
      [
        " 2010",
        -9.589523326385974
      ],
      [
        "let",
        -9.59063777077391
      ],
      [
        " programma",
        -9.591706746067622
      ],
      [
        " brengen",
        -9.59260182949189
      ],
      [
        " fo",
        -9.594391472415252
      ],
      [
        " gras",
        -9.594945865760256
      ],
      [
        " (8",
        -9.595027176319249
      ],
      [
        " zwaar",
        -9.595686949383225
      ],
      [
        "loos",
        -9.596185689720972
      ],
      [
        "\".",
        -9.596197755294988
      ],
      [
        " oom",
        -9.596241966586447
      ],
      [
        "romeinse",
        -9.59670188272084
      ],
      [
        "stel",
        -9.597830946227754
      ],
      [
        " york",
        -9.598133503543679
      ],
      [
        ".\n*mother:",
        -9.598153716629845
      ],
      [
        " unie",
        -9.598405458791207
      ],
      [
        " gemeenten",
        -9.59897312563497
      ],
      [
        " gu",
        -9.600464449592042
      ],
      [
        "ef",
        -9.60180045376723
      ],
      [
        " zaken",
        -9.601887954466251
      ],
      [
        " ontwikkeling",
        -9.602399263796684
      ],
      [
        " gebeurde",
        -9.602680961075002
      ],
      [
        "doen",
        -9.602748731789594
      ],
      [
        "veld",
        -9.603149524803882
      ],
      [
        " gouden",
        -9.603238068327464
      ],
      [
        " baas",
        -9.603914020132828
      ],
      [
        " broek",
        -9.604588684217562
      ],
      [
        " landbouw",
        -9.605445966713118
      ],
      [
        " waaronder",
        -9.606221544715266
      ],
      [
        " probeert",
        -9.606558999139763
      ],
      [
        "cy",
        -9.60718327359439
      ],
      [
        " vliegen",
        -9.607457279243057
      ],
      [
        " am",
        -9.6075834937025
      ],
      [
        "nnen",
        -9.608372206845194
      ],
      [
        " maakten",
        -9.60901679948564
      ],
      [
        "school",
        -9.610478714475349
      ],
      [
        "zetten",
        -9.612029433566757
      ],
      [
        " hi",
        -9.612265076306404
      ],
      [
        " cm",
        -9.612426165185141
      ],
      [
        "lijst",
        -9.613237096711025
      ],
      [
        " auto's",
        -9.613647141045634
      ],
      [
        " toekomst",
        -9.61382729546321
      ],
      [
        " sociale",
        -9.613946364054282
      ],
      [
        " grafiek",
        -9.6146721610389
      ],
      [
        " maria",
        -9.615333212309398
      ],
      [
        " japan",
        -9.61712522698896
      ],
      [
        "kie",
        -9.617502739266689
      ],
      [
        "ip",
        -9.618559131067823
      ],
      [
        " 27",
        -9.619311340995997
      ],
      [
        ".\neen",
        -9.619526168788855
      ],
      [
        "mm",
        -9.61972906792705
      ],
      [
        "min",
        -9.621068935412865
      ],
      [
        " probeerde",
        -9.621176117050094
      ],
      [
        " 28",
        -9.621356786302176
      ],
      [
        " zwart",
        -9.621450507548982
      ],
      [
        " and",
        -9.62145337017467
      ],
      [
        "nie",
        -9.621811379666578
      ],
      [
        " universiteit",
        -9.623355564773824
      ],
      [
        " vaker",
        -9.624454435455121
      ],
      [
        "gang",
        -9.625019611717772
      ],
      [
        " afge",
        -9.62546947075814
      ],
      [
        " cor",
        -9.6255431403486
      ],
      [
        ".\nnoem",
        -9.625887259620356
      ],
      [
        "im",
        -9.62649904370017
      ],
      [
        "chi",
        -9.627243079407936
      ],
      [
        " verenigd",
        -9.627909352808516
      ],
      [
        " fout",
        -9.62815548819698
      ],
      [
        "s)",
        -9.62946321272442
      ],
      [
        " hoek",
        -9.633673364008132
      ],
      [
        " vragen.",
        -9.633871374133296
      ],
      [
        " verdeeld",
        -9.634058959485447
      ],
      [
        " haag",
        -9.634109233630138
      ],
      [
        " economie",
        -9.634738210606715
      ],
      [
        " pap",
        -9.634970536011178
      ],
      [
        "zet",
        -9.63670518901301
      ],
      [
        " zorg",
        -9.636865165752134
      ],
      [
        "\tdan",
        -9.637165975540352
      ],
      [
        " sta",
        -9.637180997400268
      ],
      [
        "s-",
        -9.637701416019542
      ],
      [
        " paleis",
        -9.638010094245018
      ],
      [
        " groei",
        -9.638228062586585
      ],
      [
        " kijken.",
        -9.63853781667676
      ],
      [
        " roos",
        -9.639497110675041
      ],
      [
        " (20",
        -9.640393984614459
      ],
      [
        " spreken",
        -9.640520065567493
      ],
      [
        "elen",
        -9.640750739485412
      ],
      [
        "ns",
        -9.641173255262999
      ],
      [
        " finale",
        -9.643761616427053
      ],
      [
        "band",
        -9.644665647219433
      ],
      [
        "bra",
        -9.644885142186066
      ],
      [
        " ontstond",
        -9.645386620187157
      ],
      [
        " q",
        -9.645861831127117
      ],
      [
        " wegen",
        -9.64587571035434
      ],
      [
        "ssen",
        -9.646472924009144
      ],
      [
        " groene",
        -9.647340510964792
      ],
      [
        " bu",
        -9.64795424544325
      ],
      [
        " honden",
        -9.648988359593101
      ],
      [
        " prinses",
        -9.649057245095658
      ],
      [
        " bord",
        -9.649065210534784
      ],
      [
        " eilanden",
        -9.649067937160378
      ],
      [
        " vlag",
        -9.649662432037891
      ],
      [
        " baan",
        -9.650468534863851
      ],
      [
        " uitge",
        -9.650831701938479
      ],
      [
        " centrum",
        -9.653443992539271
      ],
      [
        " leek",
        -9.654065508316696
      ],
      [
        " personen",
        -9.655580872521055
      ],
      [
        " vet",
        -9.65567744935953
      ],
      [
        " fe",
        -9.656607677475646
      ],
      [
        " trok",
        -9.656879423678532
      ],
      [
        " ex",
        -9.65757332323847
      ],
      [
        " wa",
        -9.65760581062035
      ],
      [
        "z'n",
        -9.658375976711255
      ],
      [
        "ou",
        -9.658383683473266
      ],
      [
        " voet",
        -9.659164141175584
      ],
      [
        " beweging",
        -9.659406587646153
      ],
      [
        " ruzie",
        -9.659895053264956
      ],
      [
        "naam",
        -9.659963344293978
      ],
      [
        " ...de",
        -9.660239942193021
      ],
      [
        " tante",
        -9.66041851395384
      ],
      [
        "age",
        -9.661623865593771
      ],
      [
        "dam",
        -9.661757115778347
      ],
      [
        "totale",
        -9.661836039979413
      ],
      [
        "ning",
        -9.662520370006373
      ],
      [
        " brood",
        -9.662665362275591
      ],
      [
        " passen",
        -9.66279487039667
      ],
      [
        "dit",
        -9.662850731910364
      ],
      [
        "rit",
        -9.663465140688771
      ],
      [
        " naar:",
        -9.664457499605225
      ],
      [
        "gu",
        -9.664649217322545
      ],
      [
        " kleiner",
        -9.66488884279676
      ],
      [
        "ac",
        -9.665389886507601
      ],
      [
        "tro",
        -9.666284401711788
      ],
      [
        " ko",
        -9.666705374495443
      ],
      [
        " kn",
        -9.66717474975456
      ],
      [
        "12",
        -9.667219803450717
      ],
      [
        " dokter",
        -9.667408710830095
      ],
      [
        " provincies",
        -9.667890666787066
      ],
      [
        "park",
        -9.66878699821392
      ],
      [
        " leggen",
        -9.668907268767045
      ],
      [
        " klinkt",
        -9.670351470030585
      ],
      [
        "goed",
        -9.670876580734607
      ],
      [
        " au",
        -9.670944896759512
      ],
      [
        " gesproken",
        -9.671857034712744
      ],
      [
        ".\n\nop",
        -9.672043710774858
      ],
      [
        " gebruikt.",
        -9.672104047141016
      ],
      [
        " erbij",
        -9.672385282825818
      ],
      [
        " jaar.",
        -9.672687788428513
      ],
      [
        "kamer",
        -9.67332803515539
      ],
      [
        "mar",
        -9.674234563391641
      ],
      [
        " schrijft",
        -9.674246669007228
      ],
      [
        " gauw",
        -9.674823571185286
      ],
      [
        " hoogste",
        -9.674900549010083
      ],
      [
        " gevaarlijk",
        -9.67530162139532
      ],
      [
        "lin",
        -9.675633238726064
      ],
      [
        " zingen",
        -9.67663154671153
      ],
      [
        " geldt",
        -9.677123481228477
      ],
      [
        " makkelijk",
        -9.677158448550943
      ],
      [
        " vervangen",
        -9.67769497260799
      ],
      [
        "fi",
        -9.678041149189099
      ],
      [
        ".\n*",
        -9.678081136205318
      ],
      [
        " gedrag",
        -9.678243404748962
      ],
      [
        " stephan",
        -9.678449539210765
      ],
      [
        " jong",
        -9.67852780771507
      ],
      [
        " haven",
        -9.678801032533284
      ],
      [
        " vinden.",
        -9.679496219329941
      ],
      [
        " volgt",
        -9.680014815736236
      ],
      [
        " cas",
        -9.680245107572167
      ],
      [
        "ppen",
        -9.680726964842162
      ],
      [
        " moderne",
        -9.68122991917049
      ],
      [
        " plekken",
        -9.68207700544383
      ],
      [
        " hu",
        -9.682144599879717
      ],
      [
        " blauwe",
        -9.682467460194372
      ],
      [
        " burgemeester",
        -9.68309870674388
      ],
      [
        " zuurstof",
        -9.683118667864154
      ],
      [
        " (11",
        -9.683731443824986
      ],
      [
        " slaap",
        -9.684116463250767
      ],
      [
        " trekken",
        -9.684218347551665
      ],
      [
        " legt",
        -9.68513517436692
      ],
      [
        "ont",
        -9.687227331886675
      ],
      [
        " bleek",
        -9.687389119233487
      ],
      [
        "en\n",
        -9.68860966482423
      ],
      [
        "vel",
        -9.688828605350931
      ],
      [
        " mol",
        -9.689099407416618
      ],
      [
        " gewone",
        -9.689722672598016
      ],
      [
        "ap",
        -9.689928752240268
      ],
      [
        " y",
        -9.690113945993872
      ],
      [
        " soldaten",
        -9.690135272004255
      ],
      [
        "a's",
        -9.690632610899325
      ],
      [
        " beer",
        -9.69129932968771
      ],
      [
        "tra",
        -9.692529330638605
      ],
      [
        " gekregen",
        -9.692552437301439
      ],
      [
        " leeg",
        -9.692722501607442
      ],
      [
        "lu",
        -9.69311586206378
      ],
      [
        " fijn",
        -9.693214197432024
      ],
      [
        " bak",
        -9.693741676062064
      ],
      [
        " gebeurd",
        -9.69415394375924
      ],
      [
        " 2012",
        -9.694751759250828
      ],
      [
        " 3.",
        -9.696529799769328
      ],
      [
        " wereld.",
        -9.696543134064063
      ],
      [
        " haalt",
        -9.696911487446815
      ],
      [
        "30",
        -9.697036613157909
      ],
      [
        " inmiddels",
        -9.697687452904034
      ],
      [
        " gevoel",
        -9.697732205655429
      ],
      [
        "onder",
        -9.698007523487007
      ],
      [
        " water.",
        -9.69801664480655
      ],
      [
        " hangt",
        -9.698162636660943
      ],
      [
        " parijs",
        -9.698199558204777
      ],
      [
        " storm",
        -9.698918904754093
      ],
      [
        "-19",
        -9.699878554437932
      ],
      [
        " groeien",
        -9.700070334110405
      ],
      [
        " frank",
        -9.70175684998521
      ],
      [
        " speelde",
        -9.701782930236885
      ],
      [
        "-jarige",
        -9.702268986785633
      ],
      [
        " stelt",
        -9.702448092481903
      ],
      [
        " speciaal",
        -9.702743953110678
      ],
      [
        " jeugd",
        -9.70401589886497
      ],
      [
        " organisatie",
        -9.704978495896512
      ],
      [
        " onderzoekers",
        -9.70600770402045
      ],
      [
        " gehad",
        -9.70632594930684
      ],
      [
        " raad",
        -9.70705175175402
      ],
      [
        "ert",
        -9.7070714638891
      ],
      [
        " 2014",
        -9.707492434610856
      ],
      [
        "vallen",
        -9.708252556963165
      ],
      [
        " versie",
        -9.708353049350206
      ],
      [
        " straf",
        -9.709676563630442
      ],
      [
        " oor",
        -9.709833149705794
      ],
      [
        "ina",
        -9.711221945703201
      ],
      [
        "ele",
        -9.711448345491894
      ],
      [
        " ab",
        -9.711455718889312
      ],
      [
        " gemiddeld",
        -9.712679262571642
      ],
      [
        " veilig",
        -9.712760058658297
      ],
      [
        " handel",
        -9.713522897370819
      ],
      [
        "tu",
        -9.71400767241558
      ],
      [
        "tor",
        -9.715729373439945
      ],
      [
        "bie",
        -9.716325056598613
      ],
      [
        " vergelijking",
        -9.716927221710357
      ],
      [
        "olympische",
        -9.717075937091725
      ],
      [
        " wakker",
        -9.717238767627563
      ],
      [
        "del",
        -9.718543520422891
      ],
      [
        " moe",
        -9.718707137561672
      ],
      [
        " droog",
        -9.719377185187792
      ],
      [
        " bloem",
        -9.71960657238582
      ],
      [
        "wat",
        -9.719659546974155
      ],
      [
        " verkocht",
        -9.720140780502714
      ],
      [
        " kerst",
        -9.720353092042437
      ],
      [
        " armen",
        -9.720667908569808
      ],
      [
        " draait",
        -9.720903421923538
      ],
      [
        " ger",
        -9.720974106338774
      ],
      [
        " ziekenhuis",
        -9.721163455915176
      ],
      [
        " omgeving",
        -9.72121878144585
      ],
      [
        " kent",
        -9.722351842933504
      ],
      [
        " eindelijk",
        -9.723307904467658
      ],
      [
        " appel",
        -9.725631429959432
      ],
      [
        " volgorde",
        -9.725650669216348
      ],
      [
        " zaten",
        -9.725918876050972
      ],
      [
        " vrije",
        -9.726109755070368
      ],
      [
        " team",
        -9.727846961026227
      ],
      [
        "blad",
        -9.72787592251628
      ],
      [
        " schat",
        -9.728067456915536
      ],
      [
        " algemeen",
        -9.728504187656618
      ],
      [
        " rand",
        -9.728653244192431
      ],
      [
        " 2019",
        -9.72943717306947
      ],
      [
        " blad",
        -9.72973930283326
      ],
      [
        " blok",
        -9.729898729147033
      ],
      [
        " keuze",
        -9.72992220268323
      ],
      [
        " betekenis",
        -9.730182501088738
      ],
      [
        " word",
        -9.730370566865785
      ],
      [
        "ez",
        -9.73389907426279
      ],
      [
        " spelen.",
        -9.733909371207158
      ],
      [
        "serv",
        -9.734042228337733
      ],
      [
        ".\n*mother:\to",
        -9.734047221208808
      ],
      [
        " website",
        -9.734613165977313
      ],
      [
        " xi",
        -9.73492612256543
      ],
      [
        " besloo",
        -9.736699797009447
      ],
      [
        "deel",
        -9.737055548997825
      ],
      [
        "?\n*adult:\t",
        -9.738201209971706
      ],
      [
        "dy",
        -9.73828313329363
      ],
      [
        " voelt",
        -9.739219231181599
      ],
      [
        "nus",
        -9.739728841490452
      ],
      [
        " thee",
        -9.739919590327684
      ],
      [
        "eke",
        -9.740252086679405
      ],
      [
        " opeens",
        -9.74107956434877
      ],
      [
        "\thet",
        -9.741093661804442
      ],
      [
        " manieren",
        -9.742355307593797
      ],
      [
        " bodem",
        -9.7428868079344
      ],
      [
        " sneller",
        -9.743408306788968
      ],
      [
        " speel",
        -9.743962766651126
      ],
      [
        " proef",
        -9.744206181378864
      ],
      [
        " omhoog",
        -9.74463935882536
      ],
      [
        "40",
        -9.744923628962969
      ],
      [
        " john",
        -9.74520979811004
      ],
      [
        " 'dan",
        -9.746307527674265
      ],
      [
        "tal",
        -9.746353688871068
      ],
      [
        ")\n\n",
        -9.74715525296466
      ],
      [
        "aai",
        -9.748934814799117
      ],
      [
        " rust",
        -9.749275394254683
      ],
      [
        "bus",
        -9.749278268616383
      ],
      [
        " stellen",
        -9.749366833508173
      ],
      [
        " bezoek",
        -9.750072746127321
      ],
      [
        "hal",
        -9.750832633491173
      ],
      [
        "wagen",
        -9.75083605748964
      ],
      [
        " opgericht",
        -9.751004373358747
      ],
      [
        " 2011",
        -9.751300295248813
      ],
      [
        "los",
        -9.751702735679356
      ],
      [
        " draaien",
        -9.751760956199236
      ],
      [
        " album",
        -9.752043779278981
      ],
      [
        " (\"",
        -9.752419588055858
      ],
      [
        "pi",
        -9.752980150874446
      ],
      [
        " regio",
        -9.753493329271047
      ],
      [
        " gebouwen",
        -9.754118438139134
      ],
      [
        " zwemmen",
        -9.754373896837363
      ],
      [
        " paulus",
        -9.754418707048202
      ],
      [
        " cd",
        -9.754940657458505
      ],
      [
        "pers",
        -9.755228333602771
      ],
      [
        "\thee",
        -9.75548928961258
      ],
      [
        " tro",
        -9.75569814380734
      ],
      [
        " kenmerken",
        -9.755747390797435
      ],
      [
        " 2017",
        -9.756404878118618
      ],
      [
        "burg",
        -9.756895315070281
      ],
      [
        " spaanse",
        -9.757516570635499
      ],
      [
        "maar",
        -9.757582799712416
      ],
      [
        "ley",
        -9.75813938346419
      ],
      [
        " dat?",
        -9.758199579068979
      ],
      [
        "oh",
        -9.758963604651068
      ],
      [
        "investigator:\ten",
        -9.758994954925736
      ],
      [
        "gi",
        -9.759062786927547
      ],
      [
        "rijk",
        -9.759439029193514
      ],
      [
        "jes.",
        -9.759874214688734
      ],
      [
        " adem",
        -9.76017919213347
      ],
      [
        " el",
        -9.76068767116336
      ],
      [
        " 2015",
        -9.76142165254393
      ],
      [
        " san",
        -9.761506437441042
      ],
      [
        " allebei",
        -9.76228930346056
      ],
      [
        " vrijheid",
        -9.762450826523938
      ],
      [
        " for",
        -9.76289455822359
      ],
      [
        "zel",
        -9.763372411201534
      ],
      [
        "jaar",
        -9.763621385322029
      ],
      [
        " dragen",
        -9.763640047913345
      ],
      [
        " geweest.",
        -9.764026424276615
      ],
      [
        " beelden",
        -9.764369427718623
      ],
      [
        " com",
        -9.765147055867125
      ],
      [
        "staat",
        -9.765220096887315
      ],
      [
        "cellen",
        -9.765655970492675
      ],
      [
        " 2020",
        -9.766116779892643
      ],
      [
        " 'een",
        -9.766205185985047
      ],
      [
        " schoon",
        -9.76775911427961
      ],
      [
        " tri",
        -9.767762701655357
      ],
      [
        " lijken",
        -9.767956492063352
      ],
      [
        " relatie",
        -9.76826062464077
      ],
      [
        " or",
        -9.768334334249872
      ],
      [
        " lief",
        -9.76839190717127
      ],
      [
        " aangegeven",
        -9.76871247294217
      ],
      [
        " verboden",
        -9.768892968958752
      ],
      [
        " paus",
        -9.769189289846373
      ],
      [
        "pas",
        -9.769822343534537
      ],
      [
        " india",
        -9.770282559210793
      ],
      [
        " oorzaak",
        -9.770893828372634
      ],
      [
        " bestuur",
        -9.77097251182878
      ],
      [
        ".\n*mother:\tdie",
        -9.771583927290976
      ],
      [
        "even",
        -9.77183028639632
      ],
      [
        " stappen",
        -9.772274276531931
      ],
      [
        " westen",
        -9.773585203537944
      ],
      [
        " weergegeven",
        -9.77379875786505
      ],
      [
        " inhoud",
        -9.774446538896981
      ],
      [
        " voornamelijk",
        -9.774701370745497
      ],
      [
        " argument",
        -9.775865444774338
      ],
      [
        " pen",
        -9.77649625635308
      ],
      [
        " hendrik",
        -9.77683486464003
      ],
      [
        " gevolgen",
        -9.777189957956272
      ],
      [
        ".\nlees",
        -9.778092157725151
      ],
      [
        " paul",
        -9.779259702732787
      ],
      [
        " hotel",
        -9.779451580624151
      ],
      [
        " ongeluk",
        -9.78087460614017
      ],
      [
        "pot",
        -9.781187220400264
      ],
      [
        " praat",
        -9.78250925767353
      ],
      [
        " 2005",
        -9.783058777563273
      ],
      [
        ".\n\neen",
        -9.783890861097358
      ],
      [
        "baan",
        -9.784682225865328
      ],
      [
        " huis.",
        -9.784876538589902
      ],
      [
        "tisch",
        -9.785890083114264
      ],
      [
        " wolf",
        -9.786049289114615
      ],
      [
        " ken",
        -9.786476773588419
      ],
      [
        "en)",
        -9.787085643770371
      ],
      [
        "hoek",
        -9.787901689781279
      ],
      [
        " zware",
        -9.788058885557431
      ],
      [
        " lengte",
        -9.789021091911739
      ],
      [
        "q",
        -9.789498685766478
      ],
      [
        "tas",
        -9.789958153564987
      ],
      [
        " ad",
        -9.7901122319915
      ],
      [
        " reclame",
        -9.790860098770569
      ],
      [
        " kennen",
        -9.790934600699813
      ],
      [
        "nd",
        -9.791140560311167
      ],
      [
        " orde",
        -9.791910206606483
      ],
      [
        "houden",
        -9.792230764051585
      ],
      [
        " geven.",
        -9.792428514718654
      ],
      [
        "machine",
        -9.792546900303153
      ],
      [
        "ans",
        -9.792583253201443
      ],
      [
        " terecht",
        -9.792620078188685
      ],
      [
        " onderstaande",
        -9.79317567378919
      ],
      [
        " films",
        -9.793197518198173
      ],
      [
        "han",
        -9.794707096213685
      ],
      [
        " (1",
        -9.794743357829748
      ],
      [
        "wie",
        -9.795827597722344
      ],
      [
        " strip",
        -9.796556891584782
      ],
      [
        " mu",
        -9.79771490668734
      ],
      [
        "fa",
        -9.798327781171398
      ],
      [
        " daarin",
        -9.798972858616358
      ],
      [
        "cha",
        -9.799482365709231
      ],
      [
        "\twaar",
        -9.799509686325946
      ],
      [
        " fietsen",
        -9.799642261548492
      ],
      [
        " koop",
        -9.80055048594491
      ],
      [
        " fragment",
        -9.801187109289028
      ],
      [
        " nationale",
        -9.801436163605835
      ],
      [
        " lodewijk",
        -9.801490128566893
      ],
      [
        " zegt:",
        -9.80160391523562
      ],
      [
        " 2008",
        -9.801626030736127
      ],
      [
        "het",
        -9.802703907588864
      ],
      [
        ".\ni",
        -9.804797022025449
      ],
      [
        " 29",
        -9.80497628415743
      ],
      [
        "stuk",
        -9.805421936735872
      ],
      [
        " 2016",
        -9.805532139355705
      ],
      [
        "s\n",
        -9.805876938191759
      ],
      [
        " vaste",
        -9.805940045097113
      ],
      [
        "|",
        -9.8063185748921
      ],
      [
        "oe",
        -9.806699704354795
      ],
      [
        ".\nwelke",
        -9.806909066606083
      ],
      [
        " levens",
        -9.808211309916956
      ],
      [
        " buitenland",
        -9.809585100482476
      ],
      [
        " (14",
        -9.810542869484298
      ],
      [
        " theater",
        -9.810695021009916
      ],
      [
        " trek",
        -9.810696207903344
      ],
      [
        " 2004",
        -9.811077291063643
      ],
      [
        "che",
        -9.811684820452673
      ],
      [
        " type",
        -9.811695526214631
      ],
      [
        "pro",
        -9.811729536418953
      ],
      [
        " aardig",
        -9.812043068142705
      ],
      [
        " besloten",
        -9.81205731276068
      ],
      [
        " behalve",
        -9.812291620747603
      ],
      [
        "lan",
        -9.812614748486975
      ],
      [
        ".\n*mother:\teen",
        -9.813483529165136
      ],
      [
        " vinger",
        -9.813568603192127
      ],
      [
        " cel",
        -9.813760901246143
      ],
      [
        "\tyyy",
        -9.813910707624768
      ],
      [
        " stadion",
        -9.814232567368132
      ],
      [
        "\tkan",
        -9.81479650968449
      ],
      [
        ".\n*father:\tja",
        -9.815044971387866
      ],
      [
        "zak",
        -9.815506679850106
      ],
      [
        "dieren",
        -9.816040205228195
      ],
      [
        " veroorzaakt",
        -9.816046708627901
      ],
      [
        " mor",
        -9.817277210884768
      ],
      [
        " wou",
        -9.817297225171686
      ],
      [
        " kern",
        -9.817708674727662
      ],
      [
        " kast",
        -9.818410947576997
      ],
      [
        "kers",
        -9.819315550764877
      ],
      [
        "nes",
        -9.819665993581001
      ],
      [
        "tri",
        -9.820505611706249
      ],
      [
        "und",
        -9.821382234314026
      ],
      [
        " hiervan",
        -9.821391570913637
      ],
      [
        " bonifatius",
        -9.821393123017035
      ],
      [
        " vermogen",
        -9.821813066403617
      ],
      [
        "%",
        -9.821910807427214
      ],
      [
        " verteld",
        -9.82235626320275
      ],
      [
        " ster",
        -9.82245733918351
      ],
      [
        " schilderij",
        -9.823108385003305
      ],
      [
        "kaart",
        -9.823144236185533
      ],
      [
        "+",
        -9.824445681320473
      ],
      [
        " dorpen",
        -9.824457221717113
      ],
      [
        " optreden",
        -9.82445849790082
      ],
      [
        " school.",
        -9.825306491428703
      ],
      [
        "ct",
        -9.825979460275182
      ],
      [
        " 2009",
        -9.826115050243466
      ],
      [
        " oosten",
        -9.827028780138434
      ],
      [
        " negen",
        -9.827056799680182
      ],
      [
        " gram",
        -9.827293502342107
      ],
      [
        " tekenen",
        -9.8280524434473
      ],
      [
        " geschikt",
        -9.828119546131518
      ],
      [
        " slot",
        -9.828336885519732
      ],
      [
        " start",
        -9.828942708719676
      ],
      [
        "que",
        -9.829070777843178
      ],
      [
        " kritiek",
        -9.829162399220149
      ],
      [
        " pad",
        -9.829163907149347
      ],
      [
        " (18",
        -9.831225564206477
      ],
      [
        " 2006",
        -9.831721952779166
      ],
      [
        "18",
        -9.831927531970436
      ],
      [
        "\").",
        -9.831937885782413
      ],
      [
        "zi",
        -9.832599723236155
      ],
      [
        " zorgde",
        -9.832618977652775
      ],
      [
        " vergeten",
        -9.83264844823146
      ],
      [
        " revolutie",
        -9.833076641481583
      ],
      [
        " zomaar",
        -9.833264404850823
      ],
      [
        " plastic",
        -9.833544497182375
      ],
      [
        " dierentuin",
        -9.833759902513032
      ],
      [
        " bek",
        -9.833869190141154
      ],
      [
        " gevangen",
        -9.833912105899486
      ],
      [
        " disney",
        -9.834168122360882
      ],
      [
        "vers",
        -9.834599602541584
      ],
      [
        " taak",
        -9.836019938488667
      ],
      [
        "hand",
        -9.836075667675257
      ],
      [
        "eren.",
        -9.836432922975629
      ],
      [
        " stoppen",
        -9.836765880950903
      ],
      [
        " 2018",
        -9.83700090203763
      ],
      [
        " (c",
        -9.837082002584765
      ],
      [
        " tra",
        -9.837125883360205
      ],
      [
        " haalde",
        -9.837222058973506
      ],
      [
        " informatiebron",
        -9.837806565226714
      ],
      [
        " klaas",
        -9.839256903500267
      ],
      [
        " ti",
        -9.839394820231497
      ],
      [
        " vandaan",
        -9.83954739292119
      ],
      [
        "ara",
        -9.83976114418113
      ],
      [
        "hij",
        -9.839909617261018
      ],
      [
        "er.",
        -9.8406370072617
      ],
      [
        "lijke",
        -9.841055649325583
      ],
      [
        "!\"",
        -9.841140508035313
      ],
      [
        " post",
        -9.84121637506715
      ],
      [
        "iteit",
        -9.84143642892391
      ],
      [
        " seizoen",
        -9.841744715823648
      ],
      [
        "\n*child:\n*child:",
        -9.841973076675128
      ],
      [
        "loop",
        -9.842539967080675
      ],
      [
        " pot",
        -9.842760834050956
      ],
      [
        " sc",
        -9.843697699988176
      ],
      [
        " schepen",
        -9.843808871527395
      ],
      [
        " geleerd",
        -9.844760649734583
      ],
      [
        " kleren",
        -9.844867734359031
      ],
      [
        " liefst",
        -9.84493396454664
      ],
      [
        "rk",
        -9.845908294327034
      ],
      [
        " bereken",
        -9.846687486676293
      ],
      [
        " dienst",
        -9.846750880383052
      ],
      [
        "ment",
        -9.846925970044762
      ],
      [
        "aars",
        -9.847542848420353
      ],
      [
        " george",
        -9.84760723876919
      ],
      [
        " verloren",
        -9.84765203169174
      ],
      [
        " voeren",
        -9.848157290546173
      ],
      [
        "pie",
        -9.848395318079142
      ],
      [
        " behaald",
        -9.848453562884401
      ],
      [
        "ny",
        -9.848473272282376
      ],
      [
        " hoofd.",
        -9.848924498549605
      ],
      [
        " liever",
        -9.849059918640277
      ],
      [
        " voelde",
        -9.84917017527821
      ],
      [
        "target_child:\tja",
        -9.849664504832734
      ],
      [
        " ding",
        -9.849935847661651
      ],
      [
        " cijfers",
        -9.850138875380795
      ],
      [
        "zu",
        -9.850626040550843
      ],
      [
        " binnen.",
        -9.851214178108366
      ],
      [
        "_",
        -9.853624686912228
      ],
      [
        " schoenen",
        -9.853640677993369
      ],
      [
        " 2013",
        -9.853726445668826
      ],
      [
        " samenleving",
        -9.854169223795173
      ],
      [
        "gra",
        -9.854729649434358
      ],
      [
        "rs",
        -9.855269776444471
      ],
      [
        " tv",
        -9.855779583094243
      ],
      [
        "teren",
        -9.857210844257635
      ],
      [
        " afval",
        -9.857976825161867
      ],
      [
        "mie",
        -9.857987408024552
      ],
      [
        " burgers",
        -9.858180838861571
      ],
      [
        "den.",
        -9.85855518240831
      ],
      [
        " gezin",
        -9.858662816193206
      ],
      [
        " internationale",
        -9.85890628541707
      ],
      [
        "oo",
        -9.859213817612549
      ],
      [
        " vak",
        -9.859431926362383
      ],
      [
        "tocht",
        -9.860186445782226
      ],
      [
        "ach",
        -9.861014034121146
      ],
      [
        " verwacht",
        -9.86104810575369
      ],
      [
        "ding",
        -9.861085582716658
      ],
      [
        " urbanus",
        -9.861500319692357
      ],
      [
        "tten",
        -9.862135370853272
      ],
      [
        " effect",
        -9.862436988711327
      ],
      [
        " tijden",
        -9.862457813054569
      ],
      [
        "ham",
        -9.863101537448927
      ],
      [
        " gebruiken.",
        -9.863458986107462
      ],
      [
        " erachter",
        -9.865866645580606
      ],
      [
        " eten.",
        -9.866019130951251
      ],
      [
        " stenen",
        -9.86631043008827
      ],
      [
        " talen",
        -9.86652543716836
      ],
      [
        " raam",
        -9.867170382258482
      ],
      [
        "eh",
        -9.867736900461813
      ],
      [
        "\tja.\n*mother:\t",
        -9.868043226016688
      ],
      [
        " polen",
        -9.868244871175143
      ],
      [
        " stukken",
        -9.868674824251805
      ],
      [
        "ji",
        -9.868950701538331
      ],
      [
        "gemaakt",
        -9.869079219468752
      ],
      [
        " behoren",
        -9.869908393056834
      ],
      [
        " hiermee",
        -9.87011536470747
      ],
      [
        " tie",
        -9.870981693242737
      ],
      [
        " streep",
        -9.871003456593495
      ],
      [
        " leven.",
        -9.87125738828648
      ],
      [
        " systeem",
        -9.87195343780045
      ],
      [
        "russische",
        -9.872309476119506
      ],
      [
        "achtig",
        -9.872625530339224
      ],
      [
        " spanning",
        -9.87267097010854
      ],
      [
        " ontwerp",
        -9.872796496534239
      ],
      [
        " vertel",
        -9.873008605963367
      ],
      [
        " 'n",
        -9.873223724589643
      ],
      [
        " napoleon",
        -9.873428197663209
      ],
      [
        " steun",
        -9.873619214580026
      ],
      [
        "\nop",
        -9.874311499784412
      ],
      [
        " 'hij",
        -9.874871633855129
      ],
      [
        " hangen",
        -9.875538802955319
      ],
      [
        " schade",
        -9.875627920730336
      ],
      [
        " em",
        -9.876278658930605
      ],
      [
        "\tjij",
        -9.877276095702943
      ],
      [
        " kg",
        -9.877299102193817
      ],
      [
        "bert",
        -9.877601086447612
      ],
      [
        " voorbij",
        -9.878091913140892
      ],
      [
        " voorzichtig",
        -9.878217763963889
      ],
      [
        " 60",
        -9.878233126951045
      ],
      [
        " ri",
        -9.878249722236955
      ],
      [
        " opgenomen",
        -9.878568634155592
      ],
      [
        "vin",
        -9.87864534242847
      ],
      [
        " 'nou",
        -9.878867803233623
      ],
      [
        "log",
        -9.878973792812237
      ],
      [
        " aard",
        -9.879160719759508
      ],
      [
        " zout",
        -9.87930176359816
      ],
      [
        " helpt",
        -9.879585963719183
      ],
      [
        " kaas",
        -9.87966754560421
      ],
      [
        "teken",
        -9.879927272527556
      ],
      [
        ".\n*mother:\the",
        -9.880285471666998
      ],
      [
        " nodig.",
        -9.880829979991749
      ],
      [
        "wil",
        -9.881356860392136
      ],
      [
        "fo",
        -9.881472551740362
      ],
      [
        "trekken",
        -9.882339517109157
      ],
      [
        " betaald",
        -9.882697777622408
      ],
      [
        " volgen",
        -9.88295586859035
      ],
      [
        " gedaan.",
        -9.883262335740511
      ],
      [
        " hol",
        -9.883625450342837
      ],
      [
        " reken",
        -9.884120680530781
      ],
      [
        "prijs",
        -9.884535914532226
      ],
      [
        " model",
        -9.8846212545516
      ],
      [
        " 'die",
        -9.885053437334598
      ],
      [
        " gezond",
        -9.88544306812058
      ],
      [
        " beschermen",
        -9.885588622902786
      ],
      [
        " bel",
        -9.88628840875267
      ],
      [
        "ering",
        -9.886481293727341
      ],
      [
        " geel",
        -9.88721859385723
      ],
      [
        " tanden",
        -9.88726515243513
      ],
      [
        " bram",
        -9.887296012430504
      ],
      [
        " besluit",
        -9.887988684899707
      ],
      [
        " toeristen",
        -9.888412419221547
      ],
      [
        " honderd",
        -9.888720957485164
      ],
      [
        " werken.",
        -9.890021946404733
      ],
      [
        "bar",
        -9.890238324056153
      ],
      [
        " bekendste",
        -9.8912355343824
      ],
      [
        " 2007",
        -9.891506662985236
      ],
      [
        " j",
        -9.891756182638465
      ],
      [
        "ex",
        -9.89187676958976
      ],
      [
        "vorm",
        -9.8924762835538
      ],
      [
        " belgische",
        -9.893222624261359
      ],
      [
        " leest",
        -9.894384033785137
      ],
      [
        " rennen",
        -9.894745688535853
      ],
      [
        "tje.",
        -9.895783435861018
      ],
      [
        " lacht",
        -9.895995871643525
      ],
      [
        " proces",
        -9.897802754012512
      ],
      [
        " heen.",
        -9.89859247849077
      ],
      [
        " schaal",
        -9.899195038914407
      ],
      [
        " 'ze",
        -9.899394507751857
      ],
      [
        " oekraine",
        -9.900049849228616
      ],
      [
        "handel",
        -9.901065140592458
      ],
      [
        " (104",
        -9.901236717932363
      ],
      [
        "pr",
        -9.901376485816652
      ],
      [
        "15",
        -9.901383767421915
      ],
      [
        "schrift",
        -9.901953545791008
      ],
      [
        "auto",
        -9.902310853383955
      ],
      [
        " winst",
        -9.902671411427313
      ],
      [
        " leuke",
        -9.904304597775049
      ],
      [
        "zw",
        -9.905552104221496
      ],
      [
        "partij",
        -9.906563616721964
      ],
      [
        "sten",
        -9.90706602084873
      ],
      [
        " 2,",
        -9.907115829670289
      ],
      [
        " gekomen",
        -9.907425566643266
      ],
      [
        "toren",
        -9.908967588776667
      ],
      [
        "maat",
        -9.909107308418736
      ],
      [
        " romeinen",
        -9.910100313977999
      ],
      [
        " 'als",
        -9.910284595476146
      ],
      [
        "du",
        -9.910698093464669
      ],
      [
        " 'hoe",
        -9.91141769446411
      ],
      [
        "eld",
        -9.912117425480965
      ],
      [
        " ch",
        -9.912252209756556
      ],
      [
        "ru",
        -9.912284876707535
      ],
      [
        " plaatjes",
        -9.912803494071873
      ],
      [
        " (een",
        -9.91314609623057
      ],
      [
        " wal",
        -9.913305771467535
      ],
      [
        " 2002",
        -9.913535762096444
      ],
      [
        " ouder",
        -9.913572886220376
      ],
      [
        "aire",
        -9.913731847157303
      ],
      [
        " lot",
        -9.914842892778616
      ],
      [
        " geworden.",
        -9.91503179760733
      ],
      [
        " officieel",
        -9.91537487079141
      ],
      [
        " bladzijde",
        -9.916491751780168
      ],
      [
        " handig",
        -9.916550393860042
      ],
      [
        "ten.",
        -9.916950429956863
      ],
      [
        "film",
        -9.917017714431333
      ],
      [
        "eling",
        -9.917420161374125
      ],
      [
        " contact",
        -9.918834759576121
      ],
      [
        " mede",
        -9.919053222130405
      ],
      [
        " rent",
        -9.919150965383558
      ],
      [
        "25",
        -9.919164716548941
      ],
      [
        " boekje",
        -9.919780773630757
      ],
      [
        "vat",
        -9.92085513769093
      ],
      [
        "delen",
        -9.92126909092664
      ],
      [
        " pagina",
        -9.921927772899185
      ],
      [
        " xii",
        -9.922407739341146
      ],
      [
        " zus",
        -9.923411122080195
      ],
      [
        " londen",
        -9.923497882003845
      ],
      [
        " klopt",
        -9.924475269604372
      ],
      [
        "leg",
        -9.924624048662434
      ],
      [
        " 2022",
        -9.924643264755613
      ],
      [
        " sal",
        -9.924870179642188
      ],
      [
        "bak",
        -9.924917155100431
      ],
      [
        "ju",
        -9.925275263652445
      ],
      [
        " elektrische",
        -9.92528810868893
      ],
      [
        ".\n*mother:\tmaar",
        -9.925864654127324
      ],
      [
        " daan",
        -9.9259889163302
      ],
      [
        "naar",
        -9.92610625517762
      ],
      [
        "sk",
        -9.92629024398212
      ],
      [
        " regelmatig",
        -9.92687867414962
      ],
      [
        "istische",
        -9.927142668122935
      ],
      [
        " rijdt",
        -9.927150129916154
      ],
      [
        " plannen",
        -9.927353243230165
      ],
      [
        "?\n*mother:\twat",
        -9.927359958823976
      ],
      [
        " luisteren",
        -9.92840794422274
      ],
      [
        "est",
        -9.92898362321154
      ],
      [
        " geheel",
        -9.929931650902816
      ],
      [
        "landen",
        -9.930346552352074
      ],
      [
        "ov",
        -9.93064443924273
      ],
      [
        "bb",
        -9.93064508262963
      ],
      [
        " roman",
        -9.931309646393787
      ],
      [
        " tegenover",
        -9.931671799272198
      ],
      [
        " bergen",
        -9.931950750207243
      ],
      [
        "ard",
        -9.93262740047545
      ],
      [
        " industrie",
        -9.933052992728378
      ],
      [
        " vanavond",
        -9.933592204911442
      ],
      [
        " lastig",
        -9.933688071806511
      ],
      [
        " bra",
        -9.933773486414902
      ],
      [
        "staan",
        -9.934330783899524
      ],
      [
        " wijn",
        -9.934626476506239
      ],
      [
        " vrolijk",
        -9.934805433005698
      ],
      [
        " paarden",
        -9.935768546498757
      ],
      [
        " leider",
        -9.936401556483169
      ],
      [
        " zagen",
        -9.936833392709609
      ],
      [
        " bovendien",
        -9.936992045254414
      ],
      [
        " sovjet-unie",
        -9.93730723205648
      ],
      [
        "11",
        -9.937812332288587
      ],
      [
        " reizen",
        -9.937850107019504
      ],
      [
        " duizenden",
        -9.937974927327051
      ],
      [
        "waarde",
        -9.938831155622172
      ],
      [
        " vertelde",
        -9.940123040687142
      ],
      [
        " miljard",
        -9.940824830531941
      ],
      [
        " ac",
        -9.942325859054709
      ],
      [
        " uitspraken",
        -9.942848892732655
      ],
      [
        " cirkel",
        -9.943224586561573
      ],
      [
        " rome",
        -9.943634336446664
      ],
      [
        " tijdje",
        -9.943799077158914
      ],
      [
        "dijk",
        -9.943813365182239
      ],
      [
        " par",
        -9.943965611153956
      ],
      [
        " sterren",
        -9.944956669992049
      ],
      [
        " onge",
        -9.945286671376092
      ],
      [
        " twaalf",
        -9.945365716995394
      ],
      [
        " onderzoeken",
        -9.945524969570702
      ],
      [
        "gas",
        -9.945914792721512
      ],
      [
        " groningen",
        -9.946378649067988
      ],
      [
        " product",
        -9.946916603413262
      ],
      [
        " oudste",
        -9.947222607749103
      ],
      [
        "pt",
        -9.947827703667258
      ],
      [
        "ok",
        -9.947967383883864
      ],
      [
        " jaarlijks",
        -9.948497687071082
      ],
      [
        " gele",
        -9.948588709948519
      ],
      [
        " conclusie",
        -9.948782680905374
      ],
      [
        " bepalen",
        -9.948912453334335
      ],
      [
        " app",
        -9.9502121460018
      ],
      [
        " kim",
        -9.950414763738827
      ],
      [
        " 2021",
        -9.952121823795602
      ],
      [
        "55)",
        -9.952144348393468
      ],
      [
        " seconden",
        -9.954118339807442
      ],
      [
        " lager",
        -9.954834349195744
      ],
      [
        "zin",
        -9.955124551215846
      ],
      [
        " bot",
        -9.955474047356898
      ],
      [
        "zogeheten",
        -9.955531627640045
      ],
      [
        " griekse",
        -9.955575876480342
      ],
      [
        " ku",
        -9.955848072428193
      ],
      [
        " australie",
        -9.955964220898919
      ],
      [
        " pakte",
        -9.95642150182169
      ],
      [
        " thema",
        -9.957187534697876
      ],
      [
        "ringen",
        -9.95731984626018
      ],
      [
        "ders",
        -9.957676349663544
      ],
      [
        " david",
        -9.957728490502497
      ],
      [
        "ug",
        -9.95782052935704
      ],
      [
        "-20",
        -9.957892745781983
      ],
      [
        " liter",
        -9.958159631300244
      ],
      [
        "gg",
        -9.958668639587053
      ],
      [
        " ronde",
        -9.958885434263777
      ],
      [
        "stelsel",
        -9.959486482474045
      ],
      [
        " doos",
        -9.959566777323975
      ],
      [
        " pi",
        -9.959647642656314
      ],
      [
        " enkel",
        -9.959923124665508
      ],
      [
        " lin",
        -9.960382748679223
      ],
      [
        " zette",
        -9.960728107272281
      ],
      [
        "t/m",
        -9.961633966125746
      ],
      [
        " verliefd",
        -9.962203939775577
      ],
      [
        " bijzondere",
        -9.962608405982081
      ],
      [
        " dom",
        -9.963641426290472
      ],
      [
        " liedje",
        -9.964571106088696
      ],
      [
        " rekening",
        -9.965303688910463
      ],
      [
        "tur",
        -9.965642427095798
      ],
      [
        " houten",
        -9.96646480007476
      ],
      [
        " beurt",
        -9.967407563813765
      ],
      [
        "anse",
        -9.967511185385419
      ],
      [
        " noord",
        -9.967633313847541
      ],
      [
        " materiaal",
        -9.968260375294907
      ],
      [
        " 4.",
        -9.968840837172607
      ],
      [
        " plotseling",
        -9.96890937917064
      ],
      [
        " grotere",
        -9.969118591365879
      ],
      [
        " vers",
        -9.969125602970719
      ],
      [
        " halve",
        -9.969643740580711
      ],
      [
        "ab",
        -9.96987219012432
      ],
      [
        "and",
        -9.970757128780864
      ],
      [
        "xiii",
        -9.970858622550987
      ],
      [
        "\tgaat",
        -9.97148564801211
      ],
      [
        " muis",
        -9.97173174141863
      ],
      [
        "wi",
        -9.971802529568176
      ],
      [
        "dom",
        -9.972021370877622
      ],
      [
        " trots",
        -9.972648865760732
      ],
      [
        " fruit",
        -9.973166192085941
      ],
      [
        " bol",
        -9.974647754859554
      ],
      [
        " vel",
        -9.974662902168305
      ],
      [
        " doden",
        -9.974847358925366
      ],
      [
        "muziek",
        -9.975417212252335
      ],
      [
        " hou",
        -9.975849088098673
      ],
      [
        " hal",
        -9.975984411226538
      ],
      [
        " stand",
        -9.976073274949751
      ],
      [
        "\tmag",
        -9.976202418244082
      ],
      [
        " alcohol",
        -9.976991291819136
      ],
      [
        " 200",
        -9.977712656948185
      ],
      [
        " ring",
        -9.978017900763131
      ],
      [
        " stok",
        -9.978822446775595
      ],
      [
        "winkel",
        -9.979159765847884
      ],
      [
        "lon",
        -9.97950965676095
      ],
      [
        "zij",
        -9.980037086722838
      ],
      [
        " kip",
        -9.980066817656379
      ],
      [
        "boot",
        -9.980318978214479
      ],
      [
        " anne",
        -9.980554462351275
      ],
      [
        "ill",
        -9.980693117753983
      ],
      [
        " zonne",
        -9.981078777061468
      ],
      [
        " fu",
        -9.981101890616156
      ],
      [
        " 2003",
        -9.981697330679683
      ],
      [
        " joden",
        -9.982508761768079
      ],
      [
        " werkte",
        -9.982637425040323
      ],
      [
        "gh",
        -9.982642433118027
      ],
      [
        " verandert",
        -9.982983910350779
      ],
      [
        " turkije",
        -9.983505227554058
      ],
      [
        " duur",
        -9.98444689994307
      ],
      [
        "arm",
        -9.984505210107208
      ],
      [
        " stam",
        -9.98463860166496
      ],
      [
        " geheim",
        -9.984803095038085
      ],
      [
        "zuur",
        -9.986423194306045
      ],
      [
        "95",
        -9.98701157746646
      ],
      [
        "woorden",
        -9.987746336579484
      ],
      [
        " voeten",
        -9.988038972441162
      ],
      [
        "ple",
        -9.989024941171886
      ],
      [
        "kom",
        -9.989593298941779
      ],
      [
        " gewonnen",
        -9.989865751325183
      ],
      [
        " flink",
        -9.990313291743611
      ],
      [
        " mochten",
        -9.990523644946782
      ],
      [
        "ps",
        -9.991010209894174
      ],
      [
        " 80",
        -9.99101577466821
      ],
      [
        "ben",
        -9.991179250486827
      ],
      [
        "cor",
        -9.991514370283856
      ],
      [
        " geboorte",
        -9.99151909167187
      ],
      [
        " belasting",
        -9.992390430743782
      ],
      [
        " gen",
        -9.992393444692894
      ],
      [
        "ya",
        -9.992488709667304
      ],
      [
        "leven",
        -9.993608396762514
      ],
      [
        " sturen",
        -9.99413213969595
      ],
      [
        " leidde",
        -9.995489906054434
      ],
      [
        " honger",
        -9.995739896720938
      ],
      [
        "ix",
        -9.996041998398852
      ],
      [
        "\tauto",
        -9.996416145823167
      ],
      [
        " jas",
        -9.996992200698335
      ],
      [
        " arme",
        -9.99714518469613
      ],
      [
        "kamp",
        -9.99720906677611
      ],
      [
        "steen",
        -9.997374184331298
      ],
      [
        " west",
        -9.99748172701241
      ],
      [
        " thomas",
        -9.997610780557704
      ],
      [
        "tte",
        -9.998144618839072
      ],
      [
        "car",
        -9.998149853553937
      ],
      [
        " verdienen",
        -9.998870327135874
      ],
      [
        " belang",
        -9.999017264305309
      ],
      [
        " boerderij",
        -9.999345439368291
      ],
      [
        " aller",
        -10.000152911939189
      ],
      [
        "volgens",
        -10.00031373296665
      ],
      [
        "60",
        -10.000316895476287
      ],
      [
        "kosten",
        -10.000444900950338
      ],
      [
        " 2023",
        -10.002693446923601
      ],
      [
        "kast",
        -10.002747959241844
      ],
      [
        "huizen",
        -10.003559113476419
      ],
      [
        "bank",
        -10.003731904346495
      ],
      [
        ".\nop",
        -10.003900490284195
      ],
      [
        "voer",
        -10.004428886872235
      ],
      [
        " mark",
        -10.004515864909788
      ],
      [
        " goed.",
        -10.00452043648519
      ],
      [
        " slechte",
        -10.004602314294754
      ],
      [
        "zien",
        -10.005383932195427
      ],
      [
        " 2001",
        -10.005478676204522
      ],
      [
        " project",
        -10.00568725238265
      ],
      [
        " rivieren",
        -10.00585043172583
      ],
      [
        "?\"",
        -10.005872188640907
      ],
      [
        " premier",
        -10.006376052483148
      ],
      [
        "dus",
        -10.006437295184647
      ],
      [
        "oog",
        -10.006438414910189
      ],
      [
        " 500",
        -10.006922591027777
      ],
      [
        "\txxx.\n*",
        -10.008178671684522
      ],
      [
        " gebeuren",
        -10.008962580674599
      ],
      [
        " kwijt",
        -10.009044492044444
      ],
      [
        "stellen",
        -10.009268316682986
      ],
      [
        "gan",
        -10.00957991337641
      ],
      [
        " geloven",
        -10.009589919077055
      ],
      [
        " bedoel",
        -10.009603339678744
      ],
      [
        " verf",
        -10.009620063232656
      ],
      [
        " pri",
        -10.009688630752127
      ],
      [
        " winnen",
        -10.010138844883478
      ],
      [
        "ies",
        -10.011393065694953
      ],
      [
        " gebaseerd",
        -10.011743525130386
      ],
      [
        " rijn",
        -10.011994300174827
      ],
      [
        " beker",
        -10.012090143620997
      ],
      [
        "loze",
        -10.012146329788845
      ],
      [
        "kijk",
        -10.01285518154942
      ],
      [
        " eieren",
        -10.012866411392631
      ],
      [
        " eentje",
        -10.012870776642666
      ],
      [
        " terug.",
        -10.01298636710272
      ],
      [
        " kra",
        -10.013040021351937
      ],
      [
        " 35",
        -10.013227141451061
      ],
      [
        "line",
        -10.013418613942541
      ],
      [
        "ng",
        -10.01371872867381
      ],
      [
        "ong",
        -10.013782208763253
      ],
      [
        " bart",
        -10.013892721802979
      ],
      [
        " piet",
        -10.013919938283687
      ],
      [
        "groei",
        -10.014026178792548
      ],
      [
        " beoordeling",
        -10.014448896684357
      ],
      [
        "16",
        -10.014578331116475
      ],
      [
        " golf",
        -10.014592862882637
      ],
      [
        " experiment",
        -10.014593447108545
      ],
      [
        " nicolaas",
        -10.014990897065974
      ],
      [
        " sm",
        -10.01517922153544
      ],
      [
        " ondertussen",
        -10.015633692779787
      ],
      [
        " fabriek",
        -10.015794310991893
      ],
      [
        "oei",
        -10.017004106731887
      ],
      [
        " gewicht",
        -10.017247620209215
      ],
      [
        " oppervlakte",
        -10.018186544948673
      ],
      [
        " bacterien",
        -10.018293928824967
      ],
      [
        " lage",
        -10.018588436460055
      ],
      [
        " beschreven",
        -10.019052323215249
      ],
      [
        "maak",
        -10.019249842135649
      ],
      [
        "ijs",
        -10.019357984348673
      ],
      [
        " voelen",
        -10.01939158568418
      ],
      [
        "stelling",
        -10.019801132163312
      ],
      [
        " geopend",
        -10.020427780365349
      ],
      [
        " johan",
        -10.02053607482614
      ],
      [
        " studie",
        -10.020626131638368
      ],
      [
        "brand",
        -10.020837138235738
      ],
      [
        " 'o",
        -10.021481502990191
      ],
      [
        "zorg",
        -10.021917669411575
      ],
      [
        "hof",
        -10.022308433380957
      ],
      [
        "werking",
        -10.022329302031233
      ],
      [
        "raad",
        -10.022795021766065
      ],
      [
        "alen",
        -10.023074997099659
      ],
      [
        " gevormd",
        -10.023219615694282
      ],
      [
        " ochtend",
        -10.02390782116088
      ],
      [
        " stukjes",
        -10.024432389741355
      ],
      [
        ",\"",
        -10.024601034282842
      ],
      [
        "71",
        -10.024876580007216
      ],
      [
        " israel",
        -10.024902522594175
      ],
      [
        " zaterdag",
        -10.02534607486334
      ],
      [
        "alle",
        -10.025776225038662
      ],
      [
        "ink",
        -10.02753711644673
      ],
      [
        " bedrag",
        -10.027557529356336
      ],
      [
        "ief",
        -10.028681057995925
      ],
      [
        " oceaan",
        -10.029187940939881
      ],
      [
        " smaak",
        -10.029273737428671
      ],
      [
        " gat",
        -10.02942334094023
      ],
      [
        " vierde",
        -10.029684305371152
      ],
      [
        ".\n*mother:\tje",
        -10.029713711448416
      ],
      [
        "red",
        -10.029771127606622
      ],
      [
        "achtige",
        -10.029841972741893
      ],
      [
        "als",
        -10.030051790629575
      ],
      [
        "dier",
        -10.030454843387087
      ],
      [
        " feit",
        -10.03047102393446
      ],
      [
        " mal",
        -10.030577619675055
      ],
      [
        " blik",
        -10.030690145480435
      ],
      [
        "officiele",
        -10.030838779733653
      ],
      [
        "gebruik",
        -10.031909128434712
      ],
      [
        "denk",
        -10.032391661858599
      ],
      [
        "systeem",
        -10.032567972109145
      ],
      [
        " liefde",
        -10.032992784526442
      ],
      [
        "if",
        -10.033448398793597
      ],
      [
        "twee",
        -10.033642194175297
      ],
      [
        "67",
        -10.033680429104713
      ],
      [
        " stopt",
        -10.033833457636964
      ],
      [
        "cu",
        -10.03384921268816
      ],
      [
        " oren",
        -10.03394329476078
      ],
      [
        "investigator:\toh",
        -10.033999265872943
      ],
      [
        "\thm",
        -10.03431395060936
      ],
      [
        " wild",
        -10.035006005029476
      ],
      [
        " *",
        -10.035141517843709
      ],
      [
        " vervolg",
        -10.035219825527687
      ],
      [
        " term",
        -10.03534641767295
      ],
      [
        "a,",
        -10.03630234221095
      ],
      [
        " jaap",
        -10.036550121476289
      ],
      [
        " kwaad",
        -10.036971579713931
      ],
      [
        " koen",
        -10.038203165352401
      ],
      [
        "res",
        -10.038450730328062
      ],
      [
        " touw",
        -10.0389223361089
      ],
      [
        " war",
        -10.039537111313601
      ],
      [
        ".\n*mother:\tis",
        -10.040221869177813
      ],
      [
        " hierna",
        -10.040253966168317
      ],
      [
        "com",
        -10.040400877040337
      ],
      [
        " afloop",
        -10.040573664877797
      ],
      [
        "daar",
        -10.040900619175414
      ],
      [
        "middel",
        -10.041297257593545
      ],
      [
        " jack",
        -10.042753418757037
      ],
      [
        " wijze",
        -10.04276442060673
      ],
      [
        " warmte",
        -10.042943455063284
      ],
      [
        "mat",
        -10.042944976395027
      ],
      [
        " wijk",
        -10.043686685698026
      ],
      [
        " hoef",
        -10.04498705830274
      ],
      [
        " gaten",
        -10.045127011466018
      ],
      [
        " hersenen",
        -10.045223585381574
      ],
      [
        " wijst",
        -10.045389221216865
      ],
      [
        " lachen",
        -10.045672239202444
      ],
      [
        "\"ik",
        -10.046443973626356
      ],
      [
        " ballon",
        -10.046465532546026
      ],
      [
        "\nbekijk",
        -10.04662595837397
      ],
      [
        " eerlijk",
        -10.0466706542283
      ],
      [
        " wo",
        -10.046862772667282
      ],
      [
        " huilen",
        -10.04688104341022
      ],
      [
        " game",
        -10.047070414886473
      ],
      [
        " grondwet",
        -10.047136398589927
      ],
      [
        "verantwoordelijk",
        -10.047502885396028
      ],
      [
        "auw",
        -10.047816034698428
      ],
      [
        "one",
        -10.047842900110759
      ],
      [
        " inderdaad",
        -10.048267813287467
      ],
      [
        " been",
        -10.048454918469538
      ],
      [
        " nest",
        -10.049034116532821
      ],
      [
        " stijl",
        -10.04914687758448
      ],
      [
        " grond.",
        -10.049264307512761
      ],
      [
        "werken",
        -10.049621622198288
      ],
      [
        " verleden",
        -10.0496668146643
      ],
      [
        "cht",
        -10.050378670730625
      ],
      [
        " chi",
        -10.050438231838593
      ],
      [
        "llen",
        -10.050735076187248
      ],
      [
        " klok",
        -10.050871226602098
      ],
      [
        "air",
        -10.051008660150597
      ],
      [
        "broek",
        -10.05102767959231
      ],
      [
        " gehoord",
        -10.051260174666796
      ],
      [
        " rijke",
        -10.052370328160066
      ],
      [
        " nat",
        -10.052438578761768
      ],
      [
        "wet",
        -10.052766696106891
      ],
      [
        "fer",
        -10.053259511482164
      ],
      [
        "plan",
        -10.053767648964527
      ],
      [
        " beroep",
        -10.05444364953712
      ],
      [
        " middeleeuwen",
        -10.054808791086469
      ],
      [
        " sterke",
        -10.055494578089073
      ],
      [
        " zweden",
        -10.055943707432585
      ],
      [
        " vervoer",
        -10.056064068450285
      ],
      [
        " eraan",
        -10.056232363215122
      ],
      [
        "ator",
        -10.056782526455343
      ],
      [
        "leden",
        -10.056908175423303
      ],
      [
        " kindje",
        -10.056988323109618
      ],
      [
        " pet",
        -10.057526531600814
      ],
      [
        "wedstrijd",
        -10.05753058226555
      ],
      [
        "tha",
        -10.057857774385788
      ],
      [
        "stan",
        -10.058755772380362
      ],
      [
        " ki",
        -10.059029048187409
      ],
      [
        " leeft",
        -10.06008163156411
      ],
      [
        " plein",
        -10.061180345262876
      ],
      [
        " lukt",
        -10.061284659868136
      ],
      [
        " stro",
        -10.062613736234994
      ],
      [
        " zuid",
        -10.06298526848928
      ],
      [
        " bedenken",
        -10.0633324285434
      ],
      [
        " oorspronkelijk",
        -10.063632419458532
      ],
      [
        "rig",
        -10.063898626062478
      ],
      [
        " chinese",
        -10.064446237820244
      ],
      [
        "nemen",
        -10.064604973241952
      ],
      [
        " weekend",
        -10.065759190342181
      ],
      [
        " heette",
        -10.065923521828271
      ],
      [
        " taart",
        -10.066367867996902
      ],
      [
        "beeld",
        -10.067674180795972
      ],
      [
        " griekenland",
        -10.068066510891814
      ],
      [
        "laag",
        -10.068824848829461
      ],
      [
        " lopen.",
        -10.068909750070244
      ],
      [
        " geluk",
        -10.06930817646317
      ],
      [
        " knikt",
        -10.070216838908134
      ],
      [
        "70",
        -10.07033552903022
      ],
      [
        "woord",
        -10.070627515162501
      ],
      [
        "soort",
        -10.070714991457235
      ],
      [
        "ice",
        -10.071608536517486
      ],
      [
        " vrede",
        -10.071769215746308
      ],
      [
        "vraag",
        -10.071867813065666
      ],
      [
        " stroomt",
        -10.072196949039018
      ],
      [
        "80",
        -10.072265701554585
      ],
      [
        " darm",
        -10.072278418055259
      ],
      [
        " maarten",
        -10.072786910518573
      ],
      [
        " \"de",
        -10.073127692956092
      ],
      [
        " rook",
        -10.073239949658392
      ],
      [
        " vechten",
        -10.073867903972408
      ],
      [
        " vorig",
        -10.075187199607996
      ],
      [
        "82",
        -10.07534205895934
      ],
      [
        " telkens",
        -10.075342404614233
      ],
      [
        ".\n*mother:\tga",
        -10.076661685285128
      ],
      [
        " voldoende",
        -10.076942898002894
      ],
      [
        "zon",
        -10.076994101243594
      ],
      [
        "17",
        -10.077546274361996
      ],
      [
        " raar",
        -10.077630140628251
      ],
      [
        " raken",
        -10.077681057172207
      ],
      [
        "ondanks",
        -10.0779385694579
      ],
      [
        "rel",
        -10.078262733242708
      ],
      [
        "kop",
        -10.079679702144519
      ],
      [
        "tot",
        -10.079760461432873
      ],
      [
        " snoep",
        -10.0800169320775
      ],
      [
        "zee",
        -10.080332048078498
      ],
      [
        "plant",
        -10.080386746506807
      ],
      [
        "reis",
        -10.08045052767854
      ],
      [
        " va",
        -10.081466550873042
      ],
      [
        " insecten",
        -10.08180318407553
      ],
      [
        "ille",
        -10.082023339670084
      ],
      [
        " veranderen",
        -10.082069386042367
      ],
      [
        "tekst",
        -10.082164562049329
      ],
      [
        " canada",
        -10.08344226316592
      ],
      [
        " pu",
        -10.083863106738287
      ],
      [
        " kabinet",
        -10.083989121281896
      ],
      [
        "13",
        -10.084594706096535
      ],
      [
        "bon",
        -10.08465902368214
      ],
      [
        " bracht",
        -10.084697397822199
      ],
      [
        " gezien.",
        -10.085163819083633
      ],
      [
        " vreemd",
        -10.085229679702952
      ],
      [
        "pak",
        -10.086273126712552
      ],
      [
        "mijn",
        -10.086373925048317
      ],
      [
        "feest",
        -10.086628372714436
      ],
      [
        "ow",
        -10.086649640514665
      ],
      [
        " zondag",
        -10.086821266921781
      ],
      [
        "eerst",
        -10.086956300622724
      ],
      [
        "ran",
        -10.086975478187563
      ],
      [
        "rick",
        -10.0871296385295
      ],
      [
        " opstand",
        -10.087494900648032
      ],
      [
        "od",
        -10.087853061051511
      ],
      [
        " red",
        -10.088181252825581
      ],
      [
        " laura",
        -10.088206916782964
      ],
      [
        " kees",
        -10.088440867227582
      ],
      [
        " geplaatst",
        -10.089175771325394
      ],
      [
        " zetels",
        -10.08924059485242
      ],
      [
        " verandering",
        -10.089597504790984
      ],
      [
        " 'kom",
        -10.089862716994718
      ],
      [
        " liepen",
        -10.08998001325324
      ],
      [
        " ...-",
        -10.090009038402755
      ],
      [
        "?\n*",
        -10.09002138210859
      ],
      [
        " maat",
        -10.090067911800958
      ],
      [
        " heilige",
        -10.09010042198135
      ],
      [
        " verwijzen",
        -10.09015612830348
      ],
      [
        " overleden",
        -10.090179719101855
      ],
      [
        " koper",
        -10.09028097378871
      ],
      [
        "tig",
        -10.090549840453917
      ],
      [
        " sleutel",
        -10.090569032101097
      ],
      [
        " deden",
        -10.09071722300676
      ],
      [
        "laten",
        -10.09082537188981
      ],
      [
        " halen.",
        -10.090925042197615
      ],
      [
        " schoot",
        -10.091146964815277
      ],
      [
        " bruin",
        -10.091272941966945
      ],
      [
        " cent",
        -10.09159578138339
      ],
      [
        "mb",
        -10.09214198393321
      ],
      [
        "straat",
        -10.092384675214412
      ],
      [
        " bevindt",
        -10.092756798844935
      ],
      [
        "wij",
        -10.093140897589972
      ],
      [
        "ving",
        -10.093274280474535
      ],
      [
        "a.",
        -10.093326667347672
      ],
      [
        "meester",
        -10.094832884906731
      ],
      [
        " egypte",
        -10.095336701900646
      ],
      [
        " slaven",
        -10.09533933155289
      ],
      [
        " slaat",
        -10.095529320031932
      ],
      [
        " droom",
        -10.0956282419768
      ],
      [
        "pakken",
        -10.09563296025107
      ],
      [
        "mes",
        -10.095670120711844
      ],
      [
        " overleed",
        -10.095689270173182
      ],
      [
        "ys",
        -10.095903793459792
      ],
      [
        "rol",
        -10.095920798580089
      ],
      [
        " controle",
        -10.096082183090731
      ],
      [
        " opzichte",
        -10.096168186999781
      ],
      [
        " christus",
        -10.09688152877192
      ],
      [
        " onderzocht",
        -10.097086377348361
      ],
      [
        " amerikanen",
        -10.097621341605496
      ],
      [
        " kopen.",
        -10.097640822723594
      ],
      [
        " afhankelijk",
        -10.098052131077308
      ],
      [
        "76)",
        -10.09822296627788
      ],
      [
        " nationaal",
        -10.098899749803344
      ],
      [
        " ideeen",
        -10.098926102678627
      ],
      [
        " brengt",
        -10.099104690501822
      ],
      [
        " gebracht",
        -10.09932150921317
      ],
      [
        " woon",
        -10.099542628764372
      ],
      [
        "weet",
        -10.099783842237612
      ],
      [
        " (10",
        -10.100026730749148
      ],
      [
        " lied",
        -10.1001062846235
      ],
      [
        " ajax",
        -10.100403295258875
      ],
      [
        " burger",
        -10.100966825957435
      ],
      [
        "58)",
        -10.101482657448106
      ],
      [
        "56",
        -10.1018726071776
      ],
      [
        "ud",
        -10.102023426920473
      ],
      [
        "aag",
        -10.102036270534079
      ],
      [
        " ton",
        -10.102090104310452
      ],
      [
        " geweld",
        -10.102189641612206
      ],
      [
        " zacht",
        -10.102230905649773
      ],
      [
        " spiegel",
        -10.10238672930982
      ],
      [
        "punten",
        -10.102434353080163
      ],
      [
        "85",
        -10.102548981455055
      ],
      [
        " vermeld",
        -10.103102791453793
      ],
      [
        "kwam",
        -10.103468552591906
      ],
      [
        " inkomen",
        -10.103585053917632
      ],
      [
        " record",
        -10.103624169929574
      ],
      [
        " democratie",
        -10.103952642979024
      ],
      [
        "maal",
        -10.104049431345047
      ],
      [
        " slaan",
        -10.104164088882785
      ],
      [
        " aanval",
        -10.104540333932789
      ],
      [
        " nina",
        -10.104682742499222
      ],
      [
        " beroemde",
        -10.10521075036936
      ],
      [
        " moeite",
        -10.105781466393594
      ],
      [
        "elt",
        -10.10625451175466
      ],
      [
        " don",
        -10.107352096405926
      ],
      [
        " bladeren",
        -10.107425610228404
      ],
      [
        " anti",
        -10.107466074269437
      ],
      [
        "tuin",
        -10.107645968122842
      ],
      [
        "\ner",
        -10.107796849526451
      ],
      [
        "8-",
        -10.107906841296256
      ],
      [
        " noemt",
        -10.108862917178474
      ],
      [
        " vermoord",
        -10.108959904630337
      ],
      [
        "druk",
        -10.10916097483863
      ],
      [
        "sti",
        -10.109363700239236
      ],
      [
        "ken.",
        -10.109583134021044
      ],
      [
        "lij",
        -10.109584247781576
      ],
      [
        " gooien",
        -10.109692056307242
      ],
      [
        " centraal",
        -10.109922157036518
      ],
      [
        " rechten",
        -10.110494729720482
      ],
      [
        " draaide",
        -10.110524393508898
      ],
      [
        "markt",
        -10.110697878484848
      ],
      [
        " mam",
        -10.110740680834448
      ],
      [
        "zoals",
        -10.110860841094457
      ],
      [
        "bedrijf",
        -10.111083080468728
      ],
      [
        " tak",
        -10.111221745513966
      ],
      [
        " roepen",
        -10.111539273914413
      ],
      [
        " gevraagd.",
        -10.111694896722526
      ],
      [
        " duitsers",
        -10.111742596022381
      ],
      [
        " studenten",
        -10.111746578801391
      ],
      [
        "90",
        -10.111842416276101
      ],
      [
        " wk",
        -10.112494316028176
      ],
      [
        "wereld",
        -10.112838323192644
      ],
      [
        " hondje",
        -10.11285913423903
      ],
      [
        " reageren",
        -10.112879954662171
      ],
      [
        " koek",
        -10.113065011759183
      ],
      [
        "eet",
        -10.113579473219364
      ],
      [
        " juffrouw",
        -10.114259054657033
      ],
      [
        ").\n\n",
        -10.11507977994291
      ],
      [
        " wees",
        -10.115215821929038
      ],
      [
        " elf",
        -10.11534310142194
      ],
      [
        " pepijn",
        -10.115365810798073
      ],
      [
        " ja.\n*",
        -10.115471295986286
      ],
      [
        " holland",
        -10.115604204296996
      ],
      [
        " wonen.",
        -10.115910545357217
      ],
      [
        " afbeeldingen",
        -10.11639441436272
      ],
      [
        " kleinere",
        -10.117320163868843
      ],
      [
        "mond",
        -10.118047448076908
      ],
      [
        " zoiets",
        -10.118661068672743
      ],
      [
        "treden",
        -10.11882078680302
      ],
      [
        "dorp",
        -10.119165455522772
      ],
      [
        " raakte",
        -10.119357393504425
      ],
      [
        " nauwelijks",
        -10.119478801985064
      ],
      [
        " koude",
        -10.119806474465683
      ],
      [
        " vies",
        -10.12057584947673
      ],
      [
        ".\n*mother:\tmoet",
        -10.121528730628935
      ],
      [
        " open.",
        -10.122127058653474
      ],
      [
        " rock",
        -10.122557629560447
      ],
      [
        "ian",
        -10.122607323056044
      ],
      [
        " hans",
        -10.122749377653959
      ],
      [
        "acht",
        -10.123033710104048
      ],
      [
        "19",
        -10.12369766165752
      ],
      [
        " correct",
        -10.123703499938737
      ],
      [
        "echt",
        -10.123920829863597
      ],
      [
        "14",
        -10.1240671659715
      ],
      [
        " genomen",
        -10.124200697643179
      ],
      [
        " hof",
        -10.124242398021398
      ],
      [
        " site",
        -10.124408792215647
      ],
      [
        " spoor",
        -10.124759625923648
      ],
      [
        " voren",
        -10.124872953881884
      ],
      [
        " kaarten",
        -10.124937542071695
      ],
      [
        "brengen",
        -10.125363410836947
      ],
      [
        " spannend",
        -10.125368364108107
      ],
      [
        "85)",
        -10.126170599518366
      ],
      [
        " alex",
        -10.126858117122207
      ],
      [
        "tion",
        -10.127722734049975
      ],
      [
        " heer",
        -10.128515224816006
      ],
      [
        " zoekt",
        -10.128620484915857
      ],
      [
        " chris",
        -10.12866918059844
      ],
      [
        "ana",
        -10.128753301174442
      ],
      [
        " stads",
        -10.128789024284716
      ],
      [
        " gegeten",
        -10.129166659550517
      ],
      [
        "tar",
        -10.129184870651503
      ],
      [
        " bellen",
        -10.12951852902592
      ],
      [
        " victor",
        -10.129564790212655
      ],
      [
        " alweer",
        -10.12988760224356
      ],
      [
        "yn",
        -10.13084166810222
      ],
      [
        " veranderd",
        -10.131284368234747
      ],
      [
        "bord",
        -10.131350698537602
      ],
      [
        " eefie",
        -10.131598053382136
      ],
      [
        " wetenschappers",
        -10.131832619641582
      ],
      [
        "adrianus",
        -10.13192254631883
      ],
      [
        " behalen.",
        -10.13213942220645
      ],
      [
        " gratis",
        -10.132810362527719
      ],
      [
        " dansen",
        -10.133308639226929
      ],
      [
        "meter",
        -10.13334244853209
      ],
      [
        " bezoekers",
        -10.13358296967434
      ],
      [
        "30)",
        -10.133686441105201
      ],
      [
        " winkels",
        -10.133747610878652
      ],
      [
        " zaal",
        -10.133855893956213
      ],
      [
        " albert",
        -10.13388911917184
      ],
      [
        " hemel",
        -10.133941688578624
      ],
      [
        "heer",
        -10.134110215833292
      ],
      [
        "iet",
        -10.134298834265628
      ],
      [
        " leiding",
        -10.134630765225596
      ],
      [
        " gar",
        -10.135786092797083
      ],
      [
        " positie",
        -10.13602970594086
      ],
      [
        " actief",
        -10.136149987911722
      ],
      [
        " winnaar",
        -10.136334165618898
      ],
      [
        "act",
        -10.136336019971099
      ],
      [
        " filips",
        -10.136430184875065
      ],
      [
        " harde",
        -10.136513287202803
      ],
      [
        "\tniet",
        -10.136589660125733
      ],
      [
        " warme",
        -10.13690132608913
      ],
      [
        " groeit",
        -10.137631553256373
      ],
      [
        " beleid",
        -10.138112773086183
      ],
      [
        " sinterklaas",
        -10.138659550800037
      ],
      [
        "centrum",
        -10.138677663009133
      ],
      [
        "ici",
        -10.139710271771305
      ],
      [
        "\teh",
        -10.139876347607135
      ],
      [
        " tegelijk",
        -10.140143863691286
      ],
      [
        " jezelf",
        -10.140457952453218
      ],
      [
        " wapen",
        -10.140589497039151
      ],
      [
        " klik",
        -10.140611679592475
      ],
      [
        "mal",
        -10.141418781812725
      ],
      [
        " trouwde",
        -10.141481677951584
      ],
      [
        " bon",
        -10.141553451342201
      ],
      [
        " gevaar",
        -10.142929021643113
      ],
      [
        " schema",
        -10.142991430446951
      ],
      [
        " spelers",
        -10.14303480939191
      ],
      [
        "en?",
        -10.14333984534676
      ],
      [
        " zilver",
        -10.143481175265363
      ],
      [
        " stuur",
        -10.143796984266842
      ],
      [
        " sloeg",
        -10.144412200465203
      ],
      [
        "zelf",
        -10.144825696021762
      ],
      [
        "28",
        -10.146102224284144
      ],
      [
        " har",
        -10.146363264380057
      ],
      [
        "97",
        -10.146463881962127
      ],
      [
        " kl",
        -10.14677770517785
      ],
      [
        " ed",
        -10.147634466934509
      ],
      [
        " merk",
        -10.147930326967614
      ],
      [
        "ala",
        -10.147939907048766
      ],
      [
        " fre",
        -10.148240851065236
      ],
      [
        " rot",
        -10.148579942678266
      ],
      [
        "nne",
        -10.148692326313489
      ],
      [
        "og",
        -10.14888774703794
      ],
      [
        "iers",
        -10.149502312940573
      ],
      [
        "stein",
        -10.149858195855352
      ],
      [
        " vooruit",
        -10.149889242349694
      ],
      [
        "stok",
        -10.149944535855203
      ],
      [
        " voorstelling",
        -10.150750979221854
      ],
      [
        " camera",
        -10.150891930441523
      ],
      [
        " lach",
        -10.151164562570312
      ],
      [
        "programma",
        -10.151748574532283
      ],
      [
        " spreekt",
        -10.151830949519088
      ],
      [
        "zie",
        -10.152096150338075
      ],
      [
        " stop",
        -10.152131478344511
      ],
      [
        " sla",
        -10.152171647479443
      ],
      [
        "vul",
        -10.152581031564814
      ],
      [
        " gevonden.",
        -10.152914975486079
      ],
      [
        " angst",
        -10.154164914317704
      ],
      [
        " discussie",
        -10.154298966753508
      ],
      [
        "iz",
        -10.155022876186882
      ],
      [
        " gekocht",
        -10.155742977377905
      ],
      [
        " r.",
        -10.156109705272744
      ],
      [
        "pje",
        -10.156418155149293
      ],
      [
        "bron",
        -10.156737988124332
      ],
      [
        " graf",
        -10.15695342058908
      ],
      [
        "wacht",
        -10.15725379348614
      ],
      [
        " thijs",
        -10.157511724227826
      ],
      [
        " ·",
        -10.158259101279864
      ],
      [
        " pat",
        -10.15921630450542
      ],
      [
        " e.d.",
        -10.159627943650628
      ],
      [
        "up",
        -10.160026098467366
      ],
      [
        " simon",
        -10.160111691001141
      ],
      [
        " noord-",
        -10.160121080100122
      ],
      [
        "don",
        -10.160270236224793
      ],
      [
        " voetballen",
        -10.160781194879885
      ],
      [
        " zw",
        -10.16129239862033
      ],
      [
        " dagelijks",
        -10.161315078229432
      ],
      [
        " onderdelen",
        -10.16180839213061
      ],
      [
        "wer",
        -10.162192448125746
      ],
      [
        "jan",
        -10.1623047541611
      ],
      [
        "haar",
        -10.163127987769398
      ],
      [
        " gra",
        -10.163874235480858
      ],
      [
        " leert",
        -10.165198049828728
      ],
      [
        "\tuh",
        -10.16540340568335
      ],
      [
        "tan",
        -10.165486201255074
      ],
      [
        " directeur",
        -10.165591940766575
      ],
      [
        "ku",
        -10.166293173221328
      ],
      [
        "gers",
        -10.166347860993092
      ],
      [
        " max",
        -10.166537394927387
      ],
      [
        "99",
        -10.166599274759431
      ],
      [
        " vlucht",
        -10.166660237202159
      ],
      [
        " lui",
        -10.167175484694418
      ],
      [
        " sn",
        -10.167674053457272
      ],
      [
        "lei",
        -10.167824917088573
      ],
      [
        "iel",
        -10.167957734332344
      ],
      [
        " gal",
        -10.168131064684577
      ],
      [
        "by",
        -10.168262125258298
      ],
      [
        "hier",
        -10.168432466037608
      ],
      [
        " he?",
        -10.168539239261417
      ],
      [
        " schiet",
        -10.168619365950606
      ],
      [
        " gebeurtenissen",
        -10.169185218879072
      ],
      [
        "rus",
        -10.169820722851656
      ],
      [
        " ph",
        -10.170040738737887
      ],
      [
        " goederen",
        -10.170307147489584
      ],
      [
        " stevig",
        -10.17107991320589
      ],
      [
        " leidt",
        -10.17141465122533
      ],
      [
        " bewoners",
        -10.171975952028856
      ],
      [
        " liggen.",
        -10.17437327151578
      ],
      [
        " maag",
        -10.174485910112919
      ],
      [
        " puzzel",
        -10.174560847680144
      ],
      [
        "\n*mother:",
        -10.17465450141159
      ],
      [
        " onbe",
        -10.175187543193184
      ],
      [
        " klap",
        -10.175260235756353
      ],
      [
        "anne",
        -10.175593565986638
      ],
      [
        " staten.",
        -10.176325227358113
      ],
      [
        " emmer",
        -10.17634704449435
      ],
      [
        " arbeiders",
        -10.176928346652204
      ],
      [
        " herkennen",
        -10.177784982482649
      ],
      [
        " brak",
        -10.177830829454429
      ],
      [
        "sor",
        -10.17827807057102
      ],
      [
        " vallen.",
        -10.178618305428904
      ],
      [
        "tre",
        -10.17871293023779
      ],
      [
        " plak",
        -10.178902032229333
      ],
      [
        " toneel",
        -10.178923333509708
      ],
      [
        " gezellig",
        -10.179182200793559
      ],
      [
        " plaat",
        -10.179994812327418
      ],
      [
        " sha",
        -10.180435542491965
      ],
      [
        " basisschool",
        -10.180444668446214
      ],
      [
        "]",
        -10.180604497375501
      ],
      [
        "75",
        -10.181279187580355
      ],
      [
        " 70",
        -10.18136578732313
      ],
      [
        " wint",
        -10.181528660535214
      ],
      [
        "ey",
        -10.181546625635828
      ],
      [
        " zwembad",
        -10.182220185694392
      ],
      [
        " race",
        -10.182235662610584
      ],
      [
        "en.\n\n",
        -10.182448583124032
      ],
      [
        " bedoeling",
        -10.182562187666658
      ],
      [
        "gedurende",
        -10.182842962989248
      ],
      [
        " bekeken",
        -10.182844504032902
      ],
      [
        "geld",
        -10.18307189272639
      ],
      [
        "rijden",
        -10.183281090047883
      ],
      [
        "erij",
        -10.183282633077027
      ],
      [
        "74",
        -10.183526506166892
      ],
      [
        "aard",
        -10.184249793089483
      ],
      [
        "target_child:\tik",
        -10.184637770425397
      ],
      [
        " (regel",
        -10.18531357282313
      ],
      [
        " vingers",
        -10.186001649674157
      ],
      [
        " kopje",
        -10.186214246406376
      ],
      [
        " para",
        -10.186857891598631
      ],
      [
        "rd",
        -10.186979797965098
      ],
      [
        " hierin",
        -10.18707091690554
      ],
      [
        " stad.",
        -10.187169773482058
      ],
      [
        "eten",
        -10.187344508974505
      ],
      [
        " koeien",
        -10.187385748076933
      ],
      [
        " verplicht",
        -10.18739501070391
      ],
      [
        " cellen",
        -10.187660912800943
      ],
      [
        "vr",
        -10.18786491528902
      ],
      [
        " leeuw",
        -10.187891493526445
      ],
      [
        " verbonden",
        -10.189064706841188
      ],
      [
        "\nopgave",
        -10.189271339330027
      ],
      [
        " kinderen.",
        -10.189569042872545
      ],
      [
        "stof",
        -10.189588543784506
      ],
      [
        " im",
        -10.189657761501351
      ],
      [
        "dra",
        -10.18970744652525
      ],
      [
        " mexico",
        -10.189903446757231
      ],
      [
        "\theb",
        -10.190462847998056
      ],
      [
        " uitgevoerd",
        -10.190525386713823
      ],
      [
        " verkopen",
        -10.190575510298679
      ],
      [
        " buitenlandse",
        -10.190628947333327
      ],
      [
        ".\nbij",
        -10.19106666774537
      ],
      [
        " wol",
        -10.191753419747723
      ],
      [
        "98",
        -10.192461967469944
      ],
      [
        " kilo",
        -10.192758180566582
      ],
      [
        " kro",
        -10.193130465842282
      ],
      [
        "gekomen",
        -10.19313695468918
      ],
      [
        "aren",
        -10.19333250725931
      ],
      [
        " 'daar",
        -10.193598636053448
      ],
      [
        " zucht",
        -10.194423014759982
      ],
      [
        " normale",
        -10.194474942411425
      ],
      [
        " bereikt",
        -10.195054983540329
      ],
      [
        " vos",
        -10.195319925274806
      ],
      [
        "ita",
        -10.195622573750658
      ],
      [
        " musical",
        -10.195905536498733
      ],
      [
        " miljoenen",
        -10.19594700520811
      ],
      [
        "tiek",
        -10.196163595618822
      ],
      [
        "boom",
        -10.196475598646026
      ],
      [
        "ris",
        -10.196543024349229
      ],
      [
        " gedicht",
        -10.196688212108278
      ],
      [
        " anna",
        -10.196772712187823
      ],
      [
        "soorten",
[...]
