{
  "version": "1.0",
  "truncation": null,
  "padding": null,
  "added_tokens": [
    {
      "id": 0,
      "content": "<UNK>",
      "single_word": false,
      "lstrip": false,
      "rstrip": false,
      "normalized": false,
      "special": true
    },
    {
      "id": 1,
      "content": "<PAD>",
      "single_word": false,
      "lstrip": false,
      "rstrip": false,
      "normalized": false,
      "special": true
    },
    {
      "id": 2,
      "content": "<CLS>",
      "single_word": false,
      "lstrip": false,
      "rstrip": false,
      "normalized": false,
      "special": true
    },
    {
      "id": 3,
      "content": "<SEP>",
      "single_word": false,
      "lstrip": false,
      "rstrip": false,
      "normalized": false,
      "special": true
    },
    {
      "id": 4,
      "content": "<MASK>",
      "single_word": false,
      "lstrip": false,
      "rstrip": false,
      "normalized": false,
      "special": true
    },
    {
      "id": 5,
      "content": "<NL>",
      "single_word": false,
      "lstrip": false,
      "rstrip": false,
      "normalized": false,
      "special": true
    }
  ],
  "normalizer": {
    "type": "Sequence",
    "normalizers": [
      {
        "type": "NFD"
      },
      {
        "type": "StripAccents"
      },
      {
        "type": "Lowercase"
      }
    ]
  },
  "pre_tokenizer": {
    "type": "ByteLevel",
    "add_prefix_space": false,
    "trim_offsets": true,
    "use_regex": true
  },
  "post_processor": {
    "type": "ByteLevel",
    "add_prefix_space": true,
    "trim_offsets": true,
    "use_regex": true
  },
  "decoder": {
    "type": "ByteLevel",
    "add_prefix_space": true,
    "trim_offsets": true,
    "use_regex": true
  },
  "model": {
    "type": "BPE",
    "dropout": null,
    "unk_token": "<UNK>",
    "continuing_subword_prefix": null,
    "end_of_word_suffix": null,
    "fuse_unk": false,
    "byte_fallback": false,
    "ignore_merges": false,
    "vocab": {
      "<UNK>": 0,
      "<PAD>": 1,
      "<CLS>": 2,
      "<SEP>": 3,
      "<MASK>": 4,
      "<NL>": 5,
      "!": 6,
      "\"": 7,
      "#": 8,
      "$": 9,
      "%": 10,
      "&": 11,
      "'": 12,
      "(": 13,
      ")": 14,
      "*": 15,
      "+": 16,
      ",": 17,
      "-": 18,
      ".": 19,
      "/": 20,
      "0": 21,
      "1": 22,
      "2": 23,
      "3": 24,
      "4": 25,
      "5": 26,
      "6": 27,
      "7": 28,
      "8": 29,
      "9": 30,
      ":": 31,
      ";": 32,
      "<": 33,
      "=": 34,
      ">": 35,
      "?": 36,
      "@": 37,
      "[": 38,
      "\\": 39,
      "]": 40,
      "^": 41,
      "_": 42,
      "a": 43,
      "b": 44,
      "c": 45,
      "d": 46,
      "e": 47,
      "f": 48,
      "g": 49,
      "h": 50,
      "i": 51,
      "j": 52,
      "k": 53,
      "l": 54,
      "m": 55,
      "n": 56,
      "o": 57,
      "p": 58,
      "q": 59,
      "r": 60,
      "s": 61,
      "t": 62,
      "u": 63,
      "v": 64,
      "w": 65,
      "x": 66,
      "y": 67,
      "z": 68,
      "{": 69,
      "|": 70,
      "}": 71,
      "~": 72,
      "¡": 73,
      "¢": 74,
      "£": 75,
      "¤": 76,
      "¥": 77,
      "¦": 78,
      "§": 79,
      "¨": 80,
      "©": 81,
      "ª": 82,
      "«": 83,
      "¬": 84,
      "®": 85,
      "¯": 86,
      "°": 87,
      "±": 88,
      "²": 89,
      "³": 90,
      "´": 91,
      "µ": 92,
      "¶": 93,
      "·": 94,
      "¸": 95,
      "¹": 96,
      "º": 97,
      "»": 98,
      "¼": 99,
      "½": 100,
      "¾": 101,
      "¿": 102,
      "Â": 103,
      "Ã": 104,
      "Ä": 105,
      "Å": 106,
      "Æ": 107,
      "É": 108,
      "Ê": 109,
      "Ë": 110,
      "Î": 111,
      "Ï": 112,
      "Ð": 113,
      "Ñ": 114,
      "Ò": 115,
      "Õ": 116,
      "Ö": 117,
      "×": 118,
      "Ø": 119,
      "Ù": 120,
      "Ú": 121,
      "Û": 122,
      "Ü": 123,
      "Þ": 124,
      "à": 125,
      "á": 126,
      "â": 127,
      "ã": 128,
      "ä": 129,
      "å": 130,
      "æ": 131,
      "ç": 132,
      "è": 133,
      "é": 134,
      "ï": 135,
      "ð": 136,
      "ĉ": 137,
      "Ċ": 138,
      "Č": 139,
      "Ġ": 140,
      "Ģ": 141,
      "ģ": 142,
      "Ĥ": 143,
      "ĥ": 144,
      "Ħ": 145,
      "ħ": 146,
      "Ĩ": 147,
      "ĩ": 148,
      "Ī": 149,
      "ī": 150,
      "Ĭ": 151,
      "ĭ": 152,
      "Į": 153,
      "į": 154,
      "İ": 155,
      "ı": 156,
      "Ĳ": 157,
      "ĳ": 158,
      "Ĵ": 159,
      "ĵ": 160,
      "Ķ": 161,
      "ķ": 162,
      "ĸ": 163,
      "Ĺ": 164,
      "ĺ": 165,
      "Ļ": 166,
      "ļ": 167,
      "Ľ": 168,
      "ľ": 169,
      "Ŀ": 170,
      "ŀ": 171,
      "Ł": 172,
      "ł": 173,
      "Ń": 174,
      "en": 175,
      "er": 176,
      "Ġd": 177,
      "an": 178,
      "et": 179,
      "Ġv": 180,
      "Ġh": 181,
      "in": 182,
      "Ġde": 183,
      "ar": 184,
      "ij": 185,
      "el": 186,
      "st": 187,
      "Ġw": 188,
      "Ġo": 189,
      "Ġm": 190,
      "or": 191,
      "ch": 192,
      "at": 193,
      "Ġz": 194,
      "Ġb": 195,
      "Ġg": 196,
      "Ġe": 197,
      "ie": 198,
      "Ġt": 199,
      "Ġk": 200,
      "Ġn": 201,
      "al": 202,
      "aar": 203,
      "Ġeen": 204,
      "is": 205,
      "Ġhet": 206,
      "Ġvan": 207,
      "Ġin": 208,
      "on": 209,
      "oor": 210,
      "il": 211,
      "Ġs": 212,
      "Ġen": 213,
      "it": 214,
      "Ġl": 215,
      "Ġj": 216,
      "ee": 217,
      "oe": 218,
      "de": 219,
      "Ġp": 220,
      "den": 221,
      "Ġa": 222,
      "der": 223,
      "Ġge": 224,
      "gen": 225,
      "ot": 226,
      "Ġis": 227,
      "ig": 228,
      "Ġop": 229,
      "Ġr": 230,
      "ik": 231,
      "chil": 232,
      "Ġst": 233,
      "ijn": 234,
      "get": 235,
      "om": 236,
      "ing": 237,
      "child": 238,
      "Ġver": 239,
      "Ġbe": 240,
      "cht": 241,
      "ken": 242,
      "tar": 243,
      "target": 244,
      "Ġal": 245,
      "le": 246,
      "Ġte": 247,
      "am": 248,
      "ol": 249,
      "ur": 250,
      "Ġje": 251,
      "Ġze": 252,
      "ou": 253,
      "Ġdat": 254,
      "ijk": 255,
      "iet": 256,
      "eer": 257,
      "and": 258,
      "as": 259,
      "je": 260,
      "uit": 261,
      "Ġvoor": 262,
      "ra": 263,
      "Ġmet": 264,
      "Ġzijn": 265,
      "ge": 266,
      "Ġer": 267,
      "oo": 268,
      "Ġhe": 269,
      "ver": 270,
      "ak": 271,
      "un": 272,
      "Ġ(": 273,
      "Ġ1": 274,
      "her": 275,
      "ok": 276,
      "Ġf": 277,
      "Ġdie": 278,
      "Ġon": 279,
      "Ġaan": 280,
      "re": 281,
      "us": 282,
      "Ġc": 283,
      "id": 284,
      "aat": 285,
      "ve": 286,
      "ier": 287,
      "ag": 288,
      "Ġniet": 289,
      "Ġ'": 290,
      "Ġuit": 291,
      "ven": 292,
      "other": 293,
      "ad": 294,
      "mother": 295,
      "og": 296,
      "te": 297,
      "..": 298,
      "aan": 299,
      "Ġhij": 300,
      "Ġwor": 301,
      "op": 302,
      "ten": 303,
      "eld": 304,
      "Ġom": 305,
      "Ġook": 306,
      "sen": 307,
      "ro": 308,
      "Ġwer": 309,
      "Â·": 310,
      "Ġsch": 311,
      "ft": 312,
      "ĠÂ·": 313,
      "stig": 314,
      "Ġbij": 315,
      "ze": 316,
      "Ġmaar": 317,
      "Ġwe": 318,
      "sch": 319,
      "aal": 320,
      "xx": 321,
      "ste": 322,
      "Ġ2": 323,
      "ator": 324,
      "se": 325,
      "ap": 326,
      "Ġals": 327,
      "ru": 328,
      "ien": 329,
      "Ġzo": 330,
      "vestig": 331,
      "Ġik": 332,
      "be": 333,
      "rij": 334,
      "investig": 335,
      "investigator": 336,
      "Ġover": 337,
      "Ġre": 338,
      "Ġnaar": 339,
      "ul": 340,
      "elijk": 341,
      "oet": 342,
      "Ġdan": 343,
      "he": 344,
      "ers": 345,
      "ele": 346,
      "Ġwas": 347,
      "Ġdoor": 348,
      "nen": 349,
      "dt": 350,
      "oen": 351,
      "Ġof": 352,
      "Ġle": 353,
      "ant": 354,
      "Ġsp": 355,
      "Ġwat": 356,
      "len": 357,
      "men": 358,
      "Ġwaar": 359,
      "uur": 360,
      "uw": 361,
      "Ġgr": 362,
      "ond": 363,
      "Ġheb": 364,
      "eeft": 365,
      "Ġwel": 366,
      "Ġma": 367,
      "ang": 368,
      "ander": 369,
      "Ġaf": 370,
      "ingen": 371,
      "eel": 372,
      "ke": 373,
      "im": 374,
      "een": 375,
      "Ġdaar": 376,
      "ct": 377,
      "Ġ-": 378,
      "ist": 379,
      "land": 380,
      "00": 381,
      "Ġgeb": 382,
      "ja": 383,
      "Ġonder": 384,
      "...": 385,
      "Ġdeze": 386,
      "Ġdit": 387,
      "Ġnog": 388,
      "Ġwordt": 389,
      "oed": 390,
      "ouw": 391,
      "Ġne": 392,
      "wee": 393,
      "Ġheeft": 394,
      "Ġkun": 395,
      "Ġalle": 396,
      "jes": 397,
      "la": 398,
      "Ġmen": 399,
      "Ġkan": 400,
      "Ġworden": 401,
      "pen": 402,
      "ind": 403,
      "sp": 404,
      "atie": 405,
      "oek": 406,
      "eren": 407,
      "ut": 408,
      "icht": 409,
      "Ġmeer": 410,
      "Ġna": 411,
      "ic": 412,
      "Ġwil": 413,
      "Ġhier": 414,
      "isch": 415,
      "Ġmoet": 416,
      "xxx": 417,
      "Ġander": 418,
      "omen": 419,
      "dat": 420,
      "gt": 421,
      "Ġbr": 422,
      "kt": 423,
      "oord": 424,
      "Ġveel": 425,
      "aak": 426,
      "ast": 427,
      "Ġbl": 428,
      "Ġwerd": 429,
      "Ġtwee": 430,
      "zen": 431,
      "ben": 432,
      "Ġvol": 433,
      "Ġhaar": 434,
      "Ġpl": 435,
      "we": 436,
      "Ġi": 437,
      "ich": 438,
      "Ġmee": 439,
      "os": 440,
      "ent": 441,
      "Ġme": 442,
      "elen": 443,
      "orm": 444,
      "ijd": 445,
      "um": 446,
      "ip": 447,
      "art": 448,
      "ige": 449,
      "ere": 450,
      "aren": 451,
      "Ġhebben": 452,
      "af": 453,
      "Ġtot": 454,
      "Ġ19": 455,
      "ne": 456,
      "Ġhoe": 457,
      "lie": 458,
      "elf": 459,
      "uk": 460,
      "acht": 461,
      "ruik": 462,
      "Ġ...": 463,
      "of": 464,
      "ker": 465,
      "ter": 466,
      "inder": 467,
      "Ġont": 468,
      "els": 469,
      "Ġneder": 470,
      "aten": 471,
      "Ġ3": 472,
      "ia": 473,
      "amen": 474,
      "ine": 475,
      "oon": 476,
      "Ġhad": 477,
      "Ġeer": 478,
      "wer": 479,
      "Ġel": 480,
      "Ġvr": 481,
      "Ġweer": 482,
      "lijk": 483,
      "Ġkl": 484,
      "uis": 485,
      "heid": 486,
      "Ġmensen": 487,
      "ische": 488,
      "ies": 489,
      "sten": 490,
      "Ġgebruik": 491,
      "beeld": 492,
      "Ġzich": 493,
      "Ġgaat": 494,
      "Ġbo": 495,
      "Ġnederland": 496,
      "Ġkon": 497,
      "Ġpro": 498,
      "voor": 499,
      "iek": 500,
      "igen": 501,
      "ug": 502,
      "Ġie": 503,
      "Ġgev": 504,
      "Ġgoed": 505,
      "mer": 506,
      ",'": 507,
      "Ġgeen": 508,
      "ieuw": 509,
      "ran": 510,
      "Ġkle": 511,
      "ool": 512,
      "Ġjaar": 513,
      "Ġandere": 514,
      "Ġâ": 515,
      "Ġdr": 516,
      "Ġbel": 517,
      "Ġtegen": 518,
      "Ġkunnen": 519,
      "Ġhoo": 520,
      "onder": 521,
      "Ġ20": 522,
      ".'": 523,
      "sl": 524,
      "Ġhem": 525,
      "ale": 526,
      "Ġmoe": 527,
      "Ġbet": 528,
      "Ġhun": 529,
      "ger": 530,
      "eten": 531,
      "Ġkom": 532,
      "ab": 533,
      "wat": 534,
      "Ġgem": 535,
      "Ġter": 536,
      "Ġnu": 537,
      "oep": 538,
      "od": 539,
      "raag": 540,
      "ster": 541,
      "Ġto": 542,
      "na": 543,
      "uid": 544,
      "nee": 545,
      "als": 546,
      "gel": 547,
      "Ġgaan": 548,
      "Ġgrot": 549,
      "rijk": 550,
      "Ġbeg": 551,
      "Ġzit": 552,
      "Ġpr": 553,
      "ir": 554,
      "chter": 555,
      "ĠâĢ": 556,
      "ussen": 557,
      "ion": 558,
      "het": 559,
      "Ġgro": 560,
      "ui": 561,
      "Ġzou": 562,
      "Ġtoen": 563,
      "ber": 564,
      "Ġbest": 565,
      "es": 566,
      "Ġch": 567,
      "ed": 568,
      "Ġstaat": 569,
      "ĠâĢ¢": 570,
      "Ġsl": 571,
      "anden": 572,
      "Ġben": 573,
      "Ġgel": 574,
      "oem": 575,
      "ort": 576,
      "innen": 577,
      "Ġdoen": 578,
      "oc": 579,
      "Ġkw": 580,
      "Ġ4": 581,
      "alen": 582,
      "'s": 583,
      "Ġheel": 584,
      "eef": 585,
      "Ġmaken": 586,
      "Ġman": 587,
      "Ġnieuw": 588,
      "tje": 589,
      "oh": 590,
      "iets": 591,
      "gens": 592,
      "Ġste": 593,
      "per": 594,
      "ink": 595,
      "Ġzegt": 596,
      "ieren": 597,
      "Ġvers": 598,
      "kst": 599,
      "oud": 600,
      "oop": 601,
      "Ġkinder": 602,
      "eek": 603,
      "Ġar": 604,
      "oren": 605,
      "Ġgew": 606,
      "omm": 607,
      "Ġzelf": 608,
      "bij": 609,
      "Ġbed": 610,
      "Ġelk": 611,
      "ell": 612,
      "racht": 613,
      "Ġgen": 614,
      "Ġkomt": 615,
      "Ġsn": 616,
      "oel": 617,
      "Ġ5": 618,
      "maal": 619,
      "Ġmijn": 620,
      "eed": 621,
      "woord": 622,
      "Ġland": 623,
      "wij": 624,
      "Ġwater": 625,
      "yl": 626,
      "ank": 627,
      "Ġ\"": 628,
      "open": 629,
      "ma": 630,
      "Ġhele": 631,
      "vol": 632,
      "Ġlang": 633,
      "ood": 634,
      "Ġtijd": 635,
      "Ġgez": 636,
      "Ġgrote": 637,
      "ub": 638,
      "oorden": 639,
      "ctie": 640,
      "onden": 641,
      "aard": 642,
      "ide": 643,
      "Ġwaren": 644,
      "Ġjon": 645,
      "Ġalleen": 646,
      "Ġeven": 647,
      "Ġmaak": 648,
      "fd": 649,
      "Ġcon": 650,
      "ii": 651,
      "br": 652,
      ").": 653,
      "pl": 654,
      "ijden": 655,
      "Ġou": 656,
      "ite": 657,
      "Ġtekst": 658,
      "Ġtussen": 659,
      "Ġjij": 660,
      "Ġper": 661,
      "Ġtoe": 662,
      "Ġweg": 663,
      "Ġverk": 664,
      "gev": 665,
      "?'": 666,
      "Ġja": 667,
      "Ġgroot": 668,
      "Ġkinderen": 669,
      "Ġvl": 670,
      "door": 671,
      "rijf": 672,
      "Ġged": 673,
      "Ġplaat": 674,
      "Ġnat": 675,
      "ult": 676,
      "schap": 677,
      "Ġlu": 678,
      "oort": 679,
      "Ġden": 680,
      "ees": 681,
      "van": 682,
      "Ġeerste": 683,
      "aakt": 684,
      "Ġeigen": 685,
      "Ġant": 686,
      "Ġkrij": 687,
      "Ġwerk": 688,
      "Ġvin": 689,
      "Ġschool": 690,
      "iden": 691,
      "oeg": 692,
      "Ġkomen": 693,
      "fat": 694,
      "Ġtoch": 695,
      "idd": 696,
      "Ġiets": 697,
      "Ġverschil": 698,
      "Ġkr": 699,
      "Ġzien": 700,
      "iv": 701,
      "ius": 702,
      "uren": 703,
      "ater": 704,
      "kend": 705,
      "elijke": 706,
      "Ġmar": 707,
      "oog": 708,
      "Ġex": 709,
      "int": 710,
      "oer": 711,
      "Ġsamen": 712,
      "ment": 713,
      "ijken": 714,
      "me": 715,
      "Ġstad": 716,
      "da": 717,
      "19": 718,
      "Ġeens": 719,
      "Ġzei": 720,
      "Ġzij": 721,
      "eerd": 722,
      "ocht": 723,
      "geb": 724,
      "Ġeur": 725,
      "Ġvert": 726,
      "Ġzw": 727,
      "Ġlig": 728,
      "Ġlaat": 729,
      "Ġtr": 730,
      "father": 731,
      "wel": 732,
      "Ġ6": 733,
      "form": 734,
      "Ġpol": 735,
      "uc": 736,
      "Ġwereld": 737,
      "io": 738,
      "ust": 739,
      "ga": 740,
      "Ġla": 741,
      "Ġ200": 742,
      "gr": 743,
      "allen": 744,
      "Ġstaan": 745,
      "oos": 746,
      "Ġdus": 747,
      "Ġher": 748,
      "Ġwik": 749,
      "ouden": 750,
      "amer": 751,
      "Ġachter": 752,
      "itie": 753,
      "ellen": 754,
      "elt": 755,
      "Ġlie": 756,
      "eem": 757,
      "Ġdrie": 758,
      "Ġmag": 759,
      "Ġga": 760,
      "Ġvraag": 761,
      "ard": 762,
      "Ġelkaar": 763,
      "Ġhuis": 764,
      "Ġbeh": 765,
      "Ġfran": 766,
      "Ġgek": 767,
      "Ġkeer": 768,
      "Ġhand": 769,
      "uiten": 770,
      "die": 771,
      "Ġzoals": 772,
      "Ġfil": 773,
      "ff": 774,
      "ings": 775,
      "ders": 776,
      "Ġging": 777,
      "Ġpre": 778,
      "bl": 779,
      "Ġhoofd": 780,
      "Ġverschillen": 781,
      "veel": 782,
      "Ġomdat": 783,
      "ce": 784,
      "ijkt": 785,
      "Ġzie": 786,
      "aam": 787,
      "Ġru": 788,
      "etje": 789,
      "aart": 790,
      "ragen": 791,
      "out": 792,
      "ouwen": 793,
      "zelf": 794,
      "sel": 795,
      "geven": 796,
      "15": 797,
      "Ġbelang": 798,
      "Ġdag": 799,
      "Ġvaak": 800,
      "Ġverh": 801,
      "10": 802,
      "Ġmin": 803,
      "Ġwerden": 804,
      "Ġu": 805,
      "Ġnieuwe": 806,
      "Ġken": 807,
      "mand": 808,
      "Ġ18": 809,
      "Ġva": 810,
      "tijd": 811,
      "zo": 812,
      "Ġy": 813,
      "Ġjul": 814,
      "Ġoor": 815,
      "eeds": 816,
      "Ġwelke": 817,
      "Ġaut": 818,
      "Ġblij": 819,
      "Ġterug": 820,
      "Ġbeeld": 821,
      "Ġverb": 822,
      "!'": 823,
      "Âł": 824,
      "Ġnet": 825,
      "ijs": 826,
      "cl": 827,
      "oot": 828,
      "Ġsteeds": 829,
      "Ġleven": 830,
      "ec": 831,
      "Ġmoeten": 832,
      "formatie": 833,
      "Ġber": 834,
      "oeken": 835,
      "oten": 836,
      "Ġro": 837,
      "Ġmil": 838,
      "zoek": 839,
      "Ġ7": 840,
      "ann": 841,
      "amp": 842,
      "Ġecht": 843,
      "zet": 844,
      "Ġkn": 845,
      "rek": 846,
      "Ġbinnen": 847,
      "Ġbelangrijk": 848,
      "Ġpar": 849,
      "iel": 850,
      "waar": 851,
      "Ġzet": 852,
      "Ġnou": 853,
      "Ġstr": 854,
      "onen": 855,
      "ggen": 856,
      "Ġbron": 857,
      "Ġweet": 858,
      "all": 859,
      "Ġinformatie": 860,
      "aanse": 861,
      "Ġverschillende": 862,
      "kom": 863,
      "Ġzitten": 864,
      "Ġth": 865,
      "ass": 866,
      "ijf": 867,
      "gende": 868,
      "14": 869,
      "iteit": 870,
      "Ġgemaakt": 871,
      "ina": 872,
      "Ġdeel": 873,
      "ijdens": 874,
      "log": 875,
      "Ġ8": 876,
      "Ġerg": 877,
      "Ġgebruikt": 878,
      "Ġsnel": 879,
      "ri": 880,
      "off": 881,
      "voorbeeld": 882,
      "Ġor": 883,
      "Ġhel": 884,
      "Ġnatuur": 885,
      "Ġverd": 886,
      "Ġieder": 887,
      "Ġvind": 888,
      "Ġju": 889,
      "ied": 890,
      "000": 891,
      "Ġmis": 892,
      "Ġaant": 893,
      "Ġgebe": 894,
      "Ġgeh": 895,
      "omp": 896,
      "Ġkwam": 897,
      "Ġplaats": 898,
      "Ġboven": 899,
      "vl": 900,
      "18": 901,
      "Ġbesch": 902,
      "Ġthe": 903,
      "16": 904,
      "ister": 905,
      "mee": 906,
      "Ġgra": 907,
      "ai": 908,
      "end": 909,
      "uz": 910,
      "Ġx": 911,
      "pp": 912,
      "kel": 913,
      "over": 914,
      "Ġeerst": 915,
      "Ġstuk": 916,
      "Ġke": 917,
      "12": 918,
      "Ġmo": 919,
      "Ġschrijf": 920,
      "Ġbijvoorbeeld": 921,
      "oede": 922,
      "Ġtijdens": 923,
      "Ġopen": 924,
      "ss": 925,
      "ost": 926,
      "Ġwant": 927,
      "org": 928,
      "Ġfilm": 929,
      "Ġbuiten": 930,
      "Ġverder": 931,
      "agen": 932,
      "werp": 933,
      "edia": 934,
      "nou": 935,
      "Ġhoor": 936,
      "eeg": 937,
      "Ġam": 938,
      "Ġdoet": 939,
      "Ġpart": 940,
      "eter": 941,
      "Ġ10": 942,
      "Ġboek": 943,
      "king": 944,
      "ruk": 945,
      "Ġzal": 946,
      "Ġha": 947,
      "Ġantwoord": 948,
      "Ġeurop": 949,
      "pr": 950,
      "kijk": 951,
      "Ġvrij": 952,
      "Ġvier": 953,
      "Ġvader": 954,
      "Ġwoorden": 955,
      "Ġvinden": 956,
      "13": 957,
      "Ġdaarna": 958,
      "Ġligt": 959,
      "ama": 960,
      "Ġweten": 961,
      "Ġtweede": 962,
      "iz": 963,
      "Ġgeld": 964,
      "Ġkoning": 965,
      "Ġmoeder": 966,
      "ong": 967,
      "stand": 968,
      "uin": 969,
      "au": 970,
      "Ġaltijd": 971,
      "pt": 972,
      "nis": 973,
      "Ġduit": 974,
      "man": 975,
      "staan": 976,
      "Ġker": 977,
      "deel": 978,
      "unt": 979,
      "Ġii": 980,
      "baar": 981,
      "akken": 982,
      "if": 983,
      "Ġjullie": 984,
      "ks": 985,
      "ont": 986,
      "vin": 987,
      "Ġhoog": 988,
      "Ġdi": 989,
      "ÉĻ": 990,
      "Ġamer": 991,
      "act": 992,
      "Ġlater": 993,
      "Ġind": 994,
      "Ġaantal": 995,
      "Ġplan": 996,
      "Ġgesch": 997,
      "Ġauto": 998,
      "ooi": 999,
      "iddel": 1000,
      "assen": 1001,
      "Ġee": 1002,
      "17": 1003,
      "Ġgrond": 1004,
      "ons": 1005,
      "Ġons": 1006,
      "les": 1007,
      "leg": 1008,
      "Ġkijken": 1009,
      "Ġvast": 1010,
      "uizen": 1011,
      "maar": 1012,
      "Ġklein": 1013,
      "Ġvolgens": 1014,
      "Ġbere": 1015,
      "Ġrond": 1016,
      "Ġnaam": 1017,
      "Ġvolgende": 1018,
      "Ġgebeur": 1019,
      "Ġhebt": 1020,
      "ieden": 1021,
      "Ġprob": 1022,
      "Ġwaarom": 1023,
      "eken": 1024,
      "Ġhelemaal": 1025,
      "ation": 1026,
      "oemd": 1027,
      "Ġstra": 1028,
      "Ġdieren": 1029,
      "Ġgl": 1030,
      "Ġlanden": 1031,
      "oms": 1032,
      "bo": 1033,
      "komen": 1034,
      "Ġfl": 1035,
      "Ġamerik": 1036,
      "Ġpaar": 1037,
      "Ġwie": 1038,
      "are": 1039,
      "Ġwij": 1040,
      "Ġkunt": 1041,
      "Ġzee": 1042,
      "rik": 1043,
      "Ġallemaal": 1044,
      "Ġgele": 1045,
      "hij": 1046,
      "Ġ9": 1047,
      "Ġrecht": 1048,
      "ook": 1049,
      "eert": 1050,
      "Ġiemand": 1051,
      "kker": 1052,
      "Ġeten": 1053,
      "Ġstem": 1054,
      "Ġvoet": 1055,
      "Ġpap": 1056,
      "elling": 1057,
      "20": 1058,
      "Ġvragen": 1059,
      "Ġwoord": 1060,
      "Ġbekend": 1061,
      "Ġxxx": 1062,
      "Ġafbeeld": 1063,
      "enig": 1064,
      "Ġbeteken": 1065,
      "eerde": 1066,
      "Ġvooral": 1067,
      "odig": 1068,
      "Ġnam": 1069,
      "gie": 1070,
      "av": 1071,
      "Ġple": 1072,
      "aald": 1073,
      "Ġmeest": 1074,
      "ens": 1075,
      "dam": 1076,
      "anne": 1077,
      "Ġgoede": 1078,
      "Ġse": 1079,
      "Ġpartij": 1080,
      "Ġalles": 1081,
      "aas": 1082,
      "Ġvlie": 1083,
      "Ġpers": 1084,
      "Ġcomm": 1085,
      "Ġtra": 1086,
      "unten": 1087,
      "adult": 1088,
      "ooit": 1089,
      "eest": 1090,
      "Ġlaten": 1091,
      "ari": 1092,
      "Ġminder": 1093,
      "elden": 1094,
      "Ġlet": 1095,
      "arm": 1096,
      "Ġder": 1097,
      "Ġnederlandse": 1098,
      "Ġanders": 1099,
      "urg": 1100,
      "Ġster": 1101,
      "Ġkrijgen": 1102,
      "Ġhoeveel": 1103,
      "Ġgeluid": 1104,
      "ow": 1105,
      "Ġhadden": 1106,
      "Ġmij": 1107,
      "ids": 1108,
      "val": 1109,
      "orgen": 1110,
      "weg": 1111,
      "ijna": 1112,
      "Ġlucht": 1113,
      "ullen": 1114,
      "zelfde": 1115,
      "Ġgroep": 1116,
      "Ġ15": 1117,
      "eling": 1118,
      "),": 1119,
      "Ġspeel": 1120,
      "ym": 1121,
      "zie": 1122,
      "Ġaange": 1123,
      "ief": 1124,
      "dit": 1125,
      "Ġfig": 1126,
      "dag": 1127,
      "cent": 1128,
      "Ġteken": 1129,
      "Ġdra": 1130,
      "tra": 1131,
      "vis": 1132,
      "ram": 1133,
      "ord": 1134,
      "Ġfot": 1135,
      "rijven": 1136,
      "em": 1137,
      "ler": 1138,
      "Ġjaren": 1139,
      "Ġkleine": 1140,
      "Ġra": 1141,
      "Ġpolitie": 1142,
      "Ġtre": 1143,
      "vers": 1144,
      "Ġbep": 1145,
      "Ġdaarom": 1146,
      "Ġzin": 1147,
      "Ġwilde": 1148,
      "con": 1149,
      "meer": 1150,
      "Ġbeetje": 1151,
      "uil": 1152,
      "Ġmog": 1153,
      "Ġbijna": 1154,
      "Ġve": 1155,
      "met": 1156,
      "Ġgroe": 1157,
      "hoe": 1158,
      "ha": 1159,
      "Ġgeeft": 1160,
      "Ġverenig": 1161,
      "Ġziet": 1162,
      "kl": 1163,
      "Ġval": 1164,
      "Ġmeis": 1165,
      "Ġleuk": 1166,
      "Ġten": 1167,
      "Ġbla": 1168,
      "Ġbestaat": 1169,
      "qu": 1170,
      "Ġmaakt": 1171,
      "Ġjan": 1172,
      "str": 1173,
      "pe": 1174,
      "Ġvis": 1175,
      "oopt": 1176,
      "Ġonderzoek": 1177,
      "Ġpop": 1178,
      "Ġafbeelding": 1179,
      "Ġjoh": 1180,
      "ame": 1181,
      "Ġspelen": 1182,
      "Ġeeuw": 1183,
      "Ġsla": 1184,
      "Ġgemeen": 1185,
      "onnen": 1186,
      "osten": 1187,
      "Ġnodig": 1188,
      "iend": 1189,
      "elde": 1190,
      "ade": 1191,
      "isten": 1192,
      "rag": 1193,
      "Ġzeggen": 1194,
      "Ġinter": 1195,
      "angen": 1196,
      "Ġuur": 1197,
      "ser": 1198,
      "chten": 1199,
      "Ġsle": 1200,
      "Ġlaatste": 1201,
      "deren": 1202,
      "mber": 1203,
      "Ġnooit": 1204,
      "bal": 1205,
      "Ġget": 1206,
      "Ġfiguur": 1207,
      "Ġ12": 1208,
      "ium": 1209,
      "Ġad": 1210,
      "Ġkat": 1211,
      "Ġspr": 1212,
      "Ġsoms": 1213,
      "Ġreg": 1214,
      "Ġan": 1215,
      "Ġvor": 1216,
      "Ġbez": 1217,
      "Ġtele": 1218,
      "Ġonderwerp": 1219,
      "okken": 1220,
      "Ġmoest": 1221,
      "ikt": 1222,
      "Ġsu": 1223,
      "werk": 1224,
      "Ġzon": 1225,
      "Ġhond": 1226,
      "rijd": 1227,
      "Ġvak": 1228,
      "sk": 1229,
      "gaan": 1230,
      "Ġgeven": 1231,
      "Ġopge": 1232,
      "Ġkamer": 1233,
      "Ġsoort": 1234,
      "schien": 1235,
      "Ġverander": 1236,
      "ov": 1237,
      "gd": 1238,
      "Ġbesl": 1239,
      "ulp": 1240,
      "uziek": 1241,
      "Ġun": 1242,
      "Ġvrouw": 1243,
      "Ġ199": 1244,
      "Ġleer": 1245,
      "bel": 1246,
      "Ġeind": 1247,
      "hier": 1248,
      "vr": 1249,
      "dan": 1250,
      "iding": 1251,
      "daar": 1252,
      "Ġdicht": 1253,
      "Ġgeef": 1254,
      "stof": 1255,
      "Ġger": 1256,
      "Ġelke": 1257,
      "Ġzelfs": 1258,
      "moet": 1259,
      "ill": 1260,
      "huis": 1261,
      "ac": 1262,
      "Ġstaten": 1263,
      "won": 1264,
      "Ġheet": 1265,
      "Ġele": 1266,
      "ident": 1267,
      "po": 1268,
      "Ġverhaal": 1269,
      "inds": 1270,
      "Ġmogelijk": 1271,
      "room": 1272,
      "uurt": 1273,
      "par": 1274,
      "Ġmilj": 1275,
      "Ġnoord": 1276,
      "Ġzonder": 1277,
      "Ġvindt": 1278,
      "Ġlicht": 1279,
      "Ġgewoon": 1280,
      "ian": 1281,
      "Ġwillen": 1282,
      "Ġ&": 1283,
      "age": 1284,
      "ijnen": 1285,
      "Ġprod": 1286,
      "Ġbru": 1287,
      "Ġverl": 1288,
      "Ġfr": 1289,
      "isme": 1290,
      "Ġvorm": 1291,
      "Ġiedereen": 1292,
      "net": 1293,
      "Ġgenoemd": 1294,
      "Ġverm": 1295,
      "Ġverw": 1296,
      "houd": 1297,
      "ummer": 1298,
      "Ġchr": 1299,
      "vat": 1300,
      "plaat": 1301,
      "Ġfe": 1302,
      "Ġ16": 1303,
      "Ġ0": 1304,
      "Ġpa": 1305,
      "Ġkop": 1306,
      "Ġiii": 1307,
      "ob": 1308,
      "Ġoorlog": 1309,
      "Ġpak": 1310,
      "Ġuitge": 1311,
      "amil": 1312,
      "kelijk": 1313,
      "Ġrij": 1314,
      "ah": 1315,
      "Ġat": 1316,
      "olen": 1317,
      "Ġkennis": 1318,
      "Ġgedaan": 1319,
      "Ġpas": 1320,
      "cies": 1321,
      "reven": 1322,
      "Ġnatuurlijk": 1323,
      "reg": 1324,
      "wik": 1325,
      "Ġ17": 1326,
      "apen": 1327,
      "Ġgesp": 1328,
      "Ġsche": 1329,
      "Ġhou": 1330,
      "Ġverz": 1331,
      "geveer": 1332,
      "Ġsomm": 1333,
      "Ġfoto": 1334,
      "Ġbal": 1335,
      "aalde": 1336,
      "mar": 1337,
      "Ġrijk": 1338,
      "Ġwerken": 1339,
      "Ġduits": 1340,
      "bank": 1341,
      "stad": 1342,
      "Ġzuid": 1343,
      "Ġvi": 1344,
      "Ġkreeg": 1345,
      "ces": 1346,
      "daag": 1347,
      "Ġbeter": 1348,
      "woorden": 1349,
      "oden": 1350,
      "our": 1351,
      "Ġbent": 1352,
      "iss": 1353,
      "dst": 1354,
      "tjes": 1355,
      "dracht": 1356,
      "Ġfrank": 1357,
      "Ġonze": 1358,
      "Ġcomp": 1359,
      "Ġreden": 1360,
      "ome": 1361,
      "inn": 1362,
      "oemen": 1363,
      "Ġhal": 1364,
      "iep": 1365,
      "eind": 1366,
      "Ġkrijgt": 1367,
      "Ġkijk": 1368,
      "Ġbas": 1369,
      "Ġjongen": 1370,
      "Ġhen": 1371,
      "Ġongeveer": 1372,
      "Ġruim": 1373,
      "hol": 1374,
      "eeuw": 1375,
      "heden": 1376,
      "Ġwaardoor": 1377,
      "anis": 1378,
      "oof": 1379,
      "burg": 1380,
      "wijl": 1381,
      "pro": 1382,
      "gelijk": 1383,
      "Ġmisschien": 1384,
      "slag": 1385,
      "Ġkar": 1386,
      "Ġoude": 1387,
      "Ġhoort": 1388,
      "Ġwit": 1389,
      "ucht": 1390,
      "Ġdingen": 1391,
      "Ġeigenlijk": 1392,
      "Ġbeste": 1393,
      "Ġgest": 1394,
      "ogen": 1395,
      "Ġstap": 1396,
      "Ġvijf": 1397,
      "Ġijs": 1398,
      "Ġaard": 1399,
      "ans": 1400,
      "gele": 1401,
      "zicht": 1402,
      "Ġrol": 1403,
      "yy": 1404,
      "Ġsm": 1405,
      "Ġafge": 1406,
      "Ġdor": 1407,
      "Ġkant": 1408,
      "ouwd": 1409,
      "Ġlekker": 1410,
      "Ġmeeste": 1411,
      "Ġpunten": 1412,
      "Ġexamen": 1413,
      "Ġcent": 1414,
      "ate": 1415,
      "Ġleg": 1416,
      "Ġdood": 1417,
      "ube": 1418,
      "Ġvroeg": 1419,
      "Ġhard": 1420,
      "Ġgegeven": 1421,
      "boek": 1422,
      "Ġhouden": 1423,
      "rie": 1424,
      "Ġoud": 1425,
      "Ġplek": 1426,
      "rijs": 1427,
      "zien": 1428,
      "Ġwoon": 1429,
      "Ġdoe": 1430,
      "Ġapp": 1431,
      "Ġsinds": 1432,
      "umm": 1433,
      "Ġnamelijk": 1434,
      "gave": 1435,
      "regen": 1436,
      "Ġnik": 1437,
      "oorten": 1438,
      "Ġslecht": 1439,
      "ex": 1440,
      "ins": 1441,
      "menten": 1442,
      "Ġvraagt": 1443,
      "Ġhierdoor": 1444,
      "Ġyout": 1445,
      "Ġweek": 1446,
      "aties": 1447,
      "Ġmuziek": 1448,
      "Ġterwijl": 1449,
      "goed": 1450,
      "Ġdier": 1451,
      "uig": 1452,
      "Ġsommige": 1453,
      "reken": 1454,
      "Ġbetekent": 1455,
      "Ġkijkt": 1456,
      "Ġdenk": 1457,
      "Ġdon": 1458,
      "Ġvanaf": 1459,
      "ph": 1460,
      "aken": 1461,
      "ron": 1462,
      "Ġmiddel": 1463,
      "Ġheen": 1464,
      "recht": 1465,
      "Ġser": 1466,
      "Ġjuist": 1467,
      "Ġbloed": 1468,
      "spra": 1469,
      "Ġgezien": 1470,
      "ud": 1471,
      "Ġstond": 1472,
      "oes": 1473,
      "Ġgrootste": 1474,
      "Ġzwe": 1475,
      "ach": 1476,
      "Ġsc": 1477,
      "mm": 1478,
      "lemen": 1479,
      "Ġmooi": 1480,
      "atuur": 1481,
      "enen": 1482,
      "tv": 1483,
      "Ġlan": 1484,
      "Ġbrand": 1485,
      "Ġmiljoen": 1486,
      "Ġmanier": 1487,
      ".\"": 1488,
      "oogle": 1489,
      "Ġmon": 1490,
      "Ġpe": 1491,
      "ving": 1492,
      "Ġyoutube": 1493,
      "Ġnee": 1494,
      "sident": 1495,
      "Ġgebruiken": 1496,
      "iez": 1497,
      "Ġgoogle": 1498,
      "Ġmeestal": 1499,
      "kan": 1500,
      "voer": 1501,
      "Ġblijven": 1502,
      "ogram": 1503,
      "Ġvandaag": 1504,
      "Ġgebied": 1505,
      "Ġvog": 1506,
      "Ġeil": 1507,
      "nieuw": 1508,
      "ublie": 1509,
      "Ġwelk": 1510,
      "anneer": 1511,
      "Ġkru": 1512,
      "Ġnpo": 1513,
      "th": 1514,
      "inde": 1515,
      "Ġnoem": 1516,
      "afbeeld": 1517,
      "Ġhar": 1518,
      "schijn": 1519,
      "Ġ13": 1520,
      "olf": 1521,
      "Ġlopen": 1522,
      "ck": 1523,
      "Ġmeisje": 1524,
      "Ġniets": 1525,
      "ikids": 1526,
      "Ġ14": 1527,
      "Ġ202": 1528,
      "Ġverkl": 1529,
      "oss": 1530,
      "Ġart": 1531,
      "Ġverenigde": 1532,
      "sche": 1533,
      "iale": 1534,
      "schapp": 1535,
      "kende": 1536,
      "Ġontst": 1537,
      "woners": 1538,
      "Ġvond": 1539,
      "Ġmus": 1540,
      "Ġroep": 1541,
      "aarde": 1542,
      "Ġvia": 1543,
      "idden": 1544,
      "Ġcl": 1545,
      "Ġeuro": 1546,
      "air": 1547,
      "Ġogen": 1548,
      "Ġ/": 1549,
      "achten": 1550,
      "app": 1551,
      "dig": 1552,
      "Ġol": 1553,
      "eep": 1554,
      "Ġwikikids": 1555,
      "eng": 1556,
      "Ġgroen": 1557,
      "lem": 1558,
      "Ġjou": 1559,
      "Ġengel": 1560,
      "Ġontwik": 1561,
      "Ġliggen": 1562,
      "Ġbew": 1563,
      "ode": 1564,
      "Ġklas": 1565,
      "Ġfamil": 1566,
      "Ġkunst": 1567,
      "dem": 1568,
      "ipedia": 1569,
      "volgens": 1570,
      "Ġwaarin": 1571,
      "ese": 1572,
      "Ġamerikaanse": 1573,
      "Ġles": 1574,
      "Ġzom": 1575,
      "roken": 1576,
      "Ġspec": 1577,
      "inig": 1578,
      "50": 1579,
      "Ġvoed": 1580,
      "ote": 1581,
      "Ġoe": 1582,
      "Ġneem": 1583,
      "Ġcont": 1584,
      "Ġlijkt": 1585,
      "Ġbur": 1586,
      "iaal": 1587,
      "Ġwikipedia": 1588,
      "weest": 1589,
      "Ġspan": 1590,
      "geef": 1591,
      "lijke": 1592,
      "clip": 1593,
      "Ġreger": 1594,
      "Ġrus": 1595,
      "Ġka": 1596,
      "Ġlees": 1597,
      "Ġkleur": 1598,
      "bere": 1599,
      "Ġid": 1600,
      "Ġgeweest": 1601,
      "Ġbos": 1602,
      "Ġzeker": 1603,
      "Ġkind": 1604,
      "Ġzag": 1605,
      "oorlog": 1606,
      "eindelijk": 1607,
      "Ġschooltv": 1608,
      "afbeeldingen": 1609,
      "Ġlangs": 1610,
      "oepen": 1611,
      "gem": 1612,
      "ieke": 1613,
      "imedia": 1614,
      "Ġcommons": 1615,
      "Ġvriend": 1616,
      "Ġloopt": 1617,
      "Ġwikimedia": 1618,
      "Ġbeeldbank": 1619,
      "inter": 1620,
      "eens": 1621,
      "clipjes": 1622,
      "Ġstemmen": 1623,
      "Ġgelijk": 1624,
      "Ġstop": 1625,
      "abel": 1626,
      "Ġdeed": 1627,
      "Ġhoren": 1628,
      "niet": 1629,
      "Ġem": 1630,
      "vel": 1631,
      "Ġprovin": 1632,
      "Ġlich": 1633,
      "Ġzouden": 1634,
      "Ġmama": 1635,
      "reden": 1636,
      "Ġnaast": 1637,
      "Ġiv": 1638,
      "Ġvroe": 1639,
      "sla": 1640,
      "Ġechter": 1641,
      "Ġdruk": 1642,
      "ichting": 1643,
      "Ġkap": 1644,
      "Ġbegon": 1645,
      "Ġroept": 1646,
      "Ġwonen": 1647,
      "Ġkor": 1648,
      "ib": 1649,
      "Ġkwamen": 1650,
      "kun": 1651,
      "Ġ=": 1652,
      "ĠÉĻ": 1653,
      "oge": 1654,
      "oef": 1655,
      "30": 1656,
      "Ġtw": 1657,
      "offen": 1658,
      "actie": 1659,
      "water": 1660,
      "Ġjong": 1661,
      "Ġbereken": 1662,
      "Ġelekt": 1663,
      "Ġriv": 1664,
      "Ġopdracht": 1665,
      "ix": 1666,
      "Ġsh": 1667,
      "pte": 1668,
      "ital": 1669,
      "Ġ11": 1670,
      "bouw": 1671,
      "anen": 1672,
      "stelling": 1673,
      "Ġgere": 1674,
      "Ġmaan": 1675,
      "Ġschil": 1676,
      "uik": 1677,
      "antie": 1678,
      "rum": 1679,
      "Ġbegin": 1680,
      "one": 1681,
      "Ġmaakte": 1682,
      "ren": 1683,
      "Ġbrit": 1684,
      "Ġmeter": 1685,
      "inkel": 1686,
      "Ġfrankrijk": 1687,
      "Ġdagen": 1688,
      "Ġren": 1689,
      "Ġweinig": 1690,
      "Ġziek": 1691,
      "sh": 1692,
      "Ġmax": 1693,
      "Ġgenoeg": 1694,
      "Ġorg": 1695,
      "Ġdraa": 1696,
      "Ġregen": 1697,
      "Ġmens": 1698,
      "ding": 1699,
      "Ġmomen": 1700,
      "zij": 1701,
      "ting": 1702,
      "Ġtien": 1703,
      "Ġlezen": 1704,
      "dien": 1705,
      "heb": 1706,
      "Ġwanneer": 1707,
      "Ġsoc": 1708,
      "Ġniks": 1709,
      "sterdam": 1710,
      "ict": 1711,
      "Ġbeide": 1712,
      "ged": 1713,
      "Ġzoek": 1714,
      "gl": 1715,
      "erm": 1716,
      "genomen": 1717,
      "Ġrest": 1718,
      "Ġkaart": 1719,
      "Ġdeur": 1720,
      "Ġzat": 1721,
      "Ġthuis": 1722,
      "Ġleerl": 1723,
      "Ġregering": 1724,
      "Ġgevol": 1725,
      "Ġouders": 1726,
      "Ġuiteindelijk": 1727,
      "Ġecon": 1728,
      "Ġeuropa": 1729,
      "'.": 1730,
      "Ġmer": 1731,
      "inse": 1732,
      "Ġduitsland": 1733,
      "Ġhol": 1734,
      "Ġ198": 1735,
      "orden": 1736,
      "ubliek": 1737,
      "Ġzeg": 1738,
      "Ġlange": 1739,
      "Ġbegint": 1740,
      "kele": 1741,
      "inea": 1742,
      "anus": 1743,
      "woordig": 1744,
      "zonder": 1745,
      "pre": 1746,
      "Ġidee": 1747,
      "igheid": 1748,
      "ijst": 1749,
      "Ġmel": 1750,
      "aut": 1751,
      "Ġnemen": 1752,
      "dere": 1753,
      "Ġspel": 1754,
      "gang": 1755,
      "Ġbro": 1756,
      "Ġtrein": 1757,
      "rekken": 1758,
      "Ġmed": 1759,
      "iele": 1760,
      "annes": 1761,
      "wijs": 1762,
      "ys": 1763,
      "ect": 1764,
      "Ġrot": 1765,
      "anders": 1766,
      "kant": 1767,
      "Ġnieuws": 1768,
      "Ġlichaam": 1769,
      "Ġmidden": 1770,
      "inks": 1771,
      "Ġinst": 1772,
      "11": 1773,
      "zer": 1774,
      "Ġvalt": 1775,
      "Ġopl": 1776,
      "Ġkonden": 1777,
      "Ġontstaan": 1778,
      "aars": 1779,
      "Ġlos": 1780,
      "Ġschrij": 1781,
      "bare": 1782,
      "Ġgingen": 1783,
      "dstrijd": 1784,
      "Ġlag": 1785,
      "Ġvliegt": 1786,
      "raat": 1787,
      "Ġprecies": 1788,
      "Ġcar": 1789,
      "Ġamsterdam": 1790,
      "uidelijk": 1791,
      "ergie": 1792,
      "Ġaller": 1793,
      "Ġschr": 1794,
      "aire": 1795,
      "pak": 1796,
      "afel": 1797,
      "stuk": 1798,
      "Ġpersoon": 1799,
      "Ġpot": 1800,
      "Ġeuropese": 1801,
      "ogramma": 1802,
      "Ġpresident": 1803,
      "Ġkil": 1804,
      "Ġnummer": 1805,
      "Ġfin": 1806,
      "Ġkeek": 1807,
      "ry": 1808,
      "55": 1809,
      "Ġblijft": 1810,
      "ole": 1811,
      "Ġhart": 1812,
      "zaam": 1813,
      "Ġsteden": 1814,
      "ilijk": 1815,
      "Ġfamilie": 1816,
      "nog": 1817,
      "leven": 1818,
      "Ġdis": 1819,
      "Ġjohannes": 1820,
      "ugd": 1821,
      "itiek": 1822,
      "oelen": 1823,
      "Ġenkele": 1824,
      "Ġwaarbij": 1825,
      "ert": 1826,
      "houden": 1827,
      "oven": 1828,
      "Ġdoel": 1829,
      "Ġac": 1830,
      "aa": 1831,
      "Ġeconom": 1832,
      "Ġpopul": 1833,
      "toen": 1834,
      "Ġmeteen": 1835,
      "Ġvrouwen": 1836,
      "Ġdik": 1837,
      "olog": 1838,
      "Ġmaat": 1839,
      "Ġdem": 1840,
      "sn": 1841,
      "sc": 1842,
      "Ġinge": 1843,
      "ule": 1844,
      "iemand": 1845,
      "Ġmeester": 1846,
      "Ġcol": 1847,
      "Ġvii": 1848,
      "Ġklaar": 1849,
      "midd": 1850,
      "iedenis": 1851,
      "sloten": 1852,
      "Ġrome": 1853,
      "derij": 1854,
      "Ġno": 1855,
      "70": 1856,
      "Ġmacht": 1857,
      "eur": 1858,
      "Ġbra": 1859,
      "Ġuh": 1860,
      "hand": 1861,
      "Ġmoeilijk": 1862,
      "Ġneer": 1863,
      "Ġlief": 1864,
      "ozen": 1865,
      "deze": 1866,
      "Ġav": 1867,
      "Ġzorgen": 1868,
      "weer": 1869,
      "Ġvoetbal": 1870,
      "Ġontde": 1871,
      "ters": 1872,
      "kk": 1873,
      "Ġaarde": 1874,
      "Ġinwoners": 1875,
      "Ġgehe": 1876,
      "ourn": 1877,
      "Ġmoment": 1878,
      "Ġab": 1879,
      "Ġalinea": 1880,
      "Ġtem": 1881,
      "40": 1882,
      "Ġbelangrijke": 1883,
      "Ġsoorten": 1884,
      "ratie": 1885,
      "lei": 1886,
      "Ġbar": 1887,
      "Ġbot": 1888,
      "doen": 1889,
      "Ġgeluk": 1890,
      "rift": 1891,
      "Ġacht": 1892,
      "raf": 1893,
      "Ġdenken": 1894,
      "anten": 1895,
      "Ġminu": 1896,
      "vorm": 1897,
      "Ġwet": 1898,
      "Ġboom": 1899,
      "Ġhelpen": 1900,
      "Ġzinnen": 1901,
      "ument": 1902,
      "Ġklim": 1903,
      "arte": 1904,
      "Ġeh": 1905,
      "Ġboeken": 1906,
      "nam": 1907,
      "Ġhuid": 1908,
      "iode": 1909,
      "Ġdezelfde": 1910,
      "Ġgeleden": 1911,
      "Ġed": 1912,
      "teur": 1913,
      "leden": 1914,
      "Ġplanten": 1915,
      "Ġrep": 1916,
      "Ġvroeger": 1917,
      "Ġkerk": 1918,
      "punt": 1919,
      "Ġgevonden": 1920,
      "aad": 1921,
      "leiding": 1922,
      "fl": 1923,
      "96": 1924,
      "Ġjouw": 1925,
      "ieten": 1926,
      "Ġoosten": 1927,
      "Ġkonink": 1928,
      "Ġspeelt": 1929,
      "Ġwist": 1930,
      "Ġkort": 1931,
      "wijk": 1932,
      "dra": 1933,
      "Ġgebeurt": 1934,
      "Ġtaal": 1935,
      "Ġruimte": 1936,
      "Ġbren": 1937,
      "Ġim": 1938,
      "eekt": 1939,
      "isteren": 1940,
      "Ġmak": 1941,
      "beelden": 1942,
      "ick": 1943,
      "Ġmoo": 1944,
      "Ġmogen": 1945,
      "Ġkies": 1946,
      "Ġform": 1947,
      "aring": 1948,
      "Ġzodat": 1949,
      "Ġvallen": 1950,
      "Ġelektr": 1951,
      "Ġwon": 1952,
      "iezen": 1953,
      "Ġoma": 1954,
      "Ġzullen": 1955,
      "Ġint": 1956,
      "Ġbouw": 1957,
      "stel": 1958,
      "Ġstil": 1959,
      "Ġnad": 1960,
      "Ġrel": 1961,
      "Ġaand": 1962,
      "Ġvertellen": 1963,
      "Ġfun": 1964,
      "Ġ196": 1965,
      "raagd": 1966,
      "Ġbestaan": 1967,
      "Ġkeu": 1968,
      "bru": 1969,
      "itu": 1970,
      "Ġvide": 1971,
      "Ġleren": 1972,
      "Ġmond": 1973,
      "Ġvervolgens": 1974,
      "lees": 1975,
      "pje": 1976,
      "pel": 1977,
      "aalt": 1978,
      "fil": 1979,
      "ankelijk": 1980,
      "mat": 1981,
      "wegen": 1982,
      "bert": 1983,
      "Ġmeneer": 1984,
      "23": 1985,
      "Ġhalen": 1986,
      "aur": 1987,
      "foon": 1988,
      "Ġvoel": 1989,
      "Ġduidelijk": 1990,
      "Ġ30": 1991,
      "ije": 1992,
      "Ġleger": 1993,
      "Ġwarm": 1994,
      "Ġmaxim": 1995,
      "Ġstu": 1996,
      "Ġcor": 1997,
      "25": 1998,
      "Ġorganis": 1999,
      "ijl": 2000,
      "iezingen": 2001,
      "Ġtur": 2002,
      "Ġdire": 2003,
      "Ġital": 2004,
      "Ġ25": 2005,
      "Ġrad": 2006,
      "Ġbevol": 2007,
      "inhoud": 2008,
      "Ġveil": 2009,
      "Ġproduc": 2010,
      "Ġgemeente": 2011,
      "Ġbasis": 2012,
      "Ġarm": 2013,
      "zit": 2014,
      "vo": 2015,
      "Ġeinde": 2016,
      "Ġgod": 2017,
      "Ġbang": 2018,
      "Ġhanden": 2019,
      "Ġhoge": 2020,
      "ieken": 2021,
      "uter": 2022,
      "bereken": 2023,
      "Ġleerlingen": 2024,
      "Ġsuper": 2025,
      "Ġ+": 2026,
      "Ġoo": 2027,
      "Ġpark": 2028,
      "Ġzorg": 2029,
      "Ġgraag": 2030,
      "iers": 2031,
      "Ġblauw": 2032,
      "Ġhetzelfde": 2033,
      "chn": 2034,
      "apt": 2035,
      "Ġzeven": 2036,
      "res": 2037,
      "let": 2038,
      "inst": 2039,
      "Ġact": 2040,
      "Ġmannen": 2041,
      "ive": 2042,
      "Ġervoor": 2043,
      "Ġstroom": 2044,
      "Ġcr": 2045,
      "Ġnation": 2046,
      "',": 2047,
      "Ġeiland": 2048,
      "Ġsport": 2049,
      "Ġhieronder": 2050,
      "Ġtuin": 2051,
      "kle": 2052,
      "Ġzwem": 2053,
      "Ġgevraagd": 2054,
      "lijn": 2055,
      "Ġdaardoor": 2056,
      "Ġkra": 2057,
      "Ġ100": 2058,
      "gegeven": 2059,
      "Ġkans": 2060,
      "oost": 2061,
      "Ġontwikkel": 2062,
      "ara": 2063,
      "Ġletter": 2064,
      "Ġnacht": 2065,
      "Ġpolitieke": 2066,
      "Ġjeugd": 2067,
      "Ġgezicht": 2068,
      "zijn": 2069,
      "Ġgeworden": 2070,
      "Ġmocht": 2071,
      "Ġsam": 2072,
      "onde": 2073,
      "Ġminister": 2074,
      "Ġduur": 2075,
      "opt": 2076,
      "vrouw": 2077,
      "ay": 2078,
      "Ġzetten": 2079,
      "Ġdien": 2080,
      "Ġfranse": 2081,
      "Ġpla": 2082,
      "Ġnederlands": 2083,
      "Ġkopen": 2084,
      "inken": 2085,
      "Ġwillem": 2086,
      "eum": 2087,
      "Ġvoedsel": 2088,
      "erd": 2089,
      "Ġhoudt": 2090,
      "cie": 2091,
      "76": 2092,
      "Ġoff": 2093,
      "its": 2094,
      "kig": 2095,
      "Ġenergie": 2096,
      "Ġmoesten": 2097,
      "Ġtoon": 2098,
      "rijden": 2099,
      "Ġzes": 2100,
      "Ġtafel": 2101,
      "Ġnederl": 2102,
      "uiden": 2103,
      "Ġton": 2104,
      "Ġchrist": 2105,
      "blad": 2106,
      "gest": 2107,
      "Ġtim": 2108,
      "ante": 2109,
      "Ġbedrijf": 2110,
      "Ġcom": 2111,
      "orius": 2112,
      "Ġnorm": 2113,
      "Ġdenkt": 2114,
      "yn": 2115,
      "hm": 2116,
      "ips": 2117,
      "schappen": 2118,
      "gaat": 2119,
      "Ġniemand": 2120,
      "Ġlach": 2121,
      "wil": 2122,
      "Ġbi": 2123,
      "vloed": 2124,
      "gebied": 2125,
      "90": 2126,
      "inen": 2127,
      "Ġschrijven": 2128,
      "Ġstof": 2129,
      "Ġcult": 2130,
      "inus": 2131,
      "Ġbeden": 2132,
      "Ġdacht": 2133,
      "Ġverwij": 2134,
      "Ġsol": 2135,
      "bed": 2136,
      "Ġmaand": 2137,
      "Ġbelgie": 2138,
      "Ġwereldoorlog": 2139,
      "Ġbelangrijkste": 2140,
      "rokken": 2141,
      "Ġversch": 2142,
      "Ġduitse": 2143,
      "welke": 2144,
      "Ġvoorbeeld": 2145,
      "werpen": 2146,
      "Ġbek": 2147,
      "aling": 2148,
      "Ġwerkt": 2149,
      "Ġ194": 2150,
      "Ġstraat": 2151,
      "Ġeerder": 2152,
      "ikker": 2153,
      "Ġhog": 2154,
      "Ġpaul": 2155,
      "Ġvij": 2156,
      "ocent": 2157,
      "spraak": 2158,
      "Ġzowel": 2159,
      "und": 2160,
      "Ġenige": 2161,
      "Ġrivier": 2162,
      "Ġzak": 2163,
      "spr": 2164,
      "Ġbon": 2165,
      "Ġpat": 2166,
      "Ġactie": 2167,
      "Ġoverheid": 2168,
      "jij": 2169,
      "Ġfiets": 2170,
      "Ġstand": 2171,
      "uari": 2172,
      "uh": 2173,
      "Ġpakken": 2174,
      "kens": 2175,
      "ctor": 2176,
      "Ġbepaalde": 2177,
      "iter": 2178,
      "Ġgroter": 2179,
      "Ġwind": 2180,
      "Ġvoort": 2181,
      "Ġjun": 2182,
      "Ġvanuit": 2183,
      "78": 2184,
      "gelopen": 2185,
      "hou": 2186,
      "Ġlied": 2187,
      "ore": 2188,
      "Ġverst": 2189,
      "Ġjongens": 2190,
      "bra": 2191,
      "Ġperiode": 2192,
      "Ġextra": 2193,
      "Ġvolg": 2194,
      "achter": 2195,
      "deeld": 2196,
      "schijnlijk": 2197,
      "komt": 2198,
      "Ġpunt": 2199,
      "Ġregel": 2200,
      "Ġgeboren": 2201,
      "alle": 2202,
      "Ġvogel": 2203,
      "vie": 2204,
      "dr": 2205,
      "appen": 2206,
      "Ġleeft": 2207,
      "Ġmot": 2208,
      "Ġgaf": 2209,
      "ivers": 2210,
      "uigen": 2211,
      "Ġbank": 2212,
      "Ġdelen": 2213,
      "Ġwest": 2214,
      "Ġhulp": 2215,
      "Ġgevaar": 2216,
      "mis": 2217,
      "fe": 2218,
      "ice": 2219,
      "Ġtoer": 2220,
      "Ġjanuari": 2221,
      "Ġrode": 2222,
      "Ġur": 2223,
      "Ġstukje": 2224,
      "igd": 2225,
      "Ġpast": 2226,
      "ippen": 2227,
      "yst": 2228,
      "Ġkla": 2229,
      "Ġriep": 2230,
      "Ġrob": 2231,
      "Ġpraten": 2232,
      "achte": 2233,
      "ging": 2234,
      "Ġzoeken": 2235,
      "Ġkol": 2236,
      "Ġmooie": 2237,
      "85": 2238,
      "99": 2239,
      "Ġredenen": 2240,
      "weet": 2241,
      "Ġverdw": 2242,
      "Ġslag": 2243,
      "Ġrijden": 2244,
      "Ġzand": 2245,
      "Ġopa": 2246,
      "bei": 2247,
      "ure": 2248,
      "Ġreken": 2249,
      "kr": 2250,
      "Ġet": 2251,
      "Ġ50": 2252,
      "Ġbijzonder": 2253,
      "Ġnamen": 2254,
      "Ġstation": 2255,
      "Ġgeze": 2256,
      "Ġtelevis": 2257,
      "Ġbab": 2258,
      "ica": 2259,
      "Ġprodu": 2260,
      "Ġalex": 2261,
      "gesch": 2262,
      "Ġband": 2263,
      "Ġbre": 2264,
      "uld": 2265,
      "uiste": 2266,
      "Ġboos": 2267,
      "92": 2268,
      "Ġdo": 2269,
      "Ġtit": 2270,
      "Ġkoff": 2271,
      "Ġbehulp": 2272,
      "Ġwedstrijd": 2273,
      "ial": 2274,
      "Ġfeest": 2275,
      "Ġgraf": 2276,
      "Ġdoordat": 2277,
      "Ġoog": 2278,
      "co": 2279,
      "akker": 2280,
      "druk": 2281,
      "Ġhalf": 2282,
      "Ġrood": 2283,
      "orie": 2284,
      "opgave": 2285,
      "istische": 2286,
      "Ġliep": 2287,
      "aden": 2288,
      "Ġpapa": 2289,
      "iger": 2290,
      "Ġvolle": 2291,
      "Ġtegenwoordig": 2292,
      "Ġverlie": 2293,
      "vallen": 2294,
      "Ġjuiste": 2295,
      "oerd": 2296,
      "film": 2297,
      "oest": 2298,
      "oenen": 2299,
      "Ġvul": 2300,
      "urt": 2301,
      "nu": 2302,
      "Ġfab": 2303,
      "ield": 2304,
      "kte": 2305,
      "ose": 2306,
      "wie": 2307,
      "Ġopt": 2308,
      "Ġschip": 2309,
      "Ġminuten": 2310,
      "Ġvlak": 2311,
      "Ġechte": 2312,
      "vert": 2313,
      "part": 2314,
      "ossing": 2315,
      "Ġneemt": 2316,
      "Ġdorp": 2317,
      "ffen": 2318,
      "groep": 2319,
      "kw": 2320,
      "Ġheer": 2321,
      "Ġvakantie": 2322,
      "vang": 2323,
      "Ġalsof": 2324,
      "hoog": 2325,
      "Ġgebouwd": 2326,
      "60": 2327,
      "Ġblijkt": 2328,
      "yp": 2329,
      "Ġboer": 2330,
      "issen": 2331,
      "cus": 2332,
      "mel": 2333,
      "Ġwaarschijnlijk": 2334,
      "Ġbuurt": 2335,
      "delen": 2336,
      "hankelijk": 2337,
      "edict": 2338,
      "ositie": 2339,
      "bron": 2340,
      "gels": 2341,
      "geten": 2342,
      "Ġslapen": 2343,
      "ubl": 2344,
      "Ġbevat": 2345,
      "Ġreag": 2346,
      "Ġvideo": 2347,
      "Ġlid": 2348,
      "clus": 2349,
      "loop": 2350,
      "neeuw": 2351,
      "Ġbleef": 2352,
      "ieu": 2353,
      "oppen": 2354,
      "Ġbrief": 2355,
      "Ġdu": 2356,
      "wit": 2357,
      "landse": 2358,
      "Ġwitte": 2359,
      "wege": 2360,
      "aans": 2361,
      "Ġzwaar": 2362,
      "va": 2363,
      "Ġlaag": 2364,
      "edictus": 2365,
      "Ġneus": 2366,
      "Ġvuur": 2367,
      "etten": 2368,
      "Ġvoorkomen": 2369,
      "ichten": 2370,
      "ingt": 2371,
      "Ġbev": 2372,
      "vlak": 2373,
      "verk": 2374,
      "Ġnoemen": 2375,
      "Ġas": 2376,
      "Ġgreg": 2377,
      "ucces": 2378,
      "kra": 2379,
      "Ġprijs": 2380,
      "oeien": 2381,
      "Ġvergelijk": 2382,
      "Ġtek": 2383,
      "sent": 2384,
      "Ġsa": 2385,
      "Ġarg": 2386,
      "nation": 2387,
      "Ġspra": 2388,
      "vangen": 2389,
      "erecht": 2390,
      "to": 2391,
      "nem": 2392,
      "Ġkruis": 2393,
      "Ġmei": 2394,
      "Ġgevangen": 2395,
      "Ġoost": 2396,
      "ometer": 2397,
      "Ġball": 2398,
      "Ġvormen": 2399,
      "Ġli": 2400,
      "Ġwaarop": 2401,
      "peratuur": 2402,
      "Ġgebieden": 2403,
      "Ġeet": 2404,
      "Ġbedoel": 2405,
      "zel": 2406,
      "Ġdaarbij": 2407,
      "iken": 2408,
      "Ġjuf": 2409,
      "ald": 2410,
      "Ġzoon": 2411,
      "Ġred": 2412,
      "oofd": 2413,
      "pers": 2414,
      "bleem": 2415,
      "Ġopnieuw": 2416,
      "izer": 2417,
      "Ġberekening": 2418,
      "Ġplat": 2419,
      "Ġ24": 2420,
      "Ġnew": 2421,
      "Ġhoofdstad": 2422,
      "auto": 2423,
      "bla": 2424,
      "port": 2425,
      "Ġtom": 2426,
      "Ġjuni": 2427,
      "chine": 2428,
      "Ġoffic": 2429,
      "ico": 2430,
      "89": 2431,
      "eden": 2432,
      "Ġsteen": 2433,
      "Ġzoveel": 2434,
      "Ġunivers": 2435,
      "maken": 2436,
      "Ġport": 2437,
      "gro": 2438,
      "jar": 2439,
      "Ġjap": 2440,
      "Ġres": 2441,
      "Ġliet": 2442,
      "Ġgelukkig": 2443,
      "Ġsucces": 2444,
      "Ġreis": 2445,
      "Ġfre": 2446,
      "Ġvoorbeelden": 2447,
      "Ġwol": 2448,
      "Ġkoninkrijk": 2449,
      "Ġtotaal": 2450,
      "Ġchina": 2451,
      "Ġtop": 2452,
      "Ġhon": 2453,
      "Ġwar": 2454,
      "Ġenorm": 2455,
      "Ġ21": 2456,
      "Ġkregen": 2457,
      "Ġbevolking": 2458,
      "Ġhuil": 2459,
      "Ġbroer": 2460,
      "ka": 2461,
      "geluk": 2462,
      "rika": 2463,
      "ournaal": 2464,
      "\".": 2465,
      "Ġkoningin": 2466,
      "Ġgeval": 2467,
      "avond": 2468,
      "Ġbus": 2469,
      "min": 2470,
      "Ġalb": 2471,
      "Ġboot": 2472,
      "zetten": 2473,
      "Ġzomer": 2474,
      "Ġreactie": 2475,
      "Ġkrijg": 2476,
      "gra": 2477,
      "Ġzeer": 2478,
      "Ġgehouden": 2479,
      "ummie": 2480,
      "Ġmod": 2481,
      "veld": 2482,
      "84": 2483,
      "Ġbenedictus": 2484,
      "Ġverklaring": 2485,
      "75": 2486,
      "alan": 2487,
      "Ġhout": 2488,
      "inyl": 2489,
      "cember": 2490,
      "oom": 2491,
      "Ġgregorius": 2492,
      "mama": 2493,
      "Ġweb": 2494,
      "Ġkenmer": 2495,
      "onie": 2496,
      "ta": 2497,
      "sm": 2498,
      "Ġzwarte": 2499,
      "Ġkracht": 2500,
      "aliteit": 2501,
      "rat": 2502,
      "Ġrusland": 2503,
      "Ġij": 2504,
      "200": 2505,
      "lement": 2506,
      "prod": 2507,
      "Ġwinkel": 2508,
      "Ġbrengen": 2509,
      "Ġtechn": 2510,
      "veren": 2511,
      "Ġbeneden": 2512,
      "Ġplant": 2513,
      "Ġpapier": 2514,
      "Ġderde": 2515,
      "Ġspanje": 2516,
      "staande": 2517,
      "meester": 2518,
      "Ġinternet": 2519,
      "jaar": 2520,
      "Ġviel": 2521,
      "Ġpale": 2522,
      "Ġdemoc": 2523,
      "Ġooit": 2524,
      "Ġdaarnaast": 2525,
      "Ġdecember": 2526,
      "Ġanderen": 2527,
      "Ġang": 2528,
      "schrijf": 2529,
      "Ġsec": 2530,
      "Ġvar": 2531,
      "Ġspoor": 2532,
      "anc": 2533,
      "Ġmaanden": 2534,
      "Ġantwoorden": 2535,
      "Ġcir": 2536,
      "ober": 2537,
      "mijn": 2538,
      "Ġtabel": 2539,
      "Ġveroor": 2540,
      "ustr": 2541,
      "Ġtran": 2542,
      "Ġeff": 2543,
      "Ġinn": 2544,
      "ienden": 2545,
      "antwoord": 2546,
      "yyy": 2547,
      "\",": 2548,
      "waarom": 2549,
      "Ġstelling": 2550,
      "the": 2551,
      "tien": 2552,
      "rol": 2553,
      "Ġsterk": 2554,
      "Ġblad": 2555,
      "kracht": 2556,
      ".)": 2557,
      "hal": 2558,
      "Ġprovincie": 2559,
      "school": 2560,
      "72": 2561,
      "Ġbezig": 2562,
      "heen": 2563,
      "Ġtelefoon": 2564,
      "Ġbouwen": 2565,
      "ts": 2566,
      "Ġving": 2567,
      "Ġwal": 2568,
      "Ġand": 2569,
      "ioen": 2570,
      "Ġrug": 2571,
      "Ġwilt": 2572,
      "geving": 2573,
      "Ġafgelopen": 2574,
      "Ġvoordat": 2575,
      "Ġbetalen": 2576,
      "Ġbeginnen": 2577,
      "ysteem": 2578,
      "Ġbele": 2579,
      "up": 2580,
      "sie": 2581,
      "Ġonderz": 2582,
      "ymp": 2583,
      "brand": 2584,
      "Ġallerlei": 2585,
      "Ġda": 2586,
      "grond": 2587,
      "orgt": 2588,
      "Ġlijn": 2589,
      "Ġweergegeven": 2590,
      "Ġschoon": 2591,
      "Ġmass": 2592,
      "Ġco": 2593,
      "plaats": 2594,
      "Ġsneeuw": 2595,
      "Ġzichzelf": 2596,
      "verd": 2597,
      "Ġhoewel": 2598,
      "Ġkeizer": 2599,
      "Ġengeland": 2600,
      "Ġontstaat": 2601,
      "Ġproblemen": 2602,
      "eland": 2603,
      "Ġokt": 2604,
      "Ġoran": 2605,
      "oemde": 2606,
      "zaak": 2607,
      "Ġjonge": 2608,
      "mag": 2609,
      "Ġgeloof": 2610,
      "lo": 2611,
      "journaal": 2612,
      "Ġweken": 2613,
      "Ġonderdeel": 2614,
      "42": 2615,
      "Ġleid": 2616,
      "amerik": 2617,
      "Ġwaarmee": 2618,
      "Ġvliegtuig": 2619,
      "ijt": 2620,
      "hee": 2621,
      "kn": 2622,
      "ww": 2623,
      "Ġavond": 2624,
      "Ġbezoek": 2625,
      "Ġinvloed": 2626,
      "maak": 2627,
      "Ġzen": 2628,
      "Ġgeschreven": 2629,
      "Ġoktober": 2630,
      "che": 2631,
      "tegen": 2632,
      "Ġplaatsen": 2633,
      "ase": 2634,
      "Ġgebouw": 2635,
      "inkt": 2636,
      "Ġoverl": 2637,
      "Ġkarel": 2638,
      "teken": 2639,
      "Ġmater": 2640,
      "Ġclub": 2641,
      "Ġkost": 2642,
      "ney": 2643,
      "Ġsim": 2644,
      "Ġergens": 2645,
      "zig": 2646,
      "Ġ.": 2647,
      "Ġvle": 2648,
      "Ġregels": 2649,
      "Ġkrant": 2650,
      "werken": 2651,
      "Ġkilometer": 2652,
      "Ġaug": 2653,
      "Ġgegevens": 2654,
      "Ġpoes": 2655,
      "steel": 2656,
      "komst": 2657,
      "alanyl": 2658,
      "Ġbor": 2659,
      "zuur": 2660,
      "Ġpopulair": 2661,
      "Ġmelk": 2662,
      "Ġzuur": 2663,
      "Ġbronnen": 2664,
      "Ġmuseum": 2665,
      "Ġprobleem": 2666,
      "Ġoostenrijk": 2667,
      "Ġgezegd": 2668,
      "Ġbekende": 2669,
      "okk": 2670,
      "Ġcomputer": 2671,
      "Ġkorte": 2672,
      "ots": 2673,
      "Ġleef": 2674,
      "Ġapr": 2675,
      "Ġdrinken": 2676,
      "Ġlen": 2677,
      "Ġformule": 2678,
      "kamer": 2679,
      "Ġverzam": 2680,
      "Ġq": 2681,
      "slagen": 2682,
      "Ġgep": 2683,
      "Ġvertelt": 2684,
      "eltjes": 2685,
      "berg": 2686,
      "Ġwilden": 2687,
      "getje": 2688,
      "hel": 2689,
      "Ġ22": 2690,
      "derland": 2691,
      "Ġmat": 2692,
      "jet": 2693,
      "Ġleo": 2694,
      "Ġvolk": 2695,
      "46": 2696,
      "Ġgezond": 2697,
      "wa": 2698,
      "nie": 2699,
      "Ġapril": 2700,
      "roon": 2701,
      "eeld": 2702,
      "Ġpaard": 2703,
      "Ġbestuur": 2704,
      "Ġmoder": 2705,
      "ris": 2706,
      "rouw": 2707,
      "oeld": 2708,
      "Ġut": 2709,
      "za": 2710,
      "spre": 2711,
      "Ġdaarmee": 2712,
      "spel": 2713,
      "ummers": 2714,
      "Ġrechts": 2715,
      "lang": 2716,
      "Ġjam": 2717,
      "gew": 2718,
      "ikte": 2719,
      "uwen": 2720,
      "illen": 2721,
      "53": 2722,
      "Ġboeren": 2723,
      "Ġziekte": 2724,
      "toe": 2725,
      "agina": 2726,
      "gebruik": 2727,
      "Ġconst": 2728,
      "Ġberg": 2729,
      "Ġoranje": 2730,
      "ille": 2731,
      "Ġclemen": 2732,
      "Ġ40": 2733,
      "Ġparlement": 2734,
      "Ġmaart": 2735,
      "Ġkikker": 2736,
      "Ġaangezien": 2737,
      "ike": 2738,
      "ucyl": 2739,
      "oun": 2740,
      "Ġprogramma": 2741,
      "Ġclemens": 2742,
      "Ġei": 2743,
      "Ġkool": 2744,
      "Ġwinter": 2745,
      "Ġzorgt": 2746,
      "Ġsitu": 2747,
      "Ġkiezen": 2748,
      "Ġreact": 2749,
      "Ġpartijen": 2750,
      "Ġgoud": 2751,
      "Ġverkiezingen": 2752,
      "24": 2753,
      "58": 2754,
      "Ġkm": 2755,
      "Ġvanwege": 2756,
      "Ġpan": 2757,
      "wet": 2758,
      "Ġhierbij": 2759,
      "pap": 2760,
      "Ġgevolg": 2761,
      "Ġuitleg": 2762,
      "volut": 2763,
      "Ġinternation": 2764,
      "tig": 2765,
      "Ġfiet": 2766,
      "Ġeu": 2767,
      "Ġjuli": 2768,
      "Ġxii": 2769,
      "vember": 2770,
      "Ġmeisjes": 2771,
      "Ġbegr": 2772,
      "Ġdru": 2773,
      "ino": 2774,
      "ptember": 2775,
      "keur": 2776,
      "Ġwaarde": 2777,
      "Ġverv": 2778,
      "eeuwen": 2779,
      "Ġineens": 2780,
      "mon": 2781,
      "Ġbegonnen": 2782,
      "Ġlanger": 2783,
      "Ġcommun": 2784,
      "Ġterecht": 2785,
      "Ġhonder": 2786,
      "Ġrepubliek": 2787,
      "Ġlijst": 2788,
      "Ġoplossing": 2789,
      "Ġtekening": 2790,
      "ikel": 2791,
      "21": 2792,
      "...'": 2793,
      "Ġ193": 2794,
      "Ġjapan": 2795,
      "Ġbad": 2796,
      "Ġervan": 2797,
      "Ġopgave": 2798,
      "etjes": 2799,
      "ering": 2800,
      "Ġnadat": 2801,
      "elingen": 2802,
      "Ġbepaald": 2803,
      "ranten": 2804,
      "Ġhoger": 2805,
      "Ġgekregen": 2806,
      "Ġmuur": 2807,
      "Ġgeschiedenis": 2808,
      "laat": 2809,
      "Ġene": 2810,
      "nemen": 2811,
      "Ġradio": 2812,
      "uister": 2813,
      "Ġvele": 2814,
      "Ġdur": 2815,
      "Ġseptember": 2816,
      "Ġprote": 2817,
      "uwelijk": 2818,
      "Ġnovember": 2819,
      "Ġgevallen": 2820,
      "deelte": 2821,
      "Ġmaximaal": 2822,
      "Ġ23": 2823,
      "kers": 2824,
      "cten": 2825,
      "ikken": 2826,
      "74": 2827,
      "kort": 2828,
      "even": 2829,
      "ooien": 2830,
      "Ġgesloten": 2831,
      "Ġgekozen": 2832,
      "Ġbol": 2833,
      "terdam": 2834,
      "otte": 2835,
      "Ġstoel": 2836,
      "Ġmy": 2837,
      "Ġiedere": 2838,
      "Ġmevrouw": 2839,
      "Ġveld": 2840,
      "Ġwachten": 2841,
      "Ġcal": 2842,
      "Ġwint": 2843,
      "Ġklimaat": 2844,
      "tussen": 2845,
      "Ġeg": 2846,
      "gevoerd": 2847,
      "atief": 2848,
      "Ġfrans": 2849,
      "Ġgeweld": 2850,
      "Ġmakkelijk": 2851,
      "Ġlinks": 2852,
      "Ġspeciale": 2853,
      "Ġleiden": 2854,
      "tr": 2855,
      "ragment": 2856,
      "Ġhuizen": 2857,
      "wassen": 2858,
      "Ġhoogte": 2859,
      "Ġvrienden": 2860,
      "schrift": 2861,
      "pervlak": 2862,
      "orde": 2863,
      "Ġeruit": 2864,
      "Ġafstand": 2865,
      "Ġcan": 2866,
      "Ġaanwe": 2867,
      "Ġbrug": 2868,
      "Ġbaas": 2869,
      "iere": 2870,
      "zak": 2871,
      "Ġmeerdere": 2872,
      "oeden": 2873,
      "Ġaugust": 2874,
      "Ĥ¬": 2875,
      "weging": 2876,
      "Ġvolks": 2877,
      "gemeen": 2878,
      "pa": 2879,
      "vlie": 2880,
      "asten": 2881,
      "Ġschilderij": 2882,
      "ork": 2883,
      "Ġbaby": 2884,
      "Ġwaarvan": 2885,
      "dom": 2886,
      "jarige": 2887,
      "Ġzang": 2888,
      "Ġletters": 2889,
      "Ġkoffie": 2890,
      "Ġtemperatuur": 2891,
      "standig": 2892,
      "Ġrotterdam": 2893,
      "Ġinnocent": 2894,
      "Ġkaar": 2895,
      "raal": 2896,
      "Ġwoont": 2897,
      "ner": 2898,
      "Ġkamp": 2899,
      "achtig": 2900,
      "Ġtelevisie": 2901,
      "kken": 2902,
      "Ġserie": 2903,
      "Ġinnocentius": 2904,
      "Ġonderwijs": 2905,
      "Ġko": 2906,
      "voud": 2907,
      "werkt": 2908,
      "03": 2909,
      "Ġmening": 2910,
      "umenten": 2911,
      "Ġgehad": 2912,
      "ox": 2913,
      "Ġstij": 2914,
      "Ġqu": 2915,
      "Ġlin": 2916,
      "Ġnoorden": 2917,
      "Ġpolitiek": 2918,
      "Ġnegen": 2919,
      "Ġtoek": 2920,
      "rit": 2921,
      "Ġ2000": 2922,
      "Ġjongeren": 2923,
      "Ġcultuur": 2924,
      "Ġbak": 2925,
      "Ġsal": 2926,
      "daan": 2927,
      "nummer": 2928,
      "Ġkosten": 2929,
      "Ġteksten": 2930,
      "rank": 2931,
      "Ġgoos": 2932,
      "eller": 2933,
      "Ġpositie": 2934,
      "Ġonaf": 2935,
      "ene": 2936,
      "Ġtrekken": 2937,
      "Ġdummie": 2938,
      "Ġpakt": 2939,
      "vaart": 2940,
      "spron": 2941,
      "pol": 2942,
      "Ġproberen": 2943,
      "itt": 2944,
      "Ġcit": 2945,
      "Ġplaatje": 2946,
      "onk": 2947,
      "Ġoveral": 2948,
      "stellen": 2949,
      "iviteit": 2950,
      "Ġgekomen": 2951,
      "Ġcijf": 2952,
      "66": 2953,
      "han": 2954,
      "ĠâĤ¬": 2955,
      "Ġitalie": 2956,
      "ju": 2957,
      "Ġconc": 2958,
      "ÂłÂł": 2959,
      "Ġbritse": 2960,
      "Ġpijn": 2961,
      "Ġhoop": 2962,
      "tie": 2963,
      "Ġduizen": 2964,
      "52": 2965,
      "Ġomhoog": 2966,
      "Ġstraks": 2967,
      "Ġviii": 2968,
      "Ġzuiden": 2969,
      "Ġnoor": 2970,
      "Ġerbij": 2971,
      "Ġbedacht": 2972,
      "staat": 2973,
      "wagen": 2974,
      "Ġkou": 2975,
      "Ġliter": 2976,
      "Ġdaarvoor": 2977,
      "Ġruss": 2978,
      "Ġvlucht": 2979,
      "Ġhang": 2980,
      "Ġstoffen": 2981,
      "Ġtrap": 2982,
      "Ġbrood": 2983,
      "aardig": 2984,
      "Ġnummers": 2985,
      "geh": 2986,
      "Ġrec": 2987,
      "Ġwacht": 2988,
      "Ġzieken": 2989,
      "ologie": 2990,
      "europ": 2991,
      "Ġkeuken": 2992,
      "Ġscholen": 2993,
      "Ġleggen": 2994,
      "Ġkleuren": 2995,
      "ars": 2996,
      "Ġzacht": 2997,
      "Ġstellen": 2998,
      "Ġhot": 2999,
      "Ġgas": 3000,
      "Ġprins": 3001,
      "ock": 3002,
      "rein": 3003,
      "fen": 3004,
      "104": 3005,
      "intig": 3006,
      "ho": 3007,
      "hoek": 3008,
      "acter": 3009,
      "Ġamerika": 3010,
      "ovjet": 3011,
      "83": 3012,
      "Ġverkocht": 3013,
      "Ġresult": 3014,
      "ift": 3015,
      "Ġmart": 3016,
      "ire": 3017,
      "Ġdel": 3018,
      "ura": 3019,
      "Ġloop": 3020,
      "Ġslechts": 3021,
      "baan": 3022,
      "Ġbomen": 3023,
      "des": 3024,
      "Ġglas": 3025,
      "spraken": 3026,
      "Ġgebracht": 3027,
      "Ġvoer": 3028,
      "22": 3029,
      "nel": 3030,
      "oeder": 3031,
      "Ġkoek": 3032,
      "Ġcd": 3033,
      "Ġhield": 3034,
      "Ġaugustus": 3035,
      "Ġbedrijven": 3036,
      "Ġtoneel": 3037,
      "organis": 3038,
      "Ġmorgen": 3039,
      "Ġgroeien": 3040,
      "Ġopger": 3041,
      "cties": 3042,
      "Ġzus": 3043,
      "Ġty": 3044,
      "Ġgebeurd": 3045,
      "Ġtoekom": 3046,
      "middel": 3047,
      "Ġraam": 3048,
      "Ġtitel": 3049,
      "Ġsuik": 3050,
      "Ġtoet": 3051,
      "Ġhit": 3052,
      "eh": 3053,
      "oper": 3054,
      "Ġroos": 3055,
      "oute": 3056,
      "Ġhor": 3057,
      "markt": 3058,
      "inses": 3059,
      "Ġuniversiteit": 3060,
      "Ġpeter": 3061,
      "Ġmol": 3062,
      "Ġproducten": 3063,
      "Ġkab": 3064,
      "Ġontwikkeling": 3065,
      "Ġsym": 3066,
      "anning": 3067,
      "Ġvreem": 3068,
      "Ġmede": 3069,
      "bar": 3070,
      "noem": 3071,
      "cu": 3072,
      "Ġvonden": 3073,
      "alige": 3074,
      "Ġjeugdjournaal": 3075,
      "Ġutrecht": 3076,
      "park": 3077,
      "Ġkapot": 3078,
      "links": 3079,
      "Ġkasteel": 3080,
      "Ġalexander": 3081,
      "imin": 3082,
      "ograf": 3083,
      "verb": 3084,
      "27": 3085,
      "Ġschat": 3086,
      "Ġph": 3087,
      "ider": 3088,
      "alis": 3089,
      "Ġsovjet": 3090,
      "ampen": 3091,
      "Ġlat": 3092,
      "Ġteam": 3093,
      "Ġdochter": 3094,
      "erend": 3095,
      "riek": 3096,
      "Ġlachen": 3097,
      "ket": 3098,
      "eth": 3099,
      "Ġkoop": 3100,
      "Ġstel": 3101,
      "bie": 3102,
      "Ġrom": 3103,
      "ctuur": 3104,
      "Ġverdien": 3105,
      "Ġleeftijd": 3106,
      "Ġwand": 3107,
      "Ġmam": 3108,
      "Ġfijn": 3109,
      "Ġfunctie": 3110,
      "Ġslaap": 3111,
      "zee": 3112,
      "Ġpost": 3113,
      "Ġhoeveelheid": 3114,
      "Ġmos": 3115,
      "eerden": 3116,
      "istor": 3117,
      "Ġarbe": 3118,
      "Ġleden": 3119,
      "gelegd": 3120,
      "Ġrechter": 3121,
      "Ġgroepen": 3122,
      "Ġturk": 3123,
      "Ġdak": 3124,
      "stoffen": 3125,
      "itic": 3126,
      "raagt": 3127,
      "ake": 3128,
      "Ġix": 3129,
      "sa": 3130,
      "ongen": 3131,
      "Ġerop": 3132,
      "Ġnormaal": 3133,
      "Ġtv": 3134,
      "Ġdiep": 3135,
      "Ġverwacht": 3136,
      "Ġdonker": 3137,
      "Ġrustig": 3138,
      "Ġstraf": 3139,
      "Ġvorige": 3140,
      "naar": 3141,
      "halen": 3142,
      "Ġongeluk": 3143,
      "Ġgeheim": 3144,
      "Ġjac": 3145,
      "Ġ26": 3146,
      "Ġvogels": 3147,
      "ival": 3148,
      "role": 3149,
      "Ġleu": 3150,
      "ima": 3151,
      "Ġparijs": 3152,
      "Ġts": 3153,
      "ieel": 3154,
      "erde": 3155,
      "ball": 3156,
      "kamp": 3157,
      "cept": 3158,
      "kon": 3159,
      "izoen": 3160,
      "Ġ28": 3161,
      "Ġmidd": 3162,
      "ham": 3163,
      "ise": 3164,
      "Ġjas": 3165,
      "unie": 3166,
      "bruari": 3167,
      "Ġerin": 3168,
      "Ġgisteren": 3169,
      "Ġkal": 3170,
      "Ġspullen": 3171,
      "ly": 3172,
      "Ġuw": 3173,
      "boven": 3174,
      "Ġhoek": 3175,
      "heel": 3176,
      "asting": 3177,
      "Ġgang": 3178,
      "Ġban": 3179,
      "Ġverhalen": 3180,
      "Ġschrijver": 3181,
      "Ġvliegen": 3182,
      "Ġgrens": 3183,
      "Ġengelse": 3184,
      "Ġtrouw": 3185,
      "Ġmal": 3186,
      "Ġhoeft": 3187,
      "sse": 3188,
      "Ġraak": 3189,
      "Ġbuik": 3190,
      "iddelde": 3191,
      "Ġlog": 3192,
      "Ġolymp": 3193,
      "Ġraad": 3194,
      "Ġduurt": 3195,
      "Ġdikke": 3196,
      "Ġbedoeld": 3197,
      "Ġstonden": 3198,
      "Ġca": 3199,
      "Ġlandbouw": 3200,
      "Ġmich": 3201,
      "Ġvissen": 3202,
      "Ġaandacht": 3203,
      "Ġhelft": 3204,
      "Ġuitgeb": 3205,
      "Ġoorspron": 3206,
      "Ġreacties": 3207,
      "ona": 3208,
      "Ġta": 3209,
      "Ġpen": 3210,
      "Ġbegrij": 3211,
      "Ġvet": 3212,
      "Ġgras": 3213,
      "Ġvolgen": 3214,
      "Ġgebruikte": 3215,
      "loos": 3216,
      "Ġpius": 3217,
      "Ġfebruari": 3218,
      "steen": 3219,
      "Ġveroorz": 3220,
      "ue": 3221,
      "Ġsk": 3222,
      "pakt": 3223,
      "Ġengels": 3224,
      "Ġhuidige": 3225,
      "Ġpiet": 3226,
      "ple": 3227,
      "Ġgar": 3228,
      "Ġuitspraak": 3229,
      "cellen": 3230,
      "Ġvlag": 3231,
      "keken": 3232,
      "Ġoekra": 3233,
      "Ġvlees": 3234,
      "Ġkerst": 3235,
      "Ġkast": 3236,
      "licht": 3237,
      "Ġlangzaam": 3238,
      "Ġherken": 3239,
      "Ġkleding": 3240,
      "93": 3241,
      "Ġpagina": 3242,
      "old": 3243,
      "Ġtoege": 3244,
      "ign": 3245,
      "sb": 3246,
      "Ġhiervoor": 3247,
      "Ġjohn": 3248,
      "Ġverover": 3249,
      "57": 3250,
      "Ġdom": 3251,
      "ada": 3252,
      "li": 3253,
      "Ġnederlanders": 3254,
      "Ġgespeeld": 3255,
      "Ġartikel": 3256,
      "gezet": 3257,
      "68": 3258,
      "Ġmarkt": 3259,
      "Ġtel": 3260,
      "Ġdre": 3261,
      "Ġgevoel": 3262,
      "Ġmaakten": 3263,
      "dige": 3264,
      "ty": 3265,
      "Ġperson": 3266,
      "oei": 3267,
      "Ġhersen": 3268,
      "Ġhaag": 3269,
      "Ġregio": 3270,
      "uldig": 3271,
      "Ġeconomische": 3272,
      "Ġsituatie": 3273,
      "sister": 3274,
      "utam": 3275,
      "dank": 3276,
      "Ġtrekt": 3277,
      "Ġblok": 3278,
      "Ġfilmpje": 3279,
      "Ġonbe": 3280,
      "laag": 3281,
      "Ġsnelheid": 3282,
      "Ġbloemen": 3283,
      "schappij": 3284,
      "Ġfles": 3285,
      "aien": 3286,
      "Ġ(\"": 3287,
      "Ġstam": 3288,
      "Ġhoorde": 3289,
      "cr": 3290,
      "ustrie": 3291,
      "Ġgewonnen": 3292,
      "Ġzonne": 3293,
      "Ġstoppen": 3294,
      "ets": 3295,
      "Ġkust": 3296,
      "Ġ27": 3297,
      "Ġkunsten": 3298,
      "Ġdirect": 3299,
      "ielen": 3300,
      "Ġzwart": 3301,
      "Ġschreef": 3302,
      "Ġwetenschapp": 3303,
      "Ġblik": 3304,
      "Ġdaarvan": 3305,
      "geschiedenis": 3306,
      "ommel": 3307,
      "ellingen": 3308,
      "ormen": 3309,
      "ps": 3310,
      "Ġvo": 3311,
      "Ġnic": 3312,
      "dieren": 3313,
      "Ġalbum": 3314,
      "maat": 3315,
      "Ġgedeelte": 3316,
      "ikke": 3317,
      "Ġtotale": 3318,
      "Ġvolwassen": 3319,
      "Ġgemiddelde": 3320,
      "ones": 3321,
      "oegen": 3322,
      "Ġpresent": 3323,
      "izen": 3324,
      "Ġoh": 3325,
      "Ġhaven": 3326,
      "Ġkoud": 3327,
      "Ġsteph": 3328,
      "col": 3329,
      "Ġ2010": 3330,
      "twee": 3331,
      "Ġwee": 3332,
      "raad": 3333,
      "73": 3334,
      "Ġbescherm": 3335,
      "Ġgemeenten": 3336,
      "Ġpass": 3337,
      "Ġprof": 3338,
      "lopen": 3339,
      "Ġdol": 3340,
      "Ġag": 3341,
      "Ġbevin": 3342,
      "Ġzaken": 3343,
      "car": 3344,
      "Ġsuiker": 3345,
      "Ġgu": 3346,
      "Ġcm": 3347,
      "seling": 3348,
      "Ġgebeurde": 3349,
      "dering": 3350,
      "Ġ31": 3351,
      "Ġolie": 3352,
      "Ġprobeert": 3353,
      "ustral": 3354,
      "pijn": 3355,
      "Ġwaaronder": 3356,
      "Ġhuilen": 3357,
      "Ġdok": 3358,
      "Ġmilieu": 3359,
      "Ġgouden": 3360,
      "dstrijden": 3361,
      "Ġmedia": 3362,
      "Ġonafhankelijk": 3363,
      "gar": 3364,
      "Ġdam": 3365,
      "Ġprocent": 3366,
      "naam": 3367,
      "Ġargument": 3368,
      "Ġ,": 3369,
      "Ġbelg": 3370,
      "Ġbord": 3371,
      "fin": 3372,
      "werking": 3373,
      "Ġschou": 3374,
      "daten": 3375,
      "Ġjongetje": 3376,
      "matig": 3377,
      "Ġprem": 3378,
      "Ġluc": 3379,
      "Ġtru": 3380,
      "zing": 3381,
      "Ġvoorbij": 3382,
      "Ġeilanden": 3383,
      "Ġtent": 3384,
      "Ġtrouwen": 3385,
      "Ġinstru": 3386,
      "ject": 3387,
      "Ġprotest": 3388,
      "Ġasp": 3389,
      "Ġlast": 3390,
      "Ġbeer": 3391,
      "Ġsociale": 3392,
      "urs": 3393,
      "glutam": 3394,
      "Ġdroog": 3395,
      "gemaakt": 3396,
      "igde": 3397,
      "Ġgebeuren": 3398,
      "Ġvaker": 3399,
      "volutie": 3400,
      "stap": 3401,
      "Ġhonden": 3402,
      "Ġhandel": 3403,
      "Ġgrafiek": 3404,
      "Ġgebeurten": 3405,
      "71": 3406,
      "Ġvre": 3407,
      "Ġtoren": 3408,
      "produc": 3409,
      "Ġdoos": 3410,
      "ublic": 3411,
      "iaanse": 3412,
      "naast": 3413,
      "ana": 3414,
      "Ġnot": 3415,
      "doe": 3416,
      "Ġunie": 3417,
      "Ġschrijft": 3418,
      "Ġwou": 3419,
      "Ġoppervlak": 3420,
      "Ġhert": 3421,
      "Ġburger": 3422,
      "wacht": 3423,
      "Ġpet": 3424,
      "kla": 3425,
      "Ġgener": 3426,
      "115": 3427,
      "stival": 3428,
      "Ġverband": 3429,
      "Ġadem": 3430,
      "zijde": 3431,
      "Ġbaan": 3432,
      "Ġmic": 3433,
      "schrij": 3434,
      "Ġbehand": 3435,
      "Ġnap": 3436,
      "ylalanyl": 3437,
      "vog": 3438,
      "Ġdun": 3439,
      "Ġdeden": 3440,
      "Ġbloem": 3441,
      "Ġyork": 3442,
      "oegd": 3443,
      "ca": 3444,
      "ermen": 3445,
      "'d": 3446,
      "lim": 3447,
      "prijs": 3448,
      "Ġjoost": 3449,
      "Ġzil": 3450,
      "Ġverenigd": 3451,
      "voeren": 3452,
      "Ġwinnen": 3453,
      "uck": 3454,
      "Ġsprake": 3455,
      "iest": 3456,
      "Ġverkeer": 3457,
      "uwe": 3458,
      "Ġprinses": 3459,
      "Ġeconomie": 3460,
      "ton": 3461,
      "Ġappar": 3462,
      "Ġgeldt": 3463,
      "Ġgrieken": 3464,
      "Ġtoekomst": 3465,
      "Ġfinale": 3466,
      "Ġcolle": 3467,
      "Ġbacter": 3468,
      "Ġprovincies": 3469,
      "middels": 3470,
      "Ġontstond": 3471,
      "Ġleek": 3472,
      "nederland": 3473,
      "Ġchar": 3474,
      "Ġfeit": 3475,
      "Ġcentrum": 3476,
      "oorn": 3477,
      "Ġtrok": 3478,
      "omas": 3479,
      "Ġpaleis": 3480,
      "que": 3481,
      "rukt": 3482,
      "Ġpersonen": 3483,
      "Ġdisney": 3484,
      "rijzen": 3485,
      "Ġ60": 3486,
      "bad": 3487,
      "geld": 3488,
      "own": 3489,
      "punten": 3490,
      "Ġpassen": 3491,
      "Ġgroene": 3492,
      "erij": 3493,
      "stic": 3494,
      "Ġverspre": 3495,
      "Ġkleiner": 3496,
      "inet": 3497,
      "Ġrichting": 3498,
      "Ġkern": 3499,
      "ende": 3500,
      "Ġgesproken": 3501,
      "Ġontwikk": 3502,
      "Ġproductie": 3503,
      "Ġstrand": 3504,
      "zi": 3505,
      "Ġafval": 3506,
      "Ġlegt": 3507,
      "Ġklinkt": 3508,
      "Ġkent": 3509,
      "80": 3510,
      "Ġschrift": 3511,
      "Ġbroek": 3512,
      "Ġontdekt": 3513,
      "Ġinkomen": 3514,
      "Ġgauw": 3515,
      "nemers": 3516,
      "Ġgriek": 3517,
      "ail": 3518,
      "akt": 3519,
      "Ġdw": 3520,
      "Ġtas": 3521,
      "Ġstaart": 3522,
      "Ġjo": 3523,
      "inding": 3524,
      "Ġkwart": 3525,
      "Ġvolgt": 3526,
      "elijkheid": 3527,
      "tus": 3528,
      "roep": 3529,
      "Ġzingen": 3530,
      "Ġplekken": 3531,
      "Ġgevaarlijk": 3532,
      "Ġwegen": 3533,
      "Ġpracht": 3534,
      "Ġamb": 3535,
      "ling": 3536,
      "Ġwis": 3537,
      "Ġpolitic": 3538,
      "igh": 3539,
      "Ġtegelijk": 3540,
      "Ġburge": 3541,
      "Ġtrek": 3542,
      "fab": 3543,
      "Ġrand": 3544,
      "Ġfel": 3545,
      "Ġblauwe": 3546,
      "bin": 3547,
      "Ġbood": 3548,
      "derd": 3549,
      "Ġspreken": 3550,
      "Ġvervangen": 3551,
      "bus": 3552,
      "dus": 3553,
      "lijst": 3554,
      "Ġproces": 3555,
      "Ġoom": 3556,
      "Ġgedrag": 3557,
      "Ġarmen": 3558,
      "atieve": 3559,
      "hi": 3560,
      "amm": 3561,
      "Ġzaten": 3562,
      "iddeld": 3563,
      "zichtig": 3564,
      "cel": 3565,
      "son": 3566,
      "leggen": 3567,
      "Ġsoldaten": 3568,
      "Ġmor": 3569,
      "Ġ2012": 3570,
      "Ġtante": 3571,
      "ola": 3572,
      "Ġvlieg": 3573,
      "Ġhangt": 3574,
      "Ġverdeeld": 3575,
      "ley": 3576,
      "regel": 3577,
      "Ġbesluit": 3578,
      "Ġhaalt": 3579,
      "Ġau": 3580,
      "ific": 3581,
      "want": 3582,
      "Ġimm": 3583,
      "Ġbleek": 3584,
      "Ġgewone": 3585,
      "Ġpubliek": 3586,
      "Ġsur": 3587,
      "Ġjur": 3588,
      "amb": 3589,
      "leur": 3590,
      "ecten": 3591,
      "Ġspeelde": 3592,
      "bak": 3593,
      "heer": 3594,
      "Ġaustral": 3595,
      "Ġmilit": 3596,
      "Ġdraait": 3597,
      "elsel": 3598,
      "Ġveilig": 3599,
      "wor": 3600,
      "isen": 3601,
      "Ġspeciaal": 3602,
      "kat": 3603,
      "Ġvracht": 3604,
      "Ġ2014": 3605,
      "Ġbedenk": 3606,
      "Ġcre": 3607,
      "Ġhend": 3608,
      "arg": 3609,
      "daad": 3610,
      "boom": 3611,
      "Ġafrika": 3612,
      "Ġhoogste": 3613,
      "Ġmanieren": 3614,
      "Ġattra": 3615,
      "bet": 3616,
      "Ġzuurstof": 3617,
      "Ġfietsen": 3618,
      "stem": 3619,
      "gesteld": 3620,
      "Ġinmiddels": 3621,
      "namelijk": 3622,
      "station": 3623,
      "Ġadv": 3624,
      "Ġbeelden": 3625,
      "ages": 3626,
      "Ġleeg": 3627,
      "uurd": 3628,
      "Ġromeinse": 3629,
      "orge": 3630,
      "Ġdec": 3631,
      "Ġtalen": 3632,
      "Ġschrik": 3633,
      "Ġonderzoekers": 3634,
      "bele": 3635,
      "vatting": 3636,
      "lage": 3637,
      "Ġorganisatie": 3638,
      "clusie": 3639,
      "Ġbesloot": 3640,
      "annen": 3641,
      "Ġsint": 3642,
      "Ġgron": 3643,
      "Ġstelt": 3644,
      "Ġveranderen": 3645,
      "yc": 3646,
      "Ġkam": 3647,
      "Ġlim": 3648,
      "iegel": 3649,
      "Ġstuur": 3650,
      "andid": 3651,
      "mus": 3652,
      "Ġziekenhuis": 3653,
      "Ġhy": 3654,
      "Ġ29": 3655,
      "Ġvolgorde": 3656,
      "Ġvoldoen": 3657,
      "pla": 3658,
      "Ġheil": 3659,
      "ommen": 3660,
      "west": 3661,
      "programma": 3662,
      "Ġding": 3663,
      "orn": 3664,
      "Ġhoef": 3665,
      "eeks": 3666,
      "49": 3667,
      "Ġvervoer": 3668,
      "sport": 3669,
      "Ġ2019": 3670,
      "Ġgemiddeld": 3671,
      "Ġmotor": 3672,
      "Ġspannen": 3673,
      "Ġgezet": 3674,
      "Ġbat": 3675,
      "Ġvictor": 3676,
      "Ġgebouwen": 3677,
      "Ġbetekenis": 3678,
      "chtend": 3679,
      "ballen": 3680,
      "iment": 3681,
      "pop": 3682,
      "ukt": 3683,
      "Ġoce": 3684,
      "Ġmoderne": 3685,
      "riet": 3686,
      "Ġaanwezig": 3687,
      "05": 3688,
      "ane": 3689,
      "Ġdank": 3690,
      "Ġovert": 3691,
      "Ġwebs": 3692,
      "Ġwakker": 3693,
      "Ġgete": 3694,
      "Ġvoelt": 3695,
      "Ġalgemeen": 3696,
      "Ġenorme": 3697,
      "Ġpo": 3698,
      "Ġgezondheid": 3699,
      "arts": 3700,
      "Ġsteun": 3701,
      "Ġbekijk": 3702,
      "Ġcons": 3703,
      "Ġkoe": 3704,
      "Ġlevens": 3705,
      "odewijk": 3706,
      "Ġochtend": 3707,
      "line": 3708,
      "rale": 3709,
      "Ġtwintig": 3710,
      "Ġijzer": 3711,
      "best": 3712,
      "agram": 3713,
      "uut": 3714,
      "boeken": 3715,
      "plaatst": 3716,
      "Ġouder": 3717,
      "Ġkeuze": 3718,
      "Ġopgericht": 3719,
      "rael": 3720,
      "past": 3721,
      "Ġlamp": 3722,
      "Ġlux": 3723,
      "Ġstrip": 3724,
      "zil": 3725,
      "Ġword": 3726,
      "Ġ2011": 3727,
      "Ġprobeerde": 3728,
      "118": 3729,
      "Ġdraaien": 3730,
      "cteur": 3731,
      "Ġes": 3732,
      "Ġgemak": 3733,
      "Ġ2017": 3734,
      "Ġpaulus": 3735,
      "Ġburg": 3736,
      "bekijk": 3737,
      "Ġbestond": 3738,
      "Ġfilms": 3739,
      "Ġhistor": 3740,
      "Ġbuur": 3741,
      "Ġmex": 3742,
      "Ġmob": 3743,
      "Ġxv": 3744,
      "Ġzwemmen": 3745,
      "sor": 3746,
      "Ġbond": 3747,
      "rucht": 3748,
      "ochten": 3749,
      "Ġvrije": 3750,
      "band": 3751,
      "Ġburgemeester": 3752,
      "rus": 3753,
      "ros": 3754,
      "stige": 3755,
      "100": 3756,
      "Ġdragen": 3757,
      "Ġ2015": 3758,
      "Ġrussische": 3759,
      "Ġstephanus": 3760,
      "Ġluister": 3761,
      "Ġwesten": 3762,
      "Ġmad": 3763,
      "88": 3764,
      "Ġgevolgen": 3765,
      "amerika": 3766,
      "Ġ2020": 3767,
      "Ġaangegeven": 3768,
      "Ġricht": 3769,
      "brother": 3770,
      "\").": 3771,
      "Ġspaanse": 3772,
      "Ġvrijheid": 3773,
      "stra": 3774,
      "Ġbewer": 3775,
      "enten": 3776,
      "oth": 3777,
      "zin": 3778,
      "Ġbodem": 3779,
      "Ġmaria": 3780,
      "dy": 3781,
      "duit": 3782,
      "orten": 3783,
      "adden": 3784,
      "Ġstappen": 3785,
      "Ġlijken": 3786,
      "erende": 3787,
      "Ġeentje": 3788,
      "Ġallebei": 3789,
      "59": 3790,
      "Ġvoornamelijk": 3791,
      "uif": 3792,
      "Ġverboden": 3793,
      "ient": 3794,
      "ieven": 3795,
      "Ġzout": 3796,
      "Ġmann": 3797,
      "Ġ2005": 3798,
      "Ġhong": 3799,
      "rr": 3800,
      "Ġopeens": 3801,
      "Ġoorzaak": 3802,
      "ats": 3803,
      "Ġurb": 3804,
      "Ġdav": 3805,
      "Ġaanv": 3806,
      "Ġruzie": 3807,
      "Ġbracht": 3808,
      "Ġtegenst": 3809,
      "Ġeindelijk": 3810,
      "bol": 3811,
      "Ġopzicht": 3812,
      "Ġsneller": 3813,
      "vd": 3814,
      "Ġdaarin": 3815,
      "Ġps": 3816,
      "waarde": 3817,
      "aris": 3818,
      "Ġleng": 3819,
      "Ġern": 3820,
      "iging": 3821,
      "was": 3822,
      "Ġrecl": 3823,
      "Ġonderstaande": 3824,
      "Ġvaste": 3825,
      "Ġstrijd": 3826,
      "Ġbeweging": 3827,
      "Ġdokter": 3828,
      "Ġkennen": 3829,
      "zeker": 3830,
      "Ġegy": 3831,
      "name": 3832,
      "Ġpraat": 3833,
      "Ġakk": 3834,
      "bre": 3835,
      "mak": 3836,
      "Ġarch": 3837,
      "Ġtanden": 3838,
      "richt": 3839,
      "gent": 3840,
      "Ġexper": 3841,
      "Ġintere": 3842,
      "tes": 3843,
      "Ġzware": 3844,
      "Ġvir": 3845,
      "Ġrestaur": 3846,
      "Ġdub": 3847,
      "leving": 3848,
      "54": 3849,
      "Ġbesp": 3850,
      "Ġgenomen": 3851,
      "Ġ2008": 3852,
      "Ġwolf": 3853,
      "alve": 3854,
      "Ġvergelijking": 3855,
      "Ġenkel": 3856,
      "Ġ2016": 3857,
      "allo": 3858,
      "iciteit": 3859,
      "Ġomgeving": 3860,
      "entuin": 3861,
      "tegenwoordig": 3862,
      "Ġdorpen": 3863,
      "Ġovereen": 3864,
      "jan": 3865,
      "34": 3866,
      "anda": 3867,
      "Ġerv": 3868,
      "Ġdes": 3869,
      "Ġ2004": 3870,
      "Ġtekenen": 3871,
      "Ġbesloten": 3872,
      "Ġnationale": 3873,
      "kelijke": 3874,
      "Ġstadion": 3875,
      "Ġproef": 3876,
      "Ġven": 3877,
      "Ġverpl": 3878,
      "ifat": 3879,
      "Ġso": 3880,
      "ifatius": 3881,
      "Ġlodewijk": 3882,
      "Ġier": 3883,
      "Ġoptreden": 3884,
      "red": 3885,
      "Ġhotel": 3886,
      "Ġbehalve": 3887,
      "Ġbonifatius": 3888,
      "somm": 3889,
      "Ġhendrik": 3890,
      "Ġdans": 3891,
      "Ġ2009": 3892,
      "Ġkenmerken": 3893,
      "bren": 3894,
      "67": 3895,
      "oleon": 3896,
      "Ġvinger": 3897,
      "kaan": 3898,
      "Ġtij": 3899,
      "zeg": 3900,
      "Ġfa": 3901,
      "Ġwink": 3902,
      "Ġ2006": 3903,
      "Ġgram": 3904,
      "Ġzorgde": 3905,
      "iveau": 3906,
      "Ġmuis": 3907,
      "Ġschepen": 3908,
      "Ġvandaan": 3909,
      "Ġchine": 3910,
      "club": 3911,
      "Ġsterren": 3912,
      "Ġlengte": 3913,
      "arken": 3914,
      "Ġhonderd": 3915,
      "Ġ2018": 3916,
      "Ġzomaar": 3917,
      "Ġvergeten": 3918,
      "Ġonderste": 3919,
      "Ġverkopen": 3920,
      "ya": 3921,
      "Ġsj": 3922,
      "leucyl": 3923,
      "Ġplastic": 3924,
      "Ġvoeren": 3925,
      "Ġler": 3926,
      "inderen": 3927,
      "Ġstier": 3928,
      "ath": 3929,
      "Ġcijfers": 3930,
      "fr": 3931,
      "Ġhaalde": 3932,
      "Ġinformatiebron": 3933,
      "Ġburgers": 3934,
      "kast": 3935,
      "by": 3936,
      "ukte": 3937,
      "ala": 3938,
      "Ġolympische": 3939,
      "77": 3940,
      "di": 3941,
      "plant": 3942,
      "kop": 3943,
      "Ġleest": 3944,
      "Ġstorm": 3945,
      "ipt": 3946,
      "Ġdierentuin": 3947,
      "huizen": 3948,
      "cul": 3949,
      "rod": 3950,
      "Ġstev": 3951,
      "Ġseizoen": 3952,
      "Ġkleren": 3953,
      "ress": 3954,
      "ooid": 3955,
      "Ġverloren": 3956,
      "Ġisrael": 3957,
      "hond": 3958,
      "Ġbes": 3959,
      "Ġ2013": 3960,
      "Ġbeoord": 3961,
      "Ġslot": 3962,
      "zw": 3963,
      "Ġkolon": 3964,
      "Ġappel": 3965,
      "Ġob": 3966,
      "Ġkritiek": 3967,
      "Ġhoud": 3968,
      "Ġliever": 3969,
      "Ġstukken": 3970,
      "pjes": 3971,
      "Ġsysteem": 3972,
      "94": 3973,
      "atisch": 3974,
      "amera": 3975,
      "Ġinhoud": 3976,
      "Ġstenen": 3977,
      "Ġurbanus": 3978,
      "atis": 3979,
      "haven": 3980,
      "Ġvla": 3981,
      "Ġjoden": 3982,
      "Ġgegaan": 3983,
      "56": 3984,
      "Ġhiervan": 3985,
      "Ġpolen": 3986,
      "Ġproduct": 3987,
      "Ġerachter": 3988,
      "Ġinternationale": 3989,
      "Ġgraden": 3990,
      "ixtus": 3991,
      "Ġdienst": 3992,
      "Ġslim": 3993,
      "Ġwen": 3994,
      "Ġair": 3995,
      "Ġoper": 3996,
      "Ġot": 3997,
      "Ġges": 3998,
      "welk": 3999,
      "Ġbehoren": 4000,
      "Ġcontrole": 4001,
      "Ġrem": 4002,
      "arch": 4003,
      "Ġlok": 4004,
      "Ġmusic": 4005,
      "inden": 4006,
      "eet": 4007,
      "hoofd": 4008,
      "Ġhiermee": 4009,
      "Ġopgenomen": 4010,
      "Ġvijft": 4011,
      "erie": 4012,
      "gere": 4013,
      "Ġinse": 4014,
      "Ġbehaald": 4015,
      "Ġbehalen": 4016,
      "Ġfout": 4017,
      "Ġhelpt": 4018,
      "Ġveranderd": 4019,
      "Ġschoenen": 4020,
      "osaur": 4021,
      "Ġvern": 4022,
      "Ġleuke": 4023,
      "28": 4024,
      "aalf": 4025,
      "Ġ80": 4026,
      "kunde": 4027,
      "Ġgroei": 4028,
      "stelsel": 4029,
      "Ġkg": 4030,
      "Ġverg": 4031,
      "Ġbeschermen": 4032,
      "Ġkathol": 4033,
      "koop": 4034,
      "morgen": 4035,
      "Ġzogen": 4036,
      ",\"": 4037,
      "91": 4038,
      "ude": 4039,
      "Ġpir": 4040,
      "blij": 4041,
      "Ġgeorge": 4042,
      "Ġpaus": 4043,
      "uff": 4044,
      "Ġ2007": 4045,
      "coh": 4046,
      "verh": 4047,
      "Ġnicol": 4048,
      "Ġrat": 4049,
      "Ġbekendste": 4050,
      "Ġxi": 4051,
      "dienst": 4052,
      "gevoegd": 4053,
      "machine": 4054,
      "Ġrid": 4055,
      "32": 4056,
      "iner": 4057,
      "Ġcamp": 4058,
      "Ġschot": 4059,
      "Ġschade": 4060,
      "Ġ35": 4061,
      "Ġrennen": 4062,
      "klaas": 4063,
      "hang": 4064,
      "bant": 4065,
      "Ġzagen": 4066,
      "Ġstart": 4067,
      "Ġmachine": 4068,
      "ous": 4069,
      "Ġvolledig": 4070,
      "Ġnood": 4071,
      "ructuur": 4072,
      "Ġtoeristen": 4073,
      "Ġ:": 4074,
      "oosten": 4075,
      "Ġstuden": 4076,
      "Ġfluister": 4077,
      "cont": 4078,
      "Ġbergen": 4079,
      "Ġolif": 4080,
      "gas": 4081,
      "Ġrent": 4082,
      "centage": 4083,
      "ams": 4084,
      "sluit": 4085,
      "33": 4086,
      "Ġsocial": 4087,
      "cohol": 4088,
      "prob": 4089,
      "!\"": 4090,
      "Ġham": 4091,
      "verkiezingen": 4092,
      "Ġfant": 4093,
      "Ġchoc": 4094,
      "Ġbelgische": 4095,
      "Ġkaas": 4096,
      "Ġthema": 4097,
      "Ġatl": 4098,
      "sw": 4099,
      "Ġhangen": 4100,
      "Ġgren": 4101,
      "volg": 4102,
      "Ġgolf": 4103,
      "Ġcas": 4104,
      "Ġgoe": 4105,
      "Ġtaak": 4106,
      "Ġbereiken": 4107,
      "Ġromeinen": 4108,
      "steden": 4109,
      "Ġ2002": 4110,
      "Ġpv": 4111,
      "elend": 4112,
      "Ġrevolutie": 4113,
      "xide": 4114,
      "Ġwh": 4115,
      "isse": 4116,
      "Ġplaatjes": 4117,
      "Ġofficieel": 4118,
      "emen": 4119,
      "Ġgeel": 4120,
      "ologische": 4121,
      "Ġgetekend": 4122,
      "vrij": 4123,
      "gevallen": 4124,
      "Ġsamenleving": 4125,
      "Ġmodel": 4126,
      "Ġwebsite": 4127,
      "Ġall": 4128,
      "denk": 4129,
      "bas": 4130,
      "Ġindia": 4131,
      "zitter": 4132,
      "oken": 4133,
      "boot": 4134,
      "Ġtand": 4135,
      "achtige": 4136,
      "vak": 4137,
      "Ġautom": 4138,
      "Ġ2022": 4139,
      "Ġklaas": 4140,
      "oke": 4141,
      "Ġvermogen": 4142,
      "Ġzul": 4143,
      "Ġbeper": 4144,
      "Ġrijdt": 4145,
      "kaart": 4146,
      "Ġlonden": 4147,
      "Ġpaarden": 4148,
      "Ġgesla": 4149,
      "olie": 4150,
      "Ġtijdje": 4151,
      "Ġluisteren": 4152,
      "nes": 4153,
      "Ġplannen": 4154,
      "Ġkoolstof": 4155,
      "aamd": 4156,
      "Ġfinanc": 4157,
      "lazen": 4158,
      "Ġdeb": 4159,
      "Ġleeuw": 4160,
      "Ġschilder": 4161,
      "Ġwinst": 4162,
      "Ġfor": 4163,
      "ida": 4164,
      "Ġelektrische": 4165,
      "ance": 4166,
      "Ġverteld": 4167,
      "aap": 4168,
      "Ġtegenover": 4169,
      "middag": 4170,
      "ki": 4171,
      "Ġgeheel": 4172,
      "Ġuiter": 4173,
      "Ġket": 4174,
      "Ġoppervlakte": 4175,
      "Ġnapoleon": 4176,
      "fot": 4177,
      "Ġsil": 4178,
      "otseling": 4179,
      "repen": 4180,
      "voet": 4181,
      "Ġronde": 4182,
      "Ġbewegen": 4183,
      "Ġleider": 4184,
      "Ġvrol": 4185,
      "Ġneg": 4186,
      "ruim": 4187,
      "Ġbuitenland": 4188,
      "Ġverde": 4189,
      "gend": 4190,
      "Ġliber": 4191,
      "elle": 4192,
      "95": 4193,
      "uchten": 4194,
      "ipp": 4195,
      "oond": 4196,
      "Ġbeen": 4197,
      "tiende": 4198,
      "hem": 4199,
      "cy": 4200,
      "Ġgat": 4201,
      "Ġvanavond": 4202,
      "regels": 4203,
      "Ġopgel": 4204,
      "Ġreizen": 4205,
      "entie": 4206,
      "Ġvuil": 4207,
      "Ġrust": 4208,
      "broek": 4209,
      "Ġgrij": 4210,
      "mming": 4211,
      "Ġstok": 4212,
      "Ġgrotere": 4213,
      "Ġbedre": 4214,
      "nik": 4215,
      "zal": 4216,
      "Ġzond": 4217,
      "Ġuitspraken": 4218,
      "Ġtheater": 4219,
      "Ġveiligheid": 4220,
      "dier": 4221,
      "ych": 4222,
      "Ġfragment": 4223,
      "Ġberoep": 4224,
      "Ġthee": 4225,
      "Ġbovendien": 4226,
      "iste": 4227,
      "Ġtouw": 4228,
      "Ġsen": 4229,
      "dor": 4230,
      "Ġwinn": 4231,
      "lam": 4232,
      "Ġzette": 4233,
      "muziek": 4234,
      "derik": 4235,
      "Ġjaarlijk": 4236,
      "Ġbepalen": 4237,
      "Ġzoekt": 4238,
      "Ġwinters": 4239,
      "anneke": 4240,
      "Ġhouten": 4241,
      "Ġ2021": 4242,
      "neem": 4243,
      "urende": 4244,
      "Ġfilos": 4245,
      "Ġvoorzichtig": 4246,
      "Ġwester": 4247,
      "Ġpakte": 4248,
      "Ġseconden": 4249,
      "ionele": 4250,
      "pas": 4251,
      ",-": 4252,
      "Ġgal": 4253,
      "igt": 4254,
      "Ġvertelde": 4255,
      "Ġonderzoeken": 4256,
      "geheten": 4257,
      "Ġveroorzaakt": 4258,
      "Ġvoelde": 4259,
      "uele": 4260,
      "Ġgroningen": 4261,
      "Ġpra": 4262,
      "ager": 4263,
      "Ġadri": 4264,
      "zz": 4265,
      "Ġontmoet": 4266,
      "aasd": 4267,
      "Ġlacht": 4268,
      "oma": 4269,
      "Ġgriekse": 4270,
      "Ġwerkte": 4271,
      "wedstrijd": 4272,
      "Ġbijzondere": 4273,
      "Ġlager": 4274,
      "ilde": 4275,
      "Ġrestaurant": 4276,
      "alisme": 4277,
      "Ġzogeheten": 4278,
      "uts": 4279,
      "Ġgehaald": 4280,
      "Ġduizenden": 4281,
      "Ġdaan": 4282,
      "Ġsing": 4283,
      "Ġverantwoord": 4284,
      "stein": 4285,
      "opend": 4286,
      "Ġmateriaal": 4287,
      "Ġkandid": 4288,
      "Ġoudste": 4289,
      "Ġtwaalf": 4290,
      "Ġschaal": 4291,
      "Ġstreep": 4292,
      "eres": 4293,
      "Ġvooruit": 4294,
      "wezen": 4295,
      "Ġcrimin": 4296,
      "Ġvrolijk": 4297,
      "hy": 4298,
      "Ġliefst": 4299,
      "Ġcel": 4300,
      "Ġoekraine": 4301,
      "Ġinsp": 4302,
      "omme": 4303,
      "com": 4304,
      "Ġslacht": 4305,
      "Ġafbeeldingen": 4306,
      "Ġmedic": 4307,
      "Ġmochten": 4308,
      "gez": 4309,
      "Ġliedje": 4310,
      "chr": 4311,
      "Ġuitzen": 4312,
      "Ġsaar": 4313,
      "Ġrivieren": 4314,
      "Ġbeest": 4315,
      "ournal": 4316,
      "Ġondersche": 4317,
      "Ġvoeten": 4318,
      "Ġ2003": 4319,
      "29": 4320,
      "soorten": 4321,
      "sters": 4322,
      "06": 4323,
      "Ġkaarten": 4324,
      "soort": 4325,
      "Ġtie": 4326,
      "Ġvertel": 4327,
      "bronnen": 4328,
      "chen": 4329,
      "Ġversie": 4330,
      "Ġbekijken": 4331,
      "Ġfruit": 4332,
      "zame": 4333,
      "Ġverandert": 4334,
      "aseerd": 4335,
      "Ġlever": 4336,
      "gebracht": 4337,
      "oorte": 4338,
      "Ġvloe": 4339,
      "nooi": 4340,
      "wijf": 4341,
      "jam": 4342,
      "ijen": 4343,
      "Ġverschijn": 4344,
      "Ġalcohol": 4345,
      "mene": 4346,
      "Ġafle": 4347,
      "Ġherinn": 4348,
      "Ġtype": 4349,
      "04": 4350,
      "peter": 4351,
      "Ġdoden": 4352,
      "Ġill": 4353,
      "elaar": 4354,
      "cip": 4355,
      "no": 4356,
      "ratische": 4357,
      "doet": 4358,
      "Ġzucht": 4359,
      "Ġturkije": 4360,
      "atische": 4361,
      "Ġ500": 4362,
      "Ġhiel": 4363,
      "Ġsturen": 4364,
      "steld": 4365,
      "istan": 4366,
      "aterdag": 4367,
      "Ġinder": 4368,
      "Ġkwijt": 4369,
      "iland": 4370,
      "Ġstukjes": 4371,
      "uters": 4372,
      "Ġregelmatig": 4373,
      "Ġloc": 4374,
      "Ġkranten": 4375,
      "Ġlot": 4376,
      "Ġ2023": 4377,
      "Ġstud": 4378,
      "Ġkonijn": 4379,
      "Ġelektriciteit": 4380,
      "gal": 4381,
      "Ġbrazil": 4382,
      "Ġoren": 4383,
      "skund": 4384,
      "Ġroo": 4385,
      "Ġcap": 4386,
      "tot": 4387,
      "Ġgraaf": 4388,
      "Ġflink": 4389,
      "juist": 4390,
      "Ġverdienen": 4391,
      "Ġ2001": 4392,
      "Ġeef": 4393,
      "oeid": 4394,
      "ile": 4395,
      "Ġvoelen": 4396,
      "Ġreclame": 4397,
      "pot": 4398,
      "Ġlad": 4399,
      "Ġgezin": 4400,
      "uwelijks": 4401,
      "Ġrijn": 4402,
      "Ġverliefd": 4403,
      "Ġslechte": 4404,
      "interklaas": 4405,
      "Ġeieren": 4406,
      "ified": 4407,
      "centrum": 4408,
      "Ġrekening": 4409,
      "anie": 4410,
      "Ġgeloven": 4411,
      "Ġverkoop": 4412,
      "Ġaardbe": 4413,
      "eters": 4414,
      "Ġaustralie": 4415,
      "sdag": 4416,
      "orgd": 4417,
      "Ġboerderij": 4418,
      "Ġhalve": 4419,
      "Ġbeschreven": 4420,
      "Ġbacterien": 4421,
      "Ġafgele": 4422,
      "indingen": 4423,
      "identified": 4424,
      "Ġvreemd": 4425,
      "Ġgasten": 4426,
      "utel": 4427,
      "Ġboekje": 4428,
      "Ġfabriek": 4429,
      "www": 4430,
      "Ġsy": 4431,
      "Ġbelasting": 4432,
      "gebieden": 4433,
      "Ġcorre": 4434,
      "?\"": 4435,
      "kijken": 4436,
      "Ġbart": 4437,
      "Ġaardig": 4438,
      "Ġgevorm": 4439,
      "kor": 4440,
      "Ġvel": 4441,
      "Ġbeurt": 4442,
      "unidentified": 4443,
      "Ġindones": 4444,
      "Ġthomas": 4445,
      "Ġnicolaas": 4446,
      "Ġvoorl": 4447,
      "Ġmaarten": 4448,
      "Ġ...-": 4449,
      "Ġorde": 4450,
      "jax": 4451,
      "Ġmassa": 4452,
      "Ġzicht": 4453,
      "Ġgaten": 4454,
      "Ġner": 4455,
      "isie": 4456,
      "Ġgrondwet": 4457,
      "beiders": 4458,
      "Ġmaag": 4459,
      "Ġconcent": 4460,
      "Ġvraagnummer": 4461,
      "lex": 4462,
      "sproken": 4463,
      "Ġbul": 4464,
      "Ġschad": 4465,
      "serv": 4466,
      "oordt": 4467,
      "Ġbem": 4468,
      "Ġscher": 4469,
      "Ġsub": 4470,
      "Ġeraan": 4471,
      "Ġgeschikt": 4472,
      "europa": 4473,
      "Ġoceaan": 4474,
      "comp": 4475,
      "kere": 4476,
      "Ġhok": 4477,
      "inke": 4478,
      "Ġmeth": 4479,
      "Ġtev": 4480,
      "Ġgebaseerd": 4481,
      "Ġhek": 4482,
      "Ġontwerp": 4483,
      "adem": 4484,
      "Ġsar": 4485,
      "ijnse": 4486,
      "grote": 4487,
      "Ġbedenken": 4488,
      "gaven": 4489,
      "Ġtest": 4490,
      "Ġchem": 4491,
      "ffrouw": 4492,
      "Â°": 4493,
      "Ġwoest": 4494,
      "Ġhersenen": 4495,
      "ith": 4496,
      "tekst": 4497,
      "Ġdolf": 4498,
      "Ġkim": 4499,
      "Ġtoegevoegd": 4500,
      "Ġbedrag": 4501,
      "Ġvertr": 4502,
      "Ġvierde": 4503,
      "president": 4504,
      "Ġglim": 4505,
      "Ġelf": 4506,
      "straat": 4507,
      "Ġmeen": 4508,
      "Ġindustrie": 4509,
      "Ġdig": 4510,
      "Ġwild": 4511,
      "eesten": 4512,
      "Ġvrede": 4513,
      "Ġschu": 4514,
      "lagen": 4515,
      "Ġkwaad": 4516,
      "Ġrelig": 4517,
      "view": 4518,
      "Ġpremier": 4519,
      "Ġgemakkelijk": 4520,
      "Ġmiddag": 4521,
      "Ġbeschrij": 4522,
      "Ġwijst": 4523,
      "Ġactiviteit": 4524,
      "Ġattractie": 4525,
      "Ġhonger": 4526,
      "hop": 4527,
      "124": 4528,
      "Ġgeopend": 4529,
      "Ġdichter": 4530,
      "taal": 4531,
      "Ġondertussen": 4532,
      "ierd": 4533,
      "Ġplotseling": 4534,
      "Ġbreed": 4535,
      "Ġslachtoff": 4536,
      "pad": 4537,
      "Ġjaap": 4538,
      "sol": 4539,
      "Ġverleden": 4540,
      "ianen": 4541,
      "Ġsymb": 4542,
      "Ġvos": 4543,
      "Ġzaterdag": 4544,
      "Ġtak": 4545,
      "Ġpod": 4546,
      "vester": 4547,
      "Ġtrots": 4548,
      "ppen": 4549,
      "Ġdou": 4550,
      "Ġmand": 4551,
      "istisch": 4552,
      "rif": 4553,
      "Ġgrapp": 4554,
      "Ġinderdaad": 4555,
      "Ġgehoord": 4556,
      "key": 4557,
      "Ġontsn": 4558,
      "Ġlastig": 4559,
      "Ġsterke": 4560,
      "toon": 4561,
      "Ġcontact": 4562,
      "Ġballon": 4563,
      "duits": 4564,
      "69": 4565,
      "Ġomzet": 4566,
      "Ġmiddeleeuwen": 4567,
      "Ġliepen": 4568,
      "Ġkabinet": 4569,
      "Ġzweden": 4570,
      "Ġkip": 4571,
      "ilanden": 4572,
      "Ġni": 4573,
      "Ġstroomt": 4574,
      "Ġbladzijde": 4575,
      "lu": 4576,
      "oeven": 4577,
      "Ġide": 4578,
      "gelaten": 4579,
      "Ġschiet": 4580,
      "Ġdavid": 4581,
      "Ġjer": 4582,
      "komsten": 4583,
      "Ġ70": 4584,
      "--": 4585,
      "Ġideeen": 4586,
      "Ġbehoor": 4587,
      "Ġwort": 4588,
      "Ġklok": 4589,
      "Ġbeoordeling": 4590,
      "middelen": 4591,
      "Ġoorspronkelijk": 4592,
      "31": 4593,
      "besch": 4594,
      "Ġvoedings": 4595,
      "kleur": 4596,
      "Ġmark": 4597,
      "Ġchristen": 4598,
      "Ġwijze": 4599,
      "plaatsen": 4600,
      "kar": 4601,
      "itser": 4602,
      "Ġgriekenland": 4603,
      "Ġverf": 4604,
      "imm": 4605,
      "wereld": 4606,
      "Ġminim": 4607,
      "Ġlage": 4608,
      "Ġduik": 4609,
      "Ġvocht": 4610,
      "veil": 4611,
      "Ġyou": 4612,
      "Ġuitgez": 4613,
      "Ġarchite": 4614,
      "kap": 4615,
      "opdracht": 4616,
      "Ġlukt": 4617,
      "Ġverslag": 4618,
      "Ġwetenschap": 4619,
      "Ġwa": 4620,
      "Ġrelatie": 4621,
      "Ġbezet": 4622,
      "Ġeffect": 4623,
      "Ġchinese": 4624,
      "Ġwapen": 4625,
      "geen": 4626,
      "Ġarbeids": 4627,
      "Ġsoep": 4628,
      "Ġpru": 4629,
      "reon": 4630,
      "Ġraken": 4631,
      "Ġgeboorte": 4632,
      "Ġrechten": 4633,
      "vraag": 4634,
      "Ġtal": 4635,
      "Ġvechten": 4636,
      "Ġarab": 4637,
      "Ġvoldoende": 4638,
      "jaard": 4639,
      "Ġzetels": 4640,
      "Ġrijke": 4641,
      "Ġharde": 4642,
      "Ġtelkens": 4643,
      "Ġhierna": 4644,
      "regelen": 4645,
      "press": 4646,
      "schuw": 4647,
      "Ġprin": 4648,
      "wis": 4649,
      "Ġbram": 4650,
      "klaar": 4651,
      "abeth": 4652,
      "Ġgeleerd": 4653,
      "verse": 4654,
      "Ġkrab": 4655,
      "ete": 4656,
      "Ġxiii": 4657,
      "ael": 4658,
      "Ġgewicht": 4659,
      "oris": 4660,
      "ijnt": 4661,
      "Ġbijen": 4662,
      "Ġcombin": 4663,
      "Ġstopt": 4664,
      "Ġofficiele": 4665,
      "Ġinsecten": 4666,
      "Ġtex": 4667,
      "vens": 4668,
      "Ġklap": 4669,
      "Ġnederlanden": 4670,
      "Ġoverleden": 4671,
      "Ġklass": 4672,
      "Ġheette": 4673,
      "ward": 4674,
      "Ġjournal": 4675,
      "Ġzwitser": 4676,
      "Ġverwijzen": 4677,
      "zullen": 4678,
      "Ġschoot": 4679,
      "Ġverbeter": 4680,
      "rieken": 4681,
      "Ġleidde": 4682,
      "Ġverbaasd": 4683,
      "Ġbevindt": 4684,
      "Ġkoen": 4685,
      "ografie": 4686,
      "Ġnoemt": 4687,
      "do": 4688,
      "kings": 4689,
      "Ġwijk": 4690,
      "Ġslaat": 4691,
      "assing": 4692,
      "Ġmexico": 4693,
      "Ġoverleed": 4694,
      "Ġcanada": 4695,
      "hoorn": 4696,
      "Ġduw": 4697,
      "Ġzui": 4698,
      "oets": 4699,
      "slaan": 4700,
      "Ġslaan": 4701,
      "63": 4702,
      "Ġanne": 4703,
      "Ġwarmte": 4704,
      "Ġsta": 4705,
      "Ġzeil": 4706,
      "breekt": 4707,
      "kosten": 4708,
      "Ġbenen": 4709,
      "zoals": 4710,
      "Ġbrengt": 4711,
      "festival": 4712,
      "standigheden": 4713,
      "Ġweekend": 4714,
      "Ġslaven": 4715,
      "holland": 4716,
      "Ġchristus": 4717,
      "Ġrit": 4718,
      "Ġdansen": 4719,
      "Ġhandig": 4720,
      "malige": 4721,
      "isole": 4722,
      "parte": 4723,
      "misschien": 4724,
      "Ġwijn": 4725,
      "ity": 4726,
      "Ġlas": 4727,
      "Ġgooien": 4728,
      "Ġvorig": 4729,
      "hoven": 4730,
      "Ġopstand": 4731,
      "zaken": 4732,
      "Ġoverw": 4733,
      "Ġamerikanen": 4734,
      "Ġtradit": 4735,
      "heeft": 4736,
      "vingen": 4737,
      "Ġkleinere": 4738,
      "Ġstak": 4739,
      "Ġverandering": 4740,
      "sem": 4741,
      "Ġlou": 4742,
      "Ġdin": 4743,
      "Ġafloop": 4744,
      "Ġil": 4745,
      "iem": 4746,
      "Ġdemocratie": 4747,
      "tijdens": 4748,
      "Ġroepen": 4749,
      "Ġvoorst": 4750,
      "Ġsna": 4751,
      "logen": 4752,
      "Ġastr": 4753,
      "rest": 4754,
      "Ġbladeren": 4755,
      "Ġduitsers": 4756,
      "Ġaardapp": 4757,
      "lied": 4758,
      "Ġzondag": 4759,
      "bi": 4760,
      "geteld": 4761,
      "Ġspreek": 4762,
      "Ġwk": 4763,
      "jul": 4764,
      "ianus": 4765,
      "stal": 4766,
      "Ġstruik": 4767,
      "omdat": 4768,
      "papa": 4769,
      "Ġraakte": 4770,
      "bedrijf": 4771,
      "Ġegypte": 4772,
      "Ġdet": 4773,
      "Ġheu": 4774,
      "Ġzoiets": 4775,
      "Ġbellen": 4776,
      "threon": 4777,
      "Ġacteur": 4778,
      "Ġstudenten": 4779,
      "Ġcentraal": 4780,
      "Ġwinkels": 4781,
      "Ġmun": 4782,
      "Ġkees": 4783,
      "ialen": 4784,
      "pakken": 4785,
      "ijm": 4786,
      "eerst": 4787,
      "Ġbrandweer": 4788,
      "erg": 4789,
      "Ġnationaal": 4790,
      "Ġris": 4791,
      "Ġsprook": 4792,
      "Ġdroom": 4793,
      "Ġzaal": 4794,
      "Ġnauwelijks": 4795,
      "Ġberoemde": 4796,
      "Ġplein": 4797,
      "terne": 4798,
      "Ġtoneelstuk": 4799,
      "Ġvoren": 4800,
      "ente": 4801,
      "Ġreageren": 4802,
      "otheek": 4803,
      "ueel": 4804,
      "Ġpad": 4805,
      "gek": 4806,
      "valyl": 4807,
      "Ġbetrek": 4808,
      "Ġann": 4809,
      "Ġvoorzien": 4810,
      "Ġportug": 4811,
      "boel": 4812,
      "Ġgegeten": 4813,
      "emarken": 4814,
      "go": 4815,
      "Ġajax": 4816,
      "Ġafhankelijk": 4817,
      "Ġcy": 4818,
      "Ġraar": 4819,
      "Ġvleug": 4820,
      "iaan": 4821,
      "vul": 4822,
      "zoeken": 4823,
      "Ġkoude": 4824,
      "Ġspelers": 4825,
      "har": 4826,
      "nij": 4827,
      "illa": 4828,
      "Ġcamera": 4829,
      "Ġref": 4830,
      "woordt": 4831,
      "stikke": 4832,
      "Ġknikt": 4833,
      "Ġgroeit": 4834,
      "Ġheilige": 4835,
      "waard": 4836,
      "Ġjack": 4837,
      "del": 4838,
      "rond": 4839,
      "Ġactief": 4840,
      "Ġaanb": 4841,
      "ilt": 4842,
      "Ġjezelf": 4843,
      "Ġbetre": 4844,
      "Ġkampioen": 4845,
      "schip": 4846,
      "Ġgi": 4847,
      "stens": 4848,
      "Ġspreekt": 4849,
      "Ġrende": 4850,
      "sluiten": 4851,
      "groepen": 4852,
      "47": 4853,
      "Ġbom": 4854,
      "Ġstaats": 4855,
      "Ġverbrand": 4856,
      "Ġtheorie": 4857,
      "Ġschreeuw": 4858,
      "Ġbezoekers": 4859,
      "Ġgratis": 4860,
      "vragen": 4861,
      "oming": 4862,
      "Ġbijlage": 4863,
      "Ġmoeite": 4864,
      "Ġwarme": 4865,
      "Ġsan": 4866,
      "Ġwetenschappers": 4867,
      "brengen": 4868,
      "Ġislam": 4869,
      "Ġalweer": 4870,
      "veen": 4871,
      "uiven": 4872,
      "Ġdiscus": 4873,
      "Ġconclusie": 4874,
      "oph": 4875,
      "Ġconstant": 4876,
      "ieen": 4877,
      "voering": 4878,
      "Ġhyp": 4879,
      "Ġdoc": 4880,
      "Ġstads": 4881,
      "Ġgelegen": 4882,
      "Ġjos": 4883,
      "Ġverga": 4884,
      "Ġlaura": 4885,
      "Ġboter": 4886,
      "hof": 4887,
      "Ġwiel": 4888,
      "kingen": 4889,
      "Ġleert": 4890,
      "aff": 4891,
      "randen": 4892,
      "unde": 4893,
      "Ġwedstrijden": 4894,
      "Ġmeet": 4895,
      "114": 4896,
      "Ġpret": 4897,
      "phen": 4898,
      "natuur": 4899,
      "Ġverdriet": 4900,
      "Ġschema": 4901,
      "Ġopzichte": 4902,
      "issie": 4903,
      "Ġadrianus": 4904,
      "kru": 4905,
      "Ġvies": 4906,
      "Ġgeplaatst": 4907,
      "Ġgekocht": 4908,
      "Ġfilips": 4909,
      "Ġonderzocht": 4910,
      "rel": 4911,
      "Ġnauw": 4912,
      "Ġanna": 4913,
      "Ġhaal": 4914,
      "Ġfact": 4915,
      "Ġnina": 4916,
      "nl": 4917,
      "Ġonderdelen": 4918,
      "Ġdist": 4919,
      "Ġjar": 4920,
      "Ġmes": 4921,
      "Ġklopt": 4922,
      "Ġbeker": 4923,
      "Ġbetaald": 4924,
      "Ġsinterklaas": 4925,
      "Ġstef": 4926,
      "Ġgit": 4927,
      "osc": 4928,
      "Ġbein": 4929,
      "Ġspell": 4930,
      "Ġverdwenen": 4931,
      "Ġcellen": 4932,
      "oging": 4933,
      "gelijke": 4934,
      "ochtend": 4935,
      "Ġzwaa": 4936,
      "Ġjuffrouw": 4937,
      "64": 4938,
      "feest": 4939,
      "asius": 4940,
      "Ġvoetballen": 4941,
      "Ġeng": 4942,
      "Ġdaarop": 4943,
      "Ġdagelijk": 4944,
      "Ġoef": 4945,
      "wekker": 4946,
      "Ġholland": 4947,
      "Ġgevangenis": 4948,
      "paard": 4949,
      "Ġted": 4950,
      "Ġhierin": 4951,
      "Ġthijs": 4952,
      "Ġgebeurtenissen": 4953,
      "bon": 4954,
      "Ġbeantwoord": 4955,
      "ny": 4956,
      "Ġvingers": 4957,
      "Ġjacob": 4958,
      "glutaminyl": 4959,
      "Ġleidt": 4960,
      "87": 4961,
      "Ġarme": 4962,
      "echt": 4963,
      "ld": 4964,
      "sing": 4965,
      "Ġbewoners": 4966,
      "Ġdraaide": 4967,
      "'m": 4968,
      "uzen": 4969,
      "apens": 4970,
      "Ġterm": 4971,
      "boekje": 4972,
      "vogel": 4973,
      "Ġcirkel": 4974,
      "Ġalbert": 4975,
      "Ġmiljoenen": 4976,
      "dio": 4977,
      "ric": 4978,
      "ames": 4979,
      "Ġschol": 4980,
      "Ġpepijn": 4981,
      "ea": 4982,
      "Ġwees": 4983,
      "gene": 4984,
      "nacht": 4985,
      "uctie": 4986,
      "Ġrook": 4987,
      "1276": 4988,
      "Ġtekeningen": 4989,
      "1045": 4990,
      "ini": 4991,
      "Ġschak": 4992,
      "Ġgezell": 4993,
      "Ġmiljard": 4994,
      "Ġstijl": 4995,
      "kunst": 4996,
      "Ġrecord": 4997,
      "Ġherkennen": 4998,
      "imen": 4999,
      "igers": 5000,
      "koek": 5001,
      "Ġhondje": 5002,
      "Ġeenvoud": 5003,
      "Ġbekeken": 5004,
      "stoel": 5005,
      "Ġsnoep": 5006,
      "Ġberoemd": 5007,
      "gs": 5008,
      "Ġhof": 5009,
      "Ġring": 5010,
      "gekomen": 5011,
      "Ġ32": 5012,
      "Ġkart": 5013,
      "iff": 5014,
      "afrika": 5015,
      "Ġverbonden": 5016,
      "Ġindruk": 5017,
      "groot": 5018,
      "Ġba": 5019,
      "grand": 5020,
      "krant": 5021,
      "Ġverspreid": 5022,
      "Ġtun": 5023,
      "Ġmac": 5024,
      "breken": 5025,
      "istof": 5026,
      "Ġbasisschool": 5027,
      "Ġvangen": 5028,
      "Ġkopje": 5029,
      "ning": 5030,
      "Ġnest": 5031,
      "rechten": 5032,
      "Ġbuitenlandse": 5033,
      "Ġpersoons": 5034,
      "Ġopdrachten": 5035,
      "lucht": 5036,
      "mond": 5037,
      "Ġuitv": 5038,
      "kie": 5039,
      "Ġverjaard": 5040,
      "ret": 5041,
      "landen": 5042,
      "Ġspanning": 5043,
      "beer": 5044,
      "Ġkoel": 5045,
      "schappelijke": 5046,
      "Ġhum": 5047,
      "Ġschild": 5048,
      "Ġstal": 5049,
      "Ġ45": 5050,
      "Ġtoev": 5051,
      "Ġschuld": 5052,
      "baarheid": 5053,
      "wan": 5054,
      "Ġlink": 5055,
      "Ġgevormd": 5056,
      "Ġleiding": 5057,
      "Ġprijzen": 5058,
      "):": 5059,
      "tingen": 5060,
      "snel": 5061,
      "ba": 5062,
      "Ġhap": 5063,
      "Ġoudere": 5064,
      "Ġhertog": 5065,
      "Ġ90": 5066,
      "Ġhan": 5067,
      "Ġkoeien": 5068,
      "Ġ2024": 5069,
      "don": 5070,
      "Ġliedjes": 5071,
      "Ġeefie": 5072,
      "Ġsign": 5073,
      "genoten": 5074,
      "onderzoek": 5075,
      "bevol": 5076,
      "Ġgre": 5077,
      "Ġtar": 5078,
      "Ġpuz": 5079,
      "Ġbranden": 5080,
      "Ġbena": 5081,
      "Ġmole": 5082,
      "Ġdraagt": 5083,
      "Ġeend": 5084,
      "Ġgeleid": 5085,
      "Ġresultaat": 5086,
      "Ġapparaat": 5087,
      "ash": 5088,
      "Ġaspecten": 5089,
      "aanderen": 5090,
      "Ġgedicht": 5091,
      "Ġdirecteur": 5092,
      "doek": 5093,
      "Ġuitgevoerd": 5094,
      "Ġvolt": 5095,
      "Ġgesprek": 5096,
      "Ġwoonden": 5097,
      "Ġmeegeteld": 5098,
      "Ġ33": 5099,
      "zorg": 5100,
      "inkeltje": 5101,
      "Ġnormale": 5102,
      "haar": 5103,
      "Ġhom": 5104,
      "emburg": 5105,
      "Ġvriendin": 5106,
      "antische": 5107,
      "km": 5108,
      "Ġjohan": 5109,
      "Ġspannend": 5110,
      "Ġkok": 5111,
      "osf": 5112,
      "redenen": 5113,
      "Ġhans": 5114,
      "ctievoor": 5115,
      "zus": 5116,
      "Ġverr": 5117,
      "Ġonver": 5118,
      "Ġangst": 5119,
      "Ġopeten": 5120,
      "imeter": 5121,
      "wijd": 5122,
      "Ġkro": 5123,
      "Ġsmaak": 5124,
      "gde": 5125,
      "Ġfort": 5126,
      "Ġmeedoen": 5127,
      "Ġ1999": 5128,
      "Ġontvangen": 5129,
      "Ġho": 5130,
      "week": 5131,
      "Ġeiwit": 5132,
      "threonyl": 5133,
      "ors": 5134,
      "Ġwezen": 5135,
      "Ġbrus": 5136,
      "volle": 5137,
      "Ġijsje": 5138,
      "gsel": 5139,
      "Ġhogere": 5140,
      "Ġsloot": 5141,
      "Ġzilver": 5142,
      "una": 5143,
      "Ġtrouwens": 5144,
      "Ġpool": 5145,
      "Ġexpl": 5146,
      "omot": 5147,
      "Ġwaaruit": 5148,
      "Ġvermoord": 5149,
      "Ġuitgebre": 5150,
      "Ġwagen": 5151,
      "Ġstat": 5152,
      "Ġshow": 5153,
      "Ġbewering": 5154,
      "breng": 5155,
      "Ġvaren": 5156,
      "Ġmig": 5157,
      "Ġpu": 5158,
      "Ġwassen": 5159,
      "Ġjood": 5160,
      "Ġass": 5161,
      "Ġantwoordt": 5162,
      "prol": 5163,
      "Ġlevert": 5164,
      "Ġverjaardag": 5165,
      "Ġvs": 5166,
      "eloos": 5167,
      "Ġondank": 5168,
      "Ġ36": 5169,
      "gebouw": 5170,
      "kwam": 5171,
      "zaal": 5172,
      "bur": 5173,
      "Ġdar": 5174,
      "Ġgeest": 5175,
      "Ġbruin": 5176,
      "Ġverloor": 5177,
      "Ġkeren": 5178,
      "othe": 5179,
      "Ġroute": 5180,
      "116": 5181,
      "Ġermee": 5182,
      "Ġloon": 5183,
      "ijns": 5184,
      "Ġbegrip": 5185,
      "ftal": 5186,
      "Ġtaart": 5187,
      "Ġaap": 5188,
      "zine": 5189,
      "Ġgedurende": 5190,
      "Ġtijden": 5191,
      "Ġgeit": 5192,
      "Ġmogelijke": 5193,
      "ington": 5194,
      "olven": 5195,
      "spl": 5196,
      "ette": 5197,
      "Ġminstens": 5198,
      "Ġresultaten": 5199,
      "samen": 5200,
      "Ġkomende": 5201,
      "aand": 5202,
      "Ġkilo": 5203,
      "lekker": 5204,
      "last": 5205,
      "Ġverhuis": 5206,
      "48": 5207,
      "Ġsluiten": 5208,
      "netjes": 5209,
      "Ġlegde": 5210,
      "rom": 5211,
      "Ġsom": 5212,
      "Ġaanval": 5213,
      "Ġdonald": 5214,
      "Ġzenuw": 5215,
      "ublike": 5216,
      "Ġlimburg": 5217,
      "Ġvoorwerp": 5218,
      "Ġwaterstof": 5219,
      "Ġliefde": 5220,
      "Ġarbeiders": 5221,
      "ande": 5222,
      "Ġgoo": 5223,
      "Ġtab": 5224,
      "verenig": 5225,
      "ukken": 5226,
      "ivisie": 5227,
      "Ġcate": 5228,
      "Ġmarokk": 5229,
      "Ġsong": 5230,
      "Ġspiegel": 5231,
      "Ġondanks": 5232,
      "cir": 5233,
      "Ġeerlijk": 5234,
      "instru": 5235,
      "ziek": 5236,
      "Ġzol": 5237,
      "iete": 5238,
      "agd": 5239,
      "Ġknoop": 5240,
      "Ġ150": 5241,
      "Ġlinker": 5242,
      "Ġbie": 5243,
      "Ġgast": 5244,
      "Ġkindje": 5245,
      "Ġdijk": 5246,
      "61": 5247,
      "193": 5248,
      "klim": 5249,
      "Ġleerling": 5250,
      "richting": 5251,
      "vissen": 5252,
      "externe": 5253,
      "Ġbeleid": 5254,
      "Ġjammer": 5255,
      "eedt": 5256,
      "bergen": 5257,
      "Ġemmer": 5258,
      "diep": 5259,
      "Ġprofes": 5260,
      "mog": 5261,
      "Ġwolken": 5262,
      "Ġek": 5263,
      "Ġschaat": 5264,
      "uel": 5265,
      "inie": 5266,
      "Ġvrijdag": 5267,
      "Ġvrijwel": 5268,
      "kies": 5269,
      "laten": 5270,
      "Ġtrouwde": 5271,
      "Ġgame": 5272,
      "Ġdrink": 5273,
      "Ġminuut": 5274,
      "Ġgods": 5275,
      "Ġgoederen": 5276,
      "duitsland": 5277,
      "Ġum": 5278,
      "Ġbut": 5279,
      "Ġcade": 5280,
      "Ġeuropees": 5281,
      "bos": 5282,
      "Ġazie": 5283,
      "Ġ*": 5284,
      "Ġbeschik": 5285,
      "jon": 5286,
      "rekt": 5287,
      "Ġmicro": 5288,
      "Ġmannetje": 5289,
      "Ġdonder": 5290,
      "Ġerf": 5291,
      "stroom": 5292,
      "Ġstreng": 5293,
      "arije": 5294,
      "Ġvoorsp": 5295,
      "stemming": 5296,
      "Ġbrazilie": 5297,
      "Ġitaliaanse": 5298,
      "Ġbedoeling": 5299,
      "Ġlo": 5300,
      "houder": 5301,
      "verhaal": 5302,
      "Ġserv": 5303,
      "rid": 5304,
      "Ġjust": 5305,
      "haald": 5306,
      "Ġgeve": 5307,
      "Ġschud": 5308,
      "Ġnogal": 5309,
      "Ġdenemarken": 5310,
      "blijf": 5311,
      "will": 5312,
      "amse": 5313,
      "Ġheks": 5314,
      "Ġhoed": 5315,
      "Ġrock": 5316,
      "Ġnaartoe": 5317,
      "âĢ": 5318,
      "orven": 5319,
      "denken": 5320,
      "Ġgenaamd": 5321,
      "Ġberlijn": 5322,
      "Ġzwee": 5323,
      "Ġri": 5324,
      "urk": 5325,
      "Ġtyp": 5326,
      "Ġnag": 5327,
      "Ġanim": 5328,
      "62": 5329,
      "Ġcele": 5330,
      "Ġontbreekt": 5331,
      "Ġvrucht": 5332,
      "Ġspringen": 5333,
      "Ġduurde": 5334,
      "uard": 5335,
      "ern": 5336,
      "seryl": 5337,
      "Ġron": 5338,
      "anger": 5339,
      "Ġverhoud": 5340,
      "Ġbezit": 5341,
      "pool": 5342,
      "gevonden": 5343,
      "tw": 5344,
      "Ġveranderde": 5345,
      "Ġmaatregelen": 5346,
      "oft": 5347,
      "Ġdarm": 5348,
      "Ġschouders": 5349,
      "ĨĴ": 5350,
      "\\\"": 5351,
      "Ġlood": 5352,
      "Ġgetal": 5353,
      "Ġdro": 5354,
      "Ġbil": 5355,
      "Ġsteekt": 5356,
      "Ġ1000": 5357,
      "Ġgepublic": 5358,
      "gin": 5359,
      "Ġsnap": 5360,
      "Ġverlaten": 5361,
      "Ġharen": 5362,
      "Ġkroon": 5363,
      "Ġsite": 5364,
      "Ġrak": 5365,
      "sprong": 5366,
      "deur": 5367,
      "Ġmiddelbare": 5368,
      "Ġlandschap": 5369,
      "Ġpil": 5370,
      "Ġstructuur": 5371,
      "ooster": 5372,
      "Ġverster": 5373,
      "Ġ300": 5374,
      "cast": 5375,
      "Ġtroon": 5376,
      "Ġinstrument": 5377,
      "Ġkre": 5378,
      "hallo": 5379,
      "tom": 5380,
      "Ġbereikt": 5381,
      "uim": 5382,
      "vering": 5383,
      "Ġwerkwoord": 5384,
      "maatschappij": 5385,
      "Ġhandels": 5386,
      "Ġbritten": 5387,
      "tele": 5388,
      "Ġap": 5389,
      "Ġhemel": 5390,
      "Ġavont": 5391,
      "zier": 5392,
      "Ġtoep": 5393,
      "stenen": 5394,
      "Ġsloeg": 5395,
      "geboren": 5396,
      "glyc": 5397,
      "Ġprakt": 5398,
      "Ġomgezet": 5399,
      "Ġzwembad": 5400,
      "mo": 5401,
      "Ġstudie": 5402,
      "vind": 5403,
      "Ġgeproduc": 5404,
      "Ġafkom": 5405,
      "Ġtrop": 5406,
      "Ġharry": 5407,
      "Ġportugal": 5408,
      "Ġgepubliceerd": 5409,
      "aft": 5410,
      "hard": 5411,
      "Ġing": 5412,
      "Ġvoorwerpen": 5413,
      "werkers": 5414,
      "Ġverplicht": 5415,
      "Ġonline": 5416,
      "98": 5417,
      "Ġinv": 5418,
      "Ġstierf": 5419,
      "isoleucyl": 5420,
      "cte": 5421,
      "Ġwisten": 5422,
      "rob": 5423,
      "ieuze": 5424,
      "Ġdek": 5425,
      "Ġvermeld": 5426,
      "Ġfc": 5427,
      "Ġsociaal": 5428,
      "prolyl": 5429,
      "ns": 5430,
      "Ġschoen": 5431,
      "tal": 5432,
      "Ġinterview": 5433,
      "Ġargumenten": 5434,
      "eg": 5435,
      "Ġbleven": 5436,
      "Ġborst": 5437,
      "genoot": 5438,
      "Ġproject": 5439,
      "Ġvloer": 5440,
      "Ġarn": 5441,
      "gebouwd": 5442,
      "Ġkarak": 5443,
      "mal": 5444,
      "sers": 5445,
      "Ġluid": 5446,
      "Ġvergel": 5447,
      "Ġhartstikke": 5448,
      "Ġdoll": 5449,
      "Ġridder": 5450,
      "Ġpal": 5451,
      "Ġraakt": 5452,
      "Ġvarken": 5453,
      "Ġpij": 5454,
      "uze": 5455,
      "igin": 5456,
      "Ġconfl": 5457,
      "Ġspringt": 5458,
      "hieronder": 5459,
      "Ġexperiment": 5460,
      "foto": 5461,
      "Ġdigit": 5462,
      "Ġ|": 5463,
      "Ġvoorkomt": 5464,
      "Ġoverstr": 5465,
      "Ġ1998": 5466,
      "Ġdemon": 5467,
      "Ġcity": 5468,
      "Ġlagen": 5469,
      "uzik": 5470,
      "Ġeeuwen": 5471,
      "vier": 5472,
      "Ġxiv": 5473,
      "Ġbegrijpen": 5474,
      "Ġierland": 5475,
      "65": 5476,
      "ivid": 5477,
      "Ġsleutel": 5478,
      "!!": 5479,
      "moeder": 5480,
      "oude": 5481,
      "Ġgehele": 5482,
      "Ġdraad": 5483,
      "Ġvielen": 5484,
      "schrijving": 5485,
      "dent": 5486,
      "Ġwaarna": 5487,
      "Ġtevreden": 5488,
      "Ġpolitici": 5489,
      "Ġsyn": 5490,
      "Ġvoordeel": 5491,
      "Ġmerk": 5492,
      "Ġveer": 5493,
      "genda": 5494,
      "frank": 5495,
      "Ġvit": 5496,
      "vest": 5497,
      "ulden": 5498,
      "Ġsw": 5499,
      "Ġredden": 5500,
      "Ġmusical": 5501,
      "Ġindonesie": 5502,
      "zers": 5503,
      "Ġharder": 5504,
      "spreek": 5505,
      "Ġcelest": 5506,
      "Ġku": 5507,
      "Ġstom": 5508,
      "Ġvolwassenen": 5509,
      "Ġglimla": 5510,
      "Ġvieren": 5511,
      "Ġpoten": 5512,
      "Ġmarc": 5513,
      "Ġmaterialen": 5514,
      "Ġmeerder": 5515,
      "Ġtwijf": 5516,
      "Ġgeg": 5517,
      "nieuws": 5518,
      "Ġnergens": 5519,
      "fa": 5520,
      "Ġther": 5521,
      "annie": 5522,
      "Ġrepublike": 5523,
      "Ġhonderden": 5524,
      "fran": 5525,
      "Ġaanget": 5526,
      "Ġwonder": 5527,
      "Ġbegra": 5528,
      "Ġontwikkeld": 5529,
      "anken": 5530,
      "Ġwoonde": 5531,
      "Ġmaandag": 5532,
      "jullie": 5533,
      "ipl": 5534,
      "Ġbehoort": 5535,
      "verschil": 5536,
      "Ġsprong": 5537,
      "Ġarbeid": 5538,
      "deling": 5539,
      "Ġpoot": 5540,
      "Ġduizend": 5541,
      "Ġuitgezonden": 5542,
      "ish": 5543,
      "Ġgepl": 5544,
      "irt": 5545,
      "skundigen": 5546,
      "Ġmees": 5547,
      "Ġ1990": 5548,
      "Ġvliegtuigen": 5549,
      "Ġheten": 5550,
      "Ġpinkeltje": 5551,
      "Ġlieve": 5552,
      "Ġbesmet": 5553,
      "Ġhoeven": 5554,
      "Ġzwitserland": 5555,
      "vide": 5556,
      "Ġmc": 5557,
      "chem": 5558,
      "Ġsixtus": 5559,
      "Ġcentimeter": 5560,
      "Ġtechniek": 5561,
      "Ġhitler": 5562,
      "Ġmas": 5563,
      "jech": 5564,
      "Ġmetaal": 5565,
      "Ġcat": 5566,
      "Ġfabrieken": 5567,
      "vestigd": 5568,
      "Ġvolledige": 5569,
      "Ġrobert": 5570,
      "Ġhu": 5571,
      "Ġkring": 5572,
      "heids": 5573,
      "Ġzulke": 5574,
      "'t": 5575,
      "Ġaar": 5576,
      "otten": 5577,
      "Ġvoorstelling": 5578,
      "Ġbevatten": 5579,
      "voed": 5580,
      "oeh": 5581,
      "Ġspeler": 5582,
      "Ġdiagram": 5583,
      "Ġvoert": 5584,
      "Ġuitdruk": 5585,
      "Ġsupermarkt": 5586,
      "Ġstandaard": 5587,
      "Ġolifant": 5588,
      "Ġtoel": 5589,
      "Ġnatuurlijke": 5590,
      "Ġafkomstig": 5591,
      "Ġcelestinus": 5592,
      "Ġklik": 5593,
      "Ġvernoemd": 5594,
      "Ġvari": 5595,
      "Ġglazen": 5596,
      "Ġkik": 5597,
      "Ġverschrik": 5598,
      "Ġleefde": 5599,
      "drukt": 5600,
      "Ġkoper": 5601,
      "kampioen": 5602,
      "urele": 5603,
      "zend": 5604,
      "Ġtrad": 5605,
      "hoeveel": 5606,
      "winkel": 5607,
      "Ġveert": 5608,
      "Ġstelde": 5609,
      "ction": 5610,
      "brug": 5611,
      "Ġluxemburg": 5612,
      "bord": 5613,
      "Ġafrik": 5614,
      "ouver": 5615,
      "Ġmerken": 5616,
      "Ġmop": 5617,
      "Ġsier": 5618,
      "Ġbetrokken": 5619,
      "Ġbeschad": 5620,
      "gestelde": 5621,
      "Ġcla": 5622,
      "Ġ190": 5623,
      "blok": 5624,
      "Ġpopulaire": 5625,
      "mensen": 5626,
      "Ġpercentage": 5627,
      "ott": 5628,
      "Ġkwaliteit": 5629,
      "bond": 5630,
      "ora": 5631,
      "Ġest": 5632,
      "Ġkanaal": 5633,
      "Ġconcentratie": 5634,
      "Ġeenmaal": 5635,
      "Ġkatten": 5636,
      "ight": 5637,
      "Ġcaf": 5638,
      "rak": 5639,
      "Ġkoopt": 5640,
      "schreven": 5641,
      "Ġoverige": 5642,
      "Ġbril": 5643,
      "Ġchocol": 5644,
      "Ġsat": 5645,
      "Ġopsomm": 5646,
      "ines": 5647,
      "partij": 5648,
      "Ġenz": 5649,
      "iti": 5650,
      "elende": 5651,
      "Ġcontra": 5652,
      "Ġople": 5653,
      "outen": 5654,
      "Ġgewond": 5655,
      "Ġgedragen": 5656,
      "Ġmode": 5657,
      "Ġhaast": 5658,
      "plein": 5659,
      "Ġfra": 5660,
      "Ġgene": 5661,
      "Ġgeslacht": 5662,
      "maakt": 5663,
      "aarten": 5664,
      "Ġvulkaan": 5665,
      "Ġopsomming": 5666,
      "Ġmaal": 5667,
      "onom": 5668,
      "Ġsas": 5669,
      "Ġbericht": 5670,
      "blijven": 5671,
      "Ġminer": 5672,
      "Ġviet": 5673,
      "Ġinteress": 5674,
      "Ġsven": 5675,
      "Ġverhaaltje": 5676,
      "poes": 5677,
      "Ġjapanse": 5678,
      "cult": 5679,
      "hout": 5680,
      "rice": 5681,
      "Ġrondje": 5682,
      "Ġemot": 5683,
      "clusief": 5684,
      "Ġprachtige": 5685,
      "asie": 5686,
      "Ġconcur": 5687,
      "pan": 5688,
      "Ġpijl": 5689,
      "Ġvluchten": 5690,
      "Ġsamenwerking": 5691,
      "Ġtrans": 5692,
      "verander": 5693,
      "Ġknikte": 5694,
      "Ġpsych": 5695,
      "Ġstik": 5696,
      "Ġindivid": 5697,
      "Ġtelt": 5698,
      "Ġlab": 5699,
      "eles": 5700,
      "Ġzakken": 5701,
      "Ġhoofdstuk": 5702,
      "Ġgrappig": 5703,
      "omingen": 5704,
      "Ġwetten": 5705,
      "Ġschilderijen": 5706,
      "kinderen": 5707,
      "reis": 5708,
      "orst": 5709,
      "Ġtevens": 5710,
      "opl": 5711,
      "Ġ34": 5712,
      "anks": 5713,
      "Ġvlug": 5714,
      "jaarden": 5715,
      "Ġstevig": 5716,
      "standen": 5717,
      "Ġvlinder": 5718,
      "Ġmomp": 5719,
      "Ġkeken": 5720,
      "Ġamerikaans": 5721,
      "Ġnoordelijke": 5722,
      "bli": 5723,
      "vriend": 5724,
      "tallen": 5725,
      "Ġwilli": 5726,
      "Ġnoorwegen": 5727,
      "worpen": 5728,
      "Ġsig": 5729,
      "Ġziel": 5730,
      "Ġopvallen": 5731,
      "igens": 5732,
      "ko": 5733,
      "Ġtrain": 5734,
      "Ġtentoon": 5735,
      "Ġbrussel": 5736,
      "gers": 5737,
      "Ġhob": 5738,
      "amide": 5739,
      "Ġfol": 5740,
      "Ġaanleiding": 5741,
      "Ġreus": 5742,
      "Ġhierboven": 5743,
      "vormen": 5744,
      "hebben": 5745,
      "alleen": 5746,
      "79": 5747,
      "Ġfilosof": 5748,
      "119": 5749,
      "Ġmunt": 5750,
      "Ġbede": 5751,
      "Ġnij": 5752,
      "Ġdiverse": 5753,
      "Ġmaatschappij": 5754,
      "Ġuren": 5755,
      "Ġkippen": 5756,
      "Ġpiep": 5757,
      "Ġgebleven": 5758,
      "trek": 5759,
      "Ġsurin": 5760,
      "Ġmm": 5761,
      "Ġwerkelijkheid": 5762,
      "hen": 5763,
      "Ġwapens": 5764,
      "Ġrekenen": 5765,
      "Ġkolonie": 5766,
      "Ġniels": 5767,
      "kool": 5768,
      "Ġwerknemers": 5769,
      "Ġmir": 5770,
      "Ġlee": 5771,
      "oensdag": 5772,
      "Ġnetjes": 5773,
      "Ġmiss": 5774,
      "Ġkunstenaar": 5775,
      "yse": 5776,
      "spelen": 5777,
      "britt": 5778,
      "Ġgedacht": 5779,
      "Ġhelaas": 5780,
      "Ġbritt": 5781,
      "Ġdiscussie": 5782,
      "atten": 5783,
      "Ġgroeide": 5784,
      "Ġbetekenen": 5785,
      "Ġcomputers": 5786,
      "agers": 5787,
      "Ġmeda": 5788,
      "ras": 5789,
      "Ġbrom": 5790,
      "Ġrisico": 5791,
      "Ġvergelijken": 5792,
      "wol": 5793,
      "gever": 5794,
      "bericht": 5795,
      "Ġglad": 5796,
      "Ġzuidelijke": 5797,
      "honden": 5798,
      "Ġhuur": 5799,
      "Ġbehoorlijk": 5800,
      "Ġmisl": 5801,
      "Ġprobeer": 5802,
      "Ġmichael": 5803,
      "Ġwoestijn": 5804,
      "44": 5805,
      "Ġplatte": 5806,
      "lig": 5807,
      "eefd": 5808,
      "Ġknip": 5809,
      "Ġspeelgoed": 5810,
      "Ġbewust": 5811,
      "500": 5812,
      "ei": 5813,
      "vast": 5814,
      "Ġbuis": 5815,
      "Ġjacht": 5816,
      "Ġprik": 5817,
      "uinen": 5818,
      "iano": 5819,
      "Ġgestolen": 5820,
      "Ġbrak": 5821,
      "Ġuitzending": 5822,
      "Ġrollen": 5823,
      "Ġnachts": 5824,
      "bs": 5825,
      "Ġvoorzitter": 5826,
      "Ġsteken": 5827,
      "mans": 5828,
      "Ġliteratuur": 5829,
      "Ġcentrale": 5830,
      "Ġopleiding": 5831,
      "Ġbeant": 5832,
      "helm": 5833,
      "Ġplaneet": 5834,
      "Ġgericht": 5835,
      "Ġwinnaar": 5836,
      "drie": 5837,
      "streep": 5838,
      "Ġjames": 5839,
      "Ġvreemde": 5840,
      "Ġgoden": 5841,
      "Ġjanneke": 5842,
      "vernij": 5843,
      "minste": 5844,
      "Ġvon": 5845,
      "Ġzaad": 5846,
      "Ġklonk": 5847,
      "Ġvoetball": 5848,
      "brabant": 5849,
      "Ġvolgde": 5850,
      "Ġpieter": 5851,
      "pelen": 5852,
      "oorde": 5853,
      "ago": 5854,
      "assa": 5855,
      "dioxide": 5856,
      "wanneer": 5857,
      "Ġarte": 5858,
      "Ġverscheen": 5859,
      "bomen": 5860,
      "pat": 5861,
      "Ġtreinen": 5862,
      "keurig": 5863,
      "Ġrich": 5864,
      "Ġwoning": 5865,
      "famil": 5866,
      "Ġmosk": 5867,
      "Ġopgev": 5868,
      "Ġstar": 5869,
      "Ġspaar": 5870,
      "Ġprop": 5871,
      "Ġelementen": 5872,
      "Ġvijand": 5873,
      "Ġgister": 5874,
      "Ġjoep": 5875,
      "ĠâĨĴ": 5876,
      "aamde": 5877,
      "Ġfries": 5878,
      "Ġoorspronkelijke": 5879,
      "Ġschouder": 5880,
      "bestuur": 5881,
      "uct": 5882,
      "Ġzodra": 5883,
      "waarden": 5884,
      "Ġgetallen": 5885,
      "Ġgeproduceerd": 5886,
      "Ġtong": 5887,
      "osla": 5888,
      "parag": 5889,
      "Ġtoernooi": 5890,
      "Ġmilitair": 5891,
      "Ġgroepje": 5892,
      "Ġeffe": 5893,
      "volgd": 5894,
      "Ġleefden": 5895,
      "ges": 5896,
      "Ġeduard": 5897,
      "eigen": 5898,
      "Ġopmer": 5899,
      "okod": 5900,
      "Ġonjuist": 5901,
      "Ġmilitaire": 5902,
      "Ġmeerderheid": 5903,
      "hele": 5904,
      "eteren": 5905,
      "straf": 5906,
      "Ġzeld": 5907,
      "Ġknap": 5908,
      "mot": 5909,
      "Ġbis": 5910,
      "Ġboog": 5911,
      "agne": 5912,
      "Ġplezier": 5913,
      "Ġvormt": 5914,
      "Ġdomin": 5915,
      "Ġsluit": 5916,
      "persoon": 5917,
      "Ġros": 5918,
      "Ġzoet": 5919,
      "Ġwaard": 5920,
      "gebroken": 5921,
      "Ġplak": 5922,
      "vlees": 5923,
      "westen": 5924,
      "ack": 5925,
      "Ġoefen": 5926,
      "gemene": 5927,
      "Ġopenbaar": 5928,
      "Ġdonkere": 5929,
      "Ġneerslag": 5930,
      "Ġgord": 5931,
      "Ġkarakter": 5932,
      "mooi": 5933,
      "est": 5934,
      "ring": 5935,
      "Ġoverzicht": 5936,
      "Ġdemocratische": 5937,
      "Ġrondom": 5938,
      "verten": 5939,
      "roffen": 5940,
      "sey": 5941,
      "arginyl": 5942,
      "Ġmeiden": 5943,
      "vader": 5944,
      "Ġvres": 5945,
      "Ġgeur": 5946,
      "86": 5947,
      "fect": 5948,
      "Ġhuisje": 5949,
      "Ġmogelijkheden": 5950,
      "Ġvoorlop": 5951,
      "oloog": 5952,
      "Ġkaartje": 5953,
      "selen": 5954,
      "Ġdna": 5955,
      "Ġdachten": 5956,
      "Ġgewerkt": 5957,
      "Ġ400": 5958,
      "Ġmoslim": 5959,
      "riere": 5960,
      "Ġpublic": 5961,
      "Ġopvol": 5962,
      "Ġreed": 5963,
      "kering": 5964,
      "Ġtoegekend": 5965,
      "Ġpassag": 5966,
      "Ġgekleur": 5967,
      "Ġgift": 5968,
      "Ġlukte": 5969,
      "Ġfranc": 5970,
      "Ġzachtjes": 5971,
      "bb": 5972,
      "Ġschuur": 5973,
      "Ġonderweg": 5974,
      "culen": 5975,
      "Ġlong": 5976,
      "Ġfransen": 5977,
      "eelt": 5978,
      "Ġelement": 5979,
      "Ġsymbool": 5980,
      "Ġeisen": 5981,
      "Ġspre": 5982,
      "woud": 5983,
      "Ġels": 5984,
      "Ġriet": 5985,
      "Ġ37": 5986,
      "Ġvloeistof": 5987,
      "Ġmolen": 5988,
      "reactie": 5989,
      "Ġantwerpen": 5990,
      "ppel": 5991,
      "rump": 5992,
      "Ġmuizen": 5993,
      "Ġbakker": 5994,
      "itische": 5995,
      "Ġzun": 5996,
      "tens": 5997,
      "vinden": 5998,
      "Ġdergelijke": 5999,
      "Ġmuzik": 6000,
      "Ġrijst": 6001,
      "koning": 6002,
      "1978": 6003,
      "Ġeugen": 6004,
      "Ġdwars": 6005,
      "Ġneut": 6006,
      "Ġverzorg": 6007,
      "Ġbevolkings": 6008,
      "Ġuitgang": 6009,
      "fig": 6010,
      "Ġ75": 6011,
      "organisatie": 6012,
      "Ġkandidaat": 6013,
      "aca": 6014,
      "Ġgezellig": 6015,
      "Ġuitst": 6016,
      "ouwing": 6017,
      "Ġnek": 6018,
      "Ġ...'": 6019,
      "Ġvarkens": 6020,
      "Ġsimon": 6021,
      "Ġvervolg": 6022,
      "atoren": 6023,
      "zettend": 6024,
      "Ġjaarlijks": 6025,
      "inning": 6026,
      "Ġ1980": 6027,
      "riv": 6028,
      "...-": 6029,
      "ime": 6030,
      "Ġeigenschappen": 6031,
      "Ġpuzzel": 6032,
      "ett": 6033,
      "onderd": 6034,
      "Ġarmoede": 6035,
      "Ġaz": 6036,
      "Ġslavernij": 6037,
      "Ġstopte": 6038,
      "Ġverantwoordelijk": 6039,
      "Ġlijnen": 6040,
      "Ġjezus": 6041,
      "Ġgo": 6042,
      "Ġvanzelf": 6043,
      "Ġmogelijkheid": 6044,
      "Ġbestaande": 6045,
      "zitten": 6046,
      "gorie": 6047,
      "arden": 6048,
      "aker": 6049,
      "ankelijke": 6050,
      "iii": 6051,
      "Ġoefenen": 6052,
      "Ġartemis": 6053,
      "ira": 6054,
      "Ġmetalen": 6055,
      "Ġplaten": 6056,
      "wedstrijden": 6057,
      "moe": 6058,
      "Ġgym": 6059,
      "rep": 6060,
      "Ġavonds": 6061,
      "Ġnoot": 6062,
      "Ġwerkloos": 6063,
      "yen": 6064,
      "zingen": 6065,
      "stil": 6066,
      "Ġramp": 6067,
      "Ġomroep": 6068,
      "Ġwc": 6069,
      "Ġisa": 6070,
      "Ġkoninklijke": 6071,
      "vakantie": 6072,
      "26": 6073,
      "Ġheleboel": 6074,
      "kundige": 6075,
      "kels": 6076,
      "Ġhut": 6077,
      "Ġhuwelijk": 6078,
      "Ġuitvoeren": 6079,
      "andere": 6080,
      "Ġident": 6081,
      "Ġantwoordde": 6082,
      "Ġstijgt": 6083,
      "Ġml": 6084,
      "ieve": 6085,
      "Ġtegenstelling": 6086,
      "meth": 6087,
      "Ġregent": 6088,
      "Ġzangeres": 6089,
      "geeft": 6090,
      "ziet": 6091,
      "ijker": 6092,
      "Ġwoensdag": 6093,
      "Ġstoom": 6094,
      "ionen": 6095,
      "Ġ1997": 6096,
      "Ġdankzij": 6097,
      "tre": 6098,
      "Ġwerking": 6099,
      "erden": 6100,
      "Ġgede": 6101,
      "eau": 6102,
      "Ġjulius": 6103,
      "Ġphil": 6104,
      "Ġgeneraal": 6105,
      "ilen": 6106,
      "Ġmaas": 6107,
      "Ġkunstenaars": 6108,
      "hington": 6109,
      "Ġboodschap": 6110,
      "wicht": 6111,
      "Ġpy": 6112,
      "isters": 6113,
      "Ġtotdat": 6114,
      "Ġeigenaar": 6115,
      "mes": 6116,
      "bure": 6117,
      "Ġgein": 6118,
      "voort": 6119,
      "Ġontstonden": 6120,
      "Ġgebeurtenis": 6121,
      "Ġprachtig": 6122,
      "cc": 6123,
      "eiden": 6124,
      "Ġzoog": 6125,
      "Ġwaarschuw": 6126,
      "Ġoplos": 6127,
      "Ġcorrectievoor": 6128,
      "Ġenth": 6129,
      "gener": 6130,
      "aspart": 6131,
      "Ġiris": 6132,
      "Ġbetere": 6133,
      "Ġpalest": 6134,
      "Ġhil": 6135,
      "derde": 6136,
      "Ġleveren": 6137,
      "Ġcorrectievoorschrift": 6138,
      "formule": 6139,
      "Ġslaapt": 6140,
      "Ġaft": 6141,
      "Ġerover": 6142,
      "Ġmengsel": 6143,
      "Ġnoteer": 6144,
      "kam": 6145,
      "Ġtaken": 6146,
      "Ġomstandigheden": 6147,
      "ienten": 6148,
      "mmm": 6149,
      "cor": 6150,
      "ias": 6151,
      "Ġvanmiddag": 6152,
      "Ġpatient": 6153,
      "Ġstikstof": 6154,
      "Ġkist": 6155,
      "Ġnazi": 6156,
      "Ġprima": 6157,
      "Ġvertegenwoordig": 6158,
      "Ġbob": 6159,
      "Ġvlaanderen": 6160,
      "Ġjarig": 6161,
      "oegosla": 6162,
      "Ġ1960": 6163,
      "Ġveranderingen": 6164,
      "ookt": 6165,
      "Ġtroepen": 6166,
      "fragment": 6167,
      "rib": 6168,
      "Ġcarol": 6169,
      "lor": 6170,
      "itter": 6171,
      "Ġslang": 6172,
      "orth": 6173,
      "auze": 6174,
      "Ġserg": 6175,
      "Ġmuren": 6176,
      "klas": 6177,
      "Ġbatter": 6178,
      "Ġvijftig": 6179,
      "stijd": 6180,
      "Ġspl": 6181,
      "Ġgrootte": 6182,
      "Ġlessen": 6183,
      "oscoop": 6184,
      "Ġbewee": 6185,
      "1605": 6186,
      "leider": 6187,
      "ount": 6188,
      "ute": 6189,
      "Ġep": 6190,
      "Ġspier": 6191,
      "Ġtenminste": 6192,
      "Ġadverten": 6193,
      "Ġnoemde": 6194,
      "Ġfav": 6195,
      "Ġbovenstaande": 6196,
      "Ġkruisje": 6197,
      "blie": 6198,
      "weten": 6199,
      "stam": 6200,
      "Ġgij": 6201,
      "Ġexport": 6202,
      "Ġgeraakt": 6203,
      "vorming": 6204,
      "45": 6205,
      "elder": 6206,
      "Ġwaarden": 6207,
      "Ġcombinatie": 6208,
      "uba": 6209,
      "Ġzaak": 6210,
      "Ġanast": 6211,
      "Ġbroers": 6212,
      "Ġdurf": 6213,
      "Ġenthous": 6214,
      "verm": 6215,
      "Ġmars": 6216,
      "Ġzanger": 6217,
      "hu": 6218,
      "rouwd": 6219,
      "systeem": 6220,
      "Ġfans": 6221,
      "Ġvlaamse": 6222,
      "buiten": 6223,
      "kten": 6224,
      "stok": 6225,
      "ites": 6226,
      "Ġalgemene": 6227,
      "Ġuitbre": 6228,
      "Ġgesteld": 6229,
      "Ġgooit": 6230,
      "gelegen": 6231,
      "Ġministerie": 6232,
      "Ġadvies": 6233,
      "lood": 6234,
      "stru": 6235,
      "Ġontvang": 6236,
      "glas": 6237,
      "digen": 6238,
      "kore": 6239,
      "Ġrut": 6240,
      "Ġontworpen": 6241,
      "Ġdagelijks": 6242,
      "Ġmont": 6243,
      "wijzen": 6244,
      "Ġvvd": 6245,
      "Ġbeat": 6246,
      "asparag": 6247,
      "Ġnep": 6248,
      "nemer": 6249,
      "51": 6250,
      "boer": 6251,
      "Ġsarah": 6252,
      "handel": 6253,
      "Ġreageer": 6254,
      "Ġcircus": 6255,
      "Ġklassieke": 6256,
      "ye": 6257,
      "Ġkanten": 6258,
      "not": 6259,
      "Ġoverigens": 6260,
      "Ġ1945": 6261,
      "Ġbehorende": 6262,
      "Ġwesterse": 6263,
      "Ġtrump": 6264,
      "Ġopvatting": 6265,
      "eerste": 6266,
      "Ġbruine": 6267,
      "Ġaandelen": 6268,
      "noord": 6269,
      "Ġfilmpjes": 6270,
      "Ġ1995": 6271,
      "iekem": 6272,
      "Ġbossen": 6273,
      "oxide": 6274,
      "81": 6275,
      "dicht": 6276,
      "Ġzelfstandig": 6277,
      "Ġdir": 6278,
      "Ġbin": 6279,
      "onken": 6280,
      "Ġschieten": 6281,
      "Ġbureau": 6282,
      "ugen": 6283,
      "Ġapen": 6284,
      "Ġstichting": 6285,
      "aaf": 6286,
      "vv": 6287,
      "Ġbenzine": 6288,
      "mannen": 6289,
      "Ġvuurwerk": 6290,
      "Ġgelukt": 6291,
      "Ġvrachtwagen": 6292,
      "Ġconcurr": 6293,
      "Ġkus": 6294,
      "onne": 6295,
      "Ġpuck": 6296,
      "Ġname": 6297,
      "Ġmedicijnen": 6298,
      "Ġstaal": 6299,
      "itein": 6300,
      "Ġappels": 6301,
      "Ġverzamelen": 6302,
      "Ġchec": 6303,
      "Ġblijf": 6304,
      "Ġrente": 6305,
      "ertijd": 6306,
      "Ġkoos": 6307,
      "Ġsab": 6308,
      "schrijven": 6309,
      "Ġdichtbij": 6310,
      "Ġverdwijnen": 6311,
      "Ġkatholieke": 6312,
      "Ġtro": 6313,
      "Ġresp": 6314,
      "Ġkwal": 6315,
      "aardigheden": 6316,
      "Ġslachtoffers": 6317,
      "steken": 6318,
      "Ġlekk": 6319,
      "izabeth": 6320,
      "Ġcommunic": 6321,
      "Ġbevinden": 6322,
      "Ġgitaar": 6323,
      "fst": 6324,
      "ijdt": 6325,
      "Ġtap": 6326,
      "Ġzwak": 6327,
      "Ġhelp": 6328,
      "Ġtellen": 6329,
      "eeen": 6330,
      "Ġpoliticus": 6331,
      "Ġernstig": 6332,
      "Ġgrijs": 6333,
      "valt": 6334,
      "Ġuitgest": 6335,
      "houdt": 6336,
      "fond": 6337,
      "wal": 6338,
      "Ġanton": 6339,
      "Ġachtergrond": 6340,
      "Ġkaartjes": 6341,
      "ita": 6342,
      "Ġgered": 6343,
      "Ġuitgebreid": 6344,
      "iders": 6345,
      "stijl": 6346,
      "Ġontzettend": 6347,
      "graven": 6348,
      "Ġhopen": 6349,
      "aringen": 6350,
      "vergelijk": 6351,
      "planten": 6352,
      "Ġstraten": 6353,
      "Ġcijfer": 6354,
      "Ġvleugels": 6355,
      "Ġverhouding": 6356,
      "stij": 6357,
      "oemenie": 6358,
      "Ġwashington": 6359,
      "meis": 6360,
      "galerij": 6361,
      "riften": 6362,
      "Ġdiam": 6363,
      "Ġcris": 6364,
      "Ġgemeten": 6365,
      "Ġbrandstof": 6366,
      "Ġgeweldig": 6367,
      "Ġtsjech": 6368,
      "hankelijke": 6369,
      "Ġevent": 6370,
      "Ġbibli": 6371,
      "glycyl": 6372,
      "ague": 6373,
      "zeeland": 6374,
      "Ġafgeleid": 6375,
      "asparaginyl": 6376,
      "dro": 6377,
      "Ġniveau": 6378,
      "lezen": 6379,
      "Ġaandeel": 6380,
      "Ġverwoest": 6381,
      "Ġpotter": 6382,
      "Ġapart": 6383,
      "Ġvoorbere": 6384,
      "Ġgehoor": 6385,
      "Ġrace": 6386,
      "Ġmooiste": 6387,
      "vertel": 6388,
      "Ġzichtbaar": 6389,
      "aarden": 6390,
      "geet": 6391,
      "Ġplas": 6392,
      "Ġgelezen": 6393,
      "Ġgestuurd": 6394,
      "bes": 6395,
      "Ġklank": 6396,
      "Ġhistorische": 6397,
      "isa": 6398,
      "Ġinleiding": 6399,
      "Ġmonarch": 6400,
      "uster": 6401,
      "crimin": 6402,
      "Ġbeantwoorden": 6403,
      "Ġlijf": 6404,
      "Ġsteek": 6405,
      "Ġverle": 6406,
      "jeblie": 6407,
      "ulf": 6408,
      "Ġwaaraan": 6409,
      "Ġwaarvoor": 6410,
      "Ġcontrol": 6411,
      "Ġreageert": 6412,
      "Ġbier": 6413,
      "Ġjose": 6414,
      "raft": 6415,
      "Ġafsche": 6416,
      "industrie": 6417,
      "icus": 6418,
      "Ġorigin": 6419,
      "Ġabsol": 6420,
      "Ġkareltje": 6421,
      "Ġpvda": 6422,
      "stalige": 6423,
      "Ġmelod": 6424,
      "964": 6425,
      "Ġroze": 6426,
      "Ġpel": 6427,
      "Ġfen": 6428,
      "Ġsamenvatting": 6429,
      "Ġverdrag": 6430,
      "Ġ1996": 6431,
      "Ġproduceren": 6432,
      "Ġmakkelijker": 6433,
      "Ġkoken": 6434,
      "Ġfinanciele": 6435,
      "Ġvaart": 6436,
      "raden": 6437,
      "Ġstiekem": 6438,
      "Ġluchthaven": 6439,
      "Ġklimmen": 6440,
      "dert": 6441,
      "schak": 6442,
      "Ġaanwez": 6443,
      "Ġcharles": 6444,
      "896": 6445,
      "Ġmate": 6446,
      "Ġgun": 6447,
      "Ġoorzaken": 6448,
      "uizend": 6449,
      "Ġhonorius": 6450,
      "vaten": 6451,
      "Ġpoet": 6452,
      "Ġknop": 6453,
      "Ġuitgebracht": 6454,
      "playm": 6455,
      "Ġrap": 6456,
      "present": 6457,
      "cuul": 6458,
      "Ġverdedig": 6459,
      "Ġdode": 6460,
      "Ġvoormalige": 6461,
      "Ġbotten": 6462,
      "Ġrobot": 6463,
      "ruimte": 6464,
      "gier": 6465,
      "Ġmodder": 6466,
      "Ġkarton": 6467,
      "827": 6468,
      "Ġtikt": 6469,
      "ooft": 6470,
      "Ġsteven": 6471,
      "Ġeugenius": 6472,
      "Ġanastasius": 6473,
      "35": 6474,
      "Ġverzet": 6475,
      "so": 6476,
      "zinn": 6477,
      "iliteit": 6478,
      "adel": 6479,
      "Ġmonster": 6480,
      "Ġsergius": 6481,
      "jeblieft": 6482,
      "Ġfase": 6483,
      "tem": 6484,
      "Ġtoenemen": 6485,
      "Ġit": 6486,
      "iesten": 6487,
      "Ġgesl": 6488,
      "Ġ38": 6489,
      "1503": 6490,
      "hoewel": 6491,
      "Ġworld": 6492,
      "Ġweerstand": 6493,
      "1555": 6494,
      "Ġstraal": 6495,
      "arium": 6496,
      "Ġnamens": 6497,
      "playmate": 6498,
      "Ġtonen": 6499,
      "Ġzeeland": 6500,
      "Ġdief": 6501,
      "enthe": 6502,
      "Ġfavor": 6503,
      "mater": 6504,
      "ctief": 6505,
      "1187": 6506,
      "1590": 6507,
      "Ġopgepakt": 6508,
      "glutamyl": 6509,
      "Ġtuur": 6510,
      "omb": 6511,
      "Ġfris": 6512,
      "familie": 6513,
      "Ġdrank": 6514,
      "Ġwim": 6515,
      "ffeur": 6516,
      "Ġopening": 6517,
      "Ġheerlijk": 6518,
      "Ġtegenstanders": 6519,
      "Ġinh": 6520,
      "Ġrobbie": 6521,
      "Ġzsa": 6522,
      "okee": 6523,
      "Ġcru": 6524,
      "Ġwoordenboek": 6525,
      "Ġheuvel": 6526,
      "put": 6527,
      "kes": 6528,
      "Ġklei": 6529,
      "Ġgeorganis": 6530,
      "Ġrapp": 6531,
      "Ġgraan": 6532,
      "Ġschrijvers": 6533,
      "Ġgeheime": 6534,
      "lid": 6535,
      "Ġschapen": 6536,
      "Ġ67": 6537,
      "Ġfeder": 6538,
      "Ġdunne": 6539,
      "brittannie": 6540,
      "%.": 6541,
      "buurt": 6542,
      "ano": 6543,
      "arab": 6544,
      "Ġonge": 6545,
      "Ġbijbel": 6546,
      "auffeur": 6547,
      "Ġpopp": 6548,
      "kanen": 6549,
      "Ġvertrouwen": 6550,
      "Ġvoorstel": 6551,
      "eeuwse": 6552,
      "toch": 6553,
      "Ġenzo": 6554,
      "Ġaanp": 6555,
      "kerk": 6556,
      "Ġverwarm": 6557,
      "Ġheren": 6558,
      "Ġoverleven": 6559,
      "Ġwereldkampioen": 6560,
      "kathol": 6561,
      "Ġtijger": 6562,
      "Ġscholieren": 6563,
      "jen": 6564,
      "lamp": 6565,
      "Ġvee": 6566,
      "Ġaparte": 6567,
      "gedaan": 6568,
      "stien": 6569,
      "uilen": 6570,
      "Ġkenmerk": 6571,
      "Ġboodschappen": 6572,
      "Ġfluisterde": 6573,
      "97": 6574,
      "Ġaanhang": 6575,
      "Ġgluc": 6576,
      "Ġgroente": 6577,
      "zijd": 6578,
      "alb": 6579,
      "illy": 6580,
      "Ġstudio": 6581,
      "Ġwijs": 6582,
      "Ġbig": 6583,
      "Ġtu": 6584,
      "Ġpie": 6585,
      "Ġpim": 6586,
      "Ġonderwerpen": 6587,
      "Ġbegraven": 6588,
      "Ġtol": 6589,
      "wikkel": 6590,
      "Ġsaint": 6591,
      "Ġmunten": 6592,
      "iev": 6593,
      "Ġsuz": 6594,
      "Ġjoegosla": 6595,
      "Ġvoorstellen": 6596,
      "Ġverbeteren": 6597,
      "iana": 6598,
      "Ġkiest": 6599,
      "Ġzomers": 6600,
      "Ġvietnam": 6601,
      "sinds": 6602,
      "wiel": 6603,
      "Ġ)": 6604,
      "Ġgemeenter": 6605,
      "Ġversl": 6606,
      "Ġmarokko": 6607,
      "Ġmeegenomen": 6608,
      "serie": 6609,
      "Ġadel": 6610,
      "Ġ1992": 6611,
      "engels": 6612,
      "dragen": 6613,
      "Ġwaa": 6614,
      "Ġlive": 6615,
      "Ġfan": 6616,
      "Ġmannetjes": 6617,
      "Ġprincip": 6618,
      "Ġpersoonsvorm": 6619,
      "Ġcafe": 6620,
      "sbe": 6621,
      "Ġgekeken": 6622,
      "Ġdertig": 6623,
      "Ġconcert": 6624,
      "warm": 6625,
      "Ġpoe": 6626,
      "Ġerger": 6627,
      "Ġvrouwtje": 6628,
      "Ġstude": 6629,
      "Â²": 6630,
      "Ġburen": 6631,
      "Ġade": 6632,
      "Ġgerard": 6633,
      "aus": 6634,
      "Ġscherm": 6635,
      "Ġafsch": 6636,
      "Ġstapte": 6637,
      "Ġseconde": 6638,
      "mod": 6639,
      "beid": 6640,
      "Ġbelast": 6641,
      "Ġspieren": 6642,
      "Ġverstopt": 6643,
      "sluiting": 6644,
      "krij": 6645,
      "staten": 6646,
      "Ġafg": 6647,
      "Ġwerkwoorden": 6648,
      "Ġverliezen": 6649,
      "ÂłÂłÂłÂł": 6650,
      "Ġpassagiers": 6651,
      "Ġmult": 6652,
      "Ġinf": 6653,
      "Ġspin": 6654,
      "Ġprim": 6655,
      "Ġargent": 6656,
      "Ġburgeroorlog": 6657,
      "Ġdeskundigen": 6658,
      "Ġdollar": 6659,
      "Ġchocolade": 6660,
      "hangen": 6661,
      "Ġantwoordblad": 6662,
      "Ġsommigen": 6663,
      "Ġafgebeeld": 6664,
      "sam": 6665,
      "Ġaward": 6666,
      "Ġbert": 6667,
      "Ġsprak": 6668,
      "Ġzogenaamde": 6669,
      "agt": 6670,
      "Ġtour": 6671,
      "Ġbegele": 6672,
      "wijze": 6673,
      "stukken": 6674,
      "Ġpomp": 6675,
      "Ġheft": 6676,
      "Ġvloog": 6677,
      "ustri": 6678,
      "Ġimmers": 6679,
      "cirkel": 6680,
      "Ġbesliss": 6681,
      "Ġfuncties": 6682,
      "vogels": 6683,
      "Ġtegenstander": 6684,
      "ror": 6685,
      "outer": 6686,
      "Ġtranen": 6687,
      "Ġlege": 6688,
      "Ġexp": 6689,
      "Ġgetrouwd": 6690,
      "Ġleraar": 6691,
      "Ġdinosaur": 6692,
      "Ġverniet": 6693,
      "Ġstroming": 6694,
      "letjes": 6695,
      "natuurlijk": 6696,
      "telijke": 6697,
      "stellingen": 6698,
      "rijke": 6699,
      "wand": 6700,
      "ales": 6701,
      "Ġsterker": 6702,
      "Ġpoppen": 6703,
      "tas": 6704,
      "rec": 6705,
      "kanaal": 6706,
      "Ġkoolstofdioxide": 6707,
      "Ġmethode": 6708,
      "Ġ65": 6709,
      "Ġflor": 6710,
      "Ġverwijst": 6711,
      "ouverne": 6712,
      "vels": 6713,
      "Ġbanden": 6714,
      "Ġgee": 6715,
      "Ġkeel": 6716,
      "Ġnut": 6717,
      "Ġgef": 6718,
      "Ġleague": 6719,
      "urend": 6720,
      "letter": 6721,
      "Ġspoorweg": 6722,
      "Ġandre": 6723,
      "Ġpiramide": 6724,
      "mogelijk": 6725,
      "Ġklanten": 6726,
      "Ġatlas": 6727,
      "Ġgrenzen": 6728,
      "Ġjoodse": 6729,
      "mam": 6730,
      "Ġeit": 6731,
      "ners": 6732,
      "pels": 6733,
      "ules": 6734,
      "Ġhorm": 6735,
      "Ġfrederik": 6736,
      "Ġafrikaanse": 6737,
      "Ġelftal": 6738,
      "Ġevenwicht": 6739,
      "Ġinspir": 6740,
      "Ġexplos": 6741,
      "Ġdigitale": 6742,
      "bor": 6743,
      "ega": 6744,
      "ĠÂłÂłÂłÂł": 6745,
      "Ġdj": 6746,
      "Ġelizabeth": 6747,
      "horen": 6748,
      "Ġboord": 6749,
      "Ġlepel": 6750,
      "Ġsporten": 6751,
      "Ġmachines": 6752,
      "ek": 6753,
      "zuid": 6754,
      "Ġbewijs": 6755,
      "Ġbeschouwd": 6756,
      "keld": 6757,
      "lijnen": 6758,
      "Ġaanzien": 6759,
      "Ġmerel": 6760,
      "Ġveroorzaken": 6761,
      "Ġhop": 6762,
      "Ġcast": 6763,
      "Ġtwintigste": 6764,
      "basis": 6765,
      "Ġvuilnis": 6766,
      "iast": 6767,
      "leet": 6768,
      "rict": 6769,
      "Ġbetreft": 6770,
      "sting": 6771,
      "Ġrub": 6772,
      "Ġontwikkelen": 6773,
      "Ġgemeenteraad": 6774,
      "win": 6775,
      "Ġec": 6776,
      "schoenen": 6777,
      "ume": 6778,
      "Ġgraven": 6779,
      "beleid": 6780,
      "zwe": 6781,
      "Ġontbij": 6782,
      "Ġsnelle": 6783,
      "Ġtientallen": 6784,
      "Ġbevrijd": 6785,
      "Ġpositieve": 6786,
      "Ġby": 6787,
      "dagen": 6788,
      "Ġgelegd": 6789,
      "Ġcrisis": 6790,
      "boog": 6791,
      "Ġnijl": 6792,
      "Ġbewaard": 6793,
      "Ġpresentatie": 6794,
      "Ġgrijze": 6795,
      "Ġrichard": 6796,
      "Ġmoed": 6797,
      "Ġallen": 6798,
      "gegaan": 6799,
      "Ġlagere": 6800,
      "Ġconsumenten": 6801,
      "Ġtok": 6802,
      "isatie": 6803,
      "Ġwerkst": 6804,
      "mail": 6805,
      "Ġkeur": 6806,
      "wegingen": 6807,
      "Ġkantoor": 6808,
      "huh": 6809,
      "Ġtoename": 6810,
      "Ġrooms": 6811,
      "Ġbinnenkort": 6812,
      "Ġbetekende": 6813,
      "soc": 6814,
      "voeg": 6815,
      "Ġcou": 6816,
      "Ġfestival": 6817,
      "Ġtoets": 6818,
      "los": 6819,
      "raak": 6820,
      "draal": 6821,
      "Ġaandoen": 6822,
      "maker": 6823,
      "sd": 6824,
      "spart": 6825,
      "papier": 6826,
      "Éĳ": 6827,
      "Ġillustr": 6828,
      "verandering": 6829,
      "Ġeb": 6830,
      "idingen": 6831,
      "hedraal": 6832,
      "daagse": 6833,
      "Ġstapt": 6834,
      "Ġopbreng": 6835,
      "Ġverzeker": 6836,
      "Ġond": 6837,
      "Ġaangelegd": 6838,
      "Ġschem": 6839,
      "lin": 6840,
      "Ġcur": 6841,
      "iaans": 6842,
      "jer": 6843,
      "Ġwilhelm": 6844,
      "Ġsnor": 6845,
      "neming": 6846,
      "Ġpier": 6847,
      "ogra": 6848,
      "Ġimmig": 6849,
      "zels": 6850,
      "Ġwereldwijd": 6851,
      "Ġ1994": 6852,
      "Ġkoekje": 6853,
      "37": 6854,
      "ylor": 6855,
      "Ġgedachten": 6856,
      "Ġyyy": 6857,
      "Ġgeschrokken": 6858,
      "Ġmobiel": 6859,
      "aid": 6860,
      "azie": 6861,
      "Ġson": 6862,
      "Ġverdiep": 6863,
      "ado": 6864,
      "insdag": 6865,
      "Ġboterham": 6866,
      "Ġkussen": 6867,
      "schop": 6868,
      "Ġleen": 6869,
      "Ġontwerpen": 6870,
      "rix": 6871,
      "films": 6872,
      "cijf": 6873,
      "lands": 6874,
      "Ġblokken": 6875,
      "Ġgaven": 6876,
      "Ġspanjaarden": 6877,
      "Ġfelix": 6878,
      "É¨": 6879,
      "Ġ250": 6880,
      "ootje": 6881,
      "Ġtweel": 6882,
      "Ġopvolger": 6883,
      "Ġlieten": 6884,
      "beschrijf": 6885,
      "Ġcontin": 6886,
      "Ġgames": 6887,
      "Ġjoris": 6888,
      "Ġmeten": 6889,
      "tern": 6890,
      "Ġijssel": 6891,
      "matige": 6892,
      "Ġdal": 6893,
      "Ġkrokod": 6894,
      "oogd": 6895,
      "Ġwaal": 6896,
      "Ġorganisaties": 6897,
      "allemaal": 6898,
      "olpen": 6899,
      "Ġ42": 6900,
      "Ġholly": 6901,
      "Ġvie": 6902,
      "Ġ180": 6903,
      "vroe": 6904,
      "Ġnr": 6905,
      "Ġpiz": 6906,
      "Ġachteruit": 6907,
      "schepen": 6908,
      "Ġplatt": 6909,
      "Ġjacks": 6910,
      "Ġpersonages": 6911,
      "producten": 6912,
      "phenylalanyl": 6913,
      "had": 6914,
      "merkt": 6915,
      "Ġhals": 6916,
      "Ġsir": 6917,
      "Ġpotje": 6918,
      "Ġfred": 6919,
      "Ġvergeet": 6920,
      "Ġtraditionele": 6921,
      "Ġdui": 6922,
      "Ġschaap": 6923,
      "verdeling": 6924,
      "Ġroe": 6925,
      "Ġvernieuw": 6926,
      "Ġboet": 6927,
      "Ġvoordelen": 6928,
      "Ġaanvallen": 6929,
      "Ġverslagen": 6930,
      "schil": 6931,
      "Ġcode": 6932,
      "geleken": 6933,
      "Ġcalif": 6934,
      "Ġkamers": 6935,
      "ace": 6936,
      "Ġ1989": 6937,
      "Ġbedoelt": 6938,
      "Ġjournalist": 6939,
      "Ġlippen": 6940,
      "Ġtermijn": 6941,
      "Ġchamp": 6942,
      "Ġvroege": 6943,
      "Ġhoriz": 6944,
      "idt": 6945,
      "tenaren": 6946,
      "Ġbetrekking": 6947,
      "Ġvereniging": 6948,
      "Ġverdrietig": 6949,
      "ios": 6950,
      "Ġveen": 6951,
      "Ġopzij": 6952,
      "leer": 6953,
      "ruchten": 6954,
      "alex": 6955,
      "appel": 6956,
      "Ġkunstwerk": 6957,
      "Ġvoortd": 6958,
      "Ġschotland": 6959,
      "honderd": 6960,
      "Ġ1970": 6961,
      "vliegt": 6962,
      "Ġwissel": 6963,
      "fabriek": 6964,
      "velden": 6965,
      "informatie": 6966,
      "Ġafspraken": 6967,
      "Ġjagen": 6968,
      "europese": 6969,
      "keten": 6970,
      "sne": 6971,
      "fteling": 6972,
      "Ġ1900": 6973,
      "Ġtransport": 6974,
      "fabet": 6975,
      "leuk": 6976,
      "Ġsindsdien": 6977,
      "Ġgeint": 6978,
      "Ġdoorgaan": 6979,
      "Ġfiguren": 6980,
      "Ġbezoeken": 6981,
      "Ġgereg": 6982,
      "opter": 6983,
      "Ġplus": 6984,
      "Ġsingle": 6985,
      "Ġaardbeving": 6986,
      "Ġplatteland": 6987,
      "Ġaren": 6988,
      "Ġzwav": 6989,
      "Ġmonument": 6990,
      "Ġcalc": 6991,
      "Ġvluchtelingen": 6992,
      "Ġglucose": 6993,
      "soms": 6994,
      "Ġdalen": 6995,
      "anje": 6996,
      "ogie": 6997,
      "schat": 6998,
      "Ġgebruikten": 6999,
      "Ġslap": 7000,
      "vanaf": 7001,
      "halte": 7002,
      "meel": 7003,
      "sels": 7004,
      "Ġware": 7005,
      "wek": 7006,
      "Ġkapitein": 7007,
      "Ġlening": 7008,
      "Ġcommunistische": 7009,
      "Ġactiviteiten": 7010,
      "bab": 7011,
      "Ã¸": 7012,
      "Ġduren": 7013,
      "inium": 7014,
      "Ġingang": 7015,
      "Ġzover": 7016,
      "Ġblaad": 7017,
      "speler": 7018,
      "Ġvoorlopig": 7019,
      "Ġaqu": 7020,
      "Ġmaatschappelijke": 7021,
      "bureau": 7022,
      "boem": 7023,
      "orte": 7024,
      "Ġfla": 7025,
      "aakte": 7026,
      "lies": 7027,
      "wijken": 7028,
      "Ġgetrokken": 7029,
      "neemt": 7030,
      "Ġkog": 7031,
      "Ġagent": 7032,
      "Ġwes": 7033,
      "Ġtam": 7034,
      "Ġpun": 7035,
      "Ġgeste": 7036,
      "Ġveren": 7037,
      "ves": 7038,
      "Ġvrijwill": 7039,
      "1154": 7040,
      "ĠÂ°": 7041,
      "ici": 7042,
      "Ġtegelijkertijd": 7043,
      "Ġreligie": 7044,
      "god": 7045,
      "zone": 7046,
      "Ġharm": 7047,
      "Ġ120": 7048,
      "opp": 7049,
      "Ġpersoonlijke": 7050,
      "Ġlente": 7051,
      "ziekte": 7052,
      "Ġwadden": 7053,
      "Ġlind": 7054,
      "Ġ39": 7055,
      "ark": 7056,
      "ruimen": 7057,
      "lieden": 7058,
      "endom": 7059,
      "Ġvrouwtjes": 7060,
      "Ġram": 7061,
      "Ġgenoemde": 7062,
      "Ġverkeerd": 7063,
      "Ġfluit": 7064,
      "-,": 7065,
      "Ġpens": 7066,
      "inger": 7067,
      "Ġartiesten": 7068,
      "Ġdrugs": 7069,
      "cultuur": 7070,
      "ikelen": 7071,
      "Ġbrieven": 7072,
      "Ġmario": 7073,
      "Ġkalk": 7074,
      "att": 7075,
      "Ġvergeleken": 7076,
      "rode": 7077,
      "Ġzusje": 7078,
      "Ġtoelichting": 7079,
      "Ġfrancis": 7080,
      "Ġlar": 7081,
      "Ġbroe": 7082,
      "Ġgevierd": 7083,
      "Ġverhuizen": 7084,
      "Ġvorst": 7085,
      "Ġbroertje": 7086,
      "Ġpersoneel": 7087,
      "Ġboe": 7088,
      "Ġtempel": 7089,
      "Ġhoning": 7090,
      "Ġbieden": 7091,
      "Ġhelder": 7092,
      "Ġmenselijke": 7093,
      "Ġmaximale": 7094,
      "Ġdeuren": 7095,
      "Ġlaatst": 7096,
      "aartje": 7097,
      "Ġwemel": 7098,
      "groeid": 7099,
      "Ġgeholpen": 7100,
      "Ġvliegveld": 7101,
      "Ġroemenie": 7102,
      "Ġoorsprong": 7103,
      "Ġdrinkwater": 7104,
      "dijk": 7105,
      "ities": 7106,
      "plan": 7107,
      "Ġkerken": 7108,
      "Ġnieuwsgier": 7109,
      "Ġgeorganiseerd": 7110,
      "ain": 7111,
      "Ġnoten": 7112,
      "Ġvertrekken": 7113,
      "Ġdict": 7114,
      "show": 7115,
      "Ġeenheid": 7116,
      "Ġpant": 7117,
      "gesp": 7118,
      "Ġschiphol": 7119,
      "vlies": 7120,
      "Ġposter": 7121,
      "Ġreal": 7122,
      "Ġhoopt": 7123,
      "Ġindustri": 7124,
      "extra": 7125,
      "Ġgevolgd": 7126,
      "ificatie": 7127,
      "korea": 7128,
      "mann": 7129,
      "Ġgrotende": 7130,
      "allig": 7131,
      "Ġgescheiden": 7132,
      "streeks": 7133,
      "Ġgrotendeels": 7134,
      "Ġwan": 7135,
      "allie": 7136,
      "Ġlit": 7137,
      "Ġscheep": 7138,
      "Ġvlam": 7139,
      "Ġuil": 7140,
      "vloeden": 7141,
      "Ġstrak": 7142,
      "Ġnational": 7143,
      "amerikaanse": 7144,
      "Ġstijgen": 7145,
      "Ġonafhankelijkheid": 7146,
      "engel": 7147,
      "Ġbakken": 7148,
      "Ġherfst": 7149,
      "quentie": 7150,
      "Ġminimaal": 7151,
      "Ġcategorie": 7152,
      "klimaat": 7153,
      "Ġzwer": 7154,
      "Ġpoep": 7155,
      "grandfather": 7156,
      "Ġdefin": 7157,
      "Ġlezer": 7158,
      "icaanse": 7159,
      "Ġbetaalt": 7160,
      "Ġoorlogen": 7161,
      "belasting": 7162,
      "Ġlucius": 7163,
      "Ġvijftien": 7164,
      "Ġbiedt": 7165,
      "molen": 7166,
      "staart": 7167,
      "Ġlil": 7168,
      "Ġleon": 7169,
      "lief": 7170,
      "Ġstapel": 7171,
      "Ġoer": 7172,
      "Ġspijt": 7173,
      "Ġmetro": 7174,
      "rem": 7175,
      "Ġkomst": 7176,
      "Ġvervelend": 7177,
      "astricht": 7178,
      "Ġsamenwerken": 7179,
      "megen": 7180,
      "ani": 7181,
      "ieder": 7182,
      "Ġzwanger": 7183,
      "rium": 7184,
      "uken": 7185,
      "kennen": 7186,
      "Ġcommissie": 7187,
      "Ġsterven": 7188,
      "Ġturkse": 7189,
      "ciale": 7190,
      "moeten": 7191,
      "Ġbehandeling": 7192,
      "Ġgodsdienst": 7193,
      "Ġhi": 7194,
      "Ġmeren": 7195,
      "Ġonmiddel": 7196,
      "schot": 7197,
      "Ġverbinding": 7198,
      "Ġstren": 7199,
      "centrale": 7200,
      "Ġlouis": 7201,
      "900": 7202,
      "appar": 7203,
      "Ġwaarheid": 7204,
      "Ġacc": 7205,
      "yr": 7206,
      "Ġdinsdag": 7207,
      "Ġbu": 7208,
      "Ġrare": 7209,
      "Ġtennis": 7210,
      "âĢĭ": 7211,
      "Ġkit": 7212,
      "Ġtunnel": 7213,
      "Ġadvertentie": 7214,
      "kind": 7215,
      "Ġxx": 7216,
      "ĠâĢĭ": 7217,
      "Ġheld": 7218,
      "klein": 7219,
      "Ġgarage": 7220,
      "Ġgeallie": 7221,
      "Ġcong": 7222,
      "aarts": 7223,
      "Ġgeluids": 7224,
      "Ġchristendom": 7225,
      "Ġdemonstr": 7226,
      "ement": 7227,
      "Ġsap": 7228,
      "ions": 7229,
      "Ġschijnt": 7230,
      "Ġtijdelijk": 7231,
      "Ġaantrek": 7232,
      "Ġbezocht": 7233,
      "Ġdecim": 7234,
      "dorp": 7235,
      "Ġinteressant": 7236,
      "Ġtips": 7237,
      "iens": 7238,
      "Ġ44": 7239,
      "Ġvijfde": 7240,
      "melk": 7241,
      "Ġmiddelen": 7242,
      "Ġheden": 7243,
      "Ġchristelijke": 7244,
      "roe": 7245,
      "Ġrijen": 7246,
      "kring": 7247,
      "Ġpodium": 7248,
      "rast": 7249,
      "eegd": 7250,
      "Ġmeenemen": 7251,
      "Ġschudt": 7252,
      "Ġwille": 7253,
      "Ġnikki": 7254,
      "gewoon": 7255,
      "Ġinternationaal": 7256,
      "Ġsprookjes": 7257,
      "Ġmoslims": 7258,
      "ilj": 7259,
      "Ġpoort": 7260,
      "Ġhoorn": 7261,
      "Ġlichaams": 7262,
      "Ġfriesland": 7263,
      "Ġvreselijk": 7264,
      "Ġzeiden": 7265,
      "Ġworst": 7266,
      "Ġterrein": 7267,
      "Ġgeluiden": 7268,
      "Ġopende": 7269,
      "Ġbegrijp": 7270,
      "Ġfluistert": 7271,
      "ique": 7272,
      "Ġ48": 7273,
      "rop": 7274,
      "zeren": 7275,
      "Ġdoek": 7276,
      "Ġdoelen": 7277,
      "ieter": 7278,
      "Ġkraan": 7279,
      "bedrijven": 7280,
      "das": 7281,
      "jo": 7282,
      "Ġhaak": 7283,
      "ologen": 7284,
      "Ġroom": 7285,
      "Ġjurk": 7286,
      "zamer": 7287,
      "Ġsporen": 7288,
      "vindt": 7289,
      "Ġleerkracht": 7290,
      "Ġchemische": 7291,
      "Ġstre": 7292,
      "ctieve": 7293,
      "Ġseks": 7294,
      "Ġconflict": 7295,
      "su": 7296,
      "heim": 7297,
      "mens": 7298,
      "Ġ1991": 7299,
      "Ġvorming": 7300,
      "wagens": 7301,
      "Ġschudde": 7302,
      "cal": 7303,
      "paal": 7304,
      "ares": 7305,
      "Ġsor": 7306,
      "Ġoverd": 7307,
      "Ġgedachte": 7308,
      "Ġatoom": 7309,
      "ound": 7310,
      "Ġhongarije": 7311,
      "hart": 7312,
      "lys": 7313,
      "Ġsele": 7314,
      "Ġjeff": 7315,
      "leng": 7316,
      "Ġontpl": 7317,
      "korting": 7318,
      "goede": 7319,
      "ula": 7320,
      "bijvoorbeeld": 7321,
      "Ġgisteravond": 7322,
      "lat": 7323,
      "Ġgouverne": 7324,
      "Ġnegatieve": 7325,
      "Ġaanleg": 7326,
      "Ġgebroken": 7327,
      "Ġtijdschrift": 7328,
      "bloem": 7329,
      "Ġvirus": 7330,
      "ez": 7331,
      "sverkiezingen": 7332,
      "Ġdown": 7333,
      "Ġaangepast": 7334,
      "Ġdubbel": 7335,
      "roduc": 7336,
      "bevolking": 7337,
      "Ġhag": 7338,
      "Ġmeld": 7339,
      "itz": 7340,
      "ptie": 7341,
      "gewicht": 7342,
      "Ġbeschikbaar": 7343,
      "Ġsuriname": 7344,
      "Ġgh": 7345,
      "Ġkas": 7346,
      "neder": 7347,
      "Ġtrokken": 7348,
      "sid": 7349,
      "schaft": 7350,
      "been": 7351,
      "Ġbeschermd": 7352,
      "Ġarnhem": 7353,
      "Ġ[": 7354,
      "Ġruit": 7355,
      "jecten": 7356,
      "Ġellen": 7357,
      "Ġautos": 7358,
      "Ġbeschrijving": 7359,
      "Ġefteling": 7360,
      "Ġpositief": 7361,
      "sommige": 7362,
      "Ġvacht": 7363,
      "Ġcda": 7364,
      "Ġslotte": 7365,
      "Ġverkeerde": 7366,
      "econom": 7367,
      "museum": 7368,
      "scholen": 7369,
      "Ġontdekk": 7370,
      "Ġlatere": 7371,
      "Ġtrui": 7372,
      "Ġdonderdag": 7373,
      "etitie": 7374,
      "Ġtoestemming": 7375,
      "Ġverschenen": 7376,
      "argument": 7377,
      "Ġovertuigen": 7378,
      "binnen": 7379,
      "Ġwens": 7380,
      "Ġtweet": 7381,
      "Ġgezonde": 7382,
      "Ġprest": 7383,
      "Ġrac": 7384,
      "Ġcamping": 7385,
      "ela": 7386,
      "Ġrijtje": 7387,
      "Ġmartinus": 7388,
      "Ġcheck": 7389,
      "Ġmonarchie": 7390,
      "Ġjackson": 7391,
      "amine": 7392,
      "zem": 7393,
      "Ġir": 7394,
      "Ġbedraagt": 7395,
      "Ġraket": 7396,
      "Ġenthousiast": 7397,
      "Ġble": 7398,
      "Ġuitger": 7399,
      "Ġkrim": 7400,
      "ÉĽ": 7401,
      "Ġtoegang": 7402,
      "Ġzijde": 7403,
      "Ġrelatief": 7404,
      "fiets": 7405,
      "Ġbun": 7406,
      "Ġpauze": 7407,
      "Ġkei": 7408,
      "Ġzender": 7409,
      "video": 7410,
      "Ġank": 7411,
      "Ġkabel": 7412,
      "Ġpublie": 7413,
      "Ġcalcium": 7414,
      "Ġreeks": 7415,
      "Ġverwerkt": 7416,
      "Ġontdekte": 7417,
      "Ġvolkeren": 7418,
      "eilanden": 7419,
      "jawel": 7420,
      "Ġvrouwelijke": 7421,
      "Ġeindhoven": 7422,
      "Ġcolum": 7423,
      "Ġjoegoslavie": 7424,
      "Ġonmiddellijk": 7425,
      "dis": 7426,
      "Ġvooraf": 7427,
      "Ġdroeg": 7428,
      "brood": 7429,
      "Ġruben": 7430,
      "Ġvergelijkbaar": 7431,
      "Ġmamma": 7432,
      "Ġking": 7433,
      "Ġlachte": 7434,
      "groen": 7435,
      "Ġleraren": 7436,
      "Ġlokale": 7437,
      "Ġnauwkeurig": 7438,
      "Ġcro": 7439,
      "anties": 7440,
      "Ġgedood": 7441,
      "Ġanal": 7442,
      "Ġafgesloten": 7443,
      "Ġwilliam": 7444,
      "beren": 7445,
      "meren": 7446,
      "Ġapparaten": 7447,
      "bers": 7448,
      "feer": 7449,
      "Ġras": 7450,
      "Ġramen": 7451,
      "Ġtekort": 7452,
      "Ġbegrippen": 7453,
      "Ġastron": 7454,
      "letje": 7455,
      "roepen": 7456,
      "Ġwr": 7457,
      "chan": 7458,
      "Ġinkomsten": 7459,
      "Ġpiano": 7460,
      "Ġverre": 7461,
      "olle": 7462,
      "Ġovereind": 7463,
      "Ġdromen": 7464,
      "Ġflinke": 7465,
      "Ġelektron": 7466,
      "tekening": 7467,
      "Ġcriminaliteit": 7468,
      "Ġwerkloosheid": 7469,
      "Ġlijden": 7470,
      "Ġzestien": 7471,
      "Ġspook": 7472,
      "gaande": 7473,
      "Ġbutler": 7474,
      "joh": 7475,
      "akije": 7476,
      "2013": 7477,
      "Ġeconomisch": 7478,
      "Ġsuccesvol": 7479,
      "Ġvolgend": 7480,
      "fte": 7481,
      "thol": 7482,
      "etus": 7483,
      "Ġopp": 7484,
      "Ġfas": 7485,
      "owakije": 7486,
      "Ġervaring": 7487,
      "Ġstudeerde": 7488,
      "113": 7489,
      "Ġgemeenschap": 7490,
      "Ġbriefje": 7491,
      "Ġopgelost": 7492,
      "koper": 7493,
      "perk": 7494,
      "Ġdiale": 7495,
      "pest": 7496,
      "Ġverwachten": 7497,
      "ory": 7498,
      "uiling": 7499,
      "Ġministers": 7500,
      "Ġstromen": 7501,
      "llen": 7502,
      "Ġmaten": 7503,
      "rad": 7504,
      "Ġgelderland": 7505,
      "proces": 7506,
      "nieuwswekker": 7507,
      "poort": 7508,
      "sal": 7509,
      "Ġzijk": 7510,
      "Ġtakken": 7511,
      "Ġstort": 7512,
      "unen": 7513,
      "Ġwandelen": 7514,
      "Ġrapport": 7515,
      "wn": 7516,
      "andra": 7517,
      "Ġ43": 7518,
      "Ġstreek": 7519,
      "Ġsnelweg": 7520,
      "rekening": 7521,
      "Ġmartin": 7522,
      "mij": 7523,
      "Ġdrijven": 7524,
      "Ġ55": 7525,
      "Ġwijzen": 7526,
      "Ġauteur": 7527,
      "bescherm": 7528,
      "Ġhing": 7529,
      "Ġdegene": 7530,
      "ffect": 7531,
      "Ġcommer": 7532,
      "Ġdroge": 7533,
      "Ġbibliotheek": 7534,
      "kking": 7535,
      "Ġgevestigd": 7536,
      "ieuwd": 7537,
      "Ġammon": 7538,
      "Ġgevecht": 7539,
      "iak": 7540,
      "zon": 7541,
      "spoor": 7542,
      "Ġontdekken": 7543,
      "keren": 7544,
      "namen": 7545,
      "Ġmist": 7546,
      "Ġbou": 7547,
      "Ġbreken": 7548,
      "ijntje": 7549,
      "telefoon": 7550,
      "640": 7551,
      "hong": 7552,
      "Ġdwer": 7553,
      "Ġvu": 7554,
      "Ġongel": 7555,
      "Ġprent": 7556,
      "Ġgesticht": 7557,
      "Ġsimpel": 7558,
      "Ġcart": 7559,
      "Ġkleed": 7560,
      "nieuwe": 7561,
      "tekeningen": 7562,
      "Ġnijmegen": 7563,
      "velt": 7564,
      "stappen": 7565,
      "orp": 7566,
      "Ġwerkten": 7567,
      "Ġscen": 7568,
      "jas": 7569,
      "Ġadam": 7570,
      "haha": 7571,
      "Ġgereed": 7572,
      "Ġdipl": 7573,
      "Ġleeuwen": 7574,
      "Ġrod": 7575,
      "opte": 7576,
      "Ġnadenken": 7577,
      "Ġnoordzee": 7578,
      "thijs": 7579,
      "Ġgevaarlijke": 7580,
      "Ġspoorlijn": 7581,
      "Ġbescherming": 7582,
      "Ġzachte": 7583,
      "lein": 7584,
      "keuze": 7585,
      "spannen": 7586,
      "Ġstandpunt": 7587,
      "Ġquint": 7588,
      "Ġschrikt": 7589,
      "doel": 7590,
      "elo": 7591,
      "Ġmarie": 7592,
      "Ġrots": 7593,
      "Ġvergadering": 7594,
      "vroeger": 7595,
      "Ġgelijke": 7596,
      "Ġaangenomen": 7597,
      "Ġknooppunt": 7598,
      "Ġschel": 7599,
      "Ġreuzen": 7600,
      "Ġmaur": 7601,
      "Ġklooster": 7602,
      "ioneel": 7603,
      "Ġteleur": 7604,
      "democ": 7605,
      "Ġbedekt": 7606,
      "sle": 7607,
      "vi": 7608,
      "Ġopgebouwd": 7609,
      "Ġzeep": 7610,
      "Ġspeelden": 7611,
      "Ġhielden": 7612,
      "Ġoverstromingen": 7613,
      "Ġchil": 7614,
      "Ġmoer": 7615,
      "Ġzaden": 7616,
      "Ġzingt": 7617,
      "Ġsens": 7618,
      "Ġovergenomen": 7619,
      "tyros": 7620,
      "Ġfeiten": 7621,
      "raten": 7622,
      "Ġmoord": 7623,
      "Ġalfabet": 7624,
      "Ġgaza": 7625,
      "Ġaanged": 7626,
      "Ġconstante": 7627,
      "Ġbeweegt": 7628,
      "meisje": 7629,
      "Ġrichten": 7630,
      "Ġuitzonder": 7631,
      "entje": 7632,
      "merken": 7633,
      "onderwijs": 7634,
      "Ġjongste": 7635,
      "Ġ1950": 7636,
      "Ġbereid": 7637,
      "Ġbioscoop": 7638,
      "vle": 7639,
      "Ġus": 7640,
      "Ġgreep": 7641,
      "Ġdrukken": 7642,
      "macht": 7643,
      "Ġtan": 7644,
      "Ġblz": 7645,
      "Ġkathedraal": 7646,
      "Ġroman": 7647,
      "loge": 7648,
      "ockey": 7649,
      "Ġkoffer": 7650,
      "Ġontsnappen": 7651,
      "ĠâĢĭâĢĭ": 7652,
      "ata": 7653,
      "Ġstoep": 7654,
      "Ġaltern": 7655,
      "Ġoorlogs": 7656,
      "Ġstuderen": 7657,
      "Ġbrede": 7658,
      "Ġarabische": 7659,
      "Ġvoetballer": 7660,
      "Ġfunction": 7661,
      "Ġzwaarte": 7662,
      "loze": 7663,
      "Ġjury": 7664,
      "Ġuitdrukking": 7665,
      "Ġput": 7666,
      "tene": 7667,
      "Ġklassen": 7668,
      "Ġgerecht": 7669,
      "blauw": 7670,
      "Ġbehandeld": 7671,
      "82": 7672,
      "Ġnout": 7673,
      "Ġstuurt": 7674,
      "Ġveront": 7675,
      "Ġmail": 7676,
      "Ġmarcell": 7677,
      "prijzen": 7678,
      "Ġpi": 7679,
      "hert": 7680,
      "Ġbanken": 7681,
      "Ġhm": 7682,
      "Ġinform": 7683,
      "Ġagen": 7684,
      "Ġuitgaven": 7685,
      "Ġionen": 7686,
      "Ġbenieuwd": 7687,
      "kleine": 7688,
      "Ġverwijderd": 7689,
      "Ġsak": 7690,
      "Ġfoss": 7691,
      "beste": 7692,
      "Ġfloor": 7693,
      "marijn": 7694,
      "Ġrena": 7695,
      "Ġinkomens": 7696,
      "Ġeenvoudig": 7697,
      "Ġcontroleren": 7698,
      "lingen": 7699,
      "mole": 7700,
      "Ġhuishouden": 7701,
      "braak": 7702,
      "haling": 7703,
      "mol": 7704,
      "ornie": 7705,
      "Ġomschrijving": 7706,
      "Ġverschilt": 7707,
      "Ġinstrumenten": 7708,
      "07": 7709,
      "can": 7710,
      "zam": 7711,
      "Ġdeeltjes": 7712,
      "Ġwijken": 7713,
      "Ġgijs": 7714,
      "Ġkoers": 7715,
      "Ġtax": 7716,
      "Ġfactoren": 7717,
      "republiek": 7718,
      "Ġzoogdieren": 7719,
      "mie": 7720,
      "vre": 7721,
      "Ġdrum": 7722,
      "Ġrussen": 7723,
      "Ġwelvaart": 7724,
      "Ġonderhand": 7725,
      "Ġ41": 7726,
      "pert": 7727,
      "Ġverwar": 7728,
      "2005": 7729,
      "halve": 7730,
      "som": 7731,
      "Ġbtw": 7732,
      "Ġneef": 7733,
      "Ġverstaan": 7734,
      "Ġgrinn": 7735,
      "elligen": 7736,
      "Ġvecht": 7737,
      "Ġtaylor": 7738,
      "Ġveroveren": 7739,
      "var": 7740,
      "Ġeraf": 7741,
      "Ġspijker": 7742,
      "Ġopgevolgd": 7743,
      "Ġgeregeld": 7744,
      "aspartyl": 7745,
      "rood": 7746,
      "daarnaast": 7747,
      "waai": 7748,
      "Ġbeweringen": 7749,
      "figuur": 7750,
      "ls": 7751,
      "Ġwoeden": 7752,
      "Ġgolven": 7753,
      "Ġjord": 7754,
      "ouders": 7755,
      "Ġaankomen": 7756,
      "uminium": 7757,
      "Ġknal": 7758,
      "Ġarts": 7759,
      "Ġmoeilijke": 7760,
      "Ġvoetbalclub": 7761,
      "Ġuiterlijk": 7762,
      "Ġhee": 7763,
      "inees": 7764,
      "gehouden": 7765,
      "akte": 7766,
      "250": 7767,
      "roos": 7768,
      "Ġzestig": 7769,
      "beweging": 7770,
      "Ġleiders": 7771,
      "spiegel": 7772,
      "Ġoudheid": 7773,
      "Ġsituaties": 7774,
      "Ġbeinvloed": 7775,
      "Ġjacobus": 7776,
      "buis": 7777,
      "Ġlegenda": 7778,
      "Ġservie": 7779,
      "708": 7780,
      "Ġorganismen": 7781,
      "Ġverdween": 7782,
      "Ġpiraten": 7783,
      "Ġconstantijn": 7784,
      "teel": 7785,
      "techn": 7786,
      "Ġafgesproken": 7787,
      "Ġlossen": 7788,
      "Ġbrabant": 7789,
      "draaien": 7790,
      "rusland": 7791,
      "Ġaarz": 7792,
      "Ġnak": 7793,
      "alles": 7794,
      "Ġprobeerden": 7795,
      "houding": 7796,
      "Ġhuilt": 7797,
      "Ġtil": 7798,
      "Ġkonings": 7799,
      "Ġwerkblad": 7800,
      "appels": 7801,
      "Ġedel": 7802,
      "Ġvlakbij": 7803,
      "Ġkikkers": 7804,
      "yer": 7805,
      "etter": 7806,
      "oedt": 7807,
      "Ġgeorg": 7808,
      "ondanks": 7809,
      "Ġhoofdrol": 7810,
      "Ġhypothe": 7811,
      "uay": 7812,
      "Ġgepakt": 7813,
      "Ġfem": 7814,
      "Ġasiel": 7815,
      "Ġjaarlijkse": 7816,
      "Ġschaduw": 7817,
      "Ġpruisen": 7818,
      "Ġvoortdurend": 7819,
      "vig": 7820,
      "zag": 7821,
      "Ġvannacht": 7822,
      "Ġsoph": 7823,
      "omin": 7824,
      "Ġplassen": 7825,
      "Ġvertrokken": 7826,
      "Ġcompon": 7827,
      "Ġacadem": 7828,
      "Ġconstru": 7829,
      "Ġdefinitie": 7830,
      "Ġvat": 7831,
      "Ġsi": 7832,
      "Ġknuff": 7833,
      "Ġverdelen": 7834,
      "897": 7835,
      "Ġlor": 7836,
      "oppervlak": 7837,
      "rukte": 7838,
      "Ġlucas": 7839,
      "Ġmoskou": 7840,
      "Ġ{": 7841,
      "Ġdiepe": 7842,
      "apte": 7843,
      "spro": 7844,
      "Ġtover": 7845,
      "Ġontwikkelingen": 7846,
      "Ġoverwinning": 7847,
      "war": 7848,
      "Ġhind": 7849,
      "wongen": 7850,
      "Ġverklaren": 7851,
      "schappelijk": 7852,
      "903": 7853,
      "productie": 7854,
      "Ġdetail": 7855,
      "Ġmedaille": 7856,
      "Ġfavoriete": 7857,
      "ti": 7858,
      "Ġezel": 7859,
      "Ġlut": 7860,
      "ulen": 7861,
      "graaf": 7862,
      "Ġketting": 7863,
      "ogh": 7864,
      "Ġafzet": 7865,
      "Ġhierop": 7866,
      "Ġmest": 7867,
      "Ġ...(": 7868,
      "uift": 7869,
      "Ġkrui": 7870,
      "Ġverdwijnt": 7871,
      "Ġteddie": 7872,
      "hist": 7873,
      "Ġwele": 7874,
      "Ġinfl": 7875,
      "Ġingevoerd": 7876,
      "Ġzocht": 7877,
      "Ġafgebroken": 7878,
      "Ġsamenstelling": 7879,
      "Ġopenbare": 7880,
      "Ġdraai": 7881,
      "Ġvestig": 7882,
      "Ġnegentiende": 7883,
      "Ġchristenen": 7884,
      "Ġzolang": 7885,
      "einde": 7886,
      "icit": 7887,
      "Ġversn": 7888,
      "Ġeindigt": 7889,
      "Ġorgan": 7890,
      "Ġontbijt": 7891,
      "Ġlevende": 7892,
      "Ġgouverneur": 7893,
      "bot": 7894,
      "lan": 7895,
      "ni": 7896,
      "wind": 7897,
      "Ġsanne": 7898,
      "Ġarche": 7899,
      "Ġdeelnemers": 7900,
      "gedrag": 7901,
      "1003": 7902,
      "Ġakkie": 7903,
      "Ġsignaal": 7904,
      "gu": 7905,
      "rich": 7906,
      "oria": 7907,
      "Ġtip": 7908,
      "Ġkinderboeken": 7909,
      "Ġ52": 7910,
      "Ġ600": 7911,
      "Ġduim": 7912,
      "Ġdurft": 7913,
      "probeerd": 7914,
      "album": 7915,
      "Ġweleens": 7916,
      "Ġgeslagen": 7917,
      "1591": 7918,
      "1294": 7919,
      "Ġpapega": 7920,
      "Ġbesluiten": 7921,
      "Ġklasse": 7922,
      "1048": 7923,
      "1241": 7924,
      "Ġboten": 7925,
      "Ġlam": 7926,
      "ami": 7927,
      "Ġuiteen": 7928,
      "Ġbijeen": 7929,
      "Ġverba": 7930,
      "Ġparkeer": 7931,
      "person": 7932,
      "Ġwouter": 7933,
      "Ġovertuig": 7934,
      "ds": 7935,
      "sim": 7936,
      "Ġruil": 7937,
      "Ġverzinnen": 7938,
      "Ġspelletje": 7939,
      "huid": 7940,
      "Ġgor": 7941,
      "Ġonru": 7942,
      "Ġche": 7943,
      "celona": 7944,
      "Ġzielig": 7945,
      "Ġnoah": 7946,
      "Ġoperatie": 7947,
      "Ġidentiteit": 7948,
      "materiaal": 7949,
      "ader": 7950,
      "ankt": 7951,
      "Ġaangevallen": 7952,
      "spreken": 7953,
      "Ġroy": 7954,
      "Ġverklaar": 7955,
      "Ġdrukte": 7956,
      "Ġverlies": 7957,
      "Ġpersonage": 7958,
      "Ġonderscheiden": 7959,
      "Ġjongere": 7960,
      "Ġmythol": 7961,
      "Ġcollege": 7962,
      "yenoord": 7963,
      "generaal": 7964,
      "koe": 7965,
      "Ġfouten": 7966,
      "Ġgevuld": 7967,
      "Ġgezocht": 7968,
      "Ġgestopt": 7969,
      "snelheid": 7970,
      "Ġtentoonstelling": 7971,
      "kol": 7972,
      "ua": 7973,
      "Ġverte": 7974,
      "Ġroken": 7975,
      "Ġwalvis": 7976,
      "Ġdolfijnen": 7977,
      "vlag": 7978,
      "Ġingezet": 7979,
      "tyrosyl": 7980,
      "arn": 7981,
      "Ġlongen": 7982,
      "Ġopnemen": 7983,
      "Ġspaans": 7984,
      "Ġindianen": 7985,
      "Ġbereik": 7986,
      "Ġletten": 7987,
      "ologisch": 7988,
      "Ġautomatisch": 7989,
      "bro": 7990,
      "ux": 7991,
      "Ġdy": 7992,
      "Ġonsch": 7993,
      "Ġballet": 7994,
      "Ġopruimen": 7995,
      "Ġpatienten": 7996,
      "Ġeffecten": 7997,
      "quest": 7998,
      "katholieke": 7999,
      "record": 8000,
      "Ġtweeling": 8001,
      "43": 8002,
      "belen": 8003,
      "dad": 8004,
      "Ġvakken": 8005,
      "elten": 8006,
      "Ġsto": 8007,
      "Ġverkiez": 8008,
      "vormige": 8009,
      "Ġstations": 8010,
      "Ġsuzan": 8011,
      "tit": 8012,
      "Ġkook": 8013,
      "gehalte": 8014,
      "Ġzonn": 8015,
      "Ġdeels": 8016,
      "Ġvriendelijk": 8017,
      "tel": 8018,
      "Ġos": 8019,
      "Ġstro": 8020,
      "kest": 8021,
      "Ġbetaal": 8022,
      "Ġrail": 8023,
      "gezond": 8024,
      "Ġprofessor": 8025,
      "volgende": 8026,
      "Ġculturele": 8027,
      "Ġsprookje": 8028,
      "inten": 8029,
      "Ġmug": 8030,
      "Ġstab": 8031,
      "Ġkonijnen": 8032,
      "sky": 8033,
      "Ġpersoonlijk": 8034,
      "oelens": 8035,
      "cons": 8036,
      "hon": 8037,
      "sz": 8038,
      "Ġroer": 8039,
      "Ġstomme": 8040,
      "Ġbestude": 8041,
      "Ġthies": 8042,
      "oofde": 8043,
      "Ġberekenen": 8044,
      "Ġstuurde": 8045,
      "Ġluxe": 8046,
      "gelegenheid": 8047,
      "zou": 8048,
      "Ġgecon": 8049,
      "opa": 8050,
      "Ġevenveel": 8051,
      "schema": 8052,
      "Ġ1968": 8053,
      "Ġinheem": 8054,
      "cm": 8055,
      "Ġnaties": 8056,
      "periode": 8057,
      "Ġbanaan": 8058,
      "Ġbedreigd": 8059,
      "Ġduck": 8060,
      "Ġsara": 8061,
      "rechter": 8062,
      "iense": 8063,
      "result": 8064,
      "Ġopera": 8065,
      "yd": 8066,
      "Ġbern": 8067,
      "Ġ1993": 8068,
      "Ġrecept": 8069,
      "Ġgezongen": 8070,
      "odigd": 8071,
      "Ġooster": 8072,
      "Ġlekkere": 8073,
      "toer": 8074,
      "grens": 8075,
      "Ġup": 8076,
      "Ġmodern": 8077,
      "Ġtoetsen": 8078,
      "Ġfle": 8079,
      "blik": 8080,
      "Ġdraak": 8081,
      "Ġvoortaan": 8082,
      "Ġpin": 8083,
      "gedeelte": 8084,
      "Ġerom": 8085,
      "Ġcam": 8086,
      "Ġtoerisme": 8087,
      "Ġdrenthe": 8088,
      "Ġvormgeving": 8089,
      "Ġnederlander": 8090,
      "Ġzwavel": 8091,
      ".,": 8092,
      "tocht": 8093,
      "Ġinkt": 8094,
      "omer": 8095,
      "Ġmais": 8096,
      "Ġtoil": 8097,
      "Ġmarine": 8098,
      "Ġknie": 8099,
      "vattingen": 8100,
      "stadion": 8101,
      "Ġsold": 8102,
      "Ġzilveren": 8103,
      "Ġpraktijk": 8104,
      "Ġmg": 8105,
      "Ġnona": 8106,
      "Ġpit": 8107,
      "meneer": 8108,
      "Ġ1988": 8109,
      "Ġrichtte": 8110,
      "Ġscherpe": 8111,
      "Ġacteurs": 8112,
      "ograaf": 8113,
      "sj": 8114,
      "Ġnov": 8115,
      "Ġxvi": 8116,
      "controle": 8117,
      "Ġmilitairen": 8118,
      "ĠÂ": 8119,
      "elk": 8120,
      "Ġinvester": 8121,
      "Ġsus": 8122,
      "Ġjim": 8123,
      "Ġuitleggen": 8124,
      "Ġafgev": 8125,
      "ouwers": 8126,
      "utie": 8127,
      "Ġverschillend": 8128,
      "Ġbezorgd": 8129,
      "Ġgeneratie": 8130,
      "comm": 8131,
      "feren": 8132,
      "Ġdod": 8133,
      "Ġtachtig": 8134,
      "Ġbevr": 8135,
      "Ġspot": 8136,
      "Ġ46": 8137,
      "instrument": 8138,
      "Ġjean": 8139,
      "Ġaanslag": 8140,
      "Ġschim": 8141,
      "Ġorganiseren": 8142,
      "Ġkaars": 8143,
      "Ġaluminium": 8144,
      "seizoen": 8145,
      "Ġwill": 8146,
      "Ġmeub": 8147,
      "Ġmiddellandse": 8148,
      "Ġimp": 8149,
      "Ġdirecte": 8150,
      "Ġletterlijk": 8151,
      "onte": 8152,
      "Ġfat": 8153,
      "Ġnatrium": 8154,
      "ife": 8155,
      "Ġdorpje": 8156,
      "Ġ1984": 8157,
      "Ġmolecuul": 8158,
      "aag": 8159,
      "Ġboze": 8160,
      "Ġgewassen": 8161,
      "Ġsaartje": 8162,
      "Ġaa": 8163,
      "atorium": 8164,
      "Ġcontract": 8165,
      "Ġpublieke": 8166,
      "kust": 8167,
      "Ġheus": 8168,
      "Ġkeizerrijk": 8169,
      "Ġhouding": 8170,
      "Ġbeantwoording": 8171,
      "Ġjustitie": 8172,
      "gg": 8173,
      "trein": 8174,
      "ype": 8175,
      "Ġmaastricht": 8176,
      "achel": 8177,
      "Ġdiensten": 8178,
      "Ġcompl": 8179,
      "Ġklachten": 8180,
      "risis": 8181,
      "Ġnegatief": 8182,
      "niks": 8183,
      "bijna": 8184,
      "Ġduinen": 8185,
      "Ġbijn": 8186,
      "Ġboed": 8187,
      "Ġchris": 8188,
      "ronken": 8189,
      "Ġpeper": 8190,
      "Ġaanbod": 8191,
      "Ġcalifornie": 8192,
      "etsen": 8193,
      "Ġfara": 8194,
      "uwd": 8195,
      "Ġafspraak": 8196,
      "Ġprot": 8197,
      "Ġachterkant": 8198,
      "Ġberekend": 8199,
      "Ġaangesloten": 8200,
      "Ġwortel": 8201,
      "Ġverschrikkelijk": 8202,
      "kikker": 8203,
      "Ġhaan": 8204,
      "Ġwin": 8205,
      "Ġnatte": 8206,
      "Ġolifanten": 8207,
      "01": 8208,
      "Ġbah": 8209,
      "Ġbeet": 8210,
      "Ġ1940": 8211,
      "achtigen": 8212,
      "Ġzetel": 8213,
      "Ġpotlood": 8214,
      "Ġdocent": 8215,
      "Ġstim": 8216,
      "Ġveroverd": 8217,
      "Ġwortels": 8218,
      "Ġonduidelijk": 8219,
      "Ġvieze": 8220,
      "Ġcongres": 8221,
      "staand": 8222,
      "Ġtai": 8223,
      "Ġrommel": 8224,
      "Ġcab": 8225,
      "beurt": 8226,
      "Ġleukste": 8227,
      "Ġvisie": 8228,
      "Ġverminder": 8229,
      "Ġijzeren": 8230,
      "Ġverzameling": 8231,
      "Ġwiss": 8232,
      "Ġjop": 8233,
      "ika": 8234,
      "okt": 8235,
      "Ġcha": 8236,
      "Ġsaai": 8237,
      "Ġmuts": 8238,
      "Ġgeprobeerd": 8239,
      "ull": 8240,
      "Ġverwachte": 8241,
      "Ġlift": 8242,
      "Ġcu": 8243,
      "Ġondergrond": 8244,
      "Ġdrop": 8245,
      "Ġbetrouw": 8246,
      "Ġpriv": 8247,
      "Ġeurovis": 8248,
      "Ġprovinciale": 8249,
      "anke": 8250,
      "Ġkloppen": 8251,
      "Ġkolom": 8252,
      "politiek": 8253,
      "Ġprotestant": 8254,
      "Ġkolonien": 8255,
      "Ġdijken": 8256,
      "Ġwinke": 8257,
      "Ġhuisarts": 8258,
      "Ġmissen": 8259,
      "Ġbliksem": 8260,
      "elaars": 8261,
      "Ġtara": 8262,
      "ila": 8263,
      "Ġlib": 8264,
      "oting": 8265,
      "Ġalpen": 8266,
      "Ġdoorheen": 8267,
      "assingen": 8268,
      "Ġhaw": 8269,
      "Ġvisser": 8270,
      "Ġkrachten": 8271,
      "Ġottom": 8272,
      "Ġbeschadigd": 8273,
      "Ġsoldaat": 8274,
      "fun": 8275,
      "Ġok": 8276,
      "Ġgan": 8277,
      "Ġhein": 8278,
      "Ġafw": 8279,
      "Ġkoningen": 8280,
      "ynast": 8281,
      "Ġraakten": 8282,
      "wood": 8283,
      "ariteit": 8284,
      "Ġstelen": 8285,
      "ietje": 8286,
      "erson": 8287,
      "liep": 8288,
      "oorts": 8289,
      "107": 8290,
      "Ġminste": 8291,
      "uizenden": 8292,
      "Ġtrappen": 8293,
      "garije": 8294,
      "omos": 8295,
      "sterkte": 8296,
      "Ġconserv": 8297,
      "ossingen": 8298,
      "Ġscherp": 8299,
      "svoor": 8300,
      "Ġsnapt": 8301,
      "Ġgekke": 8302,
      "Ġstraling": 8303,
      "straling": 8304,
      "Ġuitgegeven": 8305,
      "verkeer": 8306,
      "Ġaanvankelijk": 8307,
      "Ġspelletjes": 8308,
      "acao": 8309,
      "idde": 8310,
      "Ġcarriere": 8311,
      "Ġvijanden": 8312,
      "vaard": 8313,
      "wintig": 8314,
      "Ġhiernaast": 8315,
      "Ġgetroffen": 8316,
      "diensten": 8317,
      "Ġachtbaan": 8318,
      "Ġluistert": 8319,
      "Ġfantast": 8320,
      "dings": 8321,
      "Ġgil": 8322,
      "Ġpest": 8323,
      "Ġfinland": 8324,
      "Ġmoeilijker": 8325,
      "organisaties": 8326,
      "Ġquinty": 8327,
      "fre": 8328,
      "Ġnie": 8329,
      "bedenk": 8330,
      "Ġemma": 8331,
      "Ġverdient": 8332,
      "Ġdistrict": 8333,
      "frankrijk": 8334,
      "Ġargentinie": 8335,
      "ji": 8336,
      "Ġvoeg": 8337,
      "Ġrog": 8338,
      "ures": 8339,
      "Ġ53": 8340,
      "Ġkaya": 8341,
      "Ġtechnische": 8342,
      "Ġredelijk": 8343,
      "Ġarchitect": 8344,
      "Ġnieuwsgierig": 8345,
      "Ġbok": 8346,
      "Ġskel": 8347,
      "Ġ1972": 8348,
      "elly": 8349,
      "Ġlawaai": 8350,
      "actor": 8351,
      "willem": 8352,
      "Ġvijver": 8353,
      "Ġwiskunde": 8354,
      "Ġvoorstander": 8355,
      "hulp": 8356,
      "ior": 8357,
      "Ġweef": 8358,
      "Ġbaar": 8359,
      "Ġdaarover": 8360,
      "Ġbedrijfs": 8361,
      "cret": 8362,
      "Ġpodcast": 8363,
      "Ġdocument": 8364,
      "1939": 8365,
      "Ġindustriele": 8366,
      "cur": 8367,
      "inguin": 8368,
      "Ġvoorkeur": 8369,
      "Ġcond": 8370,
      "team": 8371,
      "Ġomlaag": 8372,
      "uleren": 8373,
      "voorschijn": 8374,
      "Ġ800": 8375,
      "malig": 8376,
      "och": 8377,
      "ronen": 8378,
      "tl": 8379,
      "Ġdia": 8380,
      "Ġhall": 8381,
      "ieur": 8382,
      "Ġsticht": 8383,
      "Ġaanwij": 8384,
      "schriften": 8385,
      "Ġprooi": 8386,
      "Ġkende": 8387,
      "erendum": 8388,
      "Ġcollega": 8389,
      "vings": 8390,
      "ung": 8391,
      "Ġkanker": 8392,
      "Ġklant": 8393,
      "Ġkopie": 8394,
      "Ġvolkskrant": 8395,
      "Ġhorloge": 8396,
      "Ġgrenst": 8397,
      "sluitend": 8398,
      "Ġanimatie": 8399,
      "Ġgekleurde": 8400,
      "Ġuitgangsp": 8401,
      "Ġaangeb": 8402,
      "Ġgoedkoper": 8403,
      "Ġmari": 8404,
      "Ġkatoen": 8405,
      "kwamen": 8406,
      "Ġkandidaten": 8407,
      "Ġboete": 8408,
      "Ġah": 8409,
      "Ġtevoorschijn": 8410,
      "Ġbox": 8411,
      "Ġblack": 8412,
      "Ġurine": 8413,
      "westie": 8414,
      "yt": 8415,
      "Ġpiek": 8416,
      "inge": 8417,
      "une": 8418,
      "ierland": 8419,
      "Ġnadeel": 8420,
      "Ġchauffeur": 8421,
      "bloed": 8422,
      "Ġbepaalt": 8423,
      "Ġzekerheid": 8424,
      "rennen": 8425,
      "Ġdave": 8426,
      "voeding": 8427,
      "Ġschematisch": 8428,
      "hai": 8429,
      "uge": 8430,
      "Ġjet": 8431,
      "getrokken": 8432,
      "Ġtocht": 8433,
      "conclusie": 8434,
      "Ġbuurman": 8435,
      "Ġdubbele": 8436,
      "Ġvergr": 8437,
      "Ġweiger": 8438,
      "Ġgezeten": 8439,
      "sseerd": 8440,
      "Ġbevor": 8441,
      "tain": 8442,
      "Ġbegrijpt": 8443,
      "Ġsant": 8444,
      "Ġlip": 8445,
      "Ġbijdra": 8446,
      "plicht": 8447,
      "Ġnaamwoord": 8448,
      "zaamheid": 8449,
      "**": 8450,
      "lip": 8451,
      "Ġrok": 8452,
      "getjes": 8453,
      "Ġaanra": 8454,
      "Ġverderop": 8455,
      "Ġbeslissen": 8456,
      "Ġlichte": 8457,
      "Ġsenaat": 8458,
      "Ġhobby": 8459,
      "Ġpizza": 8460,
      "bah": 8461,
      "telijk": 8462,
      "Ġbee": 8463,
      "Ġballen": 8464,
      "iseerd": 8465,
      "Ġverkoopt": 8466,
      "Ġ1948": 8467,
      "Ġverhuisde": 8468,
      "Ġjee": 8469,
      "Ġstoelen": 8470,
      "wisseling": 8471,
      "Ġgeallieerden": 8472,
      "Ġbovenop": 8473,
      "Ġtruc": 8474,
      "Ġfarao": 8475,
      "Ġbijdrage": 8476,
      "oers": 8477,
      "sur": 8478,
      "Ġvere": 8479,
      "Ġindien": 8480,
      "Ġklimt": 8481,
      "Ġflessen": 8482,
      "colle": 8483,
      "ierp": 8484,
      "Ġplakken": 8485,
      "Ġverkrij": 8486,
      "Ġgekl": 8487,
      "Ġactrice": 8488,
      "Ġmobiele": 8489,
      "Ġernstige": 8490,
      "Ġfilosoof": 8491,
      "Ġvoornaam": 8492,
      "Ġuitkomst": 8493,
      "Ġvolume": 8494,
      "fc": 8495,
      "post": 8496,
      "Ġkos": 8497,
      "Ġspoel": 8498,
      "Ġkrist": 8499,
      "Ġfeyenoord": 8500,
      "Ġbewaren": 8501,
      "rediet": 8502,
      "Ġbeschrijft": 8503,
      "stop": 8504,
      "Ġverstand": 8505,
      "Ġmini": 8506,
      "Ġdient": 8507,
      "erdin": 8508,
      "Ġtraditie": 8509,
      "Ġgig": 8510,
      "Ġpip": 8511,
      "Ġmeegemaakt": 8512,
      "Ġhelik": 8513,
      "Ġspecial": 8514,
      "Ġschaatsen": 8515,
      "Ġlui": 8516,
      "oul": 8517,
      "Ġsmelt": 8518,
      "Ġpesten": 8519,
      "Ġbronnenboekje": 8520,
      "Ġtoegepast": 8521,
      "vereniging": 8522,
      "mere": 8523,
      "wo": 8524,
      "Ġdivisie": 8525,
      "Ġloek": 8526,
      "scherm": 8527,
      "ijssel": 8528,
      "Ġschrok": 8529,
      "Ġberen": 8530,
      "Ġleerde": 8531,
      "Ġklom": 8532,
      "Ġproeven": 8533,
      "Ġgenieten": 8534,
      "Ġ51": 8535,
      "Ġspannende": 8536,
      "Ġkroatie": 8537,
      "noteer": 8538,
      "Ġwielen": 8539,
      "Ġoven": 8540,
      "Ġaff": 8541,
      "spir": 8542,
      "Ġplank": 8543,
      "Ġmezelf": 8544,
      "Ġ1918": 8545,
      "Ġakkoord": 8546,
      "Ġopbrengst": 8547,
      "boe": 8548,
      "Ġvik": 8549,
      "Ġkooi": 8550,
      "Ġopper": 8551,
      "Ġret": 8552,
      "Ġhoeveelheden": 8553,
      "Ġblaas": 8554,
      "nederlands": 8555,
      "Ġdichterbij": 8556,
      "Ġsongfestival": 8557,
      "'?": 8558,
      "tim": 8559,
      "wonden": 8560,
      "Ġfys": 8561,
      "iering": 8562,
      "Ġschijf": 8563,
      "Ġlangzamer": 8564,
      "Ġhuiswerk": 8565,
      "Ġbovenste": 8566,
      "houders": 8567,
      "Ġagenten": 8568,
      "toren": 8569,
      "Ġzuster": 8570,
      "Ġdiepte": 8571,
      "tewel": 8572,
      "ulance": 8573,
      "Ġversla": 8574,
      "gevoel": 8575,
      "Ġeindigde": 8576,
      "Ġdirk": 8577,
      "Ġrh": 8578,
      "Ġbehoef": 8579,
      "Ġrijks": 8580,
      "Ġtechnologie": 8581,
      "Ġgegooid": 8582,
      "gh": 8583,
      "Ġcav": 8584,
      "sper": 8585,
      "iche": 8586,
      "Ġverbruik": 8587,
      "Ġvierkant": 8588,
      "Ġintelligen": 8589,
      "Ġvoerde": 8590,
      "barde": 8591,
      "alexander": 8592,
      "Ġoverdag": 8593,
      "oogde": 8594,
      "Ġrozen": 8595,
      "Ġmontene": 8596,
      "Ġverdedigen": 8597,
      "Ġeventueel": 8598,
      "erdinand": 8599,
      "Ġrepar": 8600,
      "ouwer": 8601,
      "ness": 8602,
      "Ġmoeders": 8603,
      "Ġbeperkt": 8604,
      "Ġoplossen": 8605,
      "dru": 8606,
      "rig": 8607,
      "etie": 8608,
      "Ġhamer": 8609,
      "Ġsne": 8610,
      "affen": 8611,
      "Ġartikelen": 8612,
      "Ġwalt": 8613,
      "uf": 8614,
      "yo": 8615,
      "eringen": 8616,
      "elke": 8617,
      "Ġsfeer": 8618,
      "Ġjesse": 8619,
      "vent": 8620,
      "Ġafdeling": 8621,
      "werker": 8622,
      "Ġzwaard": 8623,
      "Ġbarb": 8624,
      "my": 8625,
      "Ġautor": 8626,
      "Ġeurope": 8627,
      "Ġijsland": 8628,
      "wijking": 8629,
      "Ġnadelen": 8630,
      "zakelijk": 8631,
      "Ġadvoc": 8632,
      "955": 8633,
      "Ġopvattingen": 8634,
      "Ġspits": 8635,
      "1914": 8636,
      "Ġopenen": 8637,
      "Ġmaatregel": 8638,
      "Ġwetenschappelijke": 8639,
      "lengte": 8640,
      "Ġvoc": 8641,
      "Ġ1920": 8642,
      "Ġgezamen": 8643,
      "Ġfantas": 8644,
      "Ġvoedingsstoffen": 8645,
      "Ġrespect": 8646,
      "Ġbese": 8647,
      "Ġsloten": 8648,
      "Ġorkaan": 8649,
      "Ġvasthouden": 8650,
      "Ġ06": 8651,
      "Ġ1986": 8652,
      "Ġonbekend": 8653,
      "Ġilleg": 8654,
      "oplossing": 8655,
      "argumenteer": 8656,
      "orium": 8657,
      "Ġgent": 8658,
      "Ġmem": 8659,
      "Ġberichten": 8660,
      "Ġtreden": 8661,
      "Ġimport": 8662,
      "gelukkig": 8663,
      "Ġgooide": 8664,
      "rome": 8665,
      "ense": 8666,
      "Ġtik": 8667,
      "speel": 8668,
      "Ġvacc": 8669,
      "Ġnatuurgebied": 8670,
      "Ġeiwitten": 8671,
      "Ġrenaiss": 8672,
      "code": 8673,
      "kong": 8674,
      "orus": 8675,
      "Ġgulden": 8676,
      "Ġrie": 8677,
      "Ġrik": 8678,
      "Ġuitslag": 8679,
      "Ġgewend": 8680,
      "Ġhuisdier": 8681,
      "Ġonderzoeks": 8682,
      "Ġtwente": 8683,
      "Ġwarmer": 8684,
      "Ġsatell": 8685,
      "Ġprincipe": 8686,
      "Ġbelastingen": 8687,
      "946": 8688,
      "uderen": 8689,
      "Ġdap": 8690,
      "Ġinclusief": 8691,
      "Ġuitgevonden": 8692,
      "ski": 8693,
      "Ġoekraiense": 8694,
      "Ġvent": 8695,
      "Ġhip": 8696,
      "Ġmi": 8697,
      "Ġgif": 8698,
      "Ġpadden": 8699,
      "Ġschen": 8700,
      "Ġhaarlem": 8701,
      "Ġregion": 8702,
      "ratisch": 8703,
      "----": 8704,
      "Ġtalent": 8705,
      "sym": 8706,
      "Ġ?": 8707,
      "Ġered": 8708,
      "Ġ...,": 8709,
      "Ġgevoelens": 8710,
      "Ġeventjes": 8711,
      "Ġmary": 8712,
      "proef": 8713,
      "Ġmake": 8714,
      "939": 8715,
      "vere": 8716,
      "jaja": 8717,
      "ical": 8718,
      "ugel": 8719,
      "Ġorganen": 8720,
      "Ġdienen": 8721,
      "aldo": 8722,
      "Ġrussisch": 8723,
      "Ġvlaams": 8724,
      "Ġuitbreiding": 8725,
      "Ġwerkstuk": 8726,
      "hur": 8727,
      "Ġabel": 8728,
      "Ġgemen": 8729,
      "ience": 8730,
      "Ġdriehoek": 8731,
      "prins": 8732,
      "Ġadviezen": 8733,
      "ep": 8734,
      "Ġmut": 8735,
      "verzeker": 8736,
      "Ġalsnog": 8737,
      "Ġthail": 8738,
      "1471": 8739,
      "Ġbruggen": 8740,
      "Ġviool": 8741,
      "Ġafgedrukt": 8742,
      "Ġclown": 8743,
      "Ġspecif": 8744,
      "Ġattracties": 8745,
      "Ġgastenboek": 8746,
      "Ġglimlacht": 8747,
      "lysyl": 8748,
      "ble": 8749,
      "Ġdraag": 8750,
      "Ġtor": 8751,
      "Ġvoorwaarden": 8752,
      "Ġuitsluitend": 8753,
      "wekt": 8754,
      "Ġfilip": 8755,
      "pport": 8756,
      "Ġstemm": 8757,
      "Ġfabrik": 8758,
      "Ġpsv": 8759,
      "kaarten": 8760,
      "vuldig": 8761,
      "Ġspe": 8762,
      "ugo": 8763,
      "Ġkeerde": 8764,
      "Ġhoofdletter": 8765,
      "vrouwen": 8766,
      "Ġvriendinnen": 8767,
      "cieel": 8768,
      "Ġonderscheid": 8769,
      "Ġarchitectuur": 8770,
      "ijsten": 8771,
      "Ġwenen": 8772,
      "Ġzint": 8773,
      "Ġrang": 8774,
      "wijzer": 8775,
      "volging": 8776,
      "Ġplaneten": 8777,
      "Ġ1500": 8778,
      "Ġ1944": 8779,
      "Ġboris": 8780,
      "Ġpaniek": 8781,
      "Ġenerg": 8782,
      "Ġvoorkant": 8783,
      "Ġgriep": 8784,
      "Ġschilderen": 8785,
      "Ġsorry": 8786,
      "1124": 8787,
      "Ġonmogelijk": 8788,
      "Ġblind": 8789,
      "1513": 8790,
      "Ġknik": 8791,
      "1216": 8792,
      "treem": 8793,
      "Ġslachtoffer": 8794,
      "Ġstatus": 8795,
      "Ġavonturen": 8796,
      "41": 8797,
      "sburg": 8798,
      "Ġgesm": 8799,
      "Ġontbreken": 8800,
      "1057": 8801,
      "1406": 8802,
      "1153": 8803,
      "ziatische": 8804,
      "Ġmelodie": 8805,
      "Ġthailand": 8806,
      "ms": 8807,
      "otische": 8808,
      "Ġterrit": 8809,
      "gevaar": 8810,
      "Ġontwikkelde": 8811,
      "Ġatlantische": 8812,
      "Ġreferendum": 8813,
      "Ġprofess": 8814,
      "Ġak": 8815,
      "Ġdoelpunt": 8816,
      "Ġplay": 8817,
      "half": 8818,
      "Ġwoedend": 8819,
      "graf": 8820,
      "usie": 8821,
      "Ġschaar": 8822,
      "Ġbestand": 8823,
      "intjes": 8824,
      "Ġkleinste": 8825,
      "langs": 8826,
      "Ġverbranding": 8827,
      "Ġlabor": 8828,
      "vliegtuig": 8829,
      "aturen": 8830,
      "Ġnick": 8831,
      "Ġgebrek": 8832,
      "entwintig": 8833,
      "Ġserieus": 8834,
      "Ġqua": 8835,
      "Ġschreeuwde": 8836,
      "Ġaanwezigheid": 8837,
      "Ġbir": 8838,
      "Ġjochem": 8839,
      "Ġmythologie": 8840,
      "ban": 8841,
      "fort": 8842,
      "jaren": 8843,
      "rick": 8844,
      "Ġlens": 8845,
      "ollen": 8846,
      "Ġdeelwoord": 8847,
      "Ġgereden": 8848,
      "doende": 8849,
      "Ġ1964": 8850,
      "Ġheksen": 8851,
      "verschillen": 8852,
      "Ġveertien": 8853,
      "Ġwoede": 8854,
      "icten": 8855,
      "Ġruiken": 8856,
      "Ġscheids": 8857,
      "Ġafgeschaft": 8858,
      "Ġtraining": 8859,
      "dur": 8860,
      "Ġraff": 8861,
      "Ġschimm": 8862,
      "stemen": 8863,
      "Ġspinnen": 8864,
      "Ġirak": 8865,
      "Ġ126": 8866,
      "Ġvorsten": 8867,
      "Ġscore": 8868,
      "Ġcadeau": 8869,
      "ston": 8870,
      "Ġdatum": 8871,
      "okker": 8872,
      "Ġcoc": 8873,
      "Ġmeervoud": 8874,
      "Ġtweeen": 8875,
      "Ġonthouden": 8876,
      "gericht": 8877,
      "Ġgelden": 8878,
      "Ġtrommel": 8879,
      "Ġhaas": 8880,
      "problemen": 8881,
      "Ġaflevering": 8882,
      "Ġsigar": 8883,
      "39": 8884,
      "wi": 8885,
      "zy": 8886,
      "Ġreser": 8887,
      "merk": 8888,
      "Ġpolder": 8889,
      "greep": 8890,
      "inaas": 8891,
      "Ġmineralen": 8892,
      "Ġbroeik": 8893,
      "ario": 8894,
      "Ġgooi": 8895,
      "ador": 8896,
      "Ġbloedvaten": 8897,
      "Ġwoningen": 8898,
      "Ġvullen": 8899,
      "raaid": 8900,
      "Ġuitgere": 8901,
      "Ġgrap": 8902,
      "Ġmerkt": 8903,
      "rijn": 8904,
      "tuin": 8905,
      "Ġenig": 8906,
      "ota": 8907,
      "Ġverpak": 8908,
      "Ġteveel": 8909,
      "Ġhandelen": 8910,
      "Ġhelm": 8911,
      "Ġervaren": 8912,
      "Ġrepublikeinse": 8913,
      "!)": 8914,
      "chlor": 8915,
      "Ġama": 8916,
      "Ġplaatsvinden": 8917,
      "Ġvoeding": 8918,
      "Ġtomas": 8919,
      "Ġbestuurd": 8920,
      "Ġprotesten": 8921,
      "stemd": 8922,
      "Ġschrikken": 8923,
      "osaurus": 8924,
      "Ġstruiken": 8925,
      "Ġtoevallig": 8926,
      "nodig": 8927,
      "waren": 8928,
      "Ġdop": 8929,
      "Ġverlen": 8930,
      "Ġomvat": 8931,
      "Ġoverleg": 8932,
      "Ġplattegrond": 8933,
      "Ġeitjes": 8934,
      "ced": 8935,
      "enn": 8936,
      "Ġbast": 8937,
      "Ġjal": 8938,
      "Ġvierkan": 8939,
      "isseur": 8940,
      "Ġmigratie": 8941,
      "Ġlenen": 8942,
      "akers": 8943,
      "aga": 8944,
      "Ġbarcelona": 8945,
      "Ġdas": 8946,
      "Ġhoorden": 8947,
      "ijp": 8948,
      "Ġfleur": 8949,
      "istent": 8950,
      "belang": 8951,
      "Ġbloedcellen": 8952,
      "vinger": 8953,
      "Ġbiologische": 8954,
      "Ġstammen": 8955,
      "loc": 8956,
      "oornis": 8957,
      "ouse": 8958,
      "aks": 8959,
      "Ġonvol": 8960,
      "Ġadres": 8961,
      "Ġgezegde": 8962,
      "Ġotto": 8963,
      "Ġvoltooid": 8964,
      "Ġaangeboden": 8965,
      "hok": 8966,
      "vaak": 8967,
      "asus": 8968,
      "Ġsnijden": 8969,
      "Ġruikt": 8970,
      "Ġknieen": 8971,
      "Ġgrondstoffen": 8972,
      "Ġvissers": 8973,
      "Ġbrits": 8974,
      "Ġavontuur": 8975,
      "Ġopvallend": 8976,
      "ynastie": 8977,
      "iod": 8978,
      "ĠÃ": 8979,
      "ero": 8980,
      "Ġdaalt": 8981,
      "Ġpind": 8982,
      "Ġomgaan": 8983,
      "Ġafkorting": 8984,
      "Ġlachend": 8985,
      "ware": 8986,
      "ary": 8987,
      "Ġbelangrijker": 8988,
      "Ġdrukt": 8989,
      "Ġmadrid": 8990,
      "Ġlocatie": 8991,
      "Ġstalin": 8992,
      "stip": 8993,
      "Ġpict": 8994,
      "Ġvoorlezen": 8995,
      "Ġafleiding": 8996,
      "iezel": 8997,
      "Ġgezondheids": 8998,
      "Ġbinas": 8999,
      "book": 9000,
      "ĠĊ": 9001,
      "Ġmid": 9002,
      "Ġzwij": 9003,
      "Ġnon": 9004,
      "rijpen": 9005,
      "Ġgenees": 9006,
      "aller": 9007,
      "Ġath": 9008,
      "Ġkauw": 9009,
      "Ġinstitu": 9010,
      "Ġvruchten": 9011,
      "Ġjagers": 9012,
      "Ġextreem": 9013,
      "Ġdoelpunten": 9014,
      "Ġratten": 9015,
      "Ġwhats": 9016,
      "Ġislamitische": 9017,
      "Ġvice": 9018,
      "itaal": 9019,
      "Ġvalerie": 9020,
      "hoogte": 9021,
      "Ġpannen": 9022,
      "Ġverwachting": 9023,
      "voetbal": 9024,
      "Ġjournalisten": 9025,
      "xy": 9026,
      "atl": 9027,
      "Ġzult": 9028,
      "Ġpoging": 9029,
      "Ġprog": 9030,
      "Ġpoly": 9031,
      "Ġtheod": 9032,
      "Ġandersom": 9033,
      "Ġverloop": 9034,
      "Ġgeheugen": 9035,
      "hoi": 9036,
      "bouwen": 9037,
      "lotte": 9038,
      "Ġwonnen": 9039,
      "Ġopzoeken": 9040,
      "Ġbeieren": 9041,
      "Ġbeveil": 9042,
      "gevuld": 9043,
      "Ġanti": 9044,
      "Ġstadhouder": 9045,
      "allatie": 9046,
      "makers": 9047,
      "Ġhielp": 9048,
      "Ġstrenge": 9049,
      "wolf": 9050,
      "Ġeva": 9051,
      "Ġvoorraad": 9052,
      "bewijs": 9053,
      "Ġverbouwd": 9054,
      "kleed": 9055,
      "Ġagress": 9056,
      "Ġafscheid": 9057,
      "pet": 9058,
      "Ġlilly": 9059,
      "groei": 9060,
      "Ġbeheer": 9061,
      "Ġverbouwen": 9062,
      "afbeelding": 9063,
      "Ġ1985": 9064,
      "Ġoplossingen": 9065,
      "Ġradioactie": 9066,
      "Ġsnavel": 9067,
      "Ġtropische": 9068,
      "Ġkartoni": 9069,
      "ford": 9070,
      "Ġzeem": 9071,
      "Ġbay": 9072,
      "Ġrept": 9073,
      "oordin": 9074,
      "Ġsnuit": 9075,
      "Ġkermis": 9076,
      "Ġscene": 9077,
      "Ġwebquest": 9078,
      "Ġvleerm": 9079,
      "Ġteams": 9080,
      "cd": 9081,
      "duizend": 9082,
      "mi": 9083,
      "richten": 9084,
      "Ġboem": 9085,
      "Ġbedragen": 9086,
      "brr": 9087,
      "Ġverdeling": 9088,
      "Ġhenk": 9089,
      "Ġgerekend": 9090,
      "volution": 9091,
      "Ġaardappel": 9092,
      "Ġvanochtend": 9093,
      "Ġafro": 9094,
      "indie": 9095,
      "Ġouderen": 9096,
      "Ġorgaan": 9097,
      "Ġverwijderen": 9098,
      "Ġach": 9099,
      "Ġwerkgelegenheid": 9100,
      "Ġbalans": 9101,
      "Ġregenwoud": 9102,
      "ffende": 9103,
      "Ġstijging": 9104,
      "Ġgilde": 9105,
      "gevers": 9106,
      "Ġfer": 9107,
      "bek": 9108,
      "neus": 9109,
      "velien": 9110,
      "Ġmenselijk": 9111,
      "Ġintussen": 9112,
      "Ġvoortplant": 9113,
      "Ġbacterie": 9114,
      "996": 9115,
      "aria": 9116,
      "Ġwend": 9117,
      "icum": 9118,
      "Ġgedichten": 9119,
      "Ġcola": 9120,
      "Ġbegreep": 9121,
      "Ġromant": 9122,
      "Ġtoepassing": 9123,
      "Ġinspiratie": 9124,
      "02": 9125,
      "hr": 9126,
      "leen": 9127,
      "Ġbenoemd": 9128,
      "Ġwegge": 9129,
      "Ġtram": 9130,
      "Ġcompleet": 9131,
      "Ġegypt": 9132,
      "Ġlokaal": 9133,
      "Ġverschijnt": 9134,
      "Ġdeksel": 9135,
      "Ġwhatsapp": 9136,
      "arbeid": 9137,
      "Ġout": 9138,
      "Ġvandaar": 9139,
      "Ġworm": 9140,
      "opers": 9141,
      "Ġmeningen": 9142,
      "spe": 9143,
      "Ġschrijfster": 9144,
      "izigers": 9145,
      "boy": 9146,
      "Ġdiscrimin": 9147,
      "Ġdoosje": 9148,
      "Ġvictoria": 9149,
      "Ġhorizont": 9150,
      "ctar": 9151,
      "koff": 9152,
      "Ġopkomst": 9153,
      "Ġhierover": 9154,
      "Ġveelal": 9155,
      "1922": 9156,
      "Ġ64": 9157,
      "Ġbehouden": 9158,
      "box": 9159,
      "Ġgeloofde": 9160,
      "Ġoverleef": 9161,
      "Ġmompelde": 9162,
      "36": 9163,
      "vijf": 9164,
      "Ġkocht": 9165,
      "Ġnos": 9166,
      "Ġakker": 9167,
      "Ġalgen": 9168,
      "Ġploeg": 9169,
      "irus": 9170,
      "Ġparken": 9171,
[...]
