{
  "version": "1.0",
  "truncation": null,
  "padding": null,
  "added_tokens": [
    {
      "id": 0,
      "content": "<UNK>",
      "single_word": false,
      "lstrip": false,
      "rstrip": false,
      "normalized": false,
      "special": true
    },
    {
      "id": 1,
      "content": "<PAD>",
      "single_word": false,
      "lstrip": false,
      "rstrip": false,
      "normalized": false,
      "special": true
    },
    {
      "id": 2,
      "content": "<CLS>",
      "single_word": false,
      "lstrip": false,
      "rstrip": false,
      "normalized": false,
      "special": true
    },
    {
      "id": 3,
      "content": "<SEP>",
      "single_word": false,
      "lstrip": false,
      "rstrip": false,
      "normalized": false,
      "special": true
    },
    {
      "id": 4,
      "content": "<MASK>",
      "single_word": false,
      "lstrip": false,
      "rstrip": false,
      "normalized": false,
      "special": true
    },
    {
      "id": 5,
      "content": "<EN>",
      "single_word": false,
      "lstrip": false,
      "rstrip": false,
      "normalized": false,
      "special": true
    }
  ],
  "normalizer": {
    "type": "Sequence",
    "normalizers": [
      {
        "type": "NFD"
      },
      {
        "type": "StripAccents"
      },
      {
        "type": "Lowercase"
      }
    ]
  },
  "pre_tokenizer": {
    "type": "ByteLevel",
    "add_prefix_space": false,
    "trim_offsets": true,
    "use_regex": true
  },
  "post_processor": {
    "type": "ByteLevel",
    "add_prefix_space": true,
    "trim_offsets": true,
    "use_regex": true
  },
  "decoder": {
    "type": "ByteLevel",
    "add_prefix_space": true,
    "trim_offsets": true,
    "use_regex": true
  },
  "model": {
    "type": "BPE",
    "dropout": null,
    "unk_token": "<UNK>",
    "continuing_subword_prefix": null,
    "end_of_word_suffix": null,
    "fuse_unk": false,
    "byte_fallback": false,
    "ignore_merges": false,
    "vocab": {
      "<UNK>": 0,
      "<PAD>": 1,
      "<CLS>": 2,
      "<SEP>": 3,
      "<MASK>": 4,
      "<EN>": 5,
      "!": 6,
      "\"": 7,
      "#": 8,
      "$": 9,
      "%": 10,
      "&": 11,
      "'": 12,
      "(": 13,
      ")": 14,
      "*": 15,
      "+": 16,
      ",": 17,
      "-": 18,
      ".": 19,
      "/": 20,
      "0": 21,
      "1": 22,
      "2": 23,
      "3": 24,
      "4": 25,
      "5": 26,
      "6": 27,
      "7": 28,
      "8": 29,
      "9": 30,
      ":": 31,
      ";": 32,
      "=": 33,
      "?": 34,
      "@": 35,
      "[": 36,
      "]": 37,
      "^": 38,
      "_": 39,
      "`": 40,
      "a": 41,
      "b": 42,
      "c": 43,
      "d": 44,
      "e": 45,
      "f": 46,
      "g": 47,
      "h": 48,
      "i": 49,
      "j": 50,
      "k": 51,
      "l": 52,
      "m": 53,
      "n": 54,
      "o": 55,
      "p": 56,
      "q": 57,
      "r": 58,
      "s": 59,
      "t": 60,
      "u": 61,
      "v": 62,
      "w": 63,
      "x": 64,
      "y": 65,
      "z": 66,
      "{": 67,
      "|": 68,
      "}": 69,
      "~": 70,
      "£": 71,
      "¦": 72,
      "©": 73,
      "ª": 74,
      "«": 75,
      "°": 76,
      "·": 77,
      "º": 78,
      "½": 79,
      "¿": 80,
      "Â": 81,
      "Ã": 82,
      "Ç": 83,
      "É": 84,
      "Ê": 85,
      "Ë": 86,
      "â": 87,
      "ï": 88,
      "ĉ": 89,
      "Ġ": 90,
      "Ģ": 91,
      "ģ": 92,
      "ĥ": 93,
      "Ĩ": 94,
      "ĩ": 95,
      "Ī": 96,
      "ī": 97,
      "Ĭ": 98,
      "ĭ": 99,
      "Į": 100,
      "İ": 101,
      "Ĳ": 102,
      "Ĵ": 103,
      "Ķ": 104,
      "ĸ": 105,
      "Ĺ": 106,
      "ĺ": 107,
      "Ļ": 108,
      "Ľ": 109,
      "ľ": 110,
      "Ŀ": 111,
      "Ġt": 112,
      "he": 113,
      "ot": 114,
      "hi": 115,
      "mot": 116,
      "Ġa": 117,
      "in": 118,
      "chi": 119,
      "ou": 120,
      "ha": 121,
      "re": 122,
      "Ġw": 123,
      "Ġthe": 124,
      "Ġs": 125,
      "Ġi": 126,
      "on": 127,
      "you": 128,
      "Ġb": 129,
      "hat": 130,
      "Ġd": 131,
      "an": 132,
      "Ġyou": 133,
      "Ġc": 134,
      "er": 135,
      "Ġm": 136,
      "Ġg": 137,
      "ll": 138,
      "'s": 139,
      "Ġp": 140,
      "es": 141,
      "ing": 142,
      "Ġto": 143,
      "Ġf": 144,
      "Ġl": 145,
      "nd": 146,
      "Ġit": 147,
      "at": 148,
      "no": 149,
      "it": 150,
      "Ġo": 151,
      "ea": 152,
      "oo": 153,
      "ay": 154,
      "Ġon": 155,
      "en": 156,
      "Ġthat": 157,
      "or": 158,
      "se": 159,
      "om": 160,
      "et": 161,
      "ar": 162,
      "Ġhe": 163,
      "Ġand": 164,
      "Ġin": 165,
      "Ġdo": 166,
      "Ġha": 167,
      "'t": 168,
      "ve": 169,
      "gh": 170,
      "st": 171,
      "Ġthi": 172,
      "Ġn": 173,
      "ke": 174,
      "Ġof": 175,
      "xx": 176,
      "le": 177,
      "Ġwe": 178,
      "ut": 179,
      "ri": 180,
      "Ġis": 181,
      "ho": 182,
      "yea": 183,
      "inv": 184,
      "as": 185,
      "id": 186,
      "yeah": 187,
      "ck": 188,
      "Ġu": 189,
      "ed": 190,
      "ad": 191,
      "now": 192,
      "and": 193,
      "..": 194,
      "ld": 195,
      "ght": 196,
      "Ġgo": 197,
      "Ġe": 198,
      "what": 199,
      "is": 200,
      "oh": 201,
      "Ġk": 202,
      "ook": 203,
      "Ġbe": 204,
      "the": 205,
      "ch": 206,
      "ro": 207,
      "fat": 208,
      "out": 209,
      "ver": 210,
      "Ġthis": 211,
      "ome": 212,
      "].": 213,
      "Ġli": 214,
      "al": 215,
      "au": 216,
      "all": 217,
      "Ġst": 218,
      "Ġre": 219,
      "ic": 220,
      "ng": 221,
      "Ġone": 222,
      "Ġse": 223,
      "ir": 224,
      "Ġthere": 225,
      "Ġme": 226,
      "Ġwhat": 227,
      "Ġj": 228,
      "xxx": 229,
      "Ġdon": 230,
      "we": 231,
      "um": 232,
      "Ġfor": 233,
      "na": 234,
      "Ġcan": 235,
      "Ġwas": 236,
      "that": 237,
      "her": 238,
      "Ġat": 239,
      "me": 240,
      "Ġhave": 241,
      "Ġwan": 242,
      "Ġknow": 243,
      "ith": 244,
      "Ġthey": 245,
      "Ġh": 246,
      "nk": 247,
      "ra": 248,
      "right": 249,
      "here": 250,
      "yes": 251,
      "Ġlike": 252,
      "Ġan": 253,
      "Ġup": 254,
      "Ġwith": 255,
      "Ġare": 256,
      "ly": 257,
      "Ġhi": 258,
      "Ġyour": 259,
      "Ġ[": 260,
      "...": 261,
      "'re": 262,
      "ent": 263,
      "Ġba": 264,
      "kay": 265,
      "Ġnot": 266,
      "ould": 267,
      "Ġget": 268,
      "ur": 269,
      "Ġgot": 270,
      "ust": 271,
      "Ġpl": 272,
      "Ġno": 273,
      "Ġxxx": 274,
      "ce": 275,
      "Ġth": 276,
      "Ġlook": 277,
      "uh": 278,
      "Ġsee": 279,
      "Ġshe": 280,
      "Ġthink": 281,
      "Ġdid": 282,
      "Ġer": 283,
      "Ġout": 284,
      "wn": 285,
      "ood": 286,
      "Ġput": 287,
      "Ġall": 288,
      "pp": 289,
      "ct": 290,
      "do": 291,
      "ion": 292,
      "ake": 293,
      "ie": 294,
      "ill": 295,
      "Ġr": 296,
      "okay": 297,
      "Ġwant": 298,
      "Ġne": 299,
      "Ġhere": 300,
      "ter": 301,
      "my": 302,
      "Ġsome": 303,
      "Ġthen": 304,
      "one": 305,
      "Ġmy": 306,
      "ry": 307,
      "Ġso": 308,
      "hing": 309,
      "'m": 310,
      "how": 311,
      "ig": 312,
      "ore": 313,
      "'ll": 314,
      "un": 315,
      "lo": 316,
      "ta": 317,
      "par": 318,
      "other": 319,
      "very": 320,
      "hm": 321,
      "Ġbo": 322,
      "Ġsay": 323,
      "il": 324,
      "ma": 325,
      "Ġsa": 326,
      "itt": 327,
      "Ġab": 328,
      "ause": 329,
      "Ġjust": 330,
      "ound": 331,
      "Ġas": 332,
      "Ġthem": 333,
      "'ve": 334,
      "hen": 335,
      "ell": 336,
      "ex": 337,
      "so": 338,
      "ally": 339,
      "wo": 340,
      "ab": 341,
      "Ġbut": 342,
      "our": 343,
      "Ġco": 344,
      "cause": 345,
      "add": 346,
      "Ġher": 347,
      "Ġdown": 348,
      "well": 349,
      "Ġ'": 350,
      "Ġright": 351,
      "ear": 352,
      "there": 353,
      "onna": 354,
      "Ġgoing": 355,
      "Ġchi": 356,
      "Ġnow": 357,
      "ight": 358,
      "Ġfr": 359,
      "Ġabout": 360,
      "where": 361,
      "are": 362,
      "us": 363,
      "ice": 364,
      "ge": 365,
      "Ġgonna": 366,
      "op": 367,
      "qu": 368,
      "Ġor": 369,
      "Ġback": 370,
      "Ġif": 371,
      "exp": 372,
      "if": 373,
      "augh": 374,
      "pe": 375,
      "Ġplay": 376,
      "ive": 377,
      "ick": 378,
      "look": 379,
      "am": 380,
      "ittle": 381,
      "ers": 382,
      "Ġdoes": 383,
      "ep": 384,
      "int": 385,
      "Ġgood": 386,
      "mm": 387,
      "Ġhis": 388,
      "hy": 389,
      "Ġlittle": 390,
      "his": 391,
      "Ġany": 392,
      "but": 393,
      "Ġcar": 394,
      "ure": 395,
      "be": 396,
      "ind": 397,
      "king": 398,
      "Ġ=": 399,
      "by": 400,
      "Ġti": 401,
      "Ġal": 402,
      "Ġwhen": 403,
      "Ġpa": 404,
      "to": 405,
      "art": 406,
      "aughs": 407,
      "Ġhim": 408,
      "Ġtwo": 409,
      "ps": 410,
      "Ġwanna": 411,
      "ven": 412,
      "Ġoff": 413,
      "can": 414,
      "Ġmore": 415,
      "Ġpo": 416,
      "Ġthing": 417,
      "Ġy": 418,
      "mhm": 419,
      ".]": 420,
      "Ġma": 421,
      "el": 422,
      "kes": 423,
      "ah": 424,
      "Ġover": 425,
      "nt": 426,
      "Ġwor": 427,
      "Ġwould": 428,
      "Ġcom": 429,
      "Ġhad": 430,
      "ine": 431,
      "Ġfrom": 432,
      "Ġwere": 433,
      "ww": 434,
      "im": 435,
      "day": 436,
      "ree": 437,
      "ul": 438,
      "Ġvery": 439,
      "ough": 440,
      "Ġsp": 441,
      "ds": 442,
      "Ġsaid": 443,
      "Ġtoo": 444,
      "they": 445,
      "omet": 446,
      "ast": 447,
      "bo": 448,
      "th": 449,
      "way": 450,
      "ide": 451,
      "laughs": 452,
      "ber": 453,
      "Ġbig": 454,
      "ga": 455,
      "ty": 456,
      "te": 457,
      "this": 458,
      "ong": 459,
      "Ġcome": 460,
      "Ġwhi": 461,
      "Ġho": 462,
      "ess": 463,
      "let": 464,
      "Ġlo": 465,
      "Ġwell": 466,
      "Ġbook": 467,
      "Ġeat": 468,
      "Ġsomet": 469,
      "Ġmot": 470,
      "she": 471,
      "Ġother": 472,
      "Ġdidn": 473,
      "Ġcha": 474,
      "Ġv": 475,
      "ummy": 476,
      "urn": 477,
      "oor": 478,
      "ff": 479,
      "Ġtime": 480,
      "uck": 481,
      "Ġhas": 482,
      "ame": 483,
      "Ġwhere": 484,
      "tea": 485,
      "Ġwho": 486,
      "Ġmake": 487,
      "ate": 488,
      "ise": 489,
      "Ġman": 490,
      "Ġneed": 491,
      "Ġpe": 492,
      "ation": 493,
      "Ġqu": 494,
      "sing": 495,
      "Ġcould": 496,
      "Ġmean": 497,
      "Ġta": 498,
      "gain": 499,
      "don": 500,
      "per": 501,
      "Ġerm": 502,
      "sis": 503,
      "dy": 504,
      "Ġdoing": 505,
      "Ġlooks": 506,
      "ort": 507,
      "ite": 508,
      "Ġwill": 509,
      "Ġcon": 510,
      "hose": 511,
      "Ġmo": 512,
      "Ġsu": 513,
      "Ġbaby": 514,
      "Ġthese": 515,
      "Ġcl": 516,
      "huh": 517,
      "ouse": 518,
      "Ġhow": 519,
      "Ġtell": 520,
      "ies": 521,
      "Ġagain": 522,
      "Ġsh": 523,
      "Ġpro": 524,
      "Ġtake": 525,
      "Ġwat": 526,
      "ow": 527,
      "Ġlet": 528,
      "ss": 529,
      "red": 530,
      "Ġar": 531,
      "Ġhand": 532,
      "Ġsomething": 533,
      "who": 534,
      "Ġmom": 535,
      "Ġreally": 536,
      "Ġpre": 537,
      "Ġde": 538,
      "mch": 539,
      "Ġro": 540,
      "les": 541,
      "addy": 542,
      "ting": 543,
      "che": 544,
      "why": 545,
      "bro": 546,
      "Ġbit": 547,
      "up": 548,
      "Ġway": 549,
      "oom": 550,
      "ne": 551,
      "Ġsec": 552,
      "Ġbl": 553,
      "ix": 554,
      "come": 555,
      "ys": 556,
      "Ġby": 557,
      "sed": 558,
      "did": 559,
      "Ġel": 560,
      "Ġex": 561,
      "Ġyeah": 562,
      "ue": 563,
      "Ġisn": 564,
      "Ġfe": 565,
      "ves": 566,
      "go": 567,
      "Ġbu": 568,
      "ool": 569,
      "Ġtal": 570,
      "Ġbecause": 571,
      "lf": 572,
      "gma": 573,
      "ople": 574,
      "hank": 575,
      "pl": 576,
      "ble": 577,
      "ard": 578,
      "Ġread": 579,
      "Ġthose": 580,
      "ving": 581,
      "co": 582,
      "âĮ": 583,
      "fta": 584,
      "Ġbeen": 585,
      "get": 586,
      "Ġpu": 587,
      "Ġbr": 588,
      "ous": 589,
      "Ġpeople": 590,
      "ant": 591,
      "put": 592,
      "Ġball": 593,
      "Ġfa": 594,
      "est": 595,
      "Ġturn": 596,
      "Ġthree": 597,
      "Ġokay": 598,
      "Ġhafta": 599,
      "Ġhapp": 600,
      "li": 601,
      "'d": 602,
      "Ġle": 603,
      "read": 604,
      "Ġnice": 605,
      "Ġbox": 606,
      "Ġhouse": 607,
      "row": 608,
      "ack": 609,
      "Ġtr": 610,
      "Ġelse": 611,
      "Ġlot": 612,
      "Ġyes": 613,
      "bab": 614,
      "Ġchild": 615,
      "Ġhel": 616,
      "Ġanother": 617,
      "Ġfl": 618,
      "fe": 619,
      "Ġgoes": 620,
      "ny": 621,
      "ft": 622,
      "Ġ.": 623,
      "Ġdone": 624,
      "Ġdoesn": 625,
      "iz": 626,
      "Ġinto": 627,
      "ink": 628,
      "not": 629,
      "Ġthings": 630,
      "Ġtra": 631,
      "Ġsha": 632,
      "Ġgr": 633,
      "Ġmu": 634,
      "ought": 635,
      "thing": 636,
      "ist": 637,
      "ked": 638,
      "Ġwent": 639,
      "Ġbet": 640,
      "Ġgir": 641,
      "irst": 642,
      "Ġum": 643,
      "gg": 644,
      "Ġcall": 645,
      "ning": 646,
      "Ġgre": 647,
      "rie": 648,
      "able": 649,
      "ish": 650,
      "Ġaway": 651,
      "Ġpic": 652,
      "ment": 653,
      "ks": 654,
      "ease": 655,
      "de": 656,
      "www": 657,
      "ually": 658,
      "Ġwon": 659,
      "Ġsho": 660,
      "Ġdaddy": 661,
      "Ġen": 662,
      "Ġgirl": 663,
      "Ġoh": 664,
      "Ġday": 665,
      "Ġsit": 666,
      "Ġwhich": 667,
      "body": 668,
      "Ġtry": 669,
      "Ġboy": 670,
      "Ġshould": 671,
      "po": 672,
      "ire": 673,
      "see": 674,
      "ture": 675,
      "Ġcat": 676,
      "Ġus": 677,
      "raw": 678,
      "ling": 679,
      "mber": 680,
      "Ġevery": 681,
      "Ġfour": 682,
      "Ġmuch": 683,
      "ces": 684,
      "side": 685,
      "Ġsc": 686,
      "Ġcou": 687,
      "Ġfirst": 688,
      "Ġsays": 689,
      "pen": 690,
      "Ġch": 691,
      "Ġact": 692,
      "cha": 693,
      "Ġpart": 694,
      "Ġke": 695,
      "good": 696,
      "Ġnoise": 697,
      "mo": 698,
      "chool": 699,
      "lor": 700,
      "Ġhome": 701,
      "Ġhead": 702,
      "mar": 703,
      "Ġour": 704,
      "Ġhu": 705,
      "nan": 706,
      "erm": 707,
      "Ġgive": 708,
      "riend": 709,
      "Ġra": 710,
      "Ġhappen": 711,
      "child": 712,
      "Ġche": 713,
      "Ġbed": 714,
      "Ġtheir": 715,
      "Ġmin": 716,
      "Ġschool": 717,
      "Ġhold": 718,
      "Ġmommy": 719,
      "Ġpicture": 720,
      "iss": 721,
      "Ġpie": 722,
      "Ġonly": 723,
      "gra": 724,
      "Ġstart": 725,
      "Ġmummy": 726,
      "thank": 727,
      "fter": 728,
      "Ġwee": 729,
      "mom": 730,
      "Ġwr": 731,
      "vo": 732,
      "Ġfive": 733,
      "Ġbot": 734,
      "Ġbir": 735,
      "Ġwork": 736,
      "Ġclo": 737,
      "nder": 738,
      "Ġlea": 739,
      "Ġaround": 740,
      "ap": 741,
      "Ġstill": 742,
      "Ġri": 743,
      "because": 744,
      "omas": 745,
      "ass": 746,
      "Ġjo": 747,
      "member": 748,
      "der": 749,
      "hey": 750,
      "aybe": 751,
      "Ġfind": 752,
      "Ġpoint": 753,
      "just": 754,
      "Ġopen": 755,
      "ade": 756,
      "Ġwater": 757,
      "ump": 758,
      "Ġcr": 759,
      "cal": 760,
      "Ġpick": 761,
      "pat": 762,
      "Ġgu": 763,
      "Ġmar": 764,
      "sh": 765,
      "Ġchair": 766,
      "em": 767,
      "Ġtea": 768,
      "Ġwhy": 769,
      "rough": 770,
      "xt": 771,
      "Ġtoday": 772,
      "Ġnext": 773,
      "fore": 774,
      "Ġtable": 775,
      "Ġwa": 776,
      "Ġfo": 777,
      "Ġcolor": 778,
      "Ġshow": 779,
      "man": 780,
      "Ġfun": 781,
      "Ġwal": 782,
      "Ġhelp": 783,
      "year": 784,
      "Ġthrough": 785,
      "Ġroom": 786,
      "Ġgone": 787,
      "Ġdif": 788,
      "Ġdoor": 789,
      "rea": 790,
      "Ġkind": 791,
      "ang": 792,
      "Ġyear": 793,
      "han": 794,
      "Ġdis": 795,
      "ence": 796,
      "Ġsix": 797,
      "leep": 798,
      "Ġafter": 799,
      "whi": 800,
      "fere": 801,
      "ect": 802,
      "for": 803,
      "Ġnew": 804,
      "ity": 805,
      "mp": 806,
      "hone": 807,
      "ries": 808,
      "ches": 809,
      "Ġfloor": 810,
      "Ġad": 811,
      "low": 812,
      "Ġfin": 813,
      "Ġdog": 814,
      "Ġlove": 815,
      "Ġname": 816,
      "ons": 817,
      "Ġplease": 818,
      "zz": 819,
      "Ġlast": 820,
      "bb": 821,
      "self": 822,
      "sha": 823,
      "Ġdr": 824,
      "uhhuh": 825,
      "Ġminut": 826,
      "ises": 827,
      "Ġunder": 828,
      "ath": 829,
      "Ġlong": 830,
      "Ġmight": 831,
      "llo": 832,
      "when": 833,
      "Ġuse": 834,
      "Ġsort": 835,
      "Ġred": 836,
      "oney": 837,
      "ary": 838,
      "Ġmon": 839,
      "Ġremember": 840,
      "Ġbetter": 841,
      "mummy": 842,
      "ory": 843,
      "does": 844,
      "]?": 845,
      "Ġthought": 846,
      "enty": 847,
      "have": 848,
      "car": 849,
      "age": 850,
      "ace": 851,
      "br": 852,
      "Ġhaven": 853,
      "Ġnight": 854,
      "sp": 855,
      "Ġsound": 856,
      "Ġmother": 857,
      "Ġ\"": 858,
      "Ġsm": 859,
      "ush": 860,
      "uff": 861,
      "alright": 862,
      "Ġhuh": 863,
      "Ġbro": 864,
      "Ġtoys": 865,
      "then": 866,
      "Ġbefore": 867,
      "ins": 868,
      "Ġcup": 869,
      "âĢ": 870,
      "Ġactually": 871,
      "hed": 872,
      "hes": 873,
      "ee": 874,
      "Ġround": 875,
      "Ġpaper": 876,
      "cks": 877,
      "ci": 878,
      "Ġapp": 879,
      "Ġhor": 880,
      "ans": 881,
      "Ġcalled": 882,
      "Ġun": 883,
      "Ġam": 884,
      "Ġpage": 885,
      "Ġthomas": 886,
      "Ġanything": 887,
      "Ġdiffere": 888,
      "Ġcoming": 889,
      "Ġfall": 890,
      "Ġea": 891,
      "Ġtop": 892,
      "cds": 893,
      "cor": 894,
      "Ġ,": 895,
      "Ġsleep": 896,
      "ful": 897,
      "loi": 898,
      "Ġtalking": 899,
      "Ġtoy": 900,
      "Ġmade": 901,
      "rd": 902,
      "ream": 903,
      "Ġbus": 904,
      "Ġnin": 905,
      "ellow": 906,
      "sta": 907,
      "Ġgotta": 908,
      "Ġlooking": 909,
      "Ġbear": 910,
      "Ġmat": 911,
      "ts": 912,
      "Ġhear": 913,
      "Ġele": 914,
      "Ġdoll": 915,
      "Ġthan": 916,
      "two": 917,
      "Ġeight": 918,
      "Ġuh": 919,
      "Ġju": 920,
      "Ġkeep": 921,
      "Ġte": 922,
      "Ġmany": 923,
      "Ġplaying": 924,
      "Ġtrain": 925,
      "adu": 926,
      "Ġtw": 927,
      "gr": 928,
      "Ġdar": 929,
      "orry": 930,
      "Ġgreen": 931,
      "makes": 932,
      "Ġgetting": 933,
      "ger": 934,
      "Ġtalk": 935,
      "Ġdraw": 936,
      "Ġblue": 937,
      "Ġrun": 938,
      "Ġsure": 939,
      "Ġsw": 940,
      "Ġquite": 941,
      "mommy": 942,
      "ooh": 943,
      "Ġmil": 944,
      "Ġcame": 945,
      "Ġear": 946,
      "Ġend": 947,
      "Ġmor": 948,
      "fch": 949,
      "like": 950,
      "als": 951,
      "Ġac": 952,
      "Ġsame": 953,
      "Ġda": 954,
      "si": 955,
      "Ġfar": 956,
      "Ġcook": 957,
      "Ġold": 958,
      "Ġhat": 959,
      "Ġstand": 960,
      "ond": 961,
      "ange": 962,
      "Ġpiece": 963,
      "Ġdifferent": 964,
      "point": 965,
      "ont": 966,
      "Ġcut": 967,
      "Ġper": 968,
      "ner": 969,
      "Ġfire": 970,
      "Ġhair": 971,
      "Ġnum": 972,
      "Ġfood": 973,
      "Ġdri": 974,
      "Ġstick": 975,
      "Ġwasn": 976,
      "ms": 977,
      "tle": 978,
      "bye": 979,
      "Ġhands": 980,
      "ding": 981,
      "ance": 982,
      "Ġside": 983,
      "ull": 984,
      "aw": 985,
      "hello": 986,
      "urs": 987,
      "Ġsing": 988,
      "ple": 989,
      "Ġeven": 990,
      "Ġaren": 991,
      "cle": 992,
      "Ġz": 993,
      "Ġvo": 994,
      "Ġstuff": 995,
      "ren": 996,
      "Ġdear": 997,
      "Ġmove": 998,
      "caliz": 999,
      "ways": 1000,
      "Ġwin": 1001,
      "Ġnoises": 1002,
      "Ġfriend": 1003,
      "Ġnever": 1004,
      "ions": 1005,
      "reak": 1006,
      "ather": 1007,
      "Ġwhe": 1008,
      "tend": 1009,
      "ild": 1010,
      "Ġchildes": 1011,
      "childes": 1012,
      "Ġmorning": 1013,
      "cl": 1014,
      "Ġdrink": 1015,
      "Ġmust": 1016,
      "Ġcomes": 1017,
      "Ġdin": 1018,
      "Ġstory": 1019,
      "ctor": 1020,
      "gether": 1021,
      "Ġones": 1022,
      "bably": 1023,
      "ater": 1024,
      "got": 1025,
      "Ġfeel": 1026,
      "Ġthough": 1027,
      "Ġalright": 1028,
      "bl": 1029,
      "Ġsaying": 1030,
      "gs": 1031,
      "Ġhappened": 1032,
      "ready": 1033,
      "Ġanim": 1034,
      "Ġmilk": 1035,
      "Ġspo": 1036,
      "vocaliz": 1037,
      "tty": 1038,
      "Ġmoney": 1039,
      "Ġminute": 1040,
      "Ġused": 1041,
      "Ġpull": 1042,
      "Ġcle": 1043,
      "Ġsaw": 1044,
      "Ġputs": 1045,
      "Ġcont": 1046,
      "Ġhund": 1047,
      "Ġtow": 1048,
      "ip": 1049,
      "Ġtogether": 1050,
      "eter": 1051,
      "Ġpen": 1052,
      "Ġsupp": 1053,
      "aser": 1054,
      "Ġmaking": 1055,
      "Ġfunny": 1056,
      "Ġwatch": 1057,
      "Ġgrand": 1058,
      "Ġwait": 1059,
      "act": 1060,
      "Ġbreak": 1061,
      "Ġcray": 1062,
      "rist": 1063,
      "Ġhundred": 1064,
      "unk": 1065,
      "Ġsl": 1066,
      "Ġhaving": 1067,
      "Ġob": 1068,
      "Ġstay": 1069,
      "shall": 1070,
      "Ġalways": 1071,
      "Ġready": 1072,
      "ult": 1073,
      "Ġtruck": 1074,
      "pt": 1075,
      "ken": 1076,
      "turn": 1077,
      "irs": 1078,
      "ia": 1079,
      "ress": 1080,
      "Ġgi": 1081,
      "ister": 1082,
      "Ġsqu": 1083,
      "Ġoutside": 1084,
      "Ġthank": 1085,
      "Ġcare": 1086,
      "tain": 1087,
      "daddy": 1088,
      "Ġbea": 1089,
      "cher": 1090,
      "Ġyellow": 1091,
      "ues": 1092,
      "which": 1093,
      "looks": 1094,
      "ets": 1095,
      "Ġpar": 1096,
      "oops": 1097,
      "outh": 1098,
      "Ġyet": 1099,
      "pped": 1100,
      "ane": 1101,
      "Ġbeing": 1102,
      "Ġtwenty": 1103,
      "more": 1104,
      "Ġbar": 1105,
      "wa": 1106,
      "res": 1107,
      "Ġcount": 1108,
      "ster": 1109,
      "Ġgl": 1110,
      "gas": 1111,
      "maybe": 1112,
      "Ġblo": 1113,
      "ring": 1114,
      "ball": 1115,
      "key": 1116,
      "Ġdarling": 1117,
      "Ġbring": 1118,
      "Ġlight": 1119,
      "Ġjuice": 1120,
      "mum": 1121,
      "ious": 1122,
      "Ġfoot": 1123,
      "Ġmum": 1124,
      "Ġpur": 1125,
      "Ġhur": 1126,
      "Ġwants": 1127,
      "Ġstop": 1128,
      "ese": 1129,
      "Ġdad": 1130,
      "room": 1131,
      "ross": 1132,
      "Ġpretty": 1133,
      "Ġpot": 1134,
      "Ġtrying": 1135,
      "Ġpol": 1136,
      "Ġtri": 1137,
      "Ġswe": 1138,
      "say": 1139,
      "Ġpound": 1140,
      "ghing": 1141,
      "friend": 1142,
      "os": 1143,
      "Ġya": 1144,
      "any": 1145,
      "Ġcos": 1146,
      "Ġbuild": 1147,
      "Ġthrow": 1148,
      "Ġpoints": 1149,
      "Ġjob": 1150,
      "Ġbath": 1151,
      "ject": 1152,
      "Ġwhile": 1153,
      "lau": 1154,
      "eal": 1155,
      "cat": 1156,
      "some": 1157,
      "Ġbirth": 1158,
      "Ġmic": 1159,
      "Ġprobably": 1160,
      "Ġfif": 1161,
      "Ġmaybe": 1162,
      "ished": 1163,
      "ching": 1164,
      "ye": 1165,
      "Ġnumber": 1166,
      "Ġcour": 1167,
      "ank": 1168,
      "cu": 1169,
      "Ġten": 1170,
      ".\"": 1171,
      "Ġgra": 1172,
      "Ġmakes": 1173,
      "would": 1174,
      "col": 1175,
      "Ġreal": 1176,
      "rying": 1177,
      "ag": 1178,
      "Ġhard": 1179,
      "Ġcor": 1180,
      "singing": 1181,
      "Ġspe": 1182,
      "wel": 1183,
      "vid": 1184,
      "Ġbirthday": 1185,
      "Ġtape": 1186,
      "ards": 1187,
      "ates": 1188,
      "ton": 1189,
      "Ġduck": 1190,
      "Ġpat": 1191,
      "sit": 1192,
      "was": 1193,
      "ated": 1194,
      "yep": 1195,
      "Ġfront": 1196,
      "ots": 1197,
      "Ġbag": 1198,
      "dad": 1199,
      "ste": 1200,
      "âĨ": 1201,
      "Ġmr": 1202,
      "your": 1203,
      "Ġdro": 1204,
      "Ġweek": 1205,
      "Ġbuy": 1206,
      "Ġah": 1207,
      "Ġleft": 1208,
      "phone": 1209,
      "att": 1210,
      "wow": 1211,
      "ub": 1212,
      "Ġchang": 1213,
      "ti": 1214,
      "Ġplace": 1215,
      "ĠĠ": 1216,
      "Ġwouldn": 1217,
      "Ġseen": 1218,
      "rest": 1219,
      "di": 1220,
      "Ġpr": 1221,
      "Ġlaughs": 1222,
      "Ġtom": 1223,
      "Ġpupp": 1224,
      "Ġseven": 1225,
      "Ġwanted": 1226,
      "Ġbad": 1227,
      "een": 1228,
      "Ġcho": 1229,
      "Ġown": 1230,
      "points": 1231,
      "Ġthir": 1232,
      "Ġset": 1233,
      "Ġwear": 1234,
      "Ġgets": 1235,
      "Ġring": 1236,
      "Ġmine": 1237,
      "Ġenough": 1238,
      "Ġtakes": 1239,
      "oth": 1240,
      "Ġchrist": 1241,
      "Ġletter": 1242,
      "Ġleave": 1243,
      "Ġshi": 1244,
      "Ġhot": 1245,
      "Ġfound": 1246,
      "itting": 1247,
      "whis": 1248,
      "eas": 1249,
      "Ġlad": 1250,
      "Ġpres": 1251,
      "pick": 1252,
      "Ġblack": 1253,
      "Ġbri": 1254,
      "Ġdi": 1255,
      "Ġsil": 1256,
      "Ġeating": 1257,
      "Ġid": 1258,
      "Ġgreat": 1259,
      "gasps": 1260,
      "Ġbird": 1261,
      "jo": 1262,
      "sten": 1263,
      "Ġtold": 1264,
      "Ġtou": 1265,
      "Ġnine": 1266,
      "unch": 1267,
      "noise": 1268,
      "Ġsk": 1269,
      "igg": 1270,
      "Ġmark": 1271,
      "dow": 1272,
      "hold": 1273,
      "cy": 1274,
      "vers": 1275,
      "Ġmay": 1276,
      "aught": 1277,
      "Ġsmall": 1278,
      "Ġface": 1279,
      "cess": 1280,
      "Ġanimals": 1281,
      "wan": 1282,
      "Ġair": 1283,
      "Ġgame": 1284,
      "Ġpicks": 1285,
      "Ġhalf": 1286,
      "Ġcourse": 1287,
      "play": 1288,
      "its": 1289,
      "tell": 1290,
      "unt": 1291,
      "Ġshoes": 1292,
      "ĠâĮ": 1293,
      "Ġsna": 1294,
      "Ġmouth": 1295,
      "box": 1296,
      "Ġkid": 1297,
      "Ġhorse": 1298,
      "ses": 1299,
      "ating": 1300,
      "Ġinside": 1301,
      "mer": 1302,
      "teen": 1303,
      "hoh": 1304,
      "Ġsecond": 1305,
      "Ġfing": 1306,
      "Ġwalk": 1307,
      "Ġfinished": 1308,
      "Ġeverything": 1309,
      "Ġturns": 1310,
      "cil": 1311,
      "Ġfro": 1312,
      "ther": 1313,
      "Ġstr": 1314,
      "Ġchildren": 1315,
      "Ġcow": 1316,
      "Ġlots": 1317,
      "Ġrecor": 1318,
      "Ġsand": 1319,
      "Ġsomebody": 1320,
      "Ġyears": 1321,
      "cken": 1322,
      "Ġpers": 1323,
      "Ġboth": 1324,
      "sings": 1325,
      "âĮĭ": 1326,
      "Ġever": 1327,
      "Ġeyes": 1328,
      "Ġask": 1329,
      "pping": 1330,
      "orrow": 1331,
      "Ġcrayon": 1332,
      "itc": 1333,
      "oun": 1334,
      "Ġphone": 1335,
      "laugh": 1336,
      "Ġwrite": 1337,
      "Ġninet": 1338,
      "fr": 1339,
      "Ġclean": 1340,
      "ily": 1341,
      "Ġbel": 1342,
      "ina": 1343,
      "pha": 1344,
      "imes": 1345,
      "Ġtook": 1346,
      "sc": 1347,
      "Ġsounds": 1348,
      "Ġinte": 1349,
      "âĮī": 1350,
      "Ġrea": 1351,
      "Ġjump": 1352,
      "fri": 1353,
      "ash": 1354,
      "Ġca": 1355,
      "mother": 1356,
      "ngry": 1357,
      "clo": 1358,
      "with": 1359,
      "Ġalso": 1360,
      "atch": 1361,
      "Ġalready": 1362,
      "ĠâĨ": 1363,
      "Ġfraser": 1364,
      "Ġeng": 1365,
      "Ġwhite": 1366,
      "Ġclose": 1367,
      "baby": 1368,
      "Ġcam": 1369,
      "Ġjack": 1370,
      "mas": 1371,
      "ud": 1372,
      "Ġroll": 1373,
      "val": 1374,
      "Ġegg": 1375,
      "Ġwindow": 1376,
      "Ġcouldn": 1377,
      "wanna": 1378,
      "uhoh": 1379,
      "stairs": 1380,
      "Ġinterest": 1381,
      "Ġtree": 1382,
      "Ġorange": 1383,
      "ction": 1384,
      "Ġhigh": 1385,
      "Ġfeet": 1386,
      "Ġcomp": 1387,
      "Ġhappy": 1388,
      "Ġkne": 1389,
      "Ġnose": 1390,
      "Ġga": 1391,
      "ched": 1392,
      "ween": 1393,
      "ten": 1394,
      "Ġice": 1395,
      "Ġputting": 1396,
      "Ġfell": 1397,
      "Ġfish": 1398,
      "name": 1399,
      "Ġperson": 1400,
      "wait": 1401,
      "Ġchoo": 1402,
      "cing": 1403,
      "sy": 1404,
      "mon": 1405,
      "Ġmatter": 1406,
      "Ġlady": 1407,
      "Ġsitting": 1408,
      "Ġwrong": 1409,
      "fad": 1410,
      "ike": 1411,
      "want": 1412,
      "gre": 1413,
      "Ġparty": 1414,
      "please": 1415,
      "Ġwhole": 1416,
      "cial": 1417,
      "Ġshall": 1418,
      "eh": 1419,
      "Ġcold": 1420,
      "ol": 1421,
      "Ġcir": 1422,
      "hind": 1423,
      "Ġquest": 1424,
      "Ġcake": 1425,
      "'.": 1426,
      "ĠâĢ": 1427,
      "Ġlau": 1428,
      "Ġhurt": 1429,
      "Ġpretend": 1430,
      "unny": 1431,
      "Ġloo": 1432,
      "Ġbutter": 1433,
      "Ġpop": 1434,
      "Ġser": 1435,
      "Ġfew": 1436,
      "three": 1437,
      "Ġdat": 1438,
      "tom": 1439,
      "Ġcheese": 1440,
      "Ġfit": 1441,
      "Ġeach": 1442,
      "Ġholds": 1443,
      "bles": 1444,
      "ek": 1445,
      "itchen": 1446,
      "Ġbeg": 1447,
      "Ġproble": 1448,
      "ved": 1449,
      "Ġlater": 1450,
      "dge": 1451,
      "Ġfix": 1452,
      "Ġflow": 1453,
      "ents": 1454,
      "Ġlovely": 1455,
      "most": 1456,
      "die": 1457,
      "phant": 1458,
      "eak": 1459,
      "Ġwar": 1460,
      "Ġsorry": 1461,
      "wl": 1462,
      "Ġfav": 1463,
      "Ġtre": 1464,
      "Ġnear": 1465,
      "hin": 1466,
      "stand": 1467,
      "Ġrep": 1468,
      "Ġkitchen": 1469,
      "Ġbooks": 1470,
      "ations": 1471,
      "oup": 1472,
      "Ġsweet": 1473,
      "mes": 1474,
      "will": 1475,
      "Ġpay": 1476,
      "Ġmost": 1477,
      "Ġroad": 1478,
      "ile": 1479,
      "lly": 1480,
      "Ġmm": 1481,
      "ator": 1482,
      "take": 1483,
      "aur": 1484,
      "oud": 1485,
      "Ġmess": 1486,
      "Ġwonder": 1487,
      "com": 1488,
      "hel": 1489,
      "Ġpri": 1490,
      "Ġchicken": 1491,
      "dle": 1492,
      "Ġidea": 1493,
      "Ġchristmas": 1494,
      "soa": 1495,
      "aces": 1496,
      "wer": 1497,
      "Ġbehind": 1498,
      "âĢĿ": 1499,
      "tra": 1500,
      "]!": 1501,
      "ither": 1502,
      "gn": 1503,
      "Ġguess": 1504,
      "tur": 1505,
      "Ġhungry": 1506,
      "cer": 1507,
      "ever": 1508,
      "yy": 1509,
      "Ġmind": 1510,
      "Ġwheel": 1511,
      "Ġlisten": 1512,
      "Ġhm": 1513,
      "Ġpounds": 1514,
      "ug": 1515,
      "Ġdinner": 1516,
      "Ġobject": 1517,
      "ames": 1518,
      "Ġton": 1519,
      "ular": 1520,
      "ĠâĨĴ": 1521,
      "Ġhelen": 1522,
      "terday": 1523,
      "Ġcoun": 1524,
      "Ġword": 1525,
      "Ġimp": 1526,
      "Ġrest": 1527,
      "Ġmiss": 1528,
      "Ġnor": 1529,
      "da": 1530,
      "Ġfact": 1531,
      "laughing": 1532,
      "mb": 1533,
      "these": 1534,
      "ca": 1535,
      "wh": 1536,
      "Ġcomm": 1537,
      "pes": 1538,
      "oof": 1539,
      "oop": 1540,
      "eddy": 1541,
      "ele": 1542,
      "Ġmis": 1543,
      "Ġnothing": 1544,
      "Ġbas": 1545,
      "give": 1546,
      "iet": 1547,
      "Ġsuppo": 1548,
      "jen": 1549,
      "illy": 1550,
      "la": 1551,
      "watch": 1552,
      "Ġtaking": 1553,
      "Ġtomorrow": 1554,
      "ls": 1555,
      "vocalizes": 1556,
      "ings": 1557,
      "Ġline": 1558,
      "ousand": 1559,
      "Ġthirty": 1560,
      "Ġpuzz": 1561,
      "Ġlunch": 1562,
      "ead": 1563,
      "Ġclot": 1564,
      "ign": 1565,
      "Ġcontin": 1566,
      "Ġpieces": 1567,
      "Ġkno": 1568,
      "Ġpost": 1569,
      "Ġste": 1570,
      "ian": 1571,
      "era": 1572,
      "io": 1573,
      "Ġthousand": 1574,
      "Ġvoice": 1575,
      "cket": 1576,
      "Ġpaint": 1577,
      "Ġminutes": 1578,
      "ness": 1579,
      "ato": 1580,
      "cent": 1581,
      "sil": 1582,
      "fer": 1583,
      "Ġtele": 1584,
      "Ġfifty": 1585,
      "Ġstre": 1586,
      "ges": 1587,
      "Ġheard": 1588,
      "anor": 1589,
      "picks": 1590,
      "Ġinter": 1591,
      "Ġbottle": 1592,
      "du": 1593,
      "bs": 1594,
      "Ġres": 1595,
      "Ġsat": 1596,
      "sib": 1597,
      "Ġspoon": 1598,
      "Ġquick": 1599,
      "Ġyours": 1600,
      "thi": 1601,
      "pers": 1602,
      "Ġbread": 1603,
      "fast": 1604,
      "su": 1605,
      "Ġbye": 1606,
      "Ġanyway": 1607,
      "ced": 1608,
      "av": 1609,
      "bbit": 1610,
      "Ġdes": 1611,
      "itty": 1612,
      "head": 1613,
      "Ġjwww": 1614,
      "big": 1615,
      "Ġboat": 1616,
      "rew": 1617,
      "cked": 1618,
      "Ġfavor": 1619,
      "has": 1620,
      "peter": 1621,
      "Ġcream": 1622,
      "wi": 1623,
      "Ġsong": 1624,
      "Ġyesterday": 1625,
      "Ġstuck": 1626,
      "pre": 1627,
      "colate": 1628,
      "those": 1629,
      "ground": 1630,
      "nce": 1631,
      "Ġworking": 1632,
      "ants": 1633,
      "iew": 1634,
      "ere": 1635,
      "Ġtouch": 1636,
      "Ġelephant": 1637,
      "takes": 1638,
      "app": 1639,
      "Ġable": 1640,
      "eth": 1641,
      "puts": 1642,
      "Ġlikes": 1643,
      "pardon": 1644,
      "Ġdogg": 1645,
      "Ġrain": 1646,
      "Ġcareful": 1647,
      "Ġclothes": 1648,
      "Ġate": 1649,
      "pri": 1650,
      "Ġbetween": 1651,
      "rt": 1652,
      "Ġtv": 1653,
      "Ġtired": 1654,
      "Ġkids": 1655,
      "Ġpuppet": 1656,
      "Ġunt": 1657,
      "brother": 1658,
      "Ġeither": 1659,
      "part": 1660,
      "Ġstarts": 1661,
      "cos": 1662,
      "Ġits": 1663,
      "Ġyourself": 1664,
      "Ġbrother": 1665,
      "ohn": 1666,
      "Ġshop": 1667,
      "Ġfast": 1668,
      "ens": 1669,
      "vis": 1670,
      "pa": 1671,
      "Ġplate": 1672,
      "Ġguy": 1673,
      "haps": 1674,
      "ffee": 1675,
      "Ġed": 1676,
      "Ġteacher": 1677,
      "Ġdoctor": 1678,
      "Ġreg": 1679,
      "Ġlive": 1680,
      "Ġhasn": 1681,
      "Ġmeans": 1682,
      "Ġpush": 1683,
      "Ġsometimes": 1684,
      "Ġtimes": 1685,
      "Ġstarted": 1686,
      "Ġfinish": 1687,
      "Ġcer": 1688,
      "Ġfam": 1689,
      "Ġbest": 1690,
      "Ġaw": 1691,
      "izz": 1692,
      "ann": 1693,
      "Ġlooked": 1694,
      "Ġglass": 1695,
      "osaur": 1696,
      "Ġ?": 1697,
      "Ġfly": 1698,
      "Ġmonth": 1699,
      "Ġpuzzle": 1700,
      "ical": 1701,
      "une": 1702,
      "Ġfull": 1703,
      "Ġfavorite": 1704,
      "Ġfrog": 1705,
      "Ġcamera": 1706,
      "Ġcookie": 1707,
      "ib": 1708,
      "ĠâĢľ": 1709,
      "could": 1710,
      "thomas": 1711,
      "Ġsur": 1712,
      "Ġalong": 1713,
      "Ġfarm": 1714,
      "Ġpolice": 1715,
      "rya": 1716,
      "cries": 1717,
      "Ġeverybody": 1718,
      "Ġtick": 1719,
      "Ġkiss": 1720,
      "four": 1721,
      "Ġsto": 1722,
      "Ġengine": 1723,
      "vious": 1724,
      "Ġgod": 1725,
      "Ġapple": 1726,
      "Ġmama": 1727,
      "ris": 1728,
      "Ġmen": 1729,
      "Ġcars": 1730,
      "Ġinst": 1731,
      "Ġgave": 1732,
      "should": 1733,
      "Ġblocks": 1734,
      "Ġpictures": 1735,
      "iting": 1736,
      "Ġsister": 1737,
      "Ġlid": 1738,
      "Ġstra": 1739,
      "ya": 1740,
      "Ġbreakfast": 1741,
      "Ġhour": 1742,
      "Ġpast": 1743,
      "Ġweren": 1744,
      "ract": 1745,
      "ared": 1746,
      "nes": 1747,
      "Ġfriends": 1748,
      "sorry": 1749,
      "every": 1750,
      "cou": 1751,
      "ason": 1752,
      "hah": 1753,
      "Ġbab": 1754,
      "Ġbang": 1755,
      "Ġneeds": 1756,
      "fly": 1757,
      "iv": 1758,
      "Ġsun": 1759,
      "ats": 1760,
      "âĮī.": 1761,
      "Ġchange": 1762,
      "ying": 1763,
      "Ġwall": 1764,
      "Ġdays": 1765,
      "Ġsnow": 1766,
      "Ġcertain": 1767,
      "Ġsal": 1768,
      "Ġfig": 1769,
      "Ġbase": 1770,
      "ouble": 1771,
      "ana": 1772,
      "Ġwords": 1773,
      "âĮĭ.": 1774,
      "Ġhappens": 1775,
      "Ġride": 1776,
      "utter": 1777,
      "Ġpink": 1778,
      "Ġmid": 1779,
      "Ġholding": 1780,
      "Ġwash": 1781,
      "somet": 1782,
      "Ġneedta": 1783,
      "Ġbob": 1784,
      "Ġcra": 1785,
      "ĠâĮĪ": 1786,
      "Ġteddy": 1787,
      "Ġmus": 1788,
      "Ġje": 1789,
      "Ġ1": 1790,
      "Ġbrown": 1791,
      "Ġhoney": 1792,
      "ron": 1793,
      "Ġfri": 1794,
      "Ġhope": 1795,
      "Ġfigure": 1796,
      "Ġcons": 1797,
      "Ġpus": 1798,
      "Ġfather": 1799,
      "ize": 1800,
      "Ġsoft": 1801,
      "Ġquestion": 1802,
      "ider": 1803,
      "Ġacross": 1804,
      "Ġhit": 1805,
      "Ġalmost": 1806,
      "arent": 1807,
      "Ġbottom": 1808,
      "Ġwhether": 1809,
      "sure": 1810,
      "Ġgrandma": 1811,
      "rising": 1812,
      "rophone": 1813,
      "fill": 1814,
      "imb": 1815,
      "ery": 1816,
      "Ġuntil": 1817,
      "Ġonce": 1818,
      "Ġcrying": 1819,
      "cept": 1820,
      "Ġ[?": 1821,
      "cri": 1822,
      "Ġemp": 1823,
      "ain": 1824,
      "babbles": 1825,
      "Ġlost": 1826,
      "Ġcoffee": 1827,
      "Ġmouse": 1828,
      "over": 1829,
      "Ġstar": 1830,
      "Ġchocolate": 1831,
      "Ġrunning": 1832,
      "pect": 1833,
      "Ġdec": 1834,
      "Ġshape": 1835,
      "Ġmeet": 1836,
      "ances": 1837,
      "âĮĬ": 1838,
      "stop": 1839,
      "Ġcent": 1840,
      "isn": 1841,
      "ward": 1842,
      "time": 1843,
      "ppy": 1844,
      "ork": 1845,
      "ines": 1846,
      "ald": 1847,
      "dis": 1848,
      "Ġbought": 1849,
      "nin": 1850,
      "turns": 1851,
      "fin": 1852,
      "ention": 1853,
      "uhuh": 1854,
      "Ġbackground": 1855,
      "Ġcatch": 1856,
      "Ġdinosaur": 1857,
      "Ġgard": 1858,
      "ors": 1859,
      "'?": 1860,
      "ph": 1861,
      "Ġcoll": 1862,
      "Ġeff": 1863,
      "Ġmoves": 1864,
      "Ġrel": 1865,
      "squ": 1866,
      "Ġtowards": 1867,
      "Ġclear": 1868,
      "welve": 1869,
      "ail": 1870,
      "Ġpartic": 1871,
      "Ġsta": 1872,
      "really": 1873,
      "dd": 1874,
      "ible": 1875,
      "Ġsoon": 1876,
      "ual": 1877,
      "Ġpark": 1878,
      "nif": 1879,
      "utif": 1880,
      "Ġcard": 1881,
      "Ġproblem": 1882,
      "Ġwood": 1883,
      "ative": 1884,
      "nds": 1885,
      "Ġasked": 1886,
      "land": 1887,
      "Ġbelie": 1888,
      "Ġcouncil": 1889,
      "llow": 1890,
      "Ġhole": 1891,
      "ments": 1892,
      "ressed": 1893,
      "Ġtast": 1894,
      "nic": 1895,
      "filler": 1896,
      "Ġdrive": 1897,
      "cus": 1898,
      "Ġclass": 1899,
      "Ġgarden": 1900,
      "Ġbroken": 1901,
      "Ġstep": 1902,
      "Ġla": 1903,
      "aul": 1904,
      "utiful": 1905,
      "Ġfinger": 1906,
      "Ġwom": 1907,
      "Ġpit": 1908,
      "ried": 1909,
      "Ġboys": 1910,
      "ela": 1911,
      "jes": 1912,
      "nods": 1913,
      "gu": 1914,
      "Ġbunny": 1915,
      "Ġforgot": 1916,
      "show": 1917,
      "Ġpeter": 1918,
      "Ġkitty": 1919,
      "blue": 1920,
      "Ġwit": 1921,
      "Ġrabbit": 1922,
      "Ġresp": 1923,
      "ince": 1924,
      "Ġarm": 1925,
      "mic": 1926,
      "silence": 1927,
      "pper": 1928,
      "Ġgrow": 1929,
      "Ġdan": 1930,
      "Ġarea": 1931,
      "Ġsilence": 1932,
      "Ġvis": 1933,
      "Ġquiet": 1934,
      "Ġteeth": 1935,
      "fic": 1936,
      "Ġballo": 1937,
      "Ġforty": 1938,
      "wich": 1939,
      "vel": 1940,
      "Ġcouple": 1941,
      "kin": 1942,
      "Ġpresent": 1943,
      "clock": 1944,
      "Ġreaches": 1945,
      "Ġsomeone": 1946,
      "Ġans": 1947,
      "Ġchar": 1948,
      "Ġland": 1949,
      "isy": 1950,
      "Ġpause": 1951,
      "make": 1952,
      "Ġguys": 1953,
      "another": 1954,
      "Ġfine": 1955,
      "Ġcover": 1956,
      "kat": 1957,
      "iger": 1958,
      "Ġconvers": 1959,
      "Ġjohn": 1960,
      "Ġsomewhere": 1961,
      "Ġfair": 1962,
      "vent": 1963,
      "Ġty": 1964,
      "Ġsuch": 1965,
      "Ġmoment": 1966,
      "five": 1967,
      "Ġperhaps": 1968,
      "Ġshoe": 1969,
      "Ġdire": 1970,
      "actually": 1971,
      "Ġstreet": 1972,
      "Ġadd": 1973,
      "Ġcircle": 1974,
      "gar": 1975,
      "Ġsy": 1976,
      "Ġdel": 1977,
      "Ġhang": 1978,
      "Ġcolors": 1979,
      "open": 1980,
      "Ġago": 1981,
      "Ġplan": 1982,
      "Ġmicrophone": 1983,
      "Ġfeed": 1984,
      "Ġwalks": 1985,
      "Ġben": 1986,
      "Ġdra": 1987,
      "ices": 1988,
      "Ġlate": 1989,
      "Ġ!": 1990,
      "Ġsim": 1991,
      "cuse": 1992,
      "Ġstraw": 1993,
      "Ġparticular": 1994,
      "aye": 1995,
      "ze": 1996,
      "Ġloud": 1997,
      "Ġgoin": 1998,
      "Ġrather": 1999,
      "igh": 2000,
      "Ġlegs": 2001,
      "Ġstraight": 2002,
      "hael": 2003,
      "Ġleg": 2004,
      "Ġgen": 2005,
      "Ġbowl": 2006,
      "uk": 2007,
      "Ġwalking": 2008,
      "Ġwind": 2009,
      "Ġlear": 2010,
      "Ġwhatever": 2011,
      "ric": 2012,
      "Ġunderstand": 2013,
      "mr": 2014,
      "Ġdist": 2015,
      "andy": 2016,
      "Ġwet": 2017,
      "uring": 2018,
      "tr": 2019,
      "Ġspecial": 2020,
      "con": 2021,
      "bar": 2022,
      "nie": 2023,
      "Ġsum": 2024,
      "Ġcost": 2025,
      "ial": 2026,
      "aft": 2027,
      "arah": 2028,
      "yup": 2029,
      "Ġinv": 2030,
      "mama": 2031,
      "Ġsilver": 2032,
      "Ġtonight": 2033,
      "Ġclimb": 2034,
      "Ġbat": 2035,
      "izza": 2036,
      "Ġshirt": 2037,
      "Ġusually": 2038,
      "Ġcur": 2039,
      "Ġsilly": 2040,
      "Ġbelieve": 2041,
      "ital": 2042,
      "Ġutter": 2043,
      "Ġwithout": 2044,
      "Ġadult": 2045,
      "Ġwo": 2046,
      "Ġbre": 2047,
      "ket": 2048,
      "Ġtail": 2049,
      "Ġem": 2050,
      "Ġanymore": 2051,
      "Ġdress": 2052,
      "Ġmonkey": 2053,
      "Ġtowel": 2054,
      "lut": 2055,
      "hum": 2056,
      "cking": 2057,
      "Ġbigger": 2058,
      "Ġcase": 2059,
      "Ġfollow": 2060,
      "Ġfamily": 2061,
      "nice": 2062,
      "Ġbrought": 2063,
      "six": 2064,
      "ited": 2065,
      "Ġworld": 2066,
      "mat": 2067,
      "ey": 2068,
      "down": 2069,
      "Ġninety": 2070,
      "Ġshort": 2071,
      "Ġbabies": 2072,
      "Ġtwelve": 2073,
      "\"]": 2074,
      "think": 2075,
      "aughty": 2076,
      "Ġeye": 2077,
      "Ġcu": 2078,
      "Ġmiddle": 2079,
      "Ġain": 2080,
      "Ġlife": 2081,
      "[$": 2082,
      "Ġban": 2083,
      "Ġbell": 2084,
      "Ġgar": 2085,
      "Ġconversation": 2086,
      "aren": 2087,
      "Ġyoung": 2088,
      "Ġtin": 2089,
      "igs": 2090,
      "Ġbeautiful": 2091,
      "icy": 2092,
      "Ġwatching": 2093,
      "Ġsau": 2094,
      "Ġexam": 2095,
      "Ġhar": 2096,
      "Ġlion": 2097,
      "Ġserv": 2098,
      "Ġonto": 2099,
      "Ġthinking": 2100,
      "ni": 2101,
      "ord": 2102,
      "outs": 2103,
      "Ġmyself": 2104,
      "Ġbuilding": 2105,
      "Ġupstairs": 2106,
      "Ġanybody": 2107,
      "Ġnineteen": 2108,
      "oughs": 2109,
      "Ġflowers": 2110,
      "Ġag": 2111,
      "sound": 2112,
      "Ġent": 2113,
      "Ġcontinues": 2114,
      "little": 2115,
      "Ġsandwich": 2116,
      "Ġsheep": 2117,
      "Ġlaugh": 2118,
      "Ġbroke": 2119,
      "Ġterm": 2120,
      "Ġblank": 2121,
      "zzz": 2122,
      "Ġblock": 2123,
      "Ġmrs": 2124,
      "Ġfingers": 2125,
      "ru": 2126,
      "Ġsinging": 2127,
      "mell": 2128,
      "Ġbite": 2129,
      "Ġview": 2130,
      "Ġletters": 2131,
      "ba": 2132,
      "whispers": 2133,
      "hor": 2134,
      "Ġreading": 2135,
      "Ġcro": 2136,
      "Ġpress": 2137,
      "bob": 2138,
      "Ġfootball": 2139,
      "bur": 2140,
      "roz": 2141,
      "ney": 2142,
      "lid": 2143,
      "berry": 2144,
      "Ġbutton": 2145,
      "Ġimport": 2146,
      "gan": 2147,
      "whoa": 2148,
      "Ġtoward": 2149,
      "Ġmagn": 2150,
      "Ġcol": 2151,
      "mel": 2152,
      "bed": 2153,
      "Ġstanding": 2154,
      "Ġsuppose": 2155,
      "imit": 2156,
      "Ġpurdie": 2157,
      "less": 2158,
      "roll": 2159,
      "velo": 2160,
      "Ġhimself": 2161,
      "Ġstore": 2162,
      "form": 2163,
      "11": 2164,
      "Ġsits": 2165,
      "ser": 2166,
      "vision": 2167,
      "Ġduh": 2168,
      "iggles": 2169,
      "Ġmoon": 2170,
      "Ġind": 2171,
      "[.": 2172,
      "haha": 2173,
      "Ġslide": 2174,
      "Ġru": 2175,
      "nope": 2176,
      "Ġseem": 2177,
      "first": 2178,
      "ident": 2179,
      "fraser": 2180,
      "Ġwarm": 2181,
      "ones": 2182,
      "ely": 2183,
      "pull": 2184,
      "Ġreport": 2185,
      "lyn": 2186,
      "ping": 2187,
      "set": 2188,
      "viously": 2189,
      "Ġproper": 2190,
      "ition": 2191,
      "Ġph": 2192,
      "Ġdrawing": 2193,
      "try": 2194,
      "Ġsign": 2195,
      "ach": 2196,
      "Ġturned": 2197,
      "moves": 2198,
      "Ġliving": 2199,
      "ically": 2200,
      "eleanor": 2201,
      "Ġcry": 2202,
      "Ġdavid": 2203,
      "imm": 2204,
      "donald": 2205,
      "plane": 2206,
      "Ġfat": 2207,
      "Ġtelling": 2208,
      "âĢĿ.": 2209,
      "whoops": 2210,
      "pro": 2211,
      "wards": 2212,
      "cr": 2213,
      "tal": 2214,
      "Ġears": 2215,
      "nothing": 2216,
      "Ġallow": 2217,
      "Ġtries": 2218,
      "Ġboo": 2219,
      "ears": 2220,
      "Ġknew": 2221,
      "Ġbrush": 2222,
      "anta": 2223,
      "vocalize": 2224,
      "mme": 2225,
      "iles": 2226,
      "house": 2227,
      "Ġgirls": 2228,
      "remember": 2229,
      "Ġsleeping": 2230,
      "Ġdoin": 2231,
      "lea": 2232,
      "Ġahead": 2233,
      "aun": 2234,
      "Ġdiffic": 2235,
      "led": 2236,
      "Ġgives": 2237,
      "Ġspeak": 2238,
      "Ġpan": 2239,
      "Ġclock": 2240,
      "Ġtur": 2241,
      "bu": 2242,
      "mie": 2243,
      "going": 2244,
      "Ġknows": 2245,
      "Ġgroup": 2246,
      "yellow": 2247,
      "Ġclever": 2248,
      "Ġpet": 2249,
      "Ġpotato": 2250,
      "Ġmet": 2251,
      "ned": 2252,
      "Ġtoast": 2253,
      "Ġgener": 2254,
      "Ġmix": 2255,
      "Ġbee": 2256,
      "Ġpurple": 2257,
      "Ġpoor": 2258,
      "Ġgover": 2259,
      "Ġplaces": 2260,
      "Ġtaken": 2261,
      "Ġposs": 2262,
      "ahhah": 2263,
      "Ġsub": 2264,
      "lves": 2265,
      "Ġfur": 2266,
      "Ġreason": 2267,
      "Ġagainst": 2268,
      "Ġpeas": 2269,
      "ming": 2270,
      "ĠâĮĬ": 2271,
      "ives": 2272,
      "pretend": 2273,
      "Ġgoodness": 2274,
      "Ġseems": 2275,
      "Ġeffect": 2276,
      "...?": 2277,
      "Ġplays": 2278,
      "âĮĪ": 2279,
      "tw": 2280,
      "Ġdir": 2281,
      "Ġweeks": 2282,
      "Ġcrayons": 2283,
      "?\"": 2284,
      "Ġbike": 2285,
      "Ġless": 2286,
      "sung": 2287,
      "Ġpass": 2288,
      "urday": 2289,
      "Ġzoo": 2290,
      "Ġanimal": 2291,
      "Ġplayed": 2292,
      "Ġswimm": 2293,
      "bin": 2294,
      "Ġhello": 2295,
      "Ġclown": 2296,
      "throw": 2297,
      "Ġlocal": 2298,
      "Ġimportant": 2299,
      "holds": 2300,
      "Ġcool": 2301,
      "board": 2302,
      "Ġmusic": 2303,
      "ext": 2304,
      "Ġcheck": 2305,
      "ucky": 2306,
      "Ġseat": 2307,
      "Ġballoon": 2308,
      "cdonald": 2309,
      "nday": 2310,
      "Ġsnake": 2311,
      "Ġnurs": 2312,
      "Ġnaughty": 2313,
      "full": 2314,
      "Ġpizza": 2315,
      "Ġspea": 2316,
      "hee": 2317,
      "fa": 2318,
      "Ġtill": 2319,
      "green": 2320,
      "Ġtrouble": 2321,
      "of": 2322,
      "Ġsposta": 2323,
      "Ġforget": 2324,
      "Ġpulls": 2325,
      "aboo": 2326,
      "ferring": 2327,
      "sie": 2328,
      "Ġlaughing": 2329,
      "Ġusing": 2330,
      "Ġsmell": 2331,
      "Ġmoving": 2332,
      "pered": 2333,
      "unno": 2334,
      "ities": 2335,
      "Ġmachi": 2336,
      "Ġmov": 2337,
      "Ġdark": 2338,
      "Ġdownstairs": 2339,
      "astic": 2340,
      "yay": 2341,
      "Ġter": 2342,
      "rup": 2343,
      "cream": 2344,
      "rot": 2345,
      "Ġdere": 2346,
      "nina": 2347,
      "bout": 2348,
      "Ġanswer": 2349,
      "Ġmonster": 2350,
      "Ġcap": 2351,
      "Ġge": 2352,
      "kar": 2353,
      "Ġeighty": 2354,
      "mind": 2355,
      "Ġpour": 2356,
      "Ġopp": 2357,
      "Ġsent": 2358,
      "Ġgovern": 2359,
      "pointing": 2360,
      "Ġinc": 2361,
      "Ġsli": 2362,
      "Ġtelephone": 2363,
      "Ġbegins": 2364,
      "eat": 2365,
      "Ġcorn": 2366,
      "Ġsince": 2367,
      "Ġtiger": 2368,
      "ret": 2369,
      "Ġbusy": 2370,
      "about": 2371,
      "Ġblow": 2372,
      "Ġfree": 2373,
      "Ġlar": 2374,
      "Ġcoat": 2375,
      "Ġfight": 2376,
      "Ġcarry": 2377,
      "Ġmonths": 2378,
      "onds": 2379,
      "ides": 2380,
      "nel": 2381,
      "Ġbis": 2382,
      "Ġdry": 2383,
      "Ġsixty": 2384,
      "sa": 2385,
      "eng": 2386,
      "Ġsquare": 2387,
      "igsaw": 2388,
      "Ġbra": 2389,
      "anut": 2390,
      "gon": 2391,
      "Ġprodu": 2392,
      "Ġstrong": 2393,
      "Ġboard": 2394,
      "Ġapart": 2395,
      "Ġkinda": 2396,
      "Ġneck": 2397,
      "avy": 2398,
      "Ġeggs": 2399,
      "Ġhiding": 2400,
      "Ġcertainly": 2401,
      "night": 2402,
      "Ġvisit": 2403,
      "Ġswimming": 2404,
      "coughs": 2405,
      "solut": 2406,
      "Ġrecorder": 2407,
      "Ġforward": 2408,
      "giggles": 2409,
      "actly": 2410,
      "Ġaut": 2411,
      "Ġspace": 2412,
      "Ġspl": 2413,
      "Ġnorm": 2414,
      "shi": 2415,
      "making": 2416,
      "Ġdifficult": 2417,
      "Ġ2": 2418,
      "Ġcri": 2419,
      "Ġcross": 2420,
      "boy": 2421,
      "nee": 2422,
      "Ġnap": 2423,
      "pill": 2424,
      "uckles": 2425,
      "Ġhey": 2426,
      "Ġgiving": 2427,
      "ekaboo": 2428,
      "Ġground": 2429,
      "Ġbedroom": 2430,
      "Ġlay": 2431,
      "Ġleaves": 2432,
      "Ġgrass": 2433,
      "Ġworks": 2434,
      "Ġgiven": 2435,
      "Ġgovernment": 2436,
      "Ġlift": 2437,
      "ars": 2438,
      "Ġnursery": 2439,
      "Ġsunday": 2440,
      "uit": 2441,
      "Ġsaturday": 2442,
      "Ġbegin": 2443,
      "Ġmed": 2444,
      "Ġarms": 2445,
      "Ġpencil": 2446,
      "book": 2447,
      "ipe": 2448,
      "ird": 2449,
      "cc": 2450,
      "iness": 2451,
      "liday": 2452,
      "Ġwheels": 2453,
      "ror": 2454,
      "under": 2455,
      "Ġcards": 2456,
      "Ġscared": 2457,
      "kf": 2458,
      "ield": 2459,
      "Ġpig": 2460,
      "Ġwand": 2461,
      "hh": 2462,
      "Ġrecord": 2463,
      "fully": 2464,
      "mit": 2465,
      "Ġwed": 2466,
      "sigh": 2467,
      "igator": 2468,
      "Ġwriting": 2469,
      "bbles": 2470,
      "back": 2471,
      "from": 2472,
      "Ġhum": 2473,
      "Ġearly": 2474,
      "Ġtrees": 2475,
      "Ġfriday": 2476,
      "Ġaft": 2477,
      "Ġobviously": 2478,
      "rel": 2479,
      "Ġjigsaw": 2480,
      "untary": 2481,
      "bre": 2482,
      "Ġleast": 2483,
      "Ġtried": 2484,
      "Ġyyy": 2485,
      "toys": 2486,
      "Ġform": 2487,
      "Ġsuper": 2488,
      "Ġsugar": 2489,
      "Ġeasy": 2490,
      "Ġcookies": 2491,
      "fers": 2492,
      "Ġsen": 2493,
      "Ġinteresting": 2494,
      "Ġequ": 2495,
      "voc": 2496,
      "cont": 2497,
      "Ġdriving": 2498,
      "Ġmill": 2499,
      "Ġholiday": 2500,
      "Ġking": 2501,
      "Ġopens": 2502,
      "Ġsad": 2503,
      "Ġswing": 2504,
      "pur": 2505,
      "Ġexpl": 2506,
      "Ġknock": 2507,
      "Ġbasket": 2508,
      "fl": 2509,
      "Ġcountry": 2510,
      "ech": 2511,
      "cho": 2512,
      "Ġfalls": 2513,
      "Ġherself": 2514,
      "bet": 2515,
      "Ġtractor": 2516,
      "Ġwhis": 2517,
      "whispered": 2518,
      "02": 2519,
      "Ġvocal": 2520,
      "Ġboun": 2521,
      "Ġhappening": 2522,
      "het": 2523,
      "Ġtower": 2524,
      "Ġsell": 2525,
      "wal": 2526,
      "eals": 2527,
      "Ġnat": 2528,
      "were": 2529,
      "Ġexc": 2530,
      "Ġblood": 2531,
      "Ġairplane": 2532,
      "Ġduring": 2533,
      "Ġorder": 2534,
      "aff": 2535,
      "Ġbathroom": 2536,
      "Ġblanket": 2537,
      "Ġinterested": 2538,
      "rit": 2539,
      "after": 2540,
      "bers": 2541,
      "shouts": 2542,
      "org": 2543,
      "dat": 2544,
      "Ġnearly": 2545,
      "ivity": 2546,
      "ouch": 2547,
      "Ġpocket": 2548,
      "Ġafterno": 2549,
      "Ġwearing": 2550,
      "Ġtaste": 2551,
      "Ġes": 2552,
      "Ġwashing": 2553,
      "Ġrad": 2554,
      "mbers": 2555,
      "Ġatt": 2556,
      "Ġdoggie": 2557,
      "ham": 2558,
      "Ġenjo": 2559,
      "Ġross": 2560,
      "bri": 2561,
      "Ġlap": 2562,
      "Ġdriver": 2563,
      "Ġsmart": 2564,
      "Ġbiscu": 2565,
      "Ġsummer": 2566,
      "Ġbur": 2567,
      "Ġshouldn": 2568,
      "lou": 2569,
      "inking": 2570,
      "berries": 2571,
      "invol": 2572,
      "Ġdropped": 2573,
      "Ġuseta": 2574,
      "Ġposit": 2575,
      "Ġlam": 2576,
      "esting": 2577,
      "ational": 2578,
      "Ġcorner": 2579,
      "Ġtiny": 2580,
      "mi": 2581,
      "Ġpages": 2582,
      "mine": 2583,
      "glo": 2584,
      "mag": 2585,
      "itten": 2586,
      "ific": 2587,
      "Ġshar": 2588,
      "Ġcups": 2589,
      "Ġsick": 2590,
      "Ġgro": 2591,
      "Ġint": 2592,
      "Ġeh": 2593,
      "Ġhosp": 2594,
      "involuntary": 2595,
      "Ġdunno": 2596,
      "count": 2597,
      "ient": 2598,
      "Ġwow": 2599,
      "Ġlives": 2600,
      "selves": 2601,
      "Ġran": 2602,
      "Ġflower": 2603,
      "Ġappro": 2604,
      "Ġdrops": 2605,
      "Ġafternoon": 2606,
      "Ġpin": 2607,
      "Ġsurpri": 2608,
      "Ġhasta": 2609,
      "Ġdrop": 2610,
      "Ġsarah": 2611,
      "Ġbud": 2612,
      "Ġkey": 2613,
      "eight": 2614,
      "ote": 2615,
      "Ġsea": 2616,
      "Ġsam": 2617,
      "draw": 2618,
      "keep": 2619,
      "ggie": 2620,
      "playing": 2621,
      "Ġgent": 2622,
      "Ġcounty": 2623,
      "Ġinstead": 2624,
      "ilt": 2625,
      "Ġfel": 2626,
      "Ġtalks": 2627,
      "doesn": 2628,
      "Ġlorry": 2629,
      "Ġrock": 2630,
      "Ġtrue": 2631,
      "Ġbusiness": 2632,
      "light": 2633,
      "Ġx": 2634,
      "Ġdirty": 2635,
      "Ġwish": 2636,
      "lla": 2637,
      "anscri": 2638,
      "cut": 2639,
      "Ġyo": 2640,
      "Ġlab": 2641,
      "Ġcause": 2642,
      "Ġfu": 2643,
      "iling": 2644,
      "pet": 2645,
      "rible": 2646,
      "Ġheart": 2647,
      "Ġtrack": 2648,
      "miss": 2649,
      "Ġjen": 2650,
      "Ġcater": 2651,
      "Ġve": 2652,
      "Ġinde": 2653,
      "Ġhide": 2654,
      "Ġhadta": 2655,
      "Ġmachine": 2656,
      "Ġbuck": 2657,
      "ied": 2658,
      "Ġconcer": 2659,
      "Ġbump": 2660,
      "Ġmir": 2661,
      "choo": 2662,
      "pillar": 2663,
      "Ġmad": 2664,
      "reams": 2665,
      "Ġfalling": 2666,
      "Ġeleven": 2667,
      "help": 2668,
      "ately": 2669,
      "Ġexp": 2670,
      "Ġleans": 2671,
      "pering": 2672,
      "helen": 2673,
      "off": 2674,
      "cessary": 2675,
      "Ġbody": 2676,
      "bot": 2677,
      "push": 2678,
      "Ġbor": 2679,
      "gy": 2680,
      "didn": 2681,
      "Ġprogra": 2682,
      "Ġheal": 2683,
      "Ġdevelo": 2684,
      "lt": 2685,
      "ef": 2686,
      "Ġmain": 2687,
      "sho": 2688,
      "only": 2689,
      "thanks": 2690,
      "Ġwithin": 2691,
      "Ġquickly": 2692,
      "Ġplastic": 2693,
      "Ġvan": 2694,
      "Ġdoggy": 2695,
      "Ġbits": 2696,
      "Ġmichael": 2697,
      "jam": 2698,
      "nding": 2699,
      "va": 2700,
      "Ġtown": 2701,
      "shakes": 2702,
      "elly": 2703,
      "Ġcarl": 2704,
      "Ġpicked": 2705,
      "Ġsupport": 2706,
      "Ġparent": 2707,
      "Ġhorsie": 2708,
      "Ġmeat": 2709,
      "Ġbridge": 2710,
      "Ġglasses": 2711,
      "ony": 2712,
      "wha": 2713,
      "Ġheavy": 2714,
      "know": 2715,
      "Ġtall": 2716,
      "orge": 2717,
      "Ġpubl": 2718,
      "sighs": 2719,
      "Ġspell": 2720,
      "Ġpooh": 2721,
      "Ġpercent": 2722,
      "Ġnina": 2723,
      "Ġwaiting": 2724,
      "ert": 2725,
      "Ġmister": 2726,
      "something": 2727,
      "twenty": 2728,
      "venty": 2729,
      "Ġsocks": 2730,
      "Ġhon": 2731,
      "annine": 2732,
      "Ġass": 2733,
      "Ġrust": 2734,
      "vir": 2735,
      "too": 2736,
      "Ġaunt": 2737,
      "Ġindi": 2738,
      "Ġmembers": 2739,
      "Ġvocalises": 2740,
      "nit": 2741,
      "isa": 2742,
      "Ġmotor": 2743,
      "Ġexpect": 2744,
      "Ġlaura": 2745,
      "Ġmagnet": 2746,
      "Ġhaha": 2747,
      "Ġsky": 2748,
      "arter": 2749,
      "Ġdressed": 2750,
      "Ġhandle": 2751,
      "Ġsupposed": 2752,
      "cdonalds": 2753,
      "Ġfore": 2754,
      "Ġstairs": 2755,
      "Ġreach": 2756,
      "anny": 2757,
      "ask": 2758,
      "sm": 2759,
      "Ġeleanor": 2760,
      "Ġcommitt": 2761,
      "Ġhospital": 2762,
      "Ġslow": 2763,
      "Ġstation": 2764,
      "excuse": 2765,
      "Ġbarn": 2766,
      "Ġthanks": 2767,
      "Ġeasi": 2768,
      "temp": 2769,
      "looking": 2770,
      "Ġcontain": 2771,
      "ley": 2772,
      "Ġdirect": 2773,
      "Ġfifteen": 2774,
      "bble": 2775,
      "ffic": 2776,
      "Ġmovie": 2777,
      "Ġbin": 2778,
      "hip": 2779,
      "bow": 2780,
      "Ġsugg": 2781,
      "Ġpuppy": 2782,
      "chuckles": 2783,
      "ility": 2784,
      "vin": 2785,
      "Ġmissing": 2786,
      "move": 2787,
      "Ġruns": 2788,
      "bra": 2789,
      "rect": 2790,
      "Ġcal": 2791,
      "mad": 2792,
      "Ġpeanut": 2793,
      "Ġmonday": 2794,
      "Ġexper": 2795,
      "happy": 2796,
      "Ġkick": 2797,
      "new": 2798,
      "hetti": 2799,
      "Ġstri": 2800,
      "fra": 2801,
      "geo": 2802,
      "ages": 2803,
      "dr": 2804,
      "Ġwh": 2805,
      "Ġoffice": 2806,
      "Ġtid": 2807,
      "Ġspot": 2808,
      "Ġladd": 2809,
      "Ġoften": 2810,
      "vol": 2811,
      "anything": 2812,
      "Ġthrows": 2813,
      "Ġproblems": 2814,
      "Ġshut": 2815,
      "vest": 2816,
      "Ġshake": 2817,
      "anger": 2818,
      "Ġfruit": 2819,
      "Ġmeeting": 2820,
      "care": 2821,
      "Ġstands": 2822,
      "steven": 2823,
      "Ġmissed": 2824,
      "ker": 2825,
      "rent": 2826,
      "Ġlights": 2827,
      "Ġaff": 2828,
      "Ġwel": 2829,
      "01": 2830,
      "Ġnobody": 2831,
      "mmer": 2832,
      "voice": 2833,
      "Ġdust": 2834,
      "Ġyum": 2835,
      "Ġage": 2836,
      "lli": 2837,
      "Ġpump": 2838,
      "Ġexactly": 2839,
      "Ġicecream": 2840,
      "Ġpaul": 2841,
      "Ġfre": 2842,
      "reaches": 2843,
      "Ġstate": 2844,
      "goes": 2845,
      "Ġworry": 2846,
      "din": 2847,
      "Ġnumbers": 2848,
      "Ġtelevision": 2849,
      "gonna": 2850,
      "Ġowl": 2851,
      "Ġann": 2852,
      "listen": 2853,
      "Ġwake": 2854,
      "Ġspill": 2855,
      "Ġfirstname": 2856,
      "rol": 2857,
      "boo": 2858,
      "Ġinform": 2859,
      "rog": 2860,
      "Ġmirror": 2861,
      "ized": 2862,
      "Ġthro": 2863,
      "grand": 2864,
      "orange": 2865,
      "Ġquestions": 2866,
      "solutely": 2867,
      "kiss": 2868,
      "nor": 2869,
      "Ġstack": 2870,
      "Ġutterances": 2871,
      "Ġchur": 2872,
      "stem": 2873,
      "Ġadam": 2874,
      "tons": 2875,
      "Ġdet": 2876,
      "Ġden": 2877,
      "though": 2878,
      "Ġlearn": 2879,
      "Ġtummy": 2880,
      "ics": 2881,
      "chair": 2882,
      "str": 2883,
      "aghetti": 2884,
      "again": 2885,
      "sion": 2886,
      "Ġreco": 2887,
      "Ġpushes": 2888,
      "Ġstring": 2889,
      "Ġseconds": 2890,
      "Ġallowed": 2891,
      "Ġpoo": 2892,
      "Ġlarge": 2893,
      "work": 2894,
      "Ġdeal": 2895,
      "Ġliked": 2896,
      "soft": 2897,
      "Ġfelt": 2898,
      "round": 2899,
      "ky": 2900,
      "Ġalone": 2901,
      "gic": 2902,
      "],": 2903,
      "Ġfill": 2904,
      "babble": 2905,
      "Ġcaterpillar": 2906,
      "uation": 2907,
      "Ġbrie": 2908,
      "Ġvide": 2909,
      "Ġbutterfly": 2910,
      "Ġdead": 2911,
      "Ġlow": 2912,
      "Ġhours": 2913,
      "Ġsystem": 2914,
      "Ġgarage": 2915,
      "cur": 2916,
      "ety": 2917,
      "Ġshare": 2918,
      "min": 2919,
      "Ġshout": 2920,
      "rr": 2921,
      "ures": 2922,
      "Ġload": 2923,
      "start": 2924,
      "Ġscr": 2925,
      "Ġmike": 2926,
      "Ġspider": 2927,
      "mend": 2928,
      "sometimes": 2929,
      "Ġdiscus": 2930,
      "Ġseventy": 2931,
      "oe": 2932,
      "ove": 2933,
      "Ġshopping": 2934,
      "Ġdefin": 2935,
      "Ġservice": 2936,
      "Ġmail": 2937,
      "cake": 2938,
      "eric": 2939,
      "Ġcla": 2940,
      "dog": 2941,
      "ford": 2942,
      "Ġasleep": 2943,
      "Ġrising": 2944,
      "Ġquack": 2945,
      "Ġrid": 2946,
      "bling": 2947,
      "uc": 2948,
      "Ġbill": 2949,
      "call": 2950,
      "Ġval": 2951,
      "love": 2952,
      "Ġeveryone": 2953,
      "Ġcommun": 2954,
      "ggy": 2955,
      "Ġcute": 2956,
      "tern": 2957,
      "Ġboots": 2958,
      "Ġvar": 2959,
      "ouses": 2960,
      "uesday": 2961,
      "Ġtax": 2962,
      "Ġcomplet": 2963,
      "rench": 2964,
      "Ġhug": 2965,
      "Ġcraw": 2966,
      "Ġdevelop": 2967,
      "Ġconst": 2968,
      "Ġstops": 2969,
      "cles": 2970,
      "seven": 2971,
      "Ġauthor": 2972,
      "Ġcere": 2973,
      "Ġwomen": 2974,
      "nah": 2975,
      "jwww": 2976,
      "Ġdoo": 2977,
      "Ġdolly": 2978,
      "Ġagree": 2979,
      "Ġasking": 2980,
      "aha": 2981,
      "els": 2982,
      "Ġfireman": 2983,
      "Ġinterrup": 2984,
      "lin": 2985,
      "Ġchanged": 2986,
      "contin": 2987,
      "Ġwoman": 2988,
      "Ġsmo": 2989,
      "Ġhen": 2990,
      "affe": 2991,
      "Ġpool": 2992,
      "Ġcomput": 2993,
      "ier": 2994,
      "cky": 2995,
      "Ġinvest": 2996,
      "Ġclosed": 2997,
      "yed": 2998,
      "Ġextra": 2999,
      "Ġdogs": 3000,
      "Ġrub": 3001,
      "Ġoffic": 3002,
      "Ġdig": 3003,
      "Ġsend": 3004,
      "high": 3005,
      "Ġplane": 3006,
      "Ġsuggest": 3007,
      "ale": 3008,
      "bert": 3009,
      "Ġsn": 3010,
      "Ġquarter": 3011,
      "Ġlevel": 3012,
      "inated": 3013,
      "chard": 3014,
      "Ġterms": 3015,
      "Ġbeginning": 3016,
      "Ġpostman": 3017,
      "umps": 3018,
      "Ġali": 3019,
      "Ġorgan": 3020,
      "tin": 3021,
      "Ġhall": 3022,
      "Ġrings": 3023,
      "referring": 3024,
      "Ġnames": 3025,
      "Ġconf": 3026,
      "Ġpolicy": 3027,
      "Ġwatches": 3028,
      "Ġsweetie": 3029,
      "Ġgames": 3030,
      "Ġfeeling": 3031,
      "Ġpublic": 3032,
      "Ġothers": 3033,
      "Ġmer": 3034,
      "Ġkept": 3035,
      "Ġchew": 3036,
      "Ġsoup": 3037,
      "anscribed": 3038,
      "Ġactivity": 3039,
      "ursday": 3040,
      "eds": 3041,
      "Ġcrack": 3042,
      "ushes": 3043,
      "Ġgas": 3044,
      "bor": 3045,
      "ted": 3046,
      "Ġang": 3047,
      "Ġelect": 3048,
      "bbie": 3049,
      "june": 3050,
      "Ġtype": 3051,
      "Ġflying": 3052,
      "Ġgeneral": 3053,
      "fish": 3054,
      "Ġempty": 3055,
      "yum": 3056,
      "oman": 3057,
      "fire": 3058,
      "Ġpants": 3059,
      "ount": 3060,
      "onse": 3061,
      "Ġinvol": 3062,
      "leave": 3063,
      "Ġself": 3064,
      "wise": 3065,
      "Ġcaught": 3066,
      "Ġthird": 3067,
      "Ġcloser": 3068,
      "Ġhorses": 3069,
      "Ġmoved": 3070,
      "cook": 3071,
      "ellie": 3072,
      "Ġcereal": 3073,
      "Ġdesk": 3074,
      "isha": 3075,
      "Ġyummy": 3076,
      "Ġtoes": 3077,
      "Ġanywhere": 3078,
      "still": 3079,
      "somebody": 3080,
      "Ġknee": 3081,
      "toy": 3082,
      "crying": 3083,
      "next": 3084,
      "Ġocc": 3085,
      "nesday": 3086,
      "Ġsize": 3087,
      "Ġitem": 3088,
      "Ġpower": 3089,
      "teacher": 3090,
      "Ġadv": 3091,
      "Ġroof": 3092,
      "Ġlou": 3093,
      "Ġstu": 3094,
      "lie": 3095,
      "neath": 3096,
      "lliant": 3097,
      "Ġmcdonalds": 3098,
      "Ġchurch": 3099,
      "Ġooh": 3100,
      "Ġeats": 3101,
      "Ġprin": 3102,
      "angle": 3103,
      "Ġbatter": 3104,
      "stick": 3105,
      "view": 3106,
      "Ġtie": 3107,
      "Ġins": 3108,
      "Ġscrew": 3109,
      "recor": 3110,
      "iel": 3111,
      "Ġbeach": 3112,
      "ac": 3113,
      "aunt": 3114,
      "Ġsave": 3115,
      "Ġprot": 3116,
      "lots": 3117,
      "Ġjelly": 3118,
      "Ġawww": 3119,
      "whee": 3120,
      "sue": 3121,
      "Ġpurse": 3122,
      "Ġstopped": 3123,
      "jor": 3124,
      "Ġmoo": 3125,
      "Ġresponse": 3126,
      "probably": 3127,
      "Ġtight": 3128,
      "nik": 3129,
      "Ġupside": 3130,
      "corn": 3131,
      "Ġcouch": 3132,
      "eating": 3133,
      "Ġ3": 3134,
      "nife": 3135,
      "Ġmention": 3136,
      "Ġpigg": 3137,
      "Ġjune": 3138,
      "Ġkeys": 3139,
      "Ġfence": 3140,
      "Ġbanana": 3141,
      "Ġinformation": 3142,
      "Ġbirds": 3143,
      "Ġbeep": 3144,
      "Ġboxes": 3145,
      "Ġchairs": 3146,
      "Ġwelcome": 3147,
      "cup": 3148,
      "Ġshows": 3149,
      "Ġcollect": 3150,
      "Ġbloody": 3151,
      "Ġpea": 3152,
      "Ġacc": 3153,
      "Ġsaus": 3154,
      "Ġtot": 3155,
      "fo": 3156,
      "Ġcre": 3157,
      "zes": 3158,
      "lier": 3159,
      "Ġdifference": 3160,
      "byebye": 3161,
      "ondon": 3162,
      "Ġattention": 3163,
      "dri": 3164,
      "itely": 3165,
      "Ġtony": 3166,
      "ishing": 3167,
      "hire": 3168,
      "Ġmarket": 3169,
      "Ġbrit": 3170,
      "Ġpill": 3171,
      "dile": 3172,
      "sname": 3173,
      "Ġdrinking": 3174,
      "codile": 3175,
      "Ġcop": 3176,
      "Ġmeant": 3177,
      "mu": 3178,
      "Ġyork": 3179,
      "med": 3180,
      "Ġdada": 3181,
      "Ġdance": 3182,
      "Ġflat": 3183,
      "ils": 3184,
      "Ġcandy": 3185,
      "gai": 3186,
      "Ġloves": 3187,
      "Ġbucket": 3188,
      "Ġcommittee": 3189,
      "ised": 3190,
      "Ġjoin": 3191,
      "Ġbelong": 3192,
      "Ġdolls": 3193,
      "Ġtuesday": 3194,
      "ored": 3195,
      "ering": 3196,
      "Ġrecogn": 3197,
      "Ġdump": 3198,
      "Ġbow": 3199,
      "Ġcontainer": 3200,
      "port": 3201,
      "Ġvideo": 3202,
      "Ġaye": 3203,
      "Ġtooth": 3204,
      "Ġturning": 3205,
      "Ġsir": 3206,
      "Ġpack": 3207,
      "00": 3208,
      "Ġstru": 3209,
      "ience": 3210,
      "Ġhouses": 3211,
      "eme": 3212,
      "gro": 3213,
      "Ġcity": 3214,
      "Ġoven": 3215,
      "gets": 3216,
      "vocalization": 3217,
      "Ġproperly": 3218,
      "Ġson": 3219,
      "Ġsituation": 3220,
      "cla": 3221,
      "Ġlistening": 3222,
      "Ġwha": 3223,
      "Ġiron": 3224,
      "continues": 3225,
      "Ġband": 3226,
      "Ġna": 3227,
      "ided": 3228,
      "water": 3229,
      "ume": 3230,
      "Ġsomethin": 3231,
      "Ġsings": 3232,
      "Ġcast": 3233,
      "Ġrece": 3234,
      "Ġmajor": 3235,
      "Ġsteps": 3236,
      "Ġsteven": 3237,
      "Ġworked": 3238,
      "Ġleaf": 3239,
      "'...": 3240,
      "Ġatta": 3241,
      "table": 3242,
      "Ġcompany": 3243,
      "heart": 3244,
      "Ġcomputer": 3245,
      "david": 3246,
      "Ġstor": 3247,
      "peech": 3248,
      "Ġfurther": 3249,
      "dro": 3250,
      "ju": 3251,
      "Ġjumping": 3252,
      "men": 3253,
      "pot": 3254,
      "Ġindeed": 3255,
      "iver": 3256,
      "Ġpointing": 3257,
      "Ġnut": 3258,
      "Ġmanage": 3259,
      "Ġrace": 3260,
      "Ġlist": 3261,
      "ilet": 3262,
      "moving": 3263,
      "Ġhammer": 3264,
      "Ġexample": 3265,
      "12": 3266,
      "num": 3267,
      "run": 3268,
      "Ġweeke": 3269,
      "Ġposition": 3270,
      "bit": 3271,
      "Ġbuilder": 3272,
      "Ġlie": 3273,
      "Ġradio": 3274,
      "Ġladder": 3275,
      "ict": 3276,
      "places": 3277,
      "refers": 3278,
      "Ġpaid": 3279,
      "niff": 3280,
      "inda": 3281,
      "Ġspaghetti": 3282,
      "Ġsense": 3283,
      "Ġtraffic": 3284,
      "Ġsoftly": 3285,
      "Ġur": 3286,
      "Ġgold": 3287,
      "Ġhadn": 3288,
      "wor": 3289,
      "Ġimag": 3290,
      "ortun": 3291,
      "Ġunderneath": 3292,
      "inter": 3293,
      "Ġtu": 3294,
      "03": 3295,
      "inky": 3296,
      "Ġinnit": 3297,
      "asp": 3298,
      "ables": 3299,
      "Ġrat": 3300,
      "Ġsticker": 3301,
      "father": 3302,
      "quick": 3303,
      "Ġrecording": 3304,
      "whines": 3305,
      "Ġlonger": 3306,
      "pop": 3307,
      "whose": 3308,
      "Ġbuttons": 3309,
      "tick": 3310,
      "Ġcj": 3311,
      "Ġwednesday": 3312,
      "imme": 3313,
      "Ġjeannine": 3314,
      "Ġfil": 3315,
      "Ġknife": 3316,
      "Ġswit": 3317,
      "Ġanyone": 3318,
      "everybody": 3319,
      "Ġgun": 3320,
      "Ġpicnic": 3321,
      "ray": 3322,
      "Ġneat": 3323,
      "last": 3324,
      "dden": 3325,
      "moo": 3326,
      "Ġfarmer": 3327,
      "Ġfork": 3328,
      "ference": 3329,
      "close": 3330,
      "Ġmeal": 3331,
      "band": 3332,
      "kee": 3333,
      "tou": 3334,
      "Ġpainting": 3335,
      "yyy": 3336,
      "iff": 3337,
      "inger": 3338,
      "necessary": 3339,
      "Ġshapes": 3340,
      "Ġsecret": 3341,
      "Ġgab": 3342,
      "Ġthursday": 3343,
      "ranscribed": 3344,
      "Ġlondon": 3345,
      "Ġsees": 3346,
      "Ġrolls": 3347,
      "rict": 3348,
      "tries": 3349,
      "thew": 3350,
      "bird": 3351,
      "Ġgranddad": 3352,
      "end": 3353,
      "pic": 3354,
      "Ġabove": 3355,
      "Ġelim": 3356,
      "cum": 3357,
      "Ġlines": 3358,
      "hur": 3359,
      "Ġpract": 3360,
      "brush": 3361,
      "Ġearlier": 3362,
      "Ġscary": 3363,
      "cially": 3364,
      "Ġamount": 3365,
      "Ġhealth": 3366,
      "shh": 3367,
      "Ġparents": 3368,
      "Ġfox": 3369,
      "Ġmissus": 3370,
      "gin": 3371,
      "jw": 3372,
      "screams": 3373,
      "Ġnorth": 3374,
      "Ġawful": 3375,
      "Ġcwww": 3376,
      "Ġbubbles": 3377,
      "aah": 3378,
      "uro": 3379,
      "careful": 3380,
      "aste": 3381,
      "Ġrustling": 3382,
      "Ġjumped": 3383,
      "never": 3384,
      "chr": 3385,
      "gl": 3386,
      "sty": 3387,
      "zing": 3388,
      "yeh": 3389,
      "Ġabsolutely": 3390,
      "Ġkeeps": 3391,
      "Ġolder": 3392,
      "dada": 3393,
      "Ġdancing": 3394,
      "truck": 3395,
      "ife": 3396,
      "Ġmillion": 3397,
      "Ġhill": 3398,
      "tape": 3399,
      "Ġdoors": 3400,
      "Ġpatsy": 3401,
      "Ġsanta": 3402,
      "Ġobjects": 3403,
      "ashed": 3404,
      "mummie": 3405,
      "whispering": 3406,
      "Ġbeads": 3407,
      "Ġcorrect": 3408,
      "nine": 3409,
      "Ġturtle": 3410,
      "Ġell": 3411,
      "Ġchris": 3412,
      "Ġeliminated": 3413,
      "gives": 3414,
      "ped": 3415,
      "Ġphot": 3416,
      "Ġtoilet": 3417,
      "Ġspeaks": 3418,
      "?]": 3419,
      "Ġfield": 3420,
      "blow": 3421,
      "je": 3422,
      "lot": 3423,
      "Ġbal": 3424,
      "Ġbes": 3425,
      "Ġze": 3426,
      "unnecessary": 3427,
      "Ġdanger": 3428,
      "Ġnesting": 3429,
      "Ġrequ": 3430,
      "Ġswim": 3431,
      "Ġweekend": 3432,
      "wr": 3433,
      "fraid": 3434,
      "Ġtraining": 3435,
      "Ġthroat": 3436,
      "Ġgrandad": 3437,
      "Ġcrocodile": 3438,
      "Ġgiraffe": 3439,
      "Ġcupboard": 3440,
      "Ġriding": 3441,
      "Ġdou": 3442,
      "Ġqual": 3443,
      "ase": 3444,
      "Ġjim": 3445,
      "before": 3446,
      "Ġart": 3447,
      "hands": 3448,
      "Ġsle": 3449,
      "Ġslight": 3450,
      "Ġthinks": 3451,
      "Ġtickle": 3452,
      "Ġchance": 3453,
      "Ġjam": 3454,
      "Ġnormally": 3455,
      "Ġbeans": 3456,
      "lic": 3457,
      "Ġeuro": 3458,
      "Ġnews": 3459,
      "ipp": 3460,
      "Ġnic": 3461,
      "Ġplant": 3462,
      "den": 3463,
      "poor": 3464,
      "Ġtray": 3465,
      "fect": 3466,
      "Ġopened": 3467,
      "duck": 3468,
      "beep": 3469,
      "Ġlose": 3470,
      "sw": 3471,
      "Ġwalked": 3472,
      "bul": 3473,
      "ural": 3474,
      "Ġballs": 3475,
      "Ġcentre": 3476,
      "squeals": 3477,
      "Ġpropo": 3478,
      "Ġeighteen": 3479,
      "tempts": 3480,
      "Ġauntie": 3481,
      "Ġbank": 3482,
      "Ġlisa": 3483,
      "chester": 3484,
      "rots": 3485,
      "Ġchips": 3486,
      "sounds": 3487,
      "Ġlying": 3488,
      "Ġoo": 3489,
      "Ġafraid": 3490,
      "Ġpicking": 3491,
      "Ġbrian": 3492,
      "Ġdem": 3493,
      "Ġpossible": 3494,
      "graph": 3495,
      "aughter": 3496,
      "Ġeasier": 3497,
      "weet": 3498,
      "Ġjacket": 3499,
      "Ġchairman": 3500,
      "Ġcoloring": 3501,
      "thir": 3502,
      "]...": 3503,
      "won": 3504,
      "Ġtrucks": 3505,
      "Ġbears": 3506,
      "Ġnational": 3507,
      "Ġbuilt": 3508,
      "Ġscot": 3509,
      "Ġwoof": 3510,
      "irt": 3511,
      "Ġworth": 3512,
      "Ġconsider": 3513,
      "Ġcand": 3514,
      "Ġfallen": 3515,
      "great": 3516,
      "Ġhig": 3517,
      "fif": 3518,
      "Ġemplo": 3519,
      "Ġbother": 3520,
      "lew": 3521,
      "hot": 3522,
      "Ġsalad": 3523,
      "Ġpillow": 3524,
      "hs": 3525,
      "Ġeverywhere": 3526,
      "jack": 3527,
      "Ġcas": 3528,
      "eva": 3529,
      "Ġsus": 3530,
      "Ġpulling": 3531,
      "Ġfan": 3532,
      "Ġameric": 3533,
      "ipper": 3534,
      "ashing": 3535,
      "issing": 3536,
      "michael": 3537,
      "Ġfrench": 3538,
      "Ġsofa": 3539,
      "Ġdor": 3540,
      "color": 3541,
      "?[": 3542,
      "Ġsis": 3543,
      "Ġshower": 3544,
      "Ġsticks": 3545,
      "Ġraining": 3546,
      "unts": 3547,
      "even": 3548,
      "cture": 3549,
      "putting": 3550,
      "eky": 3551,
      "jer": 3552,
      "Ġchoose": 3553,
      "Ġcats": 3554,
      "Ġsquee": 3555,
      "Ġgentle": 3556,
      "Ġjenny": 3557,
      "Ġtank": 3558,
      "Ġlois": 3559,
      "Ġinvolved": 3560,
      "Ġsets": 3561,
      "Ġeaster": 3562,
      "bea": 3563,
      "Ġpenny": 3564,
      "Ġclub": 3565,
      "black": 3566,
      "Ġpoliceman": 3567,
      "Ġdecided": 3568,
      "sna": 3569,
      "Ġtest": 3570,
      "opter": 3571,
      "Ġcooking": 3572,
      "ula": 3573,
      "Ġincl": 3574,
      "Ġmatch": 3575,
      "eve": 3576,
      "wood": 3577,
      "Ġthemselves": 3578,
      "ongue": 3579,
      "carl": 3580,
      "Ġutterance": 3581,
      "mark": 3582,
      "son": 3583,
      "del": 3584,
      "Ġmel": 3585,
      "Ġmagic": 3586,
      "Ġmickey": 3587,
      "ousers": 3588,
      "monstr": 3589,
      "Ġwra": 3590,
      "while": 3591,
      "mil": 3592,
      "used": 3593,
      "aus": 3594,
      "lets": 3595,
      "Ġuncle": 3596,
      "ler": 3597,
      "Ġought": 3598,
      "Ġox": 3599,
      "cra": 3600,
      "pu": 3601,
      "Ġnan": 3602,
      "Ġfigures": 3603,
      "Ġbreath": 3604,
      "Ġ4": 3605,
      "Ġpossib": 3606,
      "mor": 3607,
      "Ġmummie": 3608,
      "[$=": 3609,
      "Ġsupper": 3610,
      "Ġmeas": 3611,
      "Ġnapp": 3612,
      "Ġdefinitely": 3613,
      "icopter": 3614,
      "Ġshops": 3615,
      "Ġmary": 3616,
      "Ġbiscuits": 3617,
      "lap": 3618,
      "Ġparticularly": 3619,
      "Ġducks": 3620,
      "vered": 3621,
      "Ġnoisy": 3622,
      "Ġknocked": 3623,
      "lemme": 3624,
      "Ġinterrupts": 3625,
      "ero": 3626,
      "Ġspeaking": 3627,
      "Ġlamb": 3628,
      "rat": 3629,
      "Ġsevent": 3630,
      "ala": 3631,
      "bee": 3632,
      "Ġnana": 3633,
      "Ġcharact": 3634,
      "Ġshakes": 3635,
      "Ġplus": 3636,
      "people": 3637,
      "Ġstage": 3638,
      "Ġpiggy": 3639,
      "opher": 3640,
      "Ġsuc": 3641,
      "Ġjul": 3642,
      "Ġbags": 3643,
      "pend": 3644,
      "Ġbackwards": 3645,
      "lip": 3646,
      "fall": 3647,
      "Ġrug": 3648,
      "Ġtrains": 3649,
      "bang": 3650,
      "holding": 3651,
      "Ġcone": 3652,
      "Ġsouth": 3653,
      "Ġlucky": 3654,
      "aper": 3655,
      "peekaboo": 3656,
      "Ġjames": 3657,
      "anyway": 3658,
      "hang": 3659,
      "find": 3660,
      "Ġprof": 3661,
      "Ġzorg": 3662,
      "Ġboom": 3663,
      "gasp": 3664,
      "use": 3665,
      "home": 3666,
      "Ġsue": 3667,
      "Ġsweetheart": 3668,
      "14": 3669,
      "ered": 3670,
      "Ġgb": 3671,
      "Ġbriefly": 3672,
      "zy": 3673,
      "Ġremind": 3674,
      "ppers": 3675,
      "untranscribed": 3676,
      "Ġpitched": 3677,
      "jump": 3678,
      "veral": 3679,
      "wns": 3680,
      "icine": 3681,
      "Ġseeing": 3682,
      "Ġbricks": 3683,
      "Ġhenry": 3684,
      "ined": 3685,
      "Ġdraws": 3686,
      "purdie": 3687,
      "jamas": 3688,
      "bulance": 3689,
      "Ġitself": 3690,
      "Ġproject": 3691,
      "Ġmomma": 3692,
      "dered": 3693,
      "Ġglad": 3694,
      "13": 3695,
      "omer": 3696,
      "ently": 3697,
      "whoo": 3698,
      "ben": 3699,
      "pecially": 3700,
      "Ġcarri": 3701,
      "Ġprice": 3702,
      "apple": 3703,
      "recorder": 3704,
      "Ġcoo": 3705,
      "Ġsafe": 3706,
      "Ġaccident": 3707,
      "Ġexcept": 3708,
      "Ġstarting": 3709,
      "met": 3710,
      "Ġmhm": 3711,
      "ishes": 3712,
      "may": 3713,
      "uary": 3714,
      "Ġfus": 3715,
      "Ġpeekaboo": 3716,
      "Ġtidy": 3717,
      "Ġleng": 3718,
      "ened": 3719,
      "touches": 3720,
      "Ġapples": 3721,
      "Ġexplain": 3722,
      "Ġlwww": 3723,
      "Ġoper": 3724,
      "ism": 3725,
      "once": 3726,
      "woof": 3727,
      "Ġwipe": 3728,
      "Ġtongue": 3729,
      "Ġneigh": 3730,
      "Ġstam": 3731,
      "gaz": 3732,
      "ession": 3733,
      "Ġsuit": 3734,
      "Ġsmiles": 3735,
      "Ġvol": 3736,
      "Ġpresents": 3737,
      "Ġtip": 3738,
      "Ġhop": 3739,
      "Ġpotty": 3740,
      "Ġsoap": 3741,
      "kno": 3742,
      "Ġclick": 3743,
      "Ġrice": 3744,
      "Ġeurope": 3745,
      "today": 3746,
      "Ġstrawberry": 3747,
      "Ġphoto": 3748,
      "Ġtem": 3749,
      "Ġsixteen": 3750,
      "Ġstom": 3751,
      "Ġstrawberries": 3752,
      "stay": 3753,
      "softly": 3754,
      "Ġsno": 3755,
      "Ġlaw": 3756,
      "Ġtrousers": 3757,
      "athan": 3758,
      "Ġtrans": 3759,
      "Ġsnack": 3760,
      "Ġconcerned": 3761,
      "ka": 3762,
      "Ġhook": 3763,
      "Ġwww": 3764,
      "Ġupset": 3765,
      "pushes": 3766,
      "omin": 3767,
      "ada": 3768,
      "Ġrow": 3769,
      "Ġspec": 3770,
      "ails": 3771,
      "gir": 3772,
      "log": 3773,
      "iled": 3774,
      "Ġellie": 3775,
      "Ġgate": 3776,
      "Ġnam": 3777,
      "umble": 3778,
      "Ġperio": 3779,
      "Ġclearly": 3780,
      "loo": 3781,
      "Ġqueen": 3782,
      "Ġoct": 3783,
      "Ġholes": 3784,
      "Ġthrowing": 3785,
      "Ġbrilliant": 3786,
      "Ġcud": 3787,
      "bring": 3788,
      "Ġfourteen": 3789,
      "Ġterrible": 3790,
      "hv": 3791,
      "ency": 3792,
      "ours": 3793,
      "Ġgon": 3794,
      "Ġsteve": 3795,
      "Ġsink": 3796,
      "Ġfits": 3797,
      "Ġpitcher": 3798,
      "sam": 3799,
      "ushing": 3800,
      "Ġhelping": 3801,
      "Ġredu": 3802,
      "Ġlabour": 3803,
      "Ġcalling": 3804,
      "Ġshowing": 3805,
      "Ġsorts": 3806,
      "Ġcarrot": 3807,
      "lld": 3808,
      "nobody": 3809,
      "Ġjoe": 3810,
      "Ġeduc": 3811,
      "Ġincrea": 3812,
      "Ġexcited": 3813,
      "Ġfut": 3814,
      "rodu": 3815,
      "Ġkinds": 3816,
      "imitra": 3817,
      "illa": 3818,
      "Ġdied": 3819,
      "Ġcab": 3820,
      "Ġow": 3821,
      "enth": 3822,
      "issors": 3823,
      "Ġevening": 3824,
      "gi": 3825,
      "lex": 3826,
      "Ġalthough": 3827,
      "Ġcompl": 3828,
      "talking": 3829,
      "hslld": 3830,
      "sar": 3831,
      "Ġclap": 3832,
      "Ġtrade": 3833,
      "Ġtrip": 3834,
      "Ġdistrict": 3835,
      "Ġlu": 3836,
      "Ġham": 3837,
      "ella": 3838,
      "Ġchan": 3839,
      "Ġoppos": 3840,
      "ral": 3841,
      "picture": 3842,
      "Ġmagaz": 3843,
      "Ġmud": 3844,
      "dem": 3845,
      "Ġtomato": 3846,
      "pink": 3847,
      "Ġareas": 3848,
      "Ġcutting": 3849,
      "Ġcalls": 3850,
      "Ġstaff": 3851,
      "phi": 3852,
      "tu": 3853,
      "Ġrepe": 3854,
      "gue": 3855,
      "Ġimit": 3856,
      "ids": 3857,
      "Ġstea": 3858,
      "said": 3859,
      "Ġtherefore": 3860,
      "Ġcloses": 3861,
      "Ġpoorly": 3862,
      "oy": 3863,
      "Ġfixed": 3864,
      "trying": 3865,
      "Ġfuture": 3866,
      "15": 3867,
      "tles": 3868,
      "Ġunion": 3869,
      "Ġim": 3870,
      "Ġtouches": 3871,
      "Ġjan": 3872,
      "Ġship": 3873,
      "pretty": 3874,
      "Ġdecis": 3875,
      "tca": 3876,
      "aroo": 3877,
      "cted": 3878,
      "Ġserious": 3879,
      "Ġkill": 3880,
      "ells": 3881,
      "Ġeaten": 3882,
      "Ġwritten": 3883,
      "Ġcontrol": 3884,
      "sarah": 3885,
      "Ġplates": 3886,
      "brella": 3887,
      "Ġdaisy": 3888,
      "ums": 3889,
      "Ġbenef": 3890,
      "Ġdinosaurs": 3891,
      "cj": 3892,
      "ousin": 3893,
      "lish": 3894,
      "arr": 3895,
      "air": 3896,
      "milk": 3897,
      "mbur": 3898,
      "Ġtiss": 3899,
      "post": 3900,
      "Ġmarried": 3901,
      "Ġteam": 3902,
      "Ġmedicine": 3903,
      "Ġdep": 3904,
      "lle": 3905,
      "Ġfold": 3906,
      "iced": 3907,
      "Ġtells": 3908,
      "Ġhus": 3909,
      "vide": 3910,
      "erv": 3911,
      "Ġpow": 3912,
      "Ġcuts": 3913,
      "bef": 3914,
      "Ġstrange": 3915,
      "Ġstat": 3916,
      "ising": 3917,
      "Ġscream": 3918,
      "Ġdishes": 3919,
      "Ġsettle": 3920,
      "drink": 3921,
      "Ġhelps": 3922,
      "Ġref": 3923,
      "angaroo": 3924,
      "flow": 3925,
      "ugh": 3926,
      "Ġsudden": 3927,
      "Ġdevelopment": 3928,
      "resent": 3929,
      "Ġunless": 3930,
      "Ġimagine": 3931,
      "icious": 3932,
      "cell": 3933,
      "Ġsharp": 3934,
      "mrs": 3935,
      "Ġseveral": 3936,
      "thened": 3937,
      "Ġpretending": 3938,
      "Ġenjoy": 3939,
      "Ġwife": 3940,
      "Ġder": 3941,
      "Ġhelicopter": 3942,
      "Ġzebra": 3943,
      "Ġdream": 3944,
      "cheese": 3945,
      "Ġcastle": 3946,
      "tre": 3947,
      "Ġflo": 3948,
      "sters": 3949,
      "pulls": 3950,
      "reen": 3951,
      "nge": 3952,
      "Ġbasically": 3953,
      "ime": 3954,
      "Ġbun": 3955,
      "tony": 3956,
      "Ġwindows": 3957,
      "spo": 3958,
      "Ġcomb": 3959,
      "Ġways": 3960,
      "Ġwonderful": 3961,
      "Ġindust": 3962,
      "chicken": 3963,
      "Ġbright": 3964,
      "Ġbeat": 3965,
      "Ġlived": 3966,
      "Ġaccept": 3967,
      "Ġsweets": 3968,
      "Ġaction": 3969,
      "Ġwoke": 3970,
      "Ġhigher": 3971,
      "oint": 3972,
      "Ġdeer": 3973,
      "Ġpulled": 3974,
      "Ġbobby": 3975,
      "vert": 3976,
      "ctions": 3977,
      "Ġgrapes": 3978,
      "wee": 3979,
      "clever": 3980,
      "coming": 3981,
      "Ġwest": 3982,
      "umper": 3983,
      "Ġsock": 3984,
      "Ġchildsname": 3985,
      "Ġmotion": 3986,
      "Ġveget": 3987,
      ",.": 3988,
      "Ġplayer": 3989,
      "cycle": 3990,
      "Ġpumpkin": 3991,
      "Ġnamed": 3992,
      "Ġskin": 3993,
      "Ġbecome": 3994,
      "Ġeffects": 3995,
      "iter": 3996,
      "Ġperiod": 3997,
      "Ġambulance": 3998,
      "woo": 3999,
      "Ġdeb": 4000,
      "john": 4001,
      "arm": 4002,
      "number": 4003,
      "Ġrattle": 4004,
      "fine": 4005,
      "need": 4006,
      "talk": 4007,
      "Ġborn": 4008,
      "Ġcannot": 4009,
      "Ġupon": 4010,
      "âĢľ": 4011,
      "Ġgina": 4012,
      "aa": 4013,
      "Ġnotice": 4014,
      "Ġlets": 4015,
      "Ġcot": 4016,
      "Ġsalt": 4017,
      "noises": 4018,
      "Ġpair": 4019,
      "Ġdollars": 4020,
      "Ġdu": 4021,
      "Ġdollhouse": 4022,
      "ters": 4023,
      "Ġpas": 4024,
      "anges": 4025,
      "Ġprom": 4026,
      "Ġwhist": 4027,
      "Ġcathy": 4028,
      "Ġspend": 4029,
      "Ġdragon": 4030,
      "Ġgoo": 4031,
      "quack": 4032,
      "que": 4033,
      "Ġbran": 4034,
      "Ġfridge": 4035,
      "Ġdate": 4036,
      "ists": 4037,
      "gone": 4038,
      "Ġjar": 4039,
      "Ġstayed": 4040,
      "perhaps": 4041,
      "Ġbuzz": 4042,
      "Ġaliens": 4043,
      "Ġhay": 4044,
      "Ġregion": 4045,
      "Ġdouble": 4046,
      "Ġneckl": 4047,
      "Ġpil": 4048,
      "Ġnewsp": 4049,
      "Ġlord": 4050,
      "babbling": 4051,
      "Ġpotatoes": 4052,
      "starts": 4053,
      "Ġet": 4054,
      "Ġpushing": 4055,
      "sive": 4056,
      "Ġdeep": 4057,
      "Ġservices": 4058,
      "Ġslightly": 4059,
      "wic": 4060,
      "Ġtun": 4061,
      "place": 4062,
      "grunts": 4063,
      "Ġly": 4064,
      "clear": 4065,
      "Ġchess": 4066,
      "Ġsingle": 4067,
      "Ġdustbin": 4068,
      "Ġhusband": 4069,
      "Ġtel": 4070,
      "ably": 4071,
      "Ġnormal": 4072,
      "gab": 4073,
      "Ġschools": 4074,
      "Ġhurts": 4075,
      "Ġhee": 4076,
      "meow": 4077,
      "Ġgrabs": 4078,
      "Ġthirteen": 4079,
      "christ": 4080,
      ",]": 4081,
      "Ġsocial": 4082,
      "Ġaccount": 4083,
      "Ġmentioned": 4084,
      "cow": 4085,
      "gest": 4086,
      "Ġnoo": 4087,
      "god": 4088,
      "Ġtalked": 4089,
      "pretends": 4090,
      "Ġexcuse": 4091,
      "angu": 4092,
      "Ġpaying": 4093,
      "Ġjess": 4094,
      "umb": 4095,
      "Ġfollowing": 4096,
      "Ġvarious": 4097,
      "nn": 4098,
      "Ġbreat": 4099,
      "loud": 4100,
      "Ġwashed": 4101,
      "Ġprogramme": 4102,
      "Ġwide": 4103,
      "Ġpla": 4104,
      "Ġcloth": 4105,
      "Ġcher": 4106,
      "Ġprotect": 4107,
      "Ġgum": 4108,
      "Ġcarrots": 4109,
      "Ġdrawer": 4110,
      "Ġtrunk": 4111,
      "cry": 4112,
      "keys": 4113,
      "silver": 4114,
      "Ġdia": 4115,
      "Ġce": 4116,
      "Ġgosh": 4117,
      "Ġreturns": 4118,
      "Ġscra": 4119,
      "Ġhate": 4120,
      "Ġindivid": 4121,
      "Ġburn": 4122,
      "Ġfright": 4123,
      "Ġthrew": 4124,
      "bread": 4125,
      "kins": 4126,
      "Ġplanning": 4127,
      "neezes": 4128,
      "urt": 4129,
      "Ġbug": 4130,
      "Ġsausage": 4131,
      "ged": 4132,
      "teddy": 4133,
      "gotta": 4134,
      "Ġrespons": 4135,
      "kitty": 4136,
      "Ġpengu": 4137,
      "Ġaddress": 4138,
      "yummy": 4139,
      "blows": 4140,
      "Ġglo": 4141,
      "ison": 4142,
      "Ġav": 4143,
      "Ġlibr": 4144,
      "Ġtech": 4145,
      "cray": 4146,
      "Ġhoo": 4147,
      "throws": 4148,
      "Ġsuccess": 4149,
      "whe": 4150,
      "aning": 4151,
      "Ġabe": 4152,
      "Ġneeded": 4153,
      "Ġnone": 4154,
      "Ġrecent": 4155,
      "ature": 4156,
      "ites": 4157,
      "Ġjes": 4158,
      "Ġfairly": 4159,
      "gimme": 4160,
      "dan": 4161,
      "eased": 4162,
      "mal": 4163,
      "tains": 4164,
      "Ġscissors": 4165,
      ",,": 4166,
      "Ġteachers": 4167,
      "td": 4168,
      "Ġmarky": 4169,
      "Ġoink": 4170,
      "Ġrolling": 4171,
      "erc": 4172,
      "wiches": 4173,
      "viron": 4174,
      "tie": 4175,
      "Ġcarpet": 4176,
      "Ġknees": 4177,
      "juice": 4178,
      "sl": 4179,
      "Ġlangu": 4180,
      "Ġdee": 4181,
      "ilar": 4182,
      "Ġleaving": 4183,
      "win": 4184,
      "Ġill": 4185,
      "overlap": 4186,
      "Ġlego": 4187,
      "tt": 4188,
      "Ġissue": 4189,
      "Ġtap": 4190,
      "Ġfeels": 4191,
      "cakes": 4192,
      "shows": 4193,
      "''": 4194,
      "Ġcust": 4195,
      "irm": 4196,
      "Ġginger": 4197,
      "Ġprocess": 4198,
      "Ġumbrella": 4199,
      "Ġparts": 4200,
      "Ġspoons": 4201,
      "Ġandy": 4202,
      "mary": 4203,
      "Ġbritish": 4204,
      "Ġber": 4205,
      "Ġloads": 4206,
      "pie": 4207,
      "Ġvill": 4208,
      "Ġenviron": 4209,
      "Ġthirsty": 4210,
      "Ġedge": 4211,
      "Ġslice": 4212,
      "Ġauthority": 4213,
      "Ġcomment": 4214,
      "conom": 4215,
      "Ġsplash": 4216,
      "Ġsold": 4217,
      "Ġgraeme": 4218,
      "Ġsmaller": 4219,
      "Ġdangerous": 4220,
      "Ġeducation": 4221,
      "Ġkat": 4222,
      "Ġsleepy": 4223,
      "ption": 4224,
      "Ġtreat": 4225,
      "Ġhy": 4226,
      "Ġdisapp": 4227,
      "Ġpony": 4228,
      "Ġforth": 4229,
      "Ġexpen": 4230,
      "Ġsnap": 4231,
      "Ġbanging": 4232,
      "tub": 4233,
      "Ġarri": 4234,
      "Ġjobs": 4235,
      "Ġbrea": 4236,
      "boom": 4237,
      "Ġmatthew": 4238,
      "Ġreck": 4239,
      "Ġtriangle": 4240,
      "Ġtor": 4241,
      "Ġindic": 4242,
      "Ġphi": 4243,
      "whining": 4244,
      "arently": 4245,
      "Ġwooden": 4246,
      "Ġnecklace": 4247,
      "Ġdecide": 4248,
      "Ġpolit": 4249,
      "Ġstove": 4250,
      "Ġbiscuit": 4251,
      "04": 4252,
      "Ġotherwise": 4253,
      "Ġenvironment": 4254,
      "ban": 4255,
      "cul": 4256,
      "Ġrhy": 4257,
      "Ġfrogs": 4258,
      "ares": 4259,
      "getting": 4260,
      "white": 4261,
      "Ġdrinks": 4262,
      "Ġbyebye": 4263,
      "Ġbeside": 4264,
      "Ġarr": 4265,
      "comes": 4266,
      "hion": 4267,
      "Ġperfect": 4268,
      "Ġlin": 4269,
      "Ġdepart": 4270,
      "erman": 4271,
      "chris": 4272,
      "Ġsticky": 4273,
      "Ġcontinue": 4274,
      "Ġdirection": 4275,
      "Ġaer": 4276,
      "Ġnur": 4277,
      "Ġspin": 4278,
      "someone": 4279,
      "âĨĴ": 4280,
      "Ġchin": 4281,
      "Ġtwice": 4282,
      "ressing": 4283,
      "Ġsquir": 4284,
      "Ġsurprised": 4285,
      "mc": 4286,
      "hand": 4287,
      "Ġsubject": 4288,
      "iler": 4289,
      "Ġprevious": 4290,
      "Ġbelt": 4291,
      "both": 4292,
      "Ġactual": 4293,
      "laura": 4294,
      "hums": 4295,
      "ium": 4296,
      "Ġori": 4297,
      "Ġnods": 4298,
      "Ġmax": 4299,
      "Ġdish": 4300,
      "Ġpile": 4301,
      "almost": 4302,
      "ops": 4303,
      "Ġcrash": 4304,
      "Ġcows": 4305,
      "Ġenglish": 4306,
      "Ġsurprise": 4307,
      "til": 4308,
      "Ġ(": 4309,
      "Ġhambur": 4310,
      "uth": 4311,
      "Ġsepar": 4312,
      "Ġeric": 4313,
      "Ġhonest": 4314,
      "Ġbees": 4315,
      "Ġeconom": 4316,
      "Ġgeorge": 4317,
      "Ġstories": 4318,
      "Ġpriv": 4319,
      "risps": 4320,
      "Ġjesus": 4321,
      "lif": 4322,
      "Ġstars": 4323,
      "sal": 4324,
      "eaks": 4325,
      "anda": 4326,
      "elephant": 4327,
      "icycle": 4328,
      "Ġmuff": 4329,
      "Ġsandwiches": 4330,
      "Ġfilm": 4331,
      "pr": 4332,
      "Ġsimilar": 4333,
      "hu": 4334,
      "Ġchanges": 4335,
      "Ġpushed": 4336,
      "Ġchannel": 4337,
      "Ġbrings": 4338,
      "Ġrubber": 4339,
      "Ġopposite": 4340,
      "Ġexerc": 4341,
      "bury": 4342,
      "Ġeve": 4343,
      "chel": 4344,
      "neigh": 4345,
      "Ġkisses": 4346,
      "Ġcommunity": 4347,
      "Ġtissue": 4348,
      "Ġ]": 4349,
      "Ġrasp": 4350,
      "Ġlead": 4351,
      "Ġdescri": 4352,
      "Ġclimbing": 4353,
      "Ġlanguage": 4354,
      "Ġhipp": 4355,
      "Ġsore": 4356,
      "opl": 4357,
      "onge": 4358,
      "taking": 4359,
      "Ġlibrary": 4360,
      "Ġgrandpa": 4361,
      "lovely": 4362,
      "ude": 4363,
      "Ġrocket": 4364,
      "sk": 4365,
      "Ġcarrying": 4366,
      "thirty": 4367,
      "Ġspots": 4368,
      "Ġglue": 4369,
      "ns": 4370,
      "Ġdough": 4371,
      "Ġdaughter": 4372,
      "Ġknown": 4373,
      "Ġnote": 4374,
      "cts": 4375,
      "Ġrobin": 4376,
      "Ġrail": 4377,
      "Ġshot": 4378,
      "Ġswitch": 4379,
      "anas": 4380,
      "Ġpee": 4381,
      "cards": 4382,
      "lookee": 4383,
      "nies": 4384,
      "Ġweather": 4385,
      "wever": 4386,
      "opens": 4387,
      "Ġsmile": 4388,
      "Ġchoice": 4389,
      "cookie": 4390,
      "Ġcheeky": 4391,
      "Ġcharacter": 4392,
      "Ġcharge": 4393,
      "purple": 4394,
      "jas": 4395,
      "Ġweight": 4396,
      "Ġnoticed": 4397,
      "Ġchim": 4398,
      "gged": 4399,
      "Ġopening": 4400,
      "Ġtend": 4401,
      "pin": 4402,
      "iture": 4403,
      "ril": 4404,
      "Ġlock": 4405,
      "Ġprovid": 4406,
      "Ġshoot": 4407,
      "gerator": 4408,
      "grandma": 4409,
      "Ġcopy": 4410,
      "Ġquality": 4411,
      "Ġwire": 4412,
      "Ġcries": 4413,
      "abel": 4414,
      "train": 4415,
      "current": 4416,
      "Ġcompletely": 4417,
      "Ġpossibly": 4418,
      "Ġexperience": 4419,
      "Ġstomach": 4420,
      "cellent": 4421,
      "nana": 4422,
      "eri": 4423,
      "Ġcoco": 4424,
      "Ġpajamas": 4425,
      "artin": 4426,
      "Ġau": 4427,
      "Ġloudly": 4428,
      "Ġpud": 4429,
      "pol": 4430,
      "Ġstickers": 4431,
      "Ġdrum": 4432,
      "Ġfamil": 4433,
      "Ġgor": 4434,
      "Ġstud": 4435,
      "dough": 4436,
      "Ġpapers": 4437,
      "Ġbringing": 4438,
      "cli": 4439,
      "Ġrough": 4440,
      "ĠâĨĹ": 4441,
      "tiger": 4442,
      "Ġwatched": 4443,
      "gina": 4444,
      "bir": 4445,
      "humming": 4446,
      "ribut": 4447,
      "moans": 4448,
      "Ġ5": 4449,
      "uty": 4450,
      "Ġhanging": 4451,
      "Ġprincess": 4452,
      "Ġemploy": 4453,
      "dles": 4454,
      "sets": 4455,
      "Ġprep": 4456,
      "done": 4457,
      "fla": 4458,
      "ips": 4459,
      "manrat": 4460,
      "frigerator": 4461,
      "Ġrepresent": 4462,
      "Ġgrown": 4463,
      "newmanrat": 4464,
      "newmanratner": 4465,
      "ob": 4466,
      "ration": 4467,
      "Ġpipe": 4468,
      "Ġgiant": 4469,
      "Ġmam": 4470,
      "Ġsides": 4471,
      "Ġmist": 4472,
      "Ġasks": 4473,
      "Ġdigger": 4474,
      "half": 4475,
      "Ġintrodu": 4476,
      "cool": 4477,
      "Ġimm": 4478,
      "Ġtoe": 4479,
      "Ġkaren": 4480,
      "Ġsection": 4481,
      "issa": 4482,
      "Ġballoons": 4483,
      "Ġsche": 4484,
      "llip": 4485,
      "Ġpra": 4486,
      "Ġstret": 4487,
      "Ġexciting": 4488,
      "wald": 4489,
      "bottle": 4490,
      "ivers": 4491,
      "ja": 4492,
      "rick": 4493,
      "Ġreturn": 4494,
      "Ġtelly": 4495,
      "Ġstir": 4496,
      "Ġsauce": 4497,
      "och": 4498,
      "Ġodd": 4499,
      "picking": 4500,
      "Ġtunnel": 4501,
      "Ġcovered": 4502,
      "Ġcough": 4503,
      "Ġreferring": 4504,
      "Ġstuffed": 4505,
      "Ġwinter": 4506,
      "Ġgrab": 4507,
      "Ġcircus": 4508,
      "Ġreckon": 4509,
      "cco": 4510,
      "Ġbone": 4511,
      "Ġchip": 4512,
      "Ġkim": 4513,
      "Ġee": 4514,
      "Ġplenty": 4515,
      "isters": 4516,
      "Ġpops": 4517,
      "paper": 4518,
      "Ġtaperecorder": 4519,
      "Ġequip": 4520,
      "\".\"": 4521,
      "des": 4522,
      "Ġitems": 4523,
      "gging": 4524,
      "ially": 4525,
      "ply": 4526,
      "Ġkangaroo": 4527,
      "pose": 4528,
      "tv": 4529,
      "inkle": 4530,
      "Ġapri": 4531,
      "Ġmanag": 4532,
      "Ġearth": 4533,
      "Ġimpro": 4534,
      "Ġsmarties": 4535,
      "kisses": 4536,
      "Ġwrote": 4537,
      "aneous": 4538,
      "Ġbudget": 4539,
      "adam": 4540,
      "Ġspread": 4541,
      "Ġcash": 4542,
      "opus": 4543,
      "chant": 4544,
      "guess": 4545,
      "Ġstudy": 4546,
      "gum": 4547,
      "vy": 4548,
      "Ġevent": 4549,
      "Ġplants": 4550,
      "Ġchanging": 4551,
      "wers": 4552,
      "Ġrob": 4553,
      "Ġtreas": 4554,
      "driver": 4555,
      "âĢĻ": 4556,
      "Ġmiles": 4557,
      "aunwald": 4558,
      "dear": 4559,
      "zoe": 4560,
      "Ġconta": 4561,
      "Ġours": 4562,
      "Ġhuge": 4563,
      "hafta": 4564,
      "braunwald": 4565,
      "Ġmarker": 4566,
      "Ġbicycle": 4567,
      "niffs": 4568,
      "Ġbuying": 4569,
      "better": 4570,
      "action": 4571,
      "Ġcourt": 4572,
      "Ġdue": 4573,
      "Ġriver": 4574,
      "Ġfinally": 4575,
      "Ġcleaning": 4576,
      "nons": 4577,
      "Ġgranny": 4578,
      "Ġteach": 4579,
      "kel": 4580,
      "Ġund": 4581,
      "Ġinvestigator": 4582,
      "hop": 4583,
      "parent": 4584,
      "brown": 4585,
      "Ġcakes": 4586,
      "Ġwip": 4587,
      "Ġnet": 4588,
      "Ġken": 4589,
      "gins": 4590,
      "came": 4591,
      "Ġlinda": 4592,
      "Ġdora": 4593,
      "Ġket": 4594,
      "ctors": 4595,
      "Ġstaying": 4596,
      "Ġdot": 4597,
      "Ġroo": 4598,
      "Ġcolour": 4599,
      "funny": 4600,
      "Ġpear": 4601,
      "Ġhist": 4602,
      "dere": 4603,
      "Ġdesign": 4604,
      "Ġincrease": 4605,
      "Ġchat": 4606,
      "Ġtools": 4607,
      "Ġblowing": 4608,
      "long": 4609,
      "Ġnick": 4610,
      "Ġdey": 4611,
      "Ġbeds": 4612,
      "sleep": 4613,
      "ndy": 4614,
      "Ġanno": 4615,
      "Ġsticking": 4616,
      "everything": 4617,
      "Ġopportun": 4618,
      "::": 4619,
      "asses": 4620,
      "wash": 4621,
      "ners": 4622,
      "ode": 4623,
      "ties": 4624,
      "had": 4625,
      "Ġquid": 4626,
      "Ġmustn": 4627,
      "Ġelephants": 4628,
      "must": 4629,
      "Ġdoub": 4630,
      "door": 4631,
      "Ġtar": 4632,
      "edee": 4633,
      "clears": 4634,
      "Ġcage": 4635,
      "monstrates": 4636,
      "pron": 4637,
      "Ġrecom": 4638,
      "Ġyell": 4639,
      "Ġcond": 4640,
      "Ġavail": 4641,
      "Ġcrisps": 4642,
      "Ġpence": 4643,
      "Ġshowed": 4644,
      "Ġseemed": 4645,
      "flakes": 4646,
      "ĠĠĠ": 4647,
      "grow": 4648,
      "Ġpor": 4649,
      "Ġfed": 4650,
      "ults": 4651,
      "Ġrichard": 4652,
      "Ġscratch": 4653,
      "lk": 4654,
      "Ġrout": 4655,
      "ounced": 4656,
      "Ġworried": 4657,
      "Ġroy": 4658,
      "Ġadvert": 4659,
      "Ġcolle": 4660,
      "Ġequipment": 4661,
      "',": 4662,
      "haven": 4663,
      "Ġquietly": 4664,
      "Ġmagazine": 4665,
      "Ġaeropl": 4666,
      "Ġron": 4667,
      "Ġchap": 4668,
      "Â°": 4669,
      "feel": 4670,
      "020": 4671,
      "antha": 4672,
      "Ġrul": 4673,
      "Ġbon": 4674,
      "Ġding": 4675,
      "Ġpretends": 4676,
      "Ġnest": 4677,
      "Ġjason": 4678,
      "pla": 4679,
      "step": 4680,
      "Ġbunch": 4681,
      "Ġstool": 4682,
      "Ġsuitc": 4683,
      "Ġtrad": 4684,
      "bell": 4685,
      "cill": 4686,
      "cour": 4687,
      "Ġfries": 4688,
      "eared": 4689,
      "Ġgettin": 4690,
      "psy": 4691,
      "Ġscar": 4692,
      "group": 4693,
      "egg": 4694,
      "Ġwaste": 4695,
      "bus": 4696,
      "Ġtub": 4697,
      "Ġsoci": 4698,
      "Ġreads": 4699,
      "iam": 4700,
      "Ġalex": 4701,
      "zer": 4702,
      "Ġver": 4703,
      "edi": 4704,
      "Ġcarefully": 4705,
      "Ġspeed": 4706,
      "orgeous": 4707,
      "Ġray": 4708,
      "ression": 4709,
      "Ġgrowing": 4710,
      "Ġstructure": 4711,
      "Ġlemon": 4712,
      "Ġeast": 4713,
      "Ġracing": 4714,
      "says": 4715,
      "Ġfresh": 4716,
      "Ġsco": 4717,
      "ealing": 4718,
      "Ġvi": 4719,
      "Ġident": 4720,
      "Ġdepartment": 4721,
      "Ġcomin": 4722,
      "Ġcapital": 4723,
      "chocolate": 4724,
      "Ġcuddle": 4725,
      "soci": 4726,
      "Ġsweep": 4727,
      "Ġflew": 4728,
      "ints": 4729,
      "Ġuses": 4730,
      "Ġdelicious": 4731,
      "Ġcompet": 4732,
      "Ġsecretary": 4733,
      "Ġest": 4734,
      "aly": 4735,
      "Ġshell": 4736,
      "ified": 4737,
      "Ġgreater": 4738,
      "Ġwaff": 4739,
      "Ġenter": 4740,
      "Ġwedding": 4741,
      "Ġbert": 4742,
      "Ġhou": 4743,
      "Ġroman": 4744,
      "Ġsentence": 4745,
      "Ġpond": 4746,
      "Ġweird": 4747,
      "Ġrocks": 4748,
      "Ġwolf": 4749,
      "Ġgently": 4750,
      "ippin": 4751,
      "Ġfacing": 4752,
      "nown": 4753,
      "Ġworse": 4754,
      "cious": 4755,
      "Ġmagnets": 4756,
      "Ġrubb": 4757,
      "break": 4758,
      "Ġhurry": 4759,
      "Ġrainbow": 4760,
      "Ġwoo": 4761,
      "Ġscare": 4762,
      "Ġvillage": 4763,
      "Ġdecision": 4764,
      "might": 4765,
      "Ġspan": 4766,
      "Ġregular": 4767,
      "Ġroz": 4768,
      "Ġbathtub": 4769,
      "Ġsaf": 4770,
      "Ġvoices": 4771,
      "dible": 4772,
      "jim": 4773,
      "vey": 4774,
      "logy": 4775,
      "Ġwhose": 4776,
      "Ġtrick": 4777,
      "Ġelectric": 4778,
      "nonspeech": 4779,
      "aid": 4780,
      "mister": 4781,
      "wah": 4782,
      "Ġapril": 4783,
      "Ġcy": 4784,
      "isie": 4785,
      "Ġlikely": 4786,
      "Ġsqueak": 4787,
      "Ġforest": 4788,
      "ired": 4789,
      "Ġmeasure": 4790,
      "fix": 4791,
      "Ġborrow": 4792,
      "Ġcomments": 4793,
      "Ġdepe": 4794,
      "Ġshoulder": 4795,
      "Ġangry": 4796,
      "Ġpir": 4797,
      "Ġboot": 4798,
      "begins": 4799,
      "Ġgrey": 4800,
      "Ġminus": 4801,
      "Ġbelly": 4802,
      "near": 4803,
      "Ġpleased": 4804,
      "earch": 4805,
      "Ġsponge": 4806,
      "ominic": 4807,
      "ences": 4808,
      "Ġstone": 4809,
      "sim": 4810,
      "alo": 4811,
      "Ġsheet": 4812,
      "Ġwagon": 4813,
      "Ġtelet": 4814,
      "ache": 4815,
      "oups": 4816,
      "seph": 4817,
      "Ġorigin": 4818,
      "har": 4819,
      "Ġcousin": 4820,
      "Ġpattern": 4821,
      "adda": 4822,
      "Ġtool": 4823,
      "Ġbaseball": 4824,
      "Ġofficer": 4825,
      "Ġavailable": 4826,
      "pause": 4827,
      "Ġaffect": 4828,
      "cop": 4829,
      "Ġagre": 4830,
      "ferent": 4831,
      "bbies": 4832,
      "Ġchristopher": 4833,
      "Ġchimney": 4834,
      "Ġrange": 4835,
      "char": 4836,
      "zzy": 4837,
      "Ġrealize": 4838,
      "Ġwitch": 4839,
      "Ġeffort": 4840,
      "Ġsimply": 4841,
      "Ġmixed": 4842,
      "Ġseventeen": 4843,
      "Ġnewspaper": 4844,
      "sweet": 4845,
      "Ġattempts": 4846,
      "Ġclaus": 4847,
      "Ġhelmet": 4848,
      "lloween": 4849,
      "imitates": 4850,
      "old": 4851,
      "Ġwings": 4852,
      "Ġmember": 4853,
      "tel": 4854,
      "hmm": 4855,
      "ization": 4856,
      "sister": 4857,
      "Ġnon": 4858,
      "hered": 4859,
      "Ġspent": 4860,
      "Ġhorrible": 4861,
      "Ġzoe": 4862,
      "nut": 4863,
      "press": 4864,
      "butter": 4865,
      "Ġfavour": 4866,
      "walk": 4867,
      "Ġcarriage": 4868,
      "Ġbrick": 4869,
      "Ġcurrent": 4870,
      "Ġassoci": 4871,
      "Ġfaster": 4872,
      "Ġrecommend": 4873,
      "ients": 4874,
      "ining": 4875,
      "Ġdimitra": 4876,
      "Ġbubble": 4877,
      "Ġpuppets": 4878,
      "Ġoccas": 4879,
      "Ġdoubt": 4880,
      "Ġbush": 4881,
      "Ġfurn": 4882,
      "reading": 4883,
      "ruction": 4884,
      "icked": 4885,
      "Ġgoodbye": 4886,
      "Ġcommon": 4887,
      "Ġmarks": 4888,
      "Ġwinnie": 4889,
      "Ġnapkin": 4890,
      "lotte": 4891,
      "field": 4892,
      "lp": 4893,
      "Ġratt": 4894,
      "phones": 4895,
      "baa": 4896,
      "Ġfighting": 4897,
      "roman": 4898,
      "Ġuhhuh": 4899,
      "Ġhamburger": 4900,
      "blo": 4901,
      "Ġreas": 4902,
      "Ġclip": 4903,
      "wing": 4904,
      "ette": 4905,
      "Ġgri": 4906,
      "arily": 4907,
      "Ġtran": 4908,
      "Ġaware": 4909,
      "Ġclaim": 4910,
      "Ġbatteries": 4911,
      "bear": 4912,
      "cast": 4913,
      "Ġcowboy": 4914,
      "Ġbuddy": 4915,
      "Ġafford": 4916,
      "Ġtab": 4917,
      "Ġev": 4918,
      "quite": 4919,
      "Ġexpensive": 4920,
      "Ġdecor": 4921,
      "fortable": 4922,
      "oline": 4923,
      "paul": 4924,
      "Ġespecially": 4925,
      "draws": 4926,
      "Ġslowly": 4927,
      "Ġcollege": 4928,
      "speech": 4929,
      "Ġbaa": 4930,
      "gosh": 4931,
      "ging": 4932,
      "Ġsimple": 4933,
      "Ġturkey": 4934,
      "knock": 4935,
      "ica": 4936,
      "ify": 4937,
      "ĠâĢĶ": 4938,
      "iano": 4939,
      "hhh": 4940,
      "Ġsmoke": 4941,
      "Ġcontinu": 4942,
      "Ġhits": 4943,
      "hors": 4944,
      "Ġstrate": 4945,
      "Ġforgotten": 4946,
      "meal": 4947,
      "Ġclou": 4948,
      "Ġtreasure": 4949,
      "bie": 4950,
      "Ġthick": 4951,
      "ute": 4952,
      "invest": 4953,
      "ior": 4954,
      "sey": 4955,
      "Ġcounting": 4956,
      "Ġindian": 4957,
      "Ġmeow": 4958,
      "into": 4959,
      "Ġyard": 4960,
      "Ġmessy": 4961,
      "Ġmanagement": 4962,
      "Ġreasons": 4963,
      "Ġoranges": 4964,
      "Ġvote": 4965,
      "Ġjoy": 4966,
      "Ġfeeding": 4967,
      "Ġevid": 4968,
      "Ġrefer": 4969,
      "unh": 4970,
      "bunny": 4971,
      "coun": 4972,
      "Ġlookin": 4973,
      "Ġexist": 4974,
      "Ġunivers": 4975,
      "Ġspeech": 4976,
      "firstname": 4977,
      "dor": 4978,
      "removes": 4979,
      "Ġjoey": 4980,
      "catch": 4981,
      "Ġprogram": 4982,
      "llipop": 4983,
      "mond": 4984,
      "Ġconserv": 4985,
      "16": 4986,
      "Ġbrothers": 4987,
      "Ġlifts": 4988,
      "Ġgabri": 4989,
      "Ġhousing": 4990,
      "lphin": 4991,
      "Ġess": 4992,
      "cups": 4993,
      "tuce": 4994,
      "Ġcarried": 4995,
      "Ġfaces": 4996,
      "cro": 4997,
      "Ġama": 4998,
      "Ġunited": 4999,
      "Ġfishing": 5000,
      "Ġlips": 5001,
      "Ġordered": 5002,
      "Ġmaggie": 5003,
      "Ġscale": 5004,
      "Ġmarch": 5005,
      "Ġends": 5006,
      "Ġcircles": 5007,
      "Ġcounter": 5008,
      "ault": 5009,
      "Ġbend": 5010,
      "Ġfinan": 5011,
      "diary": 5012,
      "Ġbasis": 5013,
      "Ġachi": 5014,
      "steve": 5015,
      "Ġpopcorn": 5016,
      "Ġfancy": 5017,
      "Ġhan": 5018,
      "manchester": 5019,
      "Ġairport": 5020,
      "Ġstock": 5021,
      "Ġreceive": 5022,
      "Ġfrank": 5023,
      "Ġgroups": 5024,
      "Ġoil": 5025,
      "Ġnicely": 5026,
      "Ġcontract": 5027,
      "Ġtotally": 5028,
      "Ġnurse": 5029,
      "gno": 5030,
      "Ġfas": 5031,
      "Ġkay": 5032,
      "Ġpersonal": 5033,
      "jan": 5034,
      "kers": 5035,
      "Ġgorgeous": 5036,
      "Ġchest": 5037,
      "shar": 5038,
      "Ġaeroplane": 5039,
      "ew": 5040,
      "lad": 5041,
      "ida": 5042,
      "rac": 5043,
      "urance": 5044,
      "Ġparrot": 5045,
      "Ġcosts": 5046,
      "bobby": 5047,
      "dah": 5048,
      "Ġjumps": 5049,
      "Ġhelped": 5050,
      "honey": 5051,
      "Ġmetal": 5052,
      "]âĮĭ.": 5053,
      "mus": 5054,
      "Ġmoun": 5055,
      "Ġrecently": 5056,
      "Ġdess": 5057,
      "coura": 5058,
      "Ġpenguin": 5059,
      "bag": 5060,
      "Ġshelf": 5061,
      "Ġvocaliz": 5062,
      "investigator": 5063,
      "course": 5064,
      "Ġva": 5065,
      "ik": 5066,
      "Ġpal": 5067,
      "Ġrema": 5068,
      "Ġbottles": 5069,
      "unknown": 5070,
      "Ġbreathing": 5071,
      "Ġfurniture": 5072,
      "Ġlob": 5073,
      "Ġenvelo": 5074,
      "âĮī?": 5075,
      "priate": 5076,
      "Ġnappie": 5077,
      "17": 5078,
      "Ġmass": 5079,
      "Ġwasher": 5080,
      "aret": 5081,
      "reads": 5082,
      "Ġrope": 5083,
      "Ġphon": 5084,
      "missus": 5085,
      "sort": 5086,
      "Ġsite": 5087,
      "walks": 5088,
      "wind": 5089,
      "him": 5090,
      "horse": 5091,
      "poo": 5092,
      "rings": 5093,
      "Ġfund": 5094,
      "rob": 5095,
      "Ġsail": 5096,
      "Ġconcent": 5097,
      "momma": 5098,
      "april": 5099,
      "Ġsnowman": 5100,
      "Ġbattery": 5101,
      "Ġscrewdriver": 5102,
      "boun": 5103,
      "yo": 5104,
      "repe": 5105,
      "Ġfra": 5106,
      "Ġpension": 5107,
      "Ġtransp": 5108,
      "Ġhose": 5109,
      "Ġcheap": 5110,
      "Ġappoint": 5111,
      "sneezes": 5112,
      "Ġwild": 5113,
      "doll": 5114,
      "Ġmodel": 5115,
      "kissing": 5116,
      "same": 5117,
      "nda": 5118,
      "Ġret": 5119,
      "mmm": 5120,
      "ev": 5121,
      "Ġpepper": 5122,
      "Ġwilln": 5123,
      "Ġcolored": 5124,
      "Ġspilled": 5125,
      "Ġpractice": 5126,
      "Ġoxford": 5127,
      "Ġlengthened": 5128,
      "thy": 5129,
      "Ġcus": 5130,
      "iment": 5131,
      "Ġsport": 5132,
      "Ġloft": 5133,
      "Ġtrailer": 5134,
      "ager": 5135,
      "pass": 5136,
      "Ġseeds": 5137,
      "Ġspaces": 5138,
      "bled": 5139,
      "Ġslippers": 5140,
      "write": 5141,
      "Ġsafety": 5142,
      "speechplay": 5143,
      "iar": 5144,
      "Ġlane": 5145,
      "ita": 5146,
      "Ġinit": 5147,
      "Ġhalloween": 5148,
      "Ġbounce": 5149,
      "Ġsqueeze": 5150,
      "22": 5151,
      "mouth": 5152,
      "Ġkeeping": 5153,
      "Ġtha": 5154,
      "Ġbi": 5155,
      "Ġgy": 5156,
      "Ġrachel": 5157,
      "via": 5158,
      "plays": 5159,
      "vroom": 5160,
      "allow": 5161,
      "Ġrobert": 5162,
      "Ġuniversity": 5163,
      "park": 5164,
      "Ġballet": 5165,
      "Ġfourth": 5166,
      "Ġapparently": 5167,
      "âĢĿ?": 5168,
      "Ġresult": 5169,
      "jul": 5170,
      "ittens": 5171,
      "Ġmolly": 5172,
      "Ġbananas": 5173,
      "Ġtotal": 5174,
      "Ġpowder": 5175,
      "sli": 5176,
      "Ġrate": 5177,
      "itions": 5178,
      "Ġhomework": 5179,
      "Ġbedtime": 5180,
      "Ġdiam": 5181,
      "Ġjean": 5182,
      "ddy": 5183,
      "pte": 5184,
      "Ġcind": 5185,
      "Ġpears": 5186,
      "aster": 5187,
      "Ġladybird": 5188,
      "shoes": 5189,
      "Ġoctopus": 5190,
      "Ġbenefit": 5191,
      "Ġprovide": 5192,
      "line": 5193,
      "straw": 5194,
      "Ġewww": 5195,
      "Ġshed": 5196,
      "drops": 5197,
      "Ġdeliver": 5198,
      "kim": 5199,
      "Ġfeather": 5200,
      "shirt": 5201,
      "Ġurs": 5202,
      "Ġpasta": 5203,
      "ĠâĢĺ": 5204,
      "ptember": 5205,
      "fight": 5206,
      "Ġheld": 5207,
      "build": 5208,
      "Ġphotograph": 5209,
      "Ġindividual": 5210,
      "Ġdessert": 5211,
      "Ġbean": 5212,
      "Ġbroom": 5213,
      "Ġfifi": 5214,
      "Ġtouching": 5215,
      "Ġrecognize": 5216,
      "Ġsuddenly": 5217,
      "Ġmwww": 5218,
      "Ġmia": 5219,
      "outside": 5220,
      "Ġargum": 5221,
      "Ġcharlie": 5222,
      "Ġremoves": 5223,
      "Ġfort": 5224,
      "Ġbiggest": 5225,
      "Ġanswers": 5226,
      "duh": 5227,
      "Ġwave": 5228,
      "tee": 5229,
      "discards": 5230,
      "ws": 5231,
      "Ġwine": 5232,
      "Ġjane": 5233,
      "ively": 5234,
      "Ġbench": 5235,
      "Ġbalance": 5236,
      "ense": 5237,
      "ury": 5238,
      "sses": 5239,
      "Ġpresident": 5240,
      "Ġstatement": 5241,
      "tickle": 5242,
      "18": 5243,
      "Ġbound": 5244,
      "Ġpiano": 5245,
      "Ġpopped": 5246,
      "breat": 5247,
      "Ġrequire": 5248,
      "horsie": 5249,
      "Ġsnee": 5250,
      "Ġalligator": 5251,
      "Ġtim": 5252,
      "iggle": 5253,
      "tomorrow": 5254,
      "oink": 5255,
      "Ġswww": 5256,
      "Ġbib": 5257,
      "doing": 5258,
      "Ġcoal": 5259,
      "Ġtire": 5260,
      "clap": 5261,
      "Ġbirdie": 5262,
      "Ġresour": 5263,
      "Ġawake": 5264,
      "media": 5265,
      "ifor": 5266,
      "Ġspir": 5267,
      "Ġfinal": 5268,
      "Ġterri": 5269,
      "Ġforce": 5270,
      "cel": 5271,
      "Ġ-": 5272,
      "Ġfrightened": 5273,
      "dar": 5274,
      "Ġtone": 5275,
      "demonstrates": 5276,
      "crayon": 5277,
      "Ġtrust": 5278,
      "awww": 5279,
      "sniffs": 5280,
      "Ġq": 5281,
      "kshire": 5282,
      "Ġtent": 5283,
      "ultaneous": 5284,
      "Ġcouncill": 5285,
      "Ġcrab": 5286,
      "fortun": 5287,
      "zen": 5288,
      "Ġrang": 5289,
      "Ġcoke": 5290,
      "inde": 5291,
      "Ġrespect": 5292,
      "bara": 5293,
      "Ġaun": 5294,
      "ament": 5295,
      "Ġyep": 5296,
      "Ġregister": 5297,
      "stic": 5298,
      "doggie": 5299,
      "Ġbugs": 5300,
      "[\"": 5301,
      "Ġiss": 5302,
      "Ġnotes": 5303,
      "Ġexercise": 5304,
      "Ġtaps": 5305,
      "Ġheads": 5306,
      "Ġfinding": 5307,
      "pit": 5308,
      "Ġnea": 5309,
      "ppet": 5310,
      "Ġpacket": 5311,
      "Ġlog": 5312,
      "monkey": 5313,
      "undercurrent": 5314,
      "09": 5315,
      "Ġourselves": 5316,
      "Ġbead": 5317,
      ")]": 5318,
      "stra": 5319,
      "Ġthre": 5320,
      "Ġdev": 5321,
      "lution": 5322,
      "Ġpeg": 5323,
      "Ġcontact": 5324,
      "ingle": 5325,
      "Ġrefrigerator": 5326,
      "Ġscri": 5327,
      "Ġstacker": 5328,
      "foot": 5329,
      "gmo": 5330,
      "Ġafterwards": 5331,
      "Ġeasily": 5332,
      "Ġsuitcase": 5333,
      "24": 5334,
      "gues": 5335,
      "Ġcents": 5336,
      "belt": 5337,
      "Ġtapes": 5338,
      "joe": 5339,
      "imbs": 5340,
      "izes": 5341,
      "Ġtodd": 5342,
      "Ġnecess": 5343,
      "Ġthroughout": 5344,
      "claps": 5345,
      "vator": 5346,
      "Ġreme": 5347,
      "Ġskirt": 5348,
      "Ġpitch": 5349,
      "ians": 5350,
      "nis": 5351,
      "pizza": 5352,
      "rer": 5353,
      "itor": 5354,
      "Ġneighb": 5355,
      "hear": 5356,
      "atic": 5357,
      "Ġshouting": 5358,
      "Ġcrawls": 5359,
      "Ġofficers": 5360,
      "bage": 5361,
      "Ġcong": 5362,
      "Ġtalkin": 5363,
      "thern": 5364,
      "twelve": 5365,
      "Ġlocked": 5366,
      "Ġbull": 5367,
      "Ġcornflakes": 5368,
      "Ġeuropean": 5369,
      "Ġbom": 5370,
      "Ġdwww": 5371,
      "Ġnee": 5372,
      "Ġknocks": 5373,
      "reas": 5374,
      "Ġdiscuss": 5375,
      "Ġmerry": 5376,
      "goodbye": 5377,
      "Ġdollar": 5378,
      "Ġpressure": 5379,
      "Ġvegetables": 5380,
      "Ġevidence": 5381,
      "cir": 5382,
      "tz": 5383,
      "Ġages": 5384,
      "Ġseas": 5385,
      "Ġdie": 5386,
      "Ġfid": 5387,
      "Ġhers": 5388,
      "Ġplayin": 5389,
      "Ġlollipop": 5390,
      "Ġticket": 5391,
      "Ġindustry": 5392,
      "Ġseparate": 5393,
      "ubbies": 5394,
      "Ġwhale": 5395,
      "vell": 5396,
      "Ġrus": 5397,
      "Ġyucky": 5398,
      "Ġgrant": 5399,
      "grm": 5400,
      "buzz": 5401,
      "Ġmac": 5402,
      "Ġrole": 5403,
      "Ġhurting": 5404,
      "Ġchickens": 5405,
      "Ġconsult": 5406,
      "Ġyogh": 5407,
      "Ġspecific": 5408,
      "ccoli": 5409,
      "Ġissues": 5410,
      "Ġringing": 5411,
      "ibility": 5412,
      "auntie": 5413,
      "Ġclouds": 5414,
      "Ġfis": 5415,
      "Ġlettuce": 5416,
      "Ġshoulders": 5417,
      "shout": 5418,
      "hurry": 5419,
      "eye": 5420,
      "fing": 5421,
      "ission": 5422,
      "Ġsociety": 5423,
      "kn": 5424,
      "having": 5425,
      "Ġbased": 5426,
      "Ġspring": 5427,
      "Ġregard": 5428,
      "por": 5429,
      "rus": 5430,
      "Ġsi": 5431,
      "Ġdolphin": 5432,
      "Ġrais": 5433,
      "Ġenters": 5434,
      "Ġimmedi": 5435,
      "Ġclay": 5436,
      "Ġproced": 5437,
      "Ġstays": 5438,
      "iding": 5439,
      "Ġwondering": 5440,
      "Ġlearning": 5441,
      "Ġcases": 5442,
      "Ġamerican": 5443,
      "Ġaunty": 5444,
      "Ġpuzzles": 5445,
      "Ġsettlement": 5446,
      "Ġprivate": 5447,
      "Ġrefers": 5448,
      "Ġcentral": 5449,
      "Ġgrocer": 5450,
      "went": 5451,
      "Ġmush": 5452,
      "ene": 5453,
      "shake": 5454,
      "mia": 5455,
      "Ġdah": 5456,
      "Ġgoat": 5457,
      "Ġbells": 5458,
      "Ġpassed": 5459,
      "ugs": 5460,
      "yuck": 5461,
      "Ġmi": 5462,
      "Ġchop": 5463,
      "Ġlouder": 5464,
      "Ġdistance": 5465,
      "Ġagreed": 5466,
      "snow": 5467,
      "Ġstates": 5468,
      "Ġjer": 5469,
      "uncle": 5470,
      "ulation": 5471,
      "âĨ«": 5472,
      "Ġhighchair": 5473,
      "ded": 5474,
      "Ġcarto": 5475,
      "Ġchoos": 5476,
      "Ġshark": 5477,
      "chants": 5478,
      "Ġdum": 5479,
      "Ġthumb": 5480,
      "Ġprefer": 5481,
      "Ġpippin": 5482,
      "Ġzoom": 5483,
      "Ġslides": 5484,
      "Ġnathan": 5485,
      "Ġtransport": 5486,
      "gill": 5487,
      "helle": 5488,
      "Ġpoop": 5489,
      "Ġdisc": 5490,
      "bbits": 5491,
      "Ġmater": 5492,
      "Ġyounger": 5493,
      "gie": 5494,
      "mw": 5495,
      "Ġ7": 5496,
      "Ġphy": 5497,
      "Ġbless": 5498,
      "Ġpens": 5499,
      "Ġopportunity": 5500,
      "Ġmartin": 5501,
      "Ġjumper": 5502,
      "Ġencoura": 5503,
      "peas": 5504,
      "Ġsession": 5505,
      "orkshire": 5506,
      "Ġplaygroup": 5507,
      "ooray": 5508,
      "Ġsmiling": 5509,
      "Ġrelations": 5510,
      "Ġdeli": 5511,
      "oured": 5512,
      "Ġalien": 5513,
      "Ġetc": 5514,
      "goo": 5515,
      "Ġhood": 5516,
      "Ġshem": 5517,
      "itted": 5518,
      "Ġtune": 5519,
      "bec": 5520,
      "Ġcompan": 5521,
      "Ġigno": 5522,
      "Ġfla": 5523,
      "Ġenjoyed": 5524,
      "Ġvehi": 5525,
      "Ġdocum": 5526,
      "host": 5527,
      "ential": 5528,
      "Ġpapa": 5529,
      "anybody": 5530,
      "07": 5531,
      "tha": 5532,
      "Ġdent": 5533,
      "Ġstones": 5534,
      "whoop": 5535,
      "Ġsneak": 5536,
      "bad": 5537,
      "Ġmath": 5538,
      "Ġoffer": 5539,
      "Ġconne": 5540,
      "poss": 5541,
      "Ġfinds": 5542,
      "Ġprinci": 5543,
      "postman": 5544,
      "Ġscheme": 5545,
      "Ġcovers": 5546,
      "Ġlower": 5547,
      "âĢĿ!": 5548,
      "Ġclimbed": 5549,
      "sitting": 5550,
      "Ġprint": 5551,
      "Ġideas": 5552,
      "Ġinterview": 5553,
      "Ġlastname": 5554,
      "Ġpurpose": 5555,
      "Ġengland": 5556,
      "Ġselling": 5557,
      "Ġapplic": 5558,
      "Ġscott": 5559,
      "itar": 5560,
      "whatever": 5561,
      "their": 5562,
      "burgh": 5563,
      "relative": 5564,
      "smiles": 5565,
      "Ġdepends": 5566,
      "song": 5567,
      "Ġcub": 5568,
      "Ġpad": 5569,
      "abe": 5570,
      "Ġextre": 5571,
      "deb": 5572,
      "mpi": 5573,
      "Ġblows": 5574,
      "Ġappropriate": 5575,
      "wat": 5576,
      "Ġtied": 5577,
      "Ġdiscussion": 5578,
      "onathan": 5579,
      "Ġghost": 5580,
      "ckets": 5581,
      "Ġseptember": 5582,
      "Ġloc": 5583,
      "Ġnecessary": 5584,
      "Ġalive": 5585,
      "umpy": 5586,
      "Ġzero": 5587,
      "Ġsweater": 5588,
      "Ġmotorcycle": 5589,
      "Ġbelongs": 5590,
      "atmeal": 5591,
      "Ġbelow": 5592,
      "Ġsnakes": 5593,
      "everyone": 5594,
      "Ġrules": 5595,
      "54": 5596,
      "vi": 5597,
      "Ġamend": 5598,
      "Ġteaching": 5599,
      "uffy": 5600,
      "Ġtastes": 5601,
      "Ġcherry": 5602,
      "Ġprepared": 5603,
      "Ġfinancial": 5604,
      "Ġattend": 5605,
      "Ġmanager": 5606,
      "izzy": 5607,
      "yawns": 5608,
      "Ġwhoo": 5609,
      "Ġwhistle": 5610,
      "tri": 5611,
      "Ġnail": 5612,
      "Ġsuff": 5613,
      "wasn": 5614,
      "Ġnanny": 5615,
      "Ġernie": 5616,
      "Ġyay": 5617,
      "Ġtemper": 5618,
      "Ġyorkshire": 5619,
      "Ġdemo": 5620,
      "Ġcatches": 5621,
      "Ġglances": 5622,
      "frog": 5623,
      "Ġ6": 5624,
      "anne": 5625,
      "Ġbothered": 5626,
      "Ġjus": 5627,
      "Ġlanded": 5628,
      "Ġsausages": 5629,
      "spl": 5630,
      "rels": 5631,
      "Ġthin": 5632,
      "Ġtryin": 5633,
      "Ġpron": 5634,
      "nifer": 5635,
      "Ġdave": 5636,
      "Ġfriendly": 5637,
      "whisper": 5638,
      "Ġcurtains": 5639,
      "Ġauthorities": 5640,
      "Ġcooked": 5641,
      "Ġsquirrel": 5642,
      "Ġgerm": 5643,
      "Ġlor": 5644,
      "atives": 5645,
      "Ġsoda": 5646,
      "Ġamong": 5647,
      "grf": 5648,
      "Ġtasty": 5649,
      "gor": 5650,
      "Ġsisters": 5651,
      "Ġfred": 5652,
      "Ġdoctors": 5653,
      "Ġboring": 5654,
      "06": 5655,
      "Ġcomfortable": 5656,
      "Ġclar": 5657,
      "change": 5658,
      "Ġdrawn": 5659,
      "Ġcrib": 5660,
      "shoe": 5661,
      "gb": 5662,
      "Ġnails": 5663,
      "Ġmem": 5664,
      "unc": 5665,
      "Ġhotel": 5666,
      "Ġnature": 5667,
      "obs": 5668,
      "attempts": 5669,
      "cean": 5670,
      "Ġhats": 5671,
      "clean": 5672,
      "Ġdese": 5673,
      "Ġtruth": 5674,
      "flower": 5675,
      "rum": 5676,
      "Ġcried": 5677,
      "Ġmal": 5678,
      "ctive": 5679,
      "wonder": 5680,
      "Ġarrange": 5681,
      "patsy": 5682,
      "Ġcloset": 5683,
      "Ġhuman": 5684,
      "Ġwhispers": 5685,
      "Ġbritain": 5686,
      "Ġimitates": 5687,
      "luk": 5688,
      "pool": 5689,
      "ingo": 5690,
      "Ġrocking": 5691,
      "giving": 5692,
      "Ġpadd": 5693,
      "Ġkite": 5694,
      "mage": 5695,
      "addressed": 5696,
      "Ġpeek": 5697,
      "neighbor": 5698,
      "cap": 5699,
      "anna": 5700,
      "Ġheat": 5701,
      "Ġincome": 5702,
      "boat": 5703,
      "Ġcocoon": 5704,
      "ave": 5705,
      "non": 5706,
      "slight": 5707,
      "Ġtaught": 5708,
      "nose": 5709,
      "Ġpeel": 5710,
      "Ġrestaur": 5711,
      "Ġvalue": 5712,
      "Ġcompanies": 5713,
      "bas": 5714,
      "atter": 5715,
      "Ġoli": 5716,
      "forty": 5717,
      "real": 5718,
      "Ġpau": 5719,
      "eagues": 5720,
      "Ġmakin": 5721,
      "bbling": 5722,
      "Ġbloke": 5723,
      "Ġsales": 5724,
      "spoon": 5725,
      "eaking": 5726,
      "Ġstood": 5727,
      "ngle": 5728,
      "Ġhun": 5729,
      "28": 5730,
      "?,": 5731,
      "Ġrich": 5732,
      "Ġcracker": 5733,
      "lisa": 5734,
      "Ġinfl": 5735,
      "ston": 5736,
      "Ġnast": 5737,
      "Ġbangs": 5738,
      "made": 5739,
      "vr": 5740,
      "Ġward": 5741,
      "Ġmc": 5742,
      "Ġsongs": 5743,
      "top": 5744,
      "quiet": 5745,
      "Ġwilliam": 5746,
      "Ġflies": 5747,
      "children": 5748,
      "Ġskill": 5749,
      "Ġpolitical": 5750,
      "Ġbumble": 5751,
      "Ġkn": 5752,
      "Ġalarm": 5753,
      "Ġstrugg": 5754,
      "ups": 5755,
      "Ġcoughs": 5756,
      "pple": 5757,
      "bered": 5758,
      "Ġloved": 5759,
      "melon": 5760,
      "sharp": 5761,
      "bon": 5762,
      "ccups": 5763,
      "Ġaud": 5764,
      "icing": 5765,
      "Ġsale": 5766,
      "bruary": 5767,
      "Ġrattling": 5768,
      "peek": 5769,
      "Ġfollows": 5770,
      "Ġspid": 5771,
      "Ġmostly": 5772,
      "paint": 5773,
      "Ġamerica": 5774,
      "Ġpudding": 5775,
      "Ġsou": 5776,
      "Ġmult": 5777,
      "Ġgrape": 5778,
      "Ġpouring": 5779,
      "('": 5780,
      "Ġfli": 5781,
      "audible": 5782,
      "ustr": 5783,
      "Ġarrow": 5784,
      "Ġsmells": 5785,
      "Ġextreme": 5786,
      "exactly": 5787,
      "peanut": 5788,
      "Ġuseful": 5789,
      "Ġmelissa": 5790,
      "Ġnecessarily": 5791,
      "Ġwendy": 5792,
      "Ġbeer": 5793,
      "Ġarmy": 5794,
      "Ġsnail": 5795,
      "Ġconcentr": 5796,
      "bly": 5797,
      "sum": 5798,
      "Ġcupcake": 5799,
      "Ġhorn": 5800,
      "Ġcharlotte": 5801,
      "Ġgloves": 5802,
      "rely": 5803,
      "sec": 5804,
      "Ġblind": 5805,
      "Ġteapot": 5806,
      "Ġdisco": 5807,
      "aws": 5808,
      "Ġcrazy": 5809,
      "Ġoccasion": 5810,
      "silly": 5811,
      "Ġtroll": 5812,
      "Ġcheer": 5813,
      "itional": 5814,
      "counter": 5815,
      "dif": 5816,
      "gen": 5817,
      "pack": 5818,
      "school": 5819,
      "Ġmate": 5820,
      "orter": 5821,
      "Ġstro": 5822,
      "Ġfairy": 5823,
      "crash": 5824,
      "Ġpirate": 5825,
      "Ġgym": 5826,
      "Ġyoghurt": 5827,
      "ooklyn": 5828,
      "gage": 5829,
      "iest": 5830,
      "jenny": 5831,
      "Ġresearch": 5832,
      "Ġcomplete": 5833,
      "Ġpram": 5834,
      "fortunately": 5835,
      "]âĮī.": 5836,
      "oc": 5837,
      "Ġki": 5838,
      "Ġladies": 5839,
      "Ġfixing": 5840,
      "jeannine": 5841,
      "Ġcabin": 5842,
      "Ġnasty": 5843,
      "05": 5844,
      "Ġocean": 5845,
      "Ġrom": 5846,
      "Ġspeaker": 5847,
      "Ġgenerally": 5848,
      "shine": 5849,
      "hard": 5850,
      "Ġintake": 5851,
      "Ġrec": 5852,
      "graeme": 5853,
      "Ġjoseph": 5854,
      "Ġfunction": 5855,
      "Ġstandard": 5856,
      "Ġscoot": 5857,
      "Ġwool": 5858,
      "Ġpain": 5859,
      "Ġconference": 5860,
      "Ġmuse": 5861,
      "Ġmovement": 5862,
      "Ġharder": 5863,
      "Ġbrief": 5864,
      "Ġbones": 5865,
      "Ġchase": 5866,
      "Ġjulia": 5867,
      "Ġsma": 5868,
      "Ġsele": 5869,
      "uhhum": 5870,
      "microphone": 5871,
      "pea": 5872,
      "rub": 5873,
      "Ġalpha": 5874,
      "Ġdeath": 5875,
      "Ġhistory": 5876,
      "paste": 5877,
      "Ġkissing": 5878,
      "Ġdonald": 5879,
      "tage": 5880,
      "ola": 5881,
      "Ġdaniel": 5882,
      "Ġraspberry": 5883,
      "pan": 5884,
      "anes": 5885,
      "Ġplaydough": 5886,
      "overla": 5887,
      "Ġentire": 5888,
      "Ġceiling": 5889,
      "Ġmanaged": 5890,
      "Ġsally": 5891,
      "Ġfirm": 5892,
      "Ġmag": 5893,
      "Ġmarie": 5894,
      "Ġrespond": 5895,
      "Ġincreas": 5896,
      "Ġproduce": 5897,
      "Ġmistake": 5898,
      "Ġdiamond": 5899,
      "Ġrealized": 5900,
      "Ġjeep": 5901,
      "food": 5902,
      "Ġsunny": 5903,
      "them": 5904,
      "igible": 5905,
      "Ġcrane": 5906,
      "Ġhardly": 5907,
      "Ġrule": 5908,
      "Ġbounces": 5909,
      "Ġtaxi": 5910,
      "Ġimprove": 5911,
      "zed": 5912,
      "erves": 5913,
      "whatcha": 5914,
      "Ġkipper": 5915,
      "boys": 5916,
      "Ġpeep": 5917,
      "Ġmoder": 5918,
      "Ġcrit": 5919,
      "Ġteletubbies": 5920,
      "gillam": 5921,
      "sand": 5922,
      "Ġfault": 5923,
      "sheep": 5924,
      "Ġchuck": 5925,
      "Ġobser": 5926,
      "Ġenvelope": 5927,
      "mous": 5928,
      "ples": 5929,
      "Ġcrow": 5930,
      "omes": 5931,
      "Ġsaving": 5932,
      "Ġcrackers": 5933,
      "ki": 5934,
      "sits": 5935,
      "fifty": 5936,
      "Ġstamp": 5937,
      "iry": 5938,
      "Ġjour": 5939,
      "gel": 5940,
      "Ġflour": 5941,
      "Ġwaving": 5942,
      "Ġski": 5943,
      "pour": 5944,
      "Ġble": 5945,
      "Ġpleas": 5946,
      "Ġtask": 5947,
      "vels": 5948,
      "Ġlip": 5949,
      "Ġchick": 5950,
      "Ġlamp": 5951,
      "Ġspirit": 5952,
      "cot": 5953,
      "pooh": 5954,
      "Ġdonkey": 5955,
      "through": 5956,
      "Ġcleaner": 5957,
      "46": 5958,
      "oni": 5959,
      "amp": 5960,
      "âĮĭ?": 5961,
      "Ġbrace": 5962,
      "Ġholidays": 5963,
      "ening": 5964,
      "rabbit": 5965,
      "henry": 5966,
      "Ġmatches": 5967,
      "Ġpete": 5968,
      "Ġcandles": 5969,
      "Ġmice": 5970,
      "...\"": 5971,
      "Ġsharing": 5972,
      "Ġpara": 5973,
      "standing": 5974,
      "Ġslip": 5975,
      "Ġkilled": 5976,
      "Ġnathaniel": 5977,
      "iers": 5978,
      "Ġdots": 5979,
      "Ġwanting": 5980,
      "Ġpretz": 5981,
      "Ġlearned": 5982,
      "beautiful": 5983,
      "yesterday": 5984,
      "sss": 5985,
      "Ġexcellent": 5986,
      "Ġclosing": 5987,
      "Ġwaves": 5988,
      "Ġboats": 5989,
      "Ġcenter": 5990,
      "Ġmaterial": 5991,
      "dies": 5992,
      "although": 5993,
      "Ġchalk": 5994,
      "Ġprices": 5995,
      "Ġinstance": 5996,
      "Ġinsurance": 5997,
      "Ġironing": 5998,
      "Ġeventually": 5999,
      "Ġport": 6000,
      "Ġrent": 6001,
      "Ġelevator": 6002,
      "Ġsweeties": 6003,
      "Ġcrawl": 6004,
      "Ġchewing": 6005,
      "Ġviol": 6006,
      "Ġvers": 6007,
      "Ġjun": 6008,
      "cember": 6009,
      "Ġflor": 6010,
      "eyes": 6011,
      "ober": 6012,
      "Ġdressing": 6013,
      "Ġspray": 6014,
      "Ġscrat": 6015,
      "19": 6016,
      "Ġpun": 6017,
      "itch": 6018,
      "roy": 6019,
      "Ġrwww": 6020,
      "Ġwoods": 6021,
      "Ġinton": 6022,
      "Ġuhoh": 6023,
      "ppa": 6024,
      "Ġclimbs": 6025,
      "Ġminister": 6026,
      "Ġcontext": 6027,
      "Ġdirt": 6028,
      "Ġtear": 6029,
      "Ġkitten": 6030,
      "roar": 6031,
      "Ġplans": 6032,
      "Ġhowever": 6033,
      "Ġfilled": 6034,
      "Ġnuts": 6035,
      "Ġscotland": 6036,
      "cep": 6037,
      "illon": 6038,
      "Ġbumped": 6039,
      "free": 6040,
      "Ġreview": 6041,
      "Ġoffered": 6042,
      "Ġextend": 6043,
      "Ġrabbits": 6044,
      "cuum": 6045,
      "works": 6046,
      "'!": 6047,
      "Ġmabel": 6048,
      "Ġbake": 6049,
      "Ġtoothbrush": 6050,
      "Ġrooster": 6051,
      "pow": 6052,
      "yells": 6053,
      "Ġbends": 6054,
      "umes": 6055,
      "Ġplain": 6056,
      "Ġboss": 6057,
      "Ġbarrel": 6058,
      "Ġindepend": 6059,
      "Ġpromise": 6060,
      "lady": 6061,
      "rad": 6062,
      "Ġant": 6063,
      "ths": 6064,
      "super": 6065,
      "eremy": 6066,
      "small": 6067,
      "Ġbranch": 6068,
      "war": 6069,
      "Ġcru": 6070,
      "Ġshiny": 6071,
      "fro": 6072,
      "Ġhea": 6073,
      "Ġjuly": 6074,
      "Ġjungle": 6075,
      "zorg": 6076,
      "inburgh": 6077,
      "Ġcred": 6078,
      "eding": 6079,
      "Ġchis": 6080,
      "Ġordin": 6081,
      "teenth": 6082,
      "Ġtracks": 6083,
      "Ġsetting": 6084,
      "produ": 6085,
      "Ġremem": 6086,
      "lay": 6087,
      "Ġwinky": 6088,
      ";.": 6089,
      "tion": 6090,
      "Ġtough": 6091,
      "Ġshaking": 6092,
      "Ġintern": 6093,
      "nearly": 6094,
      "uu": 6095,
      "yle": 6096,
      "Ġdoh": 6097,
      "Ġdanny": 6098,
      "Ġmaisy": 6099,
      "yours": 6100,
      "Ġspaceship": 6101,
      "Ġfile": 6102,
      "Ġluck": 6103,
      "Ġinstru": 6104,
      "Ġconstruction": 6105,
      "Ġmushroom": 6106,
      "Ġmuseum": 6107,
      "fit": 6108,
      "reci": 6109,
      "Ġger": 6110,
      "Ġdining": 6111,
      "Ġloose": 6112,
      "Ġhitting": 6113,
      "Ġhealthy": 6114,
      "Ġafri": 6115,
      "Ġicing": 6116,
      "Ġprior": 6117,
      "Ġvanilla": 6118,
      "tim": 6119,
      "heh": 6120,
      "bbed": 6121,
      "Ġargument": 6122,
      "hon": 6123,
      "Ġwes": 6124,
      "Ġswings": 6125,
      "Ġdrove": 6126,
      "Ġmountain": 6127,
      "otherwise": 6128,
      "Ġwhee": 6129,
      "Ġwhispering": 6130,
      "face": 6131,
      "hooray": 6132,
      "chup": 6133,
      "Ġstares": 6134,
      "Ġattra": 6135,
      "coffee": 6136,
      "Ġpots": 6137,
      "Ġmovies": 6138,
      "dinosaur": 6139,
      "jj": 6140,
      "Ġpath": 6141,
      "issed": 6142,
      "woah": 6143,
      "Ġfebruary": 6144,
      "rolls": 6145,
      "Ġhumming": 6146,
      "Ġpumpkins": 6147,
      "Ġdebate": 6148,
      "Ġrestaurant": 6149,
      "Ġrose": 6150,
      "Ġscreen": 6151,
      "finish": 6152,
      "naughty": 6153,
      "Ġwi": 6154,
      "icle": 6155,
      "Ġmale": 6156,
      "Ġchain": 6157,
      "Ġmatt": 6158,
      "brilliant": 6159,
      "Ġjanuary": 6160,
      "Ġdentist": 6161,
      "vember": 6162,
      "herine": 6163,
      "intell": 6164,
      "gger": 6165,
      "joy": 6166,
      "Ġwrap": 6167,
      "Ġspanish": 6168,
      "Ġamazing": 6169,
      "Ġresources": 6170,
      "26": 6171,
      "30": 6172,
      "bah": 6173,
      "Ġandrew": 6174,
      "Ġplug": 6175,
      "Ġsorted": 6176,
      "Ġroads": 6177,
      "Ġequal": 6178,
      "itut": 6179,
      "together": 6180,
      "Ġener": 6181,
      "eleven": 6182,
      "doo": 6183,
      "tent": 6184,
      "uding": 6185,
      "Ġcommer": 6186,
      "tered": 6187,
      "Ġaccom": 6188,
      "Ġcleaned": 6189,
      "Ġknocking": 6190,
      "Ġtickets": 6191,
      "piece": 6192,
      "Ġsex": 6193,
      "Ġchasing": 6194,
      "Ġcromer": 6195,
      "Ġaccess": 6196,
      "Ġfollowed": 6197,
      "talks": 6198,
      "Ġcricket": 6199,
      "Ġdominic": 6200,
      "goodness": 6201,
      "Ġdemand": 6202,
      "25": 6203,
      "Ġshh": 6204,
      "mpoo": 6205,
      "Ġtricky": 6206,
      "Ġmessage": 6207,
      "Ġlawn": 6208,
      "matthew": 6209,
      "Ġcros": 6210,
      "bug": 6211,
      "Ġtwe": 6212,
      "erk": 6213,
      "Ġeatin": 6214,
      "cold": 6215,
      "Ġcatherine": 6216,
      "Ġunit": 6217,
      "clown": 6218,
      "Ġsubst": 6219,
      "Ġangel": 6220,
      "Ġsteady": 6221,
      "Ġintonation": 6222,
      "Ġbid": 6223,
      "Ġgest": 6224,
      "Ġmanchester": 6225,
      "Ġflav": 6226,
      "Ġwhisper": 6227,
      "Ġphys": 6228,
      "mkay": 6229,
      "sn": 6230,
      "Ġemb": 6231,
      "Ġrot": 6232,
      "Ġskip": 6233,
      "Ġwaffle": 6234,
      "bud": 6235,
      "stal": 6236,
      "Ġclient": 6237,
      "Ġactions": 6238,
      "closes": 6239,
      "Ġapproach": 6240,
      "Ġcandle": 6241,
      "inside": 6242,
      "Ġhomes": 6243,
      "Ġraymond": 6244,
      "Ġparagraph": 6245,
      "ains": 6246,
      "Ġattemp": 6247,
      "Ġnotting": 6248,
      "Ġmap": 6249,
      "Ġfactory": 6250,
      "Ġstamps": 6251,
      "Ġordinary": 6252,
      "anim": 6253,
      "emily": 6254,
      "Ġcamp": 6255,
      "Ġthrown": 6256,
      "Ġscreaming": 6257,
      "Ġfamiliar": 6258,
      "Ġalphabet": 6259,
      "fact": 6260,
      "Ġache": 6261,
      "Ġbilly": 6262,
      "Ġbecky": 6263,
      "ulous": 6264,
      "Ġdrives": 6265,
      "clam": 6266,
      "Ġbeef": 6267,
      "Ġadvice": 6268,
      "ak": 6269,
      "gers": 6270,
      "Ġamy": 6271,
      "Ġlala": 6272,
      "Ġmaster": 6273,
      "ests": 6274,
      "Ġjoke": 6275,
      "Ġfifth": 6276,
      "Ġkicking": 6277,
      "Ġkatie": 6278,
      "Ġbah": 6279,
      "Ġerin": 6280,
      "Ġzip": 6281,
      "Ġzipper": 6282,
      "Ġattack": 6283,
      "Ġgoose": 6284,
      "Ġimmediately": 6285,
      "af": 6286,
      "bid": 6287,
      "umbs": 6288,
      "elle": 6289,
      "Ġvict": 6290,
      "izing": 6291,
      "Ġpickle": 6292,
      "Ġsupply": 6293,
      "Ġhippo": 6294,
      "Ġphoned": 6295,
      "hair": 6296,
      "Ġdebbie": 6297,
      "Ġcontribut": 6298,
      "finished": 6299,
      "walking": 6300,
      "Ġpositive": 6301,
      "Ġpilot": 6302,
      "cies": 6303,
      "Ġut": 6304,
      "Ġbecomes": 6305,
      "dey": 6306,
      "Ġmonsters": 6307,
      "ivy": 6308,
      "Ġsignific": 6309,
      "dur": 6310,
      "Ġkwww": 6311,
      "meg": 6312,
      "Ġworm": 6313,
      "Ġunclear": 6314,
      "wants": 6315,
      "Ġgoal": 6316,
      "Ġbecame": 6317,
      "Ġjill": 6318,
      "imum": 6319,
      "bless": 6320,
      "Ġcrown": 6321,
      "Ġreminds": 6322,
      "Ġseason": 6323,
      "Ġsour": 6324,
      "ellis": 6325,
      "absolutely": 6326,
      "Ġdecember": 6327,
      "Ġfinishes": 6328,
      "Ġmailbox": 6329,
      "fus": 6330,
      "sat": 6331,
      "weis": 6332,
      "climb": 6333,
      "Ġlobster": 6334,
      "Ġdigg": 6335,
      "Ġemer": 6336,
      "Ġscore": 6337,
      "awright": 6338,
      "Ġfuzzy": 6339,
      "Ġbreaking": 6340,
      "Ġremembered": 6341,
      "ellisweis": 6342,
      "ellisweismer": 6343,
      "mill": 6344,
      "Ġneg": 6345,
      "Ġchief": 6346,
      "Ġspare": 6347,
      "marky": 6348,
      "Ġsamantha": 6349,
      "Ġmemory": 6350,
      "lend": 6351,
      "Ġsites": 6352,
      "Ġbroccoli": 6353,
      "Ġapply": 6354,
      "Ġshir": 6355,
      "flies": 6356,
      "Ġpackage": 6357,
      "cmon": 6358,
      "Ġanne": 6359,
      "Ġspr": 6360,
      "childsname": 6361,
      "Ġrelie": 6362,
      "phy": 6363,
      "hei": 6364,
      "inst": 6365,
      "Ġlions": 6366,
      "urgh": 6367,
      "Ġdef": 6368,
      "Ġscoop": 6369,
      "Ġmarg": 6370,
      "erella": 6371,
      "Ġproduct": 6372,
      "Ġstripes": 6373,
      "bal": 6374,
      "Ġsigh": 6375,
      "Ġwhenever": 6376,
      "reaching": 6377,
      "Ġnatural": 6378,
      "drawing": 6379,
      "Ġmaisie": 6380,
      "click": 6381,
      "wouldn": 6382,
      "brian": 6383,
      "ification": 6384,
      "Ġwea": 6385,
      "Ġlat": 6386,
      "Ġlit": 6387,
      "rock": 6388,
      "Ġrush": 6389,
      "tele": 6390,
      "Ġsung": 6391,
      "fifteen": 6392,
      "36": 6393,
      "Ġpanda": 6394,
      "doggy": 6395,
      "Ġappreci": 6396,
      "ipul": 6397,
      "Ġoriginal": 6398,
      "gust": 6399,
      "aries": 6400,
      "ushed": 6401,
      "Ġgrandmother": 6402,
      "turning": 6403,
      "helps": 6404,
      "Ġcostume": 6405,
      "Ġshorts": 6406,
      "gelman": 6407,
      "':": 6408,
      "since": 6409,
      "Ġsniff": 6410,
      "uses": 6411,
      "Ġshift": 6412,
      "lion": 6413,
      "Ġsake": 6414,
      "Ġdur": 6415,
      "Ġmur": 6416,
      "atures": 6417,
      "tail": 6418,
      "things": 6419,
      "Ġbasic": 6420,
      "Ġlaying": 6421,
      "girl": 6422,
      "Ġrhyme": 6423,
      "Ġcouncillor": 6424,
      "jason": 6425,
      "Ġnu": 6426,
      "Ġknot": 6427,
      "tabl": 6428,
      "Ġshame": 6429,
      "Ġbarbie": 6430,
      "Ġsunshine": 6431,
      "Ġtypes": 6432,
      "imitating": 6433,
      "pronounced": 6434,
      "cers": 6435,
      "oting": 6436,
      "oooo": 6437,
      "Ġlemme": 6438,
      "Ġproud": 6439,
      "Ġhopefully": 6440,
      "Ġbouncing": 6441,
      "Ġpocketbook": 6442,
      "sur": 6443,
      "Ġbum": 6444,
      "Ġopt": 6445,
      "eapple": 6446,
      "Ġresc": 6447,
      "Ġmonkeys": 6448,
      "Ġpennies": 6449,
      "Ġpatch": 6450,
      "Ġeddie": 6451,
      "Ġaim": 6452,
      "means": 6453,
      "except": 6454,
      "Ġgrew": 6455,
      "Ġworkers": 6456,
      "Ġripped": 6457,
      "Ġpainted": 6458,
      "roller": 6459,
      "antastic": 6460,
      "Ġtidying": 6461,
      "omers": 6462,
      "thony": 6463,
      "liament": 6464,
      "Ġkit": 6465,
      "road": 6466,
      "Ġvroom": 6467,
      "Ġshoel": 6468,
      "Ġjudge": 6469,
      "Ġcountries": 6470,
      "Ġpolic": 6471,
      "Ġcushion": 6472,
      "âĪ": 6473,
      "hiya": 6474,
      "Ġlee": 6475,
      "Ġshining": 6476,
      "Ġtouched": 6477,
      "Ġmeetings": 6478,
      "Ġharry": 6479,
      "fireman": 6480,
      "Ġpeace": 6481,
      "nvr": 6482,
      "Ġpsy": 6483,
      "ssh": 6484,
      "Ġdeedee": 6485,
      "molly": 6486,
      "Ġpatrick": 6487,
      "tired": 6488,
      "Ġengines": 6489,
      "avier": 6490,
      "Ġremove": 6491,
      "Ġactiv": 6492,
      "Ġpottie": 6493,
      "ava": 6494,
      "Ġpancakes": 6495,
      "Ġcrawling": 6496,
      "Ġconditions": 6497,
      "Ġextremely": 6498,
      "Ġcrunch": 6499,
      "Ġappear": 6500,
      "Ġrides": 6501,
      "Ġrefle": 6502,
      "Ġspark": 6503,
      "Ġsector": 6504,
      "venue": 6505,
      "Ġpoll": 6506,
      "istic": 6507,
      "Ġparliament": 6508,
      "Ġpolicies": 6509,
      "page": 6510,
      "Ġcig": 6511,
      "wning": 6512,
      "Ġplayground": 6513,
      "Ġrod": 6514,
      "Ġtomatoes": 6515,
      "second": 6516,
      "Ġaust": 6517,
      "whist": 6518,
      "aches": 6519,
      "Ġmort": 6520,
      "hol": 6521,
      "Ġgolf": 6522,
      "umably": 6523,
      "Ġvest": 6524,
      "Ġextent": 6525,
      "Ġchecking": 6526,
      "volution": 6527,
      "cathy": 6528,
      "Ġbasketball": 6529,
      "Ġadvance": 6530,
      "karen": 6531,
      "Ġcau": 6532,
      "Ġoops": 6533,
      "Ġresponsibility": 6534,
      "Ġdocument": 6535,
      "Ġtes": 6536,
      "opy": 6537,
      "Ġpole": 6538,
      "Ġprog": 6539,
      "Ġflats": 6540,
      "Ġspoke": 6541,
      "23": 6542,
      "Ġtwww": 6543,
      "Ġaid": 6544,
      "Ġaver": 6545,
      "Ġdest": 6546,
      "Ġbacon": 6547,
      "Ġgreenbelt": 6548,
      "Ġsatis": 6549,
      "Ġpetrol": 6550,
      "Ġenjoying": 6551,
      "runs": 6552,
      "jud": 6553,
      "james": 6554,
      "reb": 6555,
      "Ġhedge": 6556,
      "Ġrip": 6557,
      "Ġsurely": 6558,
      "mumbles": 6559,
      "Ġoppo": 6560,
      "dinner": 6561,
      "Ġattached": 6562,
      "Ġseesaw": 6563,
      "Ġhannah": 6564,
      "Ġgimme": 6565,
      "Ġja": 6566,
      "unless": 6567,
      "Ġbaba": 6568,
      "dire": 6569,
      "Ġtee": 6570,
      "Ġgif": 6571,
      "ledge": 6572,
      "imate": 6573,
      "Ġdried": 6574,
      "couldn": 6575,
      "Ġpeach": 6576,
      "Ġlen": 6577,
      "hope": 6578,
      "Ġnomi": 6579,
      "Ġroar": 6580,
      "Ġgabriella": 6581,
      "Ġrescue": 6582,
      "kind": 6583,
      "pap": 6584,
      "wake": 6585,
      "yah": 6586,
      "Ġlif": 6587,
      "urity": 6588,
      "Ġgotten": 6589,
      "using": 6590,
      "thought": 6591,
      "Ġbarbara": 6592,
      "Ġmichelle": 6593,
      "Ġspending": 6594,
      "Ġreasonable": 6595,
      "Ġestabl": 6596,
      "Ġroyal": 6597,
      "Ġblew": 6598,
      "Ġgwww": 6599,
      "Ġlake": 6600,
      "Ġrap": 6601,
      "Ġcurtain": 6602,
      "Ġenergy": 6603,
      "bike": 6604,
      "lu": 6605,
      "sen": 6606,
      "Ġaug": 6607,
      "leg": 6608,
      "rold": 6609,
      "Ġliz": 6610,
      "umpty": 6611,
      "stands": 6612,
      "Ġexamines": 6613,
      "Ġreports": 6614,
      "Ġprofession": 6615,
      "fighter": 6616,
      "pres": 6617,
      "Ġtig": 6618,
      "Ġtwist": 6619,
      "Ġwindy": 6620,
      "Ġbreaks": 6621,
      "produces": 6622,
      "nces": 6623,
      "mpers": 6624,
      "Ġsquares": 6625,
      "Ġbranches": 6626,
      "birds": 6627,
      "dress": 6628,
      "Ġflip": 6629,
      "Ġcloud": 6630,
      "putta": 6631,
      "Ġwrites": 6632,
      "Ġcolleagues": 6633,
      "Ġproduction": 6634,
      "27": 6635,
      "Ġseek": 6636,
      "ami": 6637,
      "Ġcriter": 6638,
      "short": 6639,
      "Ġemma": 6640,
      "Ġrubbish": 6641,
      "bump": 6642,
      "Ġry": 6643,
      "Ġleader": 6644,
      "lax": 6645,
      "iction": 6646,
      "Ġtrolley": 6647,
      "dunno": 6648,
      "lois": 6649,
      "Ġaltern": 6650,
      "Ġbarking": 6651,
      "Ġswinging": 6652,
      "stuck": 6653,
      "Ġcustomer": 6654,
      "Ġannoying": 6655,
      "Ġvacuum": 6656,
      "intelligible": 6657,
      "29": 6658,
      "nother": 6659,
      "rasp": 6660,
      "Ġjonathan": 6661,
      "Ġcoin": 6662,
      "Ġgrad": 6663,
      "Ġguitar": 6664,
      "Ġcolin": 6665,
      "quickly": 6666,
      "object": 6667,
      "leng": 6668,
      "Ġtit": 6669,
      "iner": 6670,
      "Ġflag": 6671,
      "Ġcutter": 6672,
      "Ġagric": 6673,
      "Ġoctober": 6674,
      "slow": 6675,
      "Ġseal": 6676,
      "Ġcell": 6677,
      "max": 6678,
      "Ġmatters": 6679,
      "mickey": 6680,
      "Ġstudents": 6681,
      "bile": 6682,
      "Ġlink": 6683,
      "Ġliber": 6684,
      "Ġbabe": 6685,
      "Ġaside": 6686,
      "Ġrobbie": 6687,
      "antly": 6688,
      "Ġcoughing": 6689,
      "Ġhelpful": 6690,
      "bridge": 6691,
      "lwww": 6692,
      "nical": 6693,
      "Ġperm": 6694,
      "idents": 6695,
      "Ġroller": 6696,
      "Ġrude": 6697,
      "Ġmetho": 6698,
      "Ġlyn": 6699,
      "flo": 6700,
      "lil": 6701,
      "lation": 6702,
      "Ġinaudible": 6703,
      "Ġcart": 6704,
      "burger": 6705,
      "Ġfurry": 6706,
      "Ġvolume": 6707,
      "Ġenvironmental": 6708,
      "Ġketchup": 6709,
      "Ġursula": 6710,
      "bath": 6711,
      "lll": 6712,
      "Ġforms": 6713,
      "usion": 6714,
      "Ġflash": 6715,
      "Ġribb": 6716,
      "Ġgrace": 6717,
      "Ġconcern": 6718,
      "!\"": 6719,
      "Ġreinde": 6720,
      "rain": 6721,
      "Ġraise": 6722,
      "correct": 6723,
      "Ġpray": 6724,
      "Ġwears": 6725,
      "Ġrelative": 6726,
      "Ġradi": 6727,
      "Ġpeanuts": 6728,
      "Ġtube": 6729,
      "Ġneighbor": 6730,
      "Ġaudi": 6731,
      "sto": 6732,
      "leen": 6733,
      "Ġlessons": 6734,
      "Ġexplains": 6735,
      "morning": 6736,
      "Ġscarf": 6737,
      "Ġbracelet": 6738,
      "Ġflorida": 6739,
      "later": 6740,
      "Ġsaved": 6741,
      "Ġchuckles": 6742,
      "Ġheaven": 6743,
      "spe": 6744,
      "Ġlim": 6745,
      "iren": 6746,
      "interview": 6747,
      "Ġeconomic": 6748,
      "police": 6749,
      "becca": 6750,
      "ders": 6751,
      "jess": 6752,
      "mike": 6753,
      "saus": 6754,
      "Ġsib": 6755,
      "Ġbwww": 6756,
      "Ġdose": 6757,
      "Ġune": 6758,
      "ittin": 6759,
      "ability": 6760,
      "Ġtaping": 6761,
      "bbing": 6762,
      "Ġachieve": 6763,
      "shouting": 6764,
      "Ġtex": 6765,
      "uts": 6766,
      "male": 6767,
      "Ġhoping": 6768,
      "Ġtravel": 6769,
      "rrr": 6770,
      "Ġfuss": 6771,
      "Ġir": 6772,
      "Ġbul": 6773,
      "ays": 6774,
      "hog": 6775,
      "Ġmey": 6776,
      "Ġoverall": 6777,
      "Ġcircum": 6778,
      "partic": 6779,
      "alex": 6780,
      "Ġjimmy": 6781,
      "Ġfamilies": 6782,
      "Ġrobot": 6783,
      "Ġshovel": 6784,
      "certain": 6785,
      "hood": 6786,
      "Ġopin": 6787,
      "Ġhell": 6788,
      "Ġlevels": 6789,
      "Ġpardon": 6790,
      "Ġdipsy": 6791,
      "aurus": 6792,
      "Ġjennifer": 6793,
      "christmas": 6794,
      "growls": 6795,
      "Ġmodern": 6796,
      "fre": 6797,
      "ination": 6798,
      "entially": 6799,
      "ppo": 6800,
      "doctor": 6801,
      "gee": 6802,
      "Ġmumbles": 6803,
      "iggling": 6804,
      "Ġtarget": 6805,
      "pical": 6806,
      "Ġ&": 6807,
      "enters": 6808,
      "Ġaspect": 6809,
      "bel": 6810,
      "Ġbrushing": 6811,
      "Ġladders": 6812,
      "Ġdrew": 6813,
      "Ġpci": 6814,
      "Ġpip": 6815,
      "Ġchall": 6816,
      "Ġletting": 6817,
      "Ġshampoo": 6818,
      "Ġscience": 6819,
      "bbly": 6820,
      "Ġsteering": 6821,
      "bing": 6822,
      "od": 6823,
      "Ġ9": 6824,
      "Ġpigs": 6825,
      "sequ": 6826,
      "Ġnwww": 6827,
      "umn": 6828,
      "Ġsecurity": 6829,
      "lia": 6830,
      "Ġgran": 6831,
      "Ġpointed": 6832,
      "Ġcommission": 6833,
      "Ġsmartie": 6834,
      "Ġcalcul": 6835,
      "Ġarrived": 6836,
      "rom": 6837,
      "Ġ8": 6838,
      "hit": 6839,
      "Ġseed": 6840,
      "letter": 6841,
      "Ġteen": 6842,
      "Ġdirectly": 6843,
      "Ġpilchard": 6844,
      "Ġraisins": 6845,
      "lst": 6846,
      "santa": 6847,
      "Ġmecha": 6848,
      "Ġclunk": 6849,
      "Ġbroad": 6850,
      "Ġfiretruck": 6851,
      "Ġcord": 6852,
      "Ġdivision": 6853,
      "Ġsimon": 6854,
      "Ġinclud": 6855,
      "flowers": 6856,
      "lift": 6857,
      "Ġaugust": 6858,
      "lab": 6859,
      "mma": 6860,
      "Ġgross": 6861,
      "atory": 6862,
      "Ġfrance": 6863,
      "Ġcaroline": 6864,
      "check": 6865,
      "Ġdisney": 6866,
      "Ġmilks": 6867,
      "Ġlaid": 6868,
      "Ġoperation": 6869,
      "Ġnoodles": 6870,
      "Ġgordon": 6871,
      "Ġfashion": 6872,
      "mies": 6873,
      "Ġtables": 6874,
      "Ġgoods": 6875,
      "Ġjoking": 6876,
      "spies": 6877,
      "Ġcommercial": 6878,
      "gent": 6879,
      "Ġbef": 6880,
      "Ġdemonstr": 6881,
      "Ġchecked": 6882,
      "Ġaccor": 6883,
      "Ġcommit": 6884,
      "Ġincluding": 6885,
      "Ġdiaper": 6886,
      "Ġroute": 6887,
      "mt": 6888,
      "none": 6889,
      "itude": 6890,
      "Ġfran": 6891,
      "ope": 6892,
      "Ġprovision": 6893,
      "Ġgrade": 6894,
      "dee": 6895,
      "market": 6896,
      "Ġwatermelon": 6897,
      "Ġcamel": 6898,
      "Ġsplit": 6899,
      "Ġtuna": 6900,
      "Ġhonestly": 6901,
      "33": 6902,
      "cam": 6903,
      "py": 6904,
      "sun": 6905,
      "hake": 6906,
      "Ġreaching": 6907,
      "Ġwalls": 6908,
      "Ġgarbage": 6909,
      "Ġvalent": 6910,
      "Ġmajority": 6911,
      "Ġlucy": 6912,
      "circle": 6913,
      "Ġdizzy": 6914,
      "especially": 6915,
      "Ġanna": 6916,
      "Ġnovember": 6917,
      "Ġswallow": 6918,
      "Ġparcel": 6919,
      "Ġbegan": 6920,
      "banana": 6921,
      "pc": 6922,
      "Ġses": 6923,
      "Ġhah": 6924,
      "Ġhwww": 6925,
      "Ġrights": 6926,
      "behind": 6927,
      "Ġoverla": 6928,
      "Ġmeaning": 6929,
      "caroni": 6930,
      "Ġbeard": 6931,
      "Ġreached": 6932,
      "Ġreceiver": 6933,
      "winnie": 6934,
      "placing": 6935,
      "Ġthreat": 6936,
      "van": 6937,
      "Ġvac": 6938,
      "Ġshown": 6939,
      "Ġhugs": 6940,
      "sible": 6941,
      "Ġcaptain": 6942,
      "Ġfreezer": 6943,
      "Ġsuggested": 6944,
      "Ġjulie": 6945,
      "Ġcomplain": 6946,
      "Ġaverage": 6947,
      "away": 6948,
      "nia": 6949,
      "Ġbored": 6950,
      "Ġfellow": 6951,
      "robert": 6952,
      "Ġexe": 6953,
      "Ġwondered": 6954,
      "Ġsixth": 6955,
      "cars": 6956,
      "Ġlength": 6957,
      "simultaneous": 6958,
      "Ġamendment": 6959,
      "57": 6960,
      "dadda": 6961,
      "motion": 6962,
      "lee": 6963,
      "however": 6964,
      "cker": 6965,
      "abeth": 6966,
      "Ġrecords": 6967,
      "Ġbenefits": 6968,
      "far": 6969,
      "Ġfear": 6970,
      "ndry": 6971,
      "rable": 6972,
      "Ġguard": 6973,
      "Ġpatient": 6974,
      "Ġdata": 6975,
      "Ġfeathers": 6976,
      "Ġtemperature": 6977,
      "59": 6978,
      "reg": 6979,
      "Ġsophi": 6980,
      "eling": 6981,
      "Ġcrashed": 6982,
      "Ġpreschool": 6983,
      "Ġfrost": 6984,
      "Ġjohnny": 6985,
      "Ġagreement": 6986,
      "Ġconfused": 6987,
      "Ġrailway": 6988,
      "Ġrelationship": 6989,
      "ander": 6990,
      "Ġbey": 6991,
      "Ġlic": 6992,
      "tree": 6993,
      "ubby": 6994,
      "Ġkidding": 6995,
      "rugs": 6996,
      "gabr": 6997,
      "Ġkettle": 6998,
      "butterfly": 6999,
      "summer": 7000,
      "201": 7001,
      "dimitra": 7002,
      "wear": 7003,
      "essed": 7004,
      "Ġpacked": 7005,
      "Ġbrand": 7006,
      "Ġexpected": 7007,
      "Ġslept": 7008,
      "puppet": 7009,
      "Ġtween": 7010,
      "hide": 7011,
      "Ġgall": 7012,
      "debbie": 7013,
      "Ġchem": 7014,
      "Ġsliding": 7015,
      "Ġrolled": 7016,
      "Ġtickles": 7017,
      "Ġexperiment": 7018,
      "Ġtoothpaste": 7019,
      "Ġregional": 7020,
      "Ġmargaret": 7021,
      "dra": 7022,
      "Ġtut": 7023,
      "Ġsight": 7024,
      "Ġ[!": 7025,
      "Ġadjust": 7026,
      "Ġcampa": 7027,
      "Ġlaug": 7028,
      "Ġhums": 7029,
      "Ġdetails": 7030,
      "Ġrepeats": 7031,
      "clamation": 7032,
      "lengthened": 7033,
      "21": 7034,
      "lan": 7035,
      "Ġciv": 7036,
      "Ġjingle": 7037,
      "Ġpub": 7038,
      "Ġbuses": 7039,
      "Ġassess": 7040,
      "Ġsteam": 7041,
      "gree": 7042,
      "verse": 7043,
      "aked": 7044,
      "Ġcarries": 7045,
      "ounce": 7046,
      "Ġassist": 7047,
      "Ġcredit": 7048,
      "vor": 7049,
      "Ġtisha": 7050,
      "eral": 7051,
      "adah": 7052,
      "Ġalice": 7053,
      "colates": 7054,
      "Ġinvite": 7055,
      "Ġsaucer": 7056,
      "Ġdetail": 7057,
      "Ġinvestment": 7058,
      "running": 7059,
      "Ġgingerbread": 7060,
      "fingers": 7061,
      "interviews": 7062,
      "money": 7063,
      "pump": 7064,
      "Ġdealing": 7065,
      "Ġeld": 7066,
      "Ġanti": 7067,
      "amb": 7068,
      "Ġfaith": 7069,
      "Ġcheaper": 7070,
      "Ġfoods": 7071,
      "Ġseries": 7072,
      "Ġforever": 7073,
      "Ġcommunic": 7074,
      "Ġnottingham": 7075,
      "Ġrelief": 7076,
      "Ġryan": 7077,
      "Ġcircumst": 7078,
      "eenth": 7079,
      "swww": 7080,
      "wed": 7081,
      "Ġtro": 7082,
      "Ġfet": 7083,
      "elling": 7084,
      "Ġcabinet": 7085,
      "10": 7086,
      "matt": 7087,
      "Ġled": 7088,
      "Ġremi": 7089,
      "Ġtranscri": 7090,
      "Ġgrumpy": 7091,
      "Ġhearing": 7092,
      "Ġspoken": 7093,
      "ultural": 7094,
      "Ġderwood": 7095,
      "Ġframe": 7096,
      "Ġcongress": 7097,
      "smell": 7098,
      "ases": 7099,
      "opot": 7100,
      "rowave": 7101,
      "Ġended": 7102,
      "Ġmadam": 7103,
      "Ġemployment": 7104,
      "strawberry": 7105,
      "found": 7106,
      "inary": 7107,
      "Ġnah": 7108,
      "Ġrelig": 7109,
      "Ġtwelf": 7110,
      "Ġreindeer": 7111,
      "cin": 7112,
      "Ġglor": 7113,
      "Ġweb": 7114,
      "Ġkar": 7115,
      "Ġanaly": 7116,
      "dolly": 7117,
      "excellent": 7118,
      "ured": 7119,
      "Ġlolly": 7120,
      "Ġconcl": 7121,
      "Ġblah": 7122,
      "Ġserve": 7123,
      "Ġmuscles": 7124,
      "Ġcurly": 7125,
      "Ġgrover": 7126,
      "Ġorganis": 7127,
      "Ġoccur": 7128,
      "Ġmuffin": 7129,
      "Ġlemonade": 7130,
      "Ġexisting": 7131,
      "48": 7132,
      "ware": 7133,
      "Ġwre": 7134,
      "Ġmask": 7135,
      "Ġfc": 7136,
      "rah": 7137,
      "Ġparties": 7138,
      "Ġsleeps": 7139,
      "Ġclosely": 7140,
      "Ġmispronounced": 7141,
      "Ġproperty": 7142,
      "called": 7143,
      "Ġvehicle": 7144,
      "different": 7145,
      "39": 7146,
      "Ġmandy": 7147,
      "Ġtosses": 7148,
      "Ġintell": 7149,
      "abelle": 7150,
      "Ġobvious": 7151,
      "Ġadvanta": 7152,
      "Ġsesame": 7153,
      "fy": 7154,
      "sals": 7155,
      "Ġdea": 7156,
      "Ġdun": 7157,
      "Ġtoot": 7158,
      "Ġdefe": 7159,
      "case": 7160,
      "Ġmixer": 7161,
      "Ġstrike": 7162,
      "Ġsuccessful": 7163,
      "Ġmammy": 7164,
      "Ġplayers": 7165,
      "cated": 7166,
      "Ġlynn": 7167,
      "Ġphil": 7168,
      "pher": 7169,
      "hie": 7170,
      "lev": 7171,
      "Ġstress": 7172,
      "Ġrelax": 7173,
      "Ġash": 7174,
      "Ġpuff": 7175,
      "Ġraised": 7176,
      "etera": 7177,
      "Ġisland": 7178,
      "edy": 7179,
      "chy": 7180,
      "Ġlies": 7181,
      "Ġplums": 7182,
      "Ġsmith": 7183,
      "Ġperfor": 7184,
      "snap": 7185,
      "Ġperfectly": 7186,
      "Ġincreasing": 7187,
      "rs": 7188,
      "hoe": 7189,
      "Ġstall": 7190,
      "Ġseats": 7191,
      "Ġusual": 7192,
      "Ġaccep": 7193,
      "Ġappointment": 7194,
      "66": 7195,
      "lies": 7196,
      "ung": 7197,
      "Ġfantastic": 7198,
      "Ġliter": 7199,
      "coat": 7200,
      "Ġhung": 7201,
      "Ġrooms": 7202,
      "balls": 7203,
      "Ġfully": 7204,
      "Ġmachines": 7205,
      "ko": 7206,
      "Ġgal": 7207,
      "Ġpoured": 7208,
      "icated": 7209,
      "Ġalan": 7210,
      "Ġspain": 7211,
      "brings": 7212,
      "Ġprotection": 7213,
      "Ġot": 7214,
      "Ġdadda": 7215,
      "cheeky": 7216,
      "scream": 7217,
      "interrup": 7218,
      "kick": 7219,
      "Ġian": 7220,
      "around": 7221,
      "Ġconv": 7222,
      "Ġenqu": 7223,
      "Ġpickles": 7224,
      "Ġguid": 7225,
      "Ġdrunk": 7226,
      "Ġmicro": 7227,
      "Ġrecorded": 7228,
      "Ġindependent": 7229,
      "opotam": 7230,
      "gurt": 7231,
      "Ġpets": 7232,
      "Ġoatmeal": 7233,
      "Ġplat": 7234,
      "ilities": 7235,
      "mae": 7236,
      "Ġlunchtime": 7237,
      "icester": 7238,
      "Ġlesson": 7239,
      "Ġstuart": 7240,
      "Ġproposals": 7241,
      "Ġreceived": 7242,
      "Ġbeyond": 7243,
      "49": 7244,
      "hoo": 7245,
      "ota": 7246,
      "rial": 7247,
      "iggly": 7248,
      "Ġguesses": 7249,
      "fair": 7250,
      "Ġexecut": 7251,
      "Ġgerman": 7252,
      "Ġhal": 7253,
      "ashes": 7254,
      "Ġreference": 7255,
      "Ġrates": 7256,
      "been": 7257,
      "Ġwherever": 7258,
      "Ġtwinkle": 7259,
      "Ġsquared": 7260,
      "Ġdiet": 7261,
      "Ġlaundry": 7262,
      "straight": 7263,
      "instead": 7264,
      "![": 7265,
      "eves": 7266,
      "Ġped": 7267,
      "dshire": 7268,
      "ninet": 7269,
      "Ġrelated": 7270,
      "Ġbrain": 7271,
      "Ġsneeze": 7272,
      "mouse": 7273,
      "aron": 7274,
      "Ġunifor": 7275,
      "Ġcouncils": 7276,
      "aae": 7277,
      "blocks": 7278,
      "mess": 7279,
      "sbury": 7280,
      "tes": 7281,
      "Ġshy": 7282,
      "stri": 7283,
      "always": 7284,
      "Ġanten": 7285,
      "icecream": 7286,
      "Ġmanu": 7287,
      "Ġfacil": 7288,
      "apers": 7289,
      "Ġjoint": 7290,
      "Ġprince": 7291,
      "joey": 7292,
      "touch": 7293,
      "Ġgary": 7294,
      "ummhm": 7295,
      "Ġbuggy": 7296,
      "Ġempha": 7297,
      "squee": 7298,
      "Ġgeoff": 7299,
      "Ġbouncy": 7300,
      "zo": 7301,
      "rose": 7302,
      "ously": 7303,
      "Ġunfortunately": 7304,
      "Ġnegative": 7305,
      "Ġsittin": 7306,
      "Ġfer": 7307,
      "stood": 7308,
      "gaga": 7309,
      "ggle": 7310,
      "Ġbarrels": 7311,
      "Ġgail": 7312,
      "Ġgentleman": 7313,
      "Ġcement": 7314,
      "Ġwid": 7315,
      "Ġkri": 7316,
      "Ġmelt": 7317,
      "Ġdegree": 7318,
      "posed": 7319,
      "ressive": 7320,
      "Ġdirector": 7321,
      "zebra": 7322,
      "Ġetcetera": 7323,
      "Ġscooter": 7324,
      "Ġemphasis": 7325,
      "cind": 7326,
      "law": 7327,
      "nat": 7328,
      "ridge": 7329,
      "Ġresolut": 7330,
      "usually": 7331,
      "Ġcatching": 7332,
      "Ġbotbot": 7333,
      "Ġadmit": 7334,
      "Ġequals": 7335,
      "Ġclaps": 7336,
      "groans": 7337,
      "bite": 7338,
      "diff": 7339,
      "Ġavo": 7340,
      "aran": 7341,
      "Ġkath": 7342,
      "Ġliqu": 7343,
      "Ġrev": 7344,
      "Ġsol": 7345,
      "cheers": 7346,
      "Ġkevin": 7347,
      "Ġwatering": 7348,
      "mplo": 7349,
      "Ġdrill": 7350,
      "Ġsquash": 7351,
      "Ġpatty": 7352,
      "Ġcalend": 7353,
      "Ġfussing": 7354,
      "Ġcinderella": 7355,
      "Ġcartoon": 7356,
      "ustrated": 7357,
      "Ġunemplo": 7358,
      "Ġcivil": 7359,
      "Ġtan": 7360,
      "mote": 7361,
      "itam": 7362,
      "also": 7363,
      "load": 7364,
      "Ġlosing": 7365,
      "Ġnights": 7366,
      "Ġcooker": 7367,
      "Ġsyll": 7368,
      "much": 7369,
      "giraffe": 7370,
      "Ġcottage": 7371,
      "Ġresponsible": 7372,
      "Ġdelivery": 7373,
      "Ġapplication": 7374,
      "Ġstroke": 7375,
      "Ġcircumstances": 7376,
      "reds": 7377,
      "Ġgul": 7378,
      "Ġsewing": 7379,
      "inddiff": 7380,
      "Ġstopping": 7381,
      "sixty": 7382,
      "Ġpencils": 7383,
      "Ġraspberries": 7384,
      "Ġvacation": 7385,
      "2014": 7386,
      "iddy": 7387,
      "magn": 7388,
      "speaks": 7389,
      "Ġchoc": 7390,
      "ibly": 7391,
      "airplane": 7392,
      "christopher": 7393,
      "Ġmaths": 7394,
      "ima": 7395,
      "rant": 7396,
      "resp": 7397,
      "Ġstream": 7398,
      "ician": 7399,
      "ulty": 7400,
      "Ġprepar": 7401,
      "Ġwales": 7402,
      "Ġbars": 7403,
      "normous": 7404,
      "Ġskills": 7405,
      "Ġrapid": 7406,
      "Ġcampaign": 7407,
      "buh": 7408,
      "Ġmop": 7409,
      "Ġnons": 7410,
      "Ġkate": 7411,
      "Ġrise": 7412,
      "Ġpostbox": 7413,
      "Ġnappy": 7414,
      "Ġchinese": 7415,
      "Ġdoughnut": 7416,
      "Ġprovided": 7417,
      "julia": 7418,
      "Ġopinion": 7419,
      "bes": 7420,
      "sno": 7421,
      "Ġsometime": 7422,
      "Ġbiting": 7423,
      "âĮĭ,": 7424,
      "Ġpours": 7425,
      "Ġentirely": 7426,
      "dom": 7427,
      "ara": 7428,
      "idence": 7429,
      "Ġliver": 7430,
      "Ġrect": 7431,
      "Ġshadow": 7432,
      "Ġparking": 7433,
      "Ġbarry": 7434,
      "Ġclapping": 7435,
      "Ġgermany": 7436,
      "crow": 7437,
      "lasses": 7438,
      "Ġtinky": 7439,
      "Ġthunder": 7440,
      "mac": 7441,
      "Ġbites": 7442,
      "lings": 7443,
      "spaghetti": 7444,
      "Ġfiremen": 7445,
      "fruit": 7446,
      "Ġregul": 7447,
      "Ġresponds": 7448,
      "Ġpineapple": 7449,
      "Ġplaced": 7450,
      "basket": 7451,
      "Ġpsycho": 7452,
      "Ġzzz": 7453,
      "Ġado": 7454,
      "erve": 7455,
      "Ġintend": 7456,
      "Ġenormous": 7457,
      "mod": 7458,
      "Ġmarbles": 7459,
      "brooklyn": 7460,
      "Ġchocolates": 7461,
      "Ġdifficulty": 7462,
      "Ġdumpty": 7463,
      "potato": 7464,
      "cwww": 7465,
      "Ġfi": 7466,
      "Ġwhilst": 7467,
      "Ġelection": 7468,
      "Ġlabel": 7469,
      "Ġdeterm": 7470,
      "beads": 7471,
      "Ġwing": 7472,
      "Ġdip": 7473,
      "Ġoffers": 7474,
      "Ġeveryday": 7475,
      "Ġkeisha": 7476,
      "Ġmini": 7477,
      "Ġpiglet": 7478,
      "Ġpassing": 7479,
      "alogue": 7480,
      "Ġjourney": 7481,
      "cousin": 7482,
      "Ġfir": 7483,
      "Ġsamp": 7484,
      "soon": 7485,
      "Ġcrumbs": 7486,
      "Ġproduced": 7487,
      "Ġseriously": 7488,
      "Ġcompetition": 7489,
      "splash": 7490,
      "08": 7491,
      "tisha": 7492,
      "und": 7493,
      "hiding": 7494,
      "Ġpup": 7495,
      "ceed": 7496,
      "feet": 7497,
      "Ġribbit": 7498,
      "Ġpresumably": 7499,
      "Ġclassroom": 7500,
      "Ġfreud": 7501,
      "Ġjoined": 7502,
      "Ġpretzel": 7503,
      "Ġagg": 7504,
      "Ġabs": 7505,
      "pee": 7506,
      "Ġkeen": 7507,
      "Ġcheek": 7508,
      "activity": 7509,
      "Ġresults": 7510,
      "Ġmainly": 7511,
      "Ġassociation": 7512,
      "Ġmilkshake": 7513,
      "opotamus": 7514,
      "stea": 7515,
      "plus": 7516,
      "engers": 7517,
      "borough": 7518,
      "crayons": 7519,
      "Ġmassive": 7520,
      "bidden": 7521,
      "47": 7522,
      "fell": 7523,
      "Ġdup": 7524,
      "sex": 7525,
      "ribbit": 7526,
      "Ġtack": 7527,
      "Ġclues": 7528,
      "Ġfactor": 7529,
      "Ġfluffy": 7530,
      "Ġsword": 7531,
      "Ġemily": 7532,
      "calls": 7533,
      "Ġtesco": 7534,
      "craw": 7535,
      "len": 7536,
      "Ġclaws": 7537,
      "Ġguaran": 7538,
      "Ġprize": 7539,
      "Ġnorthern": 7540,
      "pulling": 7541,
      "Ġburger": 7542,
      "Ġtaller": 7543,
      "Ġsuggestion": 7544,
      "Ġbesides": 7545,
      "Ġtechno": 7546,
      "dia": 7547,
      "gency": 7548,
      "hino": 7549,
      "Ġaf": 7550,
      "Ġos": 7551,
      "adle": 7552,
      "broken": 7553,
      "Ġscreams": 7554,
      "Ġacid": 7555,
      "cloth": 7556,
      "arrative": 7557,
      "Ġconservative": 7558,
      "Ġdillon": 7559,
      "Ġgather": 7560,
      "exam": 7561,
      "abab": 7562,
      "Ġmanipul": 7563,
      "estion": 7564,
      "Ġwages": 7565,
      "Ġelement": 7566,
      "Ġgrocery": 7567,
      "Ġmanufact": 7568,
      "Ġsin": 7569,
      "erh": 7570,
      "Ġchant": 7571,
      "Ġrisk": 7572,
      "ballo": 7573,
      "Ġmicrowave": 7574,
      "Ġpatients": 7575,
      "Ġcamping": 7576,
      "Ġpopulation": 7577,
      "Ġreply": 7578,
      "ship": 7579,
      "drop": 7580,
      "Ġrepeat": 7581,
      "Ġsweeping": 7582,
      "cope": 7583,
      "zip": 7584,
      "Ġted": 7585,
      "Ġbuh": 7586,
      "Ġpwww": 7587,
      "Ġles": 7588,
      "Ġep": 7589,
      "Ġrin": 7590,
      "Ġnowhere": 7591,
      "Ġbeaker": 7592,
      "until": 7593,
      "iety": 7594,
      "Ġbrave": 7595,
      "Ġexplo": 7596,
      "Ġindustrial": 7597,
      "music": 7598,
      "football": 7599,
      "Ġdigging": 7600,
      "telephone": 7601,
      "pants": 7602,
      "za": 7603,
      "Ġcope": 7604,
      "Ġtracy": 7605,
      "Ġfocus": 7606,
      "fordshire": 7607,
      "Ġahhah": 7608,
      "Ġbutterflies": 7609,
      "Ġbatman": 7610,
      "writing": 7611,
      "Ġaccepted": 7612,
      "lifts": 7613,
      "Ġiniti": 7614,
      "Ġspiders": 7615,
      "nick": 7616,
      "Ġtuh": 7617,
      "each": 7618,
      "enne": 7619,
      "adad": 7620,
      "Ġspilt": 7621,
      "Ġfemale": 7622,
      "screw": 7623,
      "Ġire": 7624,
      "Ġsteak": 7625,
      "Ġruff": 7626,
      "Ġabc": 7627,
      "Ġwhoever": 7628,
      "eee": 7629,
      "Ġtennis": 7630,
      "Ġseth": 7631,
      "Ġpanel": 7632,
      "Ġcountryside": 7633,
      "Ġcharacters": 7634,
      "Ġkittens": 7635,
      "Ġjeremy": 7636,
      "Ġworst": 7637,
      "Ġwhereas": 7638,
      "Ġjeans": 7639,
      "swing": 7640,
      "whoosh": 7641,
      "Ġvegetable": 7642,
      "Ġdisappoint": 7643,
      "erios": 7644,
      "Ġappreciate": 7645,
      "Ġnonsense": 7646,
      "cons": 7647,
      "Ġdare": 7648,
      "Ġreplace": 7649,
      "Ġmend": 7650,
      "wered": 7651,
      "button": 7652,
      "Ġteasing": 7653,
      "ception": 7654,
      "Ġsignal": 7655,
      "puppy": 7656,
      "Ġactivities": 7657,
      "oted": 7658,
      "Ġcel": 7659,
      "Ġmood": 7660,
      "Ġreact": 7661,
      "usual": 7662,
      "Ġbla": 7663,
      "Ġflu": 7664,
      "Ġshaped": 7665,
      "Ġsurvey": 7666,
      "Ġshouted": 7667,
      "Ġperforman": 7668,
      "kk": 7669,
      "Ġneither": 7670,
      "Ġholly": 7671,
      "Ġmod": 7672,
      "Ġmayor": 7673,
      "Ġsigns": 7674,
      "gabri": 7675,
      "swi": 7676,
      "Ġapo": 7677,
      "ourable": 7678,
      "Ġni": 7679,
      "edinburgh": 7680,
      "Ġability": 7681,
      "Ġcarol": 7682,
      "nei": 7683,
      "Ġblame": 7684,
      "baba": 7685,
      "Ġappears": 7686,
      "Ġattitude": 7687,
      "Ġproviding": 7688,
      "Ġmile": 7689,
      "sell": 7690,
      "lement": 7691,
      "Ġtravell": 7692,
      "deedee": 7693,
      "Ġswiss": 7694,
      "Ġearrings": 7695,
      "Ġbeauty": 7696,
      "Ġgla": 7697,
      "Ġgraham": 7698,
      "Ġdivid": 7699,
      "ators": 7700,
      "leaves": 7701,
      "Ġclicks": 7702,
      "Ġeconomy": 7703,
      "Ġelectricity": 7704,
      "fied": 7705,
      "ua": 7706,
      "Ġwhoa": 7707,
      "Ġclue": 7708,
      "Ġleo": 7709,
      "awoh": 7710,
      "anned": 7711,
      "Ġapartment": 7712,
      "colors": 7713,
      "Ġgorilla": 7714,
      "Ġstretch": 7715,
      "38": 7716,
      "ique": 7717,
      "rust": 7718,
      "hits": 7719,
      "Ġnothin": 7720,
      "Ġneedle": 7721,
      "Ġpartners": 7722,
      "tomato": 7723,
      "Ġrelation": 7724,
      "Ġproposed": 7725,
      "samantha": 7726,
      "Ġstrategy": 7727,
      "Ġmulti": 7728,
      "Ġcalendar": 7729,
      "Ġsneezes": 7730,
      "auce": 7731,
      "Ġmec": 7732,
      "Ġbaker": 7733,
      "ulture": 7734,
      "Ġblues": 7735,
      "Ġlean": 7736,
      "Ġdamage": 7737,
      "goti": 7738,
      "oopsie": 7739,
      "Ġbuildings": 7740,
      "Ġmessing": 7741,
      "Ġprocedure": 7742,
      "Ġsignificant": 7743,
      "Ġshirts": 7744,
      "56": 7745,
      "chin": 7746,
      "star": 7747,
      "Ġkf": 7748,
      "ello": 7749,
      "Ġjosh": 7750,
      "Ġbushes": 7751,
      "Ġcherries": 7752,
      "Ġsports": 7753,
      "nineteen": 7754,
      "Ġ].": 7755,
      "Ġaqu": 7756,
      "Ġdom": 7757,
      "Ġnope": 7758,
      "Ġmacaroni": 7759,
      "grees": 7760,
      "Ġdelight": 7761,
      "Ġyogurt": 7762,
      "jamin": 7763,
      "Ġwipes": 7764,
      "saw": 7765,
      "Ġana": 7766,
      "rase": 7767,
      "Ġmobile": 7768,
      "Ġpremi": 7769,
      "thankyou": 7770,
      "whimpers": 7771,
      "Ġimpact": 7772,
      "Ġthousands": 7773,
      "Ġplanet": 7774,
      "Ġpassengers": 7775,
      "Ġrustles": 7776,
      "Ġmagazines": 7777,
      "breathes": 7778,
      "58": 7779,
      "gory": 7780,
      "Ġsang": 7781,
      "Ġsayin": 7782,
      "chang": 7783,
      "thirteen": 7784,
      "Ġinstructions": 7785,
      "78": 7786,
      "kids": 7787,
      "Ġay": 7788,
      "toise": 7789,
      "Ġvitam": 7790,
      "sidered": 7791,
      "Ġpolish": 7792,
      "Ġcentury": 7793,
      "Ġsym": 7794,
      "Ġsmooth": 7795,
      "Ġangle": 7796,
      "Ġfields": 7797,
      "Ġbikes": 7798,
      "Ġribbon": 7799,
      "dig": 7800,
      "lines": 7801,
      "sel": 7802,
      "Ġasher": 7803,
      "above": 7804,
      "Ġholy": 7805,
      "Ġarth": 7806,
      "bbin": 7807,
      "Ġbark": 7808,
      "Ġinvited": 7809,
      "logical": 7810,
      "Ġshoelace": 7811,
      "Ġopposed": 7812,
      "nathan": 7813,
      "Ġlas": 7814,
      "leans": 7815,
      "Ġweigh": 7816,
      "ila": 7817,
      "Ġconsidered": 7818,
      "Ġelbow": 7819,
      "Ġduckie": 7820,
      "Ġprison": 7821,
      "Ġfarmers": 7822,
      "Ġadditional": 7823,
      "follow": 7824,
      "Ġsleeves": 7825,
      "Ġestate": 7826,
      "Ġstyle": 7827,
      "Ġpah": 7828,
      "many": 7829,
      "spider": 7830,
      "Ġtremend": 7831,
      "Ġinterpre": 7832,
      "Ġclasses": 7833,
      "Ġlegal": 7834,
      "eighteen": 7835,
      "drinking": 7836,
      "Ġquarters": 7837,
      "Ġimpl": 7838,
      "Ġinflu": 7839,
      "chie": 7840,
      "Ġsiren": 7841,
      "Ġmig": 7842,
      "Ġkicked": 7843,
      "Ġlimit": 7844,
      "maisie": 7845,
      "izabeth": 7846,
      "Ġadults": 7847,
      "Ġsounded": 7848,
      "Ġfirefighter": 7849,
      "Ġdropping": 7850,
      "sixteen": 7851,
      "Ġgrill": 7852,
      "Ġencourage": 7853,
      "Ġuniform": 7854,
      "ccer": 7855,
      "hug": 7856,
      "ival": 7857,
      "Ġnegoti": 7858,
      "Ġpockets": 7859,
      "Ġwhining": 7860,
      "coll": 7861,
      "brr": 7862,
      "spot": 7863,
      "monday": 7864,
      "Ġsqueezes": 7865,
      "Ġreferred": 7866,
      "Ġtigers": 7867,
      "sir": 7868,
      "kayode": 7869,
      "towel": 7870,
      "Ġmacdonald": 7871,
      "shem": 7872,
      "Ġmustache": 7873,
      "Ġpinch": 7874,
      "calling": 7875,
      "Ġlouise": 7876,
      "Ġincreased": 7877,
      "Ġbuns": 7878,
      "42": 7879,
      "guh": 7880,
      "Ġgiggles": 7881,
      "Ġpure": 7882,
      "wells": 7883,
      "mming": 7884,
      "Ġdepend": 7885,
      "Ġwaved": 7886,
      "Ġslot": 7887,
      "Ġadvertising": 7888,
      "particip": 7889,
      "Ġwrist": 7890,
      "Ġhaw": 7891,
      "rily": 7892,
      "Ġhiccups": 7893,
      "ifford": 7894,
      "Ġheadache": 7895,
      "Ġchee": 7896,
      "grapes": 7897,
      "Ġsandbox": 7898,
      "Ġlegis": 7899,
      "Ġbowls": 7900,
      "Ġcrisp": 7901,
      "Ġmaintain": 7902,
      "Ġagenda": 7903,
      "Ġwrapped": 7904,
      "ggedy": 7905,
      "nuhhuh": 7906,
      "uals": 7907,
      "Ġmitten": 7908,
      "Ġinf": 7909,
      "xxxx": 7910,
      "Ġbutcher": 7911,
      "Ġdegrees": 7912,
      "Ġinteraction": 7913,
      "Ġunderstanding": 7914,
      "Ġinspe": 7915,
      "Ġdecisions": 7916,
      "raspberry": 7917,
      "cling": 7918,
      "pir": 7919,
      "rey": 7920,
      "Ġpies": 7921,
      "ata": 7922,
      "Ġella": 7923,
      "Ġstan": 7924,
      "Ġsheets": 7925,
      "Ġbru": 7926,
      "babies": 7927,
      "Ġbetty": 7928,
      "scri": 7929,
      "Ġlookee": 7930,
      "Ġprimary": 7931,
      "Ġassume": 7932,
      "Ġlounge": 7933,
      "Ġtweenies": 7934,
      "Ġcoach": 7935,
      "Ġmorgan": 7936,
      "fourteen": 7937,
      "squeaks": 7938,
      "Ġviews": 7939,
      "Ġrequired": 7940,
      "Ġdisappeared": 7941,
      "Ġafrica": 7942,
      "Ġattempt": 7943,
      "labial": 7944,
      "fty": 7945,
      "kid": 7946,
      "Ġink": 7947,
      "Ġsean": 7948,
      "Ġhut": 7949,
      "Ġaltogether": 7950,
      "gram": 7951,
      "Ġmusical": 7952,
      "Ġsnip": 7953,
      "Ġstatic": 7954,
      "castle": 7955,
      "certainly": 7956,
      "Ġaccording": 7957,
      "Ġuna": 7958,
      "Ġknowledge": 7959,
      "Ġbam": 7960,
      "Ġthor": 7961,
      "ryn": 7962,
      "abra": 7963,
      "Ġdecl": 7964,
      "Ġgravy": 7965,
      "Ġinstrum": 7966,
      "Ġterry": 7967,
      "Ġexpress": 7968,
      "Ġoccup": 7969,
      "repeats": 7970,
      "Ġcindy": 7971,
      "Ġcriteria": 7972,
      "dry": 7973,
      "gle": 7974,
      "Ġduty": 7975,
      "Ġorders": 7976,
      "Ġpoke": 7977,
      "Ġunits": 7978,
      "Ġjud": 7979,
      "Ġpotential": 7980,
      "Ġgrabbed": 7981,
      "Ġpopular": 7982,
      "Ġmedical": 7983,
      "Ġhonourable": 7984,
      "Ġpenguins": 7985,
      "mix": 7986,
      "Ġwah": 7987,
      "Ġfool": 7988,
      "Ġkent": 7989,
      "Ġknowing": 7990,
      "Ġnoddy": 7991,
      "dodo": 7992,
      "squeak": 7993,
      "rolling": 7994,
      "Ġfunding": 7995,
      "Ġsmoking": 7996,
      "Ġsqueaky": 7997,
      "Ġprogress": 7998,
      "Ġchallen": 7999,
      "Ġfal": 8000,
      "vement": 8001,
      "Ġbolt": 8002,
      "Ġshouts": 8003,
      "shrugs": 8004,
      "broom": 8005,
      "Ġtoybox": 8006,
      "somewhere": 8007,
      "Ġskate": 8008,
      "Ġstreng": 8009,
      "Ġdrag": 8010,
      "Ġlays": 8011,
      "Ġgabr": 8012,
      "overlapped": 8013,
      "Ġperformance": 8014,
      "37": 8015,
      "gal": 8016,
      "noo": 8017,
      "iculous": 8018,
      "Ġcoats": 8019,
      "Ġtips": 8020,
      "toast": 8021,
      "easel": 8022,
      "Ġcompared": 8023,
      "Ġcheeseburger": 8024,
      "Ġslipper": 8025,
      "Ġautom": 8026,
      "Ġexpression": 8027,
      "Ġsusan": 8028,
      "eggs": 8029,
      "levant": 8030,
      "Ġresolution": 8031,
      "pal": 8032,
      "sug": 8033,
      "Ġwore": 8034,
      "Ġcele": 8035,
      "leo": 8036,
      "Ġka": 8037,
      "Ġboing": 8038,
      "Ġunusual": 8039,
      "agree": 8040,
      "finitely": 8041,
      "craft": 8042,
      "Ġembarr": 8043,
      "Ġcelebr": 8044,
      "ees": 8045,
      "lers": 8046,
      "Ġgam": 8047,
      "Ġjake": 8048,
      "Ġasse": 8049,
      "Ġmarble": 8050,
      "Ġadvent": 8051,
      "Ġdistribut": 8052,
      "Ġpeasants": 8053,
      "Ġsnoopy": 8054,
      "block": 8055,
      "Ġagricultural": 8056,
      "doh": 8057,
      "ington": 8058,
      "Ġreaction": 8059,
      "Ġsomehow": 8060,
      "tooth": 8061,
      "Ġminor": 8062,
      "oofy": 8063,
      "Ġdoggies": 8064,
      "fficient": 8065,
      "Ġinclude": 8066,
      "pitched": 8067,
      "Ġowe": 8068,
      "sees": 8069,
      "Ġnint": 8070,
      "Ġneil": 8071,
      "Ġspen": 8072,
      "hannah": 8073,
      "Ġgaze": 8074,
      "Ġspinning": 8075,
      "Ġporridge": 8076,
      "Ġvalentine": 8077,
      "ox": 8078,
      "ancy": 8079,
      "stack": 8080,
      "Ġdrank": 8081,
      "Ġfalled": 8082,
      "Ġwheat": 8083,
      "washer": 8084,
      "Ġdrain": 8085,
      "Ġproducts": 8086,
      "Ġdeveloped": 8087,
      "cookies": 8088,
      "iffy": 8089,
      "possible": 8090,
      "Ġouch": 8091,
      "Ġdreams": 8092,
      "Ġpy": 8093,
      "Ġlaughter": 8094,
      "ishm": 8095,
      "Ġpolly": 8096,
      "Ġunderstood": 8097,
      "Ġcounts": 8098,
      "Ġsurv": 8099,
      "Ġprofit": 8100,
      "Ġwaffles": 8101,
      "Ġterribly": 8102,
      "hus": 8103,
      "pau": 8104,
      "Ġtum": 8105,
      "Ġsew": 8106,
      "Ġoutfit": 8107,
      "Ġpoison": 8108,
      "Ġtrina": 8109,
      "rette": 8110,
      "Ġpossibility": 8111,
      "{%": 8112,
      "Ġmcdonald": 8113,
      "itter": 8114,
      "ride": 8115,
      "maggie": 8116,
      "Ġcombin": 8117,
      "Ġgrate": 8118,
      "Ġraises": 8119,
      "grabs": 8120,
      "Ġperri": 8121,
      "mumbling": 8122,
      "Ġsettee": 8123,
      "affes": 8124,
      "Ġlaughed": 8125,
      "pad": 8126,
      "writ": 8127,
      "Ġmim": 8128,
      "omp": 8129,
      "Ġrevolution": 8130,
      "Ġsending": 8131,
      "Ġbaking": 8132,
      "inder": 8133,
      "Ġyuck": 8134,
      "Ġworms": 8135,
      "Ġbung": 8136,
      "Ġcradle": 8137,
      "emp": 8138,
      "Ġdisgust": 8139,
      "Ġhears": 8140,
      "Ġhundreds": 8141,
      "utters": 8142,
      "Ġburp": 8143,
      "Ġspelling": 8144,
      "Ġoughta": 8145,
      "dou": 8146,
      "wis": 8147,
      "heavy": 8148,
      "Ġawhile": 8149,
      "Ġmashed": 8150,
      "Ġgap": 8151,
      "Ġbackpack": 8152,
      "Ġargu": 8153,
      "Ġtricycle": 8154,
      "Ġkneels": 8155,
      "barrow": 8156,
      "Ġcooper": 8157,
      "Ġcondition": 8158,
      "Ġtechnology": 8159,
      "pil": 8160,
      "ruff": 8161,
      "hammer": 8162,
      "Ġtheory": 8163,
      "Ġbash": 8164,
      "sevent": 8165,
      "vere": 8166,
      "Ġruth": 8167,
      "bey": 8168,
      "Ġstrap": 8169,
      "shire": 8170,
      "Ġburnt": 8171,
      "Ġwhom": 8172,
      "Ġtoolbox": 8173,
      "[{%": 8174,
      "ewww": 8175,
      "lala": 8176,
      "oct": 8177,
      "}]": 8178,
      "Ġari": 8179,
      "stru": 8180,
      "whats": 8181,
      "george": 8182,
      "Ġquote": 8183,
      "istry": 8184,
      "Ġtopic": 8185,
      "Ġsensible": 8186,
      "Ġorganization": 8187,
      "Ġguns": 8188,
      "Ġhunting": 8189,
      "Ġaustral": 8190,
      "martin": 8191,
      "hive": 8192,
      "handing": 8193,
      "erg": 8194,
      "Ġglove": 8195,
      "ingu": 8196,
      "Ġlan": 8197,
      "Ġdozen": 8198,
      "ades": 8199,
      "Ġbol": 8200,
      "gail": 8201,
      "lied": 8202,
      "Ġfamous": 8203,
      "Ġbabble": 8204,
      "Ġlarger": 8205,
      "glasses": 8206,
      "Ġstrategic": 8207,
      "itution": 8208,
      "Ġaccommod": 8209,
      "Ġkrispies": 8210,
      "99": 8211,
      "cre": 8212,
      "coo": 8213,
      "dominic": 8214,
      "phe": 8215,
      "saurus": 8216,
      "Ġhae": 8217,
      "Ġbeha": 8218,
      "Ġbehalf": 8219,
      "Ġye": 8220,
      "perfect": 8221,
      "Ġflashing": 8222,
      "emma": 8223,
      "Ġadmin": 8224,
      "Ġdae": 8225,
      "Ġwinning": 8226,
      "Ġblankets": 8227,
      "Ġpasses": 8228,
      "Ġshooting": 8229,
      "quietly": 8230,
      "Ġsunglasses": 8231,
      "sugar": 8232,
      "either": 8233,
      "hehe": 8234,
      "esome": 8235,
      "amused": 8236,
      "Ġcarbon": 8237,
      "Ġcondu": 8238,
      "Ġleaning": 8239,
      "Ġflap": 8240,
      "angles": 8241,
      "Ġdrawers": 8242,
      "Ġkneeling": 8243,
      "Ġstew": 8244,
      "apples": 8245,
      "Ġrelease": 8246,
      "mingham": 8247,
      "orgie": 8248,
      "Ġcollecting": 8249,
      "Ġcorrectly": 8250,
      "slide": 8251,
      "unhunh": 8252,
      "jay": 8253,
      "kl": 8254,
      "lby": 8255,
      "Ġrecess": 8256,
      "Ġjail": 8257,
      "Ġforwards": 8258,
      "Ġrum": 8259,
      "sol": 8260,
      "gold": 8261,
      "Ġensure": 8262,
      "hanie": 8263,
      "Ġcourses": 8264,
      "screen": 8265,
      "Ġedward": 8266,
      "Ġtickling": 8267,
      "Ġadded": 8268,
      "Ġlately": 8269,
      "Ġcollection": 8270,
      "Ġluke": 8271,
      "wheel": 8272,
      "Ġmuffins": 8273,
      "Ġflavor": 8274,
      "directed": 8275,
      "cater": 8276,
      "gently": 8277,
      "Ġvel": 8278,
      "referent": 8279,
      "arri": 8280,
      "eddie": 8281,
      "Ġkool": 8282,
      "Ġanthony": 8283,
      "lying": 8284,
      "Ġcomple": 8285,
      "Ġtrapped": 8286,
      "atherine": 8287,
      "cused": 8288,
      "tractor": 8289,
      "Ġclaire": 8290,
      "Ġwires": 8291,
      "Ġjoyce": 8292,
      "Ġprofessional": 8293,
      "linda": 8294,
      "took": 8295,
      "Ġsan": 8296,
      "Ġlump": 8297,
      "Ġital": 8298,
      "Ġremo": 8299,
      "Ġjas": 8300,
      "Ġvirt": 8301,
      "Ġmothers": 8302,
      "Ġaccent": 8303,
      "Ġtommy": 8304,
      "burps": 8305,
      "Ġprocedures": 8306,
      "Ġoccasionally": 8307,
      "papa": 8308,
      "Ġtremendous": 8309,
      "ec": 8310,
      "pigg": 8311,
      "wall": 8312,
      "zoom": 8313,
      "Ġivy": 8314,
      "Ġmall": 8315,
      "Ġmittens": 8316,
      "Ġtoby": 8317,
      "speaking": 8318,
      "Ġdiary": 8319,
      "Ġjewel": 8320,
      "Ġlearnt": 8321,
      "Ġphrase": 8322,
      "obviously": 8323,
      "Ġadvantage": 8324,
      "bil": 8325,
      "mim": 8326,
      "Ġpam": 8327,
      "Ġpunch": 8328,
      "itors": 8329,
      "rious": 8330,
      "maisy": 8331,
      "peep": 8332,
      "Ġtrips": 8333,
      "Ġmarkers": 8334,
      "Ġeffic": 8335,
      "Ġgolden": 8336,
      "Ġtablets": 8337,
      "Ġrussi": 8338,
      "Ġsneakers": 8339,
      "saturday": 8340,
      "Ġantenna": 8341,
      "tadah": 8342,
      "Ġtext": 8343,
      "robe": 8344,
      "Ġroast": 8345,
      "Ġnighttime": 8346,
      "Ġmatty": 8347,
      "Ġhaircut": 8348,
      "Ġbeak": 8349,
      "eases": 8350,
      "Ġpersonally": 8351,
      "Ġcaused": 8352,
      "Ġsystems": 8353,
      "Ġinvestig": 8354,
      "Ġburning": 8355,
      "Ġavoid": 8356,
      "cross": 8357,
      "lvia": 8358,
      "pushing": 8359,
      "Ġnought": 8360,
      "Ġyells": 8361,
      "Ġhops": 8362,
      "Ġwilling": 8363,
      "Ġdeleg": 8364,
      "Ġcrank": 8365,
      "Ġbearing": 8366,
      "Ġwalkie": 8367,
      "Ġdelay": 8368,
      "conti": 8369,
      "Ġridiculous": 8370,
      "Ġbunnies": 8371,
      "Ġcotton": 8372,
      "Ġentertain": 8373,
      "breathing": 8374,
      "Ġamongst": 8375,
      "cas": 8376,
      "anced": 8377,
      "Ġknight": 8378,
      "Ġsack": 8379,
      "Ġpaws": 8380,
      "Ġwhines": 8381,
      "owl": 8382,
      "Ġlecture": 8383,
      "istration": 8384,
      "Ġshock": 8385,
      "Ġfinishing": 8386,
      "Ġpotter": 8387,
      "without": 8388,
      "Ġhistor": 8389,
      "Ġemergency": 8390,
      "Ġgift": 8391,
      "44": 8392,
      "tp": 8393,
      "Ġlone": 8394,
      "Ġisabelle": 8395,
      "lock": 8396,
      "exclamation": 8397,
      "Ġroot": 8398,
      "ggles": 8399,
      "Ġsorting": 8400,
      "Ġwinds": 8401,
      "snake": 8402,
      "Ġtechnical": 8403,
      "Ġessentially": 8404,
      "Ġconsultation": 8405,
      "Ġprinciple": 8406,
      "during": 8407,
      "ember": 8408,
      "anga": 8409,
      "Ġjoins": 8410,
      "Ġadm": 8411,
      "Ġmustard": 8412,
      "Ġparade": 8413,
      "Ġcolours": 8414,
      "Ġpleasure": 8415,
      "Ġmethod": 8416,
      "cough": 8417,
      "ckey": 8418,
      "eats": 8419,
      "pours": 8420,
      "Ġtheat": 8421,
      "Ġonion": 8422,
      "Ġheav": 8423,
      "toes": 8424,
      "Ġpros": 8425,
      "joa": 8426,
      "Ġturtles": 8427,
      "books": 8428,
      "Ġproposal": 8429,
      "Ġsuspect": 8430,
      "breakfast": 8431,
      "Ġinternational": 8432,
      "bat": 8433,
      "jelly": 8434,
      "Ġsul": 8435,
      "Ġbust": 8436,
      "Ġdam": 8437,
      "Ġkip": 8438,
      "Ġfaint": 8439,
      "definitely": 8440,
      "apan": 8441,
      "Ġbadly": 8442,
      "Ġdime": 8443,
      "âĮī...": 8444,
      "Ġdesper": 8445,
      "showing": 8446,
      "Ġcalm": 8447,
      "Ġshuts": 8448,
      "yard": 8449,
      "Ġtops": 8450,
      "Ġhero": 8451,
      "Ġforbidden": 8452,
      "Ġcliff": 8453,
      "upstairs": 8454,
      "Ġcheque": 8455,
      "derwood": 8456,
      "Ġcontra": 8457,
      "Ġtricks": 8458,
      "Ġdial": 8459,
      "friday": 8460,
      "Ġwheelbarrow": 8461,
      "wipe": 8462,
      "apparently": 8463,
      "Ġpancake": 8464,
      "Ġgeo": 8465,
      "Ġsleeve": 8466,
      "Ġnicola": 8467,
      "johnny": 8468,
      "Ġrhymes": 8469,
      "Ġgabriel": 8470,
      "Ġnearer": 8471,
      "Ġalternative": 8472,
      "steady": 8473,
      "pay": 8474,
      "Ġrebecca": 8475,
      "Ġnod": 8476,
      "Ġargue": 8477,
      "Ġfactors": 8478,
      "Ġscene": 8479,
      "Ġconsist": 8480,
      "Ġsammy": 8481,
      "Ġvari": 8482,
      "Ġcreate": 8483,
      "Ġmeasuring": 8484,
      "Ġcritic": 8485,
      "radio": 8486,
      "Ġsighs": 8487,
      "chip": 8488,
      "Ġmart": 8489,
      "stu": 8490,
      "asks": 8491,
      "Ġhin": 8492,
      "shrie": 8493,
      "Ġfireworks": 8494,
      "stein": 8495,
      "easy": 8496,
      "Ġprime": 8497,
      "Ġcardboard": 8498,
      "Ġwindmill": 8499,
      "Ġdeta": 8500,
      "Ġfilling": 8501,
      "Ġcomplicated": 8502,
      "Ġversion": 8503,
      "ai": 8504,
      "fay": 8505,
      "hn": 8506,
      "Ġtil": 8507,
      "Ġsher": 8508,
      "igan": 8509,
      "arts": 8510,
      "Ġtag": 8511,
      "planes": 8512,
      "Ġjudy": 8513,
      "nips": 8514,
      "Ġmixing": 8515,
      "Ġannual": 8516,
      "recording": 8517,
      "Ġnewspapers": 8518,
      "Ġtitle": 8519,
      "51": 8520,
      "apart": 8521,
      "oi": 8522,
      "Ġtesting": 8523,
      "Ġpork": 8524,
      "rice": 8525,
      "Ġplaster": 8526,
      "wned": 8527,
      "taps": 8528,
      "quarter": 8529,
      "Ġtakin": 8530,
      "Ġrestrict": 8531,
      "lands": 8532,
      "Ġsplashing": 8533,
      "Ġclicking": 8534,
      "amy": 8535,
      "ole": 8536,
      "sus": 8537,
      "Ġsom": 8538,
      "Ġoption": 8539,
      "arms": 8540,
      "Ġinches": 8541,
      "Ġbeet": 8542,
      "aura": 8543,
      "town": 8544,
      "Ġpeop": 8545,
      "moon": 8546,
      "whin": 8547,
      "Ġdrivers": 8548,
      "washing": 8549,
      "Ġnearest": 8550,
      "Ġmortgage": 8551,
      "bill": 8552,
      "sies": 8553,
      "Ġaha": 8554,
      "Ġaero": 8555,
      "Ġment": 8556,
      "Ġgee": 8557,
      "Ġsoccer": 8558,
      "inte": 8559,
      "rence": 8560,
      "Ġpuppies": 8561,
      "Ġeffective": 8562,
      "whether": 8563,
      "Ġcustomers": 8564,
      "Ġdescribe": 8565,
      "Ġsouthern": 8566,
      "Ġplatform": 8567,
      "ran": 8568,
      "yucky": 8569,
      "inician": 8570,
      "Ġlack": 8571,
      "Ġsubs": 8572,
      "caroline": 8573,
      "Ġparked": 8574,
      "Ġpats": 8575,
      "jesus": 8576,
      "Ġcucum": 8577,
      "Ġmembership": 8578,
      "Ġexpecting": 8579,
      "Ġscrews": 8580,
      "hurt": 8581,
      "Ġjessica": 8582,
      "Ġyelling": 8583,
      "Ġchapter": 8584,
      "Ġsophie": 8585,
      "Ġarthur": 8586,
      "ae": 8587,
      "cise": 8588,
      "kinda": 8589,
      "Ġcous": 8590,
      "Ġfab": 8591,
      "nap": 8592,
      "Ġhunt": 8593,
      "question": 8594,
      "ifying": 8595,
      "Ġpeppa": 8596,
      "Ġkeith": 8597,
      "Ġcheerios": 8598,
      "Ġtypical": 8599,
      "Ġincred": 8600,
      "Ġexpert": 8601,
      "fold": 8602,
      "Ġfortnight": 8603,
      "ifornia": 8604,
      "Ġepis": 8605,
      "\",": 8606,
      "dly": 8607,
      "fli": 8608,
      "vet": 8609,
      "chips": 8610,
      "toe": 8611,
      "Ġunions": 8612,
      "comm": 8613,
      "Ġstepped": 8614,
      "iolet": 8615,
      "Ġdirections": 8616,
      "portion": 8617,
      "building": 8618,
      "watching": 8619,
      "Ġdemocr": 8620,
      "Ġwestern": 8621,
      "arriving": 8622,
      "ikes": 8623,
      "swe": 8624,
      "hies": 8625,
      "richard": 8626,
      "imately": 8627,
      "trouble": 8628,
      "Ġbeehive": 8629,
      "Ġclowns": 8630,
      "Ġconsideration": 8631,
      "mmy": 8632,
      "Ġtink": 8633,
      "Ġapron": 8634,
      "Ġgill": 8635,
      "Ġnib": 8636,
      "roars": 8637,
      "Ġmegan": 8638,
      "Ġnoah": 8639,
      "Ġcoins": 8640,
      "Ġvir": 8641,
      "Ġleicester": 8642,
      "penny": 8643,
      "Ġacting": 8644,
      "carrot": 8645,
      "Ġphones": 8646,
      "Ġprotest": 8647,
      "Ġschemes": 8648,
      "observes": 8649,
      "Ġbleeding": 8650,
      "Ġcad": 8651,
      "Ġmessed": 8652,
      "Ġnation": 8653,
      "Ġgobble": 8654,
      "Ġmots": 8655,
      "Ġclatter": 8656,
      "Ġprevent": 8657,
      "Ġcrust": 8658,
      "Ġcupcakes": 8659,
      "sticks": 8660,
      "Ġtights": 8661,
      "Ġnickel": 8662,
      "Ġexplained": 8663,
      "girls": 8664,
      "kg": 8665,
      "Ġslo": 8666,
      "Ġsip": 8667,
      "enced": 8668,
      "Ġnar": 8669,
      "Ġputtin": 8670,
      "Ġsoil": 8671,
      "Ġdollies": 8672,
      "grandad": 8673,
      "Ġseventh": 8674,
      "Ġindividuals": 8675,
      "Ġtreatment": 8676,
      "Ġexecutive": 8677,
      "lunch": 8678,
      "ylo": 8679,
      "Ġtour": 8680,
      "remi": 8681,
      "Ġpon": 8682,
      "Ġarrest": 8683,
      "Ġlewis": 8684,
      "Ġminnie": 8685,
      "Ġbirmingham": 8686,
      "Ġguin": 8687,
      "Ġpercy": 8688,
      "Ġclothing": 8689,
      "Ġpaints": 8690,
      "Ġcovering": 8691,
      "Ġpige": 8692,
      "Ġintroduce": 8693,
      "steps": 8694,
      "Ġidentify": 8695,
      "Ġsmack": 8696,
      "Ġradiator": 8697,
      "Ġsample": 8698,
      "68": 8699,
      "oodle": 8700,
      "Ġbloom": 8701,
      "Ġfail": 8702,
      "posit": 8703,
      "olk": 8704,
      "Ġwhoops": 8705,
      "Ġtortoise": 8706,
      "gordon": 8707,
      "Ġmushrooms": 8708,
      "Ġlifting": 8709,
      "Ġapolog": 8710,
      "nathaniel": 8711,
      "mate": 8712,
      "Ġcit": 8713,
      "Ġmuck": 8714,
      "Ġhavin": 8715,
      "Ġuhuh": 8716,
      "Ġstable": 8717,
      "Ġmae": 8718,
      "Ġark": 8719,
      "Ġwaking": 8720,
      "Ġlads": 8721,
      "Ġsalami": 8722,
      "Ġjeff": 8723,
      "Ġsimultaneous": 8724,
      "Ġsupermarket": 8725,
      "Ġconfident": 8726,
      "snack": 8727,
      "Ġtransfer": 8728,
      "spoken": 8729,
      "Ġretire": 8730,
      "Ġconcentrate": 8731,
      "Ġlegislation": 8732,
      "whinney": 8733,
      "Ġcousins": 8734,
      "Ġwise": 8735,
      "Ġwrench": 8736,
      "ena": 8737,
      "Ġprop": 8738,
      "Ġexchange": 8739,
      "cover": 8740,
      "Ġleague": 8741,
      "Ġfrozen": 8742,
      "Ġderek": 8743,
      "Ġstronger": 8744,
      "Ġintroduced": 8745,
      "dora": 8746,
      "Ġsubstant": 8747,
      "Ġlimited": 8748,
      "ergart": 8749,
      "53": 8750,
      "orn": 8751,
      "Ġbaked": 8752,
      "Ġsolic": 8753,
      "belie": 8754,
      "Ġalter": 8755,
      "seems": 8756,
      "Ġroundabout": 8757,
      "Ġinterests": 8758,
      "Ġquicker": 8759,
      "Ġsurface": 8760,
      "Ġsuperman": 8761,
      "Ġexperi": 8762,
      "wrong": 8763,
      "banging": 8764,
      "Ġbomb": 8765,
      "Ġelder": 8766,
      "Ġrapidly": 8767,
      "Ġrectangle": 8768,
      "Ġireland": 8769,
      "Ġwrest": 8770,
      "Ġfry": 8771,
      "Ġheating": 8772,
      "Ġecho": 8773,
      "Ġplum": 8774,
      "Ġmotions": 8775,
      "Ġkelly": 8776,
      "Ġwaist": 8777,
      "Ġstandards": 8778,
      "Ġchristian": 8779,
      "Ġpersu": 8780,
      "twinkle": 8781,
      "Ġoxfordshire": 8782,
      "Ġimitating": 8783,
      "candy": 8784,
      "eld": 8785,
      "lar": 8786,
      "nal": 8787,
      "Ġaaron": 8788,
      "Ġima": 8789,
      "Ġids": 8790,
      "Ġhidden": 8791,
      "Ġrolan": 8792,
      "Ġexten": 8793,
      "Ġbrushes": 8794,
      "Ġhorns": 8795,
      "Ġtwent": 8796,
      "ursula": 8797,
      "Ġsqueals": 8798,
      "trina": 8799,
      "buy": 8800,
      "Ġbandaid": 8801,
      "ergarten": 8802,
      "fun": 8803,
      "ued": 8804,
      "Ġtweet": 8805,
      "andra": 8806,
      "cting": 8807,
      "ques": 8808,
      "Ġfeelings": 8809,
      "Ġbarri": 8810,
      "Ġbadge": 8811,
      "Ġpressed": 8812,
      "Ġsandy": 8813,
      "Ġgrows": 8814,
      "Ġlanding": 8815,
      "Ġhallway": 8816,
      "animals": 8817,
      "Ġrinse": 8818,
      "fam": 8819,
      "Ġpairs": 8820,
      "Ġcompar": 8821,
      "Ġtrap": 8822,
      "Ġramp": 8823,
      "coln": 8824,
      "Ġjackie": 8825,
      "guy": 8826,
      "Ġdistur": 8827,
      "Ġspeakers": 8828,
      "rogate": 8829,
      "Ġdetect": 8830,
      "Ġfetch": 8831,
      "Ġliverpool": 8832,
      "98": 8833,
      "mite": 8834,
      "inct": 8835,
      "Ġweak": 8836,
      "Ġonions": 8837,
      "rical": 8838,
      "Ġbamb": 8839,
      "Ġvet": 8840,
      "broke": 8841,
      "Ġactive": 8842,
      "Ġwinner": 8843,
      "Ġsnowing": 8844,
      "Ġeffectively": 8845,
      "Ġterrific": 8846,
      "vellous": 8847,
      "Ġcartoons": 8848,
      "Ġweap": 8849,
      "Ġhedgehog": 8850,
      "squeeze": 8851,
      "Ġax": 8852,
      "Ġwicked": 8853,
      "Ġoop": 8854,
      "Ġnil": 8855,
      "Ġnerv": 8856,
      "Ġnarrative": 8857,
      "Ġisabel": 8858,
      "ands": 8859,
      "Ġtipped": 8860,
      "Ġcones": 8861,
      "Ġclerk": 8862,
      "Ġrealise": 8863,
      "Ġaircraft": 8864,
      "Ġimpression": 8865,
      "Ġconscious": 8866,
      "melissa": 8867,
      "Ġexplore": 8868,
      "Ġlords": 8869,
      "Ġlipstick": 8870,
      "sausage": 8871,
      "Ġcomplex": 8872,
      "word": 8873,
      "yelling": 8874,
      "orta": 8875,
      "Ġstem": 8876,
      "Ġmemor": 8877,
      "Ġhumpty": 8878,
      "igley": 8879,
      "ilty": 8880,
      "Ġconsequ": 8881,
      "Ġbabysit": 8882,
      "Ġexcl": 8883,
      "plate": 8884,
      "Ġtwins": 8885,
      "waves": 8886,
      "âĮī,": 8887,
      "udge": 8888,
      "Ġformula": 8889,
      "Ġdirected": 8890,
      "Ġinsist": 8891,
      "Ġrecognized": 8892,
      "Ġoriginally": 8893,
      "Ġcrossing": 8894,
      "cindy": 8895,
      "seventeen": 8896,
      "63": 8897,
      "Ġing": 8898,
      "hales": 8899,
      "Ġsting": 8900,
      "Ġrelevant": 8901,
      "Ġcane": 8902,
      "Ġhhh": 8903,
      "Ġoutta": 8904,
      "Ġtram": 8905,
      "anging": 8906,
      "zzle": 8907,
      "Ġtrained": 8908,
      "Ġswear": 8909,
      "Ġbasement": 8910,
      "Ġpresentation": 8911,
      "Ġkingdom": 8912,
      "Ġorganized": 8913,
      "Ġhippopotamus": 8914,
      "dark": 8915,
      "Ġscribble": 8916,
      "bis": 8917,
      "hiccups": 8918,
      "returns": 8919,
      "Ġbent": 8920,
      "stir": 8921,
      "Ġkna": 8922,
      "ales": 8923,
      "Ġjapan": 8924,
      "Ġcans": 8925,
      "mean": 8926,
      "Ġouter": 8927,
      "Ġshared": 8928,
      "Ġraggedy": 8929,
      "Ġleading": 8930,
      "Ġdaily": 8931,
      "blowing": 8932,
      "Ġartist": 8933,
      "malade": 8934,
      "Ġpuddle": 8935,
      "gfa": 8936,
      "wes": 8937,
      "Ġpred": 8938,
      "Ġheck": 8939,
      "keisha": 8940,
      "Ġanx": 8941,
      "ppery": 8942,
      "dogs": 8943,
      "quigley": 8944,
      "ulk": 8945,
      "Ġelizabeth": 8946,
      "Ġtranscribed": 8947,
      "Ġsitu": 8948,
      "Ġearn": 8949,
      "anyone": 8950,
      "Ġtermin": 8951,
      "Ġmillions": 8952,
      "Ġwhispered": 8953,
      "granddad": 8954,
      "Ġrepeated": 8955,
      "slur": 8956,
      "sleeping": 8957,
      "Ġachie": 8958,
      "Ġoliver": 8959,
      "whistles": 8960,
      "Ġfacilities": 8961,
      "dance": 8962,
      "sma": 8963,
      "Ġdies": 8964,
      "eration": 8965,
      "Ġpha": 8966,
      "Ġcoast": 8967,
      "Ġmole": 8968,
      "Ġdivide": 8969,
      "Ġintegr": 8970,
      "Ġwars": 8971,
      "sunday": 8972,
      "Ġawfully": 8973,
      "Ġgrowth": 8974,
      "Ġpeasant": 8975,
      "Ġbumpy": 8976,
      "drive": 8977,
      "fifi": 8978,
      "Ġphilip": 8979,
      "sweetie": 8980,
      "Ġwashers": 8981,
      "Ġdefence": 8982,
      "gentle": 8983,
      "Ġpeoples": 8984,
      "mandy": 8985,
      "pig": 8986,
      "wet": 8987,
      "Ġast": 8988,
      "Ġbio": 8989,
      "erina": 8990,
      "left": 8991,
      "Ġlily": 8992,
      "alice": 8993,
      "alley": 8994,
      "Ġflight": 8995,
      "Ġrepair": 8996,
      "gnant": 8997,
      "Ġdiscussed": 8998,
      "Ġmoose": 8999,
      "Ġwrapping": 9000,
      "Ġreduction": 9001,
      "Ġwhistles": 9002,
      "watches": 9003,
      "Ġincluded": 9004,
      "Ġembarras": 9005,
      "011": 9006,
      "Ġwast": 9007,
      "Ġdice": 9008,
      "Ġbacks": 9009,
      "thursday": 9010,
      "teeth": 9011,
      "blank": 9012,
      "agre": 9013,
      "Ġfroggie": 9014,
      "Ġimpossible": 9015,
      "Ġstudent": 9016,
      "wra": 9017,
      "Ġol": 9018,
      "ooo": 9019,
      "Ġbehave": 9020,
      "Ġque": 9021,
      "Ġhanded": 9022,
      "grunt": 9023,
      "Ġsquirt": 9024,
      "Ġsnaps": 9025,
      "Ġstarfish": 9026,
      "Ġstores": 9027,
      "bugs": 9028,
      "Ġtoaster": 9029,
      "Ġdealt": 9030,
      "Ġswitched": 9031,
      "Ġphysical": 9032,
      "Ġdivided": 9033,
      "interest": 9034,
      "77": 9035,
      "sally": 9036,
      "uing": 9037,
      "yment": 9038,
      "hions": 9039,
      "Ġdying": 9040,
      "Ġfitting": 9041,
      "Ġinj": 9042,
      "ille": 9043,
      "Ġrook": 9044,
      "unci": 9045,
      "onnaise": 9046,
      "toot": 9047,
      "told": 9048,
      "bernice": 9049,
      "Ġhandy": 9050,
      "pens": 9051,
      "Ġpartner": 9052,
      "Ġmines": 9053,
      "force": 9054,
      "Ġcrime": 9055,
      "Ġlowers": 9056,
      "driving": 9057,
      "claim": 9058,
      "Ġrequest": 9059,
      "Ġprojects": 9060,
      "screaming": 9061,
      "Ġenquiry": 9062,
      "Ġsurvive": 9063,
      "43": 9064,
      "hest": 9065,
      "alal": 9066,
      "Ġrosie": 9067,
      "Ġsharon": 9068,
      "Ġgiraffes": 9069,
      "deep": 9070,
      "Ġcrashing": 9071,
      "Ġdrugs": 9072,
      "laught": 9073,
      "Ġwarning": 9074,
      "comp": 9075,
      "pretending": 9076,
      "Ġhearts": 9077,
      "Ġepisode": 9078,
      "Ġae": 9079,
      "hay": 9080,
      "edn": 9081,
      "Ġreci": 9082,
      "Ġannie": 9083,
      "Ġfru": 9084,
      "ggling": 9085,
      "Ġjolly": 9086,
      "Ġcalifornia": 9087,
      "Ġelections": 9088,
      "cracy": 9089,
      "jumping": 9090,
      "bounce": 9091,
      "vation": 9092,
      "xavier": 9093,
      "Ġtam": 9094,
      "hall": 9095,
      "Ġded": 9096,
      "Ġchose": 9097,
      "Ġheight": 9098,
      "Ġtires": 9099,
      "Ġproportion": 9100,
      "Ġpregnant": 9101,
      "Ġbuff": 9102,
      "Ġmatching": 9103,
      "Ġdaff": 9104,
      "Ġparish": 9105,
      "saying": 9106,
      "prise": 9107,
      "currant": 9108,
      "Ġreduced": 9109,
      "hungry": 9110,
      "birth": 9111,
      "possibly": 9112,
      "Ġkiwi": 9113,
      "Ġchallenge": 9114,
      "Ġkoolaid": 9115,
      "tweet": 9116,
      "von": 9117,
      "Ġpurs": 9118,
      "itive": 9119,
      "arian": 9120,
      "Ġjay": 9121,
      "Ġdidsbury": 9122,
      "locks": 9123,
      "ifically": 9124,
      "Ġcarav": 9125,
      "Ġvase": 9126,
      "Ġclients": 9127,
      "cod": 9128,
      "note": 9129,
      "istics": 9130,
      "Ġminimum": 9131,
      "Ġbarks": 9132,
      "Ġgraph": 9133,
      "ulars": 9134,
      "cape": 9135,
      "Ġtails": 9136,
      "Ġlincoln": 9137,
      "Ġphotographs": 9138,
      "Ġpauses": 9139,
      "Ġcrunchy": 9140,
      "Ġliberal": 9141,
      "Ġitalian": 9142,
      "mid": 9143,
      "past": 9144,
      "Ġmeals": 9145,
      "Ġpreviously": 9146,
      "Ġdecent": 9147,
      "Ġfee": 9148,
      "Ġscient": 9149,
      "ferences": 9150,
      "pted": 9151,
      "Ġmisses": 9152,
      "Ġfigured": 9153,
      "Ġanswered": 9154,
      "Ġbowling": 9155,
      "Ġarrive": 9156,
      "Ġrelatively": 9157,
      "leenex": 9158,
      "Ġkarate": 9159,
      "balloon": 9160,
      "Ġcheeks": 9161,
      "kward": 9162,
      "kangaroo": 9163,
      "Ġsched": 9164,
      "Ġdbottle": 9165,
      "Ġpins": 9166,
      "itation": 9167,
      "exc": 9168,
      "socks": 9169,
      "Ġpaw": 9170,
      "Ġconfl": 9171,
      "spring": 9172,
      "Ġperform": 9173,
      "Ġducklings": 9174,
      "Ġharrogate": 9175,
      "Ġenthus": 9176,
      "Ġdoug": 9177,
      "morgan": 9178,
      "Ġtorn": 9179,
      "macwhinney": 9180,
      "ishment": 9181,
      "Ġheavily": 9182,
      "Ġenthusi": 9183,
      "bby": 9184,
      "bub": 9185,
      "cie": 9186,
      "gah": 9187,
      "jingle": 9188,
      "tip": 9189,
      "ldow": 9190,
      "Ġretired": 9191,
      "Ġdonna": 9192,
      "cels": 9193,
      "Ġloss": 9194,
      "Ġrode": 9195,
      "Ġwakes": 9196,
      "Ġpolar": 9197,
      "Ġobjective": 9198,
      "Ġuntranscribed": 9199,
      "Ġlifted": 9200,
      "Ġpillows": 9201,
      "Ġdisappear": 9202,
      "parents": 9203,
      "Ġyelled": 9204,
      "Ġvocalization": 9205,
      "Ġretrie": 9206,
      "Ġneighbour": 9207,
      "Ġolivia": 9208,
      "Ġlynette": 9209,
      "Ġguarantee": 9210,
      "laughter": 9211,
      "mrose": 9212,
      "smo": 9213,
      "Ġtears": 9214,
      "Ġwins": 9215,
      "Ġdiction": 9216,
      "ado": 9217,
      "being": 9218,
      "ntuu": 9219,
      "Ġchased": 9220,
      "Ġtaped": 9221,
      "Ġjug": 9222,
      "Ġgrandfather": 9223,
      "chers": 9224,
      "Ġslipped": 9225,
      "Ġescap": 9226,
      "Ġdiscussing": 9227,
      "Ġmailman": 9228,
      "jak": 9229,
      "viour": 9230,
      "Ġdisappointed": 9231,
      "sea": 9232,
      "Ġnik": 9233,
      "igail": 9234,
      "Ġhelper": 9235,
      "Ġtrace": 9236,
      "Ġstephen": 9237,
      "katie": 9238,
      "Ġincident": 9239,
      "delicious": 9240,
      "daniel": 9241,
      "window": 9242,
      "dg": 9243,
      "Ġwil": 9244,
      "Ġdut": 9245,
      "Ġms": 9246,
      "argh": 9247,
      "arium": 9248,
      "Ġdiddle": 9249,
      "Ġcock": 9250,
      "turtle": 9251,
      "crimin": 9252,
      "worth": 9253,
      "Ġgentlemen": 9254,
      "Ġcompla": 9255,
      "Ġguinea": 9256,
      "Ġkissed": 9257,
      "soap": 9258,
      "Ġarchi": 9259,
      "Ġsmashed": 9260,
      "Ġdifferenti": 9261,
      ".\"]": 9262,
      "singsong": 9263,
      "ounces": 9264,
      "Ġconversations": 9265,
      "Ġharm": 9266,
      "Ġsentences": 9267,
      "Ġpatterns": 9268,
      "Ġwardrobe": 9269,
      "Ġdiscovered": 9270,
      "camera": 9271,
      "Ġliterally": 9272,
      "participants": 9273,
[...]
