{
  "version": "1.0",
  "truncation": null,
  "padding": null,
  "added_tokens": [
    {
      "id": 0,
      "content": "<UNK>",
      "single_word": false,
      "lstrip": false,
      "rstrip": false,
      "normalized": false,
      "special": true
    },
    {
      "id": 1,
      "content": "<PAD>",
      "single_word": false,
      "lstrip": false,
      "rstrip": false,
      "normalized": false,
      "special": true
    },
    {
      "id": 2,
      "content": "<CLS>",
      "single_word": false,
      "lstrip": false,
      "rstrip": false,
      "normalized": false,
      "special": true
    },
    {
      "id": 3,
      "content": "<SEP>",
      "single_word": false,
      "lstrip": false,
      "rstrip": false,
      "normalized": false,
      "special": true
    },
    {
      "id": 4,
      "content": "<MASK>",
      "single_word": false,
      "lstrip": false,
      "rstrip": false,
      "normalized": false,
      "special": true
    },
    {
      "id": 5,
      "content": "<ZH>",
      "single_word": false,
      "lstrip": false,
      "rstrip": false,
      "normalized": false,
      "special": true
    }
  ],
  "normalizer": {
    "type": "Sequence",
    "normalizers": [
      {
        "type": "NFD"
      },
      {
        "type": "StripAccents"
      }
    ]
  },
  "pre_tokenizer": {
    "type": "ByteLevel",
    "add_prefix_space": false,
    "trim_offsets": true,
    "use_regex": true
  },
  "post_processor": {
    "type": "ByteLevel",
    "add_prefix_space": true,
    "trim_offsets": true,
    "use_regex": true
  },
  "decoder": {
    "type": "ByteLevel",
    "add_prefix_space": true,
    "trim_offsets": true,
    "use_regex": true
  },
  "model": {
    "type": "BPE",
    "dropout": null,
    "unk_token": "<UNK>",
    "continuing_subword_prefix": null,
    "end_of_word_suffix": null,
    "fuse_unk": false,
    "byte_fallback": false,
    "ignore_merges": false,
    "vocab": {
      "<UNK>": 0,
      "<PAD>": 1,
      "<CLS>": 2,
      "<SEP>": 3,
      "<MASK>": 4,
      "<ZH>": 5,
      "'": 6,
      "A": 7,
      "B": 8,
      "C": 9,
      "D": 10,
      "E": 11,
      "F": 12,
      "G": 13,
      "H": 14,
      "I": 15,
      "J": 16,
      "K": 17,
      "L": 18,
      "M": 19,
      "N": 20,
      "O": 21,
      "P": 22,
      "Q": 23,
      "R": 24,
      "S": 25,
      "T": 26,
      "U": 27,
      "V": 28,
      "W": 29,
      "X": 30,
      "Y": 31,
      "Z": 32,
      "¡": 33,
      "¢": 34,
      "£": 35,
      "¤": 36,
      "¥": 37,
      "¦": 38,
      "§": 39,
      "¨": 40,
      "©": 41,
      "ª": 42,
      "«": 43,
      "¬": 44,
      "®": 45,
      "¯": 46,
      "°": 47,
      "±": 48,
      "²": 49,
      "³": 50,
      "´": 51,
      "µ": 52,
      "¶": 53,
      "·": 54,
      "¸": 55,
      "¹": 56,
      "º": 57,
      "»": 58,
      "¼": 59,
      "½": 60,
      "¾": 61,
      "¿": 62,
      "ä": 63,
      "å": 64,
      "æ": 65,
      "ç": 66,
      "è": 67,
      "é": 68,
      "Ġ": 69,
      "Ģ": 70,
      "ģ": 71,
      "Ĥ": 72,
      "ĥ": 73,
      "Ħ": 74,
      "ħ": 75,
      "Ĩ": 76,
      "ĩ": 77,
      "Ī": 78,
      "ī": 79,
      "Ĭ": 80,
      "ĭ": 81,
      "Į": 82,
      "į": 83,
      "İ": 84,
      "ı": 85,
      "Ĳ": 86,
      "ĳ": 87,
      "Ĵ": 88,
      "ĵ": 89,
      "Ķ": 90,
      "ķ": 91,
      "ĸ": 92,
      "Ĺ": 93,
      "ĺ": 94,
      "Ļ": 95,
      "ļ": 96,
      "Ľ": 97,
      "ľ": 98,
      "Ŀ": 99,
      "ŀ": 100,
      "Ł": 101,
      "ł": 102,
      "Ń": 103,
      "ä¸": 104,
      "äº": 105,
      "çļ": 106,
      "çļĦ": 107,
      "ä»": 108,
      "æĪ": 109,
      "ä½": 110,
      "æĪĳ": 111,
      "è¿": 112,
      "Ġå": 113,
      "æĺ": 114,
      "æĺ¯": 115,
      "ä½ł": 116,
      "æľ": 117,
      "ä¹": 118,
      "ä¸Ģ": 119,
      "å¤": 120,
      "äºĨ": 121,
      "ä¸į": 122,
      "åĲ": 123,
      "åı": 124,
      "è¯": 125,
      "å°": 126,
      "è¿Ļ": 127,
      "å®": 128,
      "åĪ": 129,
      "ä¸ª": 130,
      "åľ": 131,
      "æľī": 132,
      "åħ": 133,
      "æĿ": 134,
      "ĠæĪĳ": 135,
      "ä»ĸ": 136,
      "ĥ½": 137,
      "å¥": 138,
      "åĳ": 139,
      "å°±": 140,
      "ç»": 141,
      "äºº": 142,
      "Ġæ": 143,
      "å¾": 144,
      "åķ": 145,
      "ä»¬": 146,
      "åŃ": 147,
      "è¯´": 148,
      "åľ¨": 149,
      "ä¹Ī": 150,
      "æĹ": 151,
      "çĶ": 152,
      "æĿ¥": 153,
      "éĤ": 154,
      "Ġä½ł": 155,
      "ä¼": 156,
      "éĤ£": 157,
      "åķĬ": 158,
      "æī": 159,
      "çľ": 160,
      "åį": 161,
      "åĽ": 162,
      "æĥ": 163,
      "è®": 164,
      "¦ģ": 165,
      "è¦ģ": 166,
      "åİ": 167,
      "å·": 168,
      "æĢ": 169,
      "å¥½": 170,
      "èĢ": 171,
      "éĩ": 172,
      "å¿": 173,
      "è§": 174,
      "èµ": 175,
      "åĬ": 176,
      "æ²": 177,
      "å¹": 178,
      "Ġç": 179,
      "åĩ": 180,
      "åĪ°": 181,
      "ä¸Ĭ": 182,
      "éĥ½": 183,
      "å¸": 184,
      "ä¹Ł": 185,
      "Ħ¿": 186,
      "å¼": 187,
      "éĹ": 188,
      "ä¼ļ": 189,
      "æĹ¶": 190,
      "èĥ½": 191,
      "åŃĲ": 192,
      "ä¸º": 193,
      "å¾Ĺ": 194,
      "å¯": 195,
      "åİ»": 196,
      "åĦ¿": 197,
      "å¤§": 198,
      "èĩ": 199,
      "è·": 200,
      "åĨ": 201,
      "æĬ": 202,
      "è¿ĺ": 203,
      "æ²¡": 204,
      "æĸ": 205,
      "ä»¥": 206,
      "åĳ¢": 207,
      "æł": 208,
      "åĲİ": 209,
      "çİ": 210,
      "ä¸Ģä¸ª": 211,
      "ä»Ģ": 212,
      "ä»Ģä¹Ī": 213,
      "å®¶": 214,
      "çľĭ": 215,
      "å¤©": 216,
      "è¿Ļä¸ª": 217,
      "å¦": 218,
      "è¿ĩ": 219,
      "ä¸ĭ": 220,
      "äºĭ": 221,
      "èĩª": 222,
      "è¡": 223,
      "éĿ": 224,
      "åĴ": 225,
      "éģ": 226,
      "çĿ": 227,
      "åĵ": 228,
      "æĥ³": 229,
      "åº": 230,
      "æĦ": 231,
      "çĽ": 232,
      "æŃ": 233,
      "çĪ": 234,
      "å¤ļ": 235,
      "Ġå°": 236,
      "éĢ": 237,
      "åı¯": 238,
      "å¯¹": 239,
      "çĤ": 240,
      "è°": 241,
      "åĢ": 242,
      "çĶŁ": 243,
      "Ħ¶": 244,
      "åĲĹ": 245,
      "éĩĮ": 246,
      "ç»Ļ": 247,
      "åĩº": 248,
      "Ġè¿Ļ": 249,
      "ĠéĤ£": 250,
      "çĿĢ": 251,
      "Ġä»ĸ": 252,
      "è·Ł": 253,
      "çĤ¹": 254,
      "æķ": 255,
      "åģ": 256,
      "å½": 257,
      "æĪĳä»¬": 258,
      "æĭ": 259,
      "è¾": 260,
      "ç§": 261,
      "æ¯": 262,
      "å¿ĥ": 263,
      "åĲ§": 264,
      "å°ı": 265,
      "çŁ": 266,
      "éģĵ": 267,
      "æł·": 268,
      "å°±æĺ¯": 269,
      "å¹´": 270,
      "åįģ": 271,
      "æ¬": 272,
      "ä¸Ń": 273,
      "ä¿": 274,
      "è´": 275,
      "æŀ": 276,
      "åĴĮ": 277,
      "å·±": 278,
      "æĶ": 279,
      "èĩªå·±": 280,
      "çİ°": 281,
      "åľ°": 282,
      "Ġåı": 283,
      "éĻ": 284,
      "å§": 285,
      "çī": 286,
      "æĥħ": 287,
      "è¯Ŀ": 288,
      "ä¸įæĺ¯": 289,
      "Ġå°±": 290,
      "åĮ": 291,
      "å¾Ī": 292,
      "èĢģ": 293,
      "æİ": 294,
      "çŁ¥": 295,
      "ä¹ĭ": 296,
      "æ°": 297,
      "æ²¡æľī": 298,
      "İä¹Ī": 299,
      "åī": 300,
      "åĢĻ": 301,
      "èµ·": 302,
      "çĻ": 303,
      "æĹ¶åĢĻ": 304,
      "æĮ": 305,
      "äºĮ": 306,
      "è§ī": 307,
      "çľŁ": 308,
      "å¼Ģ": 309,
      "æ³": 310,
      "éĿ¢": 311,
      "ç»ı": 312,
      "å±": 313,
      "åĪ«": 314,
      "åĽŀ": 315,
      "è¡Į": 316,
      "åĳĢ": 317,
      "ä¸ī": 318,
      "è®©": 319,
      "äºĽ": 320,
      "åıĳ": 321,
      "éķ": 322,
      "åģļ": 323,
      "é¢": 324,
      "ä½Ĩ": 325,
      "è½": 326,
      "å®ŀ": 327,
      "æĦı": 328,
      "çŁ¥éģĵ": 329,
      "æĪĲ": 330,
      "æĬĬ": 331,
      "æľĢ": 332,
      "æĢİä¹Ī": 333,
      "æĸ¹": 334,
      "åĸ": 335,
      "åĪĨ": 336,
      "æ´": 337,
      "éĽ": 338,
      "éĹ®": 339,
      "å®ļ": 340,
      "éķ¿": 341,
      "çº": 342,
      "Ġä¸į": 343,
      "çĦ¶": 344,
      "éĴ": 345,
      "åĽ½": 346,
      "åīį": 347,
      "éĺ": 348,
      "éĹ´": 349,
      "å½ĵ": 350,
      "çŃ": 351,
      "ä¸¤": 352,
      "çĲ": 353,
      "èĤ": 354,
      "å¥³": 355,
      "ç®": 356,
      "çĶ¨": 357,
      "Ġä½Ĩ": 358,
      "èĬ": 359,
      "èĢĮ": 360,
      "æµ": 361,
      "åĿ": 362,
      "æĤ": 363,
      "èµ°": 364,
      "ç§į": 365,
      "æŀľ": 366,
      "åŃ¦": 367,
      "å¦Ī": 368,
      "æĺİ": 369,
      "łä¸º": 370,
      "äºİ": 371,
      "æĦŁ": 372,
      "åĲ¬": 373,
      "æĻ": 374,
      "æĽ": 375,
      "è§īå¾Ĺ": 376,
      "çļĦæĹ¶åĢĻ": 377,
      "éļ": 378,
      "ä»Ĭ": 379,
      "Ġå¤": 380,
      "ĠçĦ¶": 381,
      "ĠæĪĳä»¬": 382,
      "èº": 383,
      "æ¸": 384,
      "æīĵ": 385,
      "ä½ľ": 386,
      "åħ¬": 387,
      "è¶": 388,
      "åı¯ä»¥": 389,
      "Ġåħ": 390,
      "åıĭ": 391,
      "ĠçĦ¶åĲİ": 392,
      "åħ³": 393,
      "å¥¹": 394,
      "Ġå¥": 395,
      "è§ģ": 396,
      "ä»İ": 397,
      "æģ": 398,
      "Ġæī": 399,
      "çİ°åľ¨": 400,
      "æīĭ": 401,
      "æ¬¡": 402,
      "çĪ±": 403,
      "ç¬": 404,
      "åĨį": 405,
      "åŃ©": 406,
      "è¢": 407,
      "æľ¬": 408,
      "ä¾": 409,
      "æ±": 410,
      "éĴ±": 411,
      "çĻ¾": 412,
      "ç«": 413,
      "èº«": 414,
      "èģ": 415,
      "åĬ¨": 416,
      "äºĶ": 417,
      "åĲĥ": 418,
      "æīĢ": 419,
      "å¤ª": 420,
      "å©": 421,
      "å¦Ĥ": 422,
      "çļĦäºº": 423,
      "ĠåĽ": 424,
      "éĤ£ä¸ª": 425,
      "åĺ": 426,
      "ä¸»": 427,
      "çĲĨ": 428,
      "Ġæľī": 429,
      "åıª": 430,
      "æľĪ": 431,
      "åĬĽ": 432,
      "è¾¹": 433,
      "é«": 434,
      "Ġæĺ¯": 435,
      "æī¾": 436,
      "æľĭ": 437,
      "é«ĺ": 438,
      "åĲĮ": 439,
      "æľĭåıĭ": 440,
      "Ġä¸Ģ": 441,
      "è¿Ľ": 442,
      "æ¯Ķ": 443,
      "èĦ": 444,
      "çļĦç": 445,
      "å·²": 446,
      "é£": 447,
      "æīį": 448,
      "è¿Ļæł·": 449,
      "å¤´": 450,
      "å¸¸": 451,
      "é¡": 452,
      "è¢«": 453,
      "æ³ķ": 454,
      "ä½łä»¬": 455,
      "ä¿¡": 456,
      "æ´»": 457,
      "éĶ": 458,
      "è¿Ļä¹Ī": 459,
      "æĤ¨": 460,
      "éĩį": 461,
      "¥¿": 462,
      "è°¢": 463,
      "æŃ£": 464,
      "å·¥": 465,
      "çķ": 466,
      "è¯¥": 467,
      "Ġè¿ĺ": 468,
      "Ġåľ": 469,
      "ĥı": 470,
      "ä½łçļĦ": 471,
      "ä»ĸä»¬": 472,
      "Ġåı¯": 473,
      "ç¾": 474,
      "ç³": 475,
      "åħ¨": 476,
      "Ġå¦": 477,
      "ĠåĪ": 478,
      "èĭ": 479,
      "ç½": 480,
      "ä¸ļ": 481,
      "åĽĽ": 482,
      "ĠåĲ": 483,
      "è¥¿": 484,
      "æľº": 485,
      "ä¸ľ": 486,
      "éĥ": 487,
      "Ġåľ¨": 488,
      "ç¦": 489,
      "çĽ´": 490,
      "Ġå°±æĺ¯": 491,
      "åıĪ": 492,
      "çĽ¸": 493,
      "çĶ·": 494,
      "èĢħ": 495,
      "åŃ©åŃĲ": 496,
      "åĸľ": 497,
      "æĸ°": 498,
      "åħĪ": 499,
      "ç»ĵ": 500,
      "æĪĳçļĦ": 501,
      "åºĶ": 502,
      "æ°Ķ": 503,
      "åŁ": 504,
      "æĶ¾": 505,
      "ä½į": 506,
      "Ġä½Ĩæĺ¯": 507,
      "Ġä¹Ł": 508,
      "åĥı": 509,
      "ä»Ĭå¤©": 510,
      "æĹł": 511,
      "é©": 512,
      "çŃī": 513,
      "èĥ": 514,
      "é¢ĺ": 515,
      "çī¹": 516,
      "å¿«": 517,
      "æĹ¥": 518,
      "çĥ": 519,
      "åĵ¥": 520,
      "éľ": 521,
      "ä¸Ģä¸ĭ": 522,
      "äºĭåĦ¿": 523,
      "ç´": 524,
      "ç©": 525,
      "å®Į": 526,
      "å¹²": 527,
      "å¤ĸ": 528,
      "æį": 529,
      "è§£": 530,
      "æ¬¢": 531,
      "æı": 532,
      "çĪ¸": 533,
      "åĵª": 534,
      "æŁ": 535,
      "Ġæ²": 536,
      "æ¶": 537,
      "å£": 538,
      "èĪ": 539,
      "çĶµ": 540,
      "åı¯èĥ½": 541,
      "æİ¥": 542,
      "çĸ": 543,
      "åħ¶": 544,
      "è°ģ": 545,
      "çĹ": 546,
      "å®ī": 547,
      "æĴ": 548,
      "å¸Ī": 549,
      "å·²ç»ı": 550,
      "åħ«": 551,
      "åĩł": 552,
      "ĠæīĢ": 553,
      "çľŁçļĦ": 554,
      "æĽ´": 555,
      "å°ĳ": 556,
      "éĥ½æĺ¯": 557,
      "äº²": 558,
      "ä¹Ŀ": 559,
      "åĳĬ": 560,
      "çĻ½": 561,
      "å©ļ": 562,
      "å¨": 563,
      "ĠèĢĮ": 564,
      "ä¸ĩ": 565,
      "è½¦": 566,
      "é¦": 567,
      "ä½ĵ": 568,
      "ç¤": 569,
      "æĹ¶éĹ´": 570,
      "Ġå¦Ĥ": 571,
      "åı«": 572,
      "éļ¾": 573,
      "è®¤": 574,
      "Ĺ¯": 575,
      "å§Ĳ": 576,
      "çģ": 577,
      "åľº": 578,
      "éĿŀ": 579,
      "éĢļ": 580,
      "åıĹ": 581,
      "åħŃ": 582,
      "çļĦè¯Ŀ": 583,
      "Ġæ²¡": 584,
      "å¸¦": 585,
      "åĲĪ": 586,
      "ç¥": 587,
      "ä¸įèĥ½": 588,
      "ĠåĽłä¸º": 589,
      "èī": 590,
      "Ġå®": 591,
      "çĽ®": 592,
      "ä¸ĥ": 593,
      "ç³»": 594,
      "èĻ": 595,
      "æľŁ": 596,
      "è¡¨": 597,
      "éª": 598,
      "åĺĽ": 599,
      "éħ": 600,
      "çĭ": 601,
      "éĽ¶": 602,
      "è®°": 603,
      "éĥ¨": 604,
      "ĠæīĢä»¥": 605,
      "ä½ı": 606,
      "æ¡": 607,
      "é¥": 608,
      "è¿ĺæĺ¯": 609,
      "å²": 610,
      "å¸Ĥ": 611,
      "Ġè¿Ļä¸ª": 612,
      "Ġå¯": 613,
      "åĪļ": 614,
      "æĢĿ": 615,
      "éĹ®é¢ĺ": 616,
      "æ·": 617,
      "Ġå¦Ĥæŀľ": 618,
      "Ġåĵ": 619,
      "Ġå¤§": 620,
      "åĲį": 621,
      "Ġå°ı": 622,
      "é©¬": 623,
      "äºĭæĥħ": 624,
      "æŃ»": 625,
      "åĬŀ": 626,
      "åĽłä¸º": 627,
      "ä»»": 628,
      "é»": 629,
      "ä¸Ģèµ·": 630,
      "åıĺ": 631,
      "æĿ¥äºĨ": 632,
      "Ġå¥½": 633,
      "èį": 634,
      "åĬł": 635,
      "ç¨": 636,
      "æ®": 637,
      "ç¾İ": 638,
      "åı£": 639,
      "åº¦": 640,
      "åĸľæ¬¢": 641,
      "è®²": 642,
      "æĢ§": 643,
      "æĬ¥": 644,
      "è·¯": 645,
      "ä»¶": 646,
      "éĹ¨": 647,
      "Ġåį": 648,
      "äºĨä¸Ģ": 649,
      "Ġæ¯": 650,
      "ĠæĢ": 651,
      "ç¬¬": 652,
      "Ġå½": 653,
      "è¯·": 654,
      "ç®¡": 655,
      "å¹³": 656,
      "ä¸įä¼ļ": 657,
      "æľĽ": 658,
      "æĻļ": 659,
      "è¯ī": 660,
      "èĲ": 661,
      "æ°´": 662,
      "å¤Ħ": 663,
      "Ġå¯¹": 664,
      "èĬĤ": 665,
      "åĶ": 666,
      "Ġçİ": 667,
      "ä¸ºä»Ģä¹Ī": 668,
      "èĬ±": 669,
      "æ¼": 670,
      "èĩªå·±çļĦ": 671,
      "ç¦»": 672,
      "è·Łä½ł": 673,
      "æ»": 674,
      "å¼ł": 675,
      "åı·": 676,
      "æĢ»": 677,
      "å¤§å®¶": 678,
      "çľ¼": 679,
      "å¤Ł": 680,
      "åĪ°äºĨ": 681,
      "æĪ¿": 682,
      "æıĲ": 683,
      "ç»ĻæĪĳ": 684,
      "å¸®": 685,
      "äº¤": 686,
      "ä½ķ": 687,
      "Ġåħ¶": 688,
      "çł": 689,
      "è¶Ĭ": 690,
      "å®ĥ": 691,
      "æħ": 692,
      "èµĦ": 693,
      "å§ĭ": 694,
      "ç®Ĺ": 695,
      "ä¿Ŀ": 696,
      "éĩĳ": 697,
      "ä¹°": 698,
      "å°Ĩ": 699,
      "ä¸ĢäºĽ": 700,
      "äºĮåįģ": 701,
      "åĴ±": 702,
      "æ¯ı": 703,
      "çĶŁæ´»": 704,
      "Ġå½ĵ": 705,
      "åĨħ": 706,
      "åĨĽ": 707,
      "ä¹ĭåĲİ": 708,
      "å¢": 709,
      "çī©": 710,
      "ä¸ĢçĤ¹": 711,
      "éĤ£ä¹Ī": 712,
      "ä¸ľè¥¿": 713,
      "éĶĻ": 714,
      "ä»ĸçļĦ": 715,
      "æĭ¿": 716,
      "åħ¥": 717,
      "çī¹åĪ«": 718,
      "éľĢ": 719,
      "æĹ©": 720,
      "çļĦæĺ¯": 721,
      "ç»Ļä½ł": 722,
      "æĪĸ": 723,
      "éŁ": 724,
      "è·ŁæĪĳ": 725,
      "åĮ»": 726,
      "ä¸ĸ": 727,
      "ĠåĴ": 728,
      "åĩºæĿ¥": 729,
      "äººçļĦ": 730,
      "å¥½çļĦ": 731,
      "æĶ¶": 732,
      "æĢķ": 733,
      "åı¸": 734,
      "æŃ¤": 735,
      "å·¥ä½ľ": 736,
      "Ġä½łä»¬": 737,
      "è±": 738,
      "ä»¥åĲİ": 739,
      "æ¸ħ": 740,
      "çı": 741,
      "æĪĳå°±": 742,
      "éĵ": 743,
      "å¾Īå¤ļ": 744,
      "è¿ŀ": 745,
      "ä¸¤ä¸ª": 746,
      "ä¹Ĳ": 747,
      "è¿ĻäºĽ": 748,
      "éĩı": 749,
      "æĸĩ": 750,
      "åįĥ": 751,
      "åĳĬè¯ī": 752,
      "æľį": 753,
      "æĴŃ": 754,
      "äº§": 755,
      "ä¸Ģå®ļ": 756,
      "åĲĳ": 757,
      "ä¸įçŁ¥éģĵ": 758,
      "ä¿©": 759,
      "ç¡": 760,
      "Ġåıª": 761,
      "ĠæĹ": 762,
      "åºĶè¯¥": 763,
      "çĪ¶": 764,
      "åı¥": 765,
      "ä¸Ģæł·": 766,
      "æ±Ĥ": 767,
      "ä¸İ": 768,
      "ç²": 769,
      "Ġè¯´": 770,
      "æķ°": 771,
      "Ġè¦ģ": 772,
      "å»": 773,
      "åºķ": 774,
      "åįķ": 775,
      "åĳĺ": 776,
      "èĢĥ": 777,
      "æĲ": 778,
      "ä¹Łæĺ¯": 779,
      "æĮģ": 780,
      "é£İ": 781,
      "æ®µ": 782,
      "çİĭ": 783,
      "èĩ³": 784,
      "å¼Ģå§ĭ": 785,
      "å±±": 786,
      "åķ¥": 787,
      "æµ·": 788,
      "çĹħ": 789,
      "éĿŀå¸¸": 790,
      "çĮ": 791,
      "è¿ĳ": 792,
      "éĻ¢": 793,
      "æĿ¡": 794,
      "è®¡": 795,
      "å£°": 796,
      "åĳ½": 797,
      "æ¯į": 798,
      "çħ": 799,
      "çİ©": 800,
      "ĠæĬ": 801,
      "åİŁ": 802,
      "ç¼": 803,
      "Ġçİ°": 804,
      "ĠåĨ": 805,
      "Ġå¹": 806,
      "å¾Ģ": 807,
      "ä¸ŃåĽ½": 808,
      "éĺŁ": 809,
      "è¿Ļç§į": 810,
      "ä»£": 811,
      "å¼Ł": 812,
      "è£": 813,
      "é¥Ń": 814,
      "åĮĸ": 815,
      "ä¸Ģæ¬¡": 816,
      "ä¸Ķ": 817,
      "ä¸įè¦ģ": 818,
      "åħ³ç³»": 819,
      "å²ģ": 820,
      "æ¢": 821,
      "ĠæĪĳæĺ¯": 822,
      "Ġä»ĸä»¬": 823,
      "åĪ©": 824,
      "æ°ĳ": 825,
      "å¨ĺ": 826,
      "èİ": 827,
      "æģ¯": 828,
      "å¼º": 829,
      "Ġå¾": 830,
      "åĿĹ": 831,
      "æ¥": 832,
      "éĢģ": 833,
      "æĺ¯æĪĳ": 834,
      "æĮº": 835,
      "è¿ĺæľī": 836,
      "è¯´ä½ł": 837,
      "éľĢè¦ģ": 838,
      "è¿ľ": 839,
      "åħī": 840,
      "Ġåħ¶å®ŀ": 841,
      "èµ·æĿ¥": 842,
      "ä¸ºäºĨ": 843,
      "èģĬ": 844,
      "Ġçİ°åľ¨": 845,
      "ĠæĪĳå°±": 846,
      "ä¸įå¥½": 847,
      "åŃĹ": 848,
      "éĢī": 849,
      "ä¹¦": 850,
      "è¾ĥ": 851,
      "åĵģ": 852,
      "Ġå¥¹": 853,
      "ç±": 854,
      "éŁ³": 855,
      "çĪ·": 856,
      "åĬ¡": 857,
      "è°¢è°¢": 858,
      "æĪĺ": 859,
      "è¯ģ": 860,
      "å®¹": 861,
      "è¯´æĪĳ": 862,
      "æĦıæĢĿ": 863,
      "æķĻ": 864,
      "æĳ": 865,
      "è¯Ĩ": 866,
      "æķħ": 867,
      "ä¸ĢçĽ´": 868,
      "Ġå¿": 869,
      "è°ĥ": 870,
      "çª": 871,
      "çķĻ": 872,
      "ĠèĢģ": 873,
      "Ĥ¨": 874,
      "é¦ĸ": 875,
      "çķĮ": 876,
      "åŁİ": 877,
      "åĮº": 878,
      "åıĳçİ°": 879,
      "å¤±": 880,
      "æļ": 881,
      "ä¹Łä¸į": 882,
      "åİ»äºĨ": 883,
      "å¤ĩ": 884,
      "ä¼¤": 885,
      "æĦ¿": 886,
      "åħĥ": 887,
      "åĨ³": 888,
      "Ġè®©": 889,
      "åĩĨ": 890,
      "å½±": 891,
      "åĪ¶": 892,
      "æĭī": 893,
      "æľª": 894,
      "¨Ģ": 895,
      "Ġåķ": 896,
      "åı°": 897,
      "æ³¨": 898,
      "åıį": 899,
      "åķ¦": 900,
      "è¨Ģ": 901,
      "å®³": 902,
      "ĠæĢİä¹Ī": 903,
      "æĺ¯ä¸įæĺ¯": 904,
      "ĮæľĽ": 905,
      "å¤«": 906,
      "çĶ±": 907,
      "åĸĿ": 908,
      "æ¶Ī": 909,
      "ç¬ĳ": 910,
      "çĬ": 911,
      "å¿ħ": 912,
      "è®¸": 913,
      "åĲĦ": 914,
      "çĿ¡": 915,
      "åįĬ": 916,
      "åĹ¯": 917,
      "æ£": 918,
      "ç»Ń": 919,
      "ĠåĹ¯": 920,
      "æķ´": 921,
      "çħ§": 922,
      "Ġçľĭ": 923,
      "ä»½": 924,
      "æµģ": 925,
      "å¼ı": 926,
      "è¾¾": 927,
      "äººå®¶": 928,
      "æĺĵ": 929,
      "æĦŁè§ī": 930,
      "æĿ¥çļĦ": 931,
      "ä¸Ģä¸ªäºº": 932,
      "æĩ": 933,
      "å¥½äºĨ": 934,
      "åįĹ": 935,
      "åĮĹ": 936,
      "æĪĸèĢħ": 937,
      "ä¾¿": 938,
      "èħ": 939,
      "åĪĨä¹ĭ": 940,
      "å»º": 941,
      "åĮħ": 942,
      "ç´§": 943,
      "å¾®": 944,
      "åħ¬åı¸": 945,
      "è½»": 946,
      "ĠæĤ¨": 947,
      "ç¡®": 948,
      "å¤§çļĦ": 949,
      "ç½ĳ": 950,
      "éħĴ": 951,
      "ç¨ĭ": 952,
      "Ġåİ": 953,
      "å¦¹": 954,
      "èĢģå¸Ī": 955,
      "ç©º": 956,
      "èĮ": 957,
      "æĮĩ": 958,
      "åħ¶å®ŀ": 959,
      "çıŃ": 960,
      "è¿ĻåĦ¿": 961,
      "æĶ¹": 962,
      "ĠæľĢ": 963,
      "æ»¡": 964,
      "çļĦä¸Ģ": 965,
      "åĨµ": 966,
      "å¤į": 967,
      "ç¤º": 968,
      "çº¿": 969,
      "éº": 970,
      "æŁ¥": 971,
      "ç¥ŀ": 972,
      "èı": 973,
      "è·ĳ": 974,
      "é¸": 975,
      "Ġåĳ": 976,
      "èĥ½å¤Ł": 977,
      "æľīä¸Ģ": 978,
      "è°Ī": 979,
      "ä»·": 980,
      "å®Ŀ": 981,
      "äºĨåĲĹ": 982,
      "Ń¦": 983,
      "æŃ¥": 984,
      "ĠåĴ±": 985,
      "ĠåĪ«": 986,
      "åĳ¨": 987,
      "å¦Īå¦Ī": 988,
      "æł¼": 989,
      "è¯ķ": 990,
      "æĺİçĻ½": 991,
      "ç«ĭ": 992,
      "åĴ±ä»¬": 993,
      "Ġè¿Ļæĺ¯": 994,
      "ĠåķĬ": 995,
      "éĥ½ä¸į": 996,
      "è¯´çļĦ": 997,
      "é¾": 998,
      "æ¼Ķ": 999,
      "èĭ¦": 1000,
      "æ·±": 1001,
      "æŃĮ": 1002,
      "èģĶ": 1003,
      "Ġæĥ": 1004,
      "èī²": 1005,
      "æĢģ": 1006,
      "Ġä»Ĭå¤©": 1007,
      "åĽŀæĿ¥": 1008,
      "å¯¼": 1009,
      "çĻ¾åĪĨä¹ĭ": 1010,
      "åķĨ": 1011,
      "Ġåĵİ": 1012,
      "Ġä»İ": 1013,
      "èĬĤçĽ®": 1014,
      "Ġå¸": 1015,
      "èĤ¯": 1016,
      "äºĮéĽ¶": 1017,
      "è¿Ĳ": 1018,
      "è±¡": 1019,
      "æĪĳæĺ¯": 1020,
      "ç»Ī": 1021,
      "ä¸įäºĨ": 1022,
      "æ¡Ī": 1023,
      "æĿİ": 1024,
      "è½¬": 1025,
      "ä¹ł": 1026,
      "åľ°æĸ¹": 1027,
      "ĠéĤ£ä½ł": 1028,
      "éĩĮéĿ¢": 1029,
      "å«": 1030,
      "è·Łä»ĸ": 1031,
      "åĿĲ": 1032,
      "çľĭåĪ°": 1033,
      "å¹¶": 1034,
      "èµ¶": 1035,
      "åıĬ": 1036,
      "ç¢": 1037,
      "å¦Ĥæŀľ": 1038,
      "åħ»": 1039,
      "çŃĶ": 1040,
      "è´¹": 1041,
      "èĤ¡": 1042,
      "åĳĥ": 1043,
      "éģĩ": 1044,
      "ä¼ł": 1045,
      "è§Ĥ": 1046,
      "æ¯Ķè¾ĥ": 1047,
      "è®º": 1048,
      "Ġæ²¡æľī": 1049,
      "ĠçĪ": 1050,
      "æīĢæľī": 1051,
      "Ġä¸įæĺ¯": 1052,
      "åĪ»": 1053,
      "çĨ": 1054,
      "éĩįè¦ģ": 1055,
      "çĶµè¯Ŀ": 1056,
      "ä¸īåįģ": 1057,
      "è§Ĩ": 1058,
      "å¾ħ": 1059,
      "åĨĻ": 1060,
      "Ġéĥ½": 1061,
      "çģ«": 1062,
      "ä¸ĵ": 1063,
      "å®¢": 1064,
      "ä¸ĸçķĮ": 1065,
      "ĠéĤ£ä¹Ī": 1066,
      "Ġè¿ĺæľī": 1067,
      "çļĦä¸Ģä¸ª": 1068,
      "ĠæĪĳè§īå¾Ĺ": 1069,
      "Ġåı¯æĺ¯": 1070,
      "æķħäºĭ": 1071,
      "ä¼Ĺ": 1072,
      "ç§ĳ": 1073,
      "éļı": 1074,
      "æħ¢": 1075,
      "å¾·": 1076,
      "çīĩ": 1077,
      "ä¹ħ": 1078,
      "è¿ĻéĩĮ": 1079,
      "ä¹ĭåīį": 1080,
      "åħ±": 1081,
      "éĻª": 1082,
      "æĪĳä»¬çļĦ": 1083,
      "æį®": 1084,
      "åĪ«äºº": 1085,
      "æĿĢ": 1086,
      "å¸ĮæľĽ": 1087,
      "åĤ": 1088,
      "Ġæ¯ı": 1089,
      "é£ŀ": 1090,
      "éĺ¿": 1091,
      "åŁº": 1092,
      "å±ķ": 1093,
      "è®©æĪĳ": 1094,
      "çº¢": 1095,
      "éĨ": 1096,
      "æł¹": 1097,
      "äºĨæĪĳ": 1098,
      "è¿Ļæĺ¯": 1099,
      "ĠæĬĬ": 1100,
      "åĬŁ": 1101,
      "åĽ¢": 1102,
      "åĽł": 1103,
      "æķ¢": 1104,
      "ç»ĵå©ļ": 1105,
      "æŀĹ": 1106,
      "è¦ģæĺ¯": 1107,
      "æĩĤ": 1108,
      "çľĭçľĭ": 1109,
      "æĿ¿": 1110,
      "å®ĺ": 1111,
      "æĺŁ": 1112,
      "å¤ľ": 1113,
      "æĶ¿": 1114,
      "ä¸ĭæĿ¥": 1115,
      "ä¹ī": 1116,
      "Ġå¼": 1117,
      "èĽ": 1118,
      "ä¸ªäºº": 1119,
      "éĢł": 1120,
      "è¿ĩæĿ¥": 1121,
      "å¥½å¥½": 1122,
      "é¢Ĩ": 1123,
      "ç»Ŀ": 1124,
      "çĥŃ": 1125,
      "ĠåĨį": 1126,
      "çĶ·äºº": 1127,
      "æĥħåĨµ": 1128,
      "è¿Ļä¸Ģ": 1129,
      "åľ¨ä¸Ģèµ·": 1130,
      "åĭ": 1131,
      "ç¦ı": 1132,
      "èĤ¯å®ļ": 1133,
      "èĦ¸": 1134,
      "ĠçĽ": 1135,
      "åĢ¼": 1136,
      "è¿İ": 1137,
      "æİī": 1138,
      "ä½¿": 1139,
      "èį¯": 1140,
      "åł": 1141,
      "æ¸¸": 1142,
      "ĠèĢĮä¸Ķ": 1143,
      "å¸ĥ": 1144,
      "Ġæĥ³": 1145,
      "å¥³äºº": 1146,
      "è¯´äºĨ": 1147,
      "å·®": 1148,
      "ç»§": 1149,
      "å½ĵä¸Ń": 1150,
      "å§ĳ": 1151,
      "Ġåĩ": 1152,
      "å¿Ļ": 1153,
      "æĬķ": 1154,
      "è¿Ļæł·çļĦ": 1155,
      "åıĸ": 1156,
      "ĠæĿ¥": 1157,
      "æľīä»Ģä¹Ī": 1158,
      "æĢ¥": 1159,
      "æĻļä¸Ĭ": 1160,
      "åħ´": 1161,
      "è§Ħ": 1162,
      "å¿ĥéĩĮ": 1163,
      "äº®": 1164,
      "åįĸ": 1165,
      "Ġä»Ģä¹Ī": 1166,
      "è®¾": 1167,
      "Ġäºº": 1168,
      "åĪĩ": 1169,
      "è£ħ": 1170,
      "å±Ģ": 1171,
      "åĢĴ": 1172,
      "åª": 1173,
      "å¥¶": 1174,
      "åĩºåİ»": 1175,
      "éĻ¤": 1176,
      "è´Ł": 1177,
      "æľīä¸Ģä¸ª": 1178,
      "ç»Ļä»ĸ": 1179,
      "è¡£": 1180,
      "æĪĳè§īå¾Ĺ": 1181,
      "æĺ¯ä¸Ģ": 1182,
      "æĽ¾": 1183,
      "äº«": 1184,
      "æĭ©": 1185,
      "Ġå¾Ī": 1186,
      "é¼": 1187,
      "é»ĳ": 1188,
      "Ġä½łè¯´": 1189,
      "æĬ¤": 1190,
      "åį´": 1191,
      "åİĨ": 1192,
      "äºĨä½ł": 1193,
      "æĸŃ": 1194,
      "èĲ½": 1195,
      "è´¨": 1196,
      "åŀ": 1197,
      "ĠæŃ": 1198,
      "å¦ĩ": 1199,
      "ç«Ļ": 1200,
      "æķĳ": 1201,
      "æº": 1202,
      "æĶ¯": 1203,
      "çļĦå°ı": 1204,
      "äº¬": 1205,
      "èŃ¦": 1206,
      "å©Ĩ": 1207,
      "æľ¯": 1208,
      "å½ĵæĹ¶": 1209,
      "éĺ³": 1210,
      "åĵĪ": 1211,
      "è¶ħ": 1212,
      "é¡¾": 1213,
      "éĢīæĭ©": 1214,
      "æĭħ": 1215,
      "å¤ļå°ĳ": 1216,
      "æĺ¯ä¸Ģä¸ª": 1217,
      "ä¼ļåĦ¿": 1218,
      "æĺ¯ä»Ģä¹Ī": 1219,
      "æľīçĤ¹": 1220,
      "Ġç¬": 1221,
      "æĪĳæĪĳ": 1222,
      "è´£": 1223,
      "çŀ": 1224,
      "ç²¾": 1225,
      "çĦ¶åĲİ": 1226,
      "çļĦäºĭæĥħ": 1227,
      "æ¥ļ": 1228,
      "è¶³": 1229,
      "Ġå®ĥ": 1230,
      "åı¥è¯Ŀ": 1231,
      "é»Ħ": 1232,
      "éĤ£äºĽ": 1233,
      "èµ°äºĨ": 1234,
      "äº¿": 1235,
      "åĬŀæ³ķ": 1236,
      "äºĨä¸Ģä¸ª": 1237,
      "æģĭ": 1238,
      "è¯´è¯Ŀ": 1239,
      "å¹¸": 1240,
      "å¿Ĺ": 1241,
      "éĿĴ": 1242,
      "å¢ŀ": 1243,
      "åĵªåĦ¿": 1244,
      "è¿ĩåİ»": 1245,
      "ç»Ħ": 1246,
      "å¿µ": 1247,
      "çªģ": 1248,
      "è®®": 1249,
      "å®¶éĩĮ": 1250,
      "ĠæĪĳä¹Ł": 1251,
      "è®©ä½ł": 1252,
      "ä¸įåĪ°": 1253,
      "æİĴ": 1254,
      "ä¸ĬçļĦ": 1255,
      "½çĦ¶": 1256,
      "æĪı": 1257,
      "å¹´çļĦ": 1258,
      "Ġä¸Ģä¸ª": 1259,
      "èĦĳ": 1260,
      "æĸ¹éĿ¢": 1261,
      "æĢİä¹Īæł·": 1262,
      "æ²»": 1263,
      "åģĩ": 1264,
      "æį¢": 1265,
      "ĠæĽ": 1266,
      "æĦ¿æĦı": 1267,
      "éĢĤ": 1268,
      "åĪĽ": 1269,
      "æ¢¦": 1270,
      "é£Ł": 1271,
      "å£«": 1272,
      "éĿĻ": 1273,
      "åħĦ": 1274,
      "ç»§ç»Ń": 1275,
      "ç»ĵæŀľ": 1276,
      "åĵİ": 1277,
      "åĵį": 1278,
      "çº¦": 1279,
      "ç¿": 1280,
      "ä¸įæĥ³": 1281,
      "ä¸įèµ·": 1282,
      "çĲĥ": 1283,
      "çĪ¶æ¯į": 1284,
      "éĨĴ": 1285,
      "Ġåģ": 1286,
      "æĺ¾": 1287,
      "æłĩ": 1288,
      "ĠæĪĳæĥ³": 1289,
      "æĺ¯ä½ł": 1290,
      "å¿ĺ": 1291,
      "è¿½": 1292,
      "çļĦè¿Ļä¸ª": 1293,
      "Ġä½łå°±": 1294,
      "å¹¿": 1295,
      "éĤ£ç§į": 1296,
      "æĢª": 1297,
      "Ġä»¥": 1298,
      "åºĹ": 1299,
      "åıĶ": 1300,
      "äºĨåķĬ": 1301,
      "è®¤è¯Ĩ": 1302,
      "æīĢä»¥": 1303,
      "åĩ»": 1304,
      "ĠåĮ": 1305,
      "åĪĿ": 1306,
      "æ¨": 1307,
      "çĪ¸çĪ¸": 1308,
      "å¥ĩ": 1309,
      "ä¾Ŀ": 1310,
      "çĽ¸ä¿¡": 1311,
      "å°½": 1312,
      "æ¹": 1313,
      "æİ§": 1314,
      "ĠåĪ°": 1315,
      "äºĨåĲ§": 1316,
      "æİ¨": 1317,
      "Ġæ¯Ķ": 1318,
      "Ġå·": 1319,
      "è¯»": 1320,
      "Ġè°ģ": 1321,
      "ä½łå°±": 1322,
      "åĬ©": 1323,
      "Ġç¬¬": 1324,
      "æĦŁæĥħ": 1325,
      "å·ŀ": 1326,
      "åŃĺ": 1327,
      "æł¡": 1328,
      "ç¤¾": 1329,
      "Ġå¤§å®¶": 1330,
      "ç±»": 1331,
      "åĪ°åºķ": 1332,
      "ĠåıĪ": 1333,
      "éĽĨ": 1334,
      "è¯Ń": 1335,
      "æ¦": 1336,
      "ä½İ": 1337,
      "åħĪçĶŁ": 1338,
      "æľĢåĲİ": 1339,
      "éĻħ": 1340,
      "æĪĳä¹Ł": 1341,
      "èĥĮ": 1342,
      "åİĭ": 1343,
      "åįİ": 1344,
      "åĩĨå¤ĩ": 1345,
      "åģľ": 1346,
      "åıªæĺ¯": 1347,
      "è§Ĵ": 1348,
      "æ¸ħæ¥ļ": 1349,
      "Ġä¸ºä»Ģä¹Ī": 1350,
      "ä¸Ģå¤©": 1351,
      "å¯Ĩ": 1352,
      "ç»Ł": 1353,
      "éĻ©": 1354,
      "èĳ": 1355,
      "åĦ¿åŃĲ": 1356,
      "åĻ": 1357,
      "ç¤¼": 1358,
      "åıĳçĶŁ": 1359,
      "æĢĢ": 1360,
      "çļĩ": 1361,
      "éĴŁ": 1362,
      "Ġè°¢è°¢": 1363,
      "ĠæĶ": 1364,
      "èĻ½çĦ¶": 1365,
      "çł´": 1366,
      "éĻĪ": 1367,
      "é¦Ļ": 1368,
      "è®°å¾Ĺ": 1369,
      "éĽ¨": 1370,
      "ç©¶": 1371,
      "éŃ": 1372,
      "èĲ¥": 1373,
      "å½¢": 1374,
      "æł·çļĦ": 1375,
      "çĶ»": 1376,
      "æ¯Ľ": 1377,
      "è®¤ä¸º": 1378,
      "é¾Ļ": 1379,
      "æĬĢ": 1380,
      "ĠåĲİ": 1381,
      "å§ĳå¨ĺ": 1382,
      "å¤ļçļĦ": 1383,
      "è´¢": 1384,
      "ĠæĪĳè¯´": 1385,
      "ĠçŃ": 1386,
      "èº«è¾¹": 1387,
      "ç©¿": 1388,
      "çľŁæĺ¯": 1389,
      "åĽŀå®¶": 1390,
      "Ġæķ": 1391,
      "éªĮ": 1392,
      "éĿł": 1393,
      "ĠéĤ£ä¸ª": 1394,
      "äºī": 1395,
      "çº§": 1396,
      "çĭ¬": 1397,
      "å®¹æĺĵ": 1398,
      "æĿ¥è¯´": 1399,
      "åħ³æ³¨": 1400,
      "ç®Ģ": 1401,
      "Ġä½łçľĭ": 1402,
      "ç«Ł": 1403,
      "åĶ±": 1404,
      "ä»»ä½ķ": 1405,
      "ç»Ĩ": 1406,
      "åĳ³": 1407,
      "æī¿": 1408,
      "ä¹İ": 1409,
      "åĵŃ": 1410,
      "åĳĬè¯īä½ł": 1411,
      "çľģ": 1412,
      "åıĤ": 1413,
      "èĭ±": 1414,
      "ä»¤": 1415,
      "ä¸¥": 1416,
      "ä»ĺ": 1417,
      "èıľ": 1418,
      "ç¬¬ä¸Ģ": 1419,
      "Ġåĳĥ": 1420,
      "åĽŀåİ»": 1421,
      "æĺ¥": 1422,
      "åħĭ": 1423,
      "éĥ½æ²¡æľī": 1424,
      "å°±ä¸į": 1425,
      "ĠåĴ±ä»¬": 1426,
      "³å¦ĩ": 1427,
      "è¸": 1428,
      "äºĨè§£": 1429,
      "åĿı": 1430,
      "çĶļ": 1431,
      "æĿĥ": 1432,
      "ç´¯": 1433,
      "è¡Ģ": 1434,
      "é¡»": 1435,
      "Ġæ¬": 1436,
      "çĸĳ": 1437,
      "Ġæĭ": 1438,
      "æĺ¯åĲ§": 1439,
      "ä¹ĭéĹ´": 1440,
      "å¢ĥ": 1441,
      "æĪ·": 1442,
      "å°±ä¼ļ": 1443,
      "ä»¥ä¸º": 1444,
      "ä¼´": 1445,
      "è¿Ľè¡Į": 1446,
      "åĪļæīį": 1447,
      "ä»ħ": 1448,
      "Ġä½łæĺ¯": 1449,
      "æĥ³è¦ģ": 1450,
      "æ²¹": 1451,
      "éħį": 1452,
      "æľºä¼ļ": 1453,
      "æŀģ": 1454,
      "æĥ³åĪ°": 1455,
      "è·³": 1456,
      "ç±³": 1457,
      "èĻĳ": 1458,
      "éĺ²": 1459,
      "äºĳ": 1460,
      "åĪĻ": 1461,
      "åĩłä¸ª": 1462,
      "èģĮ": 1463,
      "Ġä¸Ĭ": 1464,
      "ĠæĪĳçļĦ": 1465,
      "åĪĴ": 1466,
      "å·´": 1467,
      "è·Łä½łè¯´": 1468,
      "åºŃ": 1469,
      "ä¸įå¯¹": 1470,
      "æĸ¹å¼ı": 1471,
      "Ġåİ»": 1472,
      "ĠåŃ": 1473,
      "æ±Ł": 1474,
      "ĠæĪĳä¸į": 1475,
      "ĠçŃī": 1476,
      "åĺ´": 1477,
      "äºĴ": 1478,
      "å±ħ": 1479,
      "å±ŀ": 1480,
      "æĭį": 1481,
      "åĿļ": 1482,
      "èĹ": 1483,
      "éĢļè¿ĩ": 1484,
      "åª³å¦ĩ": 1485,
      "çĵ": 1486,
      "é¡º": 1487,
      "çĬ¶": 1488,
      "æĬ±": 1489,
      "åħµ": 1490,
      "æĵ": 1491,
      "ªåĬĽ": 1492,
      "ä¼Ļ": 1493,
      "æľīäºº": 1494,
      "å¯Ł": 1495,
      "æĬĵ": 1496,
      "çĥ¦": 1497,
      "åĩºçİ°": 1498,
      "çĶļèĩ³": 1499,
      "å¥½åĥı": 1500,
      "è¾Ī": 1501,
      "ä¼¼": 1502,
      "éĹ¹": 1503,
      "ä¼ģ": 1504,
      "æ¸©": 1505,
      "æĸ¯": 1506,
      "å§Ķ": 1507,
      "çŁ³": 1508,
      "æĪ¿åŃĲ": 1509,
      "ä¸Ģç§į": 1510,
      "ä¸įè¡Į": 1511,
      "æĿĳ": 1512,
      "æĺ¨": 1513,
      "èĤī": 1514,
      "Ġä¸ĭ": 1515,
      "ĠæĪĸèĢħ": 1516,
      "éĽħ": 1517,
      "ç»ĥ": 1518,
      "æĺ¯åľ¨": 1519,
      "æŁĲ": 1520,
      "åĪĨäº«": 1521,
      "ĠåĲĮ": 1522,
      "åĮ»éĻ¢": 1523,
      "éĥ½ä¼ļ": 1524,
      "Ġåĸ": 1525,
      "ä½łå¥½": 1526,
      "åº·": 1527,
      "åģ¥": 1528,
      "é¡¹": 1529,
      "ä»Ĭå¹´": 1530,
      "åħļ": 1531,
      "Ġä¸įè¿ĩ": 1532,
      "æµİ": 1533,
      "äºĮéĽ¶ä¸Ģ": 1534,
      "Ġèĥ½": 1535,
      "ä¾ĭ": 1536,
      "Ġå¹¶": 1537,
      "æīĭæľº": 1538,
      "ĠåĲ¬": 1539,
      "è¯¾": 1540,
      "èĦļ": 1541,
      "éº»": 1542,
      "æŃ¢": 1543,
      "å®¤": 1544,
      "éĵ¶": 1545,
      "æ¨¡": 1546,
      "çİ¯": 1547,
      "çľŁæŃ£": 1548,
      "çģµ": 1549,
      "èĢģåħ¬": 1550,
      "æ¥¼": 1551,
      "å¼Ģå¿ĥ": 1552,
      "Ġè¿ĺæĺ¯": 1553,
      "ä¿®": 1554,
      "èµ¶ç´§": 1555,
      "é±": 1556,
      "æľīæ²¡æľī": 1557,
      "æĸĻ": 1558,
      "åĨ²": 1559,
      "èľ": 1560,
      "Ġæĺ¯ä¸įæĺ¯": 1561,
      "è¯Ħ": 1562,
      "ä¼ĺ": 1563,
      "å¼ķ": 1564,
      "Ġåı¯èĥ½": 1565,
      "é±¼": 1566,
      "èº«ä½ĵ": 1567,
      "èİ·": 1568,
      "ä¹±": 1569,
      "åĨ·": 1570,
      "æĪĳä¸į": 1571,
      "çļ®": 1572,
      "é©¬ä¸Ĭ": 1573,
      "Ġæĸ": 1574,
      "åħ·": 1575,
      "å°±æĺ¯è¯´": 1576,
      "å¤ļäºĨ": 1577,
      "æĪĲä¸º": 1578,
      "åıĮ": 1579,
      "æ¯Ĵ": 1580,
      "æĭ¬": 1581,
      "çĭĹ": 1582,
      "ç´¢": 1583,
      "çłĶ": 1584,
      "é¢Ħ": 1585,
      "Ġåī": 1586,
      "èĩ´": 1587,
      "éĢŁ": 1588,
      "Ġå¿«": 1589,
      "å¸Ĥåľº": 1590,
      "åĵ¦": 1591,
      "é¬": 1592,
      "è´µ": 1593,
      "å¦»": 1594,
      "åĬ¿": 1595,
      "ĠæĦ": 1596,
      "Ġä»ĸè¯´": 1597,
      "Ġä½łæĢİä¹Ī": 1598,
      "æĪĲäºĨ": 1599,
      "ä¸½": 1600,
      "ä¸»æĴŃ": 1601,
      "åıĳå±ķ": 1602,
      "éº¦": 1603,
      "ĠéĤ£æĪĳ": 1604,
      "åĬªåĬĽ": 1605,
      "æ¬¾": 1606,
      "å¯¹æĸ¹": 1607,
      "åŀĭ": 1608,
      "éĹ»": 1609,
      "æĺİå¤©": 1610,
      "é²": 1611,
      "Ġä½łè¦ģ": 1612,
      "ä¸¾": 1613,
      "æŀ¶": 1614,
      "é¬¼": 1615,
      "å¾®ä¿¡": 1616,
      "çĹĽ": 1617,
      "ä½łæĺ¯": 1618,
      "é¸¡": 1619,
      "ä¸īä¸ª": 1620,
      "åĲµ": 1621,
      "åĿĹéĴ±": 1622,
      "ä»¥åīį": 1623,
      "æĪĳè¯´": 1624,
      "ç½®": 1625,
      "æĿ¨": 1626,
      "éĻį": 1627,
      "Ġåıį": 1628,
      "åĲĥé¥Ń": 1629,
      "æ´Ĺ": 1630,
      "éªĹ": 1631,
      "åĽ¾": 1632,
      "å¹¸ç¦ı": 1633,
      "å°Ķ": 1634,
      "çİĩ": 1635,
      "æĢİä¹ĪåĬŀ": 1636,
      "æ²³": 1637,
      "è®©ä»ĸ": 1638,
      "æī¾åĪ°": 1639,
      "è¯¯": 1640,
      "ä¸įåĲĮ": 1641,
      "ç§°": 1642,
      "åĴĭ": 1643,
      "äºĶåįģ": 1644,
      "ä»ĭ": 1645,
      "å¹²ä»Ģä¹Ī": 1646,
      "å¤§åŃ¦": 1647,
      "Ġæİ": 1648,
      "åĽ½å®¶": 1649,
      "èĭı": 1650,
      "çļĦäºĭåĦ¿": 1651,
      "è¿ĩäºĨ": 1652,
      "åĩºäºĨ": 1653,
      "éĢĢ": 1654,
      "åĻ¨": 1655,
      "è¡¨ç¤º": 1656,
      "æ°¸": 1657,
      "ç»ª": 1658,
      "èĤ²": 1659,
      "å¼ĥ": 1660,
      "å½±åĵį": 1661,
      "ä¼ĳ": 1662,
      "èĪ¬": 1663,
      "è¡£æľį": 1664,
      "ĠæĹł": 1665,
      "éĽª": 1666,
      "å§»": 1667,
      "æľªæĿ¥": 1668,
      "æ¯ıå¤©": 1669,
      "æŃ¦": 1670,
      "Ġä½łçļĦ": 1671,
      "ĠåĽŀ": 1672,
      "å¥Ĺ": 1673,
      "é¢ĳ": 1674,
      "ä¸Ģå®ļè¦ģ": 1675,
      "æĭĽ": 1676,
      "å§¨": 1677,
      "ĠçľŁçļĦ": 1678,
      "åºĬ": 1679,
      "ä¸ĢçĻ¾": 1680,
      "å¥³åĦ¿": 1681,
      "çļĦä¸ľè¥¿": 1682,
      "å¡": 1683,
      "Ġè¯·": 1684,
      "åĽ´": 1685,
      "åįĪ": 1686,
      "åĢŁ": 1687,
      "çīĽ": 1688,
      "Ġæ¬¢": 1689,
      "éĩĮè¾¹": 1690,
      "Ġçī": 1691,
      "å¿ħé¡»": 1692,
      "é¹": 1693,
      "åģ·": 1694,
      "çªģçĦ¶": 1695,
      "åľĪ": 1696,
      "ç»ıæµİ": 1697,
      "æĺ¨å¤©": 1698,
      "ç¥¨": 1699,
      "ä½ľä¸º": 1700,
      "Ġå¦Ĥæŀľä½ł": 1701,
      "ä¸ĭåİ»": 1702,
      "æłĳ": 1703,
      "ä¸įå¾Ĺ": 1704,
      "è´§": 1705,
      "Ġè¿Ļæł·": 1706,
      "ç£": 1707,
      "åĨ³å®ļ": 1708,
      "Ġåı¯ä»¥": 1709,
      "æ¦Ĥ": 1710,
      "æ¿": 1711,
      "ä½łè¯´": 1712,
      "åįĩ": 1713,
      "åĳĹ": 1714,
      "ä¸¤ä¸ªäºº": 1715,
      "èĥ¡": 1716,
      "è¡¥": 1717,
      "ç¾¤": 1718,
      "éĵģ": 1719,
      "ĠæĮ": 1720,
      "Ġåº": 1721,
      "åĽĽåįģ": 1722,
      "ç¦»å¼Ģ": 1723,
      "ç»ıå¸¸": 1724,
      "ĠæĪĳè¦ģ": 1725,
      "åºľ": 1726,
      "Ġä½łä¸į": 1727,
      "å½ķ": 1728,
      "Ġä¸įè¦ģ": 1729,
      "åı¦": 1730,
      "å¥³åŃ©": 1731,
      "æĿ¾": 1732,
      "èº«ä¸Ĭ": 1733,
      "çĨŁ": 1734,
      "èĽĭ": 1735,
      "ä¼ļæľī": 1736,
      "ĠåĲİæĿ¥": 1737,
      "åħĦå¼Ł": 1738,
      "ĠåĬ": 1739,
      "å¼Ħ": 1740,
      "çĽ´æİ¥": 1741,
      "åĪĺ": 1742,
      "éĢ¼": 1743,
      "Ġä¸ī": 1744,
      "ĠåĪļ": 1745,
      "Ġæ¬¢è¿İ": 1746,
      "æĪĳæĥ³": 1747,
      "Ġå¦Ī": 1748,
      "åĸĦ": 1749,
      "å§Ĳå§Ĳ": 1750,
      "¾İ": 1751,
      "å®īåħ¨": 1752,
      "Ġåĵª": 1753,
      "å®Ī": 1754,
      "æľĿ": 1755,
      "æ´¾": 1756,
      "èĴ": 1757,
      "Ġå¤ļ": 1758,
      "æľīä¸ª": 1759,
      "çĲĨè§£": 1760,
      "æ¶Īæģ¯": 1761,
      "æĽ¾ç»ı": 1762,
      "åº§": 1763,
      "æ¿Ģ": 1764,
      "çĸĹ": 1765,
      "èĥ½åĬĽ": 1766,
      "Ġå¤©": 1767,
      "éĥ¨åĪĨ": 1768,
      "æ±ī": 1769,
      "åįļ": 1770,
      "ä¼ģä¸ļ": 1771,
      "åĦ¿åķĬ": 1772,
      "æł·åŃĲ": 1773,
      "èįī": 1774,
      "çļĦå¤§": 1775,
      "Ġæīį": 1776,
      "ä¸ĬäºĨ": 1777,
      "æĹ¥åŃĲ": 1778,
      "¤Ĳ": 1779,
      "ĠæĻ": 1780,
      "åį«": 1781,
      "åıªæľī": 1782,
      "å¥³æľĭåıĭ": 1783,
      "ä½łä¸į": 1784,
      "æķĪ": 1785,
      "ä½Ĩæĺ¯": 1786,
      "çĸ«": 1787,
      "èī¯": 1788,
      "å¾ĭ": 1789,
      "ĠåĴĮ": 1790,
      "åłĤ": 1791,
      "åŁİå¸Ĥ": 1792,
      "åľ¨è¿ĻåĦ¿": 1793,
      "çŁŃ": 1794,
      "éĥ½æľī": 1795,
      "Ġå¤ª": 1796,
      "å®ĮäºĨ": 1797,
      "çĽ´æĴŃ": 1798,
      "éĩĮçļĦ": 1799,
      "é¤Ĳ": 1800,
      "è¶ĬæĿ¥": 1801,
      "ç¦»å©ļ": 1802,
      "Ġè¡Į": 1803,
      "çĿĢæĪĳ": 1804,
      "è¶ĬæĿ¥è¶Ĭ": 1805,
      "èĸ": 1806,
      "çĬ¯": 1807,
      "åī§": 1808,
      "å¹´è½»": 1809,
      "åľŁ": 1810,
      "æ½": 1811,
      "çļĦæĹ¶éĹ´": 1812,
      "å¯Į": 1813,
      "å¦Ĥä½ķ": 1814,
      "ĠæĽ´": 1815,
      "éľ²": 1816,
      "éĻĲ": 1817,
      "å®¶åºŃ": 1818,
      "è¿ĩç¨ĭ": 1819,
      "Ġè¿ĻäºĽ": 1820,
      "çļĦäºĭ": 1821,
      "ĠæĪĳçŁ¥éģĵ": 1822,
      "çºª": 1823,
      "çĪ¹": 1824,
      "ä¸´": 1825,
      "ç½ª": 1826,
      "æĹħ": 1827,
      "è¦ģæ±Ĥ": 1828,
      "ç®Ģåįķ": 1829,
      "ç»´": 1830,
      "çĤ¹åĦ¿": 1831,
      "æºĲ": 1832,
      "èŀ": 1833,
      "å°ıæĹ¶": 1834,
      "Ġæ¯Ķå¦Ĥ": 1835,
      "æĥħç»ª": 1836,
      "ä¹Łæ²¡": 1837,
      "å¯¹äºİ": 1838,
      "Ġä½łè¿ĺ": 1839,
      "Ġå½ĵæĹ¶": 1840,
      "ç¬¬äºĮ": 1841,
      "æĺ¯ä¸ª": 1842,
      "Ġåıªè¦ģ": 1843,
      "çĽĳ": 1844,
      "æ¶¨": 1845,
      "ĠæĢ»": 1846,
      "çĪ±çļĦ": 1847,
      "ä½łçľĭ": 1848,
      "æĶ¾å¿ĥ": 1849,
      "èĹı": 1850,
      "ä¸¤å¤©": 1851,
      "åİŁåĽł": 1852,
      "ĠåĶ": 1853,
      "æĻ¯": 1854,
      "æĮī": 1855,
      "Ġå§": 1856,
      "æĥ¯": 1857,
      "åĲ¦": 1858,
      "å¿į": 1859,
      "ç§ģ": 1860,
      "åįģäºĮ": 1861,
      "çļĦåľ°æĸ¹": 1862,
      "å©ļå§»": 1863,
      "æĶ¹åıĺ": 1864,
      "æĲŀ": 1865,
      "Ġå¿ĥ": 1866,
      "çĪ¶äº²": 1867,
      "æĻ®": 1868,
      "æ£Ģ": 1869,
      "Ġåį´": 1870,
      "Ġæį": 1871,
      "è®¨": 1872,
      "æĻº": 1873,
      "åĽ°": 1874,
      "çĸ¼": 1875,
      "éŁ³ä¹Ĳ": 1876,
      "ä½łè¦ģ": 1877,
      "æĭľ": 1878,
      "é»ĺ": 1879,
      "åį¡": 1880,
      "æ¯ķ": 1881,
      "è§£åĨ³": 1882,
      "åľ¨æĪĳ": 1883,
      "Ġä¼ļ": 1884,
      "ä¾Ľ": 1885,
      "Ġåģļ": 1886,
      "èīº": 1887,
      "åŃ¦ä¹ł": 1888,
      "åĲįåŃĹ": 1889,
      "Ġåīį": 1890,
      "éĻ¤äºĨ": 1891,
      "åĲĮåŃ¦": 1892,
      "åıªèĥ½": 1893,
      "è´Ŀ": 1894,
      "èĢĥèĻĳ": 1895,
      "æµª": 1896,
      "çĶ·æľĭåıĭ": 1897,
      "Ġä¸º": 1898,
      "éĶĢ": 1899,
      "æİ¥åıĹ": 1900,
      "è¾ĪåŃĲ": 1901,
      "¢çĦ¶": 1902,
      "å¯¹å¯¹": 1903,
      "Ġæľ¬": 1904,
      "ĠæĦŁ": 1905,
      "æĺ¯æľī": 1906,
      "çļĦéĤ£": 1907,
      "æĭħå¿ĥ": 1908,
      "çļĦéĤ£ä¸ª": 1909,
      "ĠæŃ£": 1910,
      "åĳ¼": 1911,
      "çľĭè§ģ": 1912,
      "é«ĺåħ´": 1913,
      "ĠåİŁ": 1914,
      "æĪĳéĥ½": 1915,
      "ç¤¾ä¼ļ": 1916,
      "Ġè·Ł": 1917,
      "å¾ĹåĪ°": 1918,
      "è·ŁæĪĳè¯´": 1919,
      "çļĦåķĬ": 1920,
      "åı¤": 1921,
      "ĠæĪĳçİ°åľ¨": 1922,
      "åĴĮä½ł": 1923,
      "é©¬æĭī": 1924,
      "å½©": 1925,
      "å®Įåħ¨": 1926,
      "åĽŃ": 1927,
      "æĥĬ": 1928,
      "æĬĬæĪĳ": 1929,
      "éĹ®ä½ł": 1930,
      "èĢģæĿ¿": 1931,
      "çīĮ": 1932,
      "åª³å¦ĩåĦ¿": 1933,
      "èĬ¬": 1934,
      "çļĦå¿ĥ": 1935,
      "Ġä½łçŁ¥éģĵ": 1936,
      "å±Ĥ": 1937,
      "åĤ»": 1938,
      "ä¸įè¿ĩ": 1939,
      "èĪĴ": 1940,
      "èĪŀ": 1941,
      "æī¹": 1942,
      "ä»İæĿ¥": 1943,
      "åħħ": 1944,
      "æł¹æľ¬": 1945,
      "éĥ½åľ¨": 1946,
      "äº¿åħĥ": 1947,
      "èµĽ": 1948,
      "è°ĵ": 1949,
      "æĪĲåĬŁ": 1950,
      "åģļçļĦ": 1951,
      "å£°éŁ³": 1952,
      "éĩĩ": 1953,
      "çĮ«": 1954,
      "åĩı": 1955,
      "æĸ½": 1956,
      "è¿·": 1957,
      "ä½Ļ": 1958,
      "å¤§äºĨ": 1959,
      "è´¥": 1960,
      "çłģ": 1961,
      "çĪ±æĥħ": 1962,
      "èĭ¥": 1963,
      "å¿«ä¹Ĳ": 1964,
      "Ġåħ¨": 1965,
      "çĶŁçļĦ": 1966,
      "ä¹Łæ²¡æľī": 1967,
      "é©¬æĭīéĽħ": 1968,
      "éĩĬ": 1969,
      "æŀª": 1970,
      "å¤ı": 1971,
      "æķ£": 1972,
      "æŃ£åľ¨": 1973,
      "åı²": 1974,
      "ç§Ģ": 1975,
      "æĮĳ": 1976,
      "æĪĳè¦ģ": 1977,
      "åĲ¬åĪ°": 1978,
      "å¤§åĵ¥": 1979,
      "éģĩåĪ°": 1980,
      "ä»ĸå¦Ī": 1981,
      "éģį": 1982,
      "è¿ĺä¸į": 1983,
      "å¯¹æĪĳ": 1984,
      "æīĢæľīçļĦ": 1985,
      "æľ¨": 1986,
      "ç»Īäºİ": 1987,
      "Ġèµ°": 1988,
      "ĠèĻ½çĦ¶": 1989,
      "æĽ¿": 1990,
      "èĵ": 1991,
      "ç»ıåİĨ": 1992,
      "ä½łäºĨ": 1993,
      "ĠçŁ": 1994,
      "ç§¯": 1995,
      "æĹ¥æľ¬": 1996,
      "ä¸ŃçļĦ": 1997,
      "èĮ¶": 1998,
      "æĿ¥çľĭ": 1999,
      "è¾Ľ": 2000,
      "èģĶç³»": 2001,
      "Ġåįģ": 2002,
      "å®¶äºº": 2003,
      "åľ¨éĤ£": 2004,
      "æīĵçĶµè¯Ŀ": 2005,
      "æīįèĥ½": 2006,
      "åĩłå¤©": 2007,
      "åĮĹäº¬": 2008,
      "çļĦéĹ®é¢ĺ": 2009,
      "ä¸ĢåĿĹ": 2010,
      "æ¼Ĥ": 2011,
      "è¿Ļä¹Īå¤ļ": 2012,
      "ç¾İåĽ½": 2013,
      "åį°": 2014,
      "åħ¶ä»ĸ": 2015,
      "æ®µæĹ¶éĹ´": 2016,
      "ä¸Ģå¹´": 2017,
      "åį±": 2018,
      "åįģäºĶ": 2019,
      "ç¼º": 2020,
      "çĶŁæ°Ķ": 2021,
      "è¿ĺæ²¡": 2022,
      "è¹": 2023,
      "æµĭ": 2024,
      "å°±è¯´": 2025,
      "çŃĸ": 2026,
      "éĥ½æ²¡": 2027,
      "æ³¢": 2028,
      "Ġä½Ĩæĺ¯æĪĳ": 2029,
      "æ¸¯": 2030,
      "æĲľ": 2031,
      "è¿ĺè¦ģ": 2032,
      "ç»į": 2033,
      "ä¿¡æģ¯": 2034,
      "Ġå¥³": 2035,
      "ç´ł": 2036,
      "Ġç«": 2037,
      "æĿŁ": 2038,
      "æĺ¯ä¸į": 2039,
      "ç¡®å®ŀ": 2040,
      "æİĮ": 2041,
      "çĶµå½±": 2042,
      "åħį": 2043,
      "ä¸ĢæŃ¥": 2044,
      "çİī": 2045,
      "èĥ½ä¸įèĥ½": 2046,
      "å°±è¦ģ": 2047,
      "èŀį": 2048,
      "Ġç»ĵæŀľ": 2049,
      "Ġä½łè¿Ļ": 2050,
      "éªĤ": 2051,
      "Ġè¿Ļä¹Ī": 2052,
      "åĪļåĪļ": 2053,
      "Ġèĩª": 2054,
      "å±ĭ": 2055,
      "ä¸įä½ı": 2056,
      "èĦ±": 2057,
      "åŃ£": 2058,
      "å¥½åĲĹ": 2059,
      "çľ¼çĿ": 2060,
      "Ġæł": 2061,
      "éĿ¢å¯¹": 2062,
      "ĠçĶļèĩ³": 2063,
      "åĪĨéĴŁ": 2064,
      "å®¶çļĦ": 2065,
      "Ġä½łæĥ³": 2066,
      "æĬĹ": 2067,
      "è¿Ļä»¶": 2068,
      "æ²¡äºĭ": 2069,
      "åĩĢ": 2070,
      "ĠæĪĳåľ¨": 2071,
      "èµµ": 2072,
      "æģĭçĪ±": 2073,
      "çľĭçĿĢ": 2074,
      "çļĦåĲĹ": 2075,
      "èĮĥ": 2076,
      "è¯į": 2077,
      "æĹłæ³ķ": 2078,
      "æĬĬä½ł": 2079,
      "å·¦": 2080,
      "æĬķèµĦ": 2081,
      "é¢Ŀ": 2082,
      "é¡¶": 2083,
      "æŃ£å¸¸": 2084,
      "åĳĬè¯īæĪĳ": 2085,
      "ĠæĪĳè¿Ļ": 2086,
      "ä¹¡": 2087,
      "äºĨä»ĸ": 2088,
      "æŀĦ": 2089,
      "æľĢè¿ĳ": 2090,
      "ä¸¢": 2091,
      "èĪį": 2092,
      "èĢģå©Ĩ": 2093,
      "åĪĢ": 2094,
      "ä½³": 2095,
      "ĠæĶ¾": 2096,
      "åģ¥åº·": 2097,
      "åī¯": 2098,
      "å¼¹": 2099,
      "éĢĥ": 2100,
      "æļĸ": 2101,
      "å°ıå§Ĳ": 2102,
      "æĺ¯åĽłä¸º": 2103,
      "ç¨³": 2104,
      "ĠçĪ¸": 2105,
      "å§ĵ": 2106,
      "å¦ĤæŃ¤": 2107,
      "åĪĨæīĭ": 2108,
      "æĪĳåľ¨": 2109,
      "Ġå±": 2110,
      "ä¸Ŀ": 2111,
      "æĸĹ": 2112,
      "Ġç»Ļ": 2113,
      "Ġæīĵ": 2114,
      "å¯¹ä½ł": 2115,
      "ĠéĤ£å°±": 2116,
      "Ġéļ¾": 2117,
      "è¡Ĺ": 2118,
      "çĽĺ": 2119,
      "å°Ĭ": 2120,
      "åŃĲçļĦ": 2121,
      "ä¹Łæľī": 2122,
      "æĿ¡ä»¶": 2123,
      "ä¸įçĶ¨": 2124,
      "çħ§é¡¾": 2125,
      "æĸ°çļĦ": 2126,
      "å½ĵçĦ¶": 2127,
      "åĲ¸": 2128,
      "åŃ¦æł¡": 2129,
      "åĽŀæĿ¥äºĨ": 2130,
      "å´": 2131,
      "åĵ¥åĵ¥": 2132,
      "å°±åı¯ä»¥": 2133,
      "æ¯įäº²": 2134,
      "Ġç§": 2135,
      "çłĶç©¶": 2136,
      "çľ¼çĿĽ": 2137,
      "æ³¨æĦı": 2138,
      "Ġéĥ½æĺ¯": 2139,
      "Ġå¼Ģ": 2140,
      "çĶŁåĳ½": 2141,
      "è·¯ä¸Ĭ": 2142,
      "èĨ": 2143,
      "Ġä¸Ģå®ļ": 2144,
      "åı¯æĺ¯": 2145,
      "åİ»æī¾": 2146,
      "çļĦå°±æĺ¯": 2147,
      "åĲİæĿ¥": 2148,
      "é¦ĸåħĪ": 2149,
      "ç¿»": 2150,
      "æ²Ļ": 2151,
      "æĥħæĦŁ": 2152,
      "ç«ł": 2153,
      "ĠäºĮ": 2154,
      "è¿Ľåİ»": 2155,
      "çĽĬ": 2156,
      "ç§ĺ": 2157,
      "Ġä¸ºäºĨ": 2158,
      "åĹ": 2159,
      "åŃĻ": 2160,
      "å½Ĵ": 2161,
      "è®Ń": 2162,
      "çĳ": 2163,
      "æ°¸è¿ľ": 2164,
      "åľ¨è¿Ļä¸ª": 2165,
      "æĿ¥æĿ¥": 2166,
      "æĢ»æĺ¯": 2167,
      "è®¡åĪĴ": 2168,
      "çĶ°": 2169,
      "å¼Ĥ": 2170,
      "æľĪäºĮåįģ": 2171,
      "ä»ĭç»į": 2172,
      "å¾Ĺå¾Ī": 2173,
      "èĻļ": 2174,
      "ĠåıįæŃ£": 2175,
      "å¤©å¤©": 2176,
      "åĪ¤": 2177,
      "Ġäºİ": 2178,
      "åı³": 2179,
      "è¶£": 2180,
      "Ġå½ĵçĦ¶": 2181,
      "åĨįè§ģ": 2182,
      "åĸľé©¬æĭīéĽħ": 2183,
      "ĠåħĪ": 2184,
      "å¤§äºº": 2185,
      "åıĺæĪĲ": 2186,
      "æĬĺ": 2187,
      "ĠçĶ¨": 2188,
      "åħ°": 2189,
      "æŃ»äºĨ": 2190,
      "çĿ¡è§ī": 2191,
      "Ġçī¹": 2192,
      "æľīäºĽ": 2193,
      "éŀ": 2194,
      "æĹı": 2195,
      "çļĦæľĭåıĭ": 2196,
      "èĥĸ": 2197,
      "å¸¦çĿĢ": 2198,
      "æĽ´å¤ļ": 2199,
      "æĭ¥": 2200,
      "Ġä¸Ń": 2201,
      "å«Į": 2202,
      "è®¯": 2203,
      "åį³": 2204,
      "è´Ń": 2205,
      "å®«": 2206,
      "Ġåıĳ": 2207,
      "æľįåĬ¡": 2208,
      "æķ´ä¸ª": 2209,
      "ç¢°": 2210,
      "å¼łå¾·": 2211,
      "Ġå°±åĥı": 2212,
      "è§¦": 2213,
      "æģ©": 2214,
      "ĠçľŁ": 2215,
      "å°ģ": 2216,
      "ä¸ĭçļĦ": 2217,
      "ĠåĮħ": 2218,
      "Ġåı«": 2219,
      "åĪ«çļĦ": 2220,
      "äººåĳĺ": 2221,
      "èĥľ": 2222,
      "ĠåºĶ": 2223,
      "é¦Ĩ": 2224,
      "è¯´ä»ĸ": 2225,
      "Ġäººå®¶": 2226,
      "èģĬå¤©": 2227,
      "ä¹łæĥ¯": 2228,
      "Ġè¦ģä¸į": 2229,
      "åĲĦä½į": 2230,
      "ç©ºéĹ´": 2231,
      "é¡¿": 2232,
      "ĠæľĢåĲİ": 2233,
      "å¼łå¾·èĬ¬": 2234,
      "åľ¨è¿Ļ": 2235,
      "ĠçĦ¶åĲİæĪĳ": 2236,
      "æĽ²": 2237,
      "ä¸ĬçıŃ": 2238,
      "ä»Ģä¹Īåĳ¢": 2239,
      "æ¸¸æĪı": 2240,
      "èĢ³": 2241,
      "æĸ°éĹ»": 2242,
      "ç»ľ": 2243,
      "çĺ": 2244,
      "æĶ¯æĮģ": 2245,
      "èµļ": 2246,
      "è¿Ľåħ¥": 2247,
      "åĨľ": 2248,
      "èİ«": 2249,
      "è´£ä»»": 2250,
      "ä½łè¿Ļ": 2251,
      "åĲĽ": 2252,
      "æī§": 2253,
      "åĬ²": 2254,
      "åĭĩ": 2255,
      "æĿ¯": 2256,
      "æĦŁåıĹ": 2257,
      "è¯ļ": 2258,
      "çİ©åĦ¿": 2259,
      "çĥŁ": 2260,
      "çĿĢä½ł": 2261,
      "éģĵçĲĨ": 2262,
      "æĹģ": 2263,
      "è§ģè¿ĩ": 2264,
      "é½": 2265,
      "æİ¢": 2266,
      "æ¼Ĥäº®": 2267,
      "ĠçĻ": 2268,
      "æĪĲéķ¿": 2269,
      "éĺ¿å§¨": 2270,
      "éº»çĥ¦": 2271,
      "èħ¿": 2272,
      "æĥ³æ³ķ": 2273,
      "Ġä¸įç®¡": 2274,
      "è¿Ļä¸ªäºº": 2275,
      "åĮ»çĶŁ": 2276,
      "å¿ĥçļĦ": 2277,
      "ä¿ĿæĬ¤": 2278,
      "Ġå¾Īå¤ļ": 2279,
      "éª¨": 2280,
      "é¼ł": 2281,
      "Ġè¢«": 2282,
      "è¾ĵ": 2283,
      "éĵ¶è¡Į": 2284,
      "åİĤ": 2285,
      "æļ´": 2286,
      "ä½łèĩªå·±": 2287,
      "Ġä½łä¹Ł": 2288,
      "å®£": 2289,
      "æĵį": 2290,
      "å°±æĺ¯æĪĳ": 2291,
      "æĿĲ": 2292,
      "å¸®æĪĳ": 2293,
      "åı¶": 2294,
      "çĸ«æĥħ": 2295,
      "èĦ¾": 2296,
      "ĠæĪĳè¿ĺ": 2297,
      "ç£¨": 2298,
      "åİī": 2299,
      "éĻĨ": 2300,
      "ç»ĩ": 2301,
      "ç½Ĺ": 2302,
      "ä¼ĳæģ¯": 2303,
      "Ġç¥": 2304,
      "å¹²åĲĹ": 2305,
      "ä¸»ä»»": 2306,
      "çļĦåĳĢ": 2307,
      "æĺ¾ç¤º": 2308,
      "çĥ§": 2309,
      "åŃĺåľ¨": 2310,
      "ä»Ģä¹ĪåĳĢ": 2311,
      "å®ģ": 2312,
      "ç¬Ķ": 2313,
      "åĲĮå¿Ĺ": 2314,
      "æĪ´": 2315,
      "å¥¹çļĦ": 2316,
      "å¯¹ä¸įå¯¹": 2317,
      "ç¯": 2318,
      "ĠåĲĥ": 2319,
      "çĮª": 2320,
      "äººæ°ĳ": 2321,
      "éĤ£ä¹Īå¤ļ": 2322,
      "ĠæĪĳæĪĳ": 2323,
      "éĩİ": 2324,
      "å«ģ": 2325,
      "æħ¢æħ¢": 2326,
      "Ġä»¥åĲİ": 2327,
      "åŁºæľ¬": 2328,
      "å¹´äºĨ": 2329,
      "éļĶ": 2330,
      "ä¸Ī": 2331,
      "éģĹ": 2332,
      "ä¸įä¸Ĭ": 2333,
      "æ²ī": 2334,
      "æĿ¥åĪ°": 2335,
      "æĺ¯è°ģ": 2336,
      "åıªè¦ģ": 2337,
      "Ġåĩº": 2338,
      "åĵªéĩĮ": 2339,
      "åĶ®": 2340,
      "ä»ĸå°±": 2341,
      "å¯»": 2342,
      "æģ¶": 2343,
      "è¿Ļæ¬¡": 2344,
      "äºļ": 2345,
      "Ġå°Ĩ": 2346,
      "Ġå·²": 2347,
      "å¼±": 2348,
      "Ġçİĭ": 2349,
      "é¾Ħ": 2350,
      "æĥľ": 2351,
      "Ġåħ³": 2352,
      "åĪ·": 2353,
      "åĨ°": 2354,
      "ä½łä½ł": 2355,
      "Ġæ°": 2356,
      "æľµ": 2357,
      "è¡¨çİ°": 2358,
      "éģ¿": 2359,
      "è¡ĮäºĨ": 2360,
      "åŃ¤": 2361,
      "çĶľ": 2362,
      "ä¸Ģä¼ļåĦ¿": 2363,
      "ĠåĽłä¸ºæĪĳ": 2364,
      "ä»£è¡¨": 2365,
      "éĤ£è¾¹": 2366,
      "åİħ": 2367,
      "ä¸»è¦ģ": 2368,
      "å¥½åķĬ": 2369,
      "ĠæĪĳä¼ļ": 2370,
      "ä¸ªæľĪ": 2371,
      "Ġåĥı": 2372,
      "Ġæŀ": 2373,
      "ĠçĦ¶åĲİåĳ¢": 2374,
      "ĠçĽ´": 2375,
      "æĬ¢": 2376,
      "å¯¹è±¡": 2377,
      "Ġè¿Ļä¸Ģ": 2378,
      "æľīçļĦ": 2379,
      "çĹĩ": 2380,
      "ĠèĢĮæĺ¯": 2381,
      "åįı": 2382,
      "æīĺ": 2383,
      "ĠåĿ": 2384,
      "æĮ£": 2385,
      "å³": 2386,
      "æĦıä¹ī": 2387,
      "Ġåħ¬": 2388,
      "ä¹Łä¼ļ": 2389,
      "éĽ·": 2390,
      "çļĦæķħäºĭ": 2391,
      "åľ°è¯´": 2392,
      "åģļäºĨ": 2393,
      "å¥½ä¸įå¥½": 2394,
      "åĤħ": 2395,
      "Ġèĩªå·±": 2396,
      "Ġä¸ŃåĽ½": 2397,
      "Ġæİ¥": 2398,
      "å¹ħ": 2399,
      "åİĭåĬĽ": 2400,
      "çŃĶåºĶ": 2401,
      "ç»Ŀå¯¹": 2402,
      "å¿ĺäºĨ": 2403,
      "ä¸įå¤ª": 2404,
      "åĸĬ": 2405,
      "å¥¶å¥¶": 2406,
      "ä¸Ĭæµ·": 2407,
      "èģļ": 2408,
      "éĢı": 2409,
      "Ġä¸¤": 2410,
      "åĽŀçŃĶ": 2411,
      "ä»»åĬ¡": 2412,
      "ĠåĽ½": 2413,
      "çīĻ": 2414,
      "åĿļæĮģ": 2415,
      "ĠæĪĳå°±æĺ¯": 2416,
      "æīĢè°ĵ": 2417,
      "ä¸įä¸Ģæł·": 2418,
      "ä½łåľ¨": 2419,
      "Ġå¸ĮæľĽ": 2420,
      "ĠæĪĳçľĭ": 2421,
      "å®ŀåľ¨": 2422,
      "åıĳå¸ĥ": 2423,
      "è®°èĢħ": 2424,
      "ä»Ģä¹ĪæĹ¶åĢĻ": 2425,
      "èĻİ": 2426,
      "å¿Ĩ": 2427,
      "ĠæĿİ": 2428,
      "éĿ¢åīį": 2429,
      "å»ºè®®": 2430,
      "å°Ŀ": 2431,
      "åįł": 2432,
      "ä¸Ģåı¥": 2433,
      "åĳĲ": 2434,
      "æķ°æį®": 2435,
      "ĠåĲĦ": 2436,
      "Ġç¾İ": 2437,
      "å¸Ŀ": 2438,
      "ç»ĵæĿŁ": 2439,
      "Ġæģ": 2440,
      "æģĲ": 2441,
      "ç®¡çĲĨ": 2442,
      "éĹ®æĪĳ": 2443,
      "å¸®åĬ©": 2444,
      "éĿ¢çļĦ": 2445,
      "Ġä»ĸå°±": 2446,
      "æĬĢæľ¯": 2447,
      "æľĪåįģ": 2448,
      "ĠåįĹ": 2449,
      "æ¾": 2450,
      "æĢ¨": 2451,
      "Ġå®¶": 2452,
      "å¸ħ": 2453,
      "éļĲ": 2454,
      "ç¬¬ä¸Ģæ¬¡": 2455,
      "ĠåºĶè¯¥": 2456,
      "å°ıå¿ĥ": 2457,
      "åŃ¦çĶŁ": 2458,
      "ç«¥": 2459,
      "æĬĬä»ĸ": 2460,
      "Ġè¿Ļç§į": 2461,
      "éĶĻäºĨ": 2462,
      "ä½łåķĬ": 2463,
      "Ġæµ": 2464,
      "ä¸Ģå®ļä¼ļ": 2465,
      "æ¤": 2466,
      "å®ĮæĪĲ": 2467,
      "Ġå®ŀ": 2468,
      "è±Ĩ": 2469,
      "Ġè¿ĻéĩĮ": 2470,
      "æĮĤ": 2471,
      "é¢Ĩå¯¼": 2472,
      "ä½łä¹Ł": 2473,
      "åıĤåĬł": 2474,
      "èľľ": 2475,
      "ä¸ĢèĪ¬": 2476,
      "è´¦": 2477,
      "Ġä½łåĪ«": 2478,
      "å¥³åŃ©åŃĲ": 2479,
      "çĨĬ": 2480,
      "ĠåŃ©": 2481,
      "åºĨ": 2482,
      "ç§ĭ": 2483,
      "åħ¨éĥ¨": 2484,
      "èĶ": 2485,
      "ä¸Ģä½į": 2486,
      "åĪº": 2487,
      "ä»ĸä»¬çļĦ": 2488,
      "ä½łæĢİä¹Ī": 2489,
      "ĠæĪĳéĥ½": 2490,
      "Ġåıªæľī": 2491,
      "Ġéķ¿": 2492,
      "è¯´åķĬ": 2493,
      "ä¸įåľ¨": 2494,
      "åİ¿": 2495,
      "è¯´æĺ¯": 2496,
      "å¤ĦçĲĨ": 2497,
      "éĶ®": 2498,
      "è½®": 2499,
      "¡®": 2500,
      "çĿĢæĢ¥": 2501,
      "ä¸įè§ģ": 2502,
      "èĪª": 2503,
      "æļĹ": 2504,
      "æĪĳè¿Ļ": 2505,
      "åĬ³": 2506,
      "ä»ĸæĺ¯": 2507,
      "æĻĵ": 2508,
      "Ġæ±": 2509,
      "Ġä»ĸçļĦ": 2510,
      "çº¸": 2511,
      "åĬĿ": 2512,
      "åĲĦç§į": 2513,
      "è¯´è¿ĩ": 2514,
      "Ġå¼ł": 2515,
      "æľīäºĨ": 2516,
      "ç»¿": 2517,
      "ä¼°": 2518,
      "ĠçĪ±": 2519,
      "æĬ½": 2520,
      "æķĮ": 2521,
      "åĪĹ": 2522,
      "Ġä½łçİ°åľ¨": 2523,
      "æ¹ĸ": 2524,
      "èĪ¹": 2525,
      "èı²": 2526,
      "åģı": 2527,
      "è¡¨è¾¾": 2528,
      "å®³æĢķ": 2529,
      "æķĻèĤ²": 2530,
      "è§£éĩĬ": 2531,
      "æł¸": 2532,
      "ĠçŁ¥": 2533,
      "ä¸įå¤ļ": 2534,
      "æĭ¼": 2535,
      "çľŁçļĦæĺ¯": 2536,
      "ä¸Ģåįĥ": 2537,
      "é¦ĸæŃĮ": 2538,
      "è¡Įä¸º": 2539,
      "æ·¡": 2540,
      "ç«¯": 2541,
      "çŃ¾": 2542,
      "æĪĳåİ»": 2543,
      "åĽŀåĪ°": 2544,
      "Ġç¬¬äºĮ": 2545,
      "å®īæİĴ": 2546,
      "æĸĩåĮĸ": 2547,
      "Ġè¯¥": 2548,
      "ä¼¯": 2549,
      "å±ŀäºİ": 2550,
      "ĠçĽ¸": 2551,
      "å¥ĸ": 2552,
      "å«Ĥ": 2553,
      "æĨ": 2554,
      "è¡ĮåĬ¨": 2555,
      "è¡Įä¸ļ": 2556,
      "çļĦçĶŁæ´»": 2557,
      "éĹŃ": 2558,
      "Ġä¹Łæĺ¯": 2559,
      "éĹº": 2560,
      "è¿ĺèĥ½": 2561,
      "ä½łåİ»": 2562,
      "ä½łçŁ¥éģĵ": 2563,
      "é¼ĵ": 2564,
      "ä¸Ģä»¶": 2565,
      "Ġå¦Īå¦Ī": 2566,
      "ĠåİŁæĿ¥": 2567,
      "åŁŁ": 2568,
      "ĠåĮħæĭ¬": 2569,
      "åħ³äºİ": 2570,
      "æĿĤ": 2571,
      "æĬĬå®ĥ": 2572,
      "Ġè¿ŀ": 2573,
      "åĴĮæĪĳ": 2574,
      "çº³": 2575,
      "ç²ī": 2576,
      "çĮľ": 2577,
      "æ²Ł": 2578,
      "æľīå¤ļ": 2579,
      "åĿĩ": 2580,
      "åħ¬ä¼Ĺ": 2581,
      "ä¸Ĭåİ»": 2582,
      "åĲĪéĢĤ": 2583,
      "èĩªçĦ¶": 2584,
      "Ġåıªæĺ¯": 2585,
      "æĢģåº¦": 2586,
      "åĲĵ": 2587,
      "Ġå¹²": 2588,
      "æĢ§çļĦ": 2589,
      "æĶ¿åºľ": 2590,
      "ä¸įéĶĻ": 2591,
      "æīĵå¼Ģ": 2592,
      "æĬĬè¿Ļä¸ª": 2593,
      "æİ§åĪ¶": 2594,
      "è®¾è®¡": 2595,
      "ä½łæĥ³": 2596,
      "ĠåĽĽ": 2597,
      "åħŃåįģ": 2598,
      "å¢ŀéķ¿": 2599,
      "Ġä»Ĭ": 2600,
      "éĿ©": 2601,
      "Ġæį®": 2602,
      "æĪĳäºĨ": 2603,
      "èĪĴæľį": 2604,
      "å¾ĹäºĨ": 2605,
      "æ¸Ĳ": 2606,
      "è¿ĺåľ¨": 2607,
      "å½¼": 2608,
      "éĺ¶": 2609,
      "åİīå®³": 2610,
      "æ¯Ķå¦Ĥ": 2611,
      "å®¡": 2612,
      "çŃīçŃī": 2613,
      "ä¸»åĬ¨": 2614,
      "åıĺå¾Ĺ": 2615,
      "åķĬæĪĳ": 2616,
      "äººéĥ½": 2617,
      "Ġç®": 2618,
      "å®ŀè¯Ŀ": 2619,
      "å¥³çļĦ": 2620,
      "æĦŁè°¢": 2621,
      "éŀĭ": 2622,
      "æ´ĭ": 2623,
      "è¾Ľèĭ¦": 2624,
      "è®©äºº": 2625,
      "é²ľ": 2626,
      "è¯ģæĺİ": 2627,
      "ç§Ł": 2628,
      "çķ¥": 2629,
      "æŁĵ": 2630,
      "è°ĥæŁ¥": 2631,
      "Ġæ¯ıå¤©": 2632,
      "éķĩ": 2633,
      "ä¼¤å®³": 2634,
      "éĹ®ä»ĸ": 2635,
      "å¹²åĺĽ": 2636,
      "åĶĲ": 2637,
      "è´Łè´£": 2638,
      "æįŁ": 2639,
      "çİ¯å¢ĥ": 2640,
      "å¹´åīį": 2641,
      "åįĥä¸ĩ": 2642,
      "Ġå¯¹äºİ": 2643,
      "æĤ£": 2644,
      "ĠæĹ©": 2645,
      "Ġåĸľ": 2646,
      "æĴŃæĬ¥": 2647,
      "ä¾ĿçĦ¶": 2648,
      "åŃĲéĩĮ": 2649,
      "ĠæŃ¤": 2650,
      "ç»ıè¿ĩ": 2651,
      "æĿ¥èĩª": 2652,
      "äºı": 2653,
      "çĪĨ": 2654,
      "æīįæĺ¯": 2655,
      "ä¸ĬéĿ¢": 2656,
      "å°±åľ¨": 2657,
      "å¿ĥçĲĨ": 2658,
      "ä¸Ģçľĭ": 2659,
      "Ġæī¾": 2660,
      "è½¯": 2661,
      "æĽ´å¤ļçļĦ": 2662,
      "Ġçº": 2663,
      "æĻ¨": 2664,
      "å¯¹åĲ§": 2665,
      "ĠåŃ©åŃĲ": 2666,
      "éĴĪ": 2667,
      "è¢ĭ": 2668,
      "Ġä¹Łè®¸": 2669,
      "ĠæĻļ": 2670,
      "æ´ŀ": 2671,
      "è¾ĳ": 2672,
      "éĺµ": 2673,
      "ä¸ĵä¸ļ": 2674,
      "è¯º": 2675,
      "è¯´åĳ¢": 2676,
      "å¯¹ä»ĸ": 2677,
      "éķľ": 2678,
      "å¨ģ": 2679,
      "æ··": 2680,
      "æ¡Į": 2681,
      "åĩºæĿ¥äºĨ": 2682,
      "æĶ»": 2683,
      "ĠåĢ": 2684,
      "ç»©": 2685,
      "ä¸ĭäºĨ": 2686,
      "å¸®ä½ł": 2687,
      "å¦¹å¦¹": 2688,
      "éŃĶ": 2689,
      "åĢº": 2690,
      "æ¬¢è¿İ": 2691,
      "èĩ£": 2692,
      "æľīä¸Ģå¤©": 2693,
      "å¤®": 2694,
      "æĸ¹æ³ķ": 2695,
      "åĮħæĭ¬": 2696,
      "åĨĴ": 2697,
      "èĩªæĪĳ": 2698,
      "åķĬä½ł": 2699,
      "ä¸įç®¡": 2700,
      "è´´": 2701,
      "ä»·åĢ¼": 2702,
      "é¡¹çĽ®": 2703,
      "Ġæĸ°": 2704,
      "Ġé«ĺ": 2705,
      "Ġäºİæĺ¯": 2706,
      "è®¿": 2707,
      "æ¬§": 2708,
      "çĥĪ": 2709,
      "ä¸įåı¯": 2710,
      "ä¸ĬæĿ¥": 2711,
      "çļĦå¥½": 2712,
      "æĶ¾å¼ĥ": 2713,
      "ä»į": 2714,
      "æ³ª": 2715,
      "Ġå·²ç»ı": 2716,
      "äº¡": 2717,
      "Ġå°±ç®Ĺ": 2718,
      "ä¸ĢåĪĩ": 2719,
      "éŁ©": 2720,
      "è§Ĥä¼Ĺ": 2721,
      "æģ¨": 2722,
      "åĪ¸": 2723,
      "å¾Īå¥½": 2724,
      "äºĨä¸ª": 2725,
      "ç»Ħç»ĩ": 2726,
      "æĮ¥": 2727,
      "åĲĪä½ľ": 2728,
      "åľ¨ä½ł": 2729,
      "ä½įç½®": 2730,
      "çļĦæĪĳ": 2731,
      "çļĦçĹ": 2732,
      "çļĦä¸ĢäºĽ": 2733,
      "åĲĮæĹ¶": 2734,
      "éĢĴ": 2735,
      "å¹³åı°": 2736,
      "èº²": 2737,
      "èº«ä»½": 2738,
      "è¯Ĭ": 2739,
      "ä¸ĢæĿ¡": 2740,
      "çıį": 2741,
      "è§Ĩé¢ĳ": 2742,
      "éĩįè¦ģçļĦ": 2743,
      "äºĭåķĬ": 2744,
      "é¢ľ": 2745,
      "èģª": 2746,
      "åĩŃ": 2747,
      "éĩįæĸ°": 2748,
      "æ¬º": 2749,
      "çĽ¸åħ³": 2750,
      "èį£": 2751,
      "ĠæĹ¶": 2752,
      "æĹ¦": 2753,
      "çİ°åľº": 2754,
      "æĪ¿éĹ´": 2755,
      "èĤļ": 2756,
      "èħ¾": 2757,
      "Ġéļ¾éģĵ": 2758,
      "æľĭåıĭä»¬": 2759,
      "çģ¯": 2760,
      "åħĶ": 2761,
      "éĤ£å¤©": 2762,
      "å¥½å¤ļ": 2763,
      "æĺ¯åĲĹ": 2764,
      "æĿ°": 2765,
      "æŀĲ": 2766,
      "Ġæ¸": 2767,
      "å¤ªå¤ª": 2768,
      "Ġæľīä»Ģä¹Ī": 2769,
      "æĤ¨çļĦ": 2770,
      "çĽĸ": 2771,
      "äººçĶŁ": 2772,
      "Ġä½łåı¯ä»¥": 2773,
      "è´·": 2774,
      "ĠæĹ¢çĦ¶": 2775,
      "æĪª": 2776,
      "äº§åĵģ": 2777,
      "æİĪ": 2778,
      "çĶ·çļĦ": 2779,
      "çĩ": 2780,
      "å¸ģ": 2781,
      "éĺħ": 2782,
      "å°±èĥ½": 2783,
      "ä¸ŃåĮ»": 2784,
      "å¾Īéļ¾": 2785,
      "æľīå¾Īå¤ļ": 2786,
      "åĨ¬": 2787,
      "çĻ»": 2788,
      "é½Ĳ": 2789,
      "æĪĳçİ°åľ¨": 2790,
      "ä¿ĿæĮģ": 2791,
      "åĲ¹": 2792,
      "å·§": 2793,
      "éĺŁéķ¿": 2794,
      "çĬ¶æĢģ": 2795,
      "Ġéļı": 2796,
      "æ³¡": 2797,
      "æ´»åĬ¨": 2798,
      "æ¶Īè´¹": 2799,
      "Ġæľīäºº": 2800,
      "éĥ½è¦ģ": 2801,
      "äºĶçĻ¾": 2802,
      "åħ«åįģ": 2803,
      "ä¹Ŀå¹´": 2804,
      "å±ģ": 2805,
      "çļĦæĥħåĨµ": 2806,
      "ĠçĦ¶åĲİä»ĸ": 2807,
      "æĹ§": 2808,
      "è¾Ĩ": 2809,
      "æĹ©ä¸Ĭ": 2810,
      "æľĢå¥½çļĦ": 2811,
      "éĺ´": 2812,
      "ç¡®å®ļ": 2813,
      "Ġéĺ¿": 2814,
      "çĤ¸": 2815,
      "åŃ¦ä¼ļ": 2816,
      "è¯´ä»Ģä¹Ī": 2817,
      "èĵĿ": 2818,
      "èĦ¾æ°Ķ": 2819,
      "æĲŃ": 2820,
      "æ¬ł": 2821,
      "ä¸Ģåı¥è¯Ŀ": 2822,
      "èļ": 2823,
      "çĶµè§Ĩ": 2824,
      "Ġçī¹åĪ«": 2825,
      "åĲĮæĦı": 2826,
      "åľĨ": 2827,
      "çĶŁæĦı": 2828,
      "çĦ": 2829,
      "å¸Ń": 2830,
      "åī©": 2831,
      "å¹³æĹ¶": 2832,
      "æĳĨ": 2833,
      "Ġä¸įçŁ¥éģĵ": 2834,
      "ĠåŃ¦": 2835,
      "å±Ī": 2836,
      "è¿ĺæ²¡æľī": 2837,
      "åİ»åģļ": 2838,
      "Ġä¸įèĥ½": 2839,
      "ä¸įçĿĢ": 2840,
      "å·¨": 2841,
      "ä»ĺåĩº": 2842,
      "èĢĮä¸Ķ": 2843,
      "åĨħå®¹": 2844,
      "è·Į": 2845,
      "ä»Ļ": 2846,
      "æķ¬": 2847,
      "ä½Ľ": 2848,
      "ä¸ĥçĤ¹": 2849,
      "Ġåį³": 2850,
      "çļĦä½ł": 2851,
      "å°±åĥı": 2852,
      "ä¸īçĻ¾": 2853,
      "çĤİ": 2854,
      "ç»ĻæĪĳä»¬": 2855,
      "èĤº": 2856,
      "ç²¾ç¥ŀ": 2857,
      "Ġåĵ¦": 2858,
      "æĪĳèĩªå·±": 2859,
      "éĹ²": 2860,
      "å®ŀçİ°": 2861,
      "æī°": 2862,
      "æĳ¸": 2863,
      "æĭĴ": 2864,
      "èĤ¥": 2865,
      "åİĨåı²": 2866,
      "éĻªä¼´": 2867,
      "ä¸īå¹´": 2868,
      "æ¯ķä¸ļ": 2869,
      "éĥĳ": 2870,
      "å¾ģ": 2871,
      "ä¸ĥåįģ": 2872,
      "éĤ£åĦ¿": 2873,
      "å¤ĸéĿ¢": 2874,
      "è¶ħè¿ĩ": 2875,
      "ä¸¥éĩį": 2876,
      "Ġåħ¶ä¸Ń": 2877,
      "Ġä½łè§īå¾Ĺ": 2878,
      "æĭĸ": 2879,
      "ä¹Ŀåįģ": 2880,
      "æĹ©å°±": 2881,
      "ç¡¬": 2882,
      "ä¸įåİ»": 2883,
      "Ġåı¦": 2884,
      "åĨħå¿ĥ": 2885,
      "å°ĨåĨĽ": 2886,
      "ä¸įæķ¢": 2887,
      "çĽ®æłĩ": 2888,
      "ä»¥åıĬ": 2889,
      "è°ĭ": 2890,
      "åıĺåĮĸ": 2891,
      "åĲĥçļĦ": 2892,
      "Ġæł¹": 2893,
      "æĢİä¹ĪäºĨ": 2894,
      "æĮºå¥½çļĦ": 2895,
      "é¸Ł": 2896,
      "çİ°å®ŀ": 2897,
      "æ£Ĵ": 2898,
      "è¿Ļè¾¹": 2899,
      "å¯¹ä¸įèµ·": 2900,
      "Ġä¸İ": 2901,
      "å®Ĺ": 2902,
      "è¿ĽæĿ¥": 2903,
      "Ġä½łä¼ļ": 2904,
      "æī¾æĪĳ": 2905,
      "è®©æĪĳä»¬": 2906,
      "æĤĶ": 2907,
      "å»¶": 2908,
      "æ´²": 2909,
      "æĶ¾åľ¨": 2910,
      "å¹¶ä¸į": 2911,
      "æĢĢçĸĳ": 2912,
      "æľĪä»½": 2913,
      "æĪĳè¿ĺ": 2914,
      "è¯Ĺ": 2915,
      "çĪ·çĪ·": 2916,
      "åķ¥åĳĢ": 2917,
      "åħ¨åĽ½": 2918,
      "æŃī": 2919,
      "æĽ´åĬł": 2920,
      "åħ¬ä¸»": 2921,
      "æŁĶ": 2922,
      "èĳ£": 2923,
      "åĵªä¸ª": 2924,
      "åĶ¯": 2925,
      "æĲ¬": 2926,
      "çºł": 2927,
      "åı«åģļ": 2928,
      "èµ¢": 2929,
      "æĦıæĢĿåķĬ": 2930,
      "æĳĩ": 2931,
      "å³°": 2932,
      "ä½łè¿ĺ": 2933,
      "ç®±": 2934,
      "åĬĽéĩı": 2935,
      "è¿ĩå¾Ĺ": 2936,
      "åľ¨è¿ĻéĩĮ": 2937,
      "Ġä¸ĩ": 2938,
      "æĢİ": 2939,
      "è·Ŀ": 2940,
      "æı¡": 2941,
      "åĩºæĿ¥çļĦ": 2942,
      "çļĩä¸Ĭ": 2943,
      "å¼Łå¼Ł": 2944,
      "Ġæ´": 2945,
      "éĻħä¸Ĭ": 2946,
      "è¥¿å®ī": 2947,
      "èī²çļĦ": 2948,
      "åĪ°çİ°åľ¨": 2949,
      "è§ģéĿ¢": 2950,
      "ä¹ĭåĲİåĳ¢": 2951,
      "æĥ³æĥ³": 2952,
      "ç½ĳç»ľ": 2953,
      "ä¸ģ": 2954,
      "ä½ıäºĨ": 2955,
      "ä¸įæĩĤ": 2956,
      "çļĦç²": 2957,
      "éĽĦ": 2958,
      "ä¸Īå¤«": 2959,
      "ä¿Ŀè¯ģ": 2960,
      "æĤ²": 2961,
      "è®¢": 2962,
      "é¥¿": 2963,
      "Ġä»ĸæĺ¯": 2964,
      "éĥ½èĥ½": 2965,
      "å¼ĢäºĨ": 2966,
      "çķĻè¨Ģ": 2967,
      "Ġè¿Ļå°±æĺ¯": 2968,
      "åĪ«äººçļĦ": 2969,
      "çľŁæŃ£çļĦ": 2970,
      "èµŀ": 2971,
      "äºĭåĦ¿åķĬ": 2972,
      "ä¸įæĸŃ": 2973,
      "åĺī": 2974,
      "åĲ´": 2975,
      "ĠçŁ¥éģĵ": 2976,
      "ä»ĩ": 2977,
      "æľ¬æĿ¥": 2978,
      "æħ§": 2979,
      "ä»·æł¼": 2980,
      "æĲľç´¢": 2981,
      "å¿ħè¦ģ": 2982,
      "çĵľ": 2983,
      "å¹´é¾Ħ": 2984,
      "Ġæĺİ": 2985,
      "ä¸Ģæ®µ": 2986,
      "æľĢå¤§çļĦ": 2987,
      "éĻĦ": 2988,
      "çŁ¥éģĵäºĨ": 2989,
      "èŃ¦å¯Ł": 2990,
      "å¥½çľĭ": 2991,
      "Ġæĺ¨å¤©": 2992,
      "åģļä»Ģä¹Ī": 2993,
      "æ¢¦æĥ³": 2994,
      "åĽĽä¸ª": 2995,
      "åĲĮäºĭ": 2996,
      "è¿ĲåĬ¨": 2997,
      "ĠåĶī": 2998,
      "Ġä»Ĭå¹´": 2999,
      "é¢Ĺ": 3000,
      "è¿ĩçļĦ": 3001,
      "çº¯": 3002,
      "Ġæ³": 3003,
      "ä½łçİ°åľ¨": 3004,
      "ĠéĤ£æĪĳä»¬": 3005,
      "ç³Ĭ": 3006,
      "æĸ¹åĲĳ": 3007,
      "æ¼«": 3008,
      "åĢ¼å¾Ĺ": 3009,
      "äº¤æµģ": 3010,
      "ĠäºĶ": 3011,
      "è½¨": 3012,
      "åĬ¨çī©": 3013,
      "ä¸įå¤Ł": 3014,
      "æķı": 3015,
      "åģļåĪ°": 3016,
      "Ġä½łå¥½": 3017,
      "çĵ¶": 3018,
      "Ġåĳ¨": 3019,
      "ĠåĬł": 3020,
      "åĲ¯": 3021,
      "ĠæĹłè®º": 3022,
      "éĻ·": 3023,
      "çĭ¼": 3024,
      "ä¸°": 3025,
      "ç³ĸ": 3026,
      "ä¸īçĤ¹": 3027,
      "Ġçĭ": 3028,
      "æĺ¯æĢİä¹Ī": 3029,
      "Ġä¸ĢçĽ´": 3030,
      "å°¾": 3031,
      "ĠçĦ¶åĲİå°±": 3032,
      "è¿Ŀ": 3033,
      "è¿Ł": 3034,
      "éĶħ": 3035,
      "å¦Ļ": 3036,
      "åħ«å¹´": 3037,
      "Ġæĭ¿": 3038,
      "ä¸ĢçĽ´åľ¨": 3039,
      "è¾ŀ": 3040,
      "æľ«": 3041,
      "çĽ®åīį": 3042,
      "è¿¹": 3043,
      "æ±½": 3044,
      "ç§»": 3045,
      "ä¸įå®¹æĺĵ": 3046,
      "çļĦè¿Ļ": 3047,
      "ĠçĽ®": 3048,
      "æ¡£": 3049,
      "Ġæĺİå¤©": 3050,
      "æ±¤": 3051,
      "èµĦéĩĳ": 3052,
      "å¯Ĵ": 3053,
      "Ġæ¯ķ": 3054,
      "çļĦäººçĶŁ": 3055,
      "Ġæ·": 3056,
      "çĪ¸å¦Ī": 3057,
      "éĢĤåĲĪ": 3058,
      "åį±éĻ©": 3059,
      "åĪ°è¿ĻéĩĮ": 3060,
      "éĢĶ": 3061,
      "åĪĨæŀĲ": 3062,
      "æĺ¯ä»ĸ": 3063,
      "éķ¿æĹ¶éĹ´": 3064,
      "Ġå¸Ī": 3065,
      "åĽ½éĻħ": 3066,
      "çļĦåħ³ç³»": 3067,
      "æĬ¥åĳĬ": 3068,
      "ĠåĵİåĳĢ": 3069,
      "æĴĴ": 3070,
      "ħ§": 3071,
      "ä¼Ł": 3072,
      "æĶ¿çŃĸ": 3073,
      "åı¦å¤ĸ": 3074,
      "å¤§æ¦Ĥ": 3075,
      "èİ·å¾Ĺ": 3076,
      "æıĲä¾Ľ": 3077,
      "åĲµæŀ¶": 3078,
      "Ġä½łåľ¨": 3079,
      "åķĨéĩı": 3080,
      "äºĨä¸Ģä¸ĭ": 3081,
      "Ġç¥Ŀ": 3082,
      "æľīåı¯èĥ½": 3083,
      "æ¡¥": 3084,
      "è¾¾åĪ°": 3085,
      "å°±æ²¡æľī": 3086,
      "å¥³çĶŁ": 3087,
      "ĠçĪ¶": 3088,
      "æĸĩç«ł": 3089,
      "éķ¿å¾Ĺ": 3090,
      "çĪ±ä½ł": 3091,
      "åĩ¡": 3092,
      "åħ³å¿ĥ": 3093,
      "ä½łåĪ«": 3094,
      "éĥ½å¸Ĥ": 3095,
      "çĿĢä»ĸ": 3096,
      "å¥ĭ": 3097,
      "ĠæīĢä»¥æĪĳ": 3098,
      "Ġå°±æĺ¯è¯´": 3099,
      "èģªæĺİ": 3100,
      "ä¸Ģè¾¹": 3101,
      "å®½": 3102,
      "åĴĮä»ĸ": 3103,
      "ä¼¼çļĦ": 3104,
      "çĽ¸å¤Ħ": 3105,
      "æıĲéĨĴ": 3106,
      "ä¸ĢåĪ»": 3107,
      "èºº": 3108,
      "ç©·": 3109,
      "ç®Ĺæĺ¯": 3110,
      "éĤ£æł·": 3111,
      "ç¼ĺ": 3112,
      "åŃĲåķĬ": 3113,
      "æ¢ħ": 3114,
      "åĸĿéħĴ": 3115,
      "ĠçĪ¸çĪ¸": 3116,
      "Ġå¹³": 3117,
      "çĶ±äºİ": 3118,
      "æĭ¾": 3119,
      "æĹ¶ä»£": 3120,
      "å®ĭ": 3121,
      "å·¦åı³": 3122,
      "ĠæĽ¾": 3123,
      "ç¢Ĺ": 3124,
      "Ġè¿ĩ": 3125,
      "æļĤ": 3126,
      "åŃķ": 3127,
      "Ġä½łèĥ½": 3128,
      "ĠåĪĺ": 3129,
      "åºĶè¯¥æĺ¯": 3130,
      "ĠäºĮåįģ": 3131,
      "ĠæĪĳä¸įçŁ¥éģĵ": 3132,
      "æ»ļ": 3133,
      "æĶ¶åĲ¬": 3134,
      "ä»¥æĿ¥": 3135,
      "è¿°": 3136,
      "å¼łå¾·èĬ¬ç©ºéĹ´": 3137,
      "ä½łä»¬çļĦ": 3138,
      "é¥®": 3139,
      "ä¸ºä»Ģä¹Īè¦ģ": 3140,
      "éĢļçŁ¥": 3141,
      "ç¾İåħĥ": 3142,
      "ä½¿çĶ¨": 3143,
      "åĲĲ": 3144,
      "æİ¥è§¦": 3145,
      "çľŁå®ŀ": 3146,
      "æĦıè¯Ĩ": 3147,
      "çļĦçĬ": 3148,
      "æīĵç®Ĺ": 3149,
      "èĥĨ": 3150,
      "åħ¸": 3151,
      "ä»Ģä¹ĪçļĦ": 3152,
      "ĠæĪĳè·Ł": 3153,
      "è¿ŀéº¦": 3154,
      "Ġå¥½åĥı": 3155,
      "ä½łèĥ½": 3156,
      "èµı": 3157,
      "Ġçª": 3158,
      "çıł": 3159,
      "æĪĳæĿ¥": 3160,
      "è¯´ä¸į": 3161,
      "åİ»åĲ§": 3162,
      "ä¹Łä¸įæĺ¯": 3163,
      "æĦıè§ģ": 3164,
      "Ġå®Į": 3165,
      "ĠåĪļæīį": 3166,
      "èĴĻ": 3167,
      "ä¸ĢåĿĹåĦ¿": 3168,
      "éĥ½åı¯ä»¥": 3169,
      "ĠåĮĹ": 3170,
      "ĠæĪĳæ²¡": 3171,
      "åºŁ": 3172,
      "äºĨåĳ¢": 3173,
      "çģŃ": 3174,
      "æĺ¯æĪĳä»¬": 3175,
      "èĩ³äºİ": 3176,
      "æĹģè¾¹": 3177,
      "å®ĥçļĦ": 3178,
      "ä¸Ģä¸ªæľĪ": 3179,
      "Ġä½łä¸įæĺ¯": 3180,
      "å¿ĥæĥħ": 3181,
      "æ²Ī": 3182,
      "æĻ®éĢļ": 3183,
      "éģŃ": 3184,
      "åİĮ": 3185,
      "çĶ·åŃ©": 3186,
      "ä¸įåı¯èĥ½": 3187,
      "ĠæĪĳåĳĬè¯īä½ł": 3188,
      "ä¸ĢçĤ¹åĦ¿": 3189,
      "è¸ı": 3190,
      "åĩī": 3191,
      "åİļ": 3192,
      "éĹ®ä¸Ģä¸ĭ": 3193,
      "çļĦåĳ¢": 3194,
      "ç¥Ŀ": 3195,
      "ĠåŁ": 3196,
      "çĶĺ": 3197,
      "è§ģåĪ°": 3198,
      "æľ±": 3199,
      "çĶ·çĶŁ": 3200,
      "¤åħ¶": 3201,
      "Ġç½": 3202,
      "å°ıçļĦ": 3203,
      "ĠæľīäºĽ": 3204,
      "èĿ": 3205,
      "ĠæĪĳæĢİä¹Ī": 3206,
      "éķ¿çļĦ": 3207,
      "å½¼æŃ¤": 3208,
      "æ¬²": 3209,
      "è¿Ļä¹Īè¯´": 3210,
      "ĠæĹ¥": 3211,
      "æĴŀ": 3212,
      "ç¾Ĭ": 3213,
      "å°ıåŃ©": 3214,
      "ç§ĳæĬĢ": 3215,
      "çİ©ç¬ĳ": 3216,
      "äº§çĶŁ": 3217,
      "æ»¡è¶³": 3218,
      "ä¸Ģæł·çļĦ": 3219,
      "ĠäºĮéĽ¶ä¸Ģ": 3220,
      "è¿ĻäºĭåĦ¿": 3221,
      "èĩªçĶ±": 3222,
      "éĢĲ": 3223,
      "åĩłå¹´": 3224,
      "æĺ¯ä¸Ģç§į": 3225,
      "ç¼ĸ": 3226,
      "Ġä¸įä¼ļ": 3227,
      "éľĢæ±Ĥ": 3228,
      "éģĩè§ģ": 3229,
      "ĠåĪĨ": 3230,
      "ä¸ĸçķĮä¸Ĭ": 3231,
      "éĵ¾": 3232,
      "åįĹæĸ¹": 3233,
      "Ġç¦": 3234,
      "çĽ¾": 3235,
      "è°ħ": 3236,
      "çĭł": 3237,
      "æĢĴ": 3238,
      "éħ¸": 3239,
      "çļĦæĹ¶åĢĻåķĬ": 3240,
      "ĠåĹ¯åĹ¯": 3241,
      "ä½ľçĶ¨": 3242,
      "èµ·äºĨ": 3243,
      "åĲ¬è§ģ": 3244,
      "ä»¬åĦ¿": 3245,
      "å°±æ²¡": 3246,
      "ĠéĻĪ": 3247,
      "äºĶå¹´": 3248,
      "éĹ¨åı£": 3249,
      "é¬¼åŃĲ": 3250,
      "æ²ŁéĢļ": 3251,
      "Ġè¿Ļæ¬¡": 3252,
      "èĢĮå·²": 3253,
      "å®ľ": 3254,
      "ĠéĤ£æĺ¯": 3255,
      "çļĦä¸į": 3256,
      "å¤ļå°ĳéĴ±": 3257,
      "ĠæĺİçĻ½": 3258,
      "å¤«å¦»": 3259,
      "ä¸Ńå¿ĥ": 3260,
      "Ġé¦ĸåħĪ": 3261,
      "çļĦåŃ©åŃĲ": 3262,
      "åįģä¸Ģ": 3263,
      "è¦ģåİ»": 3264,
      "æĭĴç»Ŀ": 3265,
      "çļĦå·¥ä½ľ": 3266,
      "åĬ±": 3267,
      "å¥Ķ": 3268,
      "åĽ°éļ¾": 3269,
      "å·Ŀ": 3270,
      "è¯´å¾Ĺ": 3271,
      "Ġå¸¦": 3272,
      "çĽĽ": 3273,
      "æľŁéĹ´": 3274,
      "éĥ½å¸ĤæĬ¥": 3275,
      "çļĦè¿Ļç§į": 3276,
      "åĨįè¯´": 3277,
      "å¾Ĵ": 3278,
      "æ¯ıæ¬¡": 3279,
      "åħ³éĶ®": 3280,
      "ç¢İ": 3281,
      "èµ°åĲ§": 3282,
      "èµĦè®¯": 3283,
      "éĶģ": 3284,
      "ç¡Ģ": 3285,
      "Ġç©": 3286,
      "åľ¨å®¶": 3287,
      "ĠåĲĮæĹ¶": 3288,
      "éĺ¶æ®µ": 3289,
      "åĩ¶": 3290,
      "èĦı": 3291,
      "çļĦä¸»": 3292,
      "çĶ³": 3293,
      "Ġä½łè¯´ä½ł": 3294,
      "Ġå¯¹ä¸įèµ·": 3295,
      "æłĩåĩĨ": 3296,
      "çĶŁæĹ¥": 3297,
      "åŁ¹": 3298,
      "ä»Ķ": 3299,
      "Ġä¸įçĶ¨": 3300,
      "åªĴ": 3301,
      "åĲĥäºĨ": 3302,
      "å¤ªå¤ļ": 3303,
      "å¥³åŃ©åĦ¿": 3304,
      "ç¯ĩ": 3305,
      "çªĹ": 3306,
      "åľ°åĮº": 3307,
      "å¹¶æ²¡æľī": 3308,
      "ä¹Łå¥½": 3309,
      "ä¸¹": 3310,
      "Ġæĺ¯æĪĳ": 3311,
      "ä»Ģä¹Īæł·çļĦ": 3312,
      "å¹´çºª": 3313,
      "åŃ©åŃĲçļĦ": 3314,
      "èµĶ": 3315,
      "ĠåĵªæĢķ": 3316,
      "èĢĲ": 3317,
      "åºı": 3318,
      "å¾Ĳ": 3319,
      "æ²¡ä»Ģä¹Ī": 3320,
      "æĪĳä¼ļ": 3321,
      "å¨¶": 3322,
      "éĥ¨éĺŁ": 3323,
      "ç´§å¼ł": 3324,
      "çĸ¯": 3325,
      "æĸ¤": 3326,
      "æĬĬè¿Ļ": 3327,
      "é¦Ļæ¸¯": 3328,
      "æľŁå¾ħ": 3329,
      "Ġæħ": 3330,
      "å½ĵåĪĿ": 3331,
      "ä¼ĺç§Ģ": 3332,
      "å¸¦æĿ¥": 3333,
      "åŁºç¡Ģ": 3334,
      "åı¯èĥ½ä¼ļ": 3335,
      "çº·": 3336,
      "é¼»": 3337,
      "æ²»çĸĹ": 3338,
      "Ġæ¯Ķå¦Ĥè¯´": 3339,
      "è²": 3340,
      "å¢Ļ": 3341,
      "ĠæľĢè¿ĳ": 3342,
      "è¶Ł": 3343,
      "å±ı": 3344,
      "å®Ŀè´Ŀ": 3345,
      "Ġæīĭ": 3346,
      "ç½ļ": 3347,
      "è´¢ç»ı": 3348,
      "åĲİéĿ¢": 3349,
      "ĠéĻ¤äºĨ": 3350,
      "ĠæĪĳè¯´ä½ł": 3351,
      "ç»Ļä½łä»¬": 3352,
      "é£İéĻ©": 3353,
      "Ġè®©æĪĳ": 3354,
      "ĠçĶŁæ´»": 3355,
      "æĴĳ": 3356,
      "æīĶ": 3357,
      "çĪ¬": 3358,
      "æ¯«": 3359,
      "äºĨå¾Īå¤ļ": 3360,
      "ä¸įå°ĳ": 3361,
      "æī¬": 3362,
      "çĽ´æĴŃéĹ´": 3363,
      "æ¡ĥ": 3364,
      "åħ¬ä¼Ĺåı·": 3365,
      "éĹª": 3366,
      "æľīæĹ¶åĢĻ": 3367,
      "åıĶåıĶ": 3368,
      "æĦĪ": 3369,
      "ĠæīĢä»¥è¯´": 3370,
      "ç¤¼çī©": 3371,
      "å½»": 3372,
      "ä»İå°ı": 3373,
      "çļĦèĢģ": 3374,
      "ä¸įä¸ĭ": 3375,
      "ç»Ļå¤§å®¶": 3376,
      "çļĦæĸ¹å¼ı": 3377,
      "ç»ıéªĮ": 3378,
      "çļĦçģ": 3379,
      "ä¿¡ä»»": 3380,
      "ç¨į": 3381,
      "æľºæŀĦ": 3382,
      "ç¥ĸ": 3383,
      "é£ŀæľº": 3384,
      "ĠæĪĳåİ»": 3385,
      "å½ĵå¹´": 3386,
      "è°·": 3387,
      "è®¸å¤ļ": 3388,
      "å¦»åŃĲ": 3389,
      "Ġä½łæľī": 3390,
      "ç¼ĵ": 3391,
      "æĦŁåĪ°": 3392,
      "Ġå¾Ĺ": 3393,
      "äº§åħļ": 3394,
      "æ¶ī": 3395,
      "åĬŀåħ¬": 3396,
      "æĭ¿çĿĢ": 3397,
      "æĢ§æł¼": 3398,
      "å¾®åįļ": 3399,
      "å¢ŀåĬł": 3400,
      "åĽłä¸ºæĪĳ": 3401,
      "ä¸ĭéĿ¢": 3402,
      "æĤī": 3403,
      "è®°ä½ı": 3404,
      "å»ºè®¾": 3405,
      "è¯»ä¹¦": 3406,
      "ĠçĻ½": 3407,
      "å°¼": 3408,
      "æīİ": 3409,
      "å¨ĥ": 3410,
      "åħ±åĲĮ": 3411,
      "è¿«": 3412,
      "åĽŀå¤´": 3413,
      "äººåĳ¢": 3414,
      "æĪĳä»¬å®¶": 3415,
      "Ġåĵ¥": 3416,
      "ä½łæľī": 3417,
      "ä¸Ģåıª": 3418,
      "å¨ľ": 3419,
      "å°Ĭéĩį": 3420,
      "Ġæ¯ķç«Ł": 3421,
      "æ¹¾": 3422,
      "¢å¤į": 3423,
      "æķĻæİĪ": 3424,
      "èĥĮåĲİ": 3425,
      "çĶŁäº§": 3426,
      "ä¸įå°±": 3427,
      "æľŁçļĦ": 3428,
      "é©¾": 3429,
      "éĤ£æĺ¯": 3430,
      "åĽº": 3431,
      "å²Ľ": 3432,
      "ĠçľŁæĺ¯": 3433,
      "å¿ł": 3434,
      "Ġäº²": 3435,
      "ä½ľèĢħ": 3436,
      "æĥ³è¿ĩ": 3437,
      "çŁĽ": 3438,
      "è°ĪæģĭçĪ±": 3439,
      "ä¸¤å¹´": 3440,
      "æĶ¶åħ¥": 3441,
      "çļĦçĬ¶": 3442,
      "ä¸Ģå®¶": 3443,
      "éĽĨåĽ¢": 3444,
      "å°ļ": 3445,
      "å°Ħ": 3446,
      "ç¦ģ": 3447,
      "çļĦæł·åŃĲ": 3448,
      "åŁºéĩĳ": 3449,
      "èĩŃ": 3450,
      "è¯¶": 3451,
      "èµĸ": 3452,
      "ä½łä¼ļ": 3453,
      "åģ¶": 3454,
      "ĠæĬ¥": 3455,
      "ä»ĸåľ¨": 3456,
      "éĥ½çŁ¥éģĵ": 3457,
      "åºĦ": 3458,
      "æ¢ģ": 3459,
      "ĠçĦ¶åĲİæĪĳå°±": 3460,
      "ĠçĽ®åīį": 3461,
      "ä¸Ģåı·": 3462,
      "éĤĢ": 3463,
      "å¯¼èĩ´": 3464,
      "çīµ": 3465,
      "ĥŃ": 3466,
      "è·Łå¥¹": 3467,
      "çļĦç¤": 3468,
      "æĬĬèĩªå·±": 3469,
      "å®¾": 3470,
      "ä¸įå¦Ĥ": 3471,
      "çļĦæĹ¶åĢĻåĳ¢": 3472,
      "å¸ĪåĤħ": 3473,
      "å¥ĩæĢª": 3474,
      "æĺ¯åĲ¦": 3475,
      "è·ŁçĿĢ": 3476,
      "Ġæķ´": 3477,
      "Ġä½łæĺ¯ä¸įæĺ¯": 3478,
      "åĨł": 3479,
      "çļĦèĩªå·±": 3480,
      "Ġå¥½å¥½": 3481,
      "ä¹Łå°±": 3482,
      "çīĪ": 3483,
      "ä¹ĸ": 3484,
      "æľīä¸ĢäºĽ": 3485,
      "éªĳ": 3486,
      "Ġå¹¿": 3487,
      "æ±½è½¦": 3488,
      "ĠæľīæĹ¶åĢĻ": 3489,
      "ĠæĪĳå¦Ī": 3490,
      "å®Ŀå®Ŀ": 3491,
      "åģļå¥½": 3492,
      "è¿ĽäºĨ": 3493,
      "è¿½æ±Ĥ": 3494,
      "çļĦæĦŁè§ī": 3495,
      "è²Į": 3496,
      "çĭĤ": 3497,
      "çħ§çīĩ": 3498,
      "èĽ®": 3499,
      "ç¬¬ä¸Ģä¸ª": 3500,
      "çŀ§": 3501,
      "æ®ĭ": 3502,
      "æħ°": 3503,
      "æĹ¢çĦ¶": 3504,
      "å®ĩ": 3505,
      "ĠæĪĳè·Łä½łè¯´": 3506,
      "ä¿º": 3507,
      "ä¸ĵè¾ĳ": 3508,
      "äººäºĨ": 3509,
      "åĪ°è¿ĻåĦ¿": 3510,
      "ĠéĤ£äºĽ": 3511,
      "åİ»çľĭ": 3512,
      "æī¿è®¤": 3513,
      "åħ¨çĲĥ": 3514,
      "çŀİ": 3515,
      "å¤¸": 3516,
      "è¿Ļä»¶äºĭæĥħ": 3517,
      "çļĦè¿ĩç¨ĭ": 3518,
      "ç§ĳåŃ¦": 3519,
      "åĲī": 3520,
      "ä¸ºä½ł": 3521,
      "åĪĽéĢł": 3522,
      "è¯ģæį®": 3523,
      "éļıä¾¿": 3524,
      "åĩºçļĦ": 3525,
      "ä¸įæĦ¿æĦı": 3526,
      "çĿĢåĳ¢": 3527,
      "Ġåĸľæ¬¢": 3528,
      "æİª": 3529,
      "åĶ¯ä¸Ģ": 3530,
      "å·¥èµĦ": 3531,
      "Ġä½łè¦ģæĺ¯": 3532,
      "æī«": 3533,
      "å¸®å¿Ļ": 3534,
      "çļĦéĤ£ç§į": 3535,
      "éĥ¨éĹ¨": 3536,
      "èª": 3537,
      "äººåķĬ": 3538,
      "Ġå§Ĳ": 3539,
      "æĪļ": 3540,
      "ä¸Ģä¸ĩ": 3541,
      "æĺŁæľŁ": 3542,
      "å¤±è´¥": 3543,
      "æĮīçħ§": 3544,
      "èµ°èµ°": 3545,
      "Ġä»¥åīį": 3546,
      "äºĨè¿Ļ": 3547,
      "æ£®": 3548,
      "ä¸ļåĬ¡": 3549,
      "åĽŀäºĭ": 3550,
      "æĺ¯è¦ģ": 3551,
      "çĲĨçĶ±": 3552,
      "Ġçªģ": 3553,
      "åįĬå¹´": 3554,
      "çļĦç¾İ": 3555,
      "å¹¶ä¸įæĺ¯": 3556,
      "ĠæĪĳå·²ç»ı": 3557,
      "äºĭä¸ļ": 3558,
      "æ±ĩ": 3559,
      "æĪĳå¦Ī": 3560,
      "èĩ³å°ĳ": 3561,
      "ç§¦": 3562,
      "äº«åıĹ": 3563,
      "åľ¨åĵªåĦ¿": 3564,
      "åĶł": 3565,
      "åİŁæĿ¥": 3566,
      "Ġæ²¡æĥ³åĪ°": 3567,
      "æĶ¶æĭ¾": 3568,
      "çĴ": 3569,
      "åįķä½į": 3570,
      "äºĮéĽ¶äºĮéĽ¶": 3571,
      "æ²¡æĥ³åĪ°": 3572,
      "ä»Ĭå¤©çļĦ": 3573,
      "ä¸įåĸľæ¬¢": 3574,
      "è®¤çľŁ": 3575,
      "å¥½åĲ§": 3576,
      "æĺİæĺ¾": 3577,
      "çŁĽçĽ¾": 3578,
      "ĠæĪĳä¸įæĺ¯": 3579,
      "Ġåĩł": 3580,
      "ä»Ĺ": 3581,
      "ä¸¤åįĥ": 3582,
      "Ġå¹´": 3583,
      "æĪĳçľĭ": 3584,
      "æ²¡æľīä»Ģä¹Ī": 3585,
      "ĠçľĭåĪ°": 3586,
      "åĦ¿çļĦ": 3587,
      "æĸ¹ä¾¿": 3588,
      "ä¹Łå¾Ī": 3589,
      "æĥ³è±¡": 3590,
      "ĠæĪĳçľŁçļĦ": 3591,
      "åĢį": 3592,
      "è§Ħæ¨¡": 3593,
      "Ġå·¥": 3594,
      "ä¹ĿçĤ¹": 3595,
      "æĿ¥è®²": 3596,
      "Ġå¥½äºĨ": 3597,
      "Ġæı": 3598,
      "è¿ĩåİ»äºĨ": 3599,
      "å¤ļä¹ħ": 3600,
      "å°ıåŃĲ": 3601,
      "æĵ¦": 3602,
      "æĪĳä¸Ģ": 3603,
      "éŃĤ": 3604,
      "ä¼°è®¡": 3605,
      "æģ¢å¤į": 3606,
      "é²ģ": 3607,
      "å®¢æ°Ķ": 3608,
      "éĩĳèŀį": 3609,
      "å°±æĺ¯ä½ł": 3610,
      "ĠæĻļä¸Ĭ": 3611,
      "æĪĳçŁ¥éģĵ": 3612,
      "åĢ¾": 3613,
      "ĠéĤ£å¤©": 3614,
      "è·Łå¤§å®¶": 3615,
      "è¯Ħè®º": 3616,
      "è¯¢": 3617,
      "æ¯ĶèµĽ": 3618,
      "è½½": 3619,
      "èĥĥ": 3620,
      "æ·»": 3621,
      "åīįéĿ¢": 3622,
      "æ£ĢæŁ¥": 3623,
      "çĨ¬": 3624,
      "ç¬¬ä¸ī": 3625,
      "æİīäºĨ": 3626,
      "çŁ¥è¯Ĩ": 3627,
      "è´¢ç»ıèµĦè®¯": 3628,
      "æī¯": 3629,
      "æ¶¦": 3630,
      "æĥ³çļĦ": 3631,
      "æ¹¿": 3632,
      "å¹¼": 3633,
      "æľīåħ³": 3634,
      "æ´»çĿĢ": 3635,
      "è§Ĵåº¦": 3636,
      "çĻ¾å§ĵ": 3637,
      "çĶµåı°": 3638,
      "å¤«äºº": 3639,
      "éĺ»": 3640,
      "å§Ķå±Ī": 3641,
      "è¾£": 3642,
      "éļľ": 3643,
      "æĹ¶åĪ»": 3644,
      "ä¹ĭå¤ĸ": 3645,
      "åıįåºĶ": 3646,
      "è§Ħå®ļ": 3647,
      "éĶĢåĶ®": 3648,
      "ä¸ŃéĹ´": 3649,
      "è¯´è¯´": 3650,
      "ĠæŁ": 3651,
      "å®¿": 3652,
      "ç§Ĵ": 3653,
      "å¹¿å·ŀ": 3654,
      "æĺİçĻ½äºĨ": 3655,
      "å·®ä¸įå¤ļ": 3656,
      "Ġåĺ": 3657,
      "åį·": 3658,
      "è®©å¥¹": 3659,
      "æ½ľ": 3660,
      "è°ĥæķ´": 3661,
      "çĹĽèĭ¦": 3662,
      "ä»ĸè¯´": 3663,
      "åĲ«": 3664,
      "æĪĳä»¬å°±": 3665,
      "ä½©": 3666,
      "çļĦåľ°": 3667,
      "ä½łä»¬ä¿©": 3668,
      "Ġæ²¡äºĭ": 3669,
      "åı¯èĥ½æĺ¯": 3670,
      "æ®¿": 3671,
      "æĪĴ": 3672,
      "äºĪ": 3673,
      "ç»Ļèĩªå·±": 3674,
      "éĢłæĪĲ": 3675,
      "ĠæŀĹ": 3676,
      "æī£": 3677,
      "çĶ¨çļĦ": 3678,
      "Ġæħ¢": 3679,
      "ä¹Łä¸įä¼ļ": 3680,
      "ä¸ĭåįĪ": 3681,
      "æ¯Ķå¦Ĥè¯´": 3682,
      "Ġå°ĳ": 3683,
      "ä¹Łåı¯ä»¥": 3684,
      "ĠæĪĳæľī": 3685,
      "èµ·æĿ¥äºĨ": 3686,
      "ä¸Ģåľº": 3687,
      "æĤĦ": 3688,
      "é«ĺçļĦ": 3689,
      "å¹ķ": 3690,
      "ĠåĽłä¸ºä»ĸ": 3691,
      "æ¯ĽçĹħ": 3692,
      "ĠæĪĲ": 3693,
      "éĻªä½ł": 3694,
      "ç«Ļåľ¨": 3695,
      "è±ª": 3696,
      "åĽĽçĤ¹": 3697,
      "Ġåı¯æĺ¯æĪĳ": 3698,
      "å¦ĸ": 3699,
      "ä½łè¿Ļä¸ª": 3700,
      "åīĳ": 3701,
      "åĴ±ä¿©": 3702,
      "ä¸įè¯´": 3703,
      "ä¸įä»ħ": 3704,
      "èĢĥè¯ķ": 3705,
      "Ġè®©ä»ĸ": 3706,
      "èµĮ": 3707,
      "åĪ°æĪĳ": 3708,
      "å¯Ĥ": 3709,
      "ĠæĿ¨": 3710,
      "æĮģç»Ń": 3711,
      "å²ģçļĦ": 3712,
      "çķĻä¸ĭ": 3713,
      "äºĴåĬ¨": 3714,
      "æĭ¥æľī": 3715,
      "Ġé©¬": 3716,
      "ä¸Ģä»½": 3717,
      "æĴ¤": 3718,
      "åħ«çĤ¹": 3719,
      "åľ°ä¸Ĭ": 3720,
      "ĠçľĭæĿ¥": 3721,
      "Ġå¨": 3722,
      "ĠæĪĳæ²¡æľī": 3723,
      "çĲ´": 3724,
      "åħ±äº§åħļ": 3725,
      "èĤļåŃĲ": 3726,
      "ç»Ļå¥¹": 3727,
      "æ¬£": 3728,
      "åĳĨ": 3729,
      "æĻļå®ī": 3730,
      "éĤ£æĪĳ": 3731,
      "æ¶Ĥ": 3732,
      "åħ´è¶£": 3733,
      "éĥ½å¾Ī": 3734,
      "åĿ¦": 3735,
      "éľĩ": 3736,
      "ç½ĳä¸Ĭ": 3737,
      "Ġæ¶": 3738,
      "æĪĸè®¸": 3739,
      "ĠæĢİä¹ĪäºĨ": 3740,
      "èŃ¦æĸ¹": 3741,
      "è·Ŀç¦»": 3742,
      "ä¹Į": 3743,
      "Ġç´": 3744,
      "Ġæĺ¯åķĬ": 3745,
      "ä¸Ģè¾ĪåŃĲ": 3746,
      "Ġä½ķ": 3747,
      "æ¯ģ": 3748,
      "è·ŁæĪĳä»¬": 3749,
      "åįģå¹´": 3750,
      "æ¼Ķåĳĺ": 3751,
      "Ġè§īå¾Ĺ": 3752,
      "å¯ŀ": 3753,
      "éĥŃ": 3754,
      "ç§ĺå¯Ĩ": 3755,
      "Ġå°½": 3756,
      "åħ¶ä»ĸçļĦ": 3757,
      "æľīéĴ±": 3758,
      "èĪħ": 3759,
      "åİ¨": 3760,
      "ä¸ĵå®¶": 3761,
      "çŃĶæ¡Ī": 3762,
      "æ°´å¹³": 3763,
      "ĠçªģçĦ¶": 3764,
      "äº¤æĺĵ": 3765,
      "æĺ¯è¿Ļæł·": 3766,
      "ç«ŁçĦ¶": 3767,
      "ĠéĿŀå¸¸": 3768,
      "ä»ª": 3769,
      "ä¿Ĺ": 3770,
      "ä»ĵ": 3771,
      "Ġå®ī": 3772,
      "çĹħæ¯Ĵ": 3773,
      "Ġå¤ĸ": 3774,
      "åĩºéĹ¨": 3775,
      "æľĭåıĭåľĪ": 3776,
      "åºĵ": 3777,
      "ĠæĪĳä»¬çļĦ": 3778,
      "åĸ½": 3779,
      "éĤ£ä½ł": 3780,
      "èİī": 3781,
      "æ»´": 3782,
      "åłĨ": 3783,
      "æī¾ä½ł": 3784,
      "ĠèĤ¯å®ļ": 3785,
      "Ġåħ«": 3786,
      "åĸľæ¬¢çļĦ": 3787,
      "éĶĻè¯¯": 3788,
      "ä¸Ģä¸ªå°ı": 3789,
      "ä¸įå¼Ģ": 3790,
      "è¿ª": 3791,
      "è¡¡": 3792,
      "åĵŁ": 3793,
      "å¯¹äºĨ": 3794,
      "åķĬåķĬ": 3795,
      "åľ£": 3796,
      "çļĦçĸ": 3797,
      "ä¸Ģå£°": 3798,
      "çľĭäºĨ": 3799,
      "ä¼ļä¸įä¼ļ": 3800,
      "å²¸": 3801,
      "äº§ä¸ļ": 3802,
      "çľł": 3803,
      "éĵº": 3804,
      "ĠæĦŁè°¢": 3805,
      "Ġè¿Ļä¸įæĺ¯": 3806,
      "æ²¡äºĭåĦ¿": 3807,
      "åļ": 3808,
      "éĤ£ä¸ªæĹ¶åĢĻ": 3809,
      "éĥİ": 3810,
      "å±ħçĦ¶": 3811,
      "Ġä½ľä¸º": 3812,
      "Ġç»ĻæĪĳ": 3813,
      "åĪĳ": 3814,
      "äºĮçĻ¾": 3815,
      "ç»ĻæĤ¨": 3816,
      "ç²®": 3817,
      "Ġç¡®": 3818,
      "ä»Ģä¹Īéĥ½": 3819,
      "ä¹ĺ": 3820,
      "æľ¬èº«": 3821,
      "æ»ĳ": 3822,
      "çĤ®": 3823,
      "ä¸Ģå¼ł": 3824,
      "å¾Īå¤ļäºº": 3825,
      "ĠæĮī": 3826,
      "èīºæľ¯": 3827,
      "åĩĮ": 3828,
      "å¤ļå¹´": 3829,
      "å¥³æĢ§": 3830,
      "åľ¨äºĨ": 3831,
      "çĥĤ": 3832,
      "æīĭéĩĮ": 3833,
      "åıĹåĪ°": 3834,
      "Ġä¸ĥ": 3835,
      "èĦĨ": 3836,
      "å¥¥": 3837,
      "ĠæĪĳåĲ¬": 3838,
      "äºĭå®ŀ": 3839,
      "åı¸ä»¤": 3840,
      "èĥ¸": 3841,
      "ĠæĢİä¹Īæł·": 3842,
      "Ġå¹¶ä¸Ķ": 3843,
      "çģ°": 3844,
      "ĠçĮ": 3845,
      "åľ³": 3846,
      "åĿıäºĨ": 3847,
      "åĽ½çļĦ": 3848,
      "æ§": 3849,
      "ä¹Łè¦ģ": 3850,
      "ç³»ç»Ł": 3851,
      "éĤĢè¯·": 3852,
      "æĥ³çĿĢ": 3853,
      "éĴ¢": 3854,
      "Ġä¸Ģå®ļè¦ģ": 3855,
      "ä½ľåĵģ": 3856,
      "Ġåįĥ": 3857,
      "çĶ²": 3858,
      "ç³Ł": 3859,
      "èħ°": 3860,
      "Ġè¦ģæĺ¯": 3861,
      "çĦ¦": 3862,
      "çļĦåİŁåĽł": 3863,
      "ä¸Ģéģį": 3864,
      "æĭĶ": 3865,
      "ķĻ": 3866,
      "æĳĶ": 3867,
      "Ġç¦»": 3868,
      "è¿Ľä¸ĢæŃ¥": 3869,
      "èĭ¹": 3870,
      "æŁľ": 3871,
      "Ġå°¤åħ¶": 3872,
      "è¶ģ": 3873,
      "æīįä¼ļ": 3874,
      "æĽ´å¥½": 3875,
      "æīĭæľ¯": 3876,
      "åĶī": 3877,
      "ĠæĪĳåı¯ä»¥": 3878,
      "æħķ": 3879,
      "å¹º": 3880,
      "Ġè¿Ļä½į": 3881,
      "è¯´è¿Ļ": 3882,
      "æŃ£å¼ı": 3883,
      "æĪĲçĨŁ": 3884,
      "å£ģ": 3885,
      "äºĨä¸ĢäºĽ": 3886,
      "åį«çĶŁ": 3887,
      "Ġå°±æĺ¯æĪĳ": 3888,
      "æĮĳæĪĺ": 3889,
      "Ġå°±ä¼ļ": 3890,
      "æĬ¥éģĵ": 3891,
      "ĠåħŃ": 3892,
      "è¸ª": 3893,
      "å°±å¥½": 3894,
      "è¯´æĺİ": 3895,
      "æĬ¬": 3896,
      "ä¸įåĨį": 3897,
      "å¹²åĩĢ": 3898,
      "æľīä¸Ģç§į": 3899,
      "åıĤä¸İ": 3900,
      "å¾Īæľī": 3901,
      "ç¨ĭåº¦": 3902,
      "ä¸įåĩº": 3903,
      "å«ĤåŃĲ": 3904,
      "çªĿ": 3905,
      "Ġä¸»": 3906,
      "æĪĲç»©": 3907,
      "æĪĳæ²¡": 3908,
      "å¿§": 3909,
      "ä¸ĭéĻį": 3910,
      "èĭ¹æŀľ": 3911,
      "æĹħæ¸¸": 3912,
      "æ»¡æĦı": 3913,
      "æ¯ıä¸ªäºº": 3914,
      "ç½©": 3915,
      "è£¤": 3916,
      "åĽ½åĨħ": 3917,
      "ä¼Ĭ": 3918,
      "é£Łçī©": 3919,
      "ä¸įçŁ¥": 3920,
      "ĠçĿ": 3921,
      "è¿ĺä¼ļ": 3922,
      "Ġå©": 3923,
      "ä¸ĬåŃ¦": 3924,
      "çļĦä¸Ģç§į": 3925,
      "ç¨³å®ļ": 3926,
      "Ġåħ¶å®ŀæĪĳ": 3927,
      "èĲĮ": 3928,
      "å¾Īä¹ħ": 3929,
      "è¡¨æ¼Ķ": 3930,
      "¬éĹ´": 3931,
      "äººä»¬": 3932,
      "éĥ½å·²ç»ı": 3933,
      "åĴ¬": 3934,
      "åŃ¤çĭ¬": 3935,
      "æł¹æį®": 3936,
      "åĲİæĤĶ": 3937,
      "çĮ´": 3938,
      "æī§è¡Į": 3939,
      "ç»ĻäºĨ": 3940,
      "èī¾": 3941,
      "èįĲ": 3942,
      "Ġå»": 3943,
      "å¤±åİ»": 3944,
      "Ġèµ¶ç´§": 3945,
      "è¿Ļä½į": 3946,
      "æŃ£å¥½": 3947,
      "ä¸ľåĮĹ": 3948,
      "çļĦè¯Ŀåĳ¢": 3949,
      "è¦ģä¸į": 3950,
      "å¾Īå¿«": 3951,
      "ä¾£": 3952,
      "éĩįçĤ¹": 3953,
      "çĮ®": 3954,
      "Ġä¸Ģä¸ªäºº": 3955,
      "å¹²åķ¥": 3956,
      "èģĮä¸ļ": 3957,
      "ç³ķ": 3958,
      "çļĦçĬ¶æĢģ": 3959,
      "ä»ģ": 3960,
      "æĢľ": 3961,
      "éĨī": 3962,
      "è®¨åİĮ": 3963,
      "ĠåĽł": 3964,
      "çļĦç©": 3965,
      "è®°å¿Ĩ": 3966,
      "åĪ©çĶ¨": 3967,
      "ä¹°äºĨ": 3968,
      "Ġä½Ĩæĺ¯ä½ł": 3969,
      "è¯ģåĪ¸": 3970,
      "åĤ¨": 3971,
      "åŃĿ": 3972,
      "Ġå¤§åĵ¥": 3973,
      "äº²èĩª": 3974,
      "Ġè®©æĪĳä»¬": 3975,
      "Ġä½Ĩæĺ¯ä»ĸ": 3976,
      "çŃīçĿĢ": 3977,
      "äºĴçĽ¸": 3978,
      "éĺħè¯»": 3979,
      "å°ıæĹ¶åĢĻ": 3980,
      "æĩĤå¾Ĺ": 3981,
      "æĬµ": 3982,
      "ä¸įåĲĮçļĦ": 3983,
      "å¤§å¤«": 3984,
      "æ¸©æļĸ": 3985,
      "Ġè¿ĻéĩĮæĺ¯": 3986,
      "å°±æĺ¯ä¸Ģä¸ª": 3987,
      "ä¹ĿåħŃ": 3988,
      "è¸©": 3989,
      "Ġä½łåħĪ": 3990,
      "è¿Ļä¸ªéĹ®é¢ĺ": 3991,
      "åĬŀåħ¬å®¤": 3992,
      "æĤ£èĢħ": 3993,
      "ĠæĪĳä»Ĭå¤©": 3994,
      "åģļå¾Ĺ": 3995,
      "åıįæŃ£": 3996,
      "å¿ĺè®°": 3997,
      "å¤´åıĳ": 3998,
      "èĥİ": 3999,
      "çļĦç²¾": 4000,
      "æıĲåĩº": 4001,
      "åħ¬åı¸çļĦ": 4002,
      "ä¸įä¸į": 4003,
      "ĠæĪĳçĪ¸": 4004,
      "çŀĴ": 4005,
      "Ġè¶Ĭ": 4006,
      "Ġæ¯ıæ¬¡": 4007,
      "åĪ°çļĦ": 4008,
      "åľ¨ä»ĸ": 4009,
      "ç«ŀ": 4010,
      "Ġæł¹æį®": 4011,
      "çĸ¾": 4012,
      "èĬ±éĴ±": 4013,
      "çļĦç¥": 4014,
      "æįķ": 4015,
      "äºĨå°±": 4016,
      "è§Ĥå¯Ł": 4017,
      "äºĮéĽ¶äºĮéĽ¶å¹´": 4018,
      "éĹ·": 4019,
      "ä½łéĥ½": 4020,
      "æĥĳ": 4021,
      "åĲİçļĦ": 4022,
      "èĩªä¿¡": 4023,
      "è®Ńç»ĥ": 4024,
      "è¿ĺå¾Ĺ": 4025,
      "åįĳ": 4026,
      "çŃĳ": 4027,
      "Ġåıĳçİ°": 4028,
      "è¾¹åĦ¿": 4029,
      "æĶ¾ä¸ĭ": 4030,
      "èĢģçĪ·": 4031,
      "æĳĦ": 4032,
      "ä¸ĳ": 4033,
      "ä¸Ĭå¸Ĥ": 4034,
      "æ¯ĶæĪĳ": 4035,
      "çķª": 4036,
      "éĢĽ": 4037,
      "ç¬¦": 4038,
      "å°±æľī": 4039,
      "æľĢå¥½": 4040,
      "æľĢç»Ī": 4041,
      "éĥģ": 4042,
      "éħįåĲĪ": 4043,
      "åħŃçĤ¹": 4044,
      "æĦŁåĬ¨": 4045,
      "æĪĳè·Ł": 4046,
      "æĥ¹": 4047,
      "éģĵæŃī": 4048,
      "æ¬ºè´Ł": 4049,
      "åİ»å¹´": 4050,
      "è¯¸": 4051,
      "ç»ıèĲ¥": 4052,
      "çļĦéĴ±": 4053,
      "çĺ¦": 4054,
      "éļ¾åıĹ": 4055,
      "åįĹæĸ¹éĥ½å¸ĤæĬ¥": 4056,
      "ç»ıçĲĨ": 4057,
      "å¦Ĩ": 4058,
      "åĲ¬åĲ¬": 4059,
      "ĠäººçĶŁ": 4060,
      "Ġä½łèĩªå·±": 4061,
      "èĭ±éĽĦ": 4062,
      "æ¨¡å¼ı": 4063,
      "å¥ı": 4064,
      "è®©èĩªå·±": 4065,
      "èµ·çłģ": 4066,
      "ĠåĲĦä½į": 4067,
      "è¯¯ä¼ļ": 4068,
      "æĺł": 4069,
      "æ´ģ": 4070,
      "è¢«äºº": 4071,
      "æĨ¾": 4072,
      "Ġæĥħ": 4073,
      "æĩĴ": 4074,
      "ĠæĲ": 4075,
      "ä¼¸": 4076,
      "åŃ£åº¦": 4077,
      "ç¨İ": 4078,
      "äººåľ¨": 4079,
      "æĹ¶çļĦ": 4080,
      "ĠåįĹéĥ½": 4081,
      "Ġä½łåİ»": 4082,
      "Ġä½łåı¯": 4083,
      "æĪĳä»¬ä¿©": 4084,
      "äºĨè¿Ļä¸ª": 4085,
      "æĺ¯æĪĳçļĦ": 4086,
      "Ġè¿Ļæĺ¯æĪĳ": 4087,
      "ä¸įæĺ¯æĪĳ": 4088,
      "åŁĭ": 4089,
      "æī©": 4090,
      "å½ĵåľ°": 4091,
      "äºĨå¥½": 4092,
      "æİ¥ä¸ĭæĿ¥": 4093,
      "æħĮ": 4094,
      "ĠæĹ¶éĹ´": 4095,
      "ĠæĪĳçĽ¸ä¿¡": 4096,
      "ç¾İä¸½": 4097,
      "è®°å½ķ": 4098,
      "åįģåħ«": 4099,
      "å®Įç¾İ": 4100,
      "æ®Ĭ": 4101,
      "é¥±": 4102,
      "ä¹Łåľ¨": 4103,
      "æĬĳ": 4104,
      "Ġæīįèĥ½": 4105,
      "èĢ³æľµ": 4106,
      "Ġä»ĸåľ¨": 4107,
      "Ġä¸įå¥½": 4108,
      "èĭĹ": 4109,
      "å¿«çĤ¹": 4110,
      "æīĢè°ĵçļĦ": 4111,
      "ä»¶äºĭæĥħ": 4112,
      "åįķèº«": 4113,
      "æ±ł": 4114,
      "Ġå¾Ģ": 4115,
      "æıĲåīį": 4116,
      "ĠæĪĳèĥ½": 4117,
      "éĹ®éĹ®": 4118,
      "è¯´è¿Ļä¸ª": 4119,
      "ĠéĤ£å°±æĺ¯": 4120,
      "Ġæľīä¸Ģä¸ª": 4121,
      "Ġä½łè¯´æĪĳ": 4122,
      "çľĭåĪ°äºĨ": 4123,
      "è¿ŀçº¿": 4124,
      "èµļéĴ±": 4125,
      "æĸ¹æ¡Ī": 4126,
      "èĸĩ": 4127,
      "å¯Ĥå¯ŀ": 4128,
      "åĽĽå¹´": 4129,
      "Ġå¿ħ": 4130,
      "æ¯ıä¸Ģä¸ª": 4131,
      "ĠçĽ´åĪ°": 4132,
      "ä¹Ķ": 4133,
      "åĳ¦": 4134,
      "éĽ¶çĤ¹": 4135,
      "å¹´è½»äºº": 4136,
      "åį°è±¡": 4137,
      "Ġé»Ħ": 4138,
      "Ġèĥ½å¤Ł": 4139,
      "Ġæľīæ²¡æľī": 4140,
      "çī¹åĪ«çļĦ": 4141,
      "çĿĢäºĨ": 4142,
      "Ġä½łè¿Ļä¸ª": 4143,
      "ä¸Ńå¤®": 4144,
      "éķ¿å¤§": 4145,
      "çļĦçĭ": 4146,
      "è¯ķè¯ķ": 4147,
      "çļĦå¥³äºº": 4148,
      "å°±è¿Ļä¹Ī": 4149,
      "åıĳçĶŁäºĨ": 4150,
      "ä½ĵéªĮ": 4151,
      "åľ¨æĤ¨": 4152,
      "äº¤éĢļ": 4153,
      "æĳ©": 4154,
      "å£®": 4155,
      "Ġæ¢": 4156,
      "ĠèĢģå¸Ī": 4157,
      "ä¹Łä¸įèĥ½": 4158,
      "èį¡": 4159,
      "æĹ¶åħī": 4160,
      "åĴĸ": 4161,
      "ĠåĽłä¸ºä½ł": 4162,
      "çĽ®çļĦ": 4163,
      "éĤ»": 4164,
      "å¾Ģå¾Ģ": 4165,
      "ĠåĿĲ": 4166,
      "å¿½": 4167,
      "åĬ²åĦ¿": 4168,
      "æ½®": 4169,
      "æĺ¯æľĢ": 4170,
      "ĠçĤ": 4171,
      "æī¾ä¸ª": 4172,
      "è£ģ": 4173,
      "ĠåĶīåĳĢ": 4174,
      "åĿĲåľ¨": 4175,
      "ä»Ķç»Ĩ": 4176,
      "èĤ¤": 4177,
      "ä¸»ä¹ī": 4178,
      "æºľ": 4179,
      "å®£å¸ĥ": 4180,
      "ĠæıĲ": 4181,
      "èĤ¡ä»½": 4182,
      "ĠæĪª": 4183,
      "Ġå®Ŀ": 4184,
      "è®©ä»ĸä»¬": 4185,
      "çĶ¨æĪ·": 4186,
      "æĢĿæĥ³": 4187,
      "å¾®ä¿¡åħ¬ä¼Ĺåı·": 4188,
      "Ġä¾¿": 4189,
      "çļĦç¡®": 4190,
      "æĪĳæľī": 4191,
      "ä¼¼ä¹İ": 4192,
      "è¡ĮåĲĹ": 4193,
      "åħ·ä½ĵ": 4194,
      "è¿Ļè¿Ļ": 4195,
      "åįĬå¤©": 4196,
      "åĨįæ¬¡": 4197,
      "Ġåı¦å¤ĸ": 4198,
      "Ġæ»": 4199,
      "åĸľæ¬¢ä½ł": 4200,
      "ä¸įåıĬ": 4201,
      "Ġæľ¬æĿ¥": 4202,
      "Ġè¦ģä¸įçĦ¶": 4203,
      "èĦĳåŃĲ": 4204,
      "ä¸įåĩºæĿ¥": 4205,
      "è·ĳäºĨ": 4206,
      "éĤ£æĹ¶åĢĻ": 4207,
      "åİ»åķĬ": 4208,
      "åģ¿": 4209,
      "Ġéĩĳ": 4210,
      "ç»ĳ": 4211,
      "æ²¡åħ³ç³»": 4212,
      "ä¼Ļä¼´": 4213,
      "éĹºå¥³": 4214,
      "ä¸¤çĻ¾": 4215,
      "Ġä¹Łä¸į": 4216,
      "ä¸ĥå¹´": 4217,
      "Ġå¸®": 4218,
      "çĭ¬ç«ĭ": 4219,
      "æĢĿèĢĥ": 4220,
      "èĤºçĤİ": 4221,
      "æĺ¯å¾Ī": 4222,
      "åįģåĪĨ": 4223,
      "è´¸": 4224,
      "å°±ç®Ĺ": 4225,
      "å¤©ä¸ĭ": 4226,
      "æľĪäº®": 4227,
      "æĸ°å®ĺ": 4228,
      "åĶ±æŃĮ": 4229,
      "Ġèĭ¥": 4230,
      "æ¢¯": 4231,
      "æľĹ": 4232,
      "æĹ¢": 4233,
      "ä¸īåįĥ": 4234,
      "çĳŀ": 4235,
      "Ġä¸¤ä¸ªäºº": 4236,
      "éĺ³åħī": 4237,
      "æĥ§": 4238,
      "æĹĹ": 4239,
      "çĶµèĦĳ": 4240,
      "åħ¶ä¸Ń": 4241,
      "é¹¿": 4242,
      "è°İ": 4243,
      "éľ¸": 4244,
      "åķ¡": 4245,
      "æı´": 4246,
      "å«Įçĸĳ": 4247,
      "éĻĦè¿ĳ": 4248,
      "æĺ¯ä¸ºäºĨ": 4249,
      "çİ©æĦı": 4250,
      "ç»ķ": 4251,
      "åĬŁèĥ½": 4252,
      "éļĨ": 4253,
      "å¿«å¿«": 4254,
      "åľ¨æĪĳä»¬": 4255,
      "åı«æĪĳ": 4256,
      "éŃı": 4257,
      "èµĦæľ¬": 4258,
      "åŁºæľ¬ä¸Ĭ": 4259,
      "Ġæµ·": 4260,
      "ĠçĻ¾": 4261,
      "ä¸«": 4262,
      "åºķä¸ĭ": 4263,
      "ä¸įå¥½æĦıæĢĿ": 4264,
      "çļĦé«ĺ": 4265,
      "èµ°åĪ°": 4266,
      "åıĽ": 4267,
      "ĠæĪĳç»Ļä½ł": 4268,
      "åĩºè½¨": 4269,
      "åĳĺå·¥": 4270,
      "è´·æ¬¾": 4271,
      "ä¸ĢåįĬ": 4272,
      "åľ¨å®¶éĩĮ": 4273,
      "è¿Ļä¹Īå¤§": 4274,
      "å·¥ç¨ĭ": 4275,
      "ä¼¦": 4276,
      "ĠæĪĳåıª": 4277,
      "ĠæĪĳå½ĵæĹ¶": 4278,
      "æľķ": 4279,
      "å°±è¡ĮäºĨ": 4280,
      "çĽ¯": 4281,
      "ä¿ĥ": 4282,
      "ç»ĵå©ļäºĨ": 4283,
      "çĲª": 4284,
      "ĠæĪĳä»¬ä¸ĭ": 4285,
      "åĽĽçĻ¾": 4286,
      "çļĦç½": 4287,
      "çŃīä½ł": 4288,
      "æĦŁæŁĵ": 4289,
      "æ¯ıä¸ª": 4290,
      "ç¼©": 4291,
      "èĳĹ": 4292,
      "å°±åİ»": 4293,
      "æ³ķå¾ĭ": 4294,
      "æ®µåŃĲ": 4295,
      "è§īå¾Ĺèĩªå·±": 4296,
      "æĹ¥æľ¬äºº": 4297,
      "åģļé¥Ń": 4298,
      "å¤ļå¤§": 4299,
      "ĠéĤ£æĪĳå°±": 4300,
      "å°±å¥½äºĨ": 4301,
      "ä¹Łå¾Ĺ": 4302,
      "çļĦåĲ§": 4303,
      "æĥ¨": 4304,
      "èī°": 4305,
      "ĠçĶŁ": 4306,
      "å¼¯": 4307,
      "åĵĦ": 4308,
      "äºĮçĤ¹": 4309,
      "åľ¾": 4310,
      "åºĬä¸Ĭ": 4311,
      "éģĹæĨ¾": 4312,
      "ĥåľ¾": 4313,
      "èµĦæĸĻ": 4314,
      "éĩıçļĦ": 4315,
      "æ¯ķç«Ł": 4316,
      "çĽ¸å½ĵ": 4317,
      "éĹºèľľ": 4318,
      "æĪĳå°±æĺ¯": 4319,
      "æī¾åĪ°äºĨ": 4320,
      "å°ĳçĪ·": 4321,
      "Ġæ·±": 4322,
      "çļĦæľºä¼ļ": 4323,
      "å¾Īå¤§": 4324,
      "æ³¥": 4325,
      "æģ¼": 4326,
      "ä»¥ä¸Ĭ": 4327,
      "ä¼łç»Ł": 4328,
      "ĠåĳĬ": 4329,
      "åİŁè°ħ": 4330,
      "å°¬": 4331,
      "åĪ°ä½ł": 4332,
      "Ġåģĩ": 4333,
      "ĠæĪĳè·Łä½ł": 4334,
      "éĴ»": 4335,
      "ç¥¸": 4336,
      "ĠèĬ±": 4337,
      "äºĭäºĨ": 4338,
      "¹ģ": 4339,
      "ä»ĸäºĨ": 4340,
      "è¿Ļæł·ä¸Ģä¸ª": 4341,
      "Ġç«Ļ": 4342,
      "Ġå½ĵä½ł": 4343,
      "æĹ©é¤Ĳ": 4344,
      "å®¶éķ¿": 4345,
      "åĳ½ä»¤": 4346,
      "æľīæīĢ": 4347,
      "ä¸īå¤©": 4348,
      "æ¯Ķä½ł": 4349,
      "çģ¾": 4350,
      "ä¸§": 4351,
      "åĨįåİ»": 4352,
      "éħĴåºĹ": 4353,
      "æİ¨èįĲ": 4354,
      "éĢĨ": 4355,
      "åįģçĤ¹": 4356,
      "èµ°åķĬ": 4357,
      "å»ºç«ĭ": 4358,
      "ĠéľĢè¦ģ": 4359,
      "Ġä½łçľĭçľĭ": 4360,
      "ç»Ļä½łçļĦ": 4361,
      "ä¹ĭä¸ĭ": 4362,
      "æĪĳçĪ¸": 4363,
      "åĬłæ²¹": 4364,
      "ĠæĪĳä¸įæĥ³": 4365,
      "æ³½": 4366,
      "ĠæĪĳå¸ĮæľĽ": 4367,
      "è°±": 4368,
      "å¤įæĿĤ": 4369,
      "åģļåĩº": 4370,
      "åĪ¶éĢł": 4371,
      "è§Ĵèī²": 4372,
      "ĠåĸĿ": 4373,
      "ģè®¸": 4374,
      "ä½łåı¯ä»¥": 4375,
      "ä»ĸä¸į": 4376,
      "éĿ¢åŃĲ": 4377,
      "çľ¼éĩĮ": 4378,
      "Ġæİ¥ä¸ĭæĿ¥": 4379,
      "åĳ¢æĺ¯": 4380,
      "æıĲåįĩ": 4381,
      "å¯»æī¾": 4382,
      "å°¸": 4383,
      "çī¢": 4384,
      "æ¸´": 4385,
      "Ġå¯¹å¯¹å¯¹": 4386,
      "çļĦæĦıæĢĿ": 4387,
      "æģ°": 4388,
      "è¿ħ": 4389,
      "äºķ": 4390,
      "å¤ļæķ°": 4391,
      "æĮĩæķ°": 4392,
      "å®ĺæĸ¹": 4393,
      "åĳ³éģĵ": 4394,
      "Ġä¸ĭéĿ¢": 4395,
      "½åŃĲ": 4396,
      "åįĹéĥ½": 4397,
      "ĠæĪĳåıªæĺ¯": 4398,
      "åģļä¸Ģä¸ª": 4399,
      "åĪ°è¿Ļä¸ª": 4400,
      "ä¸Ĭæ¶¨": 4401,
      "çĶŁæ´»çļĦ": 4402,
      "åĢĴæĺ¯": 4403,
      "äººç±»": 4404,
      "ä¸ĵéĹ¨": 4405,
      "èĢĢ": 4406,
      "ä¸įæĺ¯è¯´": 4407,
      "èģĶåĲĪ": 4408,
      "é¢ĨåŁŁ": 4409,
      "åĩ¤": 4410,
      "ä¾¦": 4411,
      "åĬĽçļĦ": 4412,
      "ĠåĮ»": 4413,
      "æ¸©æŁĶ": 4414,
      "çĤ¼": 4415,
      "åħ¬åŃĲ": 4416,
      "çĽŁ": 4417,
      "çĭ¸": 4418,
      "çļĦå°±": 4419,
      "ĠæĪĳè¯´æĪĳ": 4420,
      "çļĦçĹħ": 4421,
      "Ġä½Ĩæĺ¯åĳ¢": 4422,
      "ĠæĮº": 4423,
      "Ġè·ŁæĪĳ": 4424,
      "æī¿æĭħ": 4425,
      "å°ĸ": 4426,
      "çī²": 4427,
      "Ġèĭı": 4428,
      "ä¸įæĺ¯ä½ł": 4429,
      "ĠæĦŁè§ī": 4430,
      "çºłç»ĵ": 4431,
      "éĿŀå¸¸çļĦ": 4432,
      "è·Łä»ĸè¯´": 4433,
      "æ¾¡": 4434,
      "åĭ¤": 4435,
      "æ¦Ĥå¿µ": 4436,
      "ä¸ĢçĶŁ": 4437,
      "æĢİæł·": 4438,
      "æ¶Ľ": 4439,
      "åľ¨æĤ¨èº«è¾¹": 4440,
      "çľŁå¿ĥ": 4441,
      "Ġä½ĨæĪĳ": 4442,
      "æıĴ": 4443,
      "è¶³å¤Ł": 4444,
      "èĪŀåı°": 4445,
      "çļĦæīĭ": 4446,
      "Ġåıªèĥ½": 4447,
      "å¡ŀ": 4448,
      "åĴĸåķ¡": 4449,
      "çļĦå£°éŁ³": 4450,
      "åĤ²": 4451,
      "ä»¿": 4452,
      "å°±æĺ¯ä»ĸ": 4453,
      "Ġçľĭçľĭ": 4454,
      "ä»İæĿ¥æ²¡æľī": 4455,
      "å©Ĩå©Ĩ": 4456,
      "äºĭä»¶": 4457,
      "ä¾¯": 4458,
      "å¥½æľĭåıĭ": 4459,
      "æĢİä¹Īè¯´": 4460,
      "ä¸Ģèµ·æĿ¥": 4461,
      "éĻķ": 4462,
      "æ³°": 4463,
      "æĢĢåŃķ": 4464,
      "å¤º": 4465,
      "ç»¼": 4466,
      "åªĴä½ĵ": 4467,
      "ä¸Ģå¼Ģå§ĭ": 4468,
      "Ġä½łå°±æĺ¯": 4469,
      "Ġæĸ¹": 4470,
      "Ġçģ": 4471,
      "åĶ¤": 4472,
      "é¸Ń": 4473,
      "å¾Ĺå¤ª": 4474,
      "åĽŀå¿Ĩ": 4475,
      "åĸĤ": 4476,
      "ĠåĲĳ": 4477,
      "å¼Ģçİ©ç¬ĳ": 4478,
      "åıĹä¼¤": 4479,
      "´å°¬": 4480,
      "å¥¸": 4481,
      "Ġä»ĸä¼ļ": 4482,
      "æī¾ä¸Ģä¸ª": 4483,
      "Ġä¹°": 4484,
      "åŀĥåľ¾": 4485,
      "ä¹ĭéĹ´çļĦ": 4486,
      "æĶ¹éĿ©": 4487,
      "ç§¯æŀģ": 4488,
      "çĭĲ": 4489,
      "è¯·ä½ł": 4490,
      "ĠåĪ°åºķ": 4491,
      "å¤©çļĦ": 4492,
      "å¼ĢæĶ¾": 4493,
      "æĿľ": 4494,
      "äºĨåĳĢ": 4495,
      "å½»åºķ": 4496,
      "ä¸įåĬ¨": 4497,
      "è´«": 4498,
      "Ġåį³ä½¿": 4499,
      "åı¯çĪ±": 4500,
      "åĩłæ¬¡": 4501,
      "å§¥": 4502,
      "å¾Īå¤§çļĦ": 4503,
      "Ĺäºĭ": 4504,
      "ä¸ĢæĬĬ": 4505,
      "ä¸Ģä¹Ŀ": 4506,
      "åľ¨éĤ£åĦ¿": 4507,
      "Ġç¾İåĽ½": 4508,
      "åİ»åĵªåĦ¿": 4509,
      "æĽ´å¥½çļĦ": 4510,
      "åĪ¤æĸŃ": 4511,
      "èĢģå®¶": 4512,
      "æĺİç¡®": 4513,
      "æī®": 4514,
      "äºĶçĤ¹": 4515,
      "åħŃå¹´": 4516,
      "ä¼ı": 4517,
      "çĽĴ": 4518,
      "Ġä»ĸä¹Ł": 4519,
      "æĪĳä»¬è¦ģ": 4520,
      "æĮĸ": 4521,
      "å°ĨæĿ¥": 4522,
      "Ġè®°å¾Ĺ": 4523,
      "è´¤": 4524,
      "å¸ĪçĪ¶": 4525,
      "ç»ĨèĬĤ": 4526,
      "çĨŁæĤī": 4527,
      "å²ģäºĨ": 4528,
      "æķħæĦı": 4529,
      "æĬĽ": 4530,
      "ä¸ºæĤ¨": 4531,
      "è¡ĮçļĦ": 4532,
      "æĦıå¤ĸ": 4533,
      "åĿĳ": 4534,
      "èĻ«": 4535,
      "çł¸": 4536,
      "è¿Ķ": 4537,
      "çĭ±": 4538,
      "åĳĬè¯īä»ĸ": 4539,
      "èĦĳè¢ĭ": 4540,
      "å°±æĺ¯è¿ĻäºĽ": 4541,
      "çŁ¥éģĵåĲĹ": 4542,
      "ĠåħĦ": 4543,
      "¡æħķ": 4544,
      "Ġè¿Ļä¸į": 4545,
      "æľªæĿ¥çļĦ": 4546,
      "ä¼į": 4547,
      "ĠçĲ": 4548,
      "åĩłä¹İ": 4549,
      "èįĴ": 4550,
      "åĮª": 4551,
      "çļĦçħ§": 4552,
      "ä½łçŁ¥éģĵåĲĹ": 4553,
      "èĢĹ": 4554,
      "å¤ªéĺ³": 4555,
      "Ġä¸īåįģ": 4556,
      "ä»ĸäºº": 4557,
      "èµĦäº§": 4558,
      "ĠåĲĮæ¯Ķ": 4559,
      "Ġæľīä¸Ģå¤©": 4560,
      "Ġä¹Ŀ": 4561,
      "ä¸Ģå®ļæĺ¯": 4562,
      "ä¸Ĭä¸Ģ": 4563,
      "æĪĳä»¬åľ¨": 4564,
      "åĲ¸å¼ķ": 4565,
      "å¼Ģè½¦": 4566,
      "çī¹æ®Ĭ": 4567,
      "è¯Ŀè¯´": 4568,
      "ä¸ĥåħ«": 4569,
      "ĠæĪĸèĢħæĺ¯": 4570,
      "ĠéĴ±": 4571,
      "æ²¡æľīäºº": 4572,
      "æīĵä¸ª": 4573,
      "çĽ¸äº²": 4574,
      "éĻĮ": 4575,
      "ĠæĪĳæĿ¥": 4576,
      "ä¸ŃåĽ½çļĦ": 4577,
      "èĳ£äºĭ": 4578,
      "åĪĽä¸ļ": 4579,
      "Ġä¹ĭåīį": 4580,
      "æľĢé«ĺ": 4581,
      "æ»ĭ": 4582,
      "çī¹åĪ«å¥½": 4583,
      "åĤ¬": 4584,
      "ĠåĮĹäº¬": 4585,
      "å°´å°¬": 4586,
      "é¡ºåĪ©": 4587,
      "æķĪæŀľ": 4588,
      "åı¬": 4589,
      "çļĦäºĨ": 4590,
      "åľ°äº§": 4591,
      "æİ¥çĿĢ": 4592,
      "åĭĩæ°Ķ": 4593,
      "æĮ¯": 4594,
      "è¡Įä¸įè¡Į": 4595,
      "é¥¼": 4596,
      "åĵŃäºĨ": 4597,
      "ä»įçĦ¶": 4598,
      "è¿Ļæ®µ": 4599,
      "å¥½å¥½çļĦ": 4600,
      "ä»Ģä¹Īæł·": 4601,
      "å°ıæľĭåıĭ": 4602,
      "æĤł": 4603,
      "Ġç®Ĺ": 4604,
      "ºçī²": 4605,
      "ä¹ı": 4606,
      "èĢį": 4607,
      "Ġçľ¼": 4608,
      "ä¸ĭçıŃ": 4609,
      "ä¼ļè®®": 4610,
      "Ġèµµ": 4611,
      "æĥ³èµ·": 4612,
      "ĠæĶ¶": 4613,
      "Ġè®©ä½ł": 4614,
      "å¯¹å¾ħ": 4615,
      "è§īå¾Ĺä½ł": 4616,
      "é£ĺ": 4617,
      "Ġä½łè·Ł": 4618,
      "éĤ£éĩĮ": 4619,
      "æĽ¹": 4620,
      "æıĲé«ĺ": 4621,
      "æĪĳèĥ½": 4622,
      "æµ®": 4623,
      "èĭ±åĽ½": 4624,
      "ĠæĪĳåıĪ": 4625,
      "åĵªäºĽ": 4626,
      "æŃ»äº¡": 4627,
      "æĪĸèĢħæĺ¯": 4628,
      "Ġå»º": 4629,
      "äºĮåįģåĽĽ": 4630,
      "ĠåŁº": 4631,
      "å®ŀéĻħä¸Ĭ": 4632,
      "ä½ľä¸ļ": 4633,
      "çħ®": 4634,
      "æĥł": 4635,
      "å¯¹èĩªå·±": 4636,
      "åıĳäºĨ": 4637,
      "å¦¹åŃĲ": 4638,
      "æĪĳè¿Ļä¸ª": 4639,
      "Ġé©¬ä¸Ĭ": 4640,
      "ä¸Ģæ®µæĹ¶éĹ´": 4641,
      "åı«ä»Ģä¹Ī": 4642,
      "Ġä½łä»¬ä¿©": 4643,
      "å°¿": 4644,
      "Ġä»ĬæĻļ": 4645,
      "ä¼ļåľ¨": 4646,
      "èĥ½éĩı": 4647,
      "æīĵäºĨ": 4648,
      "å®īæħ°": 4649,
      "äºĴèģĶ": 4650,
      "Ġæĺ¯ä½ł": 4651,
      "éļ¾è¿ĩ": 4652,
      "çİ²": 4653,
      "è´¼": 4654,
      "æĺİçĻ½åĲĹ": 4655,
      "æĶ¿æ²»": 4656,
      "æİªæĸ½": 4657,
      "åŃĶ": 4658,
      "è¯Ńè¨Ģ": 4659,
      "ĠåħĦå¼Ł": 4660,
      "çļĦæĸ°": 4661,
      "æ²¡äºĨ": 4662,
      "çľĭæĿ¥": 4663,
      "Ġç»Īäºİ": 4664,
      "ç½¢": 4665,
      "æľªçŁ¥": 4666,
      "èĤ¯å®ļæĺ¯": 4667,
      "åĲĮæł·": 4668,
      "æľĢå¤§": 4669,
      "åħģè®¸": 4670,
      "ä½łæĿ¥": 4671,
      "å°±è¿Ļæł·": 4672,
      "æĮºå¥½": 4673,
      "ä¸Ģåı£": 4674,
      "ä¸įè¶³": 4675,
      "åİķ": 4676,
      "å®¢æĪ·": 4677,
      "éĢŁåº¦": 4678,
      "æ²¡éĶĻ": 4679,
      "ä¸īåı·": 4680,
      "Ġå°±åľ¨": 4681,
      "Ġæĺ¯åĽłä¸º": 4682,
      "è¯¥æĢİä¹ĪåĬŀ": 4683,
      "ç¼ł": 4684,
      "æĪĳæĢİä¹Ī": 4685,
      "æĬĬå¥¹": 4686,
      "èĤĿ": 4687,
      "çļĦæĹ¥åŃĲ": 4688,
      "éĶ¦": 4689,
      "éĿŀè¦ģ": 4690,
      "å¹´äºº": 4691,
      "ĠåĪ«äºº": 4692,
      "ĠæĽ¾ç»ı": 4693,
      "åĪĨå¼Ģ": 4694,
      "æī¾ä¸įåĪ°": 4695,
      "çī©è´¨": 4696,
      "Ġå¤§å®¶å¥½": 4697,
      "æĭ¦": 4698,
      "Ġä½łç»ĻæĪĳ": 4699,
      "è¯¥æĢİä¹Ī": 4700,
      "çĶ·åıĭ": 4701,
      "åĲįçļĦ": 4702,
      "èĮ«": 4703,
      "ä¸ĢæĹ¥": 4704,
      "åıĺæĪĲäºĨ": 4705,
      "èĨĢ": 4706,
      "çĥ¤": 4707,
      "ä¸Ģå¤ľ": 4708,
      "åĨįæĿ¥": 4709,
      "åĽłç´ł": 4710,
      "éĿĴæĺ¥": 4711,
      "ĹäºĭæĴŃæĬ¥": 4712,
      "å¹»": 4713,
      "èĤ©": 4714,
      "åĮ»çĸĹ": 4715,
      "æī¶": 4716,
      "åĪĨåĪ«": 4717,
      "çĬ¹": 4718,
      "Ġä½łçŁ¥éģĵåĲĹ": 4719,
      "ä¸ĢçĤ¹çĤ¹": 4720,
      "å¤±æľĽ": 4721,
      "ä¼¤å¿ĥ": 4722,
      "æĬ±æĢ¨": 4723,
      "çļĦçĶ·äºº": 4724,
      "çĿ£": 4725,
      "åĲ¬ä¼Ĺ": 4726,
      "åħŃçĻ¾": 4727,
      "åħħæ»¡": 4728,
      "æĦ¤": 4729,
      "ä¸ºä»Ģä¹Īä¸į": 4730,
      "äº¤å¾Ģ": 4731,
      "æĥ³åĬŀæ³ķ": 4732,
      "è¡Įè¡Į": 4733,
      "ĠåĩĨ": 4734,
      "ä¾¿å®ľ": 4735,
      "åĪĽæĸ°": 4736,
      "ä¸Ģæĥ³": 4737,
      "åľ¨ä¸Ģä¸ª": 4738,
      "æķ²": 4739,
      "Ġä¸Ģä¼ļåĦ¿": 4740,
      "å¿«éĢĴ": 4741,
      "Ġæ²¡äºĭåĦ¿": 4742,
      "èµĦæºĲ": 4743,
      "èĮĥåĽ´": 4744,
      "ä¿ĿéĻ©": 4745,
      "ç¢į": 4746,
      "çľĭä½ł": 4747,
      "Ġä½łä½ł": 4748,
      "åĽŀäºĭåĦ¿": 4749,
      "ä¹°çļĦ": 4750,
      "å°Ŀè¯ķ": 4751,
      "æĦ§": 4752,
      "èĴĭ": 4753,
      "åĬłä¸Ĭ": 4754,
      "æĪĳæ²¡æľī": 4755,
      "ĠåĦ¿": 4756,
      "ç©¶ç«Ł": 4757,
      "èĤł": 4758,
      "è¿Ļä¸ªä¸ľè¥¿": 4759,
      "Ġå°±æĺ¯ä½ł": 4760,
      "Ġä¹Łå°±æĺ¯": 4761,
      "æ·±åľ³": 4762,
      "æľīçļĦæĹ¶åĢĻ": 4763,
      "Ġç²": 4764,
      "åı¯æĢķ": 4765,
      "è´ª": 4766,
      "åĺŁ": 4767,
      "æĦıåĳ³": 4768,
      "åĸ·": 4769,
      "èµĦæł¼": 4770,
      "Ġæĸĩ": 4771,
      "éĥ½ä¸įä¼ļ": 4772,
      "èĢģé¼ł": 4773,
      "ä»Ģä¹ĪäºĭåĦ¿": 4774,
      "åħ¬å®ī": 4775,
      "æŃ£ç¡®": 4776,
      "çļĦç©º": 4777,
      "ç¹ģ": 4778,
      "å¾Ĺèµ·": 4779,
      "å®ŀæĸ½": 4780,
      "çıįæĥľ": 4781,
      "ĠçĶ±äºİ": 4782,
      "çľĭä¸Ģä¸ĭ": 4783,
      "åı¸æľº": 4784,
      "çĤĴ": 4785,
      "éĹ¯": 4786,
      "åįģä¸ĩ": 4787,
      "åıĳçİ°äºĨ": 4788,
      "äº¿ç¾İåħĥ": 4789,
      "ä»ĸä»ĸ": 4790,
      "å¿ĥçģµ": 4791,
      "ä¾µ": 4792,
      "å½¢æĪĲ": 4793,
      "éĢĹ": 4794,
      "æĮ½": 4795,
      "ĠèĢģæĿ¿": 4796,
      "å»ºçŃĳ": 4797,
      "æ´ª": 4798,
      "æĪĺäºī": 4799,
      "åķ¦åķ¦": 4800,
      "äºĮéĽ¶ä¸Ģä¹Ŀå¹´": 4801,
      "äº²æĪļ": 4802,
      "åı£ç½©": 4803,
      "Ġå¼Ģå§ĭ": 4804,
      "å°±å°±": 4805,
      "æ¸£": 4806,
      "è§ģäºĨ": 4807,
      "å¹¿ä¸ľ": 4808,
      "æĪĳåĳĢ": 4809,
      "ĠæĪĳä¹Łä¸į": 4810,
      "ç»Ļä»ĸä»¬": 4811,
      "ä¸¤ä½į": 4812,
      "Ġç¨": 4813,
      "èĤĸ": 4814,
      "æ±Ĺ": 4815,
      "åĩĳ": 4816,
      "å®ļäºĨ": 4817,
      "Ġä¸Ģè¾¹": 4818,
      "çļĦç¼": 4819,
      "ĠæĪĳè¿ĺæĺ¯": 4820,
      "æĸ¹çļĦ": 4821,
      "æ³ķéĻ¢": 4822,
      "èµ¶å¿«": 4823,
      "æĶ¾å¿ĥåĲ§": 4824,
      "é¼ĵåĬ±": 4825,
      "ĠéĻ¤": 4826,
      "åĴĮå¤§å®¶": 4827,
      "åĩ¯": 4828,
      "å¹´ä»£": 4829,
      "å°±è¡Į": 4830,
      "çİ°åľ¨çļĦ": 4831,
      "æĪĳå·²ç»ı": 4832,
      "ĠæīĢæľī": 4833,
      "ç¾İå¥½çļĦ": 4834,
      "äºĮåįģäºĶ": 4835,
      "çŀ¬éĹ´": 4836,
      "å¹³å®ī": 4837,
      "äº¤ä»£": 4838,
      "åĦ¿äºĨ": 4839,
      "çīºçī²": 4840,
      "ä¹ĭä¸Ń": 4841,
      "Ġå¤ı": 4842,
      "ä¸įçĪ±": 4843,
      "Ġçı": 4844,
      "æĹħè¡Į": 4845,
      "ä½łåĳ¢": 4846,
      "ĠæĪĳåħĪ": 4847,
      "æĭĨ": 4848,
      "åĴĮå°ı": 4849,
      "Ġè¡ĮäºĨ": 4850,
      "é»ĺé»ĺ": 4851,
      "ä¸¸": 4852,
      "ĠæĪĳåĨį": 4853,
      "æīŃ": 4854,
      "Ġåľ°": 4855,
      "åħ«çĻ¾": 4856,
      "Ġå§ĳ": 4857,
      "å®¢åİħ": 4858,
      "ä¸įæĿ¥": 4859,
      "éĩĮå¤´": 4860,
      "å®ħ": 4861,
      "ç¬¨": 4862,
      "åıĪæĺ¯": 4863,
      "åİŁåĪĻ": 4864,
      "ç«ĭåĪ»": 4865,
      "ĠæķĻ": 4866,
      "è®¨è®º": 4867,
      "å²Ĺ": 4868,
      "çļĦä¸ĢåĪĩ": 4869,
      "ä»¶äºĭ": 4870,
      "æĺ¯æĺ¯": 4871,
      "Ġä½łå¾Ĺ": 4872,
      "Ġä½łåĨį": 4873,
      "ä¸Ģçīĩ": 4874,
      "æĮ¡": 4875,
      "çļĦè¿ĻäºĽ": 4876,
      "ç¾¡æħķ": 4877,
      "çļĦåİ»": 4878,
      "å¤§å®¶éĥ½": 4879,
      "ĠåĴ±ä¿©": 4880,
      "Ġæĥ³è¦ģ": 4881,
      "èģĬèģĬ": 4882,
      "åĲ¬äºĨ": 4883,
      "åħŃåı·": 4884,
      "çļĦæĺ¯ä»Ģä¹Ī": 4885,
      "æĺİæĺİ": 4886,
      "å¥¹ä»¬": 4887,
      "çŃīäºİ": 4888,
      "ä¸Ģçľ¼": 4889,
      "å°±æĺ¯åľ¨": 4890,
      "åĽ¢éĺŁ": 4891,
      "ä½łå¦Ī": 4892,
      "å°±æĬĬ": 4893,
      "åĬ«": 4894,
      "ĠåĪ°äºĨ": 4895,
      "åĽŀæĿ¥çļĦ": 4896,
      "åĺŀ": 4897,
      "é«ĺèĢĥ": 4898,
      "çľŁçļĦå¾Ī": 4899,
      "å´©": 4900,
      "ä¸ĭæĿ¥çļĦ": 4901,
      "Ġæ¯ıä¸ªäºº": 4902,
      "å®ļçļĦ": 4903,
      "è§ĤçĤ¹": 4904,
      "å¾ĭå¸Ī": 4905,
      "è¿ĩå¹´": 4906,
      "æĮĩæĮ¥": 4907,
      "åĩºçİ°äºĨ": 4908,
      "èĸĦ": 4909,
      "è½»æĿ¾": 4910,
      "æ¡Īä»¶": 4911,
      "å¥ī": 4912,
      "ĠæĪĳä»¬è¦ģ": 4913,
      "ä¸»æĦı": 4914,
      "Ġä¸Ģä¹Ŀ": 4915,
      "æ¦ľ": 4916,
      "äºĨåĺĽ": 4917,
      "åĽŀå¤į": 4918,
      "éĿ©åĳ½": 4919,
      "ä¸ĢæĹ¦": 4920,
      "åķ¥åĳ¢": 4921,
      "ĠéĢļè¿ĩ": 4922,
      "ä¸Ģå¤§": 4923,
      "åĵİåĳĢ": 4924,
      "æµªè´¹": 4925,
      "Ġä¸¤ä¸ª": 4926,
      "æĮ¨": 4927,
      "ĠæľĢç»Ī": 4928,
      "åĸĦèī¯": 4929,
      "Ġæį¢": 4930,
      "çļĦæŃĮ": 4931,
      "è¿Ļä¹Īåģļ": 4932,
      "æĹłè®º": 4933,
      "è§£çŃĶ": 4934,
      "éĻķè¥¿": 4935,
      "èĢ½": 4936,
      "éģ¥": 4937,
      "Ġè¿ĺè¦ģ": 4938,
      "æĿĢäºĨ": 4939,
      "éķ¿æľŁ": 4940,
      "åİķæīĢ": 4941,
      "Ġåħ±": 4942,
      "æ¡¶": 4943,
      "ä¸Ģè¯´": 4944,
      "ä¹Łè®¸": 4945,
      "ĠçĿ¡": 4946,
      "çĲ¢": 4947,
      "ä½ıåľ¨": 4948,
      "çĶ³è¯·": 4949,
      "èĢģäºº": 4950,
      "å§Ķåĳĺ": 4951,
      "å¢ŀéķ¿çĻ¾åĪĨä¹ĭ": 4952,
      "å¯Ħ": 4953,
      "åĩºåĵģ": 4954,
      "Ľä¸ĭ": 4955,
      "äººå£«": 4956,
      "ĠåıĹ": 4957,
      "è§īå¾ĹæĪĳ": 4958,
      "æ¶Īå¤±": 4959,
      "ä¹ĭä¸Ģ": 4960,
      "ä¹Łå¤ª": 4961,
      "å¿ĥçĸ¼": 4962,
      "åĽ½æ°ĳ": 4963,
      "Ġåįĥä¸ĩ": 4964,
      "æ¤į": 4965,
      "çŁ¥éģĵä½ł": 4966,
      "å§ĭç»Ī": 4967,
      "ä¸īä¸ªæľĪ": 4968,
      "æ¿ĢåĬ¨": 4969,
      "ä¸įæĪĲ": 4970,
      "ĠåĳĬè¯ī": 4971,
      "Ġæĳ": 4972,
      "ĠèĢĮä¸įæĺ¯": 4973,
      "åı¹": 4974,
      "åĽ¢éķ¿": 4975,
      "çĩķ": 4976,
      "æķ°åŃĹ": 4977,
      "è¿Ļæł·çļĦä¸Ģä¸ª": 4978,
      "å¾Īå¤ļçļĦ": 4979,
      "æĻºèĥ½": 4980,
      "å¾Ĺå¤ļ": 4981,
      "çŁ©": 4982,
      "çļĦçł": 4983,
      "åıĳçļĦ": 4984,
      "èĸª": 4985,
      "ĠæĪĳå¾Ī": 4986,
      "æĮ¤": 4987,
      "å¹¿åĳĬ": 4988,
      "æ¨ª": 4989,
      "ç¨įå¾®": 4990,
      "åĽ½å¤ĸ": 4991,
      "çŃīæĪĳ": 4992,
      "Ġæ²Ī": 4993,
      "åľ°çļĦ": 4994,
      "åı¨": 4995,
      "åħ¬å¸ĥ": 4996,
      "ä¹¦è®°": 4997,
      "å¯¼æĴŃ": 4998,
      "èĬ³": 4999,
      "Ġå¤«": 5000,
      "åĪ©çĽĬ": 5001,
      "Ġåīįä¸¤å¤©": 5002,
      "æĤŁ": 5003,
      "è¿Ļä»¶äºĭ": 5004,
      "Ġæľĭåıĭ": 5005,
      "åİ»çļĦ": 5006,
      "çĶ¨äºĨ": 5007,
      "æĹ©çĤ¹": 5008,
      "ĠåĪ°æĹ¶åĢĻ": 5009,
      "è¯Ħä»·": 5010,
      "è¿ĺæľīä¸Ģä¸ª": 5011,
      "ç¬ĳè¯Ŀ": 5012,
      "çļĦç³": 5013,
      "ç½ĳåıĭ": 5014,
      "ä¸ĢåĲį": 5015,
      "æĹ¶æľŁ": 5016,
      "Ġè¿Ļæł·çļĦ": 5017,
      "åīª": 5018,
      "ĠåĸĤ": 5019,
      "å¿ĥæĢģ": 5020,
      "åĪ¶åº¦": 5021,
      "å°ıå¦¹": 5022,
      "å®ŀéĻħ": 5023,
      "åĵ¥ä»¬åĦ¿": 5024,
      "èĦī": 5025,
      "Ġç½ĳ": 5026,
      "çľĭæĪĳ": 5027,
      "è·Łä»ĸä»¬": 5028,
      "ä½Ĩæĺ¯æĪĳ": 5029,
      "çļĦåĲįåŃĹ": 5030,
      "ĠçĦ¶èĢĮ": 5031,
      "è´¨éĩı": 5032,
      "è·¨": 5033,
      "é¢Ħè®¡": 5034,
      "æĦģ": 5035,
      "æĥħæĬ¥": 5036,
      "å®īéĿĻ": 5037,
      "äºĴèģĶç½ĳ": 5038,
      "éĤ»å±ħ": 5039,
      "èķ": 5040,
      "åŃĲä¸Ĭ": 5041,
      "Ġå«": 5042,
      "æľīéĻĲ": 5043,
      "æ²¡äºº": 5044,
      "ç¾ŀ": 5045,
      "ä¸įèĪĴæľį": 5046,
      "ä¸įåĥı": 5047,
      "åı¯æĢľ": 5048,
      "è¿ĩæĿ¥äºĨ": 5049,
      "åĩºåİ»äºĨ": 5050,
      "æıı": 5051,
      "æĺ¯å¯¹": 5052,
      "åľ¨ä¹İ": 5053,
      "é©¶": 5054,
      "éļıæĹ¶": 5055,
      "åįģäºĮçĤ¹": 5056,
      "Ġçĸ": 5057,
      "åĮĨ": 5058,
      "ä¸Ģä¸ĭåķĬ": 5059,
      "ĠæĪĳä»¬å°±": 5060,
      "çŁ³å¤´": 5061,
      "ä¸Ģè¶Ł": 5062,
      "Ġå¸Ĥ": 5063,
      "ĠæĢķ": 5064,
      "ĠæľªæĿ¥": 5065,
      "ä¸ªå°ıæĹ¶": 5066,
      "éļıçĿĢ": 5067,
      "¨è¯¢": 5068,
      "Ġç»Ļä½ł": 5069,
      "éĥ½è¯´": 5070,
      "åıĹä¸įäºĨ": 5071,
      "èĦ¸ä¸Ĭ": 5072,
      "åĨ·éĿĻ": 5073,
      "è¿ģ": 5074,
      "çļĩå¸Ŀ": 5075,
      "çİ©æĦıåĦ¿": 5076,
      "çļĦåīį": 5077,
      "çĪ½": 5078,
      "è£Ĥ": 5079,
      "æĳĬ": 5080,
      "ç²¾å½©": 5081,
      "åĩıèĤ¥": 5082,
      "è¿ĺåı¯ä»¥": 5083,
      "èĢĮè¨Ģ": 5084,
      "åĲ¬æĪĳ": 5085,
      "éĩįè¦ģçļĦæĺ¯": 5086,
      "åĵ¼": 5087,
      "æĺİæĺŁ": 5088,
      "è¿Ļä¸ªè¿Ļä¸ª": 5089,
      "ĠéĤ£ä»ĸ": 5090,
      "Ġå¦Ĥä»Ĭ": 5091,
      "æĢİä¹Īä¼ļ": 5092,
      "åĪºæ¿Ģ": 5093,
      "ä¸²": 5094,
      "è§ĦåĪĴ": 5095,
      "åģ·åģ·": 5096,
      "ĠæĪĳåĴĮ": 5097,
      "Ġä¸ĢèĪ¬": 5098,
      "çļĦçĪ±": 5099,
      "åĳ¢å°±æĺ¯": 5100,
      "æİı": 5101,
      "åĥ": 5102,
      "ä¸Ĭæ¬¡": 5103,
      "æ²¡åĬŀæ³ķ": 5104,
      "äº²å¯Ĩ": 5105,
      "æ·ĺ": 5106,
      "ç²Ĺ": 5107,
      "Ġå¤´": 5108,
      "çĹħä¾ĭ": 5109,
      "æĿĢäºº": 5110,
      "ä¾Ħ": 5111,
      "éĤ£å°±": 5112,
      "æĢİä¹Īèĥ½": 5113,
      "æĻºæħ§": 5114,
      "ä»Ģä¹ĪæĦıæĢĿ": 5115,
      "å¦¥": 5116,
      "è¢Ń": 5117,
      "ĠæŃ»": 5118,
      "ä¸įåı¯ä»¥": 5119,
      "çŃ¹": 5120,
      "å¹´çļĦæĹ¶éĹ´": 5121,
      "ç¿¼": 5122,
      "çĲ¢ç£¨": 5123,
      "æľīæĦıæĢĿ": 5124,
      "æį¡": 5125,
      "æľ¬äºĭ": 5126,
      "è´¾": 5127,
      "åŀĭçļĦ": 5128,
      "æĪĳç»Ļä½ł": 5129,
      "å¢¨": 5130,
      "Ġçº¢": 5131,
      "Ġå±±": 5132,
      "æĪĳåĲĹ": 5133,
      "è¿Ļä»½": 5134,
      "å§Ĩ": 5135,
      "å¥³å£«": 5136,
      "è¯Ŀé¢ĺ": 5137,
      "æľ¬ä¹¦": 5138,
      "Ġç«ĭ": 5139,
      "åħĶåŃĲ": 5140,
      "åĳ½è¿Ĳ": 5141,
      "ĠçĪ¶æ¯į": 5142,
      "æŃ¤åĪ»": 5143,
      "éĢģä½ł": 5144,
      "Ġä½łæĬĬ": 5145,
      "æĺ¯éĿŀå¸¸": 5146,
      "Ġä½łåıĪ": 5147,
      "åĬ¨ä½ľ": 5148,
      "è§Ĥä¼Ĺæľĭåıĭ": 5149,
      "ĠæĪĳæĦŁè§ī": 5150,
      "éĿ¢ä¸´": 5151,
      "åĲ¬è¯´": 5152,
      "éĴĪå¯¹": 5153,
      "Ġæļ": 5154,
      "æ´Ľ": 5155,
      "æĿĲæĸĻ": 5156,
      "è¸ıå®ŀ": 5157,
      "åıįèĢĮ": 5158,
      "çĽ¸å¯¹": 5159,
      "èİ¹": 5160,
      "èĪįä¸įå¾Ĺ": 5161,
      "åĬ¨æīĭ": 5162,
      "å®īåħ¨æĦŁ": 5163,
      "éĤĵ": 5164,
      "æĺ¯ä»Ģä¹Īåĳ¢": 5165,
      "ä¼ª": 5166,
      "çľī": 5167,
      "è¿Ļä¸ªæĹ¶åĢĻ": 5168,
      "å¿ĥä¸Ń": 5169,
      "éļ¾ä»¥": 5170,
      "åłµ": 5171,
      "ĠéĤ£æĹ¶åĢĻ": 5172,
      "ĠæĦ¿": 5173,
      "ä»ĬæĻļ": 5174,
      "Ġæ°¸": 5175,
      "å¸¸å¸¸": 5176,
      "æľºåĻ¨": 5177,
      "çĬ¯ç½ª": 5178,
      "æľīéĹ®é¢ĺ": 5179,
      "åľ¨å¤ĸ": 5180,
      "äºĶåįĥ": 5181,
      "æĿ¿åĿĹ": 5182,
      "æ£Ģæµĭ": 5183,
      "Ġå·¥ä½ľ": 5184,
      "ĠæĪĸè®¸": 5185,
      "éĻĽä¸ĭ": 5186,
      "å°±å¼Ģå§ĭ": 5187,
      "Ġåľ¨è¿ĻéĩĮ": 5188,
      "è¿Ļåı¥è¯Ŀ": 5189,
      "Ġä»ĸä¸į": 5190,
      "Ġä½łéĥ½": 5191,
      "æ¶²": 5192,
      "çķĻåľ¨": 5193,
      "Ġä¸įä»ħ": 5194,
      "åĲ¬è¿ĩ": 5195,
      "çľ¼æ³ª": 5196,
      "æ°ĳæĹı": 5197,
      "Ġå®ŀéĻħä¸Ĭ": 5198,
      "æīįçŁ¥éģĵ": 5199,
      "å¼ķèµ·": 5200,
      "è¿Ļä¹Īå¤ļå¹´": 5201,
      "æļĤæĹ¶": 5202,
      "ĠæĪĳæĪĳæĪĳ": 5203,
      "è·ŁæĤ¨": 5204,
      "æĺŁæĺŁ": 5205,
      "Ġèĥ½ä¸įèĥ½": 5206,
      "Ġæĺ¥": 5207,
      "ä¹Łèĥ½": 5208,
      "Ġä¸įè¡Į": 5209,
      "ä¸ĩåħĥ": 5210,
      "Ġå¾Īå¤ļäºº": 5211,
      "ä¸»æĮģ": 5212,
      "çĲĨæĥ³": 5213,
      "æĺ¯ä»İ": 5214,
      "å®ł": 5215,
      "å¿ħé¡»è¦ģ": 5216,
      "ĠæĿ¥æĿ¥æĿ¥": 5217,
      "å®¶ä¼Ļ": 5218,
      "å¹²äºĨ": 5219,
      "æĸ¹éĿ¢çļĦ": 5220,
      "éĩĮè¾¹åĦ¿": 5221,
      "ç»Łè®¡": 5222,
      "Ġæĩ": 5223,
      "åĴ¨è¯¢": 5224,
      "éĤ®": 5225,
      "Ġä½łä¸įè¦ģ": 5226,
      "å¤§å§Ĳ": 5227,
      "æĽ¼": 5228,
      "éħ·": 5229,
      "çĪ¸çĪ¸å¦Īå¦Ī": 5230,
      "èĶ¡": 5231,
      "æĬļ": 5232,
      "ä¸Ģè·¯": 5233,
      "åĳĪ": 5234,
      "æĪĲç«ĭ": 5235,
      "Ġå¤§æ¦Ĥ": 5236,
      "ĠèĢģåħ¬": 5237,
      "åĭ¾": 5238,
      "Ġåħ¬åı¸": 5239,
      "å§¿": 5240,
      "åħ¨éĥ½": 5241,
      "åĪ©æ¶¦": 5242,
      "Ġå®¶éĩĮ": 5243,
      "ä¸įæĢķ": 5244,
      "åĪ«åĪ«": 5245,
      "è±«": 5246,
      "æĭĽåĳ¼": 5247,
      "éģ¿åħį": 5248,
      "ä½łåħĪ": 5249,
      "ä»Ģä¹Īä¸ľè¥¿": 5250,
      "çİ°è±¡": 5251,
      "éĿ¢ä¸Ĭ": 5252,
      "å¯¸": 5253,
      "åŃĹåĦ¿": 5254,
      "èĽĩ": 5255,
      "æĺ¯è¿Ļä¸ª": 5256,
      "çĽĹ": 5257,
      "åįģä¸ī": 5258,
      "å¡Ķ": 5259,
      "æķĮäºº": 5260,
      "ä¸¤æ¬¡": 5261,
      "å©ļç¤¼": 5262,
      "æ¼ł": 5263,
      "Ġä»¥åıĬ": 5264,
      "å®ŀåľ¨æĺ¯": 5265,
      "ĠæĪĳä¸ĢçĽ´": 5266,
      "è¿ĩä½ł": 5267,
      "æ°ı": 5268,
      "Ġå¥½å¥½å¥½": 5269,
      "äºĨæĪĳä»¬": 5270,
      "ç»ĻæĪĳçļĦ": 5271,
      "çĶ·åŃĲ": 5272,
      "è·ĳåĪ°": 5273,
      "éŁ³é¢ĳ": 5274,
      "ĠçĽ´æİ¥": 5275,
      "çļĦåĺĽ": 5276,
      "å¯¹ä½łçļĦ": 5277,
      "è¾ī": 5278,
      "éĩĩè®¿": 5279,
      "ĠæĪĳä¸įä¼ļ": 5280,
      "ä¸»å¸Ń": 5281,
      "æ³Ħ": 5282,
      "çĶ¨åķĬ": 5283,
      "æĻĴ": 5284,
      "åħ«åı·": 5285,
      "èŁ": 5286,
      "Ġä¸ĢåĪĩ": 5287,
      "ä¸ĥåı·": 5288,
      "ä¸Ģé¡¿": 5289,
      "Ġåķ¥": 5290,
      "Ġå¢": 5291,
      "ä¸ªå°ı": 5292,
      "æĦıåĳ³çĿĢ": 5293,
      "å¥Ī": 5294,
      "çľŁçĽ¸": 5295,
      "åĲĪåĲĮ": 5296,
      "å½¢è±¡": 5297,
      "äºīåıĸ": 5298,
      "æ³³": 5299,
      "å®Įä¹ĭåĲİ": 5300,
      "å¤Ħäºİ": 5301,
      "ĠåĩĨå¤ĩ": 5302,
      "åĳ¢æĪĳ": 5303,
      "æľīæķĪ": 5304,
      "çĶµåŃĲ": 5305,
      "å¸®ä»ĸ": 5306,
      "Ġå¨ĺ": 5307,
      "çºµ": 5308,
      "ĠçĶ·äºº": 5309,
      "åĨ¤": 5310,
      "è¿ĺæĮº": 5311,
      "çŁ¿": 5312,
      "åľ°åİ»": 5313,
      "åĽŀåİ»äºĨ": 5314,
      "æħİ": 5315,
      "ĠæĪĳä¸Ģ": 5316,
      "åĩºåı£": 5317,
      "Ńåĸľ": 5318,
      "ĠæĪĳè®°å¾Ĺ": 5319,
      "Ġå¹¸": 5320,
      "æĦŁè§īåĪ°": 5321,
      "ä¸įéľĢè¦ģ": 5322,
      "ç»ĵæŀĦ": 5323,
      "éĻ¢éķ¿": 5324,
      "æīĩ": 5325,
      "Ġä¹Łåı¯ä»¥": 5326,
      "ĠåĪĽ": 5327,
      "Ġåįİ": 5328,
      "è´º": 5329,
      "åĩŃä»Ģä¹Ī": 5330,
      "åģļè¿ĩ": 5331,
      "ç«¹": 5332,
      "éĢģåĪ°": 5333,
      "Ġç¡®å®ŀ": 5334,
      "Ġè·Łä½ł": 5335,
      "Ġä½łä»¥ä¸º": 5336,
      "éľį": 5337,
      "Ġå¥½çļĦ": 5338,
      "Ġä»¥ä¸Ĭ": 5339,
      "Ġå©ļ": 5340,
      "å¦ĥ": 5341,
      "å¾Īå°ĳ": 5342,
      "éļ¾éģĵ": 5343,
      "è¯´æ³ķ": 5344,
      "æ²¡æľīåĬŀæ³ķ": 5345,
      "Ġä¸įå¦Ĥ": 5346,
      "ä¸ŃåĽ½äºº": 5347,
      "éĽĨä¸Ń": 5348,
      "è¿Ļé¦ĸæŃĮ": 5349,
      "ç½²": 5350,
      "éĿŀå¾Ĺ": 5351,
      "æ£®æŀĹ": 5352,
      "Ġæľīä¸Ģæ¬¡": 5353,
      "çľ¼åīį": 5354,
      "è¹¦": 5355,
      "æ²¡éĹ®é¢ĺ": 5356,
      "å¨ĩ": 5357,
      "ç¢°åĪ°": 5358,
      "å¹²ä»Ģä¹ĪåĳĢ": 5359,
      "éĢĲæ¸Ĳ": 5360,
      "ä»°": 5361,
      "æĺ¯ä½łçļĦ": 5362,
      "Ġçŀ": 5363,
      "åĨĮ": 5364,
      "çģ«è½¦": 5365,
      "Ġè°¢è°¢ä½ł": 5366,
      "Ġæ±Ł": 5367,
      "ĠçĤ¹": 5368,
      "æŀĹåĵ¥": 5369,
      "è§ĦçŁ©": 5370,
      "æ§½": 5371,
      "ĠåĲ´": 5372,
      "ä¹Ŀåı·": 5373,
      "Ġç»§ç»Ń": 5374,
      "Ġä½łè¿Ļæĺ¯": 5375,
      "Ġåıĺ": 5376,
      "æĲģ": 5377,
      "çİĭåŃĲ": 5378,
      "ç±»çļĦ": 5379,
      "çĶŁæ´»ä¸Ń": 5380,
      "ĠæĪĳåı¯": 5381,
      "å°±æĺ¯æĪĳä»¬": 5382,
      "å¯¼æ¼Ķ": 5383,
      "ä¸įå®ļ": 5384,
      "ĠçķĻ": 5385,
      "æŃ»çļĦ": 5386,
      "éĩĩåıĸ": 5387,
      "èªĵ": 5388,
      "ĠçĶ±": 5389,
      "å°±æĥ³": 5390,
      "çº¹": 5391,
      "åħ¬å¹³": 5392,
      "ĠåĨħ": 5393,
      "Ġåħ³äºİ": 5394,
      "ĠæĬ¥åĳĬ": 5395,
      "çļĦå¯¹": 5396,
      "Ġå¿ħé¡»": 5397,
      "åĩºåıĳ": 5398,
      "æĺ¯æĥ³": 5399,
      "è·ĥ": 5400,
      "ç¨Ģ": 5401,
      "æŃĩ": 5402,
      "æĬķåħ¥": 5403,
      "éĨĴäºĨ": 5404,
      "æĪĳåķĬ": 5405,
      "åĪł": 5406,
      "ä¸ĭä¸Ģ": 5407,
      "åĩºçĶŁ": 5408,
      "ä¾§": 5409,
      "çĬ¶åĨµ": 5410,
      "å¤ļä¹Ī": 5411,
      "çļĦç¤¼": 5412,
      "ä¸įä¿¡": 5413,
      "çľĭèµ·æĿ¥": 5414,
      "åŃ¦çļĦ": 5415,
      "åħ¬éĩĮ": 5416,
      "æľŁèĬĤçĽ®": 5417,
      "Ġå¿ĥéĩĮ": 5418,
      "è¿Ļä¸ªäºĭæĥħ": 5419,
      "çŃīå¾ħ": 5420,
      "æĸĩåŃĹ": 5421,
      "åĬłåħ¥": 5422,
      "åĭĩæķ¢": 5423,
      "è¿ĺçľŁ": 5424,
      "æĪĳåĳ¢": 5425,
      "åŃ¦éĻ¢": 5426,
      "åĽĽåı·": 5427,
      "æľºåľº": 5428,
      "è°ģåĳĢ": 5429,
      "ç¾İçļĦ": 5430,
      "ä¸įåģľ": 5431,
      "æŀĿ": 5432,
      "ä¿¡å¿ĥ": 5433,
      "èĤ¡ç¥¨": 5434,
      "ĠæĪĳä¹Łæĺ¯": 5435,
      "åĽŀäºĨ": 5436,
      "æĪĲå°±": 5437,
      "çĩĥ": 5438,
      "è¿ħéĢŁ": 5439,
      "é«ĺä¸Ń": 5440,
      "æİĮæı¡": 5441,
      "ä»ĸä¹Ł": 5442,
      "å§ľ": 5443,
      "è¸¢": 5444,
      "æĨĭ": 5445,
      "ĠæĪĳä»¬æĺ¯": 5446,
      "Ġä¸ĢæĹ¦": 5447,
      "åĨĽçļĦ": 5448,
      "çĮĽ": 5449,
      "åĩıå°ĳ": 5450,
      "Ġä¸ľ": 5451,
      "åľ¨æĦı": 5452,
      "å¥½åĲ¬": 5453,
      "Ġåħī": 5454,
      "åĽŀåºĶ": 5455,
      "Ġåľ¨è¿Ļä¸ª": 5456,
      "ç¼Ŀ": 5457,
      "ç´¯äºĨ": 5458,
      "æŃ¦æ±ī": 5459,
      "å¤§éĥ¨åĪĨ": 5460,
      "åħ¬å¼Ģ": 5461,
      "è½»æĺĵ": 5462,
      "Ġç®Ģ": 5463,
      "ĠæĪªèĩ³": 5464,
      "äºĨè§£æĽ´å¤ļ": 5465,
      "è¿ŀç»Ń": 5466,
      "é»Ħéĩĳ": 5467,
      "ä¼ļä¸Ĭ": 5468,
      "æĬ¼": 5469,
      "è·Łä½łä»¬": 5470,
      "æĻķ": 5471,
      "æĪĳåı¯ä»¥": 5472,
      "åĳ¨åĽ´": 5473,
      "éĻ¶": 5474,
      "åĽŀåİ»åĲ§": 5475,
      "èĢ½è¯¯": 5476,
      "å¤¹": 5477,
      "èµ°çļĦ": 5478,
      "é¥¶": 5479,
      "èħĲ": 5480,
      "ĠéĤ£ä½łå°±": 5481,
      "Ġä¹Łæ²¡æľī": 5482,
      "çº¿ç´¢": 5483,
      "Ġå¤©å¤©": 5484,
      "äº¤ç»Ļ": 5485,
      "è¾©": 5486,
      "æ³ī": 5487,
      "Ġä¸įçĦ¶": 5488,
      "ä½łè·Ł": 5489,
      "ä¹ĭæīĢä»¥": 5490,
      "ä¸Ģèµ·åİ»": 5491,
      "çĶ·åŃ©åŃĲ": 5492,
      "ĠæĶ¾å¿ĥ": 5493,
      "Ġè¥¿": 5494,
      "æĪĳä¸įçŁ¥éģĵ": 5495,
      "åĿ¡": 5496,
      "ĠåĴĭ": 5497,
      "èĤ¾": 5498,
      "è¿ĺæĺ¯è¦ģ": 5499,
      "åķ¥çļĦ": 5500,
      "Ġèµ°åĲ§": 5501,
      "ä¾ł": 5502,
      "å®ŀéªĮ": 5503,
      "äºĶä¸ª": 5504,
      "çļĦçĥŃ": 5505,
      "æĹłæķ°": 5506,
      "ä»»ä½ķäºº": 5507,
      "çĽĪ": 5508,
      "éĤ£ä¸Ģ": 5509,
      "æĪĲæľ¬": 5510,
      "Ġä¿Ŀ": 5511,
      "è¯´åĲ§": 5512,
      "è·ª": 5513,
      "é¢ľèī²": 5514,
      "æĺĮ": 5515,
      "èĢħçļĦ": 5516,
      "é¥°": 5517,
      "±ä¹Ĳ": 5518,
      "è¿ĻæĿ¡": 5519,
      "çĲ³": 5520,
      "æµ©": 5521,
      "æĶ¶åĪ°": 5522,
      "Ġæ¡": 5523,
      "Ġè¿ĳ": 5524,
      "ĠæĪĳèĩªå·±": 5525,
      "æ´¥": 5526,
      "èĻ¹": 5527,
      "è½»è½»": 5528,
      "Ġèĥ¡": 5529,
      "åķĨä¸ļ": 5530,
      "åĨĻçļĦ": 5531,
      "ç¬¦åĲĪ": 5532,
      "ĠéĿĴ": 5533,
      "æİ¥è¿ĳ": 5534,
      "å°½å¿«": 5535,
      "éĴ¥": 5536,
      "å°ĳå¹´": 5537,
      "éĥ½å¾Ĺ": 5538,
      "çľĭè¿ĩ": 5539,
      "çĶŁçĹħ": 5540,
      "Ġå°±è¿Ļæł·": 5541,
      "çķħ": 5542,
      "åĵĩ": 5543,
      "è¿ĽæŃ¥": 5544,
      "ĠçľĭçĿĢ": 5545,
      "çļĦçħ§çīĩ": 5546,
      "åĬ¨äºĨ": 5547,
      "åģĩçļĦ": 5548,
      "ĠæĪĳå¾Ĺ": 5549,
      "ä»ĸä¼ļ": 5550,
      "æİ©": 5551,
      "å¤ªå¤ļäºĨ": 5552,
      "çĸ²": 5553,
      "æ¼ı": 5554,
      "ç»´æĮģ": 5555,
      "ä¸Ģä¸ªäººçļĦ": 5556,
      "çĽĨ": 5557,
      "æĪĳä»¬æĺ¯": 5558,
      "åĭĴ": 5559,
      "Ġè¡¨": 5560,
      "Ġç»ıå¸¸": 5561,
      "å¾Īå¥½çļĦ": 5562,
      "çĽ¸éģĩ": 5563,
      "Ġå·®": 5564,
      "ç«ŀäºī": 5565,
      "ä¹Łå°±æĺ¯": 5566,
      "çļĦæĹ¶åĢĻæĪĳ": 5567,
      "Ġæ¯į": 5568,
      "æľīåķ¥": 5569,
      "éĤ£ä¸ªäºº": 5570,
      "çļĦæĹ¶åĢĻå°±": 5571,
      "å¥´": 5572,
      "å¤ļå¤§äºĨ": 5573,
      "æ¡ĪåŃĲ": 5574,
      "¾ä¼ļ": 5575,
      "Ġä»ĸå°±æĺ¯": 5576,
      "åıĬæĹ¶": 5577,
      "Ġæ°´": 5578,
      "Ġå°¤åħ¶æĺ¯": 5579,
      "ä¿Ĭ": 5580,
      "ĠæĪĳä»¬ä¿©": 5581,
      "å±Ģéķ¿": 5582,
      "åĮĻ": 5583,
      "å¤´ä¸Ĭ": 5584,
      "ä¸ĥçĻ¾": 5585,
      "æģĲæĥ§": 5586,
      "ä½łè§īå¾Ĺ": 5587,
      "ä¹Łä¸įçŁ¥éģĵ": 5588,
      "é£İæł¼": 5589,
      "éĺŁä¼į": 5590,
      "èħ¹": 5591,
      "ä¼´ä¾£": 5592,
      "å½ĵæĪĲ": 5593,
      "å¹³å¸¸": 5594,
      "ä¸įåĲĮæĦı": 5595,
      "åĨľæĿĳ": 5596,
      "éĴ¥åĮĻ": 5597,
      "æĪĺæĸĹ": 5598,
      "å¯¹æĸ¹çļĦ": 5599,
      "å¥½åĲĥ": 5600,
      "ç¾½": 5601,
      "çĹħäºº": 5602,
      "æ¾³": 5603,
      "å°ĺ": 5604,
      "æĥ³è¯´": 5605,
      "ĠåıįèĢĮ": 5606,
      "å¿ĥäºĨ": 5607,
      "Ġä½łä¸ºä»Ģä¹Ī": 5608,
      "ĠçĥŃ": 5609,
      "åŃ©åŃĲä»¬": 5610,
      "èĪĮ": 5611,
      "ĠæīĢä»¥æĪĳä»¬": 5612,
      "å»·": 5613,
      "åįĹäº¬": 5614,
      "ä¸Ĭè¯¾": 5615,
      "ä¸Ģä¸ªéĹ®é¢ĺ": 5616,
      "åº¦çļĦ": 5617,
      "èĲĿ": 5618,
      "Ġæ´»": 5619,
      "ä¸įæĺİçĻ½": 5620,
      "ä»Ģä¹Īäºĭ": 5621,
      "æĥ³åİ»": 5622,
      "Ġä½Ĩä»ĸ": 5623,
      "æ¸¡": 5624,
      "é¹ı": 5625,
      "ç³Ĭæ¶Ĥ": 5626,
      "Ġæħ¢æħ¢": 5627,
      "¦Ĩ": 5628,
      "æĺ¯åķĬ": 5629,
      "Ġå½ĵåĪĿ": 5630,
      "Ġä»İæĿ¥": 5631,
      "å¸¦æĿ¥çļĦ": 5632,
      "éªĦ": 5633,
      "ç¬ĳçĿĢ": 5634,
      "æĪĳåĨį": 5635,
      "å¯¹è¿Ļä¸ª": 5636,
      "ĠåĲ¦": 5637,
      "æ¬£èµı": 5638,
      "ĠåĽłæŃ¤": 5639,
      "æĺ¯æ²¡æľī": 5640,
      "åĲĳä½ł": 5641,
      "èİ²": 5642,
      "è½°": 5643,
      "Ġä¹Łå°±æĺ¯è¯´": 5644,
      "ä¸ĩåĿĹéĴ±": 5645,
      "ä¼ĻåŃĲ": 5646,
      "åŁ¹åħ»": 5647,
      "ä¸ĢåĪĨ": 5648,
      "å¾Ĺå¥½": 5649,
      "ä¹ĭåĨħ": 5650,
      "åįĬå¤ľ": 5651,
      "åıĳè¡Į": 5652,
      "æĺı": 5653,
      "ĠæĪĳæīį": 5654,
      "æĹ©çŁ¥éģĵ": 5655,
      "ĠåĶ¯": 5656,
      "å¤ļå¤ļ": 5657,
      "äºĮåı·": 5658,
      "æīĵæī°": 5659,
      "ĠåĶĲ": 5660,
      "åħ½": 5661,
      "Ġä½łæ²¡": 5662,
      "Ġä¸Ģèµ·": 5663,
      "ä¸°å¯Į": 5664,
      "Ġå½ĵå¹´": 5665,
      "åıĮæĸ¹": 5666,
      "ĠçĨ": 5667,
      "è¿ĩåĪĨ": 5668,
      "éĺŁçļĦ": 5669,
      "åłª": 5670,
      "æįŁå¤±": 5671,
      "éĢ¢": 5672,
      "å°ıåŃ¦": 5673,
      "äºĨåĩł": 5674,
      "æĿĥåĪ©": 5675,
      "æĭ¿åĪ°": 5676,
      "è´¢å¯Į": 5677,
      "Ġè¿Ļå°±": 5678,
      "æĪĺçķ¥": 5679,
      "ç¡®è¯Ĭ": 5680,
      "çĤ¹éĴ±": 5681,
      "å°±æĺ¯åĽłä¸º": 5682,
      "æ£ĭ": 5683,
      "çļĦæĥħåĨµä¸ĭ": 5684,
      "æľīä¸ĢçĤ¹": 5685,
      "å±Ĭ": 5686,
      "æµĳ": 5687,
      "è¢ģ": 5688,
      "Ġè¿Ļä¸ªæĹ¶åĢĻ": 5689,
      "çĥŃçĤ¹": 5690,
      "åıªä¼ļ": 5691,
      "çļĦçĥ": 5692,
      "ç»ĵåĲĪ": 5693,
      "å¾Ģåīį": 5694,
      "åĮºåŁŁ": 5695,
      "çĸĹæĦĪ": 5696,
      "Ġæ¸ħ": 5697,
      "è¿Ļå°±æĺ¯": 5698,
      "å®ŀåĬĽ": 5699,
      "ä¸ĩä¸Ģ": 5700,
      "åįĹæĸ¹éĥ½å¸ĤæĬ¥æĴŃæĬ¥": 5701,
      "Ġç¼": 5702,
      "çľĭä»ĸ": 5703,
      "è®¾å¤ĩ": 5704,
      "è¯´è¦ģ": 5705,
      "çľĭå¾Ĺ": 5706,
      "ä¸įè¦ģåĨį": 5707,
      "ç»¼åĲĪ": 5708,
      "è¾±": 5709,
      "ĠåŁºæľ¬": 5710,
      "Ġè¦ģä¹Ī": 5711,
      "ĠçĪ¹": 5712,
      "åŃ¦å®¶": 5713,
      "è½¦ä¸Ĭ": 5714,
      "Ġåįķ": 5715,
      "ç¬¬äºĮå¤©": 5716,
      "äºĨèµ·æĿ¥": 5717,
      "Ġçħ§": 5718,
      "å¤ªå¥½äºĨ": 5719,
      "å¡ĳ": 5720,
      "åĨįè§ģåĲ§": 5721,
      "éģĩè§ģæľªçŁ¥": 5722,
      "çļĦç¦": 5723,
      "æ®¿ä¸ĭ": 5724,
      "éģĩè§ģæľªçŁ¥çļĦèĩªå·±": 5725,
      "åįģåħŃ": 5726,
      "ĠéļıçĿĢ": 5727,
      "ä¸Ģäºº": 5728,
      "ä¸ºæŃ¢": 5729,
      "æĪĳçľŁçļĦ": 5730,
      "å·¡": 5731,
      "è¿Ļæł·åŃĲ": 5732,
      "äºĮéĽ¶éĽ¶": 5733,
      "Ġå²": 5734,
      "ä¹ŁæĮº": 5735,
      "åĦ¿ç«¥": 5736,
      "éĻ·åħ¥": 5737,
      "Ġçļĩä¸Ĭ": 5738,
      "æĬĸ": 5739,
      "å²ģæķ°": 5740,
      "çļĦæľĢ": 5741,
      "å°ıå§ĳå¨ĺ": 5742,
      "å¾Īéĩįè¦ģ": 5743,
      "è½©": 5744,
      "ĠåįĬ": 5745,
      "æķ°éĩı": 5746,
      "åľ¨åĵªéĩĮ": 5747,
      "è¾ľ": 5748,
      "èĥģ": 5749,
      "åĮºåĪ«": 5750,
      "åĳ¼åĲ¸": 5751,
      "çĴĥ": 5752,
      "ĠæĮīçħ§": 5753,
      "æīĵå·¥": 5754,
      "ä»Ĭå¤©æĻļä¸Ĭ": 5755,
      "æľīå¤ļå°ĳ": 5756,
      "çĤ¹åķĬ": 5757,
      "å²³": 5758,
      "è¿ĻäºĽä¸ľè¥¿": 5759,
      "ĠåĪļåĪļ": 5760,
      "Ġç¬¬äºĮå¤©": 5761,
      "ĠæĪĳåıĳçİ°": 5762,
      "åĪ©çİĩ": 5763,
      "å¡«": 5764,
      "ä¸ĬåįĪ": 5765,
      "æĬĵä½ı": 5766,
      "æīĳ": 5767,
      "è¿ĩæĪĳ": 5768,
      "é½¿": 5769,
      "ĠæĹ¥æľ¬": 5770,
      "è¿Ļä¸Ģæ¬¡": 5771,
      "Ġçł": 5772,
      "ä¸ºæĪĳ": 5773,
      "è¿Ļä¸ªæł·åŃĲ": 5774,
      "åĲ§åķĬ": 5775,
      "åī©ä¸ĭ": 5776,
      "ĠæĪĳåĪļæīį": 5777,
      "å¯¿": 5778,
      "æĭ¨": 5779,
      "ç®ĹäºĨ": 5780,
      "Ġæķ°": 5781,
      "èººåľ¨": 5782,
      "æīĽ": 5783,
      "ä¸¤åı¥": 5784,
      "ĠæīĢæľīçļĦ": 5785,
      "çĦ¦èĻĳ": 5786,
      "Ġè½¬": 5787,
      "æĪĳåħĪ": 5788,
      "çĽĲ": 5789,
      "Ġå¤§äºº": 5790,
      "è¦Ĩ": 5791,
      "åĪ°æĹ¶åĢĻ": 5792,
      "æľĪä¸īåįģ": 5793,
      "æ°ĶçļĦ": 5794,
      "ä¹ħäºĨ": 5795,
      "éĺ²æİ§": 5796,
      "ĠæĦı": 5797,
      "ĠåĢĴ": 5798,
      "æĦī": 5799,
      "å¤§çĪ·": 5800,
      "é¼»åŃĲ": 5801,
      "æĳĺ": 5802,
      "èĽĻ": 5803,
      "æĬ±çĿĢ": 5804,
      "æĺŁçĲĥ": 5805,
      "Ġæķħ": 5806,
      "é³": 5807,
      "æĺĨ": 5808,
      "åĳµ": 5809,
      "æīĵåĩ»": 5810,
      "èİ±": 5811,
      "æĪĳä»¬è¿Ļä¸ª": 5812,
      "é©»": 5813,
      "è´§å¸ģ": 5814,
      "å°±å¾Ī": 5815,
      "ĠçĹ": 5816,
      "èºģ": 5817,
      "æĭ¿åĩº": 5818,
      "ä½łå¥½ä½łå¥½": 5819,
      "æĪĳå®¶": 5820,
      "æ²¡éĴ±": 5821,
      "åįģåĽĽ": 5822,
      "èĥŀ": 5823,
      "èĲ¨": 5824,
      "Ġæ¬¢è¿İæĿ¥åĪ°": 5825,
      "ĠæģĲ": 5826,
      "ä½łè¿Ļä¹Ī": 5827,
      "å°±å¾Ĺ": 5828,
      "å¯¹åĲĹ": 5829,
      "å¤ŁäºĨ": 5830,
      "Ġç«Ł": 5831,
      "Ġæł¹æľ¬": 5832,
      "äººæīį": 5833,
      "å¿Į": 5834,
      "åĬłçıŃ": 5835,
      "è§ĦåĪĻ": 5836,
      "Ġæĺ¯ä¸įæĺ¯åķĬ": 5837,
      "Ġèĩ³äºİ": 5838,
      "éĤª": 5839,
      "èµ¤": 5840,
      "åĩºçİ°åľ¨": 5841,
      "å¦®": 5842,
      "ä¸¤çĤ¹": 5843,
      "æ±ª": 5844,
      "è§£æĶ¾": 5845,
      "ä½ĵä¼ļ": 5846,
      "ç¥¥": 5847,
      "ä»ħä»ħ": 5848,
      "ĠåŃĲ": 5849,
      "Ġå¯¹äºĨ": 5850,
      "å¤§å®¶å¥½": 5851,
      "æĥĬåĸľ": 5852,
      "ĠåĿļ": 5853,
      "Ġå¹³æĹ¶": 5854,
      "ä½ĳ": 5855,
      "ĠæĪĳåĪļ": 5856,
      "åį§": 5857,
      "æĦ¿æľĽ": 5858,
      "æºĥ": 5859,
      "å±ģèĤ¡": 5860,
      "å°ıåĮº": 5861,
      "éĺģ": 5862,
      "è®¡ç®Ĺ": 5863,
      "èĳĽ": 5864,
      "ĠåĲ¦åĪĻ": 5865,
      "å¦Ĥæŀľä½ł": 5866,
      "äººæ°ĳå¸ģ": 5867,
      "éĤ£éĤ£": 5868,
      "Ġç¤": 5869,
      "å¼ºçļĦ": 5870,
      "æī¿è¯º": 5871,
      "å°±åı¯ä»¥äºĨ": 5872,
      "èĥľåĪ©": 5873,
      "ĠæĪĳä¸įèĥ½": 5874,
      "Ġè¿Ļä¸ĢåĪ»": 5875,
      "æĮ£éĴ±": 5876,
      "ĠæĪĳæĢķ": 5877,
      "åķĬè¿Ļ": 5878,
      "æĻĥ": 5879,
      "ĠæĪĳä¹Łä¸įçŁ¥éģĵ": 5880,
      "Ġä½¿": 5881,
      "ä½łç»ĻæĪĳ": 5882,
      "æĽ´æĸ°": 5883,
      "åı£æ°Ķ": 5884,
      "ĠéĿ¢å¯¹": 5885,
      "Ġä¸įæĥ³": 5886,
      "çļ®èĤ¤": 5887,
      "çļĦä½įç½®": 5888,
      "ĠæĪĳçľŁ": 5889,
      "å·¥ä½ľçļĦ": 5890,
      "Ġå¸¸": 5891,
      "åĳ³åĦ¿": 5892,
      "Ġè°¢": 5893,
      "èĩªèº«": 5894,
      "å¥³åıĭ": 5895,
      "æīĢè¯´çļĦ": 5896,
      "æī¾ä»ĸ": 5897,
      "é¸¡èĽĭ": 5898,
      "æľºåħ³": 5899,
      "æŁ³": 5900,
      "ä¸įåĲĪéĢĤ": 5901,
      "Ġä¸ĩä¸Ģ": 5902,
      "Ġä½łåĪ°åºķ": 5903,
      "Ġä»ĸçİ°åľ¨": 5904,
      "æĻļäºĨ": 5905,
      "é¾Ł": 5906,
      "é£Łåĵģ": 5907,
      "æĢİä¹Īæł·äºĨ": 5908,
      "Ġç©¿": 5909,
      "Ġä¸ĢçĤ¹": 5910,
      "Ġèİ«": 5911,
      "Ġç»ıè¿ĩ": 5912,
      "ä½łæĪĳ": 5913,
      "è®²æķħäºĭ": 5914,
      "ä¸¤ä¸ªæľĪ": 5915,
      "å¼ºè°ĥ": 5916,
      "ĠæĪĳå°±æĥ³": 5917,
      "åħ·æľī": 5918,
      "ĠéĢģ": 5919,
      "Ġä»ĸè¿ĺ": 5920,
      "æµħ": 5921,
      "Ġäººä»¬": 5922,
      "éī": 5923,
      "çŁ¥éģĵæĪĳ": 5924,
      "ĠçĦ¶åĲİå°±æĺ¯": 5925,
      "å¢ĵ": 5926,
      "éī´": 5927,
      "æ©": 5928,
      "ĠåĤ": 5929,
      "æĺ¯çľŁçļĦ": 5930,
      "éĻµ": 5931,
      "å§Ĳå¦¹": 5932,
      "æķĻç»ĥ": 5933,
      "Ġç»ĵå©ļ": 5934,
      "çļĦæĦŁæĥħ": 5935,
      "ä¸ŃåįĪ": 5936,
      "çİ°ä»£": 5937,
      "æ²¡æľīä»»ä½ķ": 5938,
      "ä¸ļç»©": 5939,
      "æķ´å¤©": 5940,
      "Ġå¤§å®¶éĥ½": 5941,
      "æ¸ħæ¥ļäºĨ": 5942,
      "Ġè¿ĻäºĭåĦ¿": 5943,
      "èĲ§": 5944,
      "è¯´çļĦè¯Ŀ": 5945,
      "Ġä½łä¿©": 5946,
      "è¡ĮåķĬ": 5947,
      "æŁ´": 5948,
      "ä¸ĭæĿ¥äºĨ": 5949,
      "ä¿Ŀéļľ": 5950,
      "Ġçľĭè§ģ": 5951,
      "ä¸ĭéĽ¨": 5952,
      "æĦıçļĦ": 5953,
      "Ġä¸Ģèµ·æĿ¥": 5954,
      "Ġç¬¬ä¸Ģ": 5955,
      "ĠæĩĤ": 5956,
      "ĠéĹ®": 5957,
      "ä»ĸèĩªå·±": 5958,
      "ç³»åĪĹ": 5959,
      "ç®ĢçĽ´": 5960,
      "çĸ¾çĹħ": 5961,
      "çļĦèĬĤçĽ®": 5962,
      "è¿Ļè¯Ŀ": 5963,
      "è¿Ļæł·çļĦäºº": 5964,
      "Ġå®ĭ": 5965,
      "Ġå¾®": 5966,
      "è¡¨æĥħ": 5967,
      "å²©": 5968,
      "Ġå¯¼": 5969,
      "å¸®åĪ°": 5970,
      "å¨ĺå¨ĺ": 5971,
      "çİ¯èĬĤ": 5972,
      "ĠåĽŀå¤´": 5973,
      "ĠæŃ£å¥½": 5974,
      "æľīçĿĢ": 5975,
      "åĴª": 5976,
      "ä¼ĺåĬ¿": 5977,
      "éĻĮçĶŁ": 5978,
      "å¾Ħ": 5979,
      "å¥½äºº": 5980,
      "è¿Ļä¸ªå¥³äºº": 5981,
      "å¯¹æĪĳä»¬": 5982,
      "èĻ½": 5983,
      "æĶ¶èİ·": 5984,
      "åįĥä¸ĩåĪ«": 5985,
      "åİ¨æĪ¿": 5986,
      "æĿ¥åħ³æ³¨": 5987,
      "çĶŁçī©": 5988,
      "Ġåľ¨æĪĳ": 5989,
      "ä¸¥æł¼": 5990,
      "Ġé»ĳ": 5991,
      "çļĦå®¶": 5992,
      "åĳ¢å°±": 5993,
      "åı«ä½ł": 5994,
      "åŃĻåŃĲ": 5995,
      "èªī": 5996,
      "äºĮå¹´": 5997,
      "é©´": 5998,
      "èĬ±äºĨ": 5999,
      "æĶ¯ä»ĺ": 6000,
      "Ġå¦Ĥæŀľä½łæĥ³": 6001,
      "è¯ŀ": 6002,
      "äºĭåĦ¿äºĨ": 6003,
      "è°¨": 6004,
      "ä¼ļçļĦ": 6005,
      "æĬ¹": 6006,
      "Ġæ»¡": 6007,
      "æ¸´æľĽ": 6008,
      "èĭį": 6009,
      "ĠæĪĳæĬĬ": 6010,
      "ĠåıĮ": 6011,
      "éĶĭ": 6012,
      "å·¥ä¸ļ": 6013,
      "å«Įçĸĳäºº": 6014,
      "æĪĳè·Łä½ł": 6015,
      "è¯´åĳĢ": 6016,
      "æ¯Ķä¾ĭ": 6017,
      "å¼ºå¤§": 6018,
      "èĥĮæĻ¯": 6019,
      "ä¸¢äºĨ": 6020,
      "ĠæĺİçĻ½åĲĹ": 6021,
      "åĪ°å®¶": 6022,
      "åĬ¨åĬĽ": 6023,
      "åĽłä¸ºä½ł": 6024,
      "ĠæĶ¹": 6025,
      "æĪĳä»¬çİ°åľ¨": 6026,
      "è¿Ļä¹Īä¸Ģä¸ª": 6027,
      "æĶ¾æĿ¾": 6028,
      "å¤ĸåįĸ": 6029,
      "åĳ¢ä½ł": 6030,
      "Ġå¥¶": 6031,
      "æįī": 6032,
      "åĪĨäº«åĪ°è¿ĻéĩĮ": 6033,
      "Ġä»ĸè¯´æĪĳ": 6034,
      "æĴķ": 6035,
      "ç¨¿": 6036,
      "æĸĩä»¶": 6037,
      "æł¸å¿ĥ": 6038,
      "çļĦå¤©": 6039,
      "æĺ¯å¤§": 6040,
      "ä¹ĭåĲİåķĬ": 6041,
      "ä¸įè¯¥": 6042,
      "éĥ½è¢«": 6043,
      "åľºä¸Ĭ": 6044,
      "Ġå¥½åĲ§": 6045,
      "Ġæ®": 6046,
      "çĽ¼": 6047,
      "ĠæĪĳä»¬åľ¨": 6048,
      "åħ¨éĿ¢": 6049,
      "æ°´æŀľ": 6050,
      "ĠéŁ©": 6051,
      "æĻ¶": 6052,
      "çļĦç¨": 6053,
      "å¹²æ´»": 6054,
      "æĢĿç»´": 6055,
      "å½¢å¼ı": 6056,
      "æµªæ¼«": 6057,
      "è¯Ī": 6058,
      "æ´Ĵ": 6059,
      "ĠæĪĳä»¬åı¯ä»¥": 6060,
      "å¦Ĥä»Ĭ": 6061,
      "æĦıæĢĿæĺ¯": 6062,
      "å®£ä¼ł": 6063,
      "æ²¿": 6064,
      "åĮĸçļĦ": 6065,
      "è¿Ļä¸ĢçĤ¹": 6066,
      "ä¸ºä»ĸ": 6067,
      "çĽ¸äºĴ": 6068,
      "çªģçł´": 6069,
      "åģĩæľŁ": 6070,
      "æģĴ": 6071,
      "è¿ĺæľīä»Ģä¹Ī": 6072,
      "ĠéĤ£ä¸ªæĹ¶åĢĻ": 6073,
      "åĲĬ": 6074,
      "ĠåĩŃ": 6075,
      "åĹĳ": 6076,
      "èı²èı²": 6077,
      "è°¦": 6078,
      "æīĢåľ¨": 6079,
      "æįĲ": 6080,
      "ç²īä¸Ŀ": 6081,
      "Ġåħ·": 6082,
      "æ±¡": 6083,
      "æ¶µ": 6084,
      "ĠæĪĳè¿Ļä¸ª": 6085,
      "çĶĦ": 6086,
      "çĤ¹åĩ»": 6087,
      "éħ±": 6088,
      "èĬĤå¥ı": 6089,
      "Ġå®ŀåľ¨": 6090,
      "æĢİä¹ĪåĬŀåĳ¢": 6091,
      "æĥ³åķĬ": 6092,
      "åıĳè¨Ģ": 6093,
      "æĶ»åĩ»": 6094,
      "åľ¨äºİ": 6095,
      "Ġä¸Ģå¤©": 6096,
      "æĥħåĨµä¸ĭ": 6097,
      "éĻĲåĪ¶": 6098,
      "è¿ĩç¨ĭä¸Ń": 6099,
      "æĺ¯è¿Ļæł·çļĦ": 6100,
      "Ġæ¼": 6101,
      "Ġè½¦": 6102,
      "ä½łå¾Ĺ": 6103,
      "æĬ«": 6104,
      "å¿ĥæĢĿ": 6105,
      "åħ¬äº¤": 6106,
      "ĠåŃĻ": 6107,
      "æŃª": 6108,
      "éĥ¨çļĦ": 6109,
      "éĢīæīĭ": 6110,
      "èĤ¡ä¸ľ": 6111,
      "Ġæ²¡æľīäºº": 6112,
      "æĿ¥å¾Ĺ": 6113,
      "åıĳæĮ¥": 6114,
      "ä¸»è¦ģæĺ¯": 6115,
      "çĥ«": 6116,
      "æıį": 6117,
      "çŀħ": 6118,
      "å¥½åĩł": 6119,
      "è¿ĩæĿ¥çļĦ": 6120,
      "å¥³åŃĲ": 6121,
      "Ġä½łä¸įèĥ½": 6122,
      "è´¡": 6123,
      "ä¸īå²ģ": 6124,
      "ĠæľīçļĦæĹ¶åĢĻ": 6125,
      "å·¥åİĤ": 6126,
      "Ġå±ħ": 6127,
      "æĪĳåĳĬè¯īä½ł": 6128,
      "Ġåı¶": 6129,
      "å·¥åħ·": 6130,
      "å®¢äºº": 6131,
      "å¤ľä¸į": 6132,
      "Ġä½łè¿ĺæĺ¯": 6133,
      "åħ¬åħ±": 6134,
      "éĩįå¤§": 6135,
      "ç©¿çĿĢ": 6136,
      "Ġèº«": 6137,
      "ä¸ĢéĿ¢": 6138,
      "æľīæľī": 6139,
      "åĨ»": 6140,
      "Ġå¤±": 6141,
      "æ´»å¾Ĺ": 6142,
      "æĭ¥æĬ±": 6143,
      "åľ¨æĪĳçļĦ": 6144,
      "æĭ³": 6145,
      "å¼ĢéĹ¨": 6146,
      "å¼Ģå±ķ": 6147,
      "è¶ĭ": 6148,
      "ç¬ĳäºĨ": 6149,
      "çĻĮ": 6150,
      "åĲĦèĩª": 6151,
      "åł¡": 6152,
      "è´Ńä¹°": 6153,
      "çļĦä»ĸ": 6154,
      "åĪ°æľĢåĲİ": 6155,
      "èĤ¿": 6156,
      "æĪĳè·Łä½łè¯´": 6157,
      "ĠæĪĸèĢħè¯´": 6158,
      "æķ°æį®æĺ¾ç¤º": 6159,
      "Ġä½łæľīæ²¡æľī": 6160,
      "èĤĥ": 6161,
      "éĿĴå¹´": 6162,
      "æ±ĩæĬ¥": 6163,
      "åĪ°ä»ĸ": 6164,
      "éĥ½ä¸įçŁ¥éģĵ": 6165,
      "åĦ¿åĳ¢": 6166,
      "åĽĽæľĪ": 6167,
      "ä¸Ģä¸ĭåŃĲ": 6168,
      "ç´«": 6169,
      "çĸı": 6170,
      "çĭĲçĭ¸": 6171,
      "èĳ£äºĭéķ¿": 6172,
      "åĺīå®¾": 6173,
      "è¿Ļä¸ªäºĭåĦ¿": 6174,
      "æĪĳä¹Łä¸į": 6175,
      "å®Įæķ´": 6176,
      "Ġä¹Łä¸įæĺ¯": 6177,
      "ä¸įåºĶè¯¥": 6178,
      "éĻįä½İ": 6179,
      "çĬ¹è±«": 6180,
      "æĪĳä¸įæĺ¯": 6181,
      "äºĨå¤§": 6182,
      "ä»ĸè¦ģ": 6183,
      "éªļ": 6184,
      "æ²¡äºĭåĲ§": 6185,
      "®åŃĲ": 6186,
      "Ķç©¶": 6187,
      "è¿Ļäºĭ": 6188,
      "åħ¨ä¸ĸçķĮ": 6189,
      "åĲĪçĲĨ": 6190,
      "åĳ¨æľ«": 6191,
      "ä¸įåĲĥ": 6192,
      "å¼Ģåıĳ": 6193,
      "æĹ¥åĨĽ": 6194,
      "æŁ±": 6195,
      "çļĦéĤ£äºĽ": 6196,
      "å¯¹å¥¹": 6197,
      "åľ°ä¸ĭ": 6198,
      "æĹłèģĬ": 6199,
      "è£Ļ": 6200,
      "è¿ĲèĲ¥": 6201,
      "å°¾å·´": 6202,
      "è´¸æĺĵ": 6203,
      "Ġé£İ": 6204,
      "ĠåĽłä¸ºæĪĳä»¬": 6205,
      "æĪ¿åľ°äº§": 6206,
      "éº¦åħĭ": 6207,
      "å¤ķ": 6208,
      "èģĺ": 6209,
      "éģĩåĪ°äºĨ": 6210,
      "Ġæ¶Ī": 6211,
      "ä¸ĢçļĦ": 6212,
      "ĠæľīçĤ¹": 6213,
      "è¾¹çļĦ": 6214,
      "Ġå¸ĪçĪ¶": 6215,
      "Ġæķ´ä¸ª": 6216,
      "ä½łåĨį": 6217,
      "è¯±": 6218,
      "æ»¡äºĨ": 6219,
      "åĨ²åĬ¨": 6220,
      "æĺ¯åı¯ä»¥": 6221,
      "çļĦçĮ": 6222,
      "æ·±åĪ»": 6223,
      "æľīä¸Ģæ¬¡": 6224,
      "Ġçĥ": 6225,
      "Ġè¿Ļä¹Łæĺ¯": 6226,
      "æĤ¦": 6227,
      "ĠæīĢä»¥åĳ¢": 6228,
      "åĵģçīĮ": 6229,
      "æĪĳè¿ĺæĺ¯": 6230,
      "Ġè¿ĻæĹ¶åĢĻ": 6231,
      "æĶĴ": 6232,
      "ĠåĹ¯çĦ¶åĲİ": 6233,
      "è¿Ļä¸ĢåĪĩ": 6234,
      "çļĦå¿ĥçģµ": 6235,
      "å¨ģèĥģ": 6236,
      "æľīè¿ĩ": 6237,
      "å°±æĺ¯ä¸ª": 6238,
      "èĢģå®ŀ": 6239,
      "Ġæŀľ": 6240,
      "Ġå°½ç®¡": 6241,
      "çĮ´åŃĲ": 6242,
      "çļĦå½±åĵį": 6243,
      "ä¸ĢåĽŀ": 6244,
      "äºĨéĤ£": 6245,
      "å¤§å¸Ī": 6246,
      "è¿ĩæĹ¥åŃĲ": 6247,
      "éĽ¶ä¸Ģå¤ľ": 6248,
      "æ¯«æĹł": 6249,
      "Ġäº²çĪ±çļĦ": 6250,
      "ĠæĤ": 6251,
      "Ġä»ĸåıĪ": 6252,
      "ä¾ĭåŃĲ": 6253,
      "ä½łè¯´çļĦ": 6254,
      "è¿Ļå¼ł": 6255,
      "ĠæĪĳè¦ģæĺ¯": 6256,
      "è®¤åı¯": 6257,
      "åĪĽä½ľ": 6258,
      "å¹¼åĦ¿": 6259,
      "Ġä½łåºĶè¯¥": 6260,
      "çĻ¾åĪĨä¹ĭäºĮåįģ": 6261,
      "æĸ°å®ĺèĤºçĤİ": 6262,
      "éģµ": 6263,
      "å¹³è¡¡": 6264,
      "Ġå§Ĳå§Ĳ": 6265,
      "ä¸įç®Ĺ": 6266,
      "åľ¨å¤§": 6267,
      "åĪ°ä¸Ģä¸ª": 6268,
      "éĥ½ä¸įæĺ¯": 6269,
      "åģļä¸įåĪ°": 6270,
      "å¿įä¸įä½ı": 6271,
      "åĩ¶æīĭ": 6272,
      "åįľ": 6273,
      "èµĭ": 6274,
      "åħŃæľĪ": 6275,
      "èī³": 6276,
      "ç®ĢåįķçļĦ": 6277,
      "éĤ¦": 6278,
      "ç½Ĳ": 6279,
      "æī¿åıĹ": 6280,
      "çĹĩçĬ¶": 6281,
      "åĩĮæĻ¨": 6282,
      "ä¸įå¤§": 6283,
      "è¿Ļä¸įæĺ¯": 6284,
      "æľīè¿Ļä¸ª": 6285,
      "ç®Ń": 6286,
      "Ġå¤Ħ": 6287,
      "ä½ĵç³»": 6288,
      "åıįå¯¹": 6289,
      "å¥½å¤Ħ": 6290,
      "æĤ¬": 6291,
      "ĠæĴ": 6292,
      "åķª": 6293,
      "ä¸ºéļ¾": 6294,
      "äºĭçļĦ": 6295,
      "è®²è¯Ŀ": 6296,
      "ä¸«å¤´": 6297,
      "è¿Ī": 6298,
      "Ġè¿ĺèĥ½": 6299,
      "çĶ©": 6300,
      "èĢģå¤ªå¤ª": 6301,
      "åĸĿäºĨ": 6302,
      "èħ»": 6303,
      "Ġæ³ķ": 6304,
      "å°±åĪ«": 6305,
      "äºĶæľĪ": 6306,
      "çľ¼ç¥ŀ": 6307,
      "å´ĩ": 6308,
      "ĠçĲĨ": 6309,
      "éªĦåĤ²": 6310,
      "ä¸ĢæĿ¯": 6311,
      "æĦŁåĨĴ": 6312,
      "Ġéĺ¿å§¨": 6313,
      "åľ¨å¤ĸéĿ¢": 6314,
      "éģĵè·¯": 6315,
      "ä¸ĢåĲ¬": 6316,
      "å¥ĳ": 6317,
      "ä½ĵçļĦ": 6318,
      "Ġå¥³äºº": 6319,
      "ä¸Ģé¦ĸ": 6320,
      "è§īå¾Ĺä»ĸ": 6321,
      "åĨħåľ¨": 6322,
      "Ġä½ľèĢħ": 6323,
      "çĿģ": 6324,
      "ç»ĻäºĪ": 6325,
      "ä¹ĿçĻ¾": 6326,
      "éĽ¶åĲİ": 6327,
      "åĮĸå¦Ĩ": 6328,
      "åı°æ¹¾": 6329,
      "åĢŁåı£": 6330,
      "å°±è¢«": 6331,
      "åįģä¹Ŀ": 6332,
      "äº²çĪ±çļĦ": 6333,
      "æ¼Ķåĩº": 6334,
      "åĩºå·®": 6335,
      "ĠåĽŀæĿ¥": 6336,
      "åĴĮä½łä¸Ģèµ·": 6337,
      "éŁ³é¢ĳæĹ©é¤Ĳ": 6338,
      "è®²çļĦ": 6339,
      "ç»ĥä¹ł": 6340,
      "æ¤ħ": 6341,
      "äºĨä¹ĭåĲİ": 6342,
      "æĹĭ": 6343,
      "å¤ļä¸ª": 6344,
      "åĪ°å¤Ħ": 6345,
      "å°ıè¯´": 6346,
      "æİ¢ç´¢": 6347,
      "çļĦè·¯": 6348,
      "åĲŀ": 6349,
      "ä»Ģä¹Īéĥ½ä¸į": 6350,
      "Ġå°±è¿Ļä¹Ī": 6351,
      "çĥŃéĹ¹": 6352,
      "çļĦåı¯èĥ½": 6353,
      "ä¸ºåķ¥": 6354,
      "çļĦåıĳå±ķ": 6355,
      "ä»ĸåİ»": 6356,
      "æĸ°é²ľ": 6357,
      "ä¸ĥæľĪ": 6358,
      "Ġå¾Ĳ": 6359,
      "æ£µ": 6360,
      "åĺ´å·´": 6361,
      "å·¨å¤§çļĦ": 6362,
      "ĠéĻĨ": 6363,
      "è¾°": 6364,
      "æĢİä¹Īåģļ": 6365,
      "Ġæ²¡åħ³ç³»": 6366,
      "é»İ": 6367,
      "åıĺäºĨ": 6368,
      "äºĨä¸Ģä¼ļåĦ¿": 6369,
      "èĢĥéªĮ": 6370,
      "å¤±åİ»äºĨ": 6371,
      "åįķçº¯": 6372,
      "ä¸ĢåĪ»åĨįè§ģåĲ§": 6373,
      "çļĦçģ«": 6374,
      "ä½łåı¯": 6375,
      "ä¸įæ¸ħ": 6376,
      "åħ¼": 6377,
      "ĠæĪĳåĵ¥": 6378,
      "å¾¡": 6379,
      "åĸľæ¬¢ä»ĸ": 6380,
      "èĦĨå¼±": 6381,
      "ä¼ļå®¢åİħ": 6382,
      "åĨ¯": 6383,
      "Ġåľ¨è¿Ļ": 6384,
      "èĭ±è¯Ń": 6385,
      "åį±æľº": 6386,
      "ĠåĽ½å®¶": 6387,
      "Ġä½łæ²¡æľī": 6388,
      "å¹½": 6389,
      "çĿĢä¸Ģ": 6390,
      "å¤ıå¤©": 6391,
      "çĶ·åŃ©åĦ¿": 6392,
      "ĠçľŁæŃ£": 6393,
      "æĿĨ": 6394,
      "è´±": 6395,
      "ä½łä»¬å®¶": 6396,
      "èľĤ": 6397,
      "è·Łå¤§å®¶åĪĨäº«": 6398,
      "æµĵ": 6399,
      "åĿĲåĿĲ": 6400,
      "Ġæīĭæľº": 6401,
      "èĢģçĻ¾å§ĵ": 6402,
      "Ġä¸įåı¯èĥ½": 6403,
      "åħ¨åĬĽ": 6404,
      "Ġä»Ģä¹ĪæĹ¶åĢĻ": 6405,
      "éĿłè°±": 6406,
      "çĽĳæİ§": 6407,
      "ç»ıåİĨè¿ĩ": 6408,
      "Ġæ°¸è¿ľ": 6409,
      "éĢ»": 6410,
      "å¥³äººçļĦ": 6411,
      "é¡µ": 6412,
      "Ġå°±æĺ¯ä»ĸ": 6413,
      "Ġæľīä¸ª": 6414,
      "è¯´ä¸Ģä¸ĭ": 6415,
      "åĪ°å¤§": 6416,
      "å®ĥæĺ¯": 6417,
      "åĲĦä¸ª": 6418,
      "æĮĩå¯¼": 6419,
      "æĺ¾å¾Ĺ": 6420,
      "äºĨè§£åĪ°": 6421,
      "è´µçļĦ": 6422,
      "Ġç¿": 6423,
      "çĤ¹çĤ¹": 6424,
      "æ¥ł": 6425,
      "æĦ£": 6426,
      "ä¸īåĽĽ": 6427,
      "Ġå°ıå¿ĥ": 6428,
      "å°±ä¸įä¼ļ": 6429,
      "éĻªæĪĳ": 6430,
      "ĠçĪ¶äº²": 6431,
      "Ġè¥¿å®ī": 6432,
      "ä¸įå°ıå¿ĥ": 6433,
      "åħ¬å±ı": 6434,
      "æ¬§æ´²": 6435,
      "å¤§äºĭ": 6436,
      "é¢Ī": 6437,
      "éĩįçļĦ": 6438,
      "æ¼Ĥäº®çļĦ": 6439,
      "Ġåĭ": 6440,
      "çī¹çĤ¹": 6441,
      "ç¬¬äºĮä¸ª": 6442,
      "æľīæľºä¼ļ": 6443,
      "å¾ª": 6444,
      "è§īå¾Ĺå¾Ī": 6445,
      "Ġå°±æĺ¯åĽłä¸º": 6446,
      "å¤ĸçļĦ": 6447,
      "çĻ½å¤©": 6448,
      "åĨħçļĦ": 6449,
      "åįļå£«": 6450,
      "åºŁè¯Ŀ": 6451,
      "çļĦä¸»é¢ĺ": 6452,
      "è¦ģä¸įè¦ģ": 6453,
      "éķ¿äºĨ": 6454,
      "çĶ·å¥³": 6455,
      "Ġåħ¨åĽ½": 6456,
      "åĨ¬å¤©": 6457,
      "æĥ³äºĨ": 6458,
      "èµ°è¿Ľ": 6459,
      "ç¯ĩæĸĩç«ł": 6460,
      "äºĨè§£æĽ´å¤ļè´¢ç»ıèµĦè®¯": 6461,
      "æĥħçļĦ": 6462,
      "åĲ¬çļĦ": 6463,
      "çĲĨè®º": 6464,
      "ç»ĵæĿŁäºĨ": 6465,
      "è¿ĩäºİ": 6466,
      "éĶ»": 6467,
      "éĹ®é¢ĺçļĦ": 6468,
      "èī°éļ¾": 6469,
      "æĿ¥æī¾": 6470,
      "çĪ±äºº": 6471,
      "Ġå¿«çĤ¹": 6472,
      "ä½łåĲĹ": 6473,
      "å¼¥": 6474,
      "åī²": 6475,
      "å²Ń": 6476,
      "èĢģå¤§": 6477,
      "éĢļå¸¸": 6478,
      "ĠåĨĻ": 6479,
      "åĶ¤éĨĴ": 6480,
      "æĿŃ": 6481,
      "å¤´çļĦ": 6482,
      "ĠæīĢè°ĵ": 6483,
      "æ¶¨åģľ": 6484,
      "çļĨ": 6485,
      "ä¸ºä½ķ": 6486,
      "è¾ħ": 6487,
      "æīĭä¸Ĭ": 6488,
      "æĹ¥å¸¸": 6489,
      "ä½ľä¸ºä¸Ģä¸ª": 6490,
      "è¿Ļä¸¤": 6491,
      "åİ»åİ»": 6492,
      "ĠæĪĳä»¬å®¶": 6493,
      "æŃ£æĺ¯": 6494,
      "ĠæĪĲä¸º": 6495,
      "ä¸ºäºº": 6496,
      "Ġå°±è¯´": 6497,
      "ä»¤äºº": 6498,
      "èĹ©": 6499,
      "åľ¨éĤ£éĩĮ": 6500,
      "ĠæĪĳéĹ®ä½ł": 6501,
      "å°±è·Ł": 6502,
      "åįģåĩł": 6503,
      "æī¹è¯Ħ": 6504,
      "ĠåĦ¿åŃĲ": 6505,
      "æľīè¶£": 6506,
      "åĽŀäºĭåķĬ": 6507,
      "Ġå¦Ĥæŀľè¯´": 6508,
      "æľīæĽ´å¤ļçļĦ": 6509,
      "åħľ": 6510,
      "æĭĲ": 6511,
      "çļĦçª": 6512,
      "åķĨåĵģ": 6513,
      "é¹°": 6514,
      "å®´": 6515,
      "å°ıå°ı": 6516,
      "ç¾İå¥³": 6517,
      "çĻ¾åĪĨä¹ĭéĽ¶çĤ¹": 6518,
      "å°½éĩı": 6519,
      "å¤§å£°": 6520,
      "åĲ¬ä½łçļĦ": 6521,
      "éĵĥ": 6522,
      "ä¸ªåĦ¿": 6523,
      "æĪĲè¿Ļæł·": 6524,
      "æºª": 6525,
      "æĬķèµĦèĢħ": 6526,
      "åİ»ä¸ĸ": 6527,
      "éĩįè§Ĩ": 6528,
      "éĩįåºĨ": 6529,
      "ä½ĵèĤ²": 6530,
      "çĶ»éĿ¢": 6531,
      "æĪĳå¾Ī": 6532,
      "æĻĭ": 6533,
      "ĠçĦ¶åĲİä½ł": 6534,
      "ä»Ĭå¤©æĺ¯": 6535,
      "äººçĶŁçļĦ": 6536,
      "ĠéĤ£ä¸į": 6537,
      "åĲ¬çĿĢ": 6538,
      "å°ĳäºĨ": 6539,
      "æĺ¯ä¸įæĺ¯åķĬ": 6540,
      "è¿Ľè¡ĮäºĨ": 6541,
      "åįıè®®": 6542,
      "çļĦè½¦": 6543,
      "ä¸įçĽ¸ä¿¡": 6544,
      "æĬĬæı¡": 6545,
      "çĪ±çļĦäºº": 6546,
      "äºĨä¸Ģåı¥": 6547,
      "æĶ¶çĽĬ": 6548,
      "éĵľ": 6549,
      "åĻľ": 6550,
      "çļĦçĹĽ": 6551,
      "Ġç½Ĺ": 6552,
      "æĪĳä»¬éĥ½": 6553,
      "æİ¥åĪ°": 6554,
      "åĴĭçļĦ": 6555,
      "Ġèĩªä»İ": 6556,
      "éļĶå£ģ": 6557,
      "å°±æĺ¯è¿Ļæł·": 6558,
      "ĠæĪĳä»¬éĥ½": 6559,
      "çĪ±ä»ĸ": 6560,
      "å§Ĳå¤«": 6561,
      "éĢģç»Ļ": 6562,
      "çĪ¶æ¯įçļĦ": 6563,
      "åħįè´¹": 6564,
      "ä½łä¸įæĺ¯": 6565,
      "åİ»çľĭçľĭ": 6566,
      "åĮ¹": 6567,
      "Ġåħ³éĶ®": 6568,
      "å¯¨": 6569,
      "ä»Ģä¹Īäºĭæĥħ": 6570,
      "å½ĵå¤©": 6571,
      "ä¸¤äºº": 6572,
      "å¹²çļĦ": 6573,
      "åĪ¶ä½ľ": 6574,
      "å·¾": 6575,
      "èĩªç§ģ": 6576,
      "åıĳåĩº": 6577,
      "å£³": 6578,
      "æ´Ĺæ¾¡": 6579,
      "è¯¦": 6580,
      "åĲĥçĤ¹": 6581,
      "ä»ĸä»¬å®¶": 6582,
      "å¹³åĿĩ": 6583,
      "å²ģæľĪ": 6584,
      "æľªå¿ħ": 6585,
      "ä»¿ä½Ľ": 6586,
      "Ġå¯¹æĸ¹": 6587,
      "è¾ŀèģĮ": 6588,
      "Ġä¿º": 6589,
      "è¿ĩä»ĸ": 6590,
      "çŁ¥éģĵä»ĸ": 6591,
      "Ġåį³ä¾¿": 6592,
      "Ġåģĩå¦Ĥ": 6593,
      "éĹ®å¥½": 6594,
      "å¤ªåŃĲ": 6595,
      "çĶ·äººçļĦ": 6596,
      "ä»¥åĲİåķĬ": 6597,
      "è¶ħå¸Ĥ": 6598,
      "çº§çļĦ": 6599,
      "å«Įå¼ĥ": 6600,
      "æĵįä½ľ": 6601,
      "å°±å·²ç»ı": 6602,
      "ĠåĨįè¯´äºĨ": 6603,
      "åįĸäºĨ": 6604,
      "ä¸´æĹ¶": 6605,
      "Ġè¿Ľ": 6606,
      "ç§ĳéķ¿": 6607,
      "å±ħæ°ĳ": 6608,
      "æŃ¦åĻ¨": 6609,
      "åı¦å¤ĸä¸Ģä¸ª": 6610,
      "é©¾é©¶": 6611,
      "ä½Ĳ": 6612,
      "æľīéĤ£ä¹Ī": 6613,
      "åľ¨ä¸Ģ": 6614,
      "è¥¿çĵľ": 6615,
      "é©±": 6616,
      "åĵªæĢķ": 6617,
      "èį·": 6618,
      "ç±į": 6619,
      "è½¬ç§»": 6620,
      "è·³èĪŀ": 6621,
      "æ²¡æľīåķĬ": 6622,
      "åıªå°ı": 6623,
      "çĻ¾åĪĨä¹ĭåįģ": 6624,
      "åĪĨæīĭäºĨ": 6625,
      "ä¸Ģéĺµ": 6626,
      "éĺĶ": 6627,
      "è®²äºĨ": 6628,
      "æĬ¥èŃ¦": 6629,
      "Ġå§ĳå¨ĺ": 6630,
      "æĺ¯è¢«": 6631,
      "ä¸ªäººçļĦ": 6632,
      "ä½łåĳĢ": 6633,
      "ä¸īæľĪ": 6634,
      "äºĮåįģåħ«": 6635,
      "æĭ¿åĩºæĿ¥": 6636,
      "åĨ³å¿ĥ": 6637,
      "çº¢åĮħ": 6638,
      "åĬŁå¤«": 6639,
      "ä¹ĥ": 6640,
      "å¯¹æĪĳçļĦ": 6641,
      "ĠéĤ£æĤ¨": 6642,
      "æľĭåıĭåķĬ": 6643,
      "ç£ķ": 6644,
      "åŁ¹è®Ń": 6645,
      "èĩªè¡Į": 6646,
      "éĩĮæľī": 6647,
      "æĪĲçļĦ": 6648,
      "åĺ¿": 6649,
      "æĸĩæĺİ": 6650,
      "ĠåĨĽ": 6651,
      "åģ¥èº«": 6652,
      "Ġä¸įå¥½æĦıæĢĿ": 6653,
      "Ġè¿ľ": 6654,
      "çļĦç¬¬ä¸Ģ": 6655,
      "Ġå¦¹": 6656,
      "æıĲåĪ°": 6657,
      "èĪįå¾Ĺ": 6658,
      "Ġç§ĳ": 6659,
      "éķľåŃĲ": 6660,
      "åĽ½æ°ĳåħļ": 6661,
      "çī¹åĪ«çī¹åĪ«": 6662,
      "èĬĤçĽ®çĶ±": 6663,
      "é¢ĦæľŁ": 6664,
      "éĢıéľ²": 6665,
      "«æĥħ": 6666,
      "éķ¿å®ĺ": 6667,
      "Ġåıªè¦ģä½ł": 6668,
      "äº¦": 6669,
      "åŃŁ": 6670,
      "éķ¿å¤§äºĨ": 6671,
      "ç¡®è®¤": 6672,
      "è¯´å¥¹": 6673,
      "æĿ¥åĲ§": 6674,
      "å¹¸è¿Ĳ": 6675,
      "åĶłåĹĳ": 6676,
      "ä¸įå¼Ģå¿ĥ": 6677,
      "å¤©æ°Ķ": 6678,
      "ä¿Ħ": 6679,
      "åĽłæŃ¤": 6680,
      "çļĦä¸įæĺ¯": 6681,
      "çļĦæĸ¹æ³ķ": 6682,
      "è¿Ļä¸¤ä¸ª": 6683,
      "åħŃä¸ª": 6684,
      "æĮĩåĩº": 6685,
      "åľŁåľ°": 6686,
      "èĪªç©º": 6687,
      "äººåĵª": 6688,
      "åĿĢ": 6689,
      "éļĶç¦»": 6690,
      "çļĦç¤¼çī©": 6691,
      "ä»Ģä¹ĪäºĨ": 6692,
      "åĲĥåķĬ": 6693,
      "åıĪä¸įæĺ¯": 6694,
      "åĨħå¿ĥçļĦ": 6695,
      "é¸¿": 6696,
      "åħ¶ä»ĸäºº": 6697,
      "Ġå¹²åĲĹ": 6698,
      "èĤĮ": 6699,
      "å½ĵä½ł": 6700,
      "èĦĸ": 6701,
      "Ġå°ıå¦¹": 6702,
      "æĦ¤æĢĴ": 6703,
      "çŁ¥éģĵçļĦ": 6704,
      "çĪ±ä¸Ĭ": 6705,
      "æĹ¶éĹ´çļĦ": 6706,
      "åħŃåįģäºĶ": 6707,
      "åİŁæľ¬": 6708,
      "å¡Į": 6709,
      "å¤ľä¸įå¯Ĥå¯ŀ": 6710,
      "ä¸ºèĩªå·±": 6711,
      "åĵĢ": 6712,
      "åĲįåĮ»": 6713,
      "æ±Ĥä½ł": 6714,
      "Ġèĩ³å°ĳ": 6715,
      "çļĦæĸĩç«ł": 6716,
      "å°±ä¸įæĺ¯": 6717,
      "éĥ½å¿«": 6718,
      "ĠéĤ£éĤ£": 6719,
      "çĶŁæ´»å½ĵä¸Ń": 6720,
      "æĬĹæĹ¥": 6721,
      "æ¤Ĵ": 6722,
      "ĠéĩĮéĿ¢": 6723,
      "æĺ¯å¥½": 6724,
      "å°º": 6725,
      "å¸½åŃĲ": 6726,
      "èĮħ": 6727,
      "åĭŁ": 6728,
      "èĤ¯å®ļä¼ļ": 6729,
      "ĠåħĪçĶŁ": 6730,
      "è·Łäºº": 6731,
      "çĹ´": 6732,
      "æģĲæĢķ": 6733,
      "æĪĳå¾Ĺ": 6734,
      "è¿ĻåŃ©åŃĲ": 6735,
      "æĪĲä¸ºäºĨ": 6736,
      "æľĢå¤ļ": 6737,
      "Ġå¯¹ä¸įå¯¹": 6738,
      "èĩ³ä»Ĭ": 6739,
      "è¯´çļĦæĺ¯": 6740,
      "Ġä½łèĥ½ä¸įèĥ½": 6741,
      "åģļä¸ª": 6742,
      "çĶ¨æĿ¥": 6743,
      "åħ¬åħ¬": 6744,
      "æīĭæ®µ": 6745,
      "æĶ¾æīĭ": 6746,
      "Ġäºĭ": 6747,
      "ä¸įè®©": 6748,
      "ĠæŃ¦": 6749,
      "ä¼º": 6750,
      "ç»Ļäºº": 6751,
      "Ġä¹Łæľī": 6752,
      "Ġåħ¶ä»ĸ": 6753,
      "éĢīæĭ©äºĨ": 6754,
      "éĶ»çĤ¼": 6755,
      "è¿ĩåĲĹ": 6756,
      "ĠæĪĳä»¬çİ°åľ¨": 6757,
      "ĠçĽ¸ä¿¡": 6758,
      "æĤĦæĤĦ": 6759,
      "Ġè§ģ": 6760,
      "ä¸įå¥½çļĦ": 6761,
      "çŃīåĪ°": 6762,
      "èģĬä¸Ģ": 6763,
      "åº¦è¿ĩ": 6764,
      "éĢĤåºĶ": 6765,
      "è®¤è¯ĨçļĦ": 6766,
      "åĺ´éĩĮ": 6767,
      "å®¿èĪį": 6768,
      "Ġä¾Ŀ": 6769,
      "å¤§å¤ļæķ°": 6770,
      "æ²¡æ³ķ": 6771,
      "è¿ĳæĹ¥": 6772,
      "çĶŁæ°ĶäºĨ": 6773,
      "çļĦèĥ½åĬĽ": 6774,
      "ä½łå°±æĺ¯": 6775,
      "Ġä½łçľŁçļĦ": 6776,
      "èµ·åºĬ": 6777,
      "çİĭçĪ·": 6778,
      "æĸŃäºĨ": 6779,
      "æĺ¨å¤©æĻļä¸Ĭ": 6780,
      "Ġç²¾": 6781,
      "çĿ¡ä¸įçĿĢ": 6782,
      "çļĦäººéĥ½": 6783,
      "åıįå¤į": 6784,
      "åıĸæ¶Ī": 6785,
      "æĿ¥åķĬ": 6786,
      "çŃĭ": 6787,
      "æ¡ĳ": 6788,
      "ä¸¸åŃĲ": 6789,
      "è¿Ļä¸ªå°ı": 6790,
      "åĽłä¸ºä»ĸ": 6791,
      "èł": 6792,
      "ä¸ĢæĹ¶": 6793,
      "å¾Ĺä½ı": 6794,
      "æļĳ": 6795,
      "åħ¶å®ŀæĺ¯": 6796,
      "è¿Ĳæ°Ķ": 6797,
      "Ġç¬ĳ": 6798,
      "è¿Ļæł·çļĦè¯Ŀ": 6799,
      "æľºåĪ¶": 6800,
      "æ¹ĺ": 6801,
      "Ġä¸Ĭæµ·": 6802,
      "Ġæ°Ķ": 6803,
      "çļĦéĥ½æĺ¯": 6804,
      "æĥ©": 6805,
      "å¯¹åĳĢ": 6806,
      "æ¡Ĥ": 6807,
      "å¼ºçĥĪ": 6808,
      "ĠæĢİä¹Īä¼ļ": 6809,
      "ä¸ĥçĤ¹æĹ©çŁ¥éģĵ": 6810,
      "æĥ³ä¸Ģæĥ³": 6811,
      "Ġä»ĸè¦ģ": 6812,
      "ĠåıĤ": 6813,
      "æĻ´": 6814,
      "çĮİ": 6815,
      "ĠæĬĵ": 6816,
      "æ¼ĶåĶ±": 6817,
      "çĪ±çļĦå°ı": 6818,
      "ç»ĵäºĨ": 6819,
      "ĠåįĹéĥ½è®°èĢħ": 6820,
      "äºĨæĪĳçļĦ": 6821,
      "åīįçļĦ": 6822,
      "Ġå¦Ĥæŀľä»ĸ": 6823,
      "åĲĲæ§½": 6824,
      "çĶŁåŃ©åŃĲ": 6825,
      "åĥıæĪĳ": 6826,
      "Ġå¹¿ä¸ľ": 6827,
      "èµ´": 6828,
      "è·ŁåĪ«äºº": 6829,
      "æıŃ": 6830,
      "ĠæĢ»æĺ¯": 6831,
      "Ġçī¹åĪ«æĺ¯": 6832,
      "çľĭæ³ķ": 6833,
      "å©´": 6834,
      "åħ«æľĪ": 6835,
      "äºĨä¸ĢæĿ¡": 6836,
      "åĿĲä¸ĭ": 6837,
      "åĨ²çªģ": 6838,
      "æĪĳåĴĮ": 6839,
      "Ġä¹Łä¼ļ": 6840,
      "é¸£": 6841,
      "å¥½å¥½åľ°": 6842,
      "ä¸Ģä¸ªå¤§": 6843,
      "æĬĬèĩªå·±çļĦ": 6844,
      "ä½ľæĪĺ": 6845,
      "Ġå¼º": 6846,
      "ĠäºĮéĽ¶ä¸Ģä¹Ŀå¹´": 6847,
      "ä¸¤åı£": 6848,
      "ç¤¼æĭľ": 6849,
      "èģļä¼ļ": 6850,
      "è½¯ä»¶": 6851,
      "æ°Ľ": 6852,
      "ç©´": 6853,
      "ĠåįĹæĸ¹": 6854,
      "Ġå¥¶å¥¶": 6855,
      "å®¶æĹı": 6856,
      "èĻ¾": 6857,
      "ç¾İå¥½": 6858,
      "å¤Ħéķ¿": 6859,
      "ç¥ŀç»ı": 6860,
      "æīĢæľīäºº": 6861,
      "å±ĭéĩĮ": 6862,
      "çļĦæĢģåº¦": 6863,
      "çĶŁäºĨ": 6864,
      "åģļäºĭ": 6865,
      "åĲĥå®Į": 6866,
      "å©·": 6867,
      "ä¸ºä»Ģä¹Īä¼ļ": 6868,
      "çĽĳç®¡": 6869,
      "æĬĺèħ¾": 6870,
      "æĦıè¯ĨåĪ°": 6871,
      "å¾Ĵå¼Ł": 6872,
      "ĠèĢĥ": 6873,
      "è¿ĺæĥ³": 6874,
      "çŃīä¸Ģä¸ĭ": 6875,
      "æĹº": 6876,
      "åįģä¸ĥ": 6877,
      "æĢİä¹ĪçĿĢ": 6878,
      "æİ¥çº³": 6879,
      "å®ĥä»¬": 6880,
      "æĲľç´¢åħ³æ³¨": 6881,
      "»çĴĥ": 6882,
      "å¾Ĺä¸į": 6883,
      "åİ»ä¹°": 6884,
      "ĠæľīçļĦäºº": 6885,
      "è®¡è¾ĥ": 6886,
      "çļĦæ¶Īæģ¯": 6887,
      "äººæĺ¯": 6888,
      "åĽĬ": 6889,
      "å¤§æµ·": 6890,
      "æĢİä¹Īæł·åķĬ": 6891,
      "Ġé¡º": 6892,
      "ä¸įä¹ħ": 6893,
      "ä»ĸå°±æĺ¯": 6894,
      "åĴķ": 6895,
      "åĽŀæĬ¥": 6896,
      "ĠçĦ¶åĲİæĪĳä»¬": 6897,
      "åħ¨æĺ¯": 6898,
      "ä¸ĸä¸Ĭ": 6899,
      "Ġå®ĥçļĦ": 6900,
      "¼å¾Ĺ": 6901,
      "Ġè¿ĺæ²¡": 6902,
      "åĩĨå¤ĩå¥½äºĨ": 6903,
      "Ġæĭī": 6904,
      "Ġç»ı": 6905,
      "åĳ¢åķĬ": 6906,
      "Ġæĺ¯ä¸Ģä¸ª": 6907,
      "å¿«éĢŁ": 6908,
      "èħĶ": 6909,
      "èģĬå¤©åĦ¿": 6910,
      "Ġè°Ī": 6911,
      "åľ°ä½į": 6912,
      "çļĦç¥ŀ": 6913,
      "Ġè¿ĩåİ»": 6914,
      "ä¸Ĭåįĩ": 6915,
      "æĹłæīĢè°ĵ": 6916,
      "é¹ħ": 6917,
      "éĩĳé¢Ŀ": 6918,
      "èĳ¬": 6919,
      "é¤Ĳåİħ": 6920,
      "éĩĬæĶ¾": 6921,
      "æļ´éľ²": 6922,
      "å¹²åĲĹåĳĢ": 6923,
      "çĤī": 6924,
      "çī¹æĦı": 6925,
      "æĭ¼åĳ½": 6926,
      "æ¬²æľĽ": 6927,
      "éĵ¾æİ¥": 6928,
      "ä½łä¸įè¦ģ": 6929,
      "é¥ŃåºĹ": 6930,
      "åħ´å¥ĭ": 6931,
      "ĠçŃīæĪĳ": 6932,
      "åı¦ä¸Ģä¸ª": 6933,
      "çļĦç½ĳ": 6934,
      "çĹķ": 6935,
      "å°Ĩä¼ļ": 6936,
      "ä½łæ²¡æľī": 6937,
      "æĥħäºº": 6938,
      "ç¬¼": 6939,
      "ĠåĲĪ": 6940,
      "æĶ¯æĴĳ": 6941,
      "å®ı": 6942,
      "ä»¥åĲİåĳ¢": 6943,
      "ĠåĬ¨": 6944,
      "å¾®ä¿¡åħ¬ä¼Ĺåı·å¼łå¾·èĬ¬ç©ºéĹ´": 6945,
      "éĤ£ä¼ļåĦ¿": 6946,
      "ĠéĤ£è¿Ļ": 6947,
      "å¸ĪåħĦ": 6948,
      "å¿ħé¡»å¾Ĺ": 6949,
      "ç¾¤ä¼Ĺ": 6950,
      "çļĦç»ĵæŀľ": 6951,
      "å°±æĺ¯è¦ģ": 6952,
      "ä¸Ńåįİ": 6953,
      "çĶ·æĢ§": 6954,
      "éĨĭ": 6955,
      "éĨĴæĿ¥": 6956,
      "è¯´å®Į": 6957,
      "å¥½åıĭ": 6958,
      "ä¸ĸçºª": 6959,
      "è·Łä»ĸåľ¨ä¸Ģèµ·": 6960,
      "Ġå¤ªå¥½äºĨ": 6961,
      "è¹Ī": 6962,
      "æ²Ļåıĳ": 6963,
      "ĠåĮ»çĶŁ": 6964,
      "åħ¬åĳĬ": 6965,
      "ä½ĵçİ°": 6966,
      "æħ¨": 6967,
      "è¿·èĮ«": 6968,
      "è¹²": 6969,
      "Ġç§¦": 6970,
      "æĿŃå·ŀ": 6971,
      "åĽŀå®¶äºĨ": 6972,
      "ç¦»å©ļäºĨ": 6973,
      "è®©ä½łä»¬": 6974,
      "Ġæ²¡éĶĻ": 6975,
      "åĨĽéĺŁ": 6976,
      "çļĦæ°´": 6977,
      "ä¸Ģå¥Ĺ": 6978,
      "é¦ĸæ¬¡": 6979,
      "ĠçĪ·": 6980,
      "æ´¾äºº": 6981,
      "å¯¹å¯¹å¯¹": 6982,
      "æĪĳæīį": 6983,
      "è¯´éĤ£": 6984,
      "å¦¨": 6985,
      "æĮ«": 6986,
      "æį§": 6987,
      "Ġå¥½åķĬ": 6988,
      "Ġæķĳ": 6989,
      "Ġå¹´è½»": 6990,
      "å¥½å¥ĩ": 6991,
      "ä¸»äºº": 6992,
      "æ±Łæ¹ĸ": 6993,
      "èĢĲå¿ĥ": 6994,
      "Ġå¹¿å·ŀ": 6995,
      "æĬĳéĥģ": 6996,
      "æľīåħ³ç³»": 6997,
      "åı¯ä»¥åľ¨": 6998,
      "åģļæ³ķ": 6999,
      "åģļçĶŁæĦı": 7000,
      "åĺ²": 7001,
      "æĪĺå£«": 7002,
      "Ġç¬¬ä¸Ģæ¬¡": 7003,
      "éĢĥéģ¿": 7004,
      "ĠéĤ£ä¸įæĺ¯": 7005,
      "ä¼łæĴŃ": 7006,
      "èĸĽ": 7007,
      "å¹¼åĦ¿åĽŃ": 7008,
      "èĩªåįĳ": 7009,
      "å¼Ģåı£": 7010,
      "åĽĽåįĥ": 7011,
      "è½¦çļĦ": 7012,
      "Ġè¯´å®Į": 7013,
      "æ£ī": 7014,
      "å½ķéŁ³": 7015,
      "ä¹Łéĥ½": 7016,
      "å¯º": 7017,
      "èĢģæĺ¯": 7018,
      "åĥıä½ł": 7019,
      "å¨±ä¹Ĳ": 7020,
      "ä»¶äºĭåĦ¿": 7021,
      "ĠæĬķ": 7022,
      "å¯¹çĿĢ": 7023,
      "èµ°åĲĳ": 7024,
      "åĲ¬ä½ł": 7025,
      "éĥ½æĺ¯æĪĳ": 7026,
      "ä¸ĩäºº": 7027,
      "è°¢è°¢ä½ł": 7028,
      "Ġè¿Ļæĺ¯ä¸Ģä¸ª": 7029,
      "ä»İæĿ¥ä¸į": 7030,
      "æĽ¿ä½ł": 7031,
      "åį³å°Ĩ": 7032,
      "åĶīåĳĢ": 7033,
      "ĠæĶ¾å¿ĥåĲ§": 7034,
      "ĠæģĲæĢķ": 7035,
      "Ġä¸įçŁ¥": 7036,
      "éĩįå¤į": 7037,
      "æĺ¯åįĸ": 7038,
      "äººçī©": 7039,
      "ç»ĻæĪĳæīĵçĶµè¯Ŀ": 7040,
      "åħħåĪĨ": 7041,
      "å¸®åĪ°æĤ¨": 7042,
      "è´¡çĮ®": 7043,
      "ç»ĺ": 7044,
      "è¡°": 7045,
      "å°±æĺ¯æĥ³": 7046,
      "åĽ½èĹ©": 7047,
      "åĲ¬è¯Ŀ": 7048,
      "åĲ¬æĪĳè¯´": 7049,
      "åĨħéĥ¨": 7050,
      "Ġå¢ŀ": 7051,
      "ĠæĿ¥äºĨ": 7052,
      "ä¸įéĢļ": 7053,
      "è¿Ļä¸ªçĶ·äºº": 7054,
      "éĽĢ": 7055,
      "éĹ®é¢ĺåķĬ": 7056,
      "Ġå¯¹åķĬ": 7057,
      "èĽĭç³ķ": 7058,
      "Ġèº«ä½ĵ": 7059,
      "è¯´å®ŀè¯Ŀ": 7060,
      "æľĢåĸľæ¬¢": 7061,
      "Ġä½Ĩæĺ¯æĪĳä»¬": 7062,
      "çļĦè¯Ŀé¢ĺ": 7063,
      "ĠæīĢä»¥ä½ł": 7064,
      "ä»ĸçİ°åľ¨": 7065,
      "çİĽ": 7066,
      "ä¿¡çĶ¨": 7067,
      "ĠæĹ¢": 7068,
      "ä½³çĲª": 7069,
      "ĠçĪ±æĥħ": 7070,
      "ä¸ĵä¸ļçļĦ": 7071,
      "å°±ä¸įèĥ½": 7072,
      "åı¯æĥľ": 7073,
      "å¼ĢçļĦ": 7074,
      "ä¸¤ç§į": 7075,
      "æķĻè®Ń": 7076,
      "èĢģå¤´": 7077,
      "äºĽä»Ģä¹Ī": 7078,
      "å¹²åķ¥åĳĢ": 7079,
      "æĬ¥ä»ĩ": 7080,
      "åĩłä¸ªæľĪ": 7081,
      "Ġå¿ĥçģµ": 7082,
      "ç»³": 7083,
      "æĭŁ": 7084,
      "æĦŁåħ´è¶£": 7085,
      "åĲĪè®¡": 7086,
      "ĠåĲ¬è¯´": 7087,
      "Ġæİ¨": 7088,
      "ĠæĻĵ": 7089,
      "ĠæĦŁæĥħ": 7090,
      "Ġè¿Ļä¸ĢåĪ»å°±æĺ¯è¿ĻäºĽ": 7091,
      "åĪ°æĿ¥": 7092,
      "çĪĨåıĳ": 7093,
      "çĶŃ": 7094,
      "èĬĿ": 7095,
      "ä½³æľŁ": 7096,
      "çĽ¸å½ĵäºİ": 7097,
      "ä½łéĤ£": 7098,
      "å½¹": 7099,
      "èĢģäºĨ": 7100,
      "æĢİä¹ĪåĽŀäºĭ": 7101,
      "åºķçº¿": 7102,
      "é¥®é£Ł": 7103,
      "éĺħè¯»æĪĳæĺ¯": 7104,
      "Ġä¸»è¦ģ": 7105,
      "åĲ»": 7106,
      "çĪ±å¥½": 7107,
      "åĬłå¼º": 7108,
      "éģŃéģĩ": 7109,
      "åĳĪçİ°": 7110,
      "ä½łä¿©": 7111,
      "ĠæĪĳåı«": 7112,
      "åĵ²": 7113,
      "è¶´": 7114,
      "éĴ±åĳ¢": 7115,
      "æĵħ": 7116,
      "èł¢": 7117,
      "Ġå°±è¦ģ": 7118,
      "æ¬¡çļĦ": 7119,
      "Ġè¯´å®ŀè¯Ŀ": 7120,
      "Ġéĥ½ä¼ļ": 7121,
      "ç´¯è®¡": 7122,
      "ä¼ĻåĦ¿": 7123,
      "é©¬ä¸Ĭå°±": 7124,
      "çĸĹæĦĪåĪĽéĢł": 7125,
      "åľ¨ä½łçļĦ": 7126,
      "ä¸ĬåķĬ": 7127,
      "éĴ±äºĨ": 7128,
      "éľī": 7129,
      "å¹¸ç¦ıçļĦ": 7130,
      "æķıæĦŁ": 7131,
      "è¯ĳ": 7132,
      "åľ¨æĥ³": 7133,
      "è¡·": 7134,
      "è¿ľçļĦ": 7135,
      "ä¹³": 7136,
      "æĦīå¿«": 7137,
      "å¯¹æīĭ": 7138,
      "çļĦç´": 7139,
      "ä¿Ŀå®ī": 7140,
      "Ġä¹ĭåĲİ": 7141,
      "Ġæ£": 7142,
      "æĪĲå¹´äºº": 7143,
      "Ġæĭľ": 7144,
      "Ġç¬¬äºĮä¸ª": 7145,
      "çļĦç²¾ç¥ŀ": 7146,
      "çļĦéĿ¢": 7147,
      "åľ¨éĤ£ä¸ª": 7148,
      "æĬĦ": 7149,
      "éģĵå¾·": 7150,
      "æĢİä¹Īåı¯èĥ½": 7151,
      "çļĦç¾": 7152,
      "åĩłä¸ªäºº": 7153,
      "Ġå¦ĤæŀľæĪĳ": 7154,
      "äºĮéĽ¶ä¸Ģåħ«å¹´": 7155,
      "æ²īé»ĺ": 7156,
      "å¥ĭæĸĹ": 7157,
      "åĲįåįķ": 7158,
      "ĠæĪĳæĺ¯ä¸»æĴŃ": 7159,
      "Ġå¼Ł": 7160,
      "Ġæ±Ĥ": 7161,
      "ä¿¡åı·": 7162,
      "Ġä¹Łä¸įçŁ¥éģĵ": 7163,
      "èĲ¥åħ»": 7164,
      "éĵģè·¯": 7165,
      "èĿ¶": 7166,
      "è¯´åĩº": 7167,
      "Ġä½łä»Ĭå¤©": 7168,
      "å¤ļå²ģ": 7169,
      "å¾Īç®Ģåįķ": 7170,
      "ĠæĽ´å¤ļ": 7171,
      "æĪĲåĳĺ": 7172,
      "å©¶": 7173,
      "åħŃå²ģ": 7174,
      "äºīåĲµ": 7175,
      "ĠæĪĳä»¥ä¸º": 7176,
      "è¿Ļä¸ªä¸ĸçķĮ": 7177,
      "äºĶå²ģ": 7178,
      "ĠåĵĪ": 7179,
      "æ£į": 7180,
      "Ġåĵİåĳ¦": 7181,
      "ĠæĪĳçŁ¥éģĵä½ł": 7182,
      "ä»ĭç»įä¸Ģä¸ĭ": 7183,
      "Ġå¸Ĥåľº": 7184,
      "Ġä¼°è®¡": 7185,
      "å¹´æĿ¥": 7186,
      "åĲĮæ¯Ķ": 7187,
      "ĠåĴĮä½ł": 7188,
      "åı¯çľŁ": 7189,
      "å¯¹åķĬ": 7190,
      "æĢ»ç»ĵ": 7191,
      "æĿ¾é¼ł": 7192,
      "æĮ½åĽŀ": 7193,
      "åīįä¸¤å¤©": 7194,
      "åı°ä¸Ĭ": 7195,
      "æĶ¹åĸĦ": 7196,
      "å¯ĨåĪĩ": 7197,
      "Ġæ¬§": 7198,
      "æĿ¥èĩªäºİ": 7199,
      "åĴĲ": 7200,
      "èĬĴ": 7201,
      "æį·": 7202,
      "åīĤ": 7203,
      "æĢİä¹Īè¯´åĳ¢": 7204,
      "åĿĬ": 7205,
      "éĹ¨åĦ¿": 7206,
      "æ·»åĬł": 7207,
      "èĲĿåįľ": 7208,
      "Ġä½łæĿ¥": 7209,
      "Ġä½łä¸įä¼ļ": 7210,
      "åĽ½çİĭ": 7211,
      "è¿Ļä¹Īå¤§çļĦ": 7212,
      "æħĪ": 7213,
      "çĿ¡çĿĢäºĨ": 7214,
      "å¦Īå¦ĪçļĦ": 7215,
      "çĻ¾åĪĨä¹ĭä¸īåįģ": 7216,
      "ä¸¤ä¸ĩ": 7217,
      "åºĶå¯¹": 7218,
      "Ġå¯¹åĳĢ": 7219,
      "çĵ¦": 7220,
      "çİ»çĴĥ": 7221,
      "çľĭä¸įåĪ°": 7222,
      "åºĻ": 7223,
      "Ġè¿Ļè¿Ļ": 7224,
      "èĤ¡ä»·": 7225,
      "åıĤè°ĭ": 7226,
      "è¹Ń": 7227,
      "çº·çº·": 7228,
      "ĠåĲį": 7229,
      "éĢļæĬ¥": 7230,
      "åĪļå¼Ģå§ĭ": 7231,
      "Ġå°ıå§Ĳ": 7232,
      "ç¨ĭåºı": 7233,
      "åĿĲçĿĢ": 7234,
      "åĪ°åºķæĺ¯": 7235,
      "ä¾ĽåºĶ": 7236,
      "ä¹łæĥ¯äºĨ": 7237,
      "å¤ļæľĪ": 7238,
      "ä»£ä»·": 7239,
      "ç«ĭé©¬": 7240,
      "è®¾è®¡å¸Ī": 7241,
      "Ġç¥Ŀä½ł": 7242,
      "Ġçģ«": 7243,
      "ĠæĪĳä»¬ä¹Ł": 7244,
      "Ġå¦Ĥä½ķ": 7245,
      "è¡¨çĻ½": 7246,
      "åģľæŃ¢": 7247,
      "è¯´åı¥": 7248,
      "Ġè·¯": 7249,
      "è¯´èĩªå·±": 7250,
      "è°Ĳ": 7251,
      "æ³Ľ": 7252,
      "ä½ĵè´¨": 7253,
      "Ġä»ĸä»¬çļĦ": 7254,
      "åĬ³åĬ¨": 7255,
      "è¿Ŀæ³ķ": 7256,
      "ä¸Ĭä¸ĭ": 7257,
      "çłį": 7258,
      "ĠèĢģçĪ·": 7259,
      "Ġä»İæŃ¤": 7260,
      "é£ŀè¡Į": 7261,
      "æĪĳåıĪ": 7262,
      "æĺ§": 7263,
      "ä¸Ģèĩ´": 7264,
      "Ġä½łæľīä»Ģä¹Ī": 7265,
      "çŁ¥ä¸įçŁ¥éģĵ": 7266,
      "çİ©åħ·": 7267,
      "äº¤æµģåĴĮ": 7268,
      "Ġå±ħçĦ¶": 7269,
      "ä½łæĺ¯ä¸įæĺ¯": 7270,
      "çŁ¥ä¹İ": 7271,
      "Ġæ²¡ä»Ģä¹Ī": 7272,
      "Ġä»Ĭå¤©çļĦ": 7273,
      "ç»Łä¸Ģ": 7274,
      "ĠåŁºæľ¬ä¸Ĭ": 7275,
      "æĪĳä»Ĭå¤©": 7276,
      "äººå¿ĥ": 7277,
      "å¥½çİ©": 7278,
      "å¼Ģä¼ļ": 7279,
      "ĠåĨįè§ģ": 7280,
      "éŃħ": 7281,
      "å®µ": 7282,
      "åĪ°è¾¾": 7283,
      "ĠéĤ£è¿Ļä¸ª": 7284,
      "èĢģçĪ¸": 7285,
      "æ¸¸æ³³": 7286,
      "æŃ£å¸¸çļĦ": 7287,
      "ĠæĪĸ": 7288,
      "ä½łæ²¡": 7289,
      "ä½łçļĦäºº": 7290,
      "ĠæĪĳä¸Ģå®ļä¼ļ": 7291,
      "çī§": 7292,
      "æĬ¤å£«": 7293,
      "çł´åĿı": 7294,
      "ĠçľŁçļĦæĺ¯": 7295,
      "è¯´æĪĳä»¬": 7296,
      "æĥħåķĨ": 7297,
      "ä¹ĭè·¯ä¸Ĭ": 7298,
      "äºĮä½į": 7299,
      "æĹłå¥Ī": 7300,
      "æ¯ıå¹´": 7301,
      "åħ³ç³»åķĬ": 7302,
      "Ġæĺ¨å¤©æĻļä¸Ĭ": 7303,
      "Ġä½łå¿«": 7304,
      "æ²¾": 7305,
      "äºĶåı·": 7306,
      "èĥ¶": 7307,
      "ä¸Ģèµ·éģĩè§ģæľªçŁ¥çļĦèĩªå·±": 7308,
      "çł´äºĨ": 7309,
      "ä»ĭæĦı": 7310,
      "ä¸Ģæĸ¹éĿ¢": 7311,
      "æĿ¥çĿĢ": 7312,
      "è¦ģæľī": 7313,
      "å½Ń": 7314,
      "å¥³ç¥ŀ": 7315,
      "ĠæľīçļĦ": 7316,
      "éĺŁåĳĺ": 7317,
      "å¸ĮæľĽä½ł": 7318,
      "Ġæ¯įäº²": 7319,
      "Ġç»Ŀ": 7320,
      "äººä¸į": 7321,
      "æµģè¡Į": 7322,
      "å½¢å®¹": 7323,
      "æĭľæĭľ": 7324,
      "èļģ": 7325,
      "ä¸ĭæ¬¡": 7326,
      "çĶŁåŃĺ": 7327,
      "Ġå°±åı¯ä»¥": 7328,
      "æĢİæł·çļĦ": 7329,
      "å´©æºĥ": 7330,
      "Ġæľķ": 7331,
      "åŃĲäºĨ": 7332,
      "å¤§å¤§": 7333,
      "ä»Ģä¹Īåľ°æĸ¹": 7334,
      "åģļçļĦäºĭæĥħ": 7335,
      "ĠçĦ¶åĲİåĨį": 7336,
      "åŁİéĩĮ": 7337,
      "è¾¾åĪ°äºĨ": 7338,
      "Ġä¸Ĭæ¬¡": 7339,
      "çļĦçĸĳ": 7340,
      "èģĬä¸ĢèģĬ": 7341,
      "Ġä½łè¿Ļä¹Ī": 7342,
      "è¿ĺå¥½": 7343,
      "Ġä»ĸæĥ³": 7344,
      "Ġåı¸": 7345,
      "æĥħæĦ¿": 7346,
      "ä¼ŀ": 7347,
      "å¯¹ä»ĸçļĦ": 7348,
      "å·²ç»ıæĺ¯": 7349,
      "åĨĽäºĭ": 7350,
      "è¡Ĺä¸Ĭ": 7351,
      "Ġæĺİæĺİ": 7352,
      "ä¸Ģä¸ªå¥³äºº": 7353,
      "åľ°éĵģ": 7354,
      "ä»ĬæĹ¥": 7355,
      "æĤ¨å¥½": 7356,
      "çĽ¸æ¯Ķ": 7357,
      "è®¤çŁ¥": 7358,
      "çľ¼åħī": 7359,
      "ç»Ŀå¯¹ä¸įä¼ļ": 7360,
      "çĻ»è®°": 7361,
      "Ġèĩ£": 7362,
      "ħèĨĢ": 7363,
      "ä½łè¿ĺæĺ¯": 7364,
      "ĠæĪĳå¿ĥéĩĮ": 7365,
      "éĢ¸": 7366,
      "èº«æĿĲ": 7367,
      "äº²äºº": 7368,
      "Ġä¼ļä¸įä¼ļ": 7369,
      "ç¯®": 7370,
      "æľīäºĭ": 7371,
      "éĴ±çļĦ": 7372,
      "èİİ": 7373,
      "çķĻä¸ĭæĿ¥": 7374,
      "çļĦä¸ĸçķĮ": 7375,
      "ä¸Ģæł¹": 7376,
      "æľīä»»ä½ķ": 7377,
      "æŃ£ç»ı": 7378,
      "Ġè¿Ļä¸ªäºº": 7379,
      "æ·ĭ": 7380,
      "Ġè¿ĺæľīä¸Ģä¸ª": 7381,
      "è´¢äº§": 7382,
      "èº«ä¸ĬçļĦ": 7383,
      "åĵªæľī": 7384,
      "çĻ¾åĪĨä¹ĭäºĶåįģ": 7385,
      "åıĸå¾Ĺ": 7386,
      "çĳ°": 7387,
      "éĢ»è¾ĳ": 7388,
      "ĠæĪĳåĸľæ¬¢": 7389,
      "Ġåı¤": 7390,
      "åĲ¬æĪĳçļĦ": 7391,
      "ä½łä»¬ä¸¤ä¸ª": 7392,
      "æ·±çļĦ": 7393,
      "åĭī": 7394,
      "Ġå±ŀ": 7395,
      "ä½łæĬĬ": 7396,
      "éĥ½æĥ³": 7397,
      "è°ģåķĬ": 7398,
      "Ġç¬¬ä¸Ģä¸ª": 7399,
      "Ġå®Ŀè´Ŀ": 7400,
      "æĢ¡": 7401,
      "ä»Ģä¹ĪæĦıæĢĿåķĬ": 7402,
      "çľŁè¯ļ": 7403,
      "æŀľçĦ¶": 7404,
      "æĶ¹éĢł": 7405,
      "Ġå©ļå§»": 7406,
      "è·µ": 7407,
      "å¾Īå®¹æĺĵ": 7408,
      "åıĹäºĨ": 7409,
      "åıįæĺł": 7410,
      "æĪĳæĺ¯å¼łå¾·èĬ¬": 7411,
      "è´¹çĶ¨": 7412,
      "Ġç¬¬ä¸ī": 7413,
      "Ġäºĳ": 7414,
      "ç»ĻåŃ©åŃĲ": 7415,
      "ĠåĽ¢": 7416,
      "ĠæĻļå®ī": 7417,
      "Ġç«ŁçĦ¶": 7418,
      "ä¸ĢåĪ°": 7419,
      "æŀī": 7420,
      "æľĢéĩįè¦ģçļĦ": 7421,
      "Ġè¯·éĹ®": 7422,
      "å¤§éĩı": 7423,
      "æĻ°": 7424,
      "çĻ¾åĪĨ": 7425,
      "åĲĥåĲ§": 7426,
      "æĶ¾ä¸įä¸ĭ": 7427,
      "è§ĴèĲ½": 7428,
      "èĢ»": 7429,
      "éĿŀå¸¸éĿŀå¸¸": 7430,
      "Ġç¥ŀ": 7431,
      "Ġéĥĳ": 7432,
      "æĦŁæģ©": 7433,
      "è¿ŀæİ¥": 7434,
      "è¿Ĳè¾ĵ": 7435,
      "æŀģäºĨ": 7436,
      "å¿ĥéĩĮéĿ¢": 7437,
      "åĿİ": 7438,
      "çĪ±æĪĳ": 7439,
      "åĬĽæ°Ķ": 7440,
      "æķ´ä½ĵ": 7441,
      "ĠèĩªçĦ¶": 7442,
      "çĤ¹ä»Ģä¹Ī": 7443,
      "éĢļéģĵ": 7444,
      "å¾®ç¬ĳ": 7445,
      "ä¼ºåĢĻ": 7446,
      "æĲľç´¢åħ³æ³¨å¾®ä¿¡åħ¬ä¼Ĺåı·å¼łå¾·èĬ¬ç©ºéĹ´": 7447,
      "ä¸Ģå®¶äºº": 7448,
      "æĿ¥åĪ°äºĨ": 7449,
      "ĠéĤ£ä½łä»¬": 7450,
      "æŀķ": 7451,
      "åĿĽ": 7452,
      "æĹłåħ³": 7453,
      "å¾ĢåĲİ": 7454,
      "çĿ¡çľł": 7455,
      "Ġä»İå°ı": 7456,
      "å¾·åľ¨æĤ¨èº«è¾¹": 7457,
      "åĵĪåĵĪ": 7458,
      "åĿļå¼º": 7459,
      "æŃ»æĪĳäºĨ": 7460,
      "ç¢Į": 7461,
      "æĥħæĦŁä¸»æĴŃ": 7462,
      "æĦŁåıĹåĪ°": 7463,
      "æłı": 7464,
      "çī¹åĪ«åĸľæ¬¢": 7465,
      "åĢĴäºĨ": 7466,
      "æİ¨è¿Ľ": 7467,
      "ä»Ģä¹Īåı«": 7468,
      "ä¸Ģå®ļçļĦ": 7469,
      "é£İæĻ¯": 7470,
      "å¼Ģå§ĭäºĨ": 7471,
      "åĢ¼çıŃ": 7472,
      "ç¿Ķ": 7473,
      "æ¸Ĳæ¸Ĳ": 7474,
      "ĠæĪĳä»¬ä¸ĭæľŁ": 7475,
      "çĸĹæĦĪåĪĽéĢłæĪĳæĺ¯å¼łå¾·èĬ¬": 7476,
      "Ġè®²": 7477,
      "ä»ĸèĥ½": 7478,
      "ä¸ĭåİ»äºĨ": 7479,
      "éļ¾äºĨ": 7480,
      "åħŃåįĥ": 7481,
      "ç¦»äºĨ": 7482,
      "ç´§æĢ¥": 7483,
      "è´Łæĭħ": 7484,
      "è¶ħçº§": 7485,
      "Ġå®ĥæĺ¯": 7486,
      "æ¨¡æł·": 7487,
      "Ġå¾Ģå¾Ģ": 7488,
      "Ġç»Ļä»ĸ": 7489,
      "è¿ĻçĤ¹": 7490,
      "å·¥äºº": 7491,
      "Ġçİ©": 7492,
      "å¯Ĩçłģ": 7493,
      "å¤ļéķ¿æĹ¶éĹ´": 7494,
      "çļĦäººåĳ¢": 7495,
      "åĺ±": 7496,
      "æ·±å¤Ħ": 7497,
      "å·®çĤ¹": 7498,
      "èŀįèµĦ": 7499,
      "æľįåĬ¡åĳĺ": 7500,
      "æııè¿°": 7501,
      "èı²èı²å§Ĳå§Ĳ": 7502,
      "åĶ¤éĨĴçĸĹæĦĪåĪĽéĢłæĪĳæĺ¯å¼łå¾·èĬ¬": 7503,
      "ĠæĪĳä»İ": 7504,
      "å®¶äºĨ": 7505,
      "åĪļå¥½": 7506,
      "Ġåıªä¸įè¿ĩ": 7507,
      "Ġè®©ä»ĸä»¬": 7508,
      "æĩĤåĲĹ": 7509,
      "Ġä½łè¯´è¿Ļ": 7510,
      "Ġæ¬¢è¿İæĶ¶åĲ¬": 7511,
      "è¿Ļä»¶äºĭåĦ¿": 7512,
      "è¾Ľèĭ¦äºĨ": 7513,
      "çĽ¯çĿĢ": 7514,
      "æĺ¯å°ı": 7515,
      "äºĨèĩªå·±": 7516,
      "å¾Ĺä¸Ĭ": 7517,
      "æ¸ł": 7518,
      "ç»ĵå±Ģ": 7519,
      "å·²ç»ıè¢«": 7520,
      "åĤ»éĢ¼": 7521,
      "è¯´åĩºæĿ¥": 7522,
      "åĮ»åŃ¦": 7523,
      "æĬĵç´§": 7524,
      "ĠåĬłæ²¹": 7525,
      "äº¤æµģåĴĮäºĴåĬ¨": 7526,
      "ä¸ºä¸»": 7527,
      "åº¸": 7528,
      "è§ģä»ĸ": 7529,
      "ĠæĪĳæĺ¯å¼łå¾·èĬ¬": 7530,
      "å¤ľæĻļ": 7531,
      "å¸®åĪ°æĤ¨çļĦåĲĹ": 7532,
      "Ġå£": 7533,
      "ä½łåĴĮ": 7534,
      "ä¸Ĭæľī": 7535,
      "ä»¥å¤ĸ": 7536,
      "é¢ł": 7537,
      "æĬĬä½łçļĦ": 7538,
      "èĢĮä¸į": 7539,
      "åĮĹå¹³": 7540,
      "Ġæ¬¢è¿İæĲľç´¢åħ³æ³¨å¾®ä¿¡åħ¬ä¼Ĺåı·å¼łå¾·èĬ¬ç©ºéĹ´": 7541,
      "ĠåĲĮæ¯Ķå¢ŀéķ¿çĻ¾åĪĨä¹ĭ": 7542,
      "Ġå¿ĥçģµä¹ĭè·¯ä¸Ĭ": 7543,
      "Ġä½łåĴĭ": 7544,
      "Ġè¿ĻæĹ¶": 7545,
      "è°ģéĥ½": 7546,
      "ä¸ĭä¸Ģä¸ª": 7547,
      "Ġå°±æĺ¯æĪĳä»¬": 7548,
      "åĴĮæĪĳæľīæĽ´å¤ļçļĦ": 7549,
      "åĴĮæĪĳæľīæĽ´å¤ļçļĦäº¤æµģåĴĮäºĴåĬ¨": 7550,
      "ä¸Ģä¸ªå¥½": 7551,
      "Ġå°±å¥½åĥı": 7552,
      "æ³¼": 7553,
      "æĽ´æĺ¯": 7554,
      "åįķçĭ¬": 7555,
      "è¯ķéªĮ": 7556,
      "ä¸įäºĨè§£": 7557,
      "ç±»ä¼¼": 7558,
      "ç»´æĬ¤": 7559,
      "Ġä½łçľŁ": 7560,
      "Ġä½łè¯´çļĦ": 7561,
      "æīĵçļĦ": 7562,
      "å¸¦ä½ł": 7563,
      "è´¢æĶ¿": 7564,
      "ĠæĮĩ": 7565,
      "å¤§ä¼ļ": 7566,
      "æīĵåĲ¬": 7567,
      "çłĸ": 7568,
      "åĳ½åķĬ": 7569,
      "å±ķç¤º": 7570,
      "Ġç®¡": 7571,
      "Ġä»ĬæĻļå°±": 7572,
      "çļĦç©ºéĹ´": 7573,
      "ĬåŃĲ": 7574,
      "æĿ¥æºĲ": 7575,
      "å°±æĺ¯è¿Ļä¸ª": 7576,
      "çĽĳçĭ±": 7577,
      "«çĳ°": 7578,
      "ä½łèĩªå·±çļĦ": 7579,
      "çĤ¹äºĨ": 7580,
      "æľīçĤ¹åĦ¿": 7581,
      "ĠåºĶè¯¥æĺ¯": 7582,
      "ç²®é£Ł": 7583,
      "çļĦæĥħç»ª": 7584,
      "æŃ¹": 7585,
      "å¯¹èĩªå·±çļĦ": 7586,
      "éĿ¢åĮħ": 7587,
      "ä½ľå®¶": 7588,
      "å¤´åķĬ": 7589,
      "Ġå®³": 7590,
      "è¯´åĪ°": 7591,
      "ä¿©äºº": 7592,
      "é¢ĳéģĵ": 7593,
      "Ġäºĭæĥħ": 7594,
      "åĲķ": 7595,
      "æĪĳä»¬ä¹Ł": 7596,
      "åīįå¾Ģ": 7597,
      "æĹłäºº": 7598,
      "ä¾Ŀèµĸ": 7599,
      "ç¦»å¼ĢäºĨ": 7600,
      "Ġä½łå¥½ä½łå¥½": 7601,
      "Ġå¦Ĥæŀľä½łæĥ³åĴĮæĪĳæľīæĽ´å¤ļçļĦäº¤æµģåĴĮäºĴåĬ¨": 7602,
      "æĥ³è¿ŀçº¿": 7603,
      "Ġè¿Ļä»¶äºĭæĥħ": 7604,
      "è¡¥åħħ": 7605,
      "ä¸Ģä¸Ģ": 7606,
      "è¿Ľåİ»äºĨ": 7607,
      "çķı": 7608,
      "è±¹": 7609,
      "ç¥ŀå¥ĩ": 7610,
      "ä»ªå¼ı": 7611,
      "ä¸Ģé¢Ĺ": 7612,
      "æĹ¨": 7613,
      "åĸµ": 7614,
      "Ġä¸Ģå¹´": 7615,
      "çĸļ": 7616,
      "åħ«è·¯": 7617,
      "åľºçļĦ": 7618,
      "Ġè¿Ļä¸ªæĺ¯": 7619,
      "ä¼ļè¢«": 7620,
      "ä¸Ģä¸ªçĶ·äºº": 7621,
      "çļĦæĹ¶åĢĻä½ł": 7622,
      "æĶ¾äºĨ": 7623,
      "éĤ£ä¹Īå¤§": 7624,
      "æĺ¥èĬĤ": 7625,
      "ä¸įè§ģäºĨ": 7626,
      "Ġä¸»è¦ģæĺ¯": 7627,
      "Ġäº¤": 7628,
      "Ġä½łæĶ¾å¿ĥ": 7629,
      "éĽķ": 7630,
      "éĹ®äºĨ": 7631,
      "åĸľæ¬¢æĪĳ": 7632,
      "æĪĳå°±ä¸į": 7633,
      "ç¾İä¸½çļĦ": 7634,
      "åĪ®": 7635,
      "èµ«": 7636,
      "äºĭæķħ": 7637,
      "åľ°çĲĥ": 7638,
      "æ¯Ķä»ĸ": 7639,
      "ç¤¾äº¤": 7640,
      "èĴĤ": 7641,
      "çļĦè¿ĩç¨ĭä¸Ń": 7642,
      "çļĦçķĻ": 7643,
      "æľįè£ħ": 7644,
      "ĠæĪĳæĺ¯ä»Ĭå¤©": 7645,
      "Ġå®Įåħ¨": 7646,
      "çľĭä¸Ģçľĭ": 7647,
      "ä¸įæ¸ħæ¥ļ": 7648,
      "æľīè¯·": 7649,
      "ä¼ļéķ¿": 7650,
      "è¿ĩåĲİ": 7651,
      "Ġå°ıæľĭåıĭä»¬": 7652,
      "è°¢è°¢è°¢è°¢": 7653,
      "Ġç³": 7654,
      "çĶ¨å¿ĥ": 7655,
      "æ»¨": 7656,
      "çļĦç³ĹäºĭæĴŃæĬ¥": 7657,
      "Ġä½ı": 7658,
      "Ġä½łåĪļæīį": 7659,
      "èĬĤçĽ®çļĦ": 7660,
      "çŁŃä¿¡": 7661,
      "³å®ļ": 7662,
      "Ġè¿Ļåı¯": 7663,
      "Ġè¿Ļè¯Ŀ": 7664,
      "ä»İæĿ¥æ²¡": 7665,
      "æļ´åĬĽ": 7666,
      "åľ¨å¼łå¾·èĬ¬ç©ºéĹ´": 7667,
      "å°ıå°ıçļĦ": 7668,
      "çļĦäººåķĬ": 7669,
      "ä¹ĿæľĪ": 7670,
      "çĪĨçĤ¸": 7671,
      "Ġå¯¼èĩ´": 7672,
      "éĦ": 7673,
      "æ¯ħ": 7674,
      "ä¸Ńèį¯": 7675,
      "åĴĮæĤ¨": 7676,
      "åľºæĻ¯": 7677,
      "å¸¦æĿ¥äºĨ": 7678,
      "æŃĮæīĭ": 7679,
      "ĠæŃ¤æĹ¶": 7680,
      "çļĦè¡Įä¸º": 7681,
      "æĪĳåı¯": 7682,
      "åĲİæŀľ": 7683,
      "æ¶¯": 7684,
      "æĹ©å·²": 7685,
      "åĨľæ°ĳ": 7686,
      "åĲĦç§įåĲĦ": 7687,
      "Ġæľ±": 7688,
      "çļĦè¡£æľį": 7689,
      "æĪĳåĵ¥": 7690,
      "ä¸ĢæľĪ": 7691,
      "å¤©ç©º": 7692,
      "ĠéĤ£ä»Ĭå¤©": 7693,
      "ĠçĦ¶åĲİä»ĸå°±": 7694,
      "Ġä»Ĭå¤©æĻļä¸Ĭ": 7695,
      "è¿Ļä¸į": 7696,
      "ä»ĸæľī": 7697,
      "Ġåįĸ": 7698,
      "è·Łä½łåľ¨ä¸Ģèµ·": 7699,
      "åį¿": 7700,
      "æĸĮ": 7701,
      "å¾Ģä¸ĭ": 7702,
      "Ġå¾ħ": 7703,
      "çĿ¡äºĨ": 7704,
      "Ġè¯·ä½ł": 7705,
      "åŃ¤åįķ": 7706,
      "Ġä¼ł": 7707,
      "åĲ¨": 7708,
      "ç»£": 7709,
      "åĴ¸": 7710,
      "èĢģèĻİ": 7711,
      "çİ°åľ¨æĺ¯": 7712,
      "å¸¦èµ°": 7713,
      "ĠåķĨ": 7714,
      "çļĦä¸Ģå¤©": 7715,
      "çĶµè§Ĩåī§": 7716,
      "æī©å¤§": 7717,
      "ä½łçĪ¸": 7718,
      "æĿ¥ä¸įåıĬ": 7719,
      "ĠåıĶ": 7720,
      "å¹³éĿĻ": 7721,
      "æ¯ıä¸Ģä¸ªäºº": 7722,
      "èģĶåĤ¨": 7723,
      "éĻªä¼´èĢħ": 7724,
      "éģ®": 7725,
      "å¯¹ä»ĺ": 7726,
      "Ġè¿ĻåĽŀ": 7727,
      "æĬĬéĴ±": 7728,
      "æĬĬéĤ£ä¸ª": 7729,
      "æīĵæŃ»": 7730,
      "åħ¬åĽŃ": 7731,
      "åıĪä¸į": 7732,
      "å¸ĤåĢ¼": 7733,
      "ç¬¬åĽĽ": 7734,
      "è¿ĩåİ»çļĦ": 7735,
      "æ¥¼ä¸ĭ": 7736,
      "å¼ķåıĳ": 7737,
      "ĠåĽŀå®¶": 7738,
      "ĠçĪ·çĪ·": 7739,
      "ĠéĿŀ": 7740,
      "åįģä¸ª": 7741,
      "åģļæ¢¦": 7742,
      "æĸ°å¢ŀ": 7743,
      "ä¾ĿæĹ§": 7744,
      "Ġåİ»å¹´": 7745,
      "åĸľé©¬æĭīéĽħåĩºåĵģ": 7746,
      "çļĦçģµ": 7747,
      "Ġä½łåı¯èĥ½": 7748,
      "åĪ°æĪĳä»¬": 7749,
      "Ġå¤ľ": 7750,
      "Ġåħ»": 7751,
      "ĠæĪĳæĺ¯ä»Ĭå¤©çļĦå¿ĥçģµ": 7752,
      "ä½łä¸įèĥ½": 7753,
      "äºĨæĺ¯åĲ§": 7754,
      "è°Ĭ": 7755,
      "Ġå°±èĥ½": 7756,
      "ä¹ĭäºº": 7757,
      "æ²¡æľīæ²¡æľī": 7758,
      "äºĨä¸ĢçĤ¹": 7759,
      "Ġçİī": 7760,
      "ä¸ĸéĹ´": 7761,
      "ä¸¾è¡Į": 7762,
      "Ġæ³¨": 7763,
      "åļ·": 7764,
      "åĮħå®¹": 7765,
      "éĿłè¿ĳ": 7766,
      "è´Łè´£äºº": 7767,
      "Ġåĸľé©¬æĭīéĽħ": 7768,
      "éº¦åħĭé£İ": 7769,
      "Ġè·ĳ": 7770,
      "æĪĳåĲ§": 7771,
      "äºĨä¸¤": 7772,
      "è¾¨": 7773,
      "æŃ¤æĹ¶": 7774,
      "çĥŃæĥħ": 7775,
      "ĠæĶ¿": 7776,
      "æĺŁçĲĥä¼ļå®¢åİħ": 7777,
      "æĪĳä»¬åı¯ä»¥": 7778,
      "éĽ¾": 7779,
      "ĠåĨįè¯´": 7780,
      "å°ģä¿¡": 7781,
      "Ġè¯Ŀ": 7782,
      "èµł": 7783,
      "åŃĲå¼¹": 7784,
      "èıĬ": 7785,
      "Ġä¸įæĺ¯ä½ł": 7786,
      "æīĵæŀ¶": 7787,
      "èĥ³": 7788,
      "å¤ĸåĽ½": 7789,
      "çĻ½çļĦ": 7790,
      "åĲĳæĤ¨": 7791,
      "è´Łè´£ä»»": 7792,
      "Ġä¸Ģä¸ªæľĪ": 7793,
      "éĿ¢ç§¯": 7794,
      "éĽ¶å¹´": 7795,
      "ç²¾åĬĽ": 7796,
      "ä¾ĿéĿł": 7797,
      "åħ³ç³»çļĦ": 7798,
      "Ġä¸įæĺ¯æĪĳ": 7799,
      "è§Ħå¾ĭ": 7800,
      "æ¶īåıĬ": 7801,
      "éĢĽè¡Ĺ": 7802,
      "æīĵä¸ªçĶµè¯Ŀ": 7803,
      "ĠæĪĳæĺ¯ä»Ĭå¤©çļĦå¿ĥçģµéĻªä¼´èĢħ": 7804,
      "å¤§åıĶ": 7805,
      "èĩĤ": 7806,
      "è·Łè°ģ": 7807,
      "è¡ĮæĶ¿": 7808,
      "ç¤¼è²Į": 7809,
      "èĨĬ": 7810,
      "è¿ĩä¸Ģä¸ª": 7811,
      "æĬĬä»ĸä»¬": 7812,
      "å©¿": 7813,
      "ä¸Ģä¸ĭåĲ§": 7814,
      "äºĮåįģäºĮ": 7815,
      "æĪĳå°±æĥ³": 7816,
      "Ġè¯´ä¸įå®ļ": 7817,
      "èį¯çī©": 7818,
      "è¯ŃéŁ³": 7819,
      "ä¸įæĸŃåľ°": 7820,
      "å°ıåŃ©åĦ¿": 7821,
      "çļĦå¦Īå¦Ī": 7822,
      "ä¸įåĲĪ": 7823,
      "æŀļ": 7824,
      "ä¸įæĺ¯å¾Ī": 7825,
      "çĸ«æĥħéĺ²æİ§": 7826,
      "Ġæ°ĳ": 7827,
      "Ġåĺī": 7828,
      "ä¸Ģå¯¹": 7829,
      "æĿ¥æī¾æĪĳ": 7830,
      "å¾Ĺè¿Ļä¹Ī": 7831,
      "è®²åłĤ": 7832,
      "Ġåī©": 7833,
      "ä¸Ģä»¶äºĭæĥħ": 7834,
      "éĺ»æŃ¢": 7835,
      "æĪĳåı«": 7836,
      "å°±è§īå¾Ĺ": 7837,
      "äººåĲĹ": 7838,
      "Ġç¢": 7839,
      "ç»ĻåĪ«äºº": 7840,
      "åĸĺ": 7841,
      "ç²Ĵ": 7842,
      "æµĭè¯ķ": 7843,
      "èĨľ": 7844,
      "åħ¬ä¼Ĺå¾®ä¿¡": 7845,
      "èļĤ": 7846,
      "ä¸ªå¥½": 7847,
      "ĠæĪĳå¥½": 7848,
      "åĳĬè¯īæĪĳä»¬": 7849,
      "ç¥ŀç§ĺ": 7850,
      "æľĿå»·": 7851,
      "æ½ĩ": 7852,
      "çĶĺå¿ĥ": 7853,
      "ä¹ŁåĪ«": 7854,
      "åĸľæ¬¢çļĦäºº": 7855,
      "ĠæĬ±": 7856,
      "çĽ¸éģĩåľ¨å¼łå¾·èĬ¬ç©ºéĹ´": 7857,
      "çļĦä¸ī": 7858,
      "ä¸Ģåħ±": 7859,
      "Ġä½łåĳĢ": 7860,
      "è¦ģåģļ": 7861,
      "äºĮæľĪ": 7862,
      "åıªå¥½": 7863,
      "èĦĤ": 7864,
      "ä¸įäºĨäºĨ": 7865,
      "åħ»èĢģ": 7866,
      "ä¹ĸä¹ĸ": 7867,
      "çļĦåħ¨": 7868,
      "æĿł": 7869,
      "éĤ£åı¥è¯Ŀ": 7870,
      "èĩªåĬ¨": 7871,
      "æĥ³åĲĥ": 7872,
      "ĠéĤ£å¦Ĥæŀľ": 7873,
      "Ġåı¯æĺ¯ä½ł": 7874,
      "çĶľèľľ": 7875,
      "åģ¶å°Ķ": 7876,
      "ĠæĲŀ": 7877,
      "ĠçĻ¾åĪĨä¹ĭ": 7878,
      "èĥ³èĨĬ": 7879,
      "æľĢéĩįè¦ģ": 7880,
      "è½¦è¾Ĩ": 7881,
      "éħ¬": 7882,
      "éĥ½ä¸įæķ¢": 7883,
      "è´¢åĬ¡": 7884,
      "çĥ¦æģ¼": 7885,
      "åįĩçº§": 7886,
      "Ġä½łçĪ¸": 7887,
      "ĠèĢģå©Ĩ": 7888,
      "ĠåĲĮæł·": 7889,
      "æĬĺç£¨": 7890,
      "Ġä½łåĴĮ": 7891,
      "å½ĵä¸ĭ": 7892,
      "åı¯ä»¥å¸®åĪ°æĤ¨çļĦåĲĹ": 7893,
      "æķ°åŃ¦": 7894,
      "åĩĨç¡®": 7895,
      "æ¤įçī©": 7896,
      "äººç¾¤": 7897,
      "è·ŁéĤ£ä¸ª": 7898,
      "é¢ĺçĽ®": 7899,
      "è¿Ļç§įæĥħåĨµ": 7900,
      "èĥ¡è¯´": 7901,
      "çļĦæ°Ķ": 7902,
      "ä¸ĢèĦ¸": 7903,
      "å¤§å¹ħ": 7904,
      "æĥ³èµ·æĿ¥": 7905,
      "é¥º": 7906,
      "ĠåĪ«å¿ĺäºĨ": 7907,
      "åįĥä¸ĩä¸įè¦ģ": 7908,
      "å¿½çķ¥": 7909,
      "åľ¨éĩĮéĿ¢": 7910,
      "å¾Ĺç½ª": 7911,
      "åĵĴ": 7912,
      "Ġè¿ĻåŃ©åŃĲ": 7913,
      "åĲ¬åĪ°äºĨ": 7914,
      "æĸ°æµª": 7915,
      "Ġæ¯Ľ": 7916,
      "åŀ«": 7917,
      "åĪĿä¸Ń": 7918,
      "ç¼ºä¹ı": 7919,
      "çļĦåĦ¿åŃĲ": 7920,
      "ä¸ĭä¸Ģä½į": 7921,
      "èĩªæĿĢ": 7922,
      "æĥ³çŁ¥éģĵ": 7923,
      "æĶ¾å¼Ģ": 7924,
      "ç¨ļ": 7925,
      "Ġä»ĸè¯´ä»ĸ": 7926,
      "åıĳå±ķçļĦ": 7927,
      "ä¸ĢæĹł": 7928,
      "çľĭçĿĢæĪĳ": 7929,
      "è¢«ä½ł": 7930,
      "è®²ç©¶": 7931,
      "Ġåĩ¡": 7932,
      "æį¢ä¸ª": 7933,
      "Ġåħ·ä½ĵ": 7934,
      "åį¦": 7935,
      "ĠåĪĿ": 7936,
      "æ¸ħæĻ°": 7937,
      "Ġä»Ģä¹Īåı«": 7938,
      "åŃĺæ¬¾": 7939,
      "åĽ½å®¶çļĦ": 7940,
      "ç£Ĭ": 7941,
      "äººè¯´": 7942,
      "å¼Ĺ": 7943,
      "å¤§è®²åłĤ": 7944,
      "æĬĬåŃ©åŃĲ": 7945,
      "æĶ¾åĪ°": 7946,
      "çī¹åĬ¡": 7947,
      "åı·çłģ": 7948,
      "Ġå½ĵæĪĳä»¬": 7949,
      "æ´¾åĩº": 7950,
      "åĹĵ": 7951,
      "Ġè®¸": 7952,
      "ä¼ļè§īå¾Ĺ": 7953,
      "åħ«åįĥ": 7954,
      "æ¡Ĩ": 7955,
      "è§Ĥå¿µ": 7956,
      "Ġä¸ºä»Ģä¹Īè¦ģ": 7957,
      "èĵĦ": 7958,
      "Ġæİ¥çĿĢ": 7959,
      "ĠåĢ¼å¾Ĺ": 7960,
      "ç¥Ŀç¦ı": 7961,
      "çļĦç¤¾ä¼ļ": 7962,
      "åıĳè¡¨": 7963,
      "åıĪè¦ģ": 7964,
      "åŁĥ": 7965,
      "åĥıä¸ª": 7966,
      "Ġè°¢è°¢åķĬ": 7967,
      "åľ¨åĮĹäº¬": 7968,
      "å±İ": 7969,
      "Ġåľ¨ä½ł": 7970,
      "å¤ĸçķĮ": 7971,
      "Ġä¾ĿçĦ¶": 7972,
      "å¼łæĺİ": 7973,
      "çĭ¬èĩª": 7974,
      "åĢŁéĴ±": 7975,
      "æ¶¨å¹ħ": 7976,
      "ç¡®å®ŀæĺ¯": 7977,
      "èĺ": 7978,
      "å¿½çĦ¶": 7979,
      "æľ¬èĬĤçĽ®çĶ±": 7980,
      "çıĬ": 7981,
      "æĲº": 7982,
      "Ġå·¦": 7983,
      "å¾Īä¸į": 7984,
      "çĸĨ": 7985,
      "ĠæĢª": 7986,
      "ä¹°åįĸ": 7987,
      "æ¯ıä¸Ģæ¬¡": 7988,
      "å¼Ĥåľ°": 7989,
      "è¯Ħè®ºåĮº": 7990,
      "ĠéģĩåĪ°": 7991,
      "Ļæ±Ł": 7992,
      "æľ´": 7993,
      "åį¢": 7994,
      "åĩºéĻ¢": 7995,
      "å½ĵçļĦ": 7996,
      "Ġä¸Ģæ¬¡": 7997,
      "ĠæīĢä»¥ä»ĸ": 7998,
      "å¤§å®¶çļĦ": 7999,
      "äºĮåįģä¸ĥ": 8000,
      "å¥½åĲĥçļĦ": 8001,
      "çĽ²": 8002,
      "ä¸īæ¬¡": 8003,
      "ä¸īä¸ĩ": 8004,
      "ĠæľĪ": 8005,
      "å°±çŁ¥éģĵ": 8006,
      "Ġæ¹": 8007,
      "çĿĢä¸Ģä¸ª": 8008,
      "èĤĨ": 8009,
      "æīĵæĪĳ": 8010,
      "ç³ĹäºĭæĴŃæĬ¥": 8011,
      "ä¸ľè¥¿åķĬ": 8012,
      "å·¥ä½ľäººåĳĺ": 8013,
      "ä»¬çļĦ": 8014,
      "Ġä»ĸèĥ½": 8015,
      "Ġå¯¹æĪĳ": 8016,
      "è·ŁæĪĳè®²": 8017,
      "Ġè¦ģä¸įæĺ¯": 8018,
      "æµģåĬ¨": 8019,
      "çļĦå¿ĥçĲĨ": 8020,
      "ä¸įä½ıäºĨ": 8021,
      "ä»¥ä¸ĭ": 8022,
      "åĴ³": 8023,
      "Ġä¹Łæ²¡": 8024,
      "ä¸Ĭå¤§åŃ¦": 8025,
      "ä¸ĭæīĭ": 8026,
      "Ġå¦ĤæŀľæĪĳä»¬": 8027,
      "ĠåĨ¬": 8028,
      "åĮºçļĦ": 8029,
      "Ġå¾Īå¿«": 8030,
      "Ġä½łçľĭä½ł": 8031,
      "æĥ³è¦ģçļĦ": 8032,
      "ĠåĢŁ": 8033,
      "æĹŃ": 8034,
      "Ġä½łå¦Ī": 8035,
      "å¯¡": 8036,
      "ä¸ĭéĿ¢çļĦ": 8037,
      "åĮł": 8038,
      "æĬĬæĪĳçļĦ": 8039,
      "åĪĨåŃĲ": 8040,
      "Ġå¼ķ": 8041,
      "Ġä¸įç®¡æĺ¯": 8042,
      "ĠåįĹæĸ¹éĥ½å¸ĤæĬ¥": 8043,
      "ĠæĪĳåıªèĥ½": 8044,
      "å¤§åĪ©": 8045,
      "å¯¹è¯Ŀ": 8046,
      "äºĶä¸ĩ": 8047,
      "éľŀ": 8048,
      "åĿĹåĦ¿": 8049,
      "ç«ĭåį³": 8050,
      "ä¸īåįģå²ģ": 8051,
      "çħİ": 8052,
      "èĳ±": 8053,
      "å°¸ä½ĵ": 8054,
      "è¿Ļè¾ĪåŃĲ": 8055,
      "è£ħä¿®": 8056,
      "å´ĸ": 8057,
      "çĳ¶": 8058,
      "äºĨä»Ģä¹Ī": 8059,
      "ĠæĪĳè®¤ä¸º": 8060,
      "ä»ĸå®¶": 8061,
      "èĥ½æºĲ": 8062,
      "çľŁå¥½": 8063,
      "Ġåı¯æĥľ": 8064,
      "ä½©æľį": 8065,
      "æľīéĻĲåħ¬åı¸": 8066,
      "Ġæ¥": 8067,
      "ä»¬éĥ½": 8068,
      "æĿ¥åģļ": 8069,
      "æĸĳ": 8070,
      "Ġè¿Ļéĥ½æĺ¯": 8071,
      "çħ¤": 8072,
      "æĮĩè´£": 8073,
      "å¤įå·¥": 8074,
      "æĺ¯ä»Ģä¹Īæł·çļĦ": 8075,
      "ĠæĽ¹": 8076,
      "æĵįå¿ĥ": 8077,
      "äºĨå¥¹": 8078,
      "éĥ½ä¸įèĥ½": 8079,
      "çĿĢåĲ§": 8080,
      "æĥħä¾£": 8081,
      "æĪĲå¹´": 8082,
      "æĢİä¹Īè¿Ļä¹Ī": 8083,
      "Ġä½Ĩæĺ¯æĪĳè§īå¾Ĺ": 8084,
      "å¤ĸäºº": 8085,
      "Ġå°ıæĹ¶åĢĻ": 8086,
      "Ġåįł": 8087,
      "æķ´çĲĨ": 8088,
      "ĠæĿ¥èĩª": 8089,
      "è®¾æĸ½": 8090,
      "Ġç´¯": 8091,
      "ç½¢äºĨ": 8092,
      "å§ļ": 8093,
      "èĢģåŃĲ": 8094,
      "ä»ĬåĦ¿": 8095,
      "æĿĳæ°ĳ": 8096,
      "åĶ¯ä¸ĢçļĦ": 8097,
      "äººåı£": 8098,
      "å¤ĸåľ°": 8099,
      "è¿Ļä¸Ģä¸ª": 8100,
      "å°±æĺ¯ä¸ºäºĨ": 8101,
      "å¤ªå¤ļçļĦ": 8102,
      "Ġè¿ĺæľīä¸Ģ": 8103,
      "åİĭæĬĳ": 8104,
      "Ġå¹¶ä¸įæĺ¯": 8105,
      "è¦ģä¸įçĦ¶": 8106,
      "äºĨä¸ĭæĿ¥": 8107,
      "æľīä½ł": 8108,
      "åįģå¹´çļĦ": 8109,
      "å©ī": 8110,
      "è¿Ļæł·åģļ": 8111,
      "è¢«ä»ĸ": 8112,
      "Ġä½łä¸įçĶ¨": 8113,
      "å¾ĹæĽ´": 8114,
      "çĶ·ä¸»": 8115,
      "èĲ¥ä¸ļ": 8116,
      "ĠéĻ¤éĿŀ": 8117,
      "å½ĵæĪĳ": 8118,
      "ĠæľīäºĨ": 8119,
      "çĻ½äºĨ": 8120,
      "å±±ä¸ľ": 8121,
      "æ³¨åĨĮ": 8122,
      "ĠæĪĳçļĦå¤©": 8123,
      "Ġåħ¬ä¸»": 8124,
      "è¶ĭåĬ¿": 8125,
      "æĸ¥": 8126,
      "æĥ³éĹ®": 8127,
      "å¤ļæ¬¡": 8128,
      "è°£": 8129,
      "ä¸Ńå¹´": 8130,
      "ç§°ä¸º": 8131,
      "ĠæĹ©ä¸Ĭ": 8132,
      "Ġç«Ļä½ı": 8133,
      "çļĦçłĶç©¶": 8134,
      "ĠæĪĳè·Łä»ĸ": 8135,
      "å¦Ĵ": 8136,
      "åºĹéĩĮ": 8137,
      "ĠæŀľçĦ¶": 8138,
      "æ²¡æľīäºĨ": 8139,
      "é«ĺåº¦": 8140,
      "Ġåĵĩ": 8141,
      "Ġä¸ĬéĿ¢": 8142,
      "å¥¢": 8143,
      "æīĵä»Ĺ": 8144,
      "é«ĺéĢŁ": 8145,
      "è®¤åĲĮ": 8146,
      "åĵªåĦ¿åķĬ": 8147,
      "ç§ĺä¹¦": 8148,
      "é¡¿é¥Ń": 8149,
      "åı¯ä¸į": 8150,
      "Ġä»ĸä¸įæĺ¯": 8151,
      "Ġä¸įåĨį": 8152,
      "è¢ľ": 8153,
      "ä¸įèĥ½åĨį": 8154,
      "åį°åº¦": 8155,
      "æĿ¥èĩªåįĹæĸ¹éĥ½å¸ĤæĬ¥æĴŃæĬ¥": 8156,
      "æĤ²ä¼¤": 8157,
      "Ġåĵ¥åĵ¥": 8158,
      "ç³Łç³ķ": 8159,
      "åľ¨ä¸ŃåĽ½": 8160,
      "çİ°éĩĳ": 8161,
      "åĲĥä¸ª": 8162,
      "æľĭåıĭçļĦ": 8163,
      "åĲįä¸ŃåĮ»": 8164,
      "æĢ§åĳ½": 8165,
      "æĹ©æĻļ": 8166,
      "èıĮ": 8167,
      "Ġæ¯ıä¸ª": 8168,
      "çĶŁåĳ½çļĦ": 8169,
      "ç©ºæ°Ķ": 8170,
      "Ġä½łè¯´ä»Ģä¹Ī": 8171,
      "èĵī": 8172,
      "ç½Ĺæĸ¯": 8173,
      "ä¸ĢåįĥéĽ¶ä¸Ģå¤ľ": 8174,
      "åĲįåĮ»å¤§è®²åłĤ": 8175,
      "Ġé¡¾": 8176,
      "Ġèµ°äºĨ": 8177,
      "ç»ıåħ¸": 8178,
      "åĿ¤": 8179,
      "èĥĮåıĽ": 8180,
      "åĿļåĨ³": 8181,
      "åĪĨäº«çļĦæĸĩç«ł": 8182,
      "å¸ĤåľºçļĦ": 8183,
      "æ¡ĮåŃĲ": 8184,
      "åĨłåĨĽ": 8185,
      "ĠçıŃ": 8186,
      "çļĦçĹĽèĭ¦": 8187,
      "ĠæĪĳä¸Ģå®ļ": 8188,
      "åķĬè¿Ļä¸ª": 8189,
      "å¾Īåĸľæ¬¢": 8190,
      "è§ģçļĦ": 8191,
      "çļĦçı": 8192,
      "ä¿®å¤į": 8193,
      "Ġä¸Ķ": 8194,
      "Ġé¾Ļ": 8195,
      "ä½łåºĶè¯¥": 8196,
      "çİ«çĳ°": 8197,
      "çĻ¾ä¸ĩ": 8198,
      "æĢ»ä¼ļ": 8199,
      "Ġäººæ°ĳ": 8200,
      "ĠéĢīæĭ©": 8201,
      "å¸Į": 8202,
      "åĩºä¸Ģ": 8203,
      "çĿĢèĩªå·±": 8204,
      "æĢ»ç»Ł": 8205,
      "Ġè¯´è¯Ŀ": 8206,
      "æľĢåĲİä¸Ģ": 8207,
      "çľŁå®ŀçļĦ": 8208,
      "Ġä½łä¸Ģå®ļè¦ģ": 8209,
      "åįģæľĪ": 8210,
      "ä¹ĭå¤Ħ": 8211,
      "çĲĲ": 8212,
      "ä»ĸä»¬ä¿©": 8213,
      "çĹĴ": 8214,
      "å½¢åĬ¿": 8215,
      "æŁĲäºĽ": 8216,
      "Ġå¾Īå¤ļæĹ¶åĢĻ": 8217,
      "Ġæ´Ĺ": 8218,
      "æľīä¸¤ä¸ª": 8219,
      "åĬ¨æľº": 8220,
      "éħĴåĲ§": 8221,
      "çģ«éĶħ": 8222,
      "ä¸įå¾Ĺä¸į": 8223,
      "å§Ķåĳĺä¼ļ": 8224,
      "Ġä»»ä½ķ": 8225,
      "åİ»è¿ĩ": 8226,
      "å¥¹æĺ¯": 8227,
      "åħĪèµ°äºĨ": 8228,
      "æ·ĳ": 8229,
      "éĶĻè¿ĩ": 8230,
      "Ġå¼Ħ": 8231,
      "æ¸¸å®¢": 8232,
      "ä¸įè¡ĮåķĬ": 8233,
      "åĩºåĽ½": 8234,
      "çļĦæĹ¶åĢĻä»ĸ": 8235,
      "æĶ¾è¿ĩ": 8236,
      "äºĨä¸Ģç§į": 8237,
      "åľ¨ä¸Ģèµ·äºĨ": 8238,
      "ĠæĪĳçŁ¥éģĵäºĨ": 8239,
      "Ġæµģ": 8240,
      "äººåĴĮ": 8241,
      "ä¸ºå¤§å®¶": 8242,
      "åĩºä¸Ģä¸ª": 8243,
      "åĩºæīĭ": 8244,
      "è§ģä½ł": 8245,
      "åĲįåı«": 8246,
      "çľ¼åĦ¿": 8247,
      "åħīæĺİ": 8248,
      "åıĳçİ°èĩªå·±": 8249,
      "Ġæ²¡æľīä»Ģä¹Ī": 8250,
      "æ¯ıå¤©éĥ½": 8251,
      "çĺ¾": 8252,
      "æ¶Īè´¹èĢħ": 8253,
      "ä¸įåłª": 8254,
      "æĶĢ": 8255,
      "å½ĵä½ľ": 8256,
      "æ±ģ": 8257,
      "æĤ¨è¯´": 8258,
      "ç»ĻæĪĳåıĳ": 8259,
      "Ġä»Ĭå¤©æĪĳä»¬": 8260,
      "ä¹īåĬ¡": 8261,
      "ĠåĲĮå¿Ĺ": 8262,
      "è¿ĩç¨ĭå½ĵä¸Ń": 8263,
      "Ġç§ĭ": 8264,
      "Ġä¸ĸçķĮ": 8265,
      "ä¸Ĭè½¦": 8266,
      "å¤©åľ°": 8267,
      "åĩºç§Ł": 8268,
      "æĪĲäº¤": 8269,
      "æĬĬæĪĳä»¬": 8270,
      "Ġä½Ĩæĺ¯çİ°åľ¨": 8271,
      "æ¯ıä¸ªæľĪ": 8272,
      "ç¼´": 8273,
      "æĬ½çĥŁ": 8274,
      "è¿Ļæł·åĲ§": 8275,
      "åºĶçĶ¨": 8276,
      "äº²æĥħ": 8277,
      "åı«ä»ĸ": 8278,
      "ä¼¤åı£": 8279,
      "æł¡éķ¿": 8280,
      "æŁĲç§į": 8281,
      "Ġå«Ĥ": 8282,
      "å°¤åħ¶": 8283,
      "äººæķ°": 8284,
      "å¯¹æĪĳè¯´": 8285,
      "Ġè¿ĺå¾Ĺ": 8286,
      "å¤ĸè¾¹": 8287,
      "Ġæ²³": 8288,
      "æĬ¥å¤į": 8289,
      "æ·±åħ¥": 8290,
      "åľĪåĦ¿": 8291,
      "æĽ¿æĪĳ": 8292,
      "ä¸Ľ": 8293,
      "åķĬå°±": 8294,
      "éĴī": 8295,
      "Ġä¸ĢäºĽ": 8296,
      "æ°´çļĦ": 8297,
      "å¹¶éĿŀ": 8298,
      "è¿Ļä¸Ģå¤©": 8299,
      "é»ĳæļĹ": 8300,
      "æ¾ľ": 8301,
      "æĬĽå¼ĥ": 8302,
      "ä¸ĬéĹ¨": 8303,
      "ä¸ºæĪĳä»¬": 8304,
      "åĴĮè°Ĳ": 8305,
      "åĨįä¹Łä¸į": 8306,
      "Ġä¹Łè¦ģ": 8307,
      "è°ĥè°ĥ": 8308,
      "ĠçŃīä½ł": 8309,
      "ĠçīĽ": 8310,
      "ĠåĬªåĬĽ": 8311,
      "Ġåª": 8312,
      "å®Ļ": 8313,
      "å°±æĺ¯ä¸į": 8314,
      "å®ĮæĪĲäºĨ": 8315,
      "ĠæŃ£åľ¨": 8316,
      "è£¤åŃĲ": 8317,
      "èļĤèļģ": 8318,
      "ç»Ļå®ĥ": 8319,
      "è´¯": 8320,
      "ä¸īä¸ªäºº": 8321,
      "è¯¾ç¨ĭ": 8322,
      "å°±ä¸ļ": 8323,
      "éĥ¨éķ¿": 8324,
      "ä½ıéĻ¢": 8325,
      "ĠæĪĳå°±è§īå¾Ĺ": 8326,
      "æ¯Ķè¾ĥå¤ļ": 8327,
      "è®¶": 8328,
      "èµ°è·¯": 8329,
      "æŁı": 8330,
      "ĠåĽŀåİ»": 8331,
      "çļĦç¼º": 8332,
      "Ħ¦": 8333,
      "ä¸ªå¤§": 8334,
      "åĴ½": 8335,
      "ĠæĪĳä»¬ä¼ļ": 8336,
      "è¥¿æĸ¹": 8337,
      "åıĪèĥ½": 8338,
      "åĥıæĺ¯": 8339,
      "ä¹Ĳè§Ĥ": 8340,
      "Ġæ¸©": 8341,
      "ĠçĶ°": 8342,
      "ĠéĥŃ": 8343,
      "çļĦä½ľçĶ¨": 8344,
      "Ġä½łä¹Łä¸į": 8345,
      "çĶŁæŃ»": 8346,
      "Ġè¿Ļä¸Ģæ¬¡": 8347,
      "åľ°æĬĬ": 8348,
      "åĲ¬æĩĤ": 8349,
      "ä»Ĭå¤ľä¸įå¯Ĥå¯ŀ": 8350,
      "è¿Ļæł·åķĬ": 8351,
      "æİ¨åĬ¨": 8352,
      "èĩªè¡Įè½¦": 8353,
      "Ġè·Łä»ĸ": 8354,
      "ä¸įå®ī": 8355,
      "è¿Ļä¸ªåŃ©åŃĲ": 8356,
      "è¿Ļä¸ªåľ°æĸ¹": 8357,
      "æī¾äºĨ": 8358,
      "Ġå®ģ": 8359,
      "çī©èµĦ": 8360,
      "Ġåĵİä½ł": 8361,
      "Ġæĥ³äºĨè§£æĽ´å¤ļè´¢ç»ıèµĦè®¯": 8362,
      "Ġåı¯èĥ½æĺ¯": 8363,
      "ĠåŃ¦ä¼ļ": 8364,
      "å²Ĺä½į": 8365,
      "Ġæ¬¢è¿İæĿ¥åĪ°å¼łå¾·èĬ¬ç©ºéĹ´": 8366,
      "çļĦéĩįè¦ģ": 8367,
      "å°±èµ°": 8368,
      "å°ıçļĦæĹ¶åĢĻ": 8369,
      "æĽ¦": 8370,
      "åıĪæľī": 8371,
      "èıĩ": 8372,
      "çĨ¬å¤ľ": 8373,
      "çļĦåĲĮæĹ¶": 8374,
      "Ġä½łä¸įçŁ¥éģĵ": 8375,
      "æģŃåĸľ": 8376,
      "èĥĢ": 8377,
      "çĬ¬": 8378,
      "æ½ĺ": 8379,
      "åīįä»»": 8380,
      "éĴ±åķĬ": 8381,
      "åĲĮæł·çļĦ": 8382,
      "éĿĴèĽĻ": 8383,
      "èĳ¡": 8384,
      "ç§¯ç´¯": 8385,
      "ä¿ĥè¿Ľ": 8386,
      "æĸ°æµªå¾®åįļ": 8387,
      "æĪĳèĩªå·±çļĦ": 8388,
      "ä¸įå¤ļäºĨ": 8389,
      "è¿Ļæ®µæĹ¶éĹ´": 8390,
      "ĠæĪĳå¯¹": 8391,
      "Ġä½łè®©æĪĳ": 8392,
      "èĢģå¦Ī": 8393,
      "åıĹå®³": 8394,
      "Ġä½łä»¬ä¸¤ä¸ª": 8395,
      "è£¹": 8396,
      "æł¼å±Ģ": 8397,
      "æħ¢çĤ¹": 8398,
      "åŁºåľ°": 8399,
      "éļĲèĹı": 8400,
      "èµĲ": 8401,
      "åĳ¢æĪĳä»¬": 8402,
      "åŃ©åĦ¿": 8403,
      "èĬ±åĦ¿": 8404,
      "æ¯ıä¸Ģ": 8405,
      "ĠåĨľ": 8406,
      "éªĹåŃĲ": 8407,
      "æ¬ºéªĹ": 8408,
      "ĠæĪĳè·Łä½łè¯´åķĬ": 8409,
      "äºĨä»¥åĲİ": 8410,
      "Ġä»ĸè¯´ä½ł": 8411,
      "å¤ªå¤§": 8412,
      "æįŀ": 8413,
      "æ¶Į": 8414,
      "æķĻä½ł": 8415,
      "é©¬ä¸Ĭå°±è¦ģ": 8416,
      "èĴ¸": 8417,
      "èĶ½": 8418,
      "ĠæĪĳæľīä¸Ģä¸ª": 8419,
      "æİĺ": 8420,
      "è¢«æĪĳ": 8421,
      "åĸĿçĤ¹": 8422,
      "Ġåı¯æĺ¯ä»ĸ": 8423,
      "çīĽéĢ¼": 8424,
      "çºªå¿µ": 8425,
      "åĺŁåĺŁ": 8426,
      "éŃħåĬĽ": 8427,
      "æĺ¯èĩªå·±": 8428,
      "ä½łå®¶": 8429,
      "çľĭçļĦ": 8430,
      "åģļä¸ĢäºĽ": 8431,
      "ä½ĵéĩį": 8432,
      "åľºæīĢ": 8433,
      "çº¿ä¸Ĭ": 8434,
      "çĻ¾åĪĨä¹ĭåĽĽåįģ": 8435,
      "èĹ¤": 8436,
      "Ġå°ĨåĨĽ": 8437,
      "çªĹæĪ·": 8438,
      "ä¸įè®¸": 8439,
      "è¿Ļæĸ¹éĿ¢": 8440,
      "åĪĬ": 8441,
      "å¦Ħ": 8442,
      "æĪĳçļĦè¯Ŀ": 8443,
      "å¹²éĥ¨": 8444,
      "éĿŀå¸¸å¥½": 8445,
      "éĩĮéĿ¢çļĦ": 8446,
      "Ġå¤«äºº": 8447,
      "åĪ«è¯´": 8448,
      "æľĢåĲİçļĦ": 8449,
      "æĥ³è¿ŀçº¿çļĦæľĭåıĭ": 8450,
      "Ġèµ·": 8451,
      "ä¸įè®¤è¯Ĩ": 8452,
      "åľ¨åĸľé©¬æĭīéĽħ": 8453,
      "Ġç¾": 8454,
      "çĶŁæĢģ": 8455,
      "é£İéĽ¨": 8456,
      "æķ´æķ´": 8457,
      "Ġé¢Ħè®¡": 8458,
      "äºĨä½łçļĦ": 8459,
      "Ġçķ": 8460,
      "åİ»åĮ»éĻ¢": 8461,
      "çľĭä¸Ĭ": 8462,
      "çĿĢå°ı": 8463,
      "å°ıäºĨ": 8464,
      "åľ°çľĭçĿĢ": 8465,
      "çº½": 8466,
      "èĪŁ": 8467,
      "éĥ½æĺ¯åľ¨": 8468,
      "çľ¼éķľ": 8469,
      "è¿Ļæĺ¯ä¸Ģä¸ª": 8470,
      "æĿ¥æĿ¥æĿ¥": 8471,
      "å§¥å§¥": 8472,
      "åĴĮä½łä¸Ģèµ·æĪĲéķ¿": 8473,
      "å¥½ä¹ħ": 8474,
      "éĥ½ç»Ļ": 8475,
      "éĢĿ": 8476,
      "çĤ¹èµŀ": 8477,
      "åĴĮæĪĳä»¬": 8478,
      "ĠæĹģ": 8479,
      "Ġè¯´æĺİ": 8480,
      "ä¼łæŁĵ": 8481,
      "ĠåĲİæĿ¥æĪĳ": 8482,
      "è±ĨèħĲ": 8483,
      "å¨ĥå¨ĥ": 8484,
      "éĤ£æł·çļĦ": 8485,
      "Ġä»ĸæĬĬ": 8486,
      "Ġä¸Ģä½į": 8487,
      "æįı": 8488,
      "æĪĺåľº": 8489,
      "æĬķç¥¨": 8490,
      "è¡¥è´´": 8491,
      "çĪ¹å¦Ī": 8492,
      "æĲŃçĲĨ": 8493,
      "ĠåŁİ": 8494,
      "å®ĺæĸ¹ä¹ĿåħŃ": 8495,
      "ä¸įé«ĺåħ´": 8496,
      "äººå°±": 8497,
      "è¿Ļä¸ªå®¶": 8498,
      "å¤ļå¹´çļĦ": 8499,
      "æĭĺ": 8500,
      "Ġåı£": 8501,
      "æĽ´æľī": 8502,
      "æ¢³": 8503,
      "æĩµ": 8504,
      "å¥ĩå¦Ļ": 8505,
      "èĪŀè¹Ī": 8506,
      "ä¸Ģå²ģ": 8507,
      "ĠçĬ": 8508,
      "èµ°åĩº": 8509,
      "è°ģçļĦ": 8510,
      "èĲĦ": 8511,
      "ä¸İäºº": 8512,
      "è½¬åıĳ": 8513,
      "éĢĢä¼ĳ": 8514,
      "çºłç¼ł": 8515,
      "Ġä¸ĩå¾·åľ¨æĤ¨èº«è¾¹": 8516,
      "Ġç©º": 8517,
      "æłĭ": 8518,
      "ä¸ĭè·Į": 8519,
      "åĲĥè¿ĩ": 8520,
      "ç²¥": 8521,
      "æĻļä¸ĬåįģçĤ¹": 8522,
      "é¼İ": 8523,
      "Ġçĭ¬": 8524,
      "èĳ¡èĲĦ": 8525,
      "ä»ĸè¿ĺ": 8526,
      "çİĦ": 8527,
      "å°±æĺ¯ä¸Ģ": 8528,
      "éĤ£ä¸ªéĤ£ä¸ª": 8529,
      "ç¬¬ä¸ĢæĹ¶éĹ´": 8530,
      "èµĶåģ¿": 8531,
      "ĠçĮ«": 8532,
      "Ġä»¥ä¸Ĭå°±æĺ¯": 8533,
      "ä¸ªèĤ¡": 8534,
      "èĢ¿": 8535,
      "è§Ī": 8536,
      "ä¸ĬåºĬ": 8537,
      "å¥³ä¸»": 8538,
      "èº«åĲİ": 8539,
      "æĢªæĪĳ": 8540,
      "Ġå¸ĪåĤħ": 8541,
      "è¿Ļä¸¤å¤©": 8542,
      "åľ¨ç½ĳä¸Ĭ": 8543,
      "èº«çļĦ": 8544,
      "æ¯Ķæĸ¹": 8545,
      "èĢģå¸ĪçļĦ": 8546,
      "æĪĳæĪĳæĪĳ": 8547,
      "å¡ĺ": 8548,
      "èĪħèĪħ": 8549,
      "å¾ĹæĪĳ": 8550,
      "å¤©ä¸Ĭ": 8551,
      "ç½ĳç«Ļ": 8552,
      "è´ŁéĿ¢": 8553,
      "çĸ¯äºĨ": 8554,
      "çĻ¾åĪĨçĤ¹": 8555,
      "å¥½äºĭ": 8556,
      "Ġè¿Ļäºĭ": 8557,
      "ä¹ĭç±»çļĦ": 8558,
      "æĢİä¹Īåİ»": 8559,
      "åºĶçļĦ": 8560,
      "è®²è¿°": 8561,
      "ä¿Ŀå¯Ĩ": 8562,
      "ä¹ĲéĺŁ": 8563,
      "åĲĳæĪĳ": 8564,
      "åį´æĺ¯": 8565,
      "æŁĲæŁĲ": 8566,
      "Ġå½ĵæĹ¶æĪĳ": 8567,
      "ä¹Įé¾Ł": 8568,
      "å°±åħĪ": 8569,
      "åŃĲåĳ¢": 8570,
      "ĠéĤ£ç§į": 8571,
      "ä»İåīį": 8572,
      "è¿Ľåı£": 8573,
      "è®¤å®ļ": 8574,
      "æŃ¤äºĭ": 8575,
      "ĠæľĢèµ·çłģ": 8576,
      "ç»ĦåĲĪ": 8577,
      "æĬĢèĥ½": 8578,
      "ĠæŁ¥": 8579,
      "Ġç»Ŀå¯¹": 8580,
      "ä¸įæŃ¢": 8581,
      "Ġæ½": 8582,
      "è·Łè¿Ļä¸ª": 8583,
      "åĴĮå¹³": 8584,
      "åĽŀåĪ°äºĨ": 8585,
      "å®ĮäºĨåĲĹ": 8586,
      "åı¯èĥ½å°±æĺ¯": 8587,
      "Ġå®¢": 8588,
      "æ¢°": 8589,
      "è¯ķåĽ¾": 8590,
      "é»ĳäºĨ": 8591,
      "å°½åĬĽ": 8592,
      "åĿļå®ļ": 8593,
      "æĿ¥åĳĢ": 8594,
      "æĭĵ": 8595,
      "çº±": 8596,
      "Ġä¸įæķ¢": 8597,
      "Ġå¥ĩ": 8598,
      "å£¶": 8599,
      "å·²ç»ıæľī": 8600,
      "çģĮ": 8601,
      "Ġå¦Ĥæŀľæĺ¯": 8602,
      "çİ©æ¸¸æĪı": 8603,
      "çĻ¾åĪĨä¹ĭä¸ĢçĤ¹": 8604,
      "çĸ«èĭĹ": 8605,
      "ä¸įéĶĻçļĦ": 8606,
      "ä¼ĺç§ĢçļĦ": 8607,
      "Ġæ¢ģ": 8608,
      "åľ¨åĵª": 8609,
      "æĥ«": 8610,
      "Ġä¹Łå°±": 8611,
      "éļ¾å¾Ĺ": 8612,
      "éĹ¨çļĦ": 8613,
      "ĠæĪĳè§īå¾ĹæĪĳ": 8614,
      "æĪĲåĬŁçļĦ": 8615,
      "ĠçŁ³": 8616,
      "ä¸įå¤ªå¥½": 8617,
      "ĠèģĬ": 8618,
      "Ġè¶ģ": 8619,
      "ä»²": 8620,
      "åıī": 8621,
      "å¾ĪæŃ£å¸¸": 8622,
      "èĢģå¼Ł": 8623,
      "è¿Ļä¹Īéķ¿æĹ¶éĹ´": 8624,
      "è®²è§£": 8625,
      "è£ħå¤ĩ": 8626,
      "æİĮå£°": 8627,
      "äºĮåįģåĽĽå°ıæĹ¶": 8628,
      "å¿ĥèĦı": 8629,
      "çİ°åľ¨è¿Ļä¸ª": 8630,
      "å®īå¿ĥ": 8631,
      "Ġè¯´æĪĳ": 8632,
      "ç»§æī¿": 8633,
      "æĪĳä¹Łä¸įçŁ¥éģĵ": 8634,
      "å¥Ĺè·¯": 8635,
      "éļľç¢į": 8636,
      "Ġåĺ´": 8637,
      "ä¸Ģçº¿": 8638,
      "äºĨä¸įèµ·": 8639,
      "æĥ³ä½ł": 8640,
      "å°ıç»Ħ": 8641,
      "Ġå°±è¿ŀ": 8642,
      "æīĭæĮĩ": 8643,
      "Ġæĺ¯æĪĳä»¬": 8644,
      "Ġå½±": 8645,
      "æıĲèµ·": 8646,
      "ä¹Łæĺ¯ä¸Ģä¸ª": 8647,
      "èī¯å¿ĥ": 8648,
      "çľĭåĩºæĿ¥": 8649,
      "èĩªä¸ªåĦ¿": 8650,
      "å¯¹çļĦ": 8651,
      "åĲ§ä½ł": 8652,
      "äº²çĶŁ": 8653,
      "å¸¦åŃ©åŃĲ": 8654,
      "æĲħ": 8655,
      "åĹ¯åĹ¯": 8656,
      "Ġåģľ": 8657,
      "è¶ĬæĿ¥è¶Ĭå¤ļ": 8658,
      "éª¨å¤´": 8659,
      "äºĨåįĬå¤©": 8660,
      "åĩºè¡Į": 8661,
      "èĪĶ": 8662,
      "ĠåĨ·": 8663,
      "èģĶç»ľ": 8664,
      "çº¦ä¼ļ": 8665,
      "ä¸įä¸Ģæł·çļĦ": 8666,
      "éĹŃåĺ´": 8667,
      "Ġéº»çĥ¦": 8668,
      "ä¸Ģéĥ¨åĪĨ": 8669,
      "äºĨä»ĸçļĦ": 8670,
      "å¾½": 8671,
      "æĪĳä»¬åİ»": 8672,
      "ä¸Ńæľī": 8673,
      "äºĮä¸ī": 8674,
      "å¼Ģæŀª": 8675,
      "éķ¿ä¹ħ": 8676,
      "Ġå¦ĤæŀľæĤ¨": 8677,
      "æ¼Ĩ": 8678,
      "èĢĥå¯Ł": 8679,
      "åħ¶å®ŀæĪĳ": 8680,
      "Ġæķ¢": 8681,
      "çļĦéĥ½": 8682,
      "å®¶åħ¬åı¸": 8683,
      "å±±çļĦ": 8684,
      "å½ĵä¸ŃçļĦ": 8685,
      "çĸ¯çĭĤ": 8686,
      "äººéĹ´": 8687,
      "æĬĬè¿ĻäºĽ": 8688,
      "éĴĵ": 8689,
      "çĲĨå¿µ": 8690,
      "éĿŀæ´²": 8691,
      "ĠæĢ§": 8692,
      "åħīäºĨ": 8693,
      "å¦Ĥæŀľè¯´": 8694,
      "ä¸Ģä»¶äºĭ": 8695,
      "ĠæĪĳè¯´çļĦ": 8696,
      "æĥ¦": 8697,
      "çľĭä¸įè§ģ": 8698,
      "å°ıäºĭ": 8699,
      "æľ¬äºº": 8700,
      "äºĶåħŃ": 8701,
      "Ġä¸ĢçĻ¾": 8702,
      "æ»¡æ»¡": 8703,
      "å§ĳå§ĳ": 8704,
      "åľĪåŃĲ": 8705,
      "èµ¢äºĨ": 8706,
      "ç§»åĬ¨": 8707,
      "åĦ": 8708,
      "ä¸įä¸Ģå®ļ": 8709,
      "åĬĽåº¦": 8710,
      "çĽ¸åĲĮ": 8711,
      "çŃīä»ĸ": 8712,
      "æ»©": 8713,
      "è°Īè°Ī": 8714,
      "å·®è·Ŀ": 8715,
      "Ġå¤ļå°ĳ": 8716,
      "åįģäºĮæľĪ": 8717,
      "åĽŀåĪ°å®¶": 8718,
      "è®¢éĺħ": 8719,
      "æĥ©ç½ļ": 8720,
      "è¿Ļä¹Īä¸Ģ": 8721,
      "ä½įäºİ": 8722,
      "çľĭåĪ°çļĦ": 8723,
      "å¹¶ä¸Ķ": 8724,
      "ĠåĲĥé¥Ń": 8725,
      "è¿Ļæ®µæĦŁæĥħ": 8726,
      "æĪĲæŀľ": 8727,
      "ä¸ĸçķĮçļĦ": 8728,
      "éĿĻéĿĻ": 8729,
      "çľĭè§ģäºĨ": 8730,
      "å±ĤéĿ¢": 8731,
      "ç»ıåİĨäºĨ": 8732,
      "Ġç¥ĿæĤ¨": 8733,
      "ä¸įå¿ħ": 8734,
      "çĿĢæĪĳçļĦ": 8735,
      "èģĨ": 8736,
      "æĢķä½ł": 8737,
      "è¾ĵäºĨ": 8738,
      "ä¸Ĭå¸Ĥåħ¬åı¸": 8739,
      "ä¸įæİī": 8740,
      "åħĨ": 8741,
      "åĳĢä½ł": 8742,
      "Ġå¦Ĥæŀľæ²¡æľī": 8743,
      "Ġå¾·": 8744,
      "ä¸¥èĤĥ": 8745,
      "Ġå°ĨæĿ¥": 8746,
      "èĮħåı°": 8747,
      "ĠæĪĳéĹ®": 8748,
      "Ġå°±æĺ¯åľ¨": 8749,
      "èĻĲ": 8750,
      "è¡¨æĺİ": 8751,
      "Ġå¥¹çļĦ": 8752,
      "ä½İå¤´": 8753,
      "æĥĬè®¶": 8754,
      "Ġé£ŀ": 8755,
      "åį¸": 8756,
      "å®ŀä¹ł": 8757,
      "æīĵæī®": 8758,
      "æ·±å¤ľ": 8759,
      "ç¿ł": 8760,
      "ĠåĿļæĮģ": 8761,
      "¿ä¸ĭ": 8762,
      "ĠæĿĢ": 8763,
      "ä¸įèĤ¯": 8764,
      "çĪµ": 8765,
      "Ġä»ĸæ²¡æľī": 8766,
      "è´©": 8767,
      "Ġåıĸ": 8768,
      "ä¹ĭè·¯": 8769,
      "çŁ¥éģĵèĩªå·±": 8770,
      "Ġå½¼": 8771,
      "Ġå¿ĺ": 8772,
      "æ¡Īä¾ĭ": 8773,
      "Ġä½łçľĭæĪĳ": 8774,
      "çļĦå¿ĥæĥħ": 8775,
      "Ġåĩłä¹İ": 8776,
      "æ¸£çĶ·": 8777,
      "çļĦåĬĽéĩı": 8778,
      "ĠæĪĳçī¹åĪ«": 8779,
      "å¸½": 8780,
      "æ¯Ļ": 8781,
      "ä¸īåĪĨéĴŁ": 8782,
      "æľĢèµ·çłģ": 8783,
      "èĪ°": 8784,
      "ĠåĪ°çİ°åľ¨": 8785,
      "ç¬¬äºĮæ¬¡": 8786,
      "ĠæģŃåĸľ": 8787,
      "ç§ĳåŃ¦å®¶": 8788,
      "Ġè®©æĪĳä»¬ä¸Ģèµ·éģĩè§ģæľªçŁ¥çļĦèĩªå·±": 8789,
      "ç»ĳæŀ¶": 8790,
      "æĪĳåĲ¬": 8791,
      "ä¸įçĲĨ": 8792,
      "åķĬå°±æĺ¯": 8793,
      "å°ıåŃ©åŃĲ": 8794,
      "æµ´": 8795,
      "æĦŁæ¿Ģ": 8796,
      "çŃīä¼ļåĦ¿": 8797,
      "æĹ©æĻ¨": 8798,
      "è¶ħè¿ĩäºĨ": 8799,
      "Ġä¸ĭä¸ĢåĪ»åĨįè§ģåĲ§": 8800,
      "åľ¨ä¸ĢåĿĹåĦ¿": 8801,
      "Ġä½łåĳĬè¯īæĪĳ": 8802,
      "ä¼Ĳ": 8803,
      "èĩªä¸»": 8804,
      "é¢Ħéĺ²": 8805,
      "å¹¿ä¸ľçľģ": 8806,
      "å¥³å©¿": 8807,
      "Ġæĺ¯åĲĹ": 8808,
      "è¿Ľå±ķ": 8809,
      "ä¿¡å¿µ": 8810,
      "åĲĳåīį": 8811,
      "åŁİçļĦ": 8812,
      "ä¸įäºĨä½ł": 8813,
      "è¿Ļå°±": 8814,
      "Ġä½łåĸľæ¬¢": 8815,
      "æ³ķåĽ½": 8816,
      "çŀª": 8817,
      "ä¸ĥçĤ¹æĹ©çŁ¥éģĵæĴŃæĬ¥": 8818,
      "åĬ©çĲĨ": 8819,
      "çļĦçĸĳéĹ®": 8820,
      "ä¸įéĩįè¦ģ": 8821,
      "è¯´éģĵ": 8822,
      "å¤ļä¸ĩ": 8823,
      "æĺİçļĦ": 8824,
      "Ġåģ¶": 8825,
      "æ±īå¥¸": 8826,
      "å¾Ĺå¾Īå¥½": 8827,
      "éĻķè¥¿çľģ": 8828,
      "ĠæĪ´": 8829,
      "ĠèĵĿ": 8830,
      "Ĳçĭ¸": 8831,
      "æĺŃ": 8832,
      "åĲ¼": 8833,
      "åħĳ": 8834,
      "æĪĳä»¬ä¸¤ä¸ª": 8835,
      "æľĢæĸ°": 8836,
      "åı¯ä»¥åİ»": 8837,
      "åĩłåı¥": 8838,
      "çģ¿": 8839,
      "Ġåħ¶ä»ĸçļĦ": 8840,
      "ĠæĶ¯": 8841,
      "æĻ®éģį": 8842,
      "åı¤ä»£": 8843,
      "éĢ®": 8844,
      "Ġåľ¨æĪĳä»¬": 8845,
      "è¿ľäºĨ": 8846,
      "éĽĨä½ĵ": 8847,
      "çĽĳçĿ£": 8848,
      "è¿ĺä¸įéĶĻ": 8849,
      "æ¼ĶåĶ±ä¼ļ": 8850,
      "çļĦåĲį": 8851,
      "æī¾ä¸įçĿĢ": 8852,
      "åĪ°äºĨä¸Ģä¸ª": 8853,
      "çķĻçĿĢ": 8854,
      "ä¼łéĢĴ": 8855,
      "æł¹æľ¬å°±ä¸į": 8856,
      "æ¸łéģĵ": 8857,
      "çĪª": 8858,
      "çĤ¹çļĦ": 8859,
      "è®©åĪ«äºº": 8860,
      "Ġè¿ĺå¥½": 8861,
      "Ġä¹Łä¸įä¼ļ": 8862,
      "å¨Ł": 8863,
      "æŃ¤åīį": 8864,
      "åĴ±ä»¬çļĦ": 8865,
      "å«ģç»Ļ": 8866,
      "Ġæ¢¦": 8867,
      "æľ¬èĬĤçĽ®çĶ±åĸľé©¬æĭīéĽħåĩºåĵģ": 8868,
      "æĪĳä¸įèĥ½": 8869,
      "ä¸įèµ°": 8870,
      "å¤§å¦Ī": 8871,
      "æķ·": 8872,
      "Ġå°±ä½ł": 8873,
      "åĲĥä»Ģä¹Ī": 8874,
      "æīįæľī": 8875,
      "è¢«åŃĲ": 8876,
      "Ġå¦ĤæŃ¤": 8877,
      "èĲį": 8878,
      "ä½ķåĨµ": 8879,
      "çļĦæĺ¯åĲ§": 8880,
      "è¿ĳæľŁ": 8881,
      "èĬĤçĽ®å½ĵä¸Ń": 8882,
      "ç«Ļèµ·æĿ¥": 8883,
      "æħ¢æħ¢åľ°": 8884,
      "èģļéĽĨ": 8885,
      "Ġå®ĮäºĨ": 8886,
      "ç¼ĵè§£": 8887,
      "ä¾ĦåŃĲ": 8888,
      "Ġæķħäºĭ": 8889,
      "è¿Ļåľº": 8890,
      "Ġè¿Ļè¾¹": 8891,
      "æĻļéĹ´": 8892,
      "ç©ºè°ĥ": 8893,
      "éĵ¶åŃĲ": 8894,
      "å¸ĿåĽ½": 8895,
      "åĬ£": 8896,
      "èĩªå·±åİ»": 8897,
      "éķ¿å¤§çļĦ": 8898,
      "æĽ´å¤§çļĦ": 8899,
      "æĮĩæłĩ": 8900,
      "ä¸įä¸ĭåİ»äºĨ": 8901,
      "äºĭå®ŀä¸Ĭ": 8902,
      "èĦĸåŃĲ": 8903,
      "æª": 8904,
      "ä¸Ģè¾Ĩ": 8905,
      "åı½": 8906,
      "èĩªå¾ĭ": 8907,
      "ä¸»é¢ĺ": 8908,
      "äºĨä¸ĢçĻ¾": 8909,
      "ĠåĬŀ": 8910,
      "åį³ä½¿": 8911,
      "æĴĴè°İ": 8912,
      "åįģä¸ĢæľĪ": 8913,
      "çļĦçĭ¬": 8914,
      "è¯ĪéªĹ": 8915,
      "æľīéģĵçĲĨ": 8916,
      "ĠæĪĳå®¶": 8917,
      "è¿ĩçĶŁæĹ¥": 8918,
      "åĩºçīĪ": 8919,
      "å°ıä¼ĻåŃĲ": 8920,
      "è¿Ļä¹Īå¥½": 8921,
      "çĿ¡çĿĢ": 8922,
      "èĮ¹": 8923,
      "ç»ĿæľĽ": 8924,
      "Ġæĭį": 8925,
      "é¸¡å·´": 8926,
      "éĹŃä¸Ĭ": 8927,
      "Ġç®ĢçĽ´": 8928,
      "æĿ¥å¾ĹåıĬ": 8929,
      "è¯¦ç»Ĩ": 8930,
      "ĠæĪĳä¿©": 8931,
      "ä»ĸåĳĢ": 8932,
      "ä¸īæĹ¥": 8933,
      "å½ĵäºĨ": 8934,
      "äº²çĪ±çļĦå°ı": 8935,
      "æĬ¥çº¸": 8936,
      "äºĨä¸Ģå¤§": 8937,
      "çħ§é¡¾å¥½": 8938,
      "åĨ¤æŀī": 8939,
      "ĠåįĹæĸ¹éĥ½å¸ĤæĬ¥è®°èĢħ": 8940,
      "äººä¹ĭ": 8941,
      "çĤ«": 8942,
      "æ°ĵ": 8943,
      "Ġä¸įæĺ¯è¯´": 8944,
      "ç«¥è¯Ŀ": 8945,
      "å¹¼ç¨ļ": 8946,
      "åı®": 8947,
      "åľ¨ä»ĸçļĦ": 8948,
      "å½ª": 8949,
      "ä¹°ä¸ª": 8950,
      "çªĥ": 8951,
      "è¯´è¯ĿäºĨ": 8952,
      "å¾ªçİ¯": 8953,
      "äºĨåĩºæĿ¥": 8954,
      "ĠæĪĳæĽ¾ç»ı": 8955,
      "éĤ£å°±æĺ¯": 8956,
      "ç»ĻçļĦ": 8957,
      "å¾Īå¼Ģå¿ĥ": 8958,
      "æ¸Ĭ": 8959,
      "é«ĺéĵģ": 8960,
      "ç²¤": 8961,
      "é¦ĸå¸Ń": 8962,
      "å°½ç®¡": 8963,
      "å°Ŀå°Ŀ": 8964,
      "ĠåĲĦç§į": 8965,
      "åħ¬å®īå±Ģ": 8966,
      "ĠçĨĬ": 8967,
      "çļĦä¹¦": 8968,
      "çļĦæĪ¿åŃĲ": 8969,
      "å°ıçĻ½": 8970,
      "è¿ĽçļĦ": 8971,
      "å¹²èĦĨ": 8972,
      "éļ¾åº¦": 8973,
      "æį¢äºĨ": 8974,
      "èº«è¾¹çļĦäºº": 8975,
      "å®¶å±ŀ": 8976,
      "èĩªåľ¨": 8977,
      "åºŀ": 8978,
      "æľ¬è´¨": 8979,
      "éĩĳéĴ±": 8980,
      "Ġçİ°åľ¨æĪĳ": 8981,
      "åĲĦåľ°": 8982,
      "çĻ¾åĪĨä¹ĭä¹Ŀåįģ": 8983,
      "ĠæĪĳä¼ļåĴĮä½łä¸Ģèµ·æĪĲéķ¿": 8984,
      "ĠæľīäºĽäºº": 8985,
      "ĠçĥŃçĤ¹": 8986,
      "ä¸Ģåº§": 8987,
      "äºĨèĩªå·±çļĦ": 8988,
      "å¯ĵ": 8989,
      "ĠåħĶ": 8990,
      "Ġä¸ºä»Ģä¹Īåĳ¢": 8991,
      "ä¼ĺçĤ¹": 8992,
      "è¯įåĦ¿": 8993,
      "Ġè®°ä½ı": 8994,
      "å¤Ħç½ļ": 8995,
      "äºĮåįģä¹Ŀ": 8996,
      "Ġå½ĵæĪĳ": 8997,
      "åĨĽäºº": 8998,
      "å¯¼å¸Ī": 8999,
      "èį¯åĵģ": 9000,
      "çļĦç²ī": 9001,
      "åı¬å¼Ģ": 9002,
      "è¿Ļæĺ¯æĪĳ": 9003,
      "åľ¨èĩªå·±": 9004,
      "å¤§èĦĳ": 9005,
      "éĥ½æĺ¯ä½ł": 9006,
      "ĠåĽłä¸ºä»ĸä»¬": 9007,
      "ĠæĤ¨æĺ¯": 9008,
      "Ġä¸Ģä¸ªæĺ¯": 9009,
      "åģĩè£ħ": 9010,
      "ĠçŃīåĪ°": 9011,
      "åħ·å¤ĩ": 9012,
      "åĲ§æĪĳ": 9013,
      "å¥¹èĢģåħ¬": 9014,
      "è§ģè¯Ĩ": 9015,
      "æīįåįİ": 9016,
      "è¿ĻäºĽå¹´": 9017,
      "è¿ĻéĩĮæĺ¯": 9018,
      "èĲ¥æĶ¶": 9019,
      "èĨı": 9020,
      "å¤ªå¥½": 9021,
      "è¿ĽæĶ»": 9022,
      "Ġä»Ĭå¤©çļĦæķħäºĭ": 9023,
      "çº¢èī²": 9024,
      "èĲ½å®ŀ": 9025,
      "Ġæľīäººè¯´": 9026,
      "çŀ§ä¸įèµ·": 9027,
      "Ġå¦¹å¦¹": 9028,
      "§æĺ§": 9029,
      "Ġä»»": 9030,
      "ĠæĪĳä»¥åīį": 9031,
      "å°±å®ĮäºĨ": 9032,
      "åľ°çĤ¹": 9033,
      "èĢģäººå®¶": 9034,
      "æīĵæī«": 9035,
      "Ġæľīå¾Īå¤ļ": 9036,
      "ĠåĲĵ": 9037,
      "çŃīäºĨ": 9038,
      "éĤ£ä¹Īå¥½": 9039,
      "åıįè¿ĩæĿ¥": 9040,
      "æŁĲä¸ª": 9041,
      "Ġæľīä»Ģä¹Īåı¯ä»¥å¸®åĪ°æĤ¨çļĦåĲĹ": 9042,
      "Ġä¸Ģå¼Ģå§ĭ": 9043,
      "è¯·æ±Ĥ": 9044,
      "èµ·æĿ¥çļĦ": 9045,
      "åĸĿæ°´": 9046,
      "é¸¦": 9047,
      "åįłæ¯Ķ": 9048,
      "ç«¥å¹´": 9049,
      "ä½łåıĪ": 9050,
      "ĠæĪĳè¿ĺæľī": 9051,
      "å°±åºĶè¯¥": 9052,
      "è¿ĺä¸įæĺ¯": 9053,
      "å°±æĺ¯éĤ£ä¸ª": 9054,
      "çĶ¨äºİ": 9055,
      "Ġä½łä»¬éĥ½": 9056,
      "æ¸ħéĨĴ": 9057,
      "å¥½äºĨåĲĹ": 9058,
      "å±ķå¼Ģ": 9059,
      "ĠæĬĬä»ĸ": 9060,
      "å®¶éĩĮè¾¹": 9061,
      "åľŁåĮª": 9062,
      "Ġä¸İåħ¶": 9063,
      "ĠæĹłè®ºæĺ¯": 9064,
      "Ġåįĥä¸ĩä¸įè¦ģ": 9065,
      "æĹ¶æľº": 9066,
      "æĸ©": 9067,
      "åı¯ä¸įæĺ¯": 9068,
      "åħ«ä¹Ŀ": 9069,
      "è¿ĻäºĽäºº": 9070,
      "æ¦´": 9071,
      "ä¸ĥåħ«ç³Ł": 9072,
      "Ġç±": 9073,
      "ç»ĻäºĨæĪĳ": 9074,
      "Ġè¿Ļåı¥è¯Ŀ": 9075,
      "åľ°éĹ®": 9076,
      "å¾Īå¾Ī": 9077,
      "è¡ĮæĿİ": 9078,
      "æĢİä¹Īçľĭ": 9079,
      "åĲ¬è¯´è¿ĩ": 9080,
      "é«ĺäºĨ": 9081,
      "è®²è®²": 9082,
      "æµ·æ´ĭ": 9083,
      "å¿ħçĦ¶": 9084,
      "ĠåĹ¯åķĬ": 9085,
      "æł¹åĦ¿": 9086,
      "Ġåĵªä¸ª": 9087,
      "å¼Ĥå¸¸": 9088,
      "īå¦Ĵ": 9089,
      "çļĦæ°ĳ": 9090,
      "ä»ĸæ²¡æľī": 9091,
      "ä¸Ģä¸ªå°ıæĹ¶": 9092,
      "è¿Ļä¸ªæķħäºĭ": 9093,
      "èĩªå°Ĭ": 9094,
      "æīĵè¿ĩ": 9095,
      "å¸¦ä½łåİ»": 9096,
      "èŃ¦åĳĬ": 9097,
      "ç©¿ä¸Ĭ": 9098,
      "Ġæ¬¢è¿İæīĵå¼Ģ": 9099,
      "èĪŀåı°ä¸Ĭ": 9100,
      "Ġå«ĤåŃĲ": 9101,
      "æĪĳä¹Łæĺ¯": 9102,
      "ä¿±": 9103,
      "ä»İæľª": 9104,
      "å¹³çŃī": 9105,
      "éŁ¦": 9106,
      "æĲı": 9107,
      "è§ĦèĮĥ": 9108,
      "è®¾ç½®": 9109,
      "å¿ĹæĦ¿": 9110,
      "èĺĳ": 9111,
      "ĠçľŁæŃ£çļĦ": 9112,
      "æľīä¸¤": 9113,
      "å¥½åĥıæĺ¯": 9114,
      "ä¹±ä¸ĥåħ«ç³Ł": 9115,
      "è´Ńçī©": 9116,
      "æ¡Įä¸Ĭ": 9117,
      "æĹ©ä¸Ĭå¥½": 9118,
      "æĢĢåŃķäºĨ": 9119,
      "åıł": 9120,
      "åĩºä»Ģä¹Ī": 9121,
      "Ġè¿Ļä¸¤å¤©": 9122,
      "å¼ĢåĲ¯": 9123,
      "çıŃéķ¿": 9124,
      "åĴ±ä»¬å°±": 9125,
      "ä¸¾åĬŀ": 9126,
      "æł¹æľ¬å°±": 9127,
      "èĥĸåŃĲ": 9128,
      "ĠéĿł": 9129,
      "å¦¾": 9130,
      "Ġä½Ĩæĺ¯åľ¨": 9131,
      "Ġå¤§å§Ĳ": 9132,
      "Ġæ¯Ķè¾ĥ": 9133,
      "éŁ©åĽ½": 9134,
      "å±ıå¹ķ": 9135,
      "æ¹¾åĮº": 9136,
      "èĲĮèĲĮ": 9137,
      "çļĦè¿ĺæĺ¯": 9138,
      "æľīä¸ī": 9139,
      "ä¹Łè¡Į": 9140,
      "æĬł": 9141,
      "æľĢæľī": 9142,
      "æ´»äºĨ": 9143,
      "é¦Ī": 9144,
      "Ġè¿Ļæĺ¯æĪĳçļĦ": 9145,
      "èº«è¾¹çļĦ": 9146,
      "Ġçº¦": 9147,
      "ĠæĪĳåĳĬè¯īä½łåķĬ": 9148,
      "Ġç¨į": 9149,
      "çļĦæĦıä¹ī": 9150,
      "æĪĳåģļ": 9151,
      "æĪĳä¸įä¼ļ": 9152,
      "æĪĳåĪļæīį": 9153,
      "ĠæĪĳå½ĵçĦ¶": 9154,
      "å¾ĹçŁ¥": 9155,
      "Ġæĺ¯ä»ĸ": 9156,
      "çĹħåķĬ": 9157,
      "åĮĹæĸ¹": 9158,
      "å¾ħçĿĢ": 9159,
      "å¥½å¥½å¥½": 9160,
      "é¥¿äºĨ": 9161,
      "è¿Ļäºº": 9162,
      "è¿Ļä¸ªæĺ¯": 9163,
      "å¿ĥæĦı": 9164,
      "Ġä¸Ģç§į": 9165,
      "å²Ĥ": 9166,
      "è¿Ĳè¡Į": 9167,
      "ç»Ĩèĥŀ": 9168,
      "æĪĳä¸ĢçĽ´": 9169,
      "ä¹Łæĥ³": 9170,
      "å¾ĹåĪ°äºĨ": 9171,
      "å¦ŀ": 9172,
      "èº«åŃĲ": 9173,
      "èĮĤ": 9174,
      "åħ±åħļ": 9175,
      "åĲ¦è®¤": 9176,
      "è¿Ļå¸®": 9177,
      "æĿ¥çľĭçľĭ": 9178,
      "è®²åķĬ": 9179,
      "æĪĳå°±è§īå¾Ĺ": 9180,
      "Ġéķ¿å¾Ĺ": 9181,
      "è¿ĩå¾Ĺå¥½åĲĹ": 9182,
      "å¦ĻçļĦ": 9183,
      "åħ¬äº¤è½¦": 9184,
      "Ġç»Ī": 9185,
      "çĿĢä½łçļĦ": 9186,
      "å®ŀçļĦ": 9187,
      "éķ¿å®ī": 9188,
      "æīįåıĳçİ°": 9189,
      "çī¹å¾ģ": 9190,
      "ç¥Ń": 9191,
[...]
