{
  "bloody": 12534,
  "whel": 15358,
  "\u0120smur": 12234,
  "\u0120prince": 7291,
  "\u0120jilly": 11651,
  "\u0120thinking": 2100,
  "\u0120u": 189,
  "\u0120examining": 15640,
  "\u0120barrette": 9604,
  "\u0120wendy": 5792,
  "abor": 12528,
  "llipop": 4983,
  "\u0120byebye": 4263,
  "\u0120prescri": 10737,
  "\u0120circus": 4508,
  "\u0120discipline": 13853,
  "\u0120brigade": 11442,
  "\u0120greenbelt": 6548,
  "col": 1175,
  "\u0120fifteen": 2774,
  "pts": 15926,
  "hel": 1489,
  "\u0120sha": 632,
  "orter": 5821,
  "\u0120dresses": 9541,
  "\u0120places": 2260,
  "\u0120cabinet": 7085,
  "\u0120voucher": 15189,
  "stu": 8490,
  "fifteen": 6392,
  "\u0120gardener": 14689,
  "\u0120hotel": 5666,
  "\u0120tant": 14882,
  "youngeun": 14875,
  "\u0120letterbox": 11402,
  "house": 2227,
  "gins": 4590,
  "\u0120jessie": 9921,
  "will": 1475,
  "aper": 3655,
  "\u012097": 15016,
  "\u0120bible": 9352,
  "\u0120important": 2299,
  "\u0120duckies": 14992,
  "lick": 15588,
  "\u0120cour": 1167,
  "38": 7716,
  "zzles": 15066,
  "tc": 15682,
  "\u0120dumping": 12461,
  "\u0120thirteen": 4079,
  "\u0120postcard": 15230,
  "seesaw": 10236,
  "eah": 11153,
  "purple": 4394,
  "\u0120visible": 9473,
  "\u0120loudly": 4428,
  "peekaboo": 3656,
  "\u0120protect": 4107,
  "quigley": 8944,
  "clip": 11485,
  "\u0120source": 10260,
  "\u0120cic": 11908,
  "\u0120float": 10257,
  "alie": 9639,
  "\u00e2\u012e\u012c": 1838,
  "spontaneous": 12814,
  "\u0120breast": 11370,
  "\u0120dg": 10919,
  "\u0120trys": 14516,
  "\u0120doorway": 12575,
  "\u0120paragraph": 6245,
  "hat": 130,
  "\u0120churches": 10441,
  "\u0120tend": 4401,
  "upstairs": 8454,
  "\u0120angels": 12873,
  "\u0120inner": 10240,
  "\u0120pays": 9889,
  "\u0120syn": 13641,
  "\u0120noises": 1002,
  "\u0120build": 1147,
  "pasta": 13356,
  "\u0120achie": 8958,
  "\u0120macdonald": 7871,
  "\u0120cuddle": 4725,
  "\u0120gavin": 12770,
  "\u0120prepare": 10533,
  "\u0120terminated": 12040,
  "\u0120intake": 5851,
  "ground": 1630,
  "\u0120met": 2251,
  "ze": 1996,
  "dinosaurs": 12545,
  "\u0120lea": 739,
  "ason": 1752,
  "\u0120pancake": 8464,
  "ds": 442,
  "culiar": 12507,
  "\u0120hope": 1795,
  "\u0120stopped": 3123,
  "nick": 7616,
  "\u0120sta": 1872,
  "\u0120colour": 4599,
  "aneous": 4538,
  "0": 21,
  "och": 4498,
  "examines": 15018,
  "\u0120overlap": 9407,
  "chri": 15603,
  "\u0120horseshoe": 9477,
  "\u0120really": 536,
  "\u0120illness": 10077,
  "\u0120damp": 12166,
  "\u0120peasant": 8975,
  "\u0120context": 6027,
  "horses": 9916,
  "\u0120tempor": 10001,
  "ensive": 12191,
  "\u0120weigh": 7816,
  "scratch": 13600,
  "mmers": 9281,
  "\u0120elector": 13331,
  "brian": 6383,
  "ots": 1197,
  "\u0120mend": 7650,
  "alley": 8994,
  "scoot": 13598,
  "hits": 7719,
  "\u0120fireplace": 10471,
  "\u0120king": 2501,
  "\u0120headed": 10800,
  "never": 3384,
  "\u0120nuh": 12343,
  "cand": 13312,
  "\u0120express": 7968,
  "\u0120justification": 15955,
  "ight": 358,
  "\u0120seventies": 13136,
  "\u0120roof": 3092,
  "\u0120dwarfs": 15573,
  "shouldn": 10305,
  "uhf": 12953,
  "\u0120arrangement": 11821,
  "pocket": 13377,
  "\u0120escape": 9804,
  "\u0120howard": 13691,
  "coat": 7200,
  "\"]": 2074,
  "\u0120lambs": 11931,
  "\u0120disaster": 10300,
  "\u0120roberts": 14425,
  "acles": 15677,
  "manipulates": 14648,
  "dro": 3250,
  "urs": 987,
  "\u0120mort": 6520,
  "saw": 7765,
  "\u0120cassette": 15648,
  "ural": 3474,
  "\u0120hill": 3398,
  "\u0120pine": 11832,
  "\u0120concentrate": 8731,
  "\u0120ticket": 5391,
  "ards": 1187,
  "gging": 4524,
  "\u0120sophi": 6980,
  "save": 9314,
  "\u0120wire": 4412,
  "buttons": 13323,
  "oscar": 12579,
  "early": 12225,
  "\u0120pur": 1125,
  "play": 1288,
  "\u0120someday": 12890,
  "\u0120would": 428,
  "via": 5158,
  "\u0120whole": 1416,
  "\u0120thoroughly": 13724,
  "\u0120hoo": 4147,
  "fish": 3054,
  "\u0120meeting": 2820,
  "\u0120carve": 15610,
  "\u0120cub": 5568,
  "\u0120ninety": 2070,
  "\u0120discards": 12863,
  "\u0120presumably": 7499,
  "\u0120sock": 3984,
  "\u0120web": 7114,
  "\u0120tonight": 2033,
  "\u0120sticks": 3545,
  "iers": 5978,
  "\u0120twelf": 7110,
  "\u0120spons": 9716,
  "\u0120mad": 2664,
  "pushes": 3766,
  "\u0120wine": 5232,
  "\u0120ident": 4720,
  "\u0120grant": 5399,
  "\u0120lauren": 15889,
  "\u0120page": 885,
  "\u0120uncom": 10829,
  "mama": 2031,
  "\u0120af": 7550,
  "\u0120murder": 12372,
  "\u0120gorilla": 7714,
  "\u0120attacks": 13295,
  "\u0120scene": 8479,
  "imit": 2156,
  "pears": 14485,
  "\u0120rel": 1865,
  "ontaneous": 10899,
  "craw": 7535,
  "\u0120wards": 15774,
  "with": 1359,
  "\u0120jingle": 7037,
  "('": 5780,
  "\u0120disc": 5490,
  "\u0120borough": 11696,
  "rels": 5631,
  "\u0120aboard": 13976,
  "pee": 7506,
  "\u0120govern": 2359,
  "truck": 3395,
  "ffle": 9428,
  "\u0120coloured": 12239,
  "mbers": 2555,
  "dles": 4454,
  "vern": 13681,
  "\u0120reas": 4902,
  "ambulance": 11913,
  "\u0120surge": 14145,
  "\u0120brownies": 14765,
  "uel": 14813,
  "possible": 8090,
  "\u0120charles": 11436,
  "\u0120initiative": 11945,
  "\u0120on": 155,
  "father": 3302,
  "cury": 12046,
  "\u0120pushes": 2888,
  "imate": 6573,
  "\u0120functions": 11325,
  "\u0120betty": 7928,
  "\u0120blinds": 14708,
  "\u0120regul": 7447,
  "\u0120banana": 3141,
  "outh": 1098,
  "kka": 12008,
  "ques": 8808,
  "\u0120aud": 5764,
  "blue": 1920,
  "\u00a9": 73,
  "\u0120improving": 13654,
  "\u0120clarice": 11864,
  "\u0120feather": 5200,
  "\u0120windowsill": 15328,
  "like": 950,
  "\u0120interests": 8758,
  "\u0120bor": 2679,
  "\u0120votes": 13877,
  "\u0120microphones": 11382,
  "\u0120journey": 7481,
  "\u0120proud": 6439,
  "agna": 15538,
  "\u0120discusses": 13712,
  "\u0120life": 2081,
  "\u0120interesting": 2494,
  "\u0120swan": 9396,
  "\u0120grace": 6717,
  "\u0120democratic": 13404,
  "\u0120giant": 4469,
  "\u0120flo": 3948,
  "\u0120gruff": 9840,
  "\u0120picks": 1285,
  "bles": 1444,
  "audible": 5782,
  "\u0120egg": 1375,
  "star": 7747,
  "\u0120sold": 4217,
  "\u0120li": 214,
  "\u0120substantial": 10543,
  "\u0120imitation": 13138,
  "\u0120scoop": 6369,
  "not": 629,
  "\u0120sky": 2748,
  "\u0120frustration": 13687,
  "\u0120women": 2974,
  "\u0120pound": 1140,
  "annine": 2732,
  "\u0120sit": 666,
  "\u0120combination": 10843,
  "?\"": 2284,
  "acle": 14481,
  "\u0120dri": 974,
  "\u0120breaks": 6621,
  "\u0120pers": 1323,
  "glue": 13716,
  "\u0120educational": 11507,
  "\u0120ins": 3108,
  "interviews": 7062,
  "brum": 11251,
  "gabri": 7675,
  "\u0120brothers": 4987,
  "\u0120gentlemen": 9254,
  "ud": 1372,
  "mos": 12132,
  "tadah": 8342,
  "\u0120whoops": 8705,
  "\u0120depos": 11068,
  "\u0120rac": 11535,
  "undercurrent": 5314,
  "walk": 4867,
  "\u0120hee": 4076,
  "\u0120rf": 12446,
  "\u0120doll": 915,
  "\u0120imitate": 11375,
  "leans": 7815,
  "\u0120mots": 8655,
  "peters": 14447,
  "\u0120spat": 14591,
  "uah": 15500,
  "?[": 3542,
  "k": 51,
  "puttaputta": 9979,
  "co": 582,
  "\u0120pounding": 13889,
  "\u0120tore": 13988,
  "\u0120vague": 13814,
  "\u0120entertainment": 12549,
  "\u0120barney": 9411,
  "cellent": 4421,
  "\u0120noisy": 3622,
  "\u0120gir": 641,
  "\u0120size": 3087,
  "\u0120tape": 1186,
  "\u0120yoghurts": 15838,
  "argh": 9247,
  "ell": 336,
  "left": 8991,
  "\u0120requests": 14156,
  "\u0120screen": 6151,
  "usual": 7662,
  "\u0120salary": 9563,
  "iew": 1634,
  "\u0120its": 1663,
  "aleidoscope": 13728,
  "\u0120plate": 1672,
  "\u0120dyna": 12892,
  "\u0120various": 4097,
  "\u0120sorta": 11315,
  "shn": 15299,
  "male": 6767,
  "\u0120tasks": 14883,
  "\u0120asleep": 2943,
  "inhalation": 14559,
  "\u0120hmm": 11019,
  "\u0120money": 1039,
  "\u013d": 109,
  "\u0120convin": 9742,
  "\u0120employed": 9293,
  "cil": 1311,
  "\u0120lobby": 13582,
  "train": 4415,
  "\u0120beg": 1447,
  "\u0120brie": 2908,
  "opotam": 7230,
  "voiceless": 15398,
  "\u0120peeling": 15839,
  "\u0120pus": 1798,
  "\u0120hit": 1805,
  "\u0120coke": 5290,
  "\u0120starts": 1661,
  "anging": 8906,
  "magnets": 12465,
  "soup": 10008,
  "\u0120infinity": 14048,
  "\u0120whilst": 7467,
  "\u0120failed": 9938,
  "shame": 15972,
  "\u0120guests": 14294,
  "dd": 1874,
  "anas": 4380,
  "set": 2188,
  "\u0120allowing": 14535,
  "\u0120horiz": 13232,
  "dale": 10597,
  "pillar": 2663,
  "\u0120finishing": 8386,
  "\u0120eat": 468,
  "\u0120ewo": 11836,
  "\u0120despite": 11690,
  "anscribed": 3038,
  "ession": 3733,
  "\u0120listened": 9972,
  ",,": 4166,
  "\u0120fascinated": 13912,
  "anno": 13987,
  "icia": 13808,
  "\u0120africa": 7942,
  "men": 3253,
  "\u0120marble": 8050,
  "whatcha": 5914,
  "\u0120crib": 5660,
  "\u0120beautifully": 14369,
  "baura": 12113,
  "\u0120glove": 8195,
  "\u0120rubbed": 13720,
  "\u0120agenda": 7903,
  "\u0120forehead": 11337,
  "\u0120sighs": 8487,
  "\u0120fifi": 5214,
  "\u0120running": 1832,
  "itution": 8208,
  "uts": 6766,
  "\u0120,": 895,
  "\u0120pilot": 6302,
  "ains": 6246,
  "risps": 4320,
  "\u0120proposals": 7241,
  "kf": 2458,
  "\u0120janet": 9852,
  "\u0120theirs": 10400,
  "\u0120conservation": 12976,
  "\u00bd": 79,
  "\u0120dancing": 3394,
  "\u0120fid": 5387,
  "\u0120initi": 7614,
  "\u0120force": 5270,
  "\u0120pints": 15043,
  "bility": 14563,
  "\u0120chance": 3453,
  "agu": 12966,
  "igan": 8509,
  "\u0120developed": 8087,
  "needta": 14238,
  "\u0120interruption": 14380,
  "\u0120intended": 12886,
  "scissors": 11849,
  "ivy": 6308,
  "\u0120stairs": 2755,
  "tz": 5383,
  "\u0120rugby": 11229,
  "oli": 9421,
  "\u0120patter": 15626,
  "tony": 3956,
  "\u0120appears": 7686,
  "\u0120stove": 4250,
  "mpoo": 6205,
  "\u0120firstname": 2856,
  "aeropl": 14561,
  "\u0120swinging": 6652,
  "\u0120thingy": 9601,
  "peanuts": 11998,
  "\u0120staring": 11138,
  "\u0120assembly": 9635,
  "went": 5451,
  "\u0120president": 5240,
  "\u0120doctor": 1678,
  "\u0120exclamation": 13750,
  "\u0120invest": 2996,
  "tem": 14288,
  "\u0120payments": 13436,
  "\u0120rings": 3023,
  "yyy": 3336,
  "\u0120toybox": 8006,
  "\u0120dried": 6574,
  "\u0120effect": 2276,
  "\u0120institute": 15232,
  "\u0120advise": 13190,
  "hales": 8899,
  "\u0120rise": 7412,
  "\u0120invo": 11568,
  "\u0120oatmeal": 7233,
  "\u0120batterys": 13252,
  "\u0120trump": 9743,
  "\u0120travis": 14515,
  "\".]": 9766,
  "\u0120burgers": 14227,
  "mid": 9143,
  "lamb": 12116,
  "pointing": 2360,
  "\u0120chuckle": 14788,
  "\u0120hooked": 10779,
  "\u0120dogs": 3000,
  "\u0120chain": 6157,
  "\u012018": 13027,
  "\u0120pops": 4517,
  "amel": 15519,
  "affe": 2991,
  "moo": 3326,
  "\u0120ty": 1964,
  "eats": 8419,
  "laught": 9073,
  "there": 353,
  "ellisweismer": 6343,
  "\u0120sm": 859,
  "whispering": 3406,
  "ide": 451,
  "\u0120ribena": 13817,
  "\u0120hur": 1126,
  "sp": 855,
  "stalk": 10233,
  "wel": 1183,
  "\u0120telling": 2208,
  "cookies": 8088,
  "\u0120hips": 15947,
  "cas": 8376,
  "bat": 8433,
  "barry": 11693,
  "\u0120mar": 764,
  "\u0120thoughts": 10962,
  "didldow": 9357,
  "itut": 6179,
  "keith": 15206,
  "\u0120bid": 6223,
  "jake": 12990,
  "\u0120access": 6196,
  "\u0120thirteenth": 13759,
  "\u0120supporters": 13497,
  "\u0120burp": 8143,
  "\u0120marianne": 14470,
  "cry": 4112,
  "[!": 13914,
  "\u0120cart": 6704,
  "bar": 2022,
  "theo": 15047,
  "da": 1530,
  "\u0120reported": 9974,
  "\u0120derby": 11742,
  "\u0120stret": 4487,
  "been": 7257,
  "\u0120shower": 3544,
  "\u0120licked": 14738,
  "\u0120sorry": 1461,
  "\u0120cells": 12117,
  "\u0120invent": 12262,
  "\u0120partic": 1871,
  "women": 15762,
  "\u0120lollies": 12760,
  "\u0120whines": 8381,
  "graeme": 5853,
  "\u0120mines": 9053,
  "\u0120eyes": 1328,
  "\u0120packets": 11662,
  "\u0120bapt": 11761,
  "loud": 4100,
  "atime": 10951,
  "\u0120slides": 5484,
  "ifying": 8595,
  "\u0120challeng": 14029,
  "oi": 8522,
  "\u0120white": 1366,
  "\u0120hum": 2473,
  "\u0120wings": 4852,
  "ident": 2179,
  "hirt": 11243,
  "iley": 12089,
  "\u0120ellie": 3775,
  "\u0120tuna": 6900,
  "\u0120defe": 7159,
  "\u0120cheaper": 7070,
  "ikes": 8623,
  "\u0120local": 2298,
  "\u0120tears": 9214,
  "\u0120chants": 14633,
  "\u0120runs": 2788,
  "wet": 8987,
  "forest": 14987,
  "\u0120bang": 1755,
  "\u0120lantern": 15756,
  "\u0120munch": 13362,
  "warm": 11676,
  "ius": 13918,
  "hund": 9400,
  "crimin": 9252,
  "\u0120westminster": 15747,
  "rious": 8330,
  "pres": 6617,
  "pte": 5184,
  "\u0120mountain": 6127,
  "\u0120tatt": 15684,
  "\u0120speaks": 3418,
  "\u0120av": 4143,
  "piglet": 11902,
  "\u0120stain": 12122,
  "toot": 9047,
  "\u0120used": 1041,
  "\u0120thousands": 7773,
  "\u0120nere": 13220,
  "ne": 551,
  "ess": 463,
  "\u0120took": 1346,
  "\u0120math": 5538,
  "\u0120hen": 2990,
  "\u0120anxiety": 13908,
  "\u0120koala": 14799,
  "\u0120loved": 5759,
  "ant": 591,
  "pre": 1627,
  "\u0120vigor": 14477,
  "\u0120packages": 15550,
  "\u0120giggling": 10423,
  "\u0120districts": 10105,
  "\u0120nast": 5737,
  "hino": 7549,
  "umpty": 6611,
  "\u0120channel": 4337,
  "strich": 11346,
  "vet": 8609,
  "could": 1710,
  "vocal": 10654,
  "\u0120consequences": 13205,
  "\u0120fres": 14412,
  "\u0120schools": 4074,
  "\u0120pole": 6538,
  "talks": 6198,
  "\u0120twent": 8796,
  "sophie": 14402,
  "\u0120proof": 10303,
  "\u0120supper": 3610,
  "\u0120arch": 13017,
  "\u0120lays": 8011,
  "ely": 2183,
  "\u0120kate": 7411,
  "once": 3726,
  "\u0120embarras": 9005,
  "ousand": 1559,
  "rette": 8110,
  "\u0120order": 2534,
  "rying": 1177,
  "\u01204": 3605,
  "\u0120sandwiches": 4330,
  "\u0120queue": 11903,
  "\u0120bein": 15046,
  "\u0120dry": 2383,
  "stephen": 12285,
  "\u0120db": 10581,
  "\u0120puppies": 8561,
  "\u0120crunch": 6499,
  "ik": 5066,
  "\u0120toast": 2253,
  "\u0120pit": 1908,
  "chr": 3385,
  "abab": 7562,
  "lves": 2265,
  "inte": 8559,
  "\u0120deaf": 15179,
  "\u0120listen": 1512,
  "\u0120topic": 8185,
  "inaudible": 13050,
  "ass": 746,
  "\u0120ac": 952,
  "\u0120gest": 6224,
  "nwww": 11644,
  "\u0120birdies": 11254,
  "\u0120accounts": 9344,
  "\u0120mission": 11587,
  "ided": 3228,
  "manipul": 13630,
  "ros": 10318,
  "whispered": 2518,
  "\u0120gig": 12749,
  "\u0120warren": 15308,
  "\u0120career": 12768,
  "istair": 12313,
  "digger": 13351,
  "\u0120chim": 4398,
  "\u0120talks": 2627,
  "\u0120deb": 4000,
  "jt": 14655,
  "\u0120willie": 9467,
  "monkeys": 15982,
  "othy": 10580,
  "gabriella": 10449,
  "claims": 12061,
  "\u0120songs": 5743,
  "\u0120universities": 13910,
  "'": 12,
  "\u0120increases": 11046,
  "\u0120rare": 11880,
  "\u0120genes": 12820,
  "ening": 5964,
  "\u0120metho": 6698,
  "hing": 309,
  "\u0120leaning": 8239,
  "\u0120tools": 4607,
  "\u0120contra": 8457,
  "\u0120formula": 8889,
  "\u0120antenna": 8341,
  "\u0120tom": 1223,
  "dials": 11031,
  "44": 8392,
  "\u0120relief": 7076,
  "\u0120coal": 5259,
  "\u0120univer": 10191,
  "ronald": 13438,
  "\u0120arrested": 14172,
  "\u0120dougall": 13521,
  "us": 363,
  "\u0120wah": 7987,
  "exaggerated": 14000,
  "\u0120way": 549,
  "\u0120douglas": 11856,
  "batter": 13530,
  "\u0120changed": 2986,
  "\u0120dinner": 1516,
  "ababy": 14392,
  "\u0120manager": 5606,
  "\u0120surv": 8099,
  "\u0120fries": 4688,
  "get": 586,
  "everything": 4617,
  "\u0120jacob": 15336,
  "\",": 8606,
  "sho": 2688,
  "\u0120extremely": 6498,
  "\u0120laughed": 8125,
  "\u0120gemma": 14818,
  "\u0120doc": 10853,
  "\u0120pinch": 7874,
  "claim": 9058,
  "\u0120sink": 3796,
  "squealing": 10770,
  "\u0120shoot": 4407,
  "\u0120believes": 14441,
  "\u0120cad": 8651,
  "\u0120stated": 14578,
  "\u0120jenny": 3557,
  "aults": 15991,
  "\u0120dove": 14890,
  "\u0120glance": 15466,
  "\u0120earning": 9287,
  "blocks": 7278,
  "\u0120considering": 10627,
  "\u0120chee": 7896,
  "maisy": 8331,
  "\u0120\u00e2\u0122\u013e": 1709,
  "\u0120emotion": 12170,
  "\u0120borrowing": 14385,
  "\u0120regard": 5428,
  "\u0120ted": 7585,
  "onent": 12300,
  "\u0120neil": 8071,
  "\u0120initially": 11004,
  "\u0120represent": 4462,
  "sheet": 10614,
  "\u0120discipl": 11150,
  "\u0120expensive": 4920,
  "\u0120varnish": 14803,
  "\u0120aeropl": 4666,
  "trina": 8799,
  "\u0120maintained": 14254,
  "re": 122,
  "ild": 1010,
  "\u0120clowns": 8630,
  "\u0120raymond": 6244,
  "aster": 5187,
  "\u0120which": 667,
  "resp": 7397,
  "tend": 1009,
  "\u0120necessarily": 5791,
  "\u0120gramp": 13334,
  "\u0120mood": 7660,
  "\u0120kept": 3035,
  "\u0120dep": 3904,
  "\u0120shifts": 11895,
  "kb": 12991,
  "0300": 12244,
  "\u0120overlaps": 9299,
  "\u0120hammering": 11043,
  "\u0120goggles": 12526,
  "\u0120thor": 7961,
  "fficient": 8065,
  "fourteen": 7937,
  "\u0120regret": 13727,
  "\u0120east": 4713,
  "essions": 10860,
  "fa": 2318,
  "\u0120greenhouse": 14079,
  "bodog": 11158,
  "\u0120morgan": 7936,
  "relative": 5564,
  "made": 5739,
  "david": 3246,
  "ggy": 2955,
  "\u0120com": 429,
  "\u0120lord": 4050,
  "atters": 11524,
  "anna": 5700,
  "\u0120bu": 568,
  "object": 6667,
  "\u0120precisely": 12744,
  "\u0120meets": 14128,
  "smoke": 15101,
  "\u0120cushion": 6472,
  "45": 9485,
  "\u0120asda": 14582,
  "\u0120chart": 11399,
  "\u0120brake": 12823,
  "\u0120points": 1149,
  "\u0120mac": 5402,
  ":::": 14094,
  "istan": 15796,
  "als": 951,
  "\u0120gene": 14920,
  "\u0120stacked": 12918,
  "hipp": 10639,
  "\u0120forced": 9623,
  "\u0120horn": 5800,
  "04": 4252,
  "\u0120placed": 7450,
  "\u0120dis": 795,
  "\u0120cere": 2973,
  "\u0120florida": 6739,
  "nathan": 7813,
  "\u0120estimates": 15185,
  "\u0120barry": 7434,
  "\u0120wrapping": 9000,
  "\u0120satisfied": 11073,
  "\u0120proposal": 8429,
  "ball": 1115,
  "\u0120mist": 4472,
  "rific": 12391,
  "\u0120relating": 12686,
  "\u0120nibbled": 10111,
  "bel": 6810,
  "\u0120comple": 8285,
  "\u0120buddy": 4915,
  "ealous": 12914,
  "\u0120attached": 6562,
  "tu": 3853,
  "\u0120rains": 12861,
  "\u0120app": 879,
  "\u0120torn": 9179,
  "\u0120velo": 14408,
  "\u0120convers": 1959,
  "aning": 4151,
  "\u0120bomb": 8765,
  "rew": 1617,
  "\u0120based": 5426,
  "bah": 6173,
  "\u0120climate": 15707,
  "becky": 11653,
  "\u0120eighty": 2354,
  "\u0120hairdresser": 12159,
  "err": 10920,
  "lt": 2685,
  "present": 9685,
  "\u0120playpen": 13874,
  "\u0120row": 3769,
  "\u0120chicken": 1491,
  "\u0120dun": 7157,
  "\u0120drowns": 11434,
  "\u0120litt": 10689,
  "\u0120allow": 2217,
  "ark": 10790,
  "tickling": 15323,
  "ga": 455,
  "\u0120question": 1802,
  "wipes": 13675,
  "\u0120purs": 9118,
  "\u0120company": 3243,
  "\u0120rate": 5177,
  "yed": 2998,
  "committee": 13104,
  "\u0120purposes": 10596,
  "\u0120fabulous": 13593,
  "una": 15771,
  "\u0120gu": 763,
  "\u0120hairs": 11978,
  "use": 3665,
  "\u0120rat": 3300,
  "\u0120british": 4204,
  "\u0120sharpen": 10135,
  "returns": 8919,
  "\u0120neighbors": 10283,
  "\u0120dryer": 11258,
  "\u0120meaning": 6929,
  "missions": 15081,
  "\u0120scru": 12452,
  "\u0120telly": 4495,
  "josh": 11255,
  "\u0120slim": 14752,
  "\u013e": 110,
  "\u0120eliminated": 3413,
  "\u0120delicious": 4731,
  "\u0120fancy": 5017,
  "cousin": 7482,
  "ieth": 9845,
  "\u0120divide": 8969,
  "\u0120becoming": 9464,
  "eague": 13537,
  "\u0120flav": 6226,
  "\u0120famous": 8203,
  "\u0120pressures": 14444,
  "mber": 680,
  "ucky": 2306,
  "\u0120aren": 991,
  "gel": 5940,
  "\u0120ruff": 7626,
  "\u0120routine": 9438,
  "\u0120va": 5065,
  "\u0120xxxx": 10207,
  "\u0120dirt": 6028,
  "\u0120pack": 3207,
  "\u0120confused": 6987,
  "nowhere": 15280,
  "\u0120delivery": 7373,
  "bry": 13671,
  "\u0120code": 10216,
  "\u0120recorder": 2407,
  "sli": 5176,
  "\u0120hose": 5109,
  "robin": 10752,
  "\u0120caboose": 15921,
  "meat": 9962,
  "\u0120spanner": 14623,
  "\u0120bothered": 5626,
  "wat": 5576,
  "av": 1609,
  "\u0120bloom": 8701,
  "child": 712,
  "\u0120lynette": 9209,
  "neigh": 4345,
  "\u0120license": 12741,
  "ittle": 381,
  "\u0120tiny": 2580,
  "\u0120defend": 9786,
  "\u0120reverend": 15510,
  "icycle": 4328,
  "animal": 9951,
  "\u0120beds": 4612,
  "addie": 14421,
  "\u0120soul": 10385,
  "\u0120larry": 11989,
  "duck": 3468,
  "pping": 1330,
  "\u0120reducing": 13772,
  "\u0120cud": 3787,
  "\u0120loops": 12664,
  "\u0120sources": 14100,
  "dge": 1451,
  "\u0120jane": 5233,
  "\u0120lawrence": 13510,
  "\u0120lives": 2600,
  ")]": 5318,
  "aur": 1484,
  "\u0120depe": 4794,
  "cleaning": 12627,
  "bella": 11952,
  "probably": 3127,
  "\u0120lynn": 7167,
  "\u0120surprises": 15825,
  "\u0120toler": 15933,
  "\u0120authority": 4213,
  "\u0120triangles": 11167,
  "anie": 12071,
  "\u0120catalogue": 9585,
  "\u0120conserv": 4985,
  "pitched": 8067,
  "\u0120mi": 5462,
  "\u0120assignment": 13357,
  "pulls": 3950,
  "difficult": 12655,
  "\u0120gab": 3342,
  "\u0120tread": 13313,
  "\u0120ba": 264,
  "\u0120tissues": 10309,
  "\u0120russell": 13197,
  "\u0120enable": 11655,
  "emy": 15678,
  "\u0120def": 6368,
  "\u0120shr": 11220,
  "lers": 8046,
  "chairman": 10168,
  "\u0120wiz": 10818,
  "\u0120sang": 7781,
  "\u0120ad": 811,
  "brea": 12656,
  "\u0120num": 972,
  "\u0120degrees": 7912,
  "\u0120squid": 13066,
  "\u0120loses": 11577,
  "\u0120biting": 7423,
  "\u0120ble": 5945,
  "\u0120indicates": 9828,
  "running": 7059,
  "\u0120birmingham": 8686,
  "\u0120disneyland": 15490,
  "batman": 14868,
  "myard": 15607,
  "d": 44,
  "\u0120goodies": 15959,
  "closes": 6239,
  "\u012029": 12360,
  "eey": 10469,
  "brooklyn": 7460,
  "\u0120rug": 3648,
  "\u0120toaster": 9029,
  "\u0120retrie": 9206,
  "childsname": 6361,
  "\u0120deedee": 6485,
  "\u0120weighed": 15279,
  "\u012d": 99,
  "colm": 10495,
  "98": 8833,
  "\u0120oxfordshire": 8782,
  "bird": 3351,
  "\u0120marbles": 7459,
  "nursery": 14111,
  "\u0120perman": 9835,
  "mus": 5054,
  "\u0120recor": 1318,
  "istered": 12496,
  "\u0120chewy": 15646,
  "shis": 14117,
  "empty": 11604,
  "spin": 9323,
  "\u0120earned": 15068,
  "\u0120spe": 1182,
  "\u0120asher": 7803,
  "char": 4836,
  "volution": 6527,
  "lemme": 3624,
  "\u0120distinct": 12778,
  "\u0120univers": 4975,
  "dear": 4559,
  "\u0120bernard": 10780,
  "\u0120ducklings": 9174,
  "\u0120loft": 5133,
  "unciation": 11009,
  "\u0120ah": 1207,
  "patrick": 10162,
  "peach": 13588,
  "vanilla": 15254,
  "\u0120aids": 13800,
  "\u0120woods": 6021,
  "wic": 4060,
  "mutters": 10948,
  "snaps": 13086,
  "\u0120birth": 1158,
  "later": 6740,
  "\u0120mornings": 9641,
  "moans": 4448,
  "\u0120construction": 6105,
  "o": 55,
  "flips": 10387,
  "pered": 2333,
  "amp": 5960,
  "own": 12803,
  "\u0120eee": 11961,
  "\u0120inse": 10852,
  "\u0120distract": 9973,
  "\u0120clifford": 9409,
  "\u0120survi": 14763,
  "\u0120jan": 3872,
  "\u0120nothing": 1544,
  "\u0120compan": 5521,
  "\u0120infection": 15362,
  "\u0120length": 6957,
  "ways": 1000,
  "waves": 8886,
  "chi": 119,
  "bage": 5361,
  "\u0120demonstrates": 10960,
  "\u0120alright": 1028,
  "\u0120vitamin": 12058,
  "\u0120xylophone": 10623,
  "\u0120narrow": 9764,
  "remind": 15270,
  "\u0120wack": 15598,
  "\u0120shouts": 8003,
  "\u0120mama": 1727,
  "\u0120grunting": 14749,
  "\u0120const": 2968,
  "isters": 4516,
  "dry": 7973,
  "\u0120animals": 1281,
  "\u0120jb": 10645,
  "\u0120spills": 12636,
  "\u0120moth": 15377,
  "dem": 3845,
  "\u0120at": 239,
  "\u0120win": 1001,
  "\u0120anniversary": 12698,
  "\u0120urgh": 14155,
  "\u0120branches": 6626,
  "\u0120rapid": 7406,
  "ola": 5881,
  "whistle": 14935,
  "\u0120stepping": 12503,
  "\u0120bingo": 10950,
  "\u0120receip": 9895,
  "rt": 1652,
  "\u0120infin": 12075,
  "\u0120assure": 10647,
  "\u0120suffer": 11112,
  "\u0120mind": 1510,
  "\u0120whine": 10825,
  "\u0120broken": 1901,
  "\u0120harriet": 15000,
  "\u0120timer": 9490,
  "giggle": 10846,
  "nock": 15780,
  "new": 2798,
  "\u0120these": 515,
  "toilet": 13163,
  "\u0120bunk": 9283,
  "\u0120dawn": 10163,
  "squirrel": 15848,
  "field": 4892,
  "\u0120peekaboo": 3716,
  "omes": 5931,
  "\u0120slight": 3450,
  "donald": 2205,
  "\u0120introdu": 4476,
  "\u0120service": 2936,
  "\u0120handful": 12400,
  "\u0120a": 117,
  "\u0120departments": 12246,
  "\u0120tried": 2484,
  "birth": 9111,
  "un": 315,
  "\u0120telet": 4814,
  "\u0120vader": 14289,
  "unci": 9045,
  "\u0120mum": 1124,
  "?,": 5731,
  "\u0120craft": 11624,
  "\u0120dole": 14277,
  "\u0120aston": 12838,
  "\u0120donkey": 5955,
  "\u0120ame": 12897,
  "\u0120fris": 10922,
  "\u0120angry": 4796,
  "\u0120clues": 7528,
  "row": 608,
  "\u0120grow": 1929,
  "\u0120significant": 7743,
  "2": 23,
  "\u0120hiccup": 15948,
  "sir": 7868,
  "\u0120clou": 4948,
  "doctor": 6801,
  "\u0120tap": 4190,
  "\u0120overnight": 10927,
  "\u0120snacks": 10662,
  "\u0120adv": 3091,
  "\u0120foil": 15065,
  "\u0120squ": 1083,
  "whine": 9747,
  "jn": 15264,
  "ometer": 14981,
  "careful": 3380,
  "\u0120patrol": 15809,
  "\u0120ult": 11613,
  "vest": 2816,
  "\u0120upper": 9963,
  "\u0120last": 820,
  "utters": 8142,
  "\u0120major": 3235,
  "\u0120reserve": 14603,
  "\u0120expand": 10410,
  "\u0120glue": 4369,
  "\u0120buckets": 12687,
  "occhio": 15176,
  "\u0120tou": 1265,
  "\u0120referent": 15509,
  "rum": 5676,
  "\u0120dries": 12705,
  "caliz": 999,
  "\u0120robodog": 13374,
  "\u0120angles": 13251,
  "\u0120knows": 2245,
  "ages": 2803,
  "same": 5117,
  "patient": 10161,
  "\u0120ce": 4116,
  "\u0120buses": 7039,
  "\u0120friends": 1748,
  "bathroom": 15014,
  "cco": 4510,
  "\u0120vict": 6290,
  "\u0120ninth": 9503,
  "\u0120curl": 12726,
  "\u0120rural": 9319,
  "\u0120finished": 1308,
  "\u0120stamps": 6251,
  "graph": 3495,
  "icky": 14195,
  "\u0120backyard": 9406,
  "lls": 15863,
  "\u0120bakery": 13358,
  "alexander": 13516,
  "\u0120biggest": 5225,
  "\u0120fruits": 10513,
  "\u00e2\u012e\u012d,": 7424,
  "\u0120appointed": 13033,
  "\u0120reflection": 11744,
  "\u0120menu": 12582,
  "ulture": 7734,
  "except": 6454,
  "ou": 120,
  "tles": 3868,
  "\u0120pink": 1778,
  "\u0120ti": 401,
  "\u0120preschool": 6983,
  "ari": 9509,
  "\u0120strict": 10308,
  "hwww": 9659,
  "\u0120ships": 10403,
  "\u0120brilliant": 3786,
  "\u0120knitting": 10631,
  "\u0120jokes": 11133,
  "\u0120chancellor": 14157,
  "crazy": 15553,
  "\u0120summat": 10438,
  "\u0120segment": 15866,
  "\u0120beet": 8542,
  "\u0120accepted": 7612,
  "wow": 1211,
  "lid": 2143,
  "biscuits": 15105,
  "\u0120arrangements": 9297,
  "\u0120very": 439,
  "\u0120pretend": 1430,
  "\u0120success": 4149,
  "cheese": 3945,
  "\u0120stair": 10664,
  "\u0120shaky": 10993,
  "de": 656,
  "\u0120ange": 15827,
  "\u0120republic": 15671,
  "\u0120stra": 1739,
  "ward": 1842,
  "organ": 12612,
  "\u0120rather": 1999,
  "sum": 5798,
  "\u0120marking": 11769,
  "fighters": 14707,
  "\u0120sound": 856,
  "rold": 6609,
  "\u0120fours": 10961,
  "hiya": 6474,
  "\u0120].": 7755,
  "\u0120sweep": 4727,
  "\u0120ladybugs": 13434,
  "nearly": 6094,
  "\u0120emptied": 15234,
  "\u0120always": 1071,
  "lings": 7443,
  "\u0120slipper": 8025,
  "ays": 6774,
  "\u0120peel": 5710,
  "\u0120insist": 8891,
  "\u0120regarding": 11779,
  "\u0120bobbin": 15284,
  "\u0120norwich": 15543,
  "goo": 5515,
  "\u0120darker": 11506,
  "sm": 2759,
  "shrieks": 9683,
  "\u0120vet": 8840,
  "\u0120huff": 12028,
  "true": 10437,
  "\u0120disease": 10656,
  "toast": 8021,
  "\u0120reality": 10194,
  "\u0120cherries": 7752,
  "\u0120poppet": 10430,
  "\u0120oak": 12015,
  "yl": 9574,
  "hoe": 7189,
  "\u0120repeat": 7581,
  "ginger": 10206,
  "\u0120germ": 5643,
  "bertie": 13572,
  "sl": 4179,
  "\u0120earphones": 12135,
  "oured": 5512,
  "\u0120giraffe": 3439,
  "rabbits": 14502,
  "\u0120coca": 11356,
  "ath": 829,
  "\u0120rearr": 11529,
  "\u0120real": 1176,
  "\u0120modern": 6796,
  "\u0120shn": 15137,
  "shall": 1070,
  "\u0120concrete": 10992,
  "\u0120execut": 7251,
  "\u0120rails": 14985,
  "\u0120harmon": 13949,
  "giddy": 12381,
  "\u0120cancer": 10956,
  "fch": 949,
  "\u0120door": 789,
  "\u0120snow": 1766,
  "\u0120plea": 13482,
  "\u0120ne": 299,
  "uhhuh": 825,
  "mhm": 419,
  "quigleymcnally": 9926,
  "\u0120against": 2268,
  "oos": 11182,
  "nah": 2975,
  "\u0120clo": 737,
  "\u0120recording": 3304,
  "asks": 8491,
  "\u0120select": 11511,
  "\u0120arm": 1925,
  "toy": 3082,
  "\u0120pulled": 3974,
  "oni": 5959,
  "das": 9572,
  "\u0120wakes": 9196,
  "\u0120vocalizations": 11705,
  "rocks": 14063,
  "\u0120those": 580,
  "\u0120correspond": 11885,
  "\u0120rollers": 15075,
  "ooh": 943,
  "\u0120accompany": 14956,
  "coughing": 10196,
  "tail": 6418,
  "\u0120mass": 5079,
  "sib": 1597,
  "hiding": 7494,
  "as": 185,
  "mice": 15199,
  "ctor": 1020,
  "\u0120bowwow": 13771,
  "\u0120naturally": 11298,
  "\u0120poss": 2262,
  "\u0120bonnet": 14705,
  "/": 20,
  "\u0120seam": 10563,
  "\u0120hoop": 10754,
  "tastes": 12431,
  "\u0120dinosaurs": 3891,
  "lw": 9734,
  "\u0120chang": 1213,
  "\u0120n": 173,
  "\u0120mix": 2255,
  "mplo": 7349,
  "\u0120nay": 14576,
  "\u0120watching": 2093,
  "\u0120sings": 3232,
  "\u0120hers": 5388,
  "umhum": 12123,
  "cough": 8417,
  "\u0120argum": 5221,
  "\u0120sorts": 3806,
  "cember": 6009,
  "disgust": 15989,
  "\u0120individual": 5210,
  "\u0120squeak": 4787,
  "sau": 15927,
  "ough": 440,
  "ously": 7303,
  "jah": 12472,
  "\u0120headquarters": 13229,
  "sc": 1347,
  "aguh": 13236,
  "\u0120lollipop": 5390,
  "\u0120mars": 9628,
  "\u0120barn": 2766,
  "johnny": 8468,
  "\u0120wages": 7565,
  "hone": 807,
  "comp": 9075,
  "\u0120garbage": 6909,
  "\u0120careful": 1647,
  "vent": 1963,
  "mobile": 15714,
  "\u0120commitment": 9482,
  "\u0120sylvia": 9325,
  "asleep": 14415,
  "\u0120cand": 3514,
  "scared": 15630,
  "grandad": 8673,
  "wit": 12516,
  "\u01202": 2418,
  "\u0120cracked": 9754,
  "ggies": 9371,
  "\u0120bald": 10031,
  "\u0120adopt": 15017,
  "\u0120damaged": 13101,
  "\u0120times": 1685,
  "\u0120she": 280,
  "emily": 6254,
  "\u0120member": 4853,
  "\u0120pencils": 7383,
  "kno": 3742,
  "stacks": 12510,
  "\u0120dra": 1987,
  "\u0120communication": 11822,
  "spots": 15882,
  "\u0120ment": 8556,
  "\u0120ramp": 8823,
  "\u0120cupcake": 5799,
  "\u0120vroom": 6467,
  "\u0120julia": 5867,
  "gent": 6879,
  "itions": 5178,
  "\u0120occurred": 11381,
  "she": 471,
  "\u0120ire": 7624,
  "gone": 4038,
  "\u0120washington": 11595,
  "\u0120goods": 6875,
  "\u0120sa": 326,
  "houses": 13673,
  "\u0120owww": 14889,
  "\u0120scr": 2925,
  "\u0120victory": 13964,
  "\u0120overla": 6928,
  "\u0120bright": 3964,
  "mae": 7236,
  "\u0120filling": 8501,
  "\u0120smarties": 4535,
  "\u0120zero": 5587,
  "ninight": 11256,
  "\u0120nosy": 14418,
  "\u0120whist": 4027,
  "\u0120relationship": 6989,
  "screaming": 9061,
  "\u0120vida": 15962,
  "asperated": 14400,
  "\u0120bumping": 14923,
  "\u0120dalmat": 15107,
  "cape": 9135,
  "\u0120horizont": 15672,
  "\u0120necklace": 4247,
  "ef": 2686,
  "\u0120stopping": 7381,
  "paste": 5877,
  "cies": 6303,
  "\u0120converse": 14203,
  "\u0120briefcase": 11664,
  "\u0120essay": 12977,
  "\u0120recovery": 14609,
  "\u0120sla": 9560,
  "\u0120eld": 7066,
  "\u0120skips": 11465,
  "\u0120band": 3226,
  "meaning": 9280,
  "nuffield": 15925,
  "\u0120yan": 15516,
  "\u0120racco": 12084,
  "\u0120martin": 5501,
  "teasing": 13551,
  "half": 4475,
  "\u0120harder": 5863,
  "sie": 2328,
  "\u0120hiya": 14065,
  "\u0120m": 136,
  "\u0120meal": 3331,
  "\u0120yards": 10648,
  "nuh": 10263,
  "jump": 3678,
  "\u0120incorpor": 12845,
  "\u0120diagonally": 14399,
  "\u0120oli": 5716,
  "paint": 5773,
  "stuck": 6653,
  "\u0120betcha": 15711,
  "inv": 184,
  "\u0120residents": 11471,
  "\u0120league": 8741,
  "gill": 5487,
  "\u0120squirt": 9024,
  "\u0120immediately": 6285,
  "clapping": 9805,
  "\u0120youngeun": 12277,
  "\u0120skirt": 5348,
  "\u0120surface": 8760,
  "whim": 11618,
  "\u0120gather": 7560,
  "\u0120production": 6634,
  "\u0120paste": 12226,
  "mau": 15924,
  "\u0120snakes": 5593,
  "\u0120itself": 3690,
  "\u0120possibly": 4418,
  "\u0120dex": 11562,
  "collect": 15020,
  "\u0120injection": 13794,
  "\u0120quiet": 1934,
  "cocoa": 15190,
  "\u0120nought": 8360,
  "auntie": 5413,
  "frigerator": 4461,
  "imately": 8627,
  "4": 25,
  "letters": 11398,
  "\u0120jar": 4039,
  "changed": 14554,
  "\u0120distant": 14767,
  "\u0120flown": 15327,
  "\u0120flew": 4728,
  "police": 6749,
  "\u0120coles": 10857,
  "males": 12930,
  "ance": 982,
  "\u0120worst": 7637,
  "\u0120shiny": 6071,
  "\u0120tadpo": 12599,
  "\u0120beyond": 7243,
  "\u0120personal": 5033,
  "\u0120wear": 1234,
  "\u0120curtain": 6602,
  "\u0120nappie": 5077,
  "zorg": 6076,
  "dragon": 14030,
  "pushing": 8359,
  "\u0120lasagne": 13849,
  "guys": 13892,
  "cheer": 9513,
  "\u0120view": 2130,
  "\u0120myself": 2104,
  "eties": 14276,
  "mickey": 6680,
  "rant": 7396,
  "eddy": 1541,
  "whin": 8547,
  "\u0120foxy": 15831,
  "\u0120sleigh": 10281,
  "banana": 6921,
  "ban": 4255,
  "\u0120biology": 15663,
  "\u0120headphones": 10349,
  "\u0120jeans": 7639,
  "umes": 6055,
  "?.": 9790,
  "\u0120popping": 10588,
  "\u0120exchange": 8739,
  "xxxxx": 15691,
  "\u0120forces": 9450,
  "\u0120clap": 3832,
  "\u0120bouncing": 6441,
  "vinny": 13709,
  "lovely": 4362,
  "\u0120pajamas": 4425,
  "\u0120scope": 13378,
  "definitely": 8440,
  "\u0120cherry": 5602,
  "\u0120pad": 5569,
  "\u0120healthy": 6114,
  "\u0120scale": 5004,
  "\u0120asse": 8049,
  "\u0120toots": 15118,
  "\u0120hus": 3909,
  "\u0120pawns": 11966,
  "inder": 8133,
  "\u0120medium": 9650,
  "fer": 1583,
  "\u0120inspector": 10484,
  "tel": 4854,
  "sea": 9232,
  "\u0120tele": 1584,
  "\u0120marx": 14365,
  "\u0120promises": 13959,
  "\u0120teet": 10994,
  "sees": 8069,
  "dig": 7800,
  "\u0120young": 2088,
  "\u0120fert": 15439,
  "plus": 7516,
  "clean": 5672,
  ":": 31,
  "\u0120plat": 7234,
  "\u0120move": 998,
  "\u0120tart": 11388,
  "\u0120brief": 5864,
  "\u0120lookee": 7930,
  "\u0120baths": 11030,
  "9": 30,
  "\u0120pawn": 9453,
  "sweetie": 8980,
  "\u0120grass": 2433,
  "ellow": 906,
  "haha": 2173,
  "\u0120receiver": 6933,
  "\u0120february": 6144,
  "\u0120history": 5876,
  "\u0120kaka": 14940,
  "\u0120likes": 1643,
  "\u0120accident": 3707,
  "\u0120does": 383,
  "\u0120shrek": 12129,
  "76": 12471,
  "saturday": 8340,
  "ip": 1049,
  "gue": 3855,
  "\u0120discount": 10350,
  "\u0120speaking": 3627,
  "\u0120]": 4349,
  "oud": 1485,
  "\u0120aye": 3203,
  "blow": 3421,
  "\u0120hadta": 2655,
  "local": 15953,
  "\u0120heads": 5306,
  "fil": 11606,
  "cou": 1751,
  "\u0120laug": 7028,
  "\u0120visited": 13388,
  "mel": 2152,
  "\u0120considerably": 14927,
  "\u0120continues": 2114,
  "\u0120speaker": 5847,
  "ina": 1343,
  "\u0120election": 7468,
  "\u0120bent": 8920,
  "\u0120skates": 11848,
  "\u0120jennifer": 6793,
  "taperecorder": 10139,
  "iv": 1758,
  "\u0120our": 704,
  "\u0120scottish": 9898,
  "uals": 7907,
  "\u0120snot": 15775,
  "\u0120couple": 1941,
  "\u0120nearest": 8550,
  "\u0120grunt": 14363,
  "\u0120drawed": 14206,
  "pickle": 13127,
  "\u0120rejected": 15571,
  "\u0120key": 2613,
  "gs": 1031,
  "\u0120catched": 14673,
  "\u0120give": 708,
  "\u0120wont": 15064,
  "\u0120borrow": 4792,
  "\u0120absor": 12292,
  "\u0120stressed": 11394,
  "\u0120china": 9689,
  "\u0120accoun": 15828,
  "\u0120image": 9903,
  "\u0120speak": 2238,
  "\u0120dei": 13122,
  "\u0120tub": 4697,
  "\u0120greens": 9455,
  "\u0120dough": 4371,
  "anger": 2818,
  "etch": 13158,
  "\u0120oops": 6533,
  "\u0120wax": 10039,
  "coke": 15382,
  "stein": 8495,
  "\u0120strap": 8169,
  "\u0120waterfall": 13064,
  "\u0120filming": 13083,
  "\u0120publicity": 11373,
  "\u0120directions": 8616,
  "\u0120miser": 12090,
  "\u0120era": 15130,
  "\u0120sailor": 9633,
  "vanhouten": 13783,
  "ducks": 11262,
  "jimmy": 10628,
  "unclear": 12395,
  "iver": 3256,
  "\u0120appreciate": 7645,
  "pencil": 10218,
  "\u0120writ": 11324,
  "\u0120center": 5990,
  "\u0120sauce": 4497,
  "sar": 3831,
  "\u0120geoffrey": 14630,
  "ating": 1300,
  "\u0120diane": 13385,
  "\u0120booked": 10408,
  "ulated": 13370,
  "\u0120solve": 12290,
  "ila": 7817,
  "\u0120terrible": 3790,
  "\u0120combine": 14453,
  "\u0120summary": 13131,
  "by": 400,
  "\u0120blackpool": 9824,
  "\u0120airplanes": 9780,
  "ics": 2881,
  "\u0120slack": 15975,
  "\u0120terror": 15078,
  "\u0120fc": 7136,
  "\u0120responds": 7448,
  "\u0120convinced": 11308,
  "\u0120link": 6683,
  "omer": 3696,
  "\u0120bobs": 13997,
  "za": 7603,
  "mpers": 6624,
  "\u0120absolutely": 3390,
  "\u0120georg": 11594,
  "chool": 699,
  "iger": 1958,
  "bruary": 5767,
  "anthony": 11055,
  "\u0120stars": 4323,
  "read": 604,
  "\u0120wording": 14068,
  "\u0120tell": 520,
  "band": 3332,
  "conne": 14999,
  "\u0120slipping": 11852,
  "\u0120polit": 4249,
  "\u0120yell": 4639,
  "\u0120turning": 3205,
  "tered": 6187,
  "e": 45,
  "\u0120dogg": 1645,
  "\u0120brick": 4869,
  "\u0120ana": 7766,
  "lia": 6830,
  "\u0120childhood": 15795,
  "\u0120magnets": 4756,
  "\u0120beings": 14753,
  "isset": 11527,
  "somethin": 14685,
  "\u0120spec": 3770,
  "offers": 11336,
  "\u0120cor": 1180,
  "top": 5744,
  "wed": 7081,
  "\u0120slowly": 4927,
  "unno": 2334,
  "\u0120safety": 5142,
  "amused": 8236,
  "\u0120charged": 10436,
  "\u0120rot": 6232,
  "\u0120willem": 14904,
  "\u0120recipe": 10941,
  "\u0120published": 10668,
  "\u0120puzzles": 5445,
  "\u0120imag": 3290,
  "gre": 1413,
  "\u0120motion": 3986,
  "\u0120blonde": 11533,
  "ution": 10271,
  "\u0120basis": 5013,
  "\u0120leaving": 4183,
  "\u0120lesson": 7239,
  "\u0120pancakes": 6495,
  "melon": 5760,
  "bulance": 3689,
  "\u0120wiggly": 11390,
  "\u0120laid": 6868,
  "\u0120welling": 11159,
  "\u0120rum": 8259,
  "terday": 1523,
  "\u0120langu": 4180,
  "\u0120whichever": 12571,
  "oscope": 13067,
  "\u0120aug": 6607,
  "\u012019": 13182,
  "wan": 1282,
  "\u0120moved": 3070,
  "\u0120inaudible": 6703,
  "\u0120sling": 14410,
  "frogs": 12791,
  "asion": 14189,
  "\u00b7": 77,
  "coloring": 11171,
  "heart": 3244,
  "stand": 1467,
  "cong": 10916,
  "\u0120secretary": 4733,
  "\u0120prove": 9801,
  "\u0120controlled": 11846,
  "\u0120bin": 2778,
  "\u0120frosting": 10416,
  "\u0120contracts": 11377,
  "hn": 8506,
  "\u0120fest": 9792,
  "\u0120choir": 12581,
  "kanga": 13469,
  "\u0120shoelaces": 12288,
  "\u0120blinking": 13749,
  "ier": 2994,
  "blic": 13024,
  "\u0120mand": 12842,
  "\u0120slot": 7887,
  "\u0120representative": 12204,
  "tra": 1500,
  "\u0120thames": 13583,
  "\u0120lie": 3273,
  "umpt": 14986,
  "\u0120streng": 8009,
  "dg": 9243,
  "\u0120ye": 8220,
  "\u0120periods": 14236,
  "sbury": 7280,
  "mine": 2583,
  "balloon": 9160,
  "pped": 1100,
  "fred": 9815,
  "\u0120compared": 8023,
  "din": 2847,
  "gen": 5817,
  "\u0120location": 9346,
  "\u0120mock": 14291,
  "ired": 4789,
  "\u0120petals": 13133,
  "\u0120max": 4299,
  "\u0120territ": 13895,
  "\u0120arri": 4234,
  "flying": 10070,
  "names": 14351,
  "\u0120capacity": 10378,
  "smith": 12925,
  "\u0120seal": 6676,
  "rily": 7892,
  "\u0120cloudy": 13963,
  "\u0120love": 815,
  "\u0120chief": 6346,
  "\u0120boss": 6057,
  "bbies": 4832,
  "\u0120perio": 3779,
  "f": 46,
  "pil": 8160,
  "stem": 2873,
  "\u0120dwar": 10317,
  "less": 2158,
  "lli": 2837,
  "would": 1174,
  "\u0120inno": 11719,
  "lifts": 7613,
  "\u0120ball": 593,
  "ryan": 14826,
  "\u0120rec": 5852,
  "\u0120wires": 8291,
  "\u0120spicy": 14670,
  "\u0120nik": 9233,
  "\u0120snowy": 12091,
  "\u0120blow": 2372,
  "step": 4680,
  "almost": 4302,
  "\u0120nineteenth": 11734,
  "nce": 1631,
  "\u0120moves": 1864,
  "\u0120criter": 6638,
  "\u0120small": 1278,
  "chewing": 12960,
  "\u0120popbeads": 9867,
  "\u0120atta": 3241,
  "\u0120-": 5272,
  "\u0120tender": 11844,
  "\u0120fox": 3369,
  "\u0120mental": 11901,
  "parrot": 11574,
  "claire": 14153,
  "\u0120society": 5423,
  "inst": 6365,
  "\u0120explains": 6735,
  "nurs": 13265,
  "\u0120roller": 6696,
  "\u0120booboo": 13950,
  "\u0120groans": 15318,
  "uhhum": 5870,
  "lions": 15198,
  "\u0120basketball": 6529,
  "surpri": 12546,
  "\u0120sand": 1319,
  "\u0120wanders": 10906,
  "\u0120strings": 10970,
  "shirts": 15032,
  "\u0120fashioned": 12548,
  "\u0120appointment": 7194,
  "\u0120unlikely": 11827,
  "ethoscope": 12007,
  "\u0120th": 276,
  "but": 393,
  "\u0120nint": 8070,
  "\u0120ris": 15383,
  "apparently": 8463,
  "twenty": 2728,
  "\u0120effort": 4840,
  "\u0120ai": 9817,
  "delicious": 9240,
  "\u0120smack": 8696,
  "\u0120drop": 2610,
  "\u0120deli": 5511,
  "\u0120passed": 5459,
  "ckle": 15940,
  "\u0120customers": 8564,
  "weist": 10954,
  "fireman": 6480,
  "\u0120auditor": 14461,
  "\u0120braid": 15737,
  "shush": 13381,
  "\u0120knob": 11037,
  "lution": 5322,
  "ustain": 10821,
  "\u0120available": 4826,
  "\u0120orna": 15373,
  "ational": 2578,
  "\u0120sippy": 10383,
  "ber": 453,
  "bill": 8552,
  "\u0120famil": 4433,
  "nces": 6623,
  "\u0120ber": 4205,
  "\u0120forth": 4229,
  "lim": 14810,
  "\u0120october": 6674,
  "\u0120dress": 2052,
  "\u0120seaside": 9315,
  "\u0120aunty": 5444,
  "dese": 11275,
  "shield": 14770,
  "ll": 138,
  "\u0120programme": 4102,
  "\u0120antennas": 15753,
  "\u0120brad": 12025,
  "\u0120listening": 3222,
  "\u0120sharks": 9500,
  "\u0120dow": 14821,
  "lut": 2055,
  "ipul": 6397,
  "\u0120understand": 2013,
  "\u0120written": 3883,
  "\u0120tim": 5252,
  "gosh": 4931,
  "\u0120cig": 6511,
  "cheeky": 7216,
  "\u0120unions": 8612,
  "\u0120discovered": 9270,
  "\u0120ingred": 12467,
  "\u0120crawl": 6004,
  "\u0120crossed": 10842,
  "#": 8,
  "stra": 5319,
  "toe": 8611,
  "ccer": 7855,
  "analy": 13737,
  "ically": 2200,
  "picture": 3842,
  "\u0120lands": 12193,
  "\u0120neighbours": 9569,
  "\u0120habit": 10728,
  "lah": 14181,
  "gil": 9505,
  "\u0120germany": 7436,
  "\u0120swww": 5256,
  "jama": 15835,
  "tracy": 10496,
  "\u0120boxes": 3145,
  "\u0120loud": 1997,
  "tyre": 13549,
  "dipsy": 10247,
  "\u0120station": 2764,
  "\u0120sponsored": 15491,
  "old": 4851,
  "\u0120dexter": 13260,
  "\u0120whether": 1809,
  "\u0120oxy": 11228,
  "\u0120lofty": 14422,
  "thanks": 2690,
  "\u0120splinter": 9946,
  "buddy": 14249,
  "\u0120\u00e2\u0122\u013a": 5204,
  "\u0120issue": 4189,
  "fun": 8803,
  "\u0120toe": 4479,
  "eapple": 6446,
  "cell": 3933,
  "\u0120labour": 3803,
  "\u0120cans": 8925,
  "\u0120magnifying": 15641,
  "everywhere": 13073,
  "\u0120neither": 7670,
  "\u0120recom": 4638,
  "uous": 13984,
  "\u0120snowman": 5100,
  "\u0120accidentally": 11143,
  "\u0120boat": 1616,
  "\u0120enqu": 7223,
  "ooo": 9019,
  "ran": 8568,
  "jamas": 3688,
  "mate": 8712,
  "\u0120\u0120": 1216,
  "joa": 8426,
  "lf": 572,
  "\u0120alistair": 13483,
  "ense": 5237,
  "\u0120celery": 10784,
  "\u0120anne": 6359,
  "\u0120smelling": 13134,
  "pilchard": 10110,
  "\u0120snort": 13957,
  "\u0120accor": 6883,
  "ika": 14179,
  "\u0120pronounce": 14855,
  "\u0120comput": 2993,
  "ond": 961,
  "\u0120sposta": 2323,
  "\u0120thera": 15687,
  "responds": 15417,
  "ully": 10659,
  "\u0120notice": 4014,
  "bean": 14197,
  "\u0120appro": 2604,
  "pos": 11089,
  "mrs": 3935,
  "\u0120telephone": 2363,
  "\u0120meat": 2709,
  "\u0120brown": 1791,
  "\u0120operate": 11438,
  "berts": 13548,
  "\u0120dribble": 15720,
  "\u0120suggestion": 7544,
  "\u0120blanket": 2537,
  "\u0120firemen": 7445,
  "\u0120satis": 6549,
  "bbin": 7807,
  "yee": 14183,
  "\u0120claim": 4910,
  "no": 149,
  "\u0120talkin": 5363,
  "\u0120bounce": 5149,
  "heit": 14573,
  "tim": 6119,
  "\u0120handle": 2751,
  "ded": 5474,
  "\u0120gerrold": 15413,
  "\u0120revised": 15098,
  "activity": 7509,
  "isha": 3075,
  "\u0120ability": 7681,
  "\u0120experience": 4419,
  "\u0120up": 254,
  "gaga": 7309,
  "\u0120tet": 15683,
  "seventy": 9770,
  "\u0120camer": 10902,
  "knocking": 15902,
  "\u0120policy": 3027,
  "\u0120mummy": 726,
  "\u0120toward": 2149,
  "nif": 1879,
  "\u0120daily": 8931,
  "ear": 352,
  "dy": 504,
  "nanny": 10865,
  "changes": 13040,
  "root": 13743,
  "\u0120dreamed": 13576,
  "\u0120bath": 1151,
  "help": 2668,
  "\u0120wee": 729,
  "\u0120repaired": 15492,
  "just": 754,
  "\u0120stripe": 14151,
  "\u0120although": 3827,
  "\u0120handed": 9022,
  "ils": 3184,
  "\u0120rash": 13684,
  "takes": 1638,
  "duh": 5227,
  "\u0120wool": 5858,
  "yellow": 2247,
  "\u0120cur": 2039,
  "cater": 8276,
  "\u0120op": 10789,
  "finally": 10558,
  "rible": 2646,
  "\u0120carriage": 4868,
  "\u0120crab": 5286,
  "\u0120create": 8483,
  "\u0120gathering": 13519,
  "tingu": 15875,
  "itar": 5560,
  "stic": 5298,
  "\u0120tweenies": 7934,
  "dress": 6628,
  "\u0120partial": 12766,
  "\u0120eighteen": 3479,
  "\u0120switch": 4379,
  "round": 2899,
  "\u0120dramatic": 13043,
  "\u0120paws": 8380,
  "levant": 8030,
  "\u0120chel": 13816,
  "\u0120fraud": 14067,
  "\u0120gover": 2259,
  "\u0120sweats": 11923,
  "bow": 2780,
  "uesday": 2961,
  "\u0120grew": 6455,
  "easel": 8022,
  "your": 1203,
  "ced": 1608,
  "\u00e2\u0128": 1201,
  "\u0120humans": 15899,
  "\u0120food": 973,
  "\u0120conf": 3026,
  "\u0120jasmine": 14170,
  "\u0120jolly": 9086,
  "wald": 4489,
  "\u0120matty": 8347,
  "\u0120settlements": 13087,
  "\u0120manners": 12859,
  "ucks": 14290,
  "www": 657,
  "\u0120schedule": 11554,
  "haz": 14344,
  ".": 19,
  "\u0120amen": 11770,
  "\u0120funds": 9758,
  "\u0120ratio": 14234,
  "boats": 14593,
  "\u0120backed": 15450,
  "forms": 9285,
  "aunwald": 4558,
  "\u0120jogging": 15969,
  "\u0120spreadsheet": 13655,
  "pical": 6806,
  "\u0120needn": 12860,
  "\u0120liber": 6684,
  "bly": 5797,
  "\u0120concept": 9603,
  "\u0120mickey": 3587,
  "omas": 745,
  "henry": 5966,
  "\u0120realize": 4838,
  "nday": 2310,
  "\u0120saving": 5932,
  "\u0120sits": 2165,
  "\u0120maintenance": 10823,
  "ckey": 8418,
  "\u0120te": 922,
  "\u0120blank": 2121,
  "\u0120shill": 10832,
  "covers": 9533,
  "fc": 10816,
  "\u0120cathy": 4028,
  "0207": 12934,
  "current": 4416,
  "\u0120kah": 10854,
  "\u0120dec": 1834,
  "\u0120smiles": 3735,
  "\u0120hula": 14284,
  "\u0120mae": 8718,
  "ato": 1580,
  "frustrated": 14439,
  "\u0120mary": 3616,
  "\u0120july": 6074,
  "\u0120bones": 5865,
  "itor": 5354,
  "gency": 7548,
  "\u0120health": 3366,
  "\u0120literally": 9272,
  "\u0120baked": 8752,
  "\u0120english": 4306,
  "ases": 7099,
  "time": 1843,
  "slide": 8251,
  "\u0120leaders": 9401,
  "ates": 1188,
  "\u0120inform": 2859,
  "\u0120grunts": 11361,
  "wich": 1939,
  "castle": 7955,
  "\u0120nicke": 14318,
  "\u0120fut": 3814,
  "\u0120toot": 7158,
  "0211": 13250,
  "\u0120cer": 1688,
  "\u0120gulp": 11271,
  "\u0120polish": 7792,
  "note": 9129,
  "\u0120troll": 5812,
  "\u0120disability": 15970,
  "mies": 6873,
  "\u0120magnet": 2746,
  "\u0120repeatedly": 12649,
  "]!": 1501,
  "hard": 5850,
  "\u0120prime": 8497,
  "\u00c3": 82,
  "ety": 2917,
  "\u0120chops": 9606,
  "\u0120there": 225,
  "\u0120send": 3004,
  "\u0120cater": 2651,
  "\u0120november": 6917,
  "\u0120gasp": 14775,
  "\u0120luck": 6103,
  "vis": 1670,
  "\u0120extre": 5571,
  "stone": 9529,
  "\u0120shan": 11972,
  "\u0120cabin": 5842,
  "\u0120stroller": 11422,
  "iring": 9530,
  "\u0120whisper": 6227,
  "\u0120undercurrent": 10467,
  "part": 1660,
  "\u0120breaking": 6340,
  "\u0120ministry": 11920,
  "\u0120maths": 7394,
  "\u0120debt": 11411,
  "\u0120citizens": 11010,
  "\u0120pictures": 1735,
  "en": 156,
  "uey": 14133,
  "\u0120contacts": 13777,
  "\u0120defer": 14906,
  "\u0120rocky": 11932,
  "\u0120jon": 12266,
  "\u0120wing": 7472,
  "ello": 7749,
  "\u0120advent": 8051,
  "\u0120diction": 9216,
  "ei": 11789,
  "broccoli": 11193,
  "\u0120extra": 2999,
  "nomi": 10609,
  "\u0120death": 5875,
  "\u0120christ": 1241,
  "\u0120stephanie": 9915,
  "\u0120steering": 6821,
  "\u0120rod": 6514,
  "hide": 7011,
  "ario": 11679,
  "\u0120wal": 782,
  "\u0120jum": 13993,
  "\u0120concern": 6718,
  "\u0120liver": 7430,
  "\u0120walker": 12087,
  "\u0120bench": 5235,
  "ential": 5528,
  "sung": 2287,
  "yeah": 187,
  "yeh": 3389,
  "awoh": 7710,
  "lines": 7801,
  "19": 6016,
  "giggles": 2409,
  "\u0120tuesday": 3194,
  "\u0120mau": 11181,
  "\u0120roy": 4658,
  "\u00ab": 75,
  "say": 1139,
  "\u0120carrots": 4109,
  "\u0120opportunities": 9807,
  "\u0120reds": 11570,
  "\u0120security": 6829,
  "powder": 11999,
  "\u0120circul": 10221,
  "\u0120diet": 7261,
  "\u0120locks": 9862,
  "chick": 12659,
  "screw": 7623,
  "\u0120privat": 11509,
  "\u0120broked": 14005,
  "\u0120phil": 7168,
  "\u0120enjoyed": 5524,
  "thursday": 9010,
  "\u0120joe": 3810,
  "\u0120arguments": 10840,
  "\u0120folded": 11144,
  "ternal": 14924,
  "vert": 3976,
  "ension": 15154,
  "\u0120file": 6102,
  "marks": 9468,
  "\u0120through": 785,
  "taste": 9933,
  "\u0120mushroom": 6106,
  "ning": 646,
  "?\u00e2\u0122\u013b": 14805,
  "ddya": 13141,
  "oms": 9710,
  "arium": 9248,
  "grace": 13284,
  "eal": 1155,
  "\u0120negoti": 7858,
  "\u0120theater": 12384,
  "quickly": 6666,
  "\u0120jeremy": 7636,
  "chim": 12338,
  "\u0120positions": 12045,
  "\u0120eventually": 5999,
  "starts": 4053,
  "\u0120historic": 15910,
  "se": 159,
  "hion": 4267,
  "0109": 14694,
  "gordon": 8707,
  "numbers": 15322,
  "\u0120viet": 15873,
  "mush": 12256,
  "\u0120study": 4546,
  "cows": 10777,
  "rodu": 3815,
  "blin": 11657,
  "rd": 902,
  "\u0120cube": 9413,
  "light": 2633,
  "\u0120bean": 5212,
  "babies": 7927,
  "\u0120dit": 11648,
  "\u0120forgive": 13005,
  "\u0120[!": 7025,
  "\u0120escap": 9226,
  "\u0120prick": 9843,
  "\u0120cam": 1369,
  "\u0120peace": 6481,
  "\u0120proced": 5437,
  "\u0120foods": 7071,
  "\u0120risk": 7572,
  "squee": 7298,
  "\u0120include": 8066,
  "ned": 2252,
  "\u0120complicated": 8502,
  "\u0120constru": 11739,
  "joey": 7292,
  "jul": 5170,
  "\u0120wre": 7134,
  "\u0120thre": 5320,
  "\u0120mun": 11152,
  "cons": 7647,
  "\u0120weist": 15692,
  "\u0120slurping": 15102,
  "thir": 3502,
  "\u0120evaluation": 13971,
  "\u0120advertised": 13032,
  "writes": 11209,
  "pronounced": 6434,
  "nife": 3135,
  "\u0120guess": 1504,
  "\u0120wr": 731,
  "\u0120anxious": 12003,
  "throws": 4148,
  "\u0120programmes": 9893,
  "ipped": 12164,
  "kuc": 10684,
  "\u0120intonation": 6222,
  "\u0120plants": 4550,
  "\u0120task": 5947,
  "\u0120opponent": 14842,
  "\u0120advis": 9823,
  "\u0120taping": 6761,
  "cers": 6435,
  "\u0120seek": 6636,
  "tommy": 12771,
  "\u0120lincoln": 9137,
  "\u0120cracker": 5733,
  "\u0120one": 222,
  "dancing": 10051,
  "\u0120grandma": 1811,
  "or": 158,
  "\u0120sassy": 13736,
  "rit": 2539,
  "hions": 9039,
  "knocks": 9326,
  "\u0120somersault": 15765,
  "\u0120satisf": 12983,
  "glass": 12280,
  "iam": 4700,
  "kelly": 11393,
  "bo": 448,
  "\u0120bes": 3425,
  "tempts": 3480,
  "\u0120leap": 13556,
  "\u0120thumb": 5480,
  "\u0120diggers": 14628,
  "blank": 9012,
  "\u0120usual": 7192,
  "ope": 6892,
  "\u0120corri": 12032,
  "\u0120peach": 6576,
  "\u0120international": 8432,
  "\u0120early": 2474,
  "\u0120condem": 15456,
  "zie": 12517,
  "scope": 9752,
  "\u0120tourist": 13128,
  "\u0120thank": 1085,
  "\u0120crust": 8658,
  "growls": 6795,
  "\u0120over": 425,
  "vas": 12436,
  "\u0120servants": 13764,
  "\u0120protesting": 14023,
  "is": 200,
  "\u0120ol": 9018,
  "\u0120cocon": 12756,
  "pot": 3254,
  "\u0120brussels": 12986,
  "\u0120chopped": 11329,
  "ride": 8115,
  "\u0120damn": 12832,
  "\u0120seuss": 11911,
  "yells": 6053,
  "\u0120lean": 7736,
  "\u0120identification": 15836,
  "ashy": 15045,
  "\u0120obser": 5926,
  "louise": 13896,
  "rub": 5873,
  "\u0120yous": 15204,
  "\u0120services": 4058,
  "item": 15455,
  "\u0120spins": 11424,
  "\u0120pros": 8425,
  "\u0120meant": 3177,
  "\u0120bozo": 12853,
  "\u0120direct": 2773,
  "ngare": 12905,
  "\u0120either": 1659,
  "\u0120joke": 6275,
  "\u0120dumped": 10336,
  "\u0120help": 783,
  "\u0120heating": 8772,
  "icians": 12849,
  "ashed": 3404,
  "\u0120tissue": 4348,
  "\u0120dragging": 15545,
  "ext": 2304,
  "\u0120bicycle": 4567,
  "meanwhile": 15340,
  "fortunate": 13780,
  "llie": 12118,
  "\u0120ding": 4675,
  "\u0120confir": 13294,
  "farm": 11386,
  "n": 54,
  "\u0120whoever": 7628,
  "teach": 15294,
  "johnathan": 13191,
  "complet": 13457,
  "\u0120debate": 6148,
  "\u0120tal": 570,
  "believable": 14173,
  "wants": 6315,
  "\u0120threatened": 13782,
  "\u0120wishing": 13608,
  "\u0120giving": 2427,
  "mamma": 15131,
  "\u0120speech": 4976,
  "\u0120gasped": 15901,
  "\u0120liked": 2896,
  "past": 9144,
  "cute": 12924,
  "ape": 11558,
  "\u0120possibility": 8111,
  "\u0120pul": 15600,
  "\u0120mes": 13862,
  "\u0120givin": 12816,
  "\u0120laws": 10226,
  "ev": 5121,
  "\u0120trolley": 6647,
  "\u0120hedge": 6556,
  "bone": 12699,
  "\u0120vegetable": 7642,
  "\u0120stable": 8717,
  "26": 6171,
  "\u0120do": 166,
  "\u0120introduction": 10445,
  "\u0120elderly": 9789,
  "\u0120conference": 5860,
  "\u0120babysit": 8882,
  "\u0120organized": 8913,
  "sausage": 8871,
  "\u0120easter": 3562,
  "sidered": 7791,
  "bri": 2561,
  "\u0120pushed": 4336,
  "sent": 15354,
  "\u0120splash": 4216,
  "\u0120bash": 8164,
  "umb": 4095,
  "uncle": 5470,
  "\u0120ve": 2652,
  "quer": 12529,
  "red": 530,
  "\u0120fight": 2376,
  "\u0120shampoo": 6818,
  "\u0120dramat": 9849,
  "\u0120flannel": 14874,
  "aae": 7277,
  "\u0120much": 683,
  "\u0120vest": 6524,
  "\u0120buried": 11917,
  "choo": 2662,
  "long": 4609,
  "\u0120ugly": 10586,
  "jeannine": 5841,
  "anners": 15730,
  "\u0120vou": 11804,
  "\u0120totally": 5028,
  "\u0120problem": 1882,
  "\u0120makeup": 10894,
  "\u0120oh": 664,
  "cated": 7166,
  "''": 4194,
  "ues": 1092,
  "\u0120slightly": 4059,
  "kkk": 13303,
  "oney": 837,
  "\u0120gingerbread": 7060,
  "\u0120chester": 14364,
  "ulary": 13622,
  "\u0120suff": 5613,
  "\u0120canada": 13543,
  "climbs": 12577,
  "nathaniel": 8711,
  "ried": 1909,
  "\u0120fright": 4123,
  "\u0120pizz": 12261,
  "\u0120fasten": 13242,
  "\u0120truth": 5674,
  "changing": 14712,
  "\u0120glen": 9605,
  "shower": 12776,
  "\u0120stephen": 9237,
  "\u0120noble": 12124,
  "ac": 3113,
  "\u0120tense": 14301,
  "\u0120mark": 1271,
  "\u0120talk": 935,
  "\u0120training": 3435,
  "\u0120differentiate": 12941,
  "\u0120cope": 7604,
  "mming": 7884,
  "serv": 15642,
  "\u0120engineers": 13700,
  "\u0120technology": 8159,
  "met": 3710,
  "\u0120something": 533,
  "nei": 7683,
  "\u0120ladders": 6812,
  "\u0120porch": 11547,
  "\u0120treasurer": 12645,
  "\u0120outline": 14667,
  "dog": 2941,
  "\u0120section": 4481,
  "julie": 13584,
  "cul": 4256,
  "iries": 10262,
  "ors": 1859,
  "\u0120pl": 272,
  "\u0120babes": 15636,
  "\u0120strip": 11227,
  "\u0120patrick": 6487,
  "uine": 11487,
  "berry": 2144,
  "\u0120stretches": 12366,
  "squeaky": 12888,
  "\u0120effic": 8335,
  "built": 13442,
  "orted": 13225,
  "\u0120egy": 13216,
  "ww": 434,
  "caroline": 8573,
  "\u0120bears": 3506,
  "driving": 9057,
  "\u0120century": 7793,
  "fied": 7705,
  "\u0120grandmas": 15147,
  "caught": 13915,
  "\u0120mate": 5820,
  "\u0120burps": 12148,
  "mind": 2355,
  "\u0120vig": 12489,
  "\u0120toothbrush": 6050,
  "\u0120syll": 7368,
  "\u0120wow": 2599,
  "\u0120panel": 7632,
  "\u0120ducky": 9643,
  "\u0120syllable": 11074,
  "\u0120angle": 7796,
  "\u0120collimore": 15990,
  "thankyou": 7770,
  "tisha": 7492,
  "\u0120forgotten": 4946,
  "\u0120outlet": 14975,
  "ively": 5234,
  "\u0120similar": 4333,
  "\u0120tab": 4917,
  "\u0120splat": 15001,
  "inside": 6242,
  "cover": 8740,
  "\u0120bulldo": 10312,
  "eable": 10725,
  "\u0120dey": 4611,
  "\u0120hea": 6073,
  "\u0120parties": 7138,
  "whi": 800,
  "\u0120beat": 3965,
  "shut": 11364,
  "enna": 14575,
  "\u0120applications": 10341,
  "\u0120dolly": 2978,
  "\u0120blues": 7735,
  "\u0120cruel": 11708,
  "lisa": 5734,
  "\u0120ben": 1986,
  "ji": 13263,
  "happen": 14397,
  "\u0120throw": 1148,
  "\u0120giddy": 9709,
  "\u0120elder": 8766,
  "urn": 477,
  "\u0120pots": 6137,
  "l": 52,
  "\u0120market": 3169,
  "llow": 1890,
  "\u0120single": 4067,
  "inician": 8570,
  "\u0120stretched": 10106,
  "rac": 5043,
  "\u0120dining": 6111,
  "\u0120mexico": 15034,
  "kim": 5199,
  "joanna": 12723,
  "\u0120can": 235,
  "\u0120seated": 10550,
  "\u0120credit": 7048,
  "eth": 1641,
  "might": 4765,
  "im": 435,
  "be": 396,
  "\u0120sail": 5096,
  "cuse": 1992,
  "\u0120ian": 7220,
  "pushed": 15266,
  "\u0120racing": 4714,
  "flowers": 6856,
  "gal": 8016,
  "oo": 153,
  "cl": 1014,
  "\u0120planning": 4127,
  "ering": 3196,
  "miss": 2649,
  "\u0120provides": 13297,
  "\u0120unit": 6217,
  "\u0120cy": 4784,
  "\u0120art": 3447,
  "iron": 12019,
  "\u0120responsibilities": 12365,
  "\u0120glow": 11317,
  "\u0120ey": 10611,
  "\u0120simpl": 14919,
  "cer": 1507,
  "\u0120bun": 3955,
  "reci": 6109,
  "\u0120sil": 1256,
  "fit": 6108,
  "\u0120comic": 12348,
  "turned": 13887,
  "dia": 7547,
  "ers": 382,
  "\u0120happily": 9429,
  "ations": 1471,
  "\u0120sally": 5891,
  "\u0120wasted": 14396,
  "\u0120stomach": 4420,
  "\u0120with": 255,
  "\u0120crosses": 13644,
  "\u0120december": 6327,
  "bet": 2515,
  "\u0120supplement": 12913,
  "ure": 395,
  "calling": 7875,
  "\u0120resolut": 7330,
  "\u0120jesus": 4321,
  "\u0120clip": 4903,
  "\u0120terri": 5269,
  "nt": 426,
  "\u0120occasion": 5810,
  "luck": 15858,
  "\u0120unless": 3930,
  "special": 10744,
  "\u0120burning": 8355,
  "\u0120payment": 11368,
  "\u0120civil": 7359,
  "\u0120use": 834,
  "tic": 10721,
  "\u0120overlapping": 14862,
  "\u0120tig": 6618,
  "\u0120carries": 7045,
  "\u0120nathan": 5485,
  "\u0120touches": 3871,
  "choose": 14377,
  "\u0120lor": 5644,
  "cester": 11973,
  "\u0120knobs": 15985,
  "\u0120keeper": 10301,
  "xxx": 229,
  "\u0120wix": 12257,
  "\u0120accom": 6188,
  "\u0120tons": 10750,
  "\u0120tourna": 14256,
  "\u0120taught": 5708,
  "\u0120tor": 4241,
  "force": 9054,
  "\u0120councill": 5285,
  "bb": 821,
  "\u0120objections": 12537,
  "button": 7652,
  "\u0120snack": 3760,
  "\u0120momma": 3692,
  "\u0120future": 3866,
  "\u0120tu": 3294,
  "\u0120bossy": 13255,
  "qua": 15286,
  "\u0120cit": 8713,
  "\u0120sharon": 9068,
  "\u0120results": 7510,
  "sharon": 15532,
  "\u0120eh": 2593,
  "\u0120golf": 6522,
  "\u0120stand": 960,
  "\u0120apartment": 7712,
  "\u0120din": 1018,
  "\u0120technique": 14946,
  "\u0120gruffalo": 13100,
  "\u0120ratt": 4894,
  "\u0120upd": 10368,
  "ishment": 9181,
  "\u0120partner": 9052,
  "\u0120headache": 7895,
  "\u0120originally": 8893,
  "\u0120buns": 7878,
  "\u0120sweeping": 7582,
  "\u0120\u00e2\u012e\u012b": 14526,
  "neezes": 4128,
  "shampoo": 15717,
  "\u0120rah": 15221,
  "\u0120guesses": 7249,
  "fere": 801,
  "sky": 10949,
  "allen": 13617,
  "gust": 6399,
  "oth": 1240,
  "\u0120guard": 6973,
  "ohn": 1666,
  "peep": 8332,
  "party": 10646,
  "oint": 3972,
  "\u0120pillows": 9201,
  "\u0120napkin": 4890,
  "\u0120enemy": 15966,
  "\u0120popular": 7982,
  "\u0120gary": 7294,
  "\u0120educated": 14953,
  "\u0120painful": 13721,
  "whereabouts": 14355,
  "\u0120poop": 5489,
  "\u0120withdraw": 14504,
  "dum": 9301,
  "\u0120sugg": 2781,
  "sophi": 13117,
  "wheel": 8272,
  "aids": 15854,
  "\u0120cru": 6070,
  "minus": 13188,
  "\u0120ther": 14271,
  "\u0120throughout": 5344,
  "\u0120dro": 1204,
  "\u0120chosen": 10698,
  "loo": 3781,
  "jj": 6140,
  "ilocks": 10947,
  "gerator": 4408,
  "\u0120completely": 4417,
  "\u0120method": 8416,
  "\u0120march": 5005,
  "\u0120authorities": 5640,
  "bef": 3914,
  "\u0120kerry": 13304,
  "\u0120guinea": 9256,
  "\u0120quality": 4411,
  "\u0120didsbury": 9122,
  "\u0120box": 606,
  "ny": 621,
  "ble": 577,
  "ph": 1861,
  "ib": 1708,
  "\u0120enters": 5434,
  "\u0120downstairs": 2339,
  "ther": 1313,
  "\u0120lanes": 15934,
  "meg": 6312,
  "\u0120whispers": 5685,
  "\u0120paula": 10259,
  "\u0120fantastic": 7198,
  "\u0120crump": 15530,
  "\u0120tenth": 9883,
  "\u0120pud": 4429,
  "\u0120smooth": 7795,
  "achache": 11555,
  "\u0120daughter": 4372,
  "bye": 979,
  "pro": 2211,
  "\u0120model": 5115,
  "\u0120entered": 13246,
  "\u0120chemistry": 12884,
  "\u0120quieter": 15109,
  "hin": 1466,
  "\u0120directors": 11930,
  "\u0120this": 211,
  "rat": 3629,
  "\u0120fr": 359,
  "\u0120freedom": 11517,
  "\u0120economic": 6748,
  "\u0120vf": 11358,
  "\u0120hugging": 10219,
  "\u0120stab": 13618,
  "\u0120drawings": 10898,
  "\u0120wives": 15272,
  "hosp": 15123,
  "hiccups": 8918,
  "god": 4088,
  "\u0120melted": 12326,
  "ilities": 7235,
  "\u0120garage": 2915,
  "\u0120circular": 12968,
  "\u0120true": 2631,
  "\u0120complaint": 15664,
  "\u0120thirtieth": 14758,
  "carry": 9778,
  "ue": 563,
  "ying": 1763,
  "\u0120wider": 9737,
  "\u0120environment": 4254,
  "sixty": 7382,
  "discards": 5230,
  "\u0120washer": 5080,
  "\u0120shouting": 5358,
  "\u0120suspect": 8430,
  "\u0120bryony": 12942,
  "\u0120grandad": 3437,
  "ves": 566,
  "\u0120except": 3708,
  "\u0120serving": 10996,
  "blah": 14523,
  "\u0120tut": 7023,
  "\u0120parrot": 5045,
  "boat": 5703,
  "\u0120suffering": 11941,
  "playing": 2621,
  "\u0120majority": 6911,
  "\u0120indicated": 11412,
  "ines": 1846,
  "\u0120amazing": 6169,
  "\u0120botbot": 7333,
  "normally": 12379,
  "\u0120yu": 14746,
  "rush": 14116,
  "pie": 4207,
  "\u0120poster": 9987,
  "\u0120sandcastle": 14601,
  "\u0120particularly": 3619,
  "\u0120bowls": 7900,
  "\u0120associated": 9727,
  "\u0120plot": 11355,
  "\u0120sal": 1768,
  "\u0120cushions": 9634,
  "\u0120vi": 4719,
  "\u0120zip": 6281,
  "\u0120barrier": 11113,
  "adjust": 12484,
  "\u0120fades": 14969,
  "\u0120illustr": 13089,
  "\u0120article": 9591,
  "\u0120trans": 3759,
  "\u0120wait": 1059,
  "iser": 13867,
  "table": 3242,
  "bably": 1023,
  "\u0120household": 11579,
  "\u0120whoop": 10073,
  "\u0120tin": 2089,
  "\u0120versus": 15564,
  "why": 545,
  "\u0120alligator": 5251,
  "\u0120bau": 14886,
  "\u0120walking": 2008,
  "\u0120potatoes": 4052,
  "\u0120monster": 2350,
  "ges": 1587,
  "\u0120tube": 6729,
  "pple": 5757,
  "\u0120individuals": 8675,
  "fee": 13555,
  "\u0120fuss": 6771,
  "\u0120ideas": 5552,
  "\u0120price": 3702,
  "izing": 6291,
  "captain": 13658,
  "\u0120crayons": 2283,
  "its": 1289,
  "\u0120poll": 6506,
  "\u0120conclusion": 10574,
  "\u0120brakes": 10528,
  "ream": 903,
  "\u0120likely": 4786,
  "itch": 6018,
  "\u0120lighter": 10193,
  "\u0120clue": 7708,
  "\u0120cost": 2025,
  "\u0120immediate": 11743,
  "\u0120ret": 5119,
  "\u0120impression": 8865,
  "ill": 295,
  "\u0120hip": 11057,
  "\u0120lah": 10724,
  "\u0120squee": 3555,
  "nut": 4863,
  "babys": 12810,
  "\u0120hell": 6788,
  "reaches": 2843,
  "rannosaurus": 13725,
  "\u0120serve": 7123,
  "\u0120minut": 826,
  "choochoo": 12460,
  "\u0120notices": 9859,
  "nies": 4384,
  "\u0120cho": 1229,
  "short": 6639,
  "\u0120brings": 4338,
  "flo": 6700,
  "\u0120mom": 535,
  "positions": 14792,
  "ulk": 8945,
  "rs": 7188,
  "\u0120artist": 8933,
  "\u0120cros": 6210,
  "\u0120rangers": 11303,
  "\u0120shells": 9654,
  "del": 3584,
  "\u0120tow": 1048,
  "\u0120reg": 1679,
  "icle": 6155,
  "\u0120side": 983,
  "\u0120disapp": 4227,
  "tight": 13733,
  "remember": 2229,
  "les": 541,
  "sil": 1582,
  "\u0120caterpillar": 2906,
  "\u0120cannon": 13871,
  "\u0120\u00e2\u0128\u0134": 1521,
  "\u0120nightie": 15718,
  "wait": 1401,
  "\u0120equals": 7335,
  "\u0120jus": 5627,
  "igsaw": 2388,
  "\u0120scoo": 10653,
  "bled": 5139,
  "\u0120swish": 11921,
  "adult": 14190,
  "nic": 1895,
  "becca": 6750,
  "\u0120creep": 9614,
  "lower": 12531,
  "feeds": 11726,
  "\u0120flann": 14594,
  "\u0120silence": 1932,
  "\u0120clear": 1868,
  "telet": 13194,
  "\u0120florence": 12624,
  "grunt": 9023,
  "sno": 7421,
  "\u0120press": 2137,
  "visit": 15816,
  "\u0120wea": 6385,
  "\u0120lifts": 4988,
  "ce": 275,
  "\u0120agg": 7504,
  "\u0120tuh": 7617,
  "\u0120auto": 15163,
  "\u0120peasants": 8053,
  "ni": 2101,
  "!]": 10113,
  "\u0120locally": 11997,
  "\u0120females": 13171,
  "\u0120catherine": 6216,
  "three": 1437,
  "everybody": 3319,
  "\u0120scheme": 5545,
  "\u0120mon": 839,
  "\u0120beautiful": 2091,
  "\u0120cousin": 4820,
  "\u0120proposing": 12734,
  "\u0120understood": 8097,
  "\u0129": 95,
  "\u0120oxford": 5127,
  "\u0120brenda": 12585,
  "\u0120prefers": 13934,
  "\u0120ela": 10063,
  "\u0120milk": 1035,
  "\u0120posting": 11197,
  "\u0120log": 5312,
  "jessica": 12104,
  "udes": 11585,
  "\u0120secure": 10397,
  "\u0120van": 2694,
  "\u0120shat": 15861,
  "\u0120gala": 15359,
  "\u0120recycling": 10644,
  "\u0120shoots": 11362,
  "\u0120tum": 8105,
  "\u0120database": 12652,
  "oy": 3863,
  "draws": 4926,
  "ibility": 5412,
  "\u0120skip": 6233,
  "\u0120return": 4494,
  "\u0120ca": 1355,
  "prints": 10339,
  "piggy": 11824,
  "\u0120clau": 14361,
  "\u0120passenger": 11039,
  "\u0120cage": 4635,
  "\u0120regional": 7020,
  "\u0120empire": 15732,
  "hoh": 1304,
  "\u0120agre": 4830,
  "\u0120annoying": 6655,
  "pants": 7602,
  "keep": 2619,
  "\u0120fisher": 11510,
  "\u0120shoe": 1969,
  "\u0120scenario": 15027,
  "angles": 8241,
  "\u0120specially": 13499,
  "\u0120behaviour": 9812,
  "\u0120baking": 8132,
  "\u0120scruffy": 14379,
  "ishes": 3712,
  "\u0120somet": 469,
  "mod": 7458,
  "\u0120right": 351,
  "\u0120treating": 14084,
  "\u0120tablecloth": 13382,
  "\u0120passage": 12147,
  "ter": 301,
  "pens": 9051,
  "ical": 1701,
  "lic": 3457,
  "ish": 650,
  "\u0120singer": 11979,
  "\u0120oldest": 11536,
  "ption": 4224,
  "newmanratner": 4465,
  "\u0120chris": 3412,
  "\u0120naked": 12442,
  "tal": 2214,
  "\u0120impossible": 9015,
  "\u0120shield": 11584,
  "igail": 9234,
  "nipsnips": 13403,
  "bal": 6374,
  "uk": 2007,
  "\u0120es": 2552,
  "\u0120hin": 8492,
  "\u0120forever": 7073,
  "\u0120suffered": 13200,
  "\u0120each": 1442,
  "\u0120lighthouse": 13287,
  "hae": 12807,
  "\u0120bom": 5370,
  "<UNK>": 0,
  "\u0120lf": 12611,
  "\u0120time": 480,
  "exp": 372,
  "\u0120format": 11614,
  "kat": 1957,
  "mous": 5928,
  "\u0120pensions": 11378,
  "\u0120dennis": 11300,
  "\u0120pyjamas": 12938,
  "puts": 1642,
  "\u0120gown": 9857,
  "\u0120chains": 13014,
  "\u0120ellen": 10775,
  "\u0120squiggly": 12864,
  "proble": 15160,
  "ulum": 11915,
  "\u0120well": 466,
  "\u0120promotion": 13371,
  "\u0120share": 2918,
  "\u0120insect": 15761,
  "puppet": 7009,
  "\u0120flap": 8240,
  "\u0120destro": 11236,
  "\u0120resp": 1923,
  "\u0120patterns": 9268,
  "\u0120pour": 2356,
  "\u0120landscape": 13463,
  "\u0120wrink": 13231,
  "\u0120crossing": 8894,
  "\u0120chips": 3486,
  "\u0120battery": 5101,
  "non": 5706,
  "tip": 9189,
  "\u0120anni": 12308,
  "\u0120drivers": 8548,
  "telling": 10901,
  "\u0120breat": 4099,
  "chael": 12131,
  "bowwow": 13187,
  "bag": 5060,
  "\u0120drying": 10607,
  "\u0120pooh": 2721,
  "cs": 9901,
  "\u0120cycle": 10143,
  "\u0120wrench": 8736,
  "jack": 3527,
  "\u0120pray": 6724,
  "\u0120congrat": 14549,
  "alligator": 12486,
  "\u0120volunteers": 14795,
  "\u0120pep": 12387,
  "\u0120comb": 3959,
  "carrot": 8645,
  "until": 7593,
  "\u0120roots": 13425,
  "kipper": 12555,
  "\u0120baw": 12175,
  "\u0120floppy": 11701,
  "baaee": 15010,
  "\u0120teletubby": 11939,
  "nine": 3409,
  "\u0120statements": 11698,
  "\u0120vase": 9126,
  "bigger": 10101,
  "talkie": 10776,
  "pieces": 14160,
  "\u0120older": 3392,
  "hunhunh": 11419,
  "\u0120sco": 4717,
  "lew": 3521,
  "\u0120harness": 13339,
  "finish": 6152,
  "\u0120camp": 6255,
  "\u0120sofa": 3539,
  "\u0120pitts": 15438,
  "\u0120virgin": 11238,
  "\u0120imaginary": 11478,
  "\u0120workin": 10765,
  "mothy": 15596,
  "\u0120exercise": 5304,
  "rence": 8560,
  "interference": 15478,
  "\u0120remove": 6491,
  "\u0120babydoll": 10895,
  "repeatedly": 15425,
  "\u0120wick": 12519,
  "\u0120don": 230,
  "\u0120tracy": 7605,
  "icester": 7238,
  "also": 7363,
  "sol": 8260,
  "\u0120container": 3200,
  "mur": 10364,
  "\u0120eye": 2077,
  "\u0120flats": 6540,
  "\u0120poo": 2892,
  "\u0120\u00e2\u012e": 1293,
  "\u0120cave": 9472,
  "\u0120discussing": 9227,
  "\u0120chickens": 5405,
  "\u0120moment": 1966,
  "\u0120exerc": 4341,
  "\u0120ori": 4297,
  "\u0120trough": 11323,
  "\u0120joanne": 12086,
  "\u0120style": 7827,
  "\u0120types": 6432,
  "uding": 6185,
  "phew": 10082,
  "\u0120nomi": 6579,
  "\u0120reinde": 6720,
  "are": 362,
  "\u0120dest": 6546,
  "tryin": 15235,
  "che": 544,
  "\u0120accent": 8303,
  "lk": 4654,
  "\u0120total": 5174,
  "\u0120roland": 10826,
  "pete": 12586,
  "\u0120liquor": 14390,
  "trees": 10282,
  "\u0120approach": 6240,
  "esting": 2577,
  "\u0120mummys": 15620,
  "\u0120skating": 10132,
  "\u0120independent": 7229,
  "\u0120cupcakes": 8659,
  "acha": 9814,
  "\u0120secondly": 12407,
  "\u0120piper": 15847,
  "\u0120cinderella": 7355,
  "\u0120buyer": 15074,
  "77": 9035,
  "intro": 15057,
  "\u0120race": 3260,
  "oomoo": 12761,
  "\u0120carl": 2704,
  "\u0120farmyard": 15884,
  "sname": 3173,
  "\u0120mail": 2937,
  "straight": 7263,
  "|": 68,
  "ens": 1669,
  "\u0120exe": 6953,
  "vals": 13734,
  "leon": 14414,
  "52": 10915,
  "rophone": 1813,
  "urb": 13545,
  "\u0120pigeons": 12378,
  "pson": 13121,
  "\u0120jet": 9930,
  "\u0120lets": 4015,
  "\u0120per": 968,
  "\u0120fields": 7797,
  "pet": 2645,
  "\u0120leg": 2004,
  "\u0120fetch": 8831,
  "ticktock": 15084,
  "kevin": 13616,
  "\u0120pic": 652,
  "lynette": 13076,
  "correct": 6723,
  "\u0120introduce": 8693,
  "lfriend": 9492,
  "solutely": 2867,
  "ounced": 4656,
  "\u0120obviously": 2478,
  "thank": 727,
  "\u0120dunno": 2596,
  "money": 7063,
  "ply": 4526,
  "\u0120poisonous": 14714,
  "\u0120celebrate": 13203,
  "\u0120abbey": 11575,
  "etic": 15120,
  "\u0120advanta": 7152,
  "\u0120termin": 8951,
  "codiles": 9484,
  "\u0120loc": 5583,
  "\u0120flex": 10120,
  "\u0120goody": 12855,
  "\u0120tree": 1382,
  "pin": 4402,
  "\u0120squeeze": 5150,
  "ct": 290,
  "\u0120backwards": 3645,
  "\u0120dozen": 8198,
  "\u0120sn": 3010,
  "\u0120colours": 8414,
  "santa": 6847,
  "annie": 9674,
  "kah": 10787,
  "snor": 11278,
  "\u0120great": 1259,
  "\u0120routes": 11938,
  "\u0120colorful": 12270,
  "gaz": 3732,
  "x": 64,
  "\u0120discuss": 5375,
  "\u0120advantages": 14465,
  "showing": 8446,
  "\u0120doh": 6097,
  "fails": 15585,
  "bash": 13797,
  "\u0120photos": 9781,
  "\u0120jury": 15447,
  "\u0120milkman": 10660,
  "\u0120cj": 3311,
  "bbers": 13939,
  "lan": 7035,
  "\u0120throws": 2813,
  "ushed": 6401,
  "\u0120gerald": 14804,
  "\u0120slinky": 12680,
  "oted": 7658,
  "\u0120travelling": 10284,
  "\u0120tipping": 13012,
  "ingu": 8196,
  "\u00e2\u0122\u013f!": 5548,
  "\u0120innit": 3297,
  "\u0120continuously": 15486,
  "erves": 5913,
  "\u0120priorities": 14388,
  "\u0120dandelion": 15669,
  "ffles": 15378,
  "\u0120fishy": 11707,
  "\u0120lever": 13553,
  "\u0120nearby": 9609,
  "lfast": 10763,
  "\u0120lock": 4405,
  "\u0120pige": 8692,
  "alal": 9066,
  "ium": 4296,
  "\u0120agreements": 15320,
  "sen": 6606,
  "\u0120benefits": 6968,
  "brushes": 11459,
  "\u0120eater": 9936,
  "frank": 10068,
  "\u0120tractors": 11543,
  "sey": 4955,
  "\u0120uncomfortable": 12006,
  "\u0120made": 901,
  "vor": 7049,
  "ilt": 2625,
  "\u0120essex": 13831,
  "ples": 5929,
  "\u0120ledge": 11667,
  "\u0120rhinoceros": 15845,
  "clot": 9695,
  "\u0120chews": 13836,
  "\u0120gus": 11522,
  "\u0120michael": 2697,
  "\u0120ste": 1570,
  "\u0120investigator": 4582,
  "mo": 698,
  "iki": 15332,
  "\u0120classic": 14221,
  "\u0120group": 2246,
  "magic": 10503,
  "irs": 1078,
  "cherry": 10696,
  "\u0120bethany": 15297,
  "\u0120prob": 10959,
  "\u0120turned": 2197,
  "\u0120elephants": 4628,
  "\u0120petrol": 6550,
  "\u0120mitten": 7908,
  "\u0120contro": 9372,
  "\u0120\u00e2\u012e\u012a": 1786,
  "gobble": 13282,
  "noodles": 14713,
  "\u0120shoes": 1292,
  "\u00e2\u0122\u013f?": 5168,
  "grandpa": 10876,
  "opot": 7100,
  "\u0120anx": 8941,
  "still": 3079,
  "setto": 10997,
  "\u0120bur": 2567,
  "\u0120radiator": 8697,
  "\u0120manag": 4532,
  "z": 66,
  "uded": 12190,
  "\u0120tanks": 13455,
  "\u0120potentially": 14838,
  "\u0120asthm": 15421,
  "follow": 7824,
  "\u0120incred": 8600,
  "joy": 6166,
  "jumps": 10786,
  "zer": 4702,
  "go": 567,
  "\u0120constrained": 13523,
  "\u0120whiny": 14512,
  "\u0120fidgets": 9856,
  "\u0120overs": 10649,
  "\u0120warn": 13563,
  "\u0120cones": 8861,
  "\u0120destroyed": 13911,
  "\u0120ais": 10085,
  "\u0120thing": 417,
  "\u0120control": 3884,
  "pan": 5884,
  "\u0120gonna": 366,
  "\u0120allowed": 2891,
  "\u0120added": 8268,
  "\u0120package": 6357,
  "athan": 3758,
  "bing": 6822,
  "\u0120trades": 12101,
  "\u0120suitcases": 11146,
  "ibus": 15468,
  "\u0120ladd": 2809,
  "\u0120shots": 11400,
  "\u0120tee": 6570,
  "\u0120stuffing": 14437,
  "\u0120cubes": 11780,
  "\u0120county": 2623,
  "\u0120loan": 12618,
  "ket": 2048,
  "sometimes": 2929,
  "clo": 1358,
  "lips": 15965,
  "\u0120removes": 5223,
  "win": 4184,
  "ntuu": 9219,
  "\u0120prize": 7539,
  "\u0120conversation": 2086,
  "feed": 9515,
  "\u0120curtains": 5639,
  "sma": 8963,
  "bread": 4125,
  "hibit": 14964,
  "\u0120instru": 6104,
  "\u0120bounced": 14225,
  "\u0120inside": 1301,
  "cycle": 3990,
  "finding": 13574,
  "nd": 146,
  "\u0120carbon": 8237,
  "iny": 15597,
  "\u0120kit": 6465,
  "president": 10538,
  "\u0120xxx": 274,
  "\u0120summertime": 12923,
  "dist": 11519,
  "\u0120holl": 9935,
  "\u0120expected": 7007,
  "ury": 5238,
  "ly": 257,
  "\u0120difficulties": 9698,
  "\u0120carry": 2377,
  "\u0120frankenstein": 13722,
  "\u0120rushing": 9965,
  "\u0120glued": 13635,
  "\u0120comfort": 12569,
  "\u0120announce": 10046,
  "\u0120disadvanta": 15800,
  "0208": 12423,
  "naway": 15282,
  "\u0120propo": 3478,
  "arf": 13055,
  "\u0120wo": 2046,
  "\u0120arth": 7806,
  "\u0120african": 10511,
  "tage": 5880,
  "\u0120parall": 14211,
  "\u00c9": 84,
  "\u0120zzz": 7453,
  "\u0120spot": 2808,
  "maker": 13223,
  "ading": 10988,
  "tasty": 14827,
  "\u0120neut": 13160,
  "\u0120minor": 8062,
  ".\u00e2\u0122\u013b": 10205,
  "\u0120carpets": 15262,
  "\u0120rhino": 9393,
  "llip": 4485,
  "\u0120graph": 9133,
  "rebecca": 13267,
  "instead": 7264,
  "elephant": 4327,
  "slur": 8956,
  "\u0120nevertheless": 11166,
  "\u0120institut": 13181,
  "bank": 10749,
  "\u0120infant": 13097,
  "\u0120mornin": 10594,
  "\u0120weights": 12203,
  "zan": 13266,
  "\u0120moo": 3125,
  "\u0120hooray": 13321,
  "\u0120greek": 14798,
  "\u0120objective": 9198,
  "\u0120gif": 6571,
  "\u0120cheetah": 15528,
  "\u0120knife": 3316,
  "\u0120flood": 9626,
  "seen": 12481,
  "cri": 1822,
  "\u0120manor": 15705,
  "\u0120deals": 12900,
  "\u0120swit": 3317,
  "\u0120essential": 9831,
  "\u0120cities": 12302,
  "\u0120tells": 3908,
  "\u0120inspe": 7915,
  "guy": 8826,
  "ige": 15699,
  "flakes": 4646,
  "\u0120gum": 4108,
  "\u0120dais": 14008,
  "\u0120dict": 14492,
  "\u0120sing": 988,
  "\u0120evid": 4968,
  "grass": 10324,
  "away": 6948,
  "\u0120reduced": 9109,
  "posed": 7319,
  "\u0120yup": 10431,
  "pic": 3354,
  "\u0120discrimin": 9970,
  "plant": 13626,
  "missed": 11755,
  "\u0120blocks": 1734,
  "show": 1917,
  "\u0120posted": 14217,
  "unts": 3547,
  "\u0120urban": 9566,
  "\u0120hello": 2295,
  "\u0120repl": 9599,
  "balls": 7203,
  "\u0120shovel": 6784,
  "\u0120fierce": 14723,
  "\u0120see": 279,
  "\u0120motor": 2743,
  "\u0120purpose": 5555,
  "\u0120placing": 11439,
  "\u0120hydro": 12284,
  "\u0120trevor": 11225,
  "\u0120hopes": 13623,
  "rachel": 9624,
  "pting": 15769,
  "empha": 10766,
  "maisie": 7845,
  "\u0120whatever": 2011,
  "near": 4803,
  "\u0120constable": 15547,
  "wave": 11621,
  "\u0120crow": 5930,
  "\u0120aliens": 4043,
  "\u0120settled": 10507,
  "\u0120sparks": 15346,
  "\u0120tales": 13815,
  "\u0120delegates": 13148,
  "\u0120inten": 11282,
  "lookit": 12178,
  "\u0120funding": 7995,
  "\u0120comm": 1537,
  "\u0120lungs": 15670,
  "rist": 1063,
  "queen": 11491,
  "\u0120suspic": 13840,
  "\u0120mye": 11188,
  "\u0120wipe": 3728,
  "\u0120equivalent": 13135,
  "\u0120resc": 6447,
  "\u0120apple": 1726,
  "\u0120students": 6681,
  "eaking": 5726,
  "\u0120library": 4360,
  "\u0120alloc": 9964,
  "\u0120padd": 5693,
  "\u0120crisp": 7901,
  "ivers": 4491,
  "\u0120clunks": 10539,
  "ees": 8045,
  "raa": 12078,
  "\u0120beach": 3112,
  "ule": 9983,
  "\u0120pil": 4048,
  "whining": 4244,
  "\u0120grocer": 5450,
  "mee": 12668,
  "tongue": 15116,
  "\u0120plough": 15606,
  "\u0120mumbles": 6803,
  "\u0120midnight": 11735,
  "\u0120frightened": 5273,
  "adam": 4540,
  "\u0120interven": 14017,
  "\u0120coast": 8967,
  "\u0120yoghurt": 5827,
  "\u0120lucky": 3654,
  "\u0120wra": 3590,
  "\u0120ski": 5943,
  "\u0120parents": 3368,
  "ten": 1394,
  "\u0120title": 8519,
  "\u0120lunchbox": 12358,
  "\u0120reminds": 6322,
  "ently": 3697,
  "\u0120improvement": 11866,
  "\u0120skipping": 12646,
  "\u0120dese": 5673,
  "wor": 3289,
  "\u0120fant": 15277,
  "ified": 4737,
  "eals": 2527,
  "ley": 2772,
  "\u0120kindergarten": 9322,
  "\u0120behalf": 8219,
  "\u0120binder": 15689,
  "\u0120stepped": 8614,
  "\u0120cont": 1046,
  "\u0120son": 3219,
  "\u0120stool": 4682,
  "ences": 4808,
  "\u0120sie": 10819,
  "\u0120spice": 13059,
  "vo": 732,
  "isance": 12904,
  "ustrated": 7357,
  "ressed": 1893,
  "song": 5567,
  "\u0120ep": 7589,
  "\u0120things": 630,
  "\u0120site": 5087,
  "\u0120l": 145,
  "\u0120eighties": 14677,
  "teacher": 3090,
  "\u0120rewind": 13541,
  "fume": 14566,
  "eggs": 8029,
  "recorder": 3704,
  "\u0120meetings": 6478,
  "\u0120evalu": 15424,
  "\u0120bottles": 5069,
  "\u0120exciting": 4488,
  "bl": 1029,
  "runs": 6552,
  "\u0120shore": 11768,
  "\u0120phone": 1335,
  "\u0120argu": 8153,
  "family": 11414,
  "baby": 1368,
  "\u0120huge": 4563,
  "\u0120nvr": 14822,
  "dadda": 6961,
  "\u0120mouthful": 10700,
  "\u0120association": 7512,
  "\u0120delivered": 10197,
  "\u0120v": 475,
  "\u0120staff": 3851,
  "\u0120ringing": 5411,
  "\u0120revenue": 10319,
  "gin": 3371,
  "\u0120silk": 14995,
  "two": 917,
  "\u0120ped": 7267,
  "\u0120fence": 3140,
  "\u0120thirsty": 4210,
  "dered": 3693,
  "dile": 3172,
  "owl": 8382,
  "\u0120chess": 4066,
  "\u0120fold": 3906,
  "\u0120submission": 14769,
  "ippee": 12198,
  "eva": 3529,
  "\u0120floats": 15746,
  "\u0120rising": 2944,
  "\u0120ocean": 5845,
  "atives": 5645,
  "\u0120dash": 13154,
  "\u0120text": 8343,
  "hair": 6296,
  "\u0120buzzy": 11663,
  "\u0120ver": 4703,
  "pox": 14517,
  "\u0120bad": 1227,
  "\u0120dorothy": 12641,
  "pss": 14511,
  "\u0120texture": 11345,
  "burger": 6705,
  "\u0120swallow": 6918,
  "\u0120quoted": 14902,
  "\u0120rhyme": 6423,
  "liday": 2452,
  "\u0120twelfths": 10745,
  "\u0120fourteenth": 12715,
  "\u0120perri": 8121,
  "eyes": 6011,
  "richard": 8626,
  "\u0120lace": 10456,
  "\u0120shapes": 3340,
  "\u0120miserable": 13103,
  "\u0120daff": 9104,
  "\u0120len": 6577,
  "imto": 15293,
  "\u0120dark": 2338,
  "\u0120personality": 11232,
  "\u0120blossom": 14014,
  "spell": 13493,
  "\u0120drinks": 4262,
  "somebody": 3080,
  "\u0120calcium": 11260,
  "\u0120occur": 7128,
  "\u0120merry": 5376,
  "dere": 4603,
  "anny": 2757,
  "\u0120frying": 14123,
  "\u0120wednesday": 3312,
  "bark": 15639,
  "\u0120worker": 9670,
  "\u0120pears": 5186,
  "fraid": 3434,
  "doc": 14192,
  "\u0120edward": 8266,
  "\u0120salmon": 12036,
  "\u0120packet": 5311,
  "\u0120sib": 6755,
  "\u0120factories": 13662,
  "\u0120symptom": 14955,
  "atures": 6417,
  "we": 231,
  "\u0120forest": 4788,
  "walks": 5088,
  "\u0120missus": 3370,
  "\u0120scrape": 10478,
  "\u0120foo": 12439,
  "\u0120efficient": 10542,
  "chester": 3484,
  "spread": 15622,
  "\u0120mus": 1788,
  "...]": 15512,
  "\u0120corners": 12195,
  "\u0120congreg": 15837,
  "itals": 9305,
  "hero": 15202,
  "pective": 13290,
  "bee": 3632,
  "\u0120command": 10353,
  "\u0120fortune": 12206,
  "\u0120unconscious": 13174,
  "\u0120christine": 11293,
  "\u0120haven": 853,
  "\u0120dere": 2346,
  "lement": 7691,
  "started": 12824,
  "\u0120cmon": 11015,
  "cooking": 12047,
  "cindy": 8895,
  "\u0120rocket": 4364,
  "\u0120signs": 7674,
  "\u0120writing": 2469,
  "throw": 2297,
  "ttes": 9436,
  "\u0120seals": 12839,
  "jam": 2698,
  "\u0120concentr": 5796,
  "vin": 2785,
  "\u0120pity": 11489,
  "\u0120ricky": 13019,
  "\u0120blue": 937,
  "\u0120faced": 12183,
  "spray": 15142,
  "\u0120cries": 4413,
  "abled": 9841,
  "ddles": 10166,
  "\u0120out": 284,
  "\u0120mortgage": 8551,
  "\u0120pinocchio": 15900,
  "\u0120solution": 9860,
  "\u0120nic": 3461,
  "\u0120babbles": 12487,
  "\u0120nea": 5309,
  "school": 5819,
  "\u0120pickles": 7224,
  "ava": 6494,
  "\u0120hoops": 12173,
  "\u0120youth": 9427,
  "building": 8618,
  "\u0120wi": 6154,
  "\u0120diver": 14600,
  "\u0120ready": 1072,
  "istics": 9130,
  "\u0120bum": 6444,
  "\u0120pia": 12608,
  "\u0120resour": 5263,
  "\u0120landlord": 14870,
  "telephone": 7601,
  "\u0120simply": 4841,
  "\u0120typ": 14605,
  "\u0120lovely": 1455,
  "ndry": 6971,
  "tion": 6090,
  "\u0120allergic": 11828,
  "\u0120shade": 11685,
  "\u0120provision": 6893,
  "repe": 5105,
  "alright": 862,
  "position": 13099,
  "\u0120cold": 1420,
  "adays": 9773,
  "store": 14347,
  "\u0120joins": 8410,
  "\u0120sufficient": 9356,
  "\u0120particip": 9311,
  "\u0120educ": 3811,
  "\u0120carla": 13546,
  "birthday": 9504,
  "click": 6381,
  "\u0120shark": 5477,
  "\u0120gre": 647,
  "\u0120processes": 13960,
  "writ": 8127,
  "\u0120exper": 2795,
  "\u0120opinion": 7419,
  "\u0120pwww": 7587,
  "\u0120moving": 2332,
  "icking": 9715,
  "\u0120stor": 3247,
  "\u0120playhouse": 13875,
  "\u0120muscles": 7124,
  "\u0120wand": 2461,
  "\u0120vegetables": 5380,
  "oration": 15781,
  "\u0120pocketbook": 6442,
  "beep": 3469,
  "\u0120lotion": 11360,
  "vellous": 8847,
  "\u0120george": 4317,
  "dark": 8915,
  "big": 1615,
  "\u0139": 106,
  "\u0120roar": 6580,
  "mmer": 2832,
  "\u0120leads": 9495,
  "\u0120fal": 8000,
  "\u0120becky": 6263,
  "toise": 7789,
  "\u0120spin": 4278,
  "wonderful": 10202,
  "\u0120peacock": 14232,
  "\u0120spir": 5267,
  "looks": 1094,
  "\u0120crabs": 11472,
  "\u0120sully": 15521,
  "\u0120personally": 8351,
  "\u0120amused": 14006,
  "\u0120be": 204,
  "\u0120froggie": 9014,
  "utif": 1880,
  "\u0120crisis": 10874,
  "ode": 4623,
  "\u0120walks": 1985,
  "eves": 7266,
  "addle": 9466,
  "\u0120skiing": 12056,
  "billy": 11518,
  "\u0120clouds": 5414,
  "sels": 10726,
  "\u0120mother": 857,
  "\u0120whose": 4776,
  "\u0120zoom": 5483,
  "\u0120drum": 4432,
  "kie": 12802,
  "beat": 12711,
  "edinburgh": 7680,
  "ppy": 1844,
  "\u0120clients": 9127,
  "\u0120drive": 1897,
  "engine": 10562,
  "\u0120teams": 10014,
  "\u0120kneeling": 8243,
  "\u0120becca": 15365,
  "\u0120tw": 927,
  "\u0120fourteen": 3789,
  "'ve": 334,
  "blackcurrant": 15552,
  "\u0120certificate": 12211,
  "\u0120piglet": 7478,
  "\u0120led": 7088,
  "\u0120card": 1881,
  "\u0120describing": 13775,
  "structure": 14326,
  "\u0120snails": 11660,
  "\u0120ga": 1391,
  "mmed": 12267,
  "walking": 6300,
  "\u0120sixth": 6955,
  "\u0120raised": 7176,
  "pam": 12556,
  "fordshire": 7607,
  "ali": 10091,
  "ppin": 10462,
  "ere": 1635,
  "\u0120lat": 6386,
  "knock": 4935,
  "\u0120dust": 2834,
  "hold": 1273,
  "\u0120moon": 2170,
  "\u0120motions": 8775,
  "\u0120technic": 12975,
  "\u0120sunday": 2440,
  "\u0120idea": 1493,
  "lphin": 4991,
  "\u0120fel": 2626,
  "\u0120bunch": 4681,
  "\u0120holes": 3784,
  "\u0120communities": 13344,
  "\u0120grin": 12495,
  "\u0120policies": 6509,
  "pig": 8986,
  "grab": 12315,
  "inal": 13415,
  "\u0120washes": 11185,
  "\u0120billion": 13898,
  "\u0120whom": 8172,
  "\u0120machi": 2336,
  "jelly": 8434,
  "\u0120washcloth": 12143,
  "\u0120skelton": 13105,
  "\u0120next": 773,
  "thinking": 11142,
  "\u0120computers": 10740,
  "rustling": 10633,
  "\u0120continue": 4274,
  "vocaliz": 1037,
  "lld": 3808,
  "\u0120broch": 14676,
  "\u0120tyrannosaurus": 15637,
  "belie": 8754,
  "\u0120trampoline": 11825,
  "itarian": 15751,
  "\u0120ips": 12385,
  "\u0120tock": 10344,
  "\u0120maisy": 6099,
  "\u0120bring": 1118,
  "direct": 15414,
  "\u0120brit": 3170,
  "\u0120california": 9087,
  "\u0120exem": 15709,
  "ferent": 4831,
  "\u0120neighbourhood": 13522,
  "\u0120gotten": 6589,
  "\u0120walrus": 15716,
  "mad": 2792,
  "\u0120barber": 10099,
  "\u0120que": 9021,
  "\u0120freeze": 11738,
  "\u0120hadn": 3288,
  "\u0120mall": 8315,
  "salami": 13091,
  "\u0120killing": 12590,
  "\u0120hay": 4044,
  "\u0120assume": 7932,
  "\u0120capture": 11628,
  "zoe": 4560,
  "type": 14900,
  "\u0120zipper": 6282,
  "hamburger": 12470,
  "ax": 11210,
  "\u0120leo": 7709,
  "\u0120southern": 8566,
  "\u0120waiting": 2724,
  "\u0120rocking": 5691,
  "\u0120edinburgh": 10526,
  "\u0120suit": 3734,
  "now": 192,
  "\u0120jumps": 5049,
  "\u0120stew": 8244,
  "\u0120bunnies": 8371,
  "\u0120rely": 14279,
  "\u0120folder": 11069,
  "\u0120sk": 1269,
  "sixteen": 7851,
  "rap": 13006,
  "\u0120jumpin": 15631,
  "poor": 3464,
  "cromer": 11406,
  "check": 6865,
  "\u0120gets": 1235,
  "conti": 8369,
  "\u0120rand": 10519,
  "heehee": 9475,
  "\u0120marriage": 10801,
  "\u0120mah": 11914,
  "\u0120peeping": 14247,
  "\u0120watering": 7348,
  "\u0120expressed": 11695,
  "\u0120thump": 11396,
  "\u0120unemployment": 9524,
  "mn": 15036,
  "\u0120sigh": 6375,
  "\u0120upon": 4010,
  "corpor": 12271,
  "\u0120lump": 8297,
  "alrighty": 14751,
  "\u0120delivering": 10310,
  "\u0120dillon": 7559,
  "\u0120stim": 9307,
  "\u0120thirds": 13239,
  "\u0120archi": 9259,
  "filler": 1896,
  "\u0120medicine": 3903,
  "ddy": 5183,
  "\u0120delegate": 14636,
  "\u0120daffod": 9982,
  "\u0120doesn": 625,
  "booboo": 14449,
  "\u0120core": 11909,
  "caroni": 6930,
  "\u0120je": 1789,
  "lby": 8255,
  "bates": 13466,
  "imperative": 12956,
  "\u0120pace": 12179,
  "29": 6658,
  "\u0120vocal": 2520,
  "\u0120documents": 11206,
  "painting": 9381,
  "\u0120dy": 9619,
  "hies": 8625,
  "\u0120emplo": 3519,
  "\u0120swiss": 7694,
  "start": 2924,
  "\u0120begins": 2364,
  "\u0120advice": 6268,
  "goofy": 15922,
  "\u0120tests": 10972,
  "\u0120fascinating": 14873,
  "\u0120reci": 9082,
  "\u0120away": 651,
  "uring": 2018,
  "10": 7086,
  "mmmm": 13119,
  "\u0120purse": 3122,
  "ners": 4622,
  "\u0120soviet": 10321,
  "\u0120carri": 3701,
  "\u0120sour": 6324,
  "\u0120shawn": 15616,
  "?": 34,
  "fell": 7523,
  "whad": 13292,
  "\u0120pushing": 4055,
  "\u0120successful": 7163,
  "\u0120research": 5832,
  "pretends": 4090,
  "\u0120presentation": 8911,
  "\u0120burnt": 8171,
  "\u0120ignoring": 13199,
  "gfa": 8936,
  "\u0120coughs": 5756,
  "ought": 635,
  "unhunh": 8252,
  "bugs": 9028,
  "monkey": 5313,
  "moaning": 14674,
  "\u0120advantage": 8324,
  "\u0120wast": 9007,
  "\u0120post": 1569,
  "dump": 11052,
  "\u0120unintelligible": 9694,
  "ep": 384,
  "lessly": 14534,
  "ona": 11958,
  "\u0120branch": 6068,
  "pop": 3307,
  "imistic": 13812,
  "mouse": 7273,
  "\u0120chairman": 3500,
  "uster": 12670,
  "\u0120tramp": 12962,
  "hr": 11012,
  "\u0120illegal": 13913,
  "gregory": 13823,
  "\u0120uhuh": 8716,
  "\u0120lamb": 3628,
  "ob": 4466,
  "\u0120nesting": 3429,
  "\u0120trapped": 8286,
  "ived": 11912,
  "\u0120suffolk": 14244,
  "haven": 4663,
  "mets": 15038,
  "ana": 1772,
  "\u0120therefore": 3860,
  "angle": 3103,
  "\u0120fav": 1463,
  "\u0120containing": 14089,
  "\u0120chances": 10570,
  "dges": 9486,
  "something": 2727,
  "\u0120promised": 9703,
  "\u0120abc": 7627,
  "ro": 207,
  "\u0120third": 3067,
  "ladybird": 15253,
  "\u0120bond": 13677,
  "\u0120marg": 6370,
  "bababab": 15460,
  "secut": 12390,
  "\u0120hig": 3517,
  "\u0120surger": 9342,
  "\u0120words": 1773,
  "\u0120lorrys": 14538,
  "\u0120laugh": 2118,
  "\u0120swim": 3431,
  "\u0120correct": 3408,
  "turn": 1077,
  "thomas": 1711,
  "\u0120coat": 2375,
  "\u0120only": 723,
  "\u0120slid": 15465,
  "\u0120surprised": 4285,
  "woof": 3727,
  "\u0120closing": 5987,
  "\u0120pla": 4104,
  "\u013f": 111,
  "\u0120cucum": 8577,
  "\u0120lodge": 15376,
  "hank": 575,
  "[$": 2082,
  "\u0120diam": 5181,
  "claps": 5345,
  "\u0120sophisticated": 15352,
  "\u0120farming": 15987,
  "\u0120exha": 11062,
  "\u0120dial": 8459,
  "\u0120due": 4573,
  "able": 649,
  "\u0120action": 3969,
  "\u0120gesture": 9706,
  "kshire": 5282,
  "\u0120jess": 4094,
  "ants": 1633,
  "\u0120ways": 3960,
  "athon": 15304,
  "tomatoes": 12509,
  "orgeous": 4707,
  "hon": 6123,
  "\u0120panting": 13340,
  "\u0120intent": 13391,
  "am": 380,
  "conscious": 11512,
  "\u0120diagon": 10706,
  "\u0120necks": 15951,
  "\u0120blew": 6598,
  "\u0120airplane": 2532,
  "pardon": 1644,
  "33": 6902,
  "\u0120corpor": 10402,
  "\u0120both": 1324,
  "\u0120gar": 2085,
  "\u0120juggling": 15534,
  "aly": 4735,
  "\u0120chap": 4668,
  "lsea": 15309,
  "\u0120pressure": 5379,
  "\u0120remained": 15904,
  "ence": 796,
  "sette": 13643,
  "aron": 7274,
  "\u0120vegetarian": 15244,
  "line": 5193,
  "\u0120der": 3941,
  "ben": 3699,
  "tis": 11674,
  "\u0120choos": 5476,
  "\u0120causing": 9656,
  "\u0120nations": 12903,
  "\u0120porridge": 8076,
  "honestly": 11349,
  "\u0120hotdog": 11659,
  "\u0120operations": 12735,
  "bless": 6320,
  "debbie": 7013,
  "\u0120gap": 8151,
  "\u00e2\u0122\u013f.": 2209,
  "\u0120oop": 8854,
  "act": 1060,
  "\u0120pleasant": 9876,
  "\u0120effective": 8562,
  "tiger": 4442,
  "\u0120wears": 6725,
  "\u0120planted": 10412,
  "\u0120joshua": 11008,
  "rice": 8525,
  "\u0120sewing": 7379,
  "ipes": 10373,
  "\u0120sharp": 3934,
  "\u0120spi": 12857,
  "soft": 2897,
  "\u0120affairs": 14152,
  "arranges": 15406,
  "participant": 15661,
  "\u0120troops": 15220,
  "fran": 15389,
  "\u0120argument": 6122,
  "\u0120tink": 8633,
  "fect": 3466,
  "\u0120umbrella": 4199,
  "xy": 9425,
  "\u0120beard": 6931,
  "\u0120includes": 11208,
  "unk": 1065,
  "\u0120ribbon": 7799,
  "\u0120thi": 172,
  "\u0120albert": 11129,
  "\u0120models": 15099,
  "\u0120breathes": 14929,
  "imbs": 5340,
  "79": 12989,
  "\u0120deposit": 13045,
  "\u0120teapot": 5806,
  "baseball": 12797,
  "\u0120feet": 1386,
  "cal": 760,
  "about": 2371,
  "\u0120clea": 15522,
  "\u0120means": 1682,
  "\u0120diffic": 2235,
  "\u0120divers": 15539,
  "\u0120fees": 12493,
  "\u0120fab": 8591,
  "hhh": 4940,
  "des": 4522,
  "\u0120tesco": 7534,
  "\u0120rough": 4440,
  "\u0120remains": 9655,
  "\u0120initial": 10509,
  "irts": 15049,
  "achoo": 10500,
  "\u0120cell": 6677,
  "\u0120hungry": 1506,
  "\u0120lifting": 8709,
  "\u0120karen": 4480,
  "\u0120bubble": 4877,
  "\u0120crazy": 5809,
  "lloween": 4849,
  "\u0120sno": 3755,
  "\u0120release": 8246,
  "\u0120dominic": 6200,
  "looked": 13958,
  "wife": 13921,
  "adjusts": 14952,
  "mammy": 13810,
  "\u0120nomin": 12223,
  "\u0120sl": 1066,
  "ifier": 10822,
  "phy": 6363,
  "sing": 495,
  "\u0120ply": 14661,
  "\u0120shapesorter": 10774,
  "\u0120lena": 14324,
  "\u0120dollhouse": 4022,
  "\u0120taped": 9221,
  "buzz": 5401,
  "macwhinney": 9180,
  "hum": 2056,
  "\u0120molly": 5172,
  "\u0120lassie": 12708,
  "\u0120committees": 10256,
  "ank": 1168,
  "\u0120hardly": 5907,
  "\u0120soggy": 15608,
  "\u0120heavens": 12935,
  "\u0120musical": 7952,
  "jon": 9660,
  "ishm": 8095,
  ".]": 420,
  "\u0120sundays": 13767,
  "\u0120camping": 7576,
  "\u0120loads": 4206,
  "kl": 8254,
  "bad": 5537,
  "tures": 15527,
  "stay": 3753,
  "\u0120shy": 7282,
  "\u0120steep": 11330,
  "tickle": 5242,
  "cony": 15158,
  "\u0120answer": 2349,
  "\u0120att": 2556,
  "ser": 2166,
  "\u0120kitchen": 1469,
  "recor": 3110,
  "stics": 15443,
  "\u0120fingernail": 14719,
  "\u0120voices": 4771,
  "sticks": 8660,
  "omi": 10425,
  "\u0120cover": 1956,
  "\u0120frosty": 12455,
  "\u0120treatment": 8676,
  "sister": 4857,
  "joyce": 14551,
  "0303": 14539,
  "\u0120establish": 13454,
  "rubs": 11343,
  "\u0120playfully": 14743,
  "stir": 8921,
  "hooray": 6132,
  "\u0120painter": 13369,
  "pg": 14729,
  "\u0120courses": 8264,
  "\u0120degu": 14070,
  "bare": 14878,
  "bro": 546,
  "doll": 5114,
  "ldow": 9190,
  "\u0120john": 1960,
  "\u0120suitc": 4683,
  "\u0120weasel": 11054,
  "lect": 10791,
  "\u0120crit": 5919,
  "\u0120wha": 3223,
  "\u0120organised": 14774,
  "\u0120shot": 4378,
  "ousers": 3588,
  "\u0120guin": 8687,
  "pretending": 9076,
  "\u0120walkin": 11095,
  "calls": 7533,
  "must": 4629,
  "\u0120rig": 15621,
  "\u0120factory": 6250,
  "\u0120soaked": 15952,
  "\u0120gotta": 908,
  "ooaa": 14736,
  "illy": 1550,
  "\u0120lumps": 14275,
  "\u0120practicing": 15830,
  "\u0120nan": 3602,
  "\u0120ki": 5838,
  "holds": 2300,
  "pickyaup": 13069,
  "\u0120jab": 12394,
  "best": 11906,
  "\u0120ignored": 14165,
  "\u0120lellow": 12388,
  "\u0120performan": 7668,
  "oofy": 8063,
  "\u0120metro": 13951,
  "wh": 1536,
  "\u0120lookin": 4973,
  "\u0120blessing": 13585,
  "\u0120easier": 3497,
  "\u0120peculiar": 13280,
  "wells": 7883,
  "opotamus": 7514,
  "\u0120screws": 8580,
  "\u0120myster": 11020,
  "\u0120eleanor": 2760,
  "orge": 2717,
  "\u0120frogs": 4258,
  "\u0120aeroplane": 5039,
  "exits": 10797,
  "igning": 10370,
  "\u0120tro": 7082,
  "speechplay": 5143,
  "\u0120eileen": 11962,
  "\u0120unemplo": 7358,
  "buzzing": 14097,
  "\u0120marmalade": 9671,
  "\u0120lip": 5949,
  "\u0120agent": 11593,
  "gage": 5829,
  "\u0120combin": 8117,
  "\u0120k": 202,
  "\u0120heath": 12524,
  "\u0120house": 607,
  "\u0120dishwasher": 11044,
  "\u0120patients": 7575,
  "\u0120sheep": 2117,
  "form": 2163,
  "butter": 4865,
  "aughters": 12916,
  "\u0120repeating": 12281,
  "\u0120aircraft": 8864,
  "\u0120dora": 4593,
  "\u0120result": 5169,
  "cutting": 11067,
  "hears": 14269,
  "\u0120electrical": 11476,
  "aries": 6400,
  "ippo": 10531,
  "\u0120name": 816,
  "egg": 4694,
  "\u0120hurt": 1429,
  "\u0120bro": 864,
  "\u0120applies": 13429,
  "\u0120laying": 6421,
  "\u0120lastname": 5554,
  "\u0120mu": 634,
  "laura": 4294,
  "lle": 3905,
  "\u0120plenty": 4515,
  "<EN>": 5,
  "\u0120democrats": 15258,
  "\u0120teasing": 7653,
  "\u0120temporary": 11350,
  "\u0120glitter": 12721,
  "diary": 5012,
  "aste": 3381,
  "\u0120reck": 4239,
  "\u0120prom": 4026,
  "thunder": 14360,
  "\u0120batteries": 4911,
  "\u0120penalty": 13383,
  "\u0120horns": 8795,
  "\u0120slide": 2174,
  "\u0120pub": 7038,
  "\u0120eyebro": 9610,
  "65": 14403,
  "uri": 15929,
  "\u0120recommendations": 9875,
  "\u0120whip": 13550,
  "tain": 1087,
  "fortunately": 5835,
  "tou": 3334,
  "\u0120counter": 5008,
  "\u0120barrels": 7311,
  "\u0120industries": 13577,
  "\u0120sore": 4356,
  "\u0120presume": 12722,
  "\u0120rg": 15055,
  "\u0120putting": 1396,
  "\u0120approve": 15824,
  "\u0120lia": 12485,
  "\u0120daycare": 12401,
  "sorry": 1749,
  "\u0120tale": 12572,
  "\u0120resist": 10327,
  "\u0120confidence": 9343,
  "\u0120\"^": 11730,
  "\u0120geo": 8465,
  "\u0120plates": 3886,
  "\u0120pissed": 13610,
  "\u0120opportun": 4618,
  "\u0120babies": 2072,
  "xt": 771,
  "\u0120went": 639,
  "mas": 1371,
  "\u0120chasing": 6194,
  "\u0120fall": 890,
  "\u0120room": 786,
  "\u0120swimming": 2404,
  "\u0120cocoon": 5704,
  "\u0120dwell": 9687,
  "\u0120members": 2739,
  "\u0120simultaneously": 13149,
  "\u0120fortun": 10811,
  "\u0120gramm": 11502,
  "\u0120will": 509,
  "\u0120tyres": 14018,
  "\u0120beside": 4264,
  "urts": 13995,
  "\u0120live": 1680,
  "orry": 930,
  "\u0120congress": 7097,
  "\u0120accommodation": 10748,
  "ans": 881,
  "\u0120ille": 12898,
  "\u0120dinosaur": 1857,
  "anut": 2390,
  "\u0120domin": 9338,
  "\u0120mountains": 9832,
  "peg": 10491,
  "\u0120sickness": 14922,
  "\u0120bank": 3482,
  "west": 14054,
  "\u0120racket": 12574,
  "\u0120y": 418,
  "\u0120dem": 3493,
  "\u0120requ": 3430,
  "\u0120williams": 14322,
  "\u0120nights": 7366,
  "\u0120thief": 12441,
  "\u0120sweetheart": 3668,
  "dumps": 12554,
  "\u0120gradient": 15013,
  "\u0120soup": 3037,
  "ilar": 4182,
  "\u0120sleeve": 8466,
  "0106": 13079,
  "\u0120continent": 14528,
  "\u0120grav": 13498,
  "\u00ef": 88,
  "ci": 878,
  "\u0120newark": 15801,
  "\u0120boil": 10213,
  "isn": 1841,
  "kayode": 7869,
  "\u0120invited": 7809,
  "\u0120lies": 7181,
  "\u0120unlike": 10066,
  "\u0120cir": 1422,
  "\u0120sequ": 10272,
  "pillars": 10307,
  "\u0120the": 124,
  "steven": 2823,
  "drops": 5197,
  "ole": 8536,
  "\u0120oblig": 10881,
  "\u0120parlor": 15807,
  "\u0120fake": 9576,
  "\u0120ear": 946,
  "js": 14334,
  "ealed": 12389,
  "\u0120colt": 14533,
  "\u0120senior": 9757,
  "\u0120ignore": 9380,
  "\u0120rolly": 12139,
  "\u0120registration": 12538,
  "\u0120driver": 2563,
  "watermelon": 13253,
  "\u0120drinkin": 14141,
  "\u0120bil": 12946,
  "\u0120holding": 1780,
  "\u0120yogurt": 7762,
  "along": 10489,
  "\u0120bertie": 10742,
  "regarding": 14722,
  "\u0120charlotte": 5801,
  "smouth": 15238,
  "rus": 5430,
  "\u0120panic": 15236,
  "\u0120shelves": 10124,
  "\u0120fair": 1962,
  "\u0120back": 370,
  "\u0120charging": 14222,
  "\u0120plane": 3006,
  "\u0120remembered": 6341,
  "umption": 10591,
  "\u0120enthusiastic": 15181,
  "\u0120silverware": 15992,
  "\u0120drops": 2605,
  "\u0120besides": 7545,
  "\u0120suppo": 1548,
  "forty": 5717,
  "\u0120sittin": 7306,
  "\u0120fella": 10016,
  "\u0120lunch": 1562,
  "\u0120killed": 5976,
  "jour": 15587,
  "pa": 1671,
  "truly": 15470,
  "\u0120estate": 7826,
  "\".\"": 4521,
  "hamed": 15317,
  "\u0120expense": 13580,
  "\u0120..": 13414,
  "\u0120strength": 10024,
  "\u0120suc": 3641,
  "thi": 1601,
  "breath": 13707,
  "\u0120rinse": 8818,
  "amy": 8535,
  "\u0120snoopy": 8054,
  "vers": 1275,
  "\u0120cutter": 6672,
  "igel": 11124,
  "\u0120chucked": 14039,
  "purdie": 3687,
  "\u0120fin": 813,
  "door": 4631,
  "\u0120gill": 8635,
  "uly": 9596,
  "\u0120pronoun": 15488,
  "\u0120kneels": 8155,
  "\u0120miaow": 12738,
  "\u0120underground": 13329,
  "\u0120features": 10799,
  "\u0120les": 7588,
  "\u0120compensation": 12602,
  "stops": 9868,
  "tails": 14977,
  "\u0120looked": 1694,
  "\u0120stir": 4496,
  "mrx": 11257,
  "till": 10028,
  "narrative": 14880,
  "\u0120tonic": 15153,
  "\u0120compet": 4732,
  "hug": 7856,
  "\u0120woody": 9847,
  "\u0120ge": 2352,
  "fingers": 7061,
  "\u0120caravan": 9954,
  "\u0120achieved": 10204,
  "\u0120ideal": 9412,
  "\u0120pepper": 5122,
  "usion": 6714,
  "\u0120nowt": 14828,
  "\u0120provisions": 15523,
  "ume": 3230,
  "\u0120prep": 4456,
  "\u0120studies": 10052,
  "\u0120incl": 3574,
  "\u0120disposal": 15918,
  "\u0120egypt": 13726,
  "\u0120recommended": 12644,
  "\u0120hon": 2731,
  "outside": 5220,
  "\u0120inscription": 15937,
  "ling": 679,
  "\u0120pipes": 10006,
  "\u0120afri": 6115,
  "opy": 6537,
  "\u0120compete": 15903,
  "growl": 14548,
  "particularly": 15657,
  "\u0120swam": 11136,
  "\u0120cooks": 12030,
  "aha": 2981,
  "\u0120halves": 12525,
  "parentchild": 9328,
  "ustr": 5783,
  "\u0120conferences": 12490,
  "\u0120clar": 5657,
  "\u0120symptoms": 15919,
  "utifully": 13566,
  "tummy": 12218,
  "\u0120cement": 7314,
  "\u0120unhappy": 11063,
  "\u0120duh": 2168,
  "\u0120raspberries": 7384,
  "kitchen": 12216,
  "\u0120regre": 13219,
  "know": 2715,
  "\u0120critic": 8485,
  "\u0120pas": 4024,
  "\u0120bef": 6880,
  "\u0120eighth": 9719,
  "\u0120marvel": 14075,
  "\u0120berries": 10002,
  "\u0120nod": 8476,
  "dif": 5816,
  "\u0120token": 12014,
  "\u0120shutting": 13028,
  "\u0120ap": 12558,
  "\u0120pressed": 8812,
  "eak": 1459,
  "georgie": 14356,
  "\u0120confusion": 13955,
  "\u0120notion": 14066,
  "\u0120filter": 14540,
  "washer": 8084,
  "\u0120experiment": 7018,
  "\u0120breaked": 15819,
  "\u0120copy": 4410,
  "\u0120lamps": 12972,
  "\u0120chocolate": 1831,
  "\u0120investigate": 14942,
  "agh": 9274,
  "wid": 13472,
  "\u0120joined": 7502,
  "\u0120legislation": 8732,
  "\u0120forty": 1938,
  "\u0120flakes": 11820,
  "\u0120jewelry": 11746,
  "\u0120aft": 2477,
  "\u0120gym": 5826,
  "\u0120clare": 10862,
  "\u0120naughty": 2313,
  "rob": 5095,
  "\u0120ruth": 8167,
  "\u0120sub": 2264,
  "unny": 1431,
  "\u0120amazed": 11549,
  "wood": 3577,
  "\u0120wreck": 11944,
  "trouble": 8628,
  "sim": 4810,
  "\u0120nu": 6426,
  "\u0120crispy": 15755,
  "\u0120harvest": 12317,
  "ration": 4467,
  "\u0120static": 7954,
  "\u0120sar": 11873,
  "raises": 15053,
  "\u0120provided": 7417,
  "\u0120steer": 14086,
  "\u0120gerbil": 11147,
  "\u0120version": 8503,
  "\u0120postman": 3017,
  "\u0120providing": 7688,
  "\u0120cleaning": 4576,
  "parent": 4584,
  "splash": 7490,
  "\u0120concert": 9975,
  "\u0120simultaneous": 8724,
  "\u0120fringe": 15452,
  "squir": 11099,
  "cheers": 7346,
  "uation": 2907,
  "\u0120chinese": 7415,
  "\u0120mustn": 4627,
  "fortable": 4922,
  "bounces": 10231,
  "\u0120pouch": 10608,
  "\u0120dime": 8443,
  "\u0120gregory": 12352,
  "\u0120mmm": 13928,
  "\u0120committee": 3189,
  "\u0120retired": 9191,
  "dah": 5048,
  "\u0120violet": 10189,
  "\u0120lounge": 7933,
  "\u0120drawers": 8242,
  "\u0120sweater": 5588,
  "\u0120bandage": 9702,
  "sw": 3471,
  "\u0120pro": 524,
  "\u0120guarantee": 9210,
  "\u0120ida": 14372,
  "\u0120bearings": 13175,
  "ake": 293,
  "\u0120actual": 4293,
  "ged": 4132,
  "\u0120commitments": 13661,
  "ribbit": 7526,
  "\u0120sched": 9164,
  "\u0120hopped": 11425,
  "\u0120twenty": 1103,
  "saying": 9106,
  "wild": 15501,
  "\u0120guarante": 13848,
  "\u00e2\u012e\u012d...": 12917,
  "\u0120miriam": 12593,
  "\u0120person": 1400,
  "verse": 7043,
  "mar": 703,
  "\u0120fax": 12494,
  "\u0120liqu": 7343,
  "\u0120dirty": 2635,
  "\u0120own": 1230,
  "\u0120hook": 3763,
  "\u0120ross": 2560,
  "ald": 1847,
  "\u0120flag": 6671,
  "\u0120loaf": 10158,
  "\u0120jars": 15050,
  "\u0120carto": 5475,
  "\u0120virt": 8301,
  "\u0120street": 1972,
  "\u0120fer": 7307,
  "people": 3637,
  "cluck": 11462,
  "ril": 4404,
  "\u0120melanie": 15326,
  "\u0120air": 1283,
  "sall": 11560,
  "\u0120wincy": 15722,
  "\u0120furn": 4882,
  "\u0120bricks": 3683,
  "him": 5090,
  "woo": 3999,
  "ordan": 9803,
  "\u0120newspapers": 8518,
  "\u0120exhibition": 13375,
  "rather": 9276,
  "april": 5099,
  "candy": 8784,
  "ounces": 9264,
  "ield": 2459,
  "\u0120pick": 761,
  "whistles": 8960,
  "\u0120support": 2706,
  "\u0120jhnf": 15867,
  "\u0120elastic": 12024,
  "izabeth": 7846,
  "\u0120hopefully": 6440,
  "paul": 4924,
  "rick": 4493,
  "seven": 2971,
  "\u0120rita": 10396,
  "ye": 1165,
  "ngarees": 13464,
  "\u0120occ": 3085,
  "\u0120prog": 6539,
  "hol": 6521,
  "huh": 517,
  "\u0120saucer": 7056,
  "\u0120ladybird": 5188,
  "\u0120observer": 12370,
  "\u0120walked": 3472,
  "tle": 978,
  "dir": 10454,
  "\u0120purcha": 9642,
  "speak": 10468,
  "fold": 8602,
  "\u0120confirm": 9415,
  "tweet": 9116,
  "won": 3504,
  "\u0120hops": 8362,
  "bells": 14564,
  "\u0120dying": 9040,
  "\u0120bare": 9666,
  "folk": 14114,
  "\u0120dif": 788,
  "\u0120efforts": 12643,
  "sits": 5935,
  "\u0120mous": 9819,
  "\u0120doggies": 8064,
  "\u0120cokey": 15451,
  "\u0120dump": 3198,
  "nose": 5709,
  "\u0120details": 7030,
  "\u0120ware": 11389,
  "brent": 10224,
  "\u0120excitedly": 12098,
  "\u0120scarecrow": 9329,
  "wn": 285,
  "el": 422,
  "\u0120tax": 2962,
  "whispers": 2133,
  "ealing": 4718,
  "pc": 6922,
  "onna": 354,
  "\u0120glad": 3694,
  "\u0120mummies": 15978,
  "\u0120prices": 5995,
  "heads": 13824,
  "\u0120gobble": 8654,
  "\u0120courtney": 11633,
  "nuhhuh": 7906,
  "\u0120bla": 7663,
  "sevent": 8165,
  "\u0120says": 689,
  "opus": 4543,
  "\u0120tick": 1719,
  "\u0120stories": 4318,
  "\u0120dripped": 14009,
  "teenth": 6082,
  "yawning": 10904,
  "\u0120flags": 10448,
  "\u0120letters": 2131,
  "\u0120object": 1517,
  "vir": 2735,
  "watch": 1552,
  "\u0120spikes": 15703,
  "\u0120longest": 12233,
  "\u0120remember": 840,
  "\u0120lips": 5001,
  "\u0120lab": 2641,
  "ities": 2335,
  "mx": 10848,
  "holding": 3651,
  "\u0120nails": 5663,
  "\u0120garden": 1900,
  "beer": 14744,
  "makes": 932,
  "\u0120hiccups": 7893,
  "\u0120desert": 10134,
  "aah": 3378,
  "\u0120socket": 14508,
  "\u0120maureen": 15668,
  "cup": 3148,
  "\u0120playground": 6513,
  "\u0120se": 223,
  "\u0120constitution": 11740,
  "\u0120die": 5386,
  "drum": 12926,
  "\u0120married": 3901,
  "\u0120banging": 4232,
  "\u0120gosh": 4117,
  "\u0120johnson": 12777,
  "\u0120harvey": 12093,
  "wasn": 5614,
  "carol": 15533,
  "\u0120sledge": 14317,
  "\u0120labor": 14314,
  "\u0120ponytail": 12421,
  "\u0120inspect": 11814,
  "\u0120mir": 2661,
  "\u0120generous": 13766,
  "\u0120chases": 12127,
  "tape": 3399,
  "\u0120legal": 7834,
  "bite": 7338,
  "\u0120bombs": 15333,
  "hear": 5356,
  "\u0120statutory": 11557,
  "ominic": 4807,
  "trousers": 14443,
  "\u0120apologize": 14036,
  "\u0120coming": 889,
  "\u0120better": 841,
  "overla": 5887,
  "\u0120popped": 5246,
  "\u0120goofy": 9554,
  "\u0120ownership": 15913,
  "nik": 3129,
  "try": 2194,
  "\u0120everytime": 13627,
  "bzz": 14724,
  "dropped": 10602,
  "\u0120simon": 6854,
  "\u0120reasons": 4963,
  "\u0120tess": 14342,
  "\u0120singsong": 13505,
  "\u0120stress": 7172,
  "\u0120[?": 1821,
  "\u0120flips": 11006,
  "\u0120shaking": 6092,
  "\u0120ur": 3286,
  "\u0120listed": 14612,
  "mist": 15037,
  "\u0120feeding": 4967,
  "eaks": 4325,
  "\u0120copies": 9677,
  "\u0120nightma": 10593,
  "dexter": 14640,
  "vy": 4548,
  "\u0120pebbles": 11359,
  "\u0120involves": 14109,
  "jhnf": 13411,
  "\u0120evil": 10912,
  "vocalizations": 9865,
  "uit": 2441,
  "\u0120feedback": 11297,
  "gasps": 1260,
  "\u0120megan": 8638,
  "\u0120clattering": 15180,
  "leep": 798,
  "\u0120ab": 328,
  "woman": 14341,
  "\u0120savings": 9382,
  "\u0120drives": 6265,
  "\u0120hy": 4226,
  "\u0120defin": 2935,
  "\u0120approa": 10199,
  "\u0120cuddly": 11935,
  "super": 6065,
  "\u0120fathers": 13947,
  "\u0120considerable": 10048,
  "\u0120organize": 11776,
  "nuts": 11548,
  "zaj": 10632,
  "\u0120mug": 9864,
  "fight": 5206,
  "lev": 7171,
  "\u0120bumpy": 8976,
  "goin": 11534,
  "\u0120knots": 12982,
  "\u0120appoint": 5111,
  "invol": 2572,
  "\u0120jam": 3454,
  "brett": 10682,
  "\u0120showed": 4644,
  "kow": 11714,
  "\u0120shape": 1835,
  "cwww": 7465,
  "irk": 11353,
  "niffs": 4568,
  "\u0120spindle": 11116,
  "\u0120maxwell": 14618,
  "ja": 4492,
  "\u0120playdoh": 13161,
  "\u0120hospital": 2762,
  "\u0120care": 1086,
  "ch": 206,
  "\u0120twinkle": 7259,
  "til": 4308,
  "ggins": 13283,
  "wever": 4386,
  "fla": 4458,
  "\u0120princi": 5543,
  "\u0120alter": 8755,
  "\u0120overtime": 11397,
  "\u0120cob": 9556,
  "\u0120cleaners": 15307,
  "\u0120impressed": 9644,
  "\u0120tall": 2716,
  "<SEP>": 3,
  "kiss": 2868,
  "\u0120leafs": 14777,
  "\u0120chuck": 5925,
  "\u0120ladybug": 9562,
  "\u0120mimics": 15100,
  "vell": 5396,
  "\u0120publ": 2718,
  "\u0120succeed": 13900,
  "\u013b": 108,
  "zzle": 8907,
  "ai": 8504,
  "'s": 139,
  "aret": 5081,
  "\u0120lif": 6587,
  "\u0120learnt": 8321,
  "\u0120gin": 12663,
  "sweet": 4845,
  "201": 7001,
  "\u0120teletubbies": 5920,
  "\u0120scores": 15565,
  "\u0120okay": 598,
  "\u0120ballet": 5165,
  "\u0120charity": 10377,
  "\u0120splashing": 8533,
  "\u0120dare": 7648,
  "bil": 8325,
  "wards": 2212,
  "\u0120landlor": 9540,
  "\u0120minds": 10304,
  "\u0120tubes": 15484,
  "erson": 14196,
  "\u0120dish": 4300,
  "\u0120sooner": 11334,
  "\u0120cars": 1730,
  "\u0120analy": 7116,
  "\u0120eatin": 6214,
  "interesting": 11076,
  "\u0120jonathan": 6661,
  "mill": 6344,
  "\u0120keep": 921,
  "\u0120store": 2162,
  "\u0120playdough": 5886,
  "\u0120sneezed": 15408,
  "\u0120importance": 9647,
  "\u0120potty": 3740,
  "\u0120shortly": 10406,
  "\u0120embarr": 8043,
  "\u0120expectations": 13833,
  "\u0120pigg": 3137,
  "\u0120mouses": 14660,
  "\u0120trim": 14599,
  ",]": 4081,
  "\u0120expenses": 13902,
  "\u0120calls": 3850,
  "\u0120ferry": 13967,
  "for": 803,
  "\u0120atmosp": 11122,
  "\u0120explained": 8663,
  "\u0120lorry": 2629,
  ",...": 10979,
  "pumpkin": 9483,
  "\u0120according": 7957,
  "\u0120lick": 14064,
  "\u0120badges": 15627,
  "\u0120terminal": 14469,
  "\u0120nightmare": 11949,
  "\u0120shepherd": 14560,
  "\u0120lisa": 3483,
  "november": 14819,
  "\u0120fort": 5224,
  "\u0120twe": 6212,
  "psh": 12180,
  "\u0120cheers": 12717,
  "\u0120freddy": 14245,
  "fus": 6330,
  "jackie": 13839,
  "\u0120graphi": 14755,
  "\u00c7": 83,
  "ider": 1803,
  "\u0120kath": 7342,
  "\u0120tires": 9099,
  "\u0120forgot": 1916,
  "\u0120aeroplanes": 13843,
  "\u0120carrier": 9294,
  "\u0120starfish": 9026,
  "\u0120drinking": 3174,
  "\u0120pent": 15437,
  "more": 1104,
  "\u0120keys": 3139,
  "onge": 4358,
  "\u0120hamburger": 4900,
  "\u0120disk": 10522,
  "\u0120mis": 1543,
  "\u0120denise": 12637,
  "\u0120awright": 10249,
  "\u0120imagination": 12097,
  "\u0120comment": 4214,
  "\u0120squirrel": 5642,
  "\u0120tinker": 10261,
  "66": 7195,
  "\u0120supported": 10411,
  "son": 3583,
  "cles": 2970,
  "\u0120framework": 14937,
  "brief": 14405,
  "\u0120adrian": 14836,
  "\u0120impro": 4534,
  "\u0120paints": 8690,
  "\u0120physics": 13846,
  "roy": 6019,
  "seventeen": 8896,
  "\u0120dana": 15690,
  "\u0120allowances": 13829,
  "\u0120walsall": 12231,
  "shirt": 5201,
  "\u0120go": 197,
  "\u0120burn": 4122,
  "\u0120bam": 7960,
  "\u0120happ": 600,
  "\u0120claiming": 15652,
  "\u0120pavement": 10859,
  "\u0120towards": 1867,
  "\u0120ate": 1649,
  "\u0120bumblebee": 10108,
  "istration": 8384,
  "\u0120plank": 14665,
  "\u0120triceratops": 13384,
  "\u0120affect": 4828,
  "\u0120lion": 2097,
  "\u0125": 93,
  "\u0120puttin": 8670,
  "oughs": 2109,
  "\u0120surf": 13640,
  "\u0120integr": 8970,
  "\u0120whoo": 5609,
  "inton": 11219,
  "\u0120methods": 13145,
  "\u0120shall": 1418,
  "\u0120experimenter": 11640,
  "\u0120annual": 8516,
  "\u0120wipers": 15748,
  "see": 674,
  "\u0120rever": 10549,
  "ella": 3838,
  "\u0120fault": 5923,
  "whimpering": 14476,
  "cries": 1717,
  "\u0120cert": 9537,
  "\u0120boyfriend": 10399,
  "\u0120entit": 9517,
  "illas": 15368,
  "\u0120classroom": 7500,
  "tenham": 13433,
  "\u0120pinky": 14440,
  "\u0120variety": 9414,
  "\u0120mightn": 12532,
  "\u0120embarrassing": 13596,
  "\u0120anno": 4615,
  "action": 4571,
  "\u0120sleepy": 4223,
  "carl": 3580,
  "wrap": 13851,
  "\u0120rap": 6601,
  "\u0120fen": 14968,
  "\u0120skipped": 12371,
  "\u0120tendency": 15087,
  "abix": 10551,
  "\u0120excl": 8883,
  "\u0120continuing": 9632,
  "erella": 6371,
  "works": 6046,
  "\u0120faces": 4996,
  "gabby": 15833,
  "neighbor": 5698,
  "rwww": 12804,
  "extend": 10925,
  "oodle": 8700,
  "\u0120thin": 5632,
  "\u0120unpl": 13633,
  "codile": 3175,
  "\u0120magic": 3586,
  "\u0120funeral": 12963,
  "doggie": 5299,
  "doors": 13451,
  "\u0120erin": 6280,
  "\u0120stu": 3094,
  "{": 67,
  "\u0120scri": 5327,
  "\u0120spr": 6360,
  "year": 784,
  "\u0120harris": 13185,
  "nineteen": 7754,
  "hea": 13922,
  "ert": 2725,
  "\u0120breakfast": 1741,
  "\u0120shrew": 14423,
  "\u0120referring": 4504,
  "crisps": 13262,
  "\u0120rescue": 6582,
  "\u0120meantime": 15520,
  "lying": 8284,
  "anne": 5625,
  "\u0120adu": 15971,
  "\u0120whistles": 9002,
  "ulah": 10154,
  "\u0120spirit": 5952,
  "iled": 3774,
  "bul": 3473,
  "cy": 1274,
  "\u0120civ": 7036,
  "28": 5730,
  "\u0120spell": 2720,
  "\u0120language": 4354,
  "\u0120slept": 7008,
  "ars": 2438,
  "cut": 2639,
  "squ": 1866,
  "\u0120poured": 7208,
  "\u0120geomet": 15079,
  "aura": 8543,
  "\u0120bangs": 5738,
  "ares": 4259,
  "whenever": 12316,
  "christopher": 7393,
  "diffic": 12425,
  "september": 15441,
  "ado": 9217,
  "\u0120attending": 14550,
  "gram": 7951,
  "umbs": 6288,
  "\u0120rang": 5289,
  "\u0120yyy": 2485,
  "\u0120cutting": 3849,
  "\u0120sawing": 14678,
  "\u0120recommendation": 9784,
  "ratt": 12474,
  "mashed": 13386,
  "sh": 765,
  "\u0120meow": 4958,
  "sort": 5086,
  "\u0120leaflet": 11104,
  "\u0120littler": 15030,
  "\u0120coaches": 13118,
  "aunt": 3114,
  "\u0120jun": 6008,
  "\u0120bag": 1198,
  "\u0120answered": 9154,
  "\u0120orange": 1383,
  "\u0120long": 830,
  "\u0120thatcher": 10424,
  "rg": 14182,
  "64": 13855,
  "mow": 9526,
  "scri": 7929,
  "\u0120instrum": 7966,
  "\u0120fussy": 10200,
  "tub": 4233,
  "\u0120answers": 5226,
  "\u0120corn": 2366,
  "\u0120fir": 7483,
  "\u0120conflict": 10634,
  "ires": 10827,
  "\u0120tt": 9335,
  "snowman": 14785,
  "\u0120entrance": 11787,
  "\u0120sixpence": 14004,
  "\u0120checked": 6882,
  "\u0120process": 4198,
  "chop": 10666,
  "smacks": 14257,
  "\u0120pill": 3171,
  "\u0120cons": 1797,
  "\u0120works": 2434,
  "\u0120spooky": 14592,
  "holiday": 15784,
  "\u0120york": 3179,
  "\u0120client": 6237,
  "isure": 12562,
  "\u0120gramma": 10736,
  "wis": 8147,
  "tuna": 14853,
  "\u0120spitting": 12022,
  "\u0120offspring": 12227,
  "\u0120nor": 1529,
  "\u0120slugs": 11292,
  "\u0120equip": 4520,
  "bis": 8917,
  "\u0120needles": 13168,
  "\u0120kong": 11796,
  "\u0120granddad": 3352,
  "stairs": 1380,
  "knees": 14644,
  "\u0120struggles": 11865,
  "je": 3422,
  "\u0120runnin": 11252,
  "\u0120tracks": 6083,
  "took": 8295,
  "\u0120snore": 15745,
  "ase": 3444,
  "ahh": 14830,
  "abe": 5570,
  "\u0120pieces": 1567,
  "\u0120competition": 7489,
  "\u0120gera": 14733,
  "\u0120paintbrush": 15815,
  "\u0120refer": 4969,
  "\u0120spa": 13748,
  "eau": 15360,
  "babaa": 13172,
  "cam": 6903,
  "\u0120quote": 8183,
  "\u0120partnership": 11551,
  "\u0120again": 522,
  "\u0120arrows": 13586,
  "\u0120suppose": 2155,
  "\u0120doo": 2977,
  "\u0120whisk": 15823,
  "\u0120escal": 12922,
  "\u0120apri": 4531,
  "otape": 10314,
  "\u0120dah": 5456,
  "\u0120terribly": 8102,
  "\u0120removed": 9547,
  "\u0120achi": 5014,
  "wish": 9527,
  "\u0120cher": 4106,
  "\u0120perception": 15144,
  "\u0120!": 1990,
  "sniff": 10148,
  "\u0120catches": 5621,
  "\u0120fiver": 12999,
  "\u0120popsicle": 11230,
  "\u0120compost": 12568,
  "\u0120margie": 15461,
  "\u0120ned": 10585,
  "\u0120jim": 3445,
  "\u0120corporation": 15666,
  "\u0120liam": 14501,
  "\u0120background": 1855,
  "coffee": 6136,
  "\u0120windmill": 8499,
  "\u0120wooden": 4246,
  "\u0120crawls": 5359,
  "\u0120increasingly": 13784,
  "umn": 6828,
  "\u0120lef": 13937,
  "\u0120soldier": 11070,
  "\u0120bouncy": 7300,
  "\u0120basket": 2508,
  "\u0120muh": 14058,
  "race": 10011,
  "ur": 269,
  "swe": 8624,
  "\u0120dear": 997,
  "puppy": 7656,
  "\u0120damage": 7737,
  "many": 7829,
  "\u0120persons": 11689,
  "\u0120dairy": 12678,
  "bobo": 12758,
  "11": 2164,
  "potatoes": 12057,
  "igg": 1270,
  "58": 7779,
  "\u0120crane": 5906,
  "07": 5531,
  "\u0120froggy": 9607,
  "\u0120edge": 4211,
  "oops": 1097,
  "\u0120abroad": 11125,
  "\u0120puts": 1045,
  "\u0120hund": 1047,
  "drawn": 12375,
  "\u0120relig": 7109,
  "kri": 11521,
  "\u0120organisations": 12885,
  "aggerated": 10635,
  "\u0120tellin": 10761,
  "\u0120focused": 15301,
  "asses": 4620,
  "on": 127,
  "ew": 5040,
  "tall": 11716,
  "cels": 9193,
  "that": 237,
  "\u0120belong": 3192,
  "\u0120acorn": 14884,
  "\u0120kitties": 10943,
  "\u0120obtain": 12187,
  "\u0120flat": 3183,
  "\u0120che": 713,
  "ror": 2454,
  "nally": 9636,
  "\u0120tyre": 11736,
  "thirteen": 7784,
  "bottom": 13078,
  "\u0120fireman": 2983,
  "\u0120utterance": 3581,
  "whinging": 15763,
  "\u0120meg": 11490,
  "\u0120blowing": 4608,
  "\u0120pretended": 15890,
  "seat": 10952,
  "011": 9006,
  "\u0120frog": 1705,
  "est": 595,
  "aun": 2234,
  "\u0120weren": 1744,
  "\u0120pilchard": 6844,
  "\u0120darwin": 12964,
  "cin": 7112,
  "\u0120alligators": 13034,
  "\u0120scrub": 10566,
  "rock": 6388,
  "\u0120aller": 10490,
  "convers": 12039,
  "\u0120norman": 10903,
  "\u0120telephones": 11066,
  "cor": 894,
  "need": 4006,
  "\u0120cheque": 8455,
  "quit": 14584,
  "electric": 15577,
  "\u0120decision": 4764,
  "cray": 4146,
  "monday": 7864,
  "\u0120handing": 11160,
  "nas": 11672,
  "\u0120crash": 4304,
  "\u0120prison": 7821,
  "\u0120stuck": 1626,
  "whoosh": 7641,
  "\u0120crackle": 15549,
  "\u0120level": 3012,
  "\u0120backs": 9009,
  "\u0120barriers": 14717,
  "\u0120brew": 13535,
  "lil": 6701,
  "\u0120yourselves": 10369,
  "ulation": 5471,
  "rots": 3485,
  "\u0120collection": 8270,
  "\u0120envelo": 5074,
  "\u0120acceleration": 15494,
  "\u0120dates": 10208,
  "ah": 424,
  "linda": 8294,
  "\u00e2\u012e": 583,
  "august": 14893,
  "\u0120fireworks": 8494,
  "\u0120blind": 5805,
  "\u0120replies": 13666,
  "haw": 13676,
  "\u0120indicate": 9479,
  "cially": 3364,
  "\u0120vision": 13702,
  "hog": 6775,
  "\u0120noah": 8639,
  "fie": 10718,
  "cher": 1090,
  "\u0120turtle": 3410,
  "ir": 224,
  "\u0120seem": 2177,
  "wolf": 14130,
  "\u0120pours": 7425,
  "\u0120younger": 5493,
  "\u0120fences": 13478,
  "\u0120close": 1367,
  "clear": 4065,
  "\u0120ima": 8789,
  "arently": 4245,
  "?].": 15195,
  "\u0120kite": 5694,
  "\u0120nice": 605,
  "squeak": 7993,
  "\u0120tech": 4145,
  "air": 3896,
  "\u0120fooling": 14867,
  "brings": 7212,
  "wipe": 8462,
  "breat": 5247,
  "\u0120chu": 9669,
  "static": 10458,
  "\u0120margarine": 11656,
  "att": 1210,
  "\u0120shine": 10617,
  "\u0120litter": 13256,
  "\u0120gots": 9908,
  "\u0120industry": 5392,
  "\u0120mec": 7732,
  "]...": 3503,
  "\u0122": 91,
  "\u0120o": 151,
  "\u00e2\u0128\u0134": 4280,
  "\u0120tide": 13210,
  "dire": 6569,
  "nis": 5351,
  "boys": 5916,
  "lla": 2637,
  "\u0120shakespeare": 13841,
  "\u0120rope": 5083,
  "laughs": 452,
  "oordin": 10893,
  "tea": 485,
  "\u0120cheerleader": 11638,
  "\u0120acting": 8644,
  "\u0120function": 5855,
  "rj": 11213,
  "using": 6590,
  "\u0120suits": 11025,
  "\u0120susan": 8028,
  "\u0120ones": 1022,
  "onse": 3061,
  "ped": 3415,
  "\u0120rustle": 14693,
  "\u0120arrived": 6836,
  "\u0120dusting": 10504,
  "bby": 9184,
  "\u0120dustbin": 4068,
  "\u0120adopted": 12742,
  "[?": 9900,
  "ially": 4525,
  "\u0120tasted": 10872,
  "\u0120jumping": 3252,
  "68": 8699,
  "ba": 2132,
  "\u0120bri": 1254,
  "lo": 316,
  "peter": 1621,
  "\u0120daniel": 5882,
  "noisy": 11525,
  "\u0120bottom": 1808,
  "\u0120screams": 7554,
  "lynn": 10499,
  "\u0120rational": 15515,
  "grand": 2864,
  "sleeping": 8957,
  "\u0120incorrect": 15361,
  "andrew": 9389,
  "\u0120creepy": 15423,
  "\u0120cranberry": 14473,
  "icing": 5765,
  "\u0120selected": 13587,
  "umble": 3778,
  "laugh": 1336,
  "tied": 12682,
  "\u0120peanuts": 6728,
  "\u0120abigail": 11126,
  "\u0120tr": 610,
  "\u0120investig": 8354,
  "\u0120margaret": 7021,
  "llocks": 13285,
  "\u0120sixties": 13631,
  "\u0120handles": 12130,
  "slides": 14262,
  "adder": 11682,
  "\u0120popp": 13747,
  "sessed": 12189,
  "\u0120organization": 8187,
  "ify": 4937,
  "\u0120perfor": 7184,
  "\u0120posts": 13698,
  "\u0120cindy": 7971,
  "clunk": 14210,
  "\u0120latch": 15505,
  "\u0120million": 3397,
  "\u0120my": 306,
  "\u0120suggests": 10670,
  "\u0120bathing": 11810,
  "llo": 832,
  "\u0120straw": 1993,
  "ron": 1793,
  "\u0120elephant": 1637,
  "wo": 340,
  "artin": 4426,
  "\u0120offering": 10244,
  "xcuse": 10638,
  "\u0120europe": 3745,
  "antha": 4672,
  "\u0120vocalizes": 9330,
  "hib": 9351,
  "\u0120prayer": 12883,
  "\u0120stick": 975,
  "ae": 8587,
  "\u0120bride": 14681,
  "69": 14051,
  "\u0120taylor": 14263,
  "\u0120ryedale": 11788,
  "dish": 13360,
  "sher": 13732,
  "\u0120girls": 2228,
  "\u0120ninja": 13694,
  "\u0120arrange": 5681,
  "\u0120fear": 6970,
  "\u0120agents": 12457,
  "\u0120update": 14643,
  "ail": 1870,
  "\u0120babble": 8204,
  "\u0120girl": 663,
  "\u0120damag": 11496,
  "rya": 1716,
  "\u0120karate": 9159,
  "\u0120stands": 2822,
  "graphy": 10693,
  "\u0120cinema": 9738,
  "\u0120eey": 10345,
  "uffs": 14205,
  "perri": 9559,
  "\u0120film": 4331,
  "\u0120liquid": 9347,
  "\u0120oink": 4170,
  "ring": 1114,
  "99": 8211,
  "\u0120bone": 4511,
  "\u0120unemployed": 12252,
  "iolet": 8615,
  "\u0120colored": 5124,
  "\u0120prof": 3661,
  "\u0120fraser": 1364,
  "ist": 637,
  "\u0120stow": 15942,
  "bling": 2947,
  "\u0120neg": 6345,
  "utes": 14663,
  "\u0120alone": 2901,
  "\u0120quit": 11532,
  "\u0120condition": 8158,
  "clap": 5261,
  "\u0120clatters": 12958,
  "\u0120leeds": 9514,
  "\u0120lic": 6992,
  "\u0120estimated": 15260,
  "\u0120felix": 10045,
  "\u0120zebra": 3943,
  "\u0120danielle": 15157,
  "\u0120fundament": 11342,
  "hammers": 13735,
  "gestures": 12283,
  "over": 1829,
  "chet": 14748,
  "\u0120fro": 1312,
  "silver": 4114,
  "\u0120gordon": 6871,
  "\u0120five": 733,
  "\u0120empha": 7297,
  "\u0120baseball": 4824,
  "\u0120milton": 13940,
  "ive": 377,
  "nard": 9444,
  "\u0120full": 1703,
  "\u0120japan": 8924,
  "cum": 3357,
  "\u0120decorated": 14456,
  "quarter": 8529,
  "\u0120smurf": 14110,
  "\u0120entertain": 8373,
  "\u0120tent": 5283,
  "\u0120palace": 10230,
  "\u0120twice": 4282,
  "woh": 14118,
  "\u0120planes": 9848,
  "\u0120smile": 4388,
  "\u0120hangs": 9360,
  "surprised": 13668,
  "eral": 7051,
  "\u0120raggedy": 8929,
  "\u0120play": 376,
  "]]": 12514,
  "\u0120ea": 891,
  "\u0120spect": 13432,
  "tr": 2019,
  "aws": 5808,
  "\u0120gettin": 4690,
  "robert": 6952,
  "\u0120toilets": 14050,
  "\u0120tennis": 7630,
  "\u0120spray": 6014,
  "\u0120sayin": 7782,
  "easter": 12523,
  "\u0120reel": 14280,
  "\u0120fond": 14274,
  "\u0120brain": 7271,
  "\u0120subs": 8572,
  "iggling": 6804,
  "\u0120yard": 4960,
  "![": 7265,
  "\u0120eval": 10367,
  "\u0120export": 12728,
  "imetres": 11748,
  "\u0120char": 1948,
  "\u0120around": 740,
  "\u0120tigger": 15096,
  "\u0120mr": 1202,
  "gly": 9386,
  "lal": 12435,
  "orkshire": 5506,
  "\u0120sticking": 4616,
  "nell": 14336,
  "\u0120confirmation": 14259,
  "\u0120tat": 11957,
  "\u0120pattycake": 13401,
  "\u0120abs": 7505,
  "\u0120concentration": 11940,
  "\u0120baskets": 13261,
  "\u0120differences": 10434,
  "\u0120six": 797,
  "\u0120sat": 1596,
  "\u0120thee": 13475,
  "\u0120ale": 11081,
  "\u0120trust": 5278,
  "darling": 10938,
  "bour": 10981,
  "driver": 4555,
  "penny": 8643,
  "\u0120existence": 14163,
  "\u0120pah": 7828,
  "\u0120aband": 13998,
  "\u0120frozen": 8742,
  "\u0120echo": 8773,
  "ria": 13317,
  "\u0120double": 4046,
  "\u0120stickers": 4431,
  "crayons": 7519,
  "\u0120sirens": 15920,
  "cereal": 10152,
  "\u0120contrary": 14010,
  "\u0120kil": 12393,
  "\u0120cigarettes": 10203,
  "\u0120carried": 4995,
  "\u0120sna": 1294,
  "\u0120rid": 2946,
  "\u0120gopher": 15364,
  "\u0120lift": 2437,
  "ladder": 15923,
  "mkay": 6229,
  "\u0120regular": 4767,
  "cted": 3878,
  "\u0120mud": 3844,
  "grape": 12402,
  "\u0120twenties": 13354,
  "grf": 5648,
  "ists": 4037,
  "\u0120nail": 5612,
  "\u0120ze": 3426,
  "\u0120thirty": 1560,
  "indic": 9820,
  "\u0120handling": 13227,
  "interrupts": 9657,
  "\u0120unable": 11075,
  "nonspeech": 4779,
  "\u0120steve": 3795,
  "\u0120tremendous": 8309,
  "\u0120lack": 8571,
  "itan": 15119,
  "\u0120feeling": 3031,
  "\u0120bink": 15041,
  "\u0120father": 1799,
  "tainty": 13996,
  "ross": 1132,
  "unc": 5665,
  "\u0120films": 9806,
  "\u0120potatohead": 9722,
  "iate": 14809,
  "kne": 10847,
  "mie": 2243,
  "\u0120sailboat": 12592,
  "\u0120insure": 13741,
  "\u0120bah": 6279,
  "\u0120trip": 3834,
  "\u0120past": 1743,
  "\u0120impl": 7838,
  "\u0120bron": 10274,
  "\u0120aspirin": 15665,
  "\u0120gabr": 8012,
  "\u0120appeal": 9469,
  "\u0120audit": 11175,
  "better": 4570,
  "oliver": 13665,
  "\u0120rush": 6389,
  "\u0120slots": 14598,
  "\u0120host": 10155,
  "pp": 289,
  "\u0120mechanical": 14711,
  "\u0120grownup": 12150,
  "\u0120clin": 12620,
  "\u0120thomas": 886,
  "th": 449,
  "\u0120like": 252,
  "\u0120junior": 9441,
  "\u00e2\u012e\u012a": 2279,
  "\u0120bing": 13534,
  "\u0120nicely": 5026,
  "\u0120whit": 11060,
  "\u0120philosophy": 14045,
  "\u0120reass": 13806,
  "\u0120encouraged": 13198,
  "17": 5078,
  "\u0120lining": 14240,
  "ual": 1877,
  "\u0120conditions": 6497,
  "rienne": 13417,
  "\u0120och": 11794,
  "\u0120proper": 2190,
  "\u0120mercury": 12690,
  "\u0120strawberry": 3747,
  "peanut": 5788,
  "\u0120harrogate": 9175,
  "\u0120nasty": 5843,
  "\u0120sorting": 8400,
  "\u0120choochoo": 15541,
  "\u0120fridge": 4035,
  "\u0120vo": 994,
  "ress": 1080,
  "panda": 13108,
  "late": 14335,
  "itter": 8114,
  "\u0120oil": 5025,
  "\u0120grave": 12500,
  "\u0120pickle": 6292,
  "\u0120whing": 13859,
  "mond": 4984,
  "\u0120revolution": 8130,
  "\u0120less": 2286,
  "chew": 11916,
  "na": 234,
  "hippopotamus": 14472,
  "\u0120lying": 3488,
  "change": 5658,
  "\u0120pay": 1476,
  "\u0120shouldn": 2568,
  "\u0120bonk": 14243,
  "\u0120address": 4138,
  "r": 58,
  "\u0120ice": 1395,
  "\u0120sixteenth": 14433,
  "bernice": 9049,
  "\u0120costumes": 13642,
  "\u0120subject": 4288,
  "\u0120funny": 1056,
  "\u0120rul": 4673,
  "without": 8388,
  "\u0120kenny": 13719,
  "\u0120lawn": 6208,
  "\u0120baba": 6568,
  "\u0120musab": 11404,
  "\u0120dose": 6757,
  "harry": 11265,
  "\u0120factor": 7529,
  "\u0120parachute": 13332,
  "ven": 412,
  "\u0120takes": 1239,
  "\u0120rescued": 14044,
  "\u0120seventy": 2931,
  "rad": 6062,
  "0201": 14149,
  "\u0120cream": 1622,
  "\u0120fah": 15205,
  "\u0120attract": 12287,
  "hambur": 11119,
  "...\"": 5971,
  "\u0120unfortunate": 14139,
  "llor": 13477,
  "\u0120cleaner": 5957,
  "53": 8750,
  "\u0120calendar": 7729,
  "\u0120minimum": 9131,
  "avy": 2398,
  "arm": 4002,
  "\u0120stood": 5727,
  "\u0120explain": 3722,
  "\u0120julie": 6945,
  "\u0120detect": 8830,
  "mages": 12566,
  "ru": 2126,
  "con": 2021,
  "\u0120spoons": 4201,
  "hip": 2779,
  "\u0120calculator": 12596,
  "res": 1107,
  "\u0120im": 3870,
  "\u0120rome": 13420,
  "happy": 2796,
  "59": 6978,
  "onto": 13315,
  "inger": 3338,
  "\u0120tickled": 13072,
  "ssh": 6484,
  "yey": 11223,
  "\u0120landsc": 12583,
  "\u0120calend": 7353,
  "\u0120chickie": 14464,
  "\u0120teddies": 13785,
  "\u0120awfully": 8973,
  "\u0120cornflakes": 5368,
  "mommy": 942,
  "trans": 15734,
  "\u0120cl": 516,
  "\u0120est": 4734,
  "\u0120jumper": 5502,
  "fis": 13916,
  "\u0120grandparents": 14011,
  "\u0120pri": 1490,
  "\u0120annivers": 12380,
  "\u0120discussion": 5578,
  "sausages": 11177,
  "\u0120situations": 10604,
  "\u0120wake": 2854,
  "who": 534,
  "interrup": 7218,
  "peek": 5769,
  "rhinoceros": 15917,
  "\u0120replacement": 14866,
  "\u0120lonely": 9732,
  "mirror": 15347,
  "\u00e2\u012e\u012d.": 1774,
  "\u0120activ": 6492,
  "\u0120smart": 2564,
  "olen": 11469,
  "tt": 4188,
  "philip": 13575,
  "\u0120ironing": 5998,
  "\u0120also": 1360,
  "\u0120villages": 12320,
  "\u0120leicester": 8642,
  "\u0120develo": 2684,
  "\u0120harold": 10181,
  "\u0120nikki": 13723,
  "zoom": 8313,
  "\u0120la": 1903,
  "\u0120kip": 8438,
  "\u0120fifty": 1585,
  "too": 2736,
  "space": 10657,
  "\u0120drugs": 9072,
  "\u0120acid": 7555,
  "\u0120pizzas": 12835,
  "\u0120commons": 13241,
  "\u0120gul": 7378,
  "wa": 1106,
  "\u0120instrument": 11602,
  "\u0120strategic": 8207,
  "78": 7786,
  "\u0120children": 1315,
  "\u0120railroad": 12692,
  "baa": 4896,
  "\u0120today": 772,
  "mis": 11791,
  "hmm": 4855,
  "\u0120altered": 14358,
  "asps": 14891,
  "cups": 4993,
  "\u0120dug": 12559,
  "shows": 4193,
  "fic": 1936,
  "puff": 13209,
  "\u0120georgie": 12540,
  "cuum": 6045,
  "\u0120kuh": 13992,
  "arrative": 7557,
  "\u0120marked": 9822,
  "\u0120charming": 15733,
  "\u0120ballerina": 9776,
  "\u0120needle": 7721,
  "\u0120bat": 2035,
  "\u0120torch": 9783,
  "\u0120yuck": 8134,
  "\u0120curriculum": 13528,
  "\u0120jealous": 13744,
  "\u0120messing": 7741,
  "\u0120learned": 5982,
  "\u0120farther": 12498,
  "\u0120diego": 14024,
  "\u0120psy": 6483,
  "food": 5902,
  "fighter": 6616,
  "aeroplane": 15111,
  "case": 7160,
  "\u0120coleslaw": 12212,
  "hill": 10392,
  "\u0120hung": 7201,
  "\u0120demonstrate": 10055,
  "opher": 3640,
  ",": 17,
  "grrr": 13559,
  "\u0120bugs": 5300,
  "\u0120sailing": 9341,
  "john": 4001,
  "close": 3330,
  "ingdon": 14888,
  "\u0120everyone": 2953,
  "mer": 1302,
  "\u0120shining": 6476,
  "\u0120telescope": 10715,
  "\u0120complaints": 12332,
  "\u0120walkie": 8367,
  "\u0120developing": 9701,
  "icopter": 3614,
  "\u0120butterflies": 7609,
  "\u0120wipes": 7764,
  "\u0120tornado": 15023,
  "solut": 2406,
  "helen": 2673,
  "closed": 11623,
  "viously": 2189,
  "soon": 7485,
  "fy": 7154,
  "cinderella": 13518,
  "demonstrates": 5276,
  "bought": 13410,
  "ang": 792,
  "\u0120cut": 967,
  "inda": 3281,
  "\u0120mummie": 3608,
  "\u0120account": 4083,
  "\u0120bowling": 9155,
  "\u0120nah": 7108,
  "\u0120bungalow": 10343,
  "\u0120scissors": 4165,
  "ire": 673,
  "\u0120practice": 5126,
  "\u0120shuff": 12350,
  "bears": 13529,
  "\u0120excited": 3813,
  "bics": 10390,
  "\u0120lose": 3470,
  "hus": 8103,
  "\u0120mailbox": 6329,
  "\u0120cooper": 8157,
  "\u0120differently": 10964,
  "yum": 3056,
  "\u0120rad": 2554,
  "\u0120promot": 12399,
  "saa": 9649,
  "hive": 8192,
  "\u0120stuffed": 4505,
  "\u0120sequence": 12796,
  "'...": 3240,
  "ude": 4363,
  "oon": 15429,
  "however": 6964,
  "\u0120rus": 5397,
  "usions": 14742,
  "\u0120remaining": 12286,
  "ippin": 4751,
  "\u0120cool": 2301,
  "\u0120prescription": 13307,
  "\u0120proved": 13485,
  "bumble": 10883,
  "\u0120allen": 9370,
  "\u0120helicopter": 3942,
  "haps": 1674,
  "\u0120me": 226,
  "\u0120ooh": 3100,
  "\u0120lobsters": 13349,
  "\u0120honourable": 7984,
  "\u0120using": 2330,
  "udud": 13760,
  "\u0120handbag": 10062,
  "\u0120atl": 14897,
  "hibition": 11415,
  "cc": 2450,
  "\u0120clocks": 12812,
  "indian": 13547,
  "\u0120rotten": 10109,
  "contin": 2987,
  "\u0120remem": 6086,
  "\u0120rais": 5433,
  "heh": 6120,
  "\u0120war": 1460,
  "\u0120des": 1611,
  "\u0120seeking": 11571,
  "\u0120evening": 3824,
  "bowl": 10188,
  "}]": 8178,
  "\u0120jewel": 8320,
  "ada": 3768,
  "\u0120submitted": 15995,
  "\u0120velcro": 9925,
  "\u0120spit": 9282,
  "\u0120includ": 6855,
  "juice": 4178,
  "\u0120hums": 7029,
  "\u0120grandfather": 9223,
  "\u0120avenue": 9368,
  "ort": 507,
  "expla": 12672,
  "\u0120surprise": 4307,
  "lunch": 8678,
  "upside": 10004,
  "\u0120pockets": 7859,
  "untary": 2481,
  "wayne": 15791,
  "pour": 5944,
  "orta": 8875,
  "\u0120concerned": 3761,
  "\u0120pork": 8524,
  "\u0120bonfire": 12642,
  "\u0120seth": 7631,
  "uing": 9037,
  "\u0120gang": 10118,
  "\u0120boots": 2958,
  "\u0120partners": 7722,
  "\u0120stolen": 11650,
  "sandy": 13470,
  "tast": 10428,
  "\u0120salad": 3523,
  "\u0120peppers": 11654,
  "\u0120ital": 8298,
  "\u0120glo": 4141,
  "\u0120required": 7940,
  "ggling": 9085,
  "\u0120fare": 13739,
  "unky": 14299,
  "\u0120timing": 13688,
  "clothes": 10389,
  "\u0120goats": 9858,
  "\u0120along": 1713,
  "\u0120expertise": 14468,
  "\u0120philip": 8979,
  "\u0120addition": 9755,
  "\u0120shaker": 13062,
  "hap": 14120,
  "\u0120praise": 14384,
  "\u0120ku": 12443,
  "oop": 1540,
  "\u0120bd": 11757,
  "\u0120dumpty": 7463,
  "rust": 7718,
  "\u0120pram": 5834,
  "umber": 11722,
  "\u0120ro": 540,
  "\u0120ingredients": 13359,
  "\u0120stirring": 10782,
  "dan": 4161,
  "\u0120lived": 3966,
  "\u0120tommy": 8304,
  "\u0120icecream": 2840,
  "\u0120donald": 5879,
  "\u0120distracted": 13792,
  "entially": 6799,
  "\u0120staying": 4596,
  "\u0120equation": 12921,
  "mom": 730,
  "\u0120victim": 11639,
  "\u0120dollie": 10963,
  "\u0120ray": 4708,
  "\u0120vehicles": 9440,
  "\u0120bea": 1089,
  "ington": 8058,
  "nest": 14484,
  "reds": 7377,
  "hael": 2003,
  "\u0120remi": 7089,
  "\u0120huh": 863,
  "\u0120stal": 11156,
  "\u0120anten": 7285,
  "aid": 4780,
  "hv": 3791,
  "\u0120tack": 7527,
  "\u0120general": 3053,
  "take": 1483,
  "ielle": 13057,
  "stood": 7308,
  "\u0120monkey": 2053,
  "vf": 15594,
  "order": 14971,
  "\u0120daisy": 3888,
  "snap": 7185,
  "\u0120fits": 3797,
  "fam": 8819,
  "\u0120desire": 14307,
  "glasses": 8206,
  "\u0120road": 1478,
  "\u0120owl": 2851,
  "\u0120oven": 3215,
  "\u0120divided": 9033,
  "\u0120hitting": 6113,
  "\u0120familiar": 6258,
  "cle": 992,
  "\u0120golden": 8336,
  "town": 8544,
  "t": 60,
  "mell": 2128,
  "izza": 2036,
  "biscuit": 13793,
  "\u0120clam": 13933,
  "\u0120represents": 12215,
  "\u0120media": 9398,
  "\u0120opens": 2502,
  "\u0120doz": 13805,
  "gest": 4086,
  "mmes": 9532,
  "alow": 10241,
  "bae": 14606,
  "\u0120favor": 1619,
  "excited": 9834,
  "\u0120anything": 887,
  "\u0120route": 6887,
  "adv": 14499,
  "\u0120gail": 7312,
  "\u0120demand": 6202,
  "\u0120report": 2185,
  "\u0120slugsy": 15849,
  "\u0120darts": 15777,
  "\u0120sent": 2358,
  "\u0120wanda": 14537,
  "ito": 9769,
  "\u0120saying": 1030,
  "\u0120urs": 5202,
  "\u0120alfie": 14669,
  "\u0120forward": 2408,
  "!\"": 6719,
  "friday": 8460,
  "while": 3591,
  "\u0120official": 10335,
  "\u0120clicks": 7702,
  "\u0120embarrassed": 12060,
  "\u0120gloria": 10342,
  "\u0120buildings": 7740,
  "\u0120heels": 11567,
  "\u0120mosqu": 12269,
  "\u0120face": 1279,
  "\u0120ireland": 8769,
  "\u0120microwave": 7574,
  "grr": 13884,
  "\u0120chanel": 13015,
  "\u0120cwww": 3376,
  "\u0120haircut": 8348,
  "endo": 15479,
  "ular": 1520,
  "\u0120thousand": 1574,
  "page": 6510,
  "\u0120inton": 6022,
  "\u0120fried": 12092,
  "chy": 7180,
  "\u0120dangerous": 4220,
  "\u0120standard": 5856,
  "\u0120fifth": 6276,
  "diff": 7339,
  "messy": 13302,
  "rosie": 15210,
  "\u0120resource": 11174,
  "sal": 4324,
  "\u0120propell": 12330,
  "\u0120ease": 13799,
  "\u0120facing": 4752,
  "\u0120protection": 7213,
  "\u0120champ": 9491,
  "\u0120ink": 7947,
  "\u0120anyhow": 10094,
  "\u0120bet": 640,
  "\u0120climb": 2034,
  "\u0120rapidly": 8767,
  "\u0120awake": 5264,
  "\u0120retirement": 11239,
  "hors": 4944,
  "\u0120notts": 13115,
  "lu": 6605,
  "\u0120girlfriend": 9668,
  "\u0120kiss": 1720,
  "\u0120haha": 2747,
  "\u0120guidance": 9443,
  "\u0120micro": 7227,
  "\u0120ruby": 14841,
  "fact": 6260,
  "lif": 4322,
  "\u0120chem": 7014,
  "\u0120program": 4982,
  "fl": 2509,
  "being": 9218,
  "dun": 14267,
  "dad": 1199,
  "\u0120neighbor": 6730,
  "\u0120triangle": 4240,
  "ivered": 10032,
  "\u0120drip": 11620,
  "\u0120soda": 5646,
  "\u0120india": 11987,
  "eee": 7629,
  "\u0120doggie": 2557,
  "saus": 6754,
  "\u0120barks": 9132,
  "zed": 5912,
  "\u0120standing": 2154,
  "\u0120carle": 9934,
  "\u0120entry": 12146,
  "\u0120americ": 3533,
  "\u0120bites": 7442,
  "\u0120spaghetti": 3282,
  "\u0120omelette": 13796,
  "\u0120yo": 2640,
  "\u0120ya": 1144,
  "v": 62,
  "lois": 6649,
  "\u0120favour": 4866,
  "\u0120further": 3249,
  "uc": 2948,
  "\u0120e": 198,
  "ninet": 7269,
  "\u0120kid": 1297,
  "\u0120most": 1477,
  "\u0120polly": 8096,
  "\u0120games": 3030,
  "ka": 3762,
  "irst": 642,
  "sna": 3569,
  "\u0120enjoys": 15164,
  "\u0120squares": 6625,
  "\u0120device": 13196,
  "\u0120austral": 8190,
  "\u0120exten": 8793,
  "ame": 483,
  "\u0120recession": 10813,
  "drinks": 9567,
  "\u0120id": 1258,
  "\u0120ran": 2602,
  "\u0120councillor": 6424,
  "\u0120sick": 2590,
  "\u0120prea": 15613,
  "\u0120pointing": 3257,
  "hah": 1753,
  "shrie": 8493,
  "umpy": 5586,
  "\u0120pudding": 5775,
  "\u0120easy": 2490,
  "\u0120dream": 3944,
  "\u0120delicate": 14998,
  "hur": 3359,
  "\u0120knocks": 5373,
  "\u0120height": 9098,
  "\u0120talked": 4089,
  "\u0120batter": 3104,
  "switch": 13650,
  "iest": 5830,
  "\u0120arms": 2445,
  "posite": 13599,
  "\u0120confl": 9171,
  "\u0120lyn": 6699,
  "micals": 14087,
  "shed": 15217,
  "\u0120listens": 10497,
  "\u0120har": 2096,
  "felix": 14944,
  "\u0120hydrogen": 13579,
  "\u0120alice": 7053,
  "have": 848,
  "\u0120touching": 5215,
  "\u0120elections": 9088,
  "eighty": 10279,
  "spies": 6877,
  "\u0120governor": 12241,
  "\u0120rivers": 13328,
  "\u0120examine": 13763,
  "\u0120lid": 1738,
  "\u0120artific": 15169,
  "\u0120courts": 14754,
  "anya": 10965,
  "crying": 3083,
  "\u0120blan": 14983,
  "tin": 3021,
  "closing": 15813,
  "\u0120amount": 3365,
  "\u0120gaze": 8074,
  "\u0120sees": 3346,
  "ature": 4156,
  "\u0120saint": 11189,
  "\u0120guards": 15798,
  "\u0120village": 4763,
  "\u0120hanging": 4451,
  "\u0120babyschool": 12619,
  "\u0120cowboys": 11032,
  "\u0120\u0120\u0120": 4647,
  "\u0120centimetres": 14766,
  "\u0120armed": 13701,
  "ised": 3190,
  "st": 171,
  "\u0120plaster": 8526,
  "\u0120frighten": 12876,
  "\u0120wastebasket": 10675,
  "\u0120choose": 3553,
  "burys": 11542,
  "\u0120birdie": 5262,
  "mme": 2225,
  "honey": 5051,
  "\u0120chimney": 4834,
  "ms": 977,
  "daddy": 1088,
  "roar": 6031,
  "someone": 4279,
  "ccups": 5763,
  "\u0120peggy": 13690,
  "\u0120divid": 7699,
  "\u0120tear": 6029,
  "\u0120wig": 11646,
  "enough": 10641,
  "\u0120beauty": 7696,
  "14": 3669,
  "\u0120mc": 5742,
  "\u0120yesterday": 1625,
  "arter": 2749,
  "\u0120crying": 1819,
  "hole": 10060,
  "ological": 15430,
  "\u0120leaflets": 14452,
  "chantilly": 15331,
  "\u0120fry": 8771,
  "\u0120moaning": 13624,
  "\u0120rushed": 12368,
  "dolly": 7117,
  "\u0120bush": 4881,
  "\u0120produce": 5897,
  "mud": 13858,
  "soap": 9258,
  "\u0120indi": 2738,
  "\u0120bend": 5010,
  "sponge": 11843,
  "\u0120sea": 2616,
  "\u0120managing": 12463,
  "\u0120ours": 4562,
  "\u0120bump": 2660,
  "abel": 4414,
  "\u0120brighton": 15243,
  "\u0120mea": 10516,
  "\u0120got": 270,
  "\u0120lighting": 13942,
  "annoyed": 15192,
  "corder": 13883,
  "\u0120tablet": 11860,
  "believe": 14037,
  "\u0120rev": 7344,
  "\u0120irrit": 11666,
  "\u0120eng": 1365,
  "\u0120threatening": 15658,
  "\u0120shaving": 12714,
  "\u0120zebras": 11892,
  "\u0120quack": 2945,
  "aging": 13431,
  "\u0120desk": 3074,
  "belle": 15172,
  "ney": 2142,
  "\u0120caps": 13562,
  "inking": 2570,
  "\u0120octopus": 5190,
  "\u0120ken": 4589,
  "course": 5064,
  "\u0120circumst": 7078,
  "\u0120bargain": 12137,
  "\u0120contains": 14671,
  "\u0120coloring": 3501,
  "\u0120syrup": 10276,
  "\u0120www": 3764,
  "\u0120pract": 3360,
  "\u0120multiply": 13208,
  "right": 249,
  "yees": 11501,
  "\u0120seasons": 15560,
  "\u0120tem": 3749,
  "\u0120bye": 1606,
  "\u0120lessons": 6734,
  "\u0120open": 755,
  "\u0120primrose": 12034,
  "\u0120arrest": 8683,
  "\u0120army": 5794,
  "\u0120tricky": 6206,
  "\u0120cs": 13861,
  "\u0120broom": 5213,
  "\u0120decorating": 12152,
  "caterpillar": 9366,
  "\u0120drug": 9586,
  "\u0120needs": 1756,
  "\u0120guilty": 9454,
  "\u0120commercial": 6878,
  "yelling": 8874,
  "\u0120tuck": 9388,
  "\u0120rabbit": 1922,
  "\u0120shed": 5196,
  "\u0120ton": 1519,
  "\u0120ruined": 12318,
  "bangs": 9592,
  "\u0120turtles": 8427,
  "\u0120sunshine": 6431,
  "\u0120pci": 6814,
  "\u0120duty": 7975,
  "u": 61,
  "\u0120carol": 7682,
  "\u0120homes": 6243,
  "\u0120index": 9918,
  "\u0120mates": 14368,
  "\u0120non": 4858,
  "\u0120content": 9496,
  "stam": 15442,
  "oneys": 11724,
  "\u0120thorough": 11601,
  "finitely": 8041,
  "ge": 365,
  "\u0120universe": 15187,
  "\u00ba": 78,
  "\u0120saucepan": 15330,
  "astic": 2340,
  "mp": 806,
  "\u0120peeled": 15062,
  "backwards": 15080,
  "\u0120tickles": 7017,
  "\u0120divor": 11983,
  "\u0120glasgow": 10557,
  "ative": 1884,
  "\u0120fay": 11318,
  "awesome": 13430,
  "those": 1629,
  "\u0120they": 245,
  "\u0120agree": 2979,
  "\u0120dentist": 6161,
  "\u0120mps": 13156,
  "\u0120wobbly": 10253,
  "\u0120clock": 2240,
  "\u0120state": 2844,
  "warning": 12000,
  "\u0120wound": 9528,
  "\u0120buck": 2657,
  "\u0120related": 7270,
  "kn": 5424,
  "\u0120diamond": 5899,
  "\u0120committ": 2761,
  "\u0120definite": 11891,
  "\u0120landing": 8815,
  "\u0120affecting": 15485,
  "\u0120rust": 2734,
  "whats": 8181,
  "\u0120assemb": 9418,
  "iler": 4289,
  "\u0120sergeant": 13240,
  "luke": 14389,
  "\u0120baker": 7733,
  "\u0120sisters": 5651,
  "<MASK>": 4,
  "\u0120meet": 1836,
  "lucy": 12373,
  "mon": 1405,
  "\u0120r": 296,
  "\u0120wight": 15203,
  "\u0120bar": 1105,
  "\u0120influence": 10056,
  "\u0120hood": 5516,
  "\u0120others": 3033,
  "ursday": 3040,
  "\u0120weight": 4396,
  "\u0120quarry": 12062,
  "\u0120crumbs": 7486,
  "poop": 10391,
  "\u0120drill": 7350,
  "inty": 11492,
  "\u0120nottingham": 7075,
  "\u0120sche": 4484,
  "\u0120perfectly": 7186,
  "\u0120grandpa": 4361,
  "testing": 14572,
  "\u0120dwww": 5371,
  "cling": 7918,
  "gar": 1975,
  "hunm": 10636,
  "usive": 15285,
  "35": 10286,
  "\u0120consultants": 14624,
  "\u0120cast": 3233,
  "\u0120rainy": 13071,
  "octopus": 10679,
  "\u0120hits": 4943,
  "\u0120big": 454,
  "\u0120cancell": 14417,
  "y": 65,
  "hie": 7170,
  "\u0123": 92,
  "\u0120pretz": 5981,
  "\u0120dread": 10546,
  "],": 2903,
  "grunting": 13494,
  "gull": 10579,
  "\u0120navy": 11526,
  "\u0120yourself": 1664,
  "\u0120growling": 10252,
  "\u0120hist": 4602,
  "pla": 4679,
  "\u0120teaching": 5599,
  "ces": 684,
  "\u0120pin": 2607,
  "aughty": 2076,
  "iet": 1547,
  "\u0120splish": 13248,
  "mt": 6888,
  "\u0120attacked": 13506,
  "babbles": 1825,
  "\u0120hears": 8140,
  "\u0120crashing": 9071,
  "\u0120brackets": 10223,
  "\u0120voce": 15464,
  "\u0120pearl": 14704,
  "\u0120booklet": 13932,
  "\u0120became": 6317,
  "timmy": 15656,
  "\u0120views": 7939,
  "\u0120blown": 10165,
  "\u0120ling": 12480,
  "\u0120tast": 1894,
  "\u0120cheerio": 12424,
  "\u0120burns": 14617,
  "\u0120critical": 11207,
  "\u0120gro": 2591,
  "\u0120hound": 15946,
  "\u0120warning": 9074,
  "\u0120settee": 8123,
  "\u0120hambur": 4310,
  "\u0120stri": 2800,
  "\u0120boiler": 12020,
  "\u0120eaten": 3882,
  "tear": 13982,
  "\u0120american": 5443,
  "\u0120tus": 9882,
  "\u0120nathaniel": 5977,
  "\u0120inf": 7909,
  "\u0120ay": 7788,
  "\u0120swims": 12050,
  "issing": 3536,
  "bobby": 5047,
  "macaroni": 15954,
  "\u0120balance": 5236,
  "\u0120sire": 14965,
  "\u0120quant": 10034,
  "\u0120pa": 404,
  "wy": 9637,
  "\u0120lind": 14496,
  "\u0120england": 5556,
  "\u0120tol": 14345,
  "cheep": 13935,
  "\u0120break": 1061,
  "<PAD>": 1,
  "\u0120steam": 7041,
  "\u0120patient": 6974,
  "frog": 5623,
  "\u0120kind": 791,
  "whines": 3305,
  "\u0120nineties": 15980,
  "\u0120including": 6885,
  "\u0120island": 7178,
  "few": 15878,
  "cars": 6956,
  "yuck": 5461,
  "\u0120steps": 3236,
  "ader": 13003,
  "\u0120sodium": 15371,
  "\u0120nina": 2723,
  "spo": 3958,
  "\u0120shake": 2817,
  "\u0120bit": 547,
  "\u0120window": 1376,
  "ol": 1421,
  "whe": 4150,
  "cused": 8288,
  "\u0120improved": 10937,
  "ii": 11312,
  "\u0120chili": 12448,
  "pretend": 2273,
  "\u0120stingo": 11449,
  "\u0120sweet": 1473,
  "\u0120random": 12601,
  "\u0120ouch": 8091,
  "ators": 7700,
  "\u0120sacks": 15789,
  "beads": 7471,
  "\u0120happen": 711,
  "wise": 3065,
  "\u0120raccoon": 13310,
  "certain": 6785,
  "circle": 6913,
  "acity": 9851,
  "urity": 6588,
  "\u0120consum": 10833,
  "\u0120cre": 3157,
  "\u0120treas": 4554,
  "\u0120men": 1729,
  "\u0120buckle": 13291,
  "cano": 12228,
  "pt": 1075,
  "\u0120dumper": 9426,
  "\u0120trend": 14913,
  "gah": 9187,
  "\u0120wallpaper": 12238,
  "\u0120require": 5248,
  "\u0120disco": 5807,
  "quack": 4032,
  "\u0120bunny": 1915,
  "\u0120newsp": 4049,
  "\u0120polite": 11222,
  "\u0120machine": 2656,
  "\u0120zorg": 3662,
  "\u0120dressed": 2750,
  "nin": 1850,
  "ulations": 12080,
  "\u0120map": 6249,
  "j": 50,
  "fay": 8505,
  "glances": 11933,
  "breathes": 7778,
  "\u0120bridge": 2710,
  "\u0120setting": 6084,
  "\u0120have": 241,
  "\u0120david": 2203,
  "gently": 8277,
  "iggle": 5253,
  "\u0120gross": 6861,
  "\u0120thirties": 12356,
  "\u0120homemade": 15715,
  "\u0120boundaries": 11706,
  "\u0120flavor": 8274,
  "ump": 758,
  "\u0120allocation": 12745,
  "\u0120curly": 7125,
  "tree": 6993,
  "veget": 12482,
  "\u0120wiped": 9679,
  "freeplay": 13977,
  "\u0120peter": 1918,
  "\u0120ducks": 3620,
  "girl": 6422,
  "bm": 14650,
  "shire": 8170,
  "ches": 809,
  "\u0120cares": 15071,
  "\u0120clause": 11192,
  "gurt": 7231,
  "\u0120elbow": 7819,
  "lap": 3618,
  "har": 4819,
  "\u0120ring": 1236,
  "barbie": 15311,
  "\u0120influ": 7839,
  "\u0120wage": 9969,
  "\u0120sym": 7794,
  "\u0120enthusi": 9183,
  "ek": 1445,
  "\u0120claws": 7537,
  "monstrates": 4636,
  "giraffe": 7370,
  "\u0120igu": 15688,
  "iter": 3996,
  "rough": 770,
  "\u0120aware": 4909,
  "\u0120perm": 6694,
  "mustn": 15008,
  "\u0120tickling": 8267,
  "\u0120happened": 1032,
  "woah": 6143,
  "\u0120appreci": 6396,
  "\u0120teles": 10201,
  "\u0120yoyo": 11991,
  "\u0120developments": 14695,
  "rings": 5093,
  "\u0120block": 2123,
  "\u0120winding": 11809,
  "vroom": 5160,
  "ization": 4856,
  "\u0120spelling": 8144,
  "\u0120plums": 7182,
  "\u0120script": 13452,
  "\u0120plays": 2278,
  "fas": 11311,
  "\u0120ensure": 8262,
  "\u0120dizzy": 6914,
  "\u0120percentage": 10624,
  "\u0120ha": 167,
  "face": 6131,
  "\u0120dang": 10788,
  "\u0120pulling": 3531,
  "ularly": 14602,
  "\u0120occasions": 9830,
  "teaching": 12858,
  "word": 8873,
  "\u0120layers": 15315,
  "\u0120counts": 8098,
  "ethan": 13865,
  "ressive": 7320,
  "yy": 1509,
  "\u0120sunny": 5903,
  "\u0120winds": 8401,
  "\u0120employee": 13961,
  "\u0120reluct": 14688,
  "\u0120earn": 8949,
  "ylophone": 9788,
  "\u0120occupied": 14555,
  "\u0120alarm": 5753,
  "\u0120popeye": 12408,
  "rate": 15267,
  "\u0120gee": 8557,
  "\u0120ed": 1676,
  "\u0120flashlight": 10146,
  "ylo": 8679,
  "sy": 1404,
  "\u0120kick": 2797,
  "nde": 10457,
  "\u0120freya": 13569,
  "\u0120potter": 8387,
  "es": 141,
  "\u0120yelled": 9204,
  "eased": 4162,
  "\u0120toys": 865,
  "\u0120distribution": 12329,
  "find": 3660,
  "ications": 11056,
  "\u0120mispronounced": 7141,
  "\u0120curry": 14019,
  "fruit": 7446,
  "inson": 14989,
  "\u0120pebble": 15218,
  "\u0120lan": 8197,
  "feeding": 15525,
  "\u0120chose": 9097,
  "\u0120lot": 612,
  "\u0120mwww": 5218,
  "\u0120turkey": 4934,
  "\u0120neighborhood": 13146,
  "\u0120screamed": 12787,
  "\u0120qua": 10589,
  "climbing": 10743,
  "his": 391,
  "\u0120repe": 3854,
  "\u0120found": 1246,
  "\u0120boing": 8038,
  "\u0120recognize": 5216,
  "none": 6889,
  "\u0120worrying": 11024,
  "do": 291,
  "sure": 1810,
  "\u0120eggs": 2399,
  "ota": 7246,
  "\u0120accommod": 8209,
  "\u0120courage": 14750,
  "handle": 12462,
  "\u0120apo": 7677,
  "\u0120swimmin": 13443,
  "\u0120didn": 473,
  "\u0120compound": 12865,
  "michelle": 10703,
  "\u0120gathered": 13667,
  "\u0120wandering": 13249,
  "\u0120sleeves": 7825,
  "\u0120kitt": 9665,
  "childes": 1012,
  "\u0120marvellous": 9718,
  "\u0120shoel": 6468,
  "\u0120tighten": 15167,
  "\u0120directory": 13342,
  "\u0120apples": 3721,
  "\u0120sell": 2525,
  "\u0120whoa": 7707,
  "\u0120depot": 12786,
  "\u0120gard": 1858,
  "ki": 5934,
  "67": 9880,
  "\u0120crowded": 11600,
  "pir": 7919,
  "wash": 4621,
  "\u0120g": 137,
  "\u0120caca": 14527,
  "\u0120subway": 13894,
  "\u0120bike": 2285,
  "rage": 11801,
  "\u0120noddy": 7991,
  "\u0120den": 2877,
  "\u0120scraping": 10358,
  "\u0120kf": 7748,
  "\u0120italy": 9508,
  "\u0120sneezes": 7730,
  "\u0120barbie": 6430,
  "\u0120pens": 5499,
  "neth": 14337,
  "\u0120toes": 3077,
  "bang": 3650,
  "phones": 4895,
  "\u0120investigation": 15419,
  "\u0120chiming": 12808,
  "\u0120fa": 594,
  "\u0120stop": 1128,
  "\u0120believe": 2041,
  "\u0120coach": 7935,
  "dada": 3393,
  "\u0120mostly": 5772,
  "\u0120folds": 11598,
  "don": 500,
  "drink": 3921,
  "\u0120thought": 846,
  "\u0120bending": 13868,
  "\u0120button": 2145,
  "\u0120cash": 4542,
  "portion": 8617,
  "falsetto": 14108,
  "\u0120filled": 6034,
  "org": 2543,
  "\u0120kiwi": 9113,
  "\u0120grief": 13268,
  "ign": 1565,
  "\u0120applic": 5558,
  "\u0120department": 4721,
  "\u0120cow": 1316,
  "\u0120breathing": 5071,
  "vie": 10365,
  "\u0120division": 6853,
  "\u0120delight": 7761,
  "had": 4625,
  "\u0120fins": 15531,
  "\u0120disabled": 11195,
  "\u0120audi": 6731,
  "\u0120arising": 13924,
  "\u0120weed": 13866,
  "\u0120nineteen": 2108,
  "\u0120pension": 5107,
  "\u0120rejo": 13273,
  "\u0120amendments": 15562,
  "\u0120challenge": 9114,
  "\u0120bacon": 6547,
  "younge": 14817,
  "\u0120penguins": 7985,
  "plastic": 10691,
  "ime": 3954,
  "\u0120euro": 3458,
  "\u0120saved": 6741,
  "\u0120noticing": 14506,
  "\u0120rustles": 7776,
  "\u0120kent": 7989,
  "ss": 529,
  "\u0120cotton": 8372,
  "\u0120burned": 10141,
  "plan": 14672,
  "\u0120waved": 7886,
  "\u0120cloth": 4105,
  "liam": 15964,
  "\u0120sheet": 4812,
  "\u0120tots": 15432,
  "gg": 644,
  "\u0120smacking": 14462,
  "cker": 6965,
  "lob": 14419,
  "\u0120purple": 2257,
  "oe": 2932,
  "sa": 2385,
  "\u0120robot": 6783,
  "\u0120kaleidoscope": 15208,
  "\u0120season": 6323,
  "\u0120layer": 12541,
  "silence": 1927,
  "tick": 3310,
  "\u0120uncle": 3596,
  "25": 6203,
  "\u0120brooklyn": 9968,
  "\u0120ash": 7174,
  "\u0120mid": 1779,
  "num": 3267,
  "\u0120able": 1640,
  "though": 2878,
  "nives": 9892,
  "\u0120jeep": 5901,
  "\u0120vehi": 5525,
  "\u0120grammar": 13102,
  "wned": 8527,
  "\u0120wan": 242,
  "vention": 11420,
  "\u0120hundred": 1064,
  "\u0120exploring": 13445,
  "\u0120partly": 10494,
  "\u0120themselves": 3578,
  "effort": 11516,
  "\u0120sainsbury": 14642,
  "\u00e2\u012e\u012b...": 8444,
  "lest": 15963,
  "\u0120whir": 13813,
  "off": 2674,
  "sat": 6331,
  "\u0120agric": 6673,
  "pengu": 11919,
  "\u0120andy": 4202,
  "\u0120abo": 13322,
  "\u0120spring": 5427,
  "ike": 1411,
  "\u0120hidden": 8791,
  "\u0120smells": 5785,
  "\u0120connected": 10053,
  "ele": 1542,
  "kyle": 15082,
  "\u0120fam": 1689,
  "\u0120stops": 2969,
  "\u0120though": 1027,
  "\u0120darth": 14261,
  "\u0120adds": 11196,
  "\u0120redund": 9761,
  "\u0120acceptable": 9787,
  "an": 132,
  "\u0120mixture": 9378,
  "\u0120narrative": 8857,
  "\u0120adjusts": 14325,
  "\u0120solicitors": 15022,
  "\u0120surpri": 2608,
  "\u00e2\u012a\u013b": 9730,
  "\u0120miles": 4557,
  "osaur": 1696,
  "thirty": 4367,
  "ured": 7119,
  "swimming": 9316,
  "grown": 15477,
  "\u0120anim": 1034,
  "nonna": 14569,
  "day": 436,
  "grees": 7760,
  "woofwoof": 14319,
  "reg": 6979,
  "\u0120references": 15281,
  "\u0120washed": 4101,
  "\u0120swear": 8909,
  "\u0120hat": 959,
  "\u0120louder": 5464,
  "\u0120receipt": 12004,
  "\u0120ch": 691,
  "\u0120worthwhile": 14093,
  "\u0120criteria": 7972,
  "\u0120preced": 14424,
  "goodness": 6201,
  "observes": 8649,
  "\u0120tadpoles": 13601,
  "\u0120outer": 8927,
  "leg": 6608,
  "som": 14812,
  "alo": 4811,
  "\u0120accur": 10831,
  "flower": 5675,
  "\u0120attracted": 14934,
  "noo": 8017,
  "lvia": 8358,
  "opter": 3571,
  "\u0120concentrating": 10536,
  "\u0120existing": 7131,
  "eric": 2939,
  "\u0120rain": 1646,
  "\u0120everybody": 1718,
  "led": 2236,
  "\u0120prot": 3116,
  "last": 3324,
  "\u0120ketchup": 6709,
  "\u0120walls": 6908,
  "\u0120devil": 12154,
  "\u0120incent": 14820,
  "\u0120august": 6858,
  "\u0120experi": 8762,
  "\u0120sunda": 13424,
  "ngle": 5728,
  "\u0120assist": 7047,
  "\u0120stam": 3731,
  "phss": 14310,
  "wha": 2713,
  "posit": 8703,
  "\u0120often": 2810,
  "\u0120ob": 1068,
  "\u0120dabee": 15348,
  "\u0120desper": 8445,
  "\u0120hi": 258,
  "\u0120current": 4870,
  "scare": 15629,
  "lot": 3423,
  "\u0120planting": 12868,
  "\u0120advanced": 12784,
  "\u0120fruit": 2819,
  "\u0120sad": 2503,
  "\u0120gah": 14273,
  "icit": 13807,
  "imore": 14590,
  "\u0120bax": 14505,
  "\u0120cap": 2351,
  "nuuw": 12335,
  "lley": 12902,
  "\u0120recently": 5056,
  "\u0120crispies": 14771,
  "\u0120jessica": 8582,
  "ool": 569,
  "indicates": 14796,
  "\u0120blankets": 8227,
  "quiet": 5745,
  "\u0120longer": 3306,
  "pite": 10514,
  "\u0120safely": 12245,
  "\u0120sushi": 12199,
  "erh": 7570,
  "\u0120role": 5403,
  "it": 150,
  "eases": 8350,
  "asper": 12221,
  "trucks": 11545,
  "ulars": 9134,
  "christ": 4080,
  "melissa": 8867,
  "\u0120rocks": 4748,
  "\u0120sleeping": 2230,
  "\u0120mount": 11083,
  "\u0120ladys": 14760,
  "into": 4959,
  "ree": 437,
  "iting": 1736,
  "phant": 1458,
  "\u0120dee": 4181,
  "\u0120cupboard": 3440,
  "\u0120hundreds": 8141,
  "\u0120explan": 9699,
  "\u0120choosing": 12967,
  "\u0120items": 4523,
  "\u0120spain": 7211,
  "\u0120balls": 3475,
  "tosses": 14745,
  "tinky": 10174,
  "toothpaste": 12108,
  "buh": 7408,
  "itty": 1612,
  "\u0120skin": 3993,
  "ings": 1557,
  "\u0120trike": 13025,
  "\u0120caused": 8352,
  "agre": 9013,
  "cdonald": 2309,
  "\u0120hammer": 3264,
  "\u0120director": 7321,
  "zzie": 13882,
  "\u0120ces": 11488,
  "\u0120addressing": 14147,
  "\u0120puppets": 4878,
  "\u0120satisfaction": 15764,
  "\u0120depression": 15170,
  "\u0120coral": 14082,
  "\u0120companies": 5713,
  "\u0120measures": 11857,
  "played": 11926,
  "orence": 10957,
  "ilty": 8880,
  "\u0120wide": 4103,
  "thing": 636,
  "ma": 325,
  "ices": 1988,
  "\u0120chip": 4512,
  "\u0120circu": 15390,
  "\u0120bigbird": 12349,
  "75": 15676,
  "\u0120was": 236,
  "bbling": 5722,
  "\u0120active": 8842,
  "si": 955,
  "\u0120jer": 5469,
  "\u0120knees": 4177,
  "\u0120deta": 8500,
  "\u0120teatime": 12134,
  "\u0120occasionally": 8307,
  "\u0120fea": 14346,
  "\u0120passengers": 7775,
  "arah": 2028,
  "\u0120reco": 2887,
  "sun": 6905,
  "\u0120maggie": 5003,
  "\u0120pats": 8575,
  "\u0120served": 10248,
  "view": 3106,
  "\u0120hurting": 5404,
  "\u0120load": 2923,
  "\u0120fran": 6891,
  "banging": 8764,
  "\u0120chatter": 14242,
  "appropriate": 14107,
  "tell": 1290,
  "\u0120moose": 8999,
  "\u0120ministers": 11881,
  "\u0120knot": 6427,
  "\u0120natalie": 15739,
  "cot": 5953,
  "\u0120advert": 4659,
  "\u0120seriously": 7488,
  "tells": 12631,
  "\u0120presents": 3737,
  "\u0120sellotape": 12782,
  "\u0120grounds": 10439,
  "\u0120lead": 4351,
  "\u0120cleans": 13886,
  "\u0120good": 386,
  "\u0120relatives": 14530,
  "\u0120pump": 2838,
  "\u0120laundry": 7262,
  "tower": 12712,
  "lymp": 13367,
  "\u0120among": 5647,
  "melt": 15735,
  "inity": 13049,
  "ial": 2026,
  "\u0120laughs": 1222,
  "rey": 7920,
  "\u0120wellies": 11968,
  "gary": 9902,
  "ished": 1163,
  "\u0120sonia": 9760,
  "\u00ca": 85,
  "\u0120enquiries": 14790,
  "\u0120joanna": 11134,
  "\u0120py": 8093,
  "bound": 13311,
  "\u0120doubt": 4880,
  "\u0120powerful": 11477,
  "\u0120init": 5147,
  "wl": 1462,
  "umper": 3983,
  "\u0120candy": 3185,
  "\u0120splashed": 12920,
  "\u0120sack": 8379,
  "\u0120ses": 6923,
  "\u0120yall": 9775,
  "\u0120financial": 5604,
  "ttt": 12591,
  "boo": 2858,
  "\u0120singing": 2127,
  "\u0120rides": 6501,
  "\u0120grand": 1058,
  "\u0120whereas": 7638,
  "ites": 4157,
  "\u0120reserves": 13890,
  "want": 1412,
  "june": 3050,
  "zers": 15200,
  "pes": 1538,
  "\u0120worship": 13164,
  "\u0120swiper": 14296,
  "\u0120moms": 13326,
  "apart": 8521,
  "\u0120dub": 9447,
  "ff": 479,
  "verty": 14349,
  "rabbit": 5965,
  "fel": 9551,
  "@": 35,
  "crayon": 5277,
  "\u0120ribbit": 7498,
  "\u0120national": 3507,
  "\u0120reason": 2267,
  "squash": 13243,
  "ient": 2598,
  "suc": 10738,
  "asp": 3298,
  "ibilities": 12142,
  "\u0120beanstalk": 10535,
  "\u0120and": 164,
  "\u0120land": 1949,
  "shi": 2415,
  "\u0120operation": 6869,
  "\u0120proceed": 10372,
  "\u0120without": 2044,
  "\u0120amounts": 13447,
  "stress": 9404,
  "\u0120objectives": 9844,
  "ceeds": 9931,
  "\u0120bonus": 11231,
  "\u0120bou": 13926,
  "\u0120stacker": 5328,
  "\u0120discs": 15174,
  "elephants": 10838,
  "\u0120rip": 6557,
  "kg": 8665,
  "some": 1157,
  "\u0120upside": 3130,
  "gun": 11954,
  "\u0120realized": 5900,
  "drop": 7580,
  "\u0120pull": 1042,
  "\u0120voluntary": 11203,
  "shem": 7872,
  "\u0120rebecca": 8475,
  "\u0120reversing": 15106,
  "naughty": 6153,
  "think": 2075,
  "\u0120gasps": 10625,
  "gard": 13917,
  "\u0120remark": 11085,
  "houten": 13731,
  "eighteen": 7835,
  "hahaha": 12779,
  "at": 148,
  "\u0120settlement": 5446,
  "shouts": 2542,
  "ws": 5231,
  "jus": 9367,
  "\u0120pause": 1951,
  "\u0120mice": 5970,
  "\u0120boop": 12477,
  "shoe": 5661,
  "\u0120combined": 15909,
  "fresh": 15489,
  "hup": 14808,
  "chocolate": 4724,
  "\u0120pint": 12478,
  "mike": 6753,
  "\u0120odd": 4499,
  "\u0120clothing": 8689,
  "tuce": 4994,
  "\u0120charge": 4393,
  "\u0120ants": 10426,
  "boxes": 14143,
  "\u0120helen": 1522,
  "\u0120sheets": 7925,
  "hand": 4287,
  "\u0120qualified": 12785,
  "\u0120phon": 5084,
  "\u0120bel": 1342,
  "\u0120aaron": 8788,
  "ctures": 9392,
  "bern": 15058,
  "\u0120amp": 14343,
  "\u0120drawing": 2193,
  "\u0120area": 1931,
  "rowave": 7101,
  "\u0120bubbles": 3377,
  "bottle": 4490,
  "\u0120lemonade": 7130,
  "\u0120seventeenth": 14928,
  "\u0120bodies": 9355,
  "\u0120reading": 2135,
  "\u0120relationships": 15250,
  "nk": 247,
  "\u0120pants": 3059,
  "cycles": 14839,
  "\u0120information": 3142,
  "\u0120tiles": 11053,
  "\u0120vir": 8641,
  "yep": 1195,
  "\u0120hire": 11963,
  "\u0120mou": 9448,
  "ridge": 7329,
  "baba": 7685,
  "\u0120factors": 8478,
  "\u0120equal": 6178,
  "\u0120suite": 12182,
  "ind": 397,
  "\u0120peeking": 14321,
  "even": 3548,
  "needs": 14204,
  "\u0120positive": 6301,
  "nnn": 10877,
  "\u0120wrestling": 13970,
  "\u0120wid": 7315,
  "\u0120dances": 10723,
  "\u0120school": 717,
  "\u0120tickle": 3452,
  "fair": 7250,
  "\u0120explo": 7596,
  "\u0120weetabix": 11670,
  "\u0120bristol": 14645,
  "\u0120fast": 1668,
  "\u0120kleenex": 9354,
  "keeps": 11774,
  "\u0120hour": 1742,
  "\u0120faith": 7069,
  "regard": 12937,
  "ns": 4370,
  "\u0120junction": 11007,
  "ivity": 2546,
  "\u0120catch": 1856,
  "\u0120cyl": 13094,
  "\u0120kitty": 1919,
  "\u0120mouse": 1828,
  "\u0120desperate": 10713,
  "placed": 13192,
  "\u0120wanting": 5980,
  "\u0120named": 3992,
  "\u0120productivity": 14861,
  "\u0120dreaming": 12827,
  "\u0120graham": 7698,
  "ract": 1745,
  "\u0120reject": 9906,
  "\u0120finishes": 6328,
  "\u0120gorgeous": 5036,
  "\u0120nam": 3777,
  "\u0120gran": 6831,
  "\u0120appear": 6500,
  "\u0120statistics": 12364,
  "\u0120distingu": 10807,
  "mes": 1474,
  "\u0120softer": 14285,
  "icy": 2092,
  "\u0120playschool": 14148,
  "\u0120legos": 11204,
  "\u0120bas": 1545,
  "\u0120removing": 11798,
  "\u0120mel": 3585,
  "spoken": 8729,
  "talk": 4007,
  "byebye": 3161,
  "\u0120accused": 14297,
  "\u0120neigh": 3730,
  "\u0120circles": 5007,
  "\u0120self": 3064,
  "\u0120papers": 4437,
  "com": 1488,
  "\u0120sains": 10214,
  "\u0120helper": 9235,
  "green": 2320,
  "rael": 12306,
  "\u0120sorted": 6176,
  "bell": 4685,
  "neck": 11322,
  "\u0120wwww": 15773,
  "\u0120cheese": 1440,
  "\u0120photogra": 15481,
  "dl": 12604,
  "eter": 1051,
  "alice": 8993,
  "\u0120fellow": 6951,
  "\u0120owns": 13238,
  "\u0120footprints": 14680,
  "\u0120kettle": 6998,
  "\u0120treat": 4225,
  "edy": 7179,
  "\u0120cookies": 2491,
  "\u0120buying": 4569,
  "twos": 15804,
  "athers": 15145,
  "\u0120wasn": 976,
  "vious": 1724,
  "respond": 9980,
  "\u0120mash": 10150,
  "\u0120quest": 1424,
  "inary": 7107,
  "\u0120nuts": 6035,
  "\u0120cred": 6078,
  "\u0120doing": 505,
  "leaf": 13502,
  "times": 12805,
  "cracy": 9089,
  "uguh": 13336,
  "\u0120rick": 11026,
  "\u0120kill": 3880,
  "ittles": 14509,
  "\u0120lenita": 10172,
  "\u00e2\u0122\u013f,": 15814,
  "\u0120grumpy": 7091,
  "\u0120foundation": 14759,
  "\u0120labels": 10530,
  "\u0120rattling": 5768,
  "\u0120diagram": 10228,
  "\u0120connie": 15063,
  "\u0120fe": 565,
  "\u0120fairly": 4159,
  "par": 318,
  "\u0120free": 2373,
  "\u0120ceiling": 5889,
  "\u0120direction": 4275,
  "aw": 985,
  "\u0120wheels": 2453,
  "\u0120apparently": 5167,
  "\u0120rho": 14580,
  "speaks": 7389,
  "\u0120surfing": 15310,
  "icecream": 7286,
  "\u0120try": 669,
  "\u0120gently": 4750,
  "\u0120\u00e2\u012e\u012d": 14912,
  "\u0120reflect": 13904,
  "\u0120hair": 971,
  "\u0120abby": 12671,
  "\u0120ears": 2215,
  "\u0120dutch": 12331,
  "football": 7599,
  "bamb": 14653,
  "\u0120nearly": 2545,
  "\u0120prints": 15810,
  "30": 6172,
  "\u0120rag": 13492,
  "\u0120glory": 11641,
  "kath": 13979,
  "bba": 12813,
  "\u0120common": 4887,
  "\u0120kanga": 10989,
  "\u0120understanding": 7914,
  "rack": 15449,
  "itive": 9119,
  "ano": 13803,
  "\u0120horsebox": 13501,
  "enter": 12952,
  "\u0120instruction": 14684,
  "\u0120ripe": 12862,
  "c": 43,
  "\u0120completed": 9850,
  "tons": 2875,
  "\u0120highchair": 5473,
  "rely": 5803,
  "\u0120grab": 4507,
  "helle": 5488,
  "\u0120maker": 10613,
  "\u00bf": 80,
  "here": 250,
  "\u0120targets": 12881,
  "\u0120wrote": 4537,
  "jan": 5034,
  "\u0120become": 3994,
  "\u0120just": 330,
  "\u0120lately": 8269,
  "\u0120notting": 6248,
  "tri": 5611,
  "\u0120wonder": 1487,
  "\u0120their": 715,
  "\u0120oughta": 8145,
  "\u0120watchin": 12809,
  "ighed": 13222,
  "\u0120bumble": 5751,
  "ification": 6384,
  "nothing": 2216,
  "yle": 6096,
  "\u0120claims": 11002,
  "\u0120semi": 11875,
  "\u0120flick": 12623,
  "\u0120estimate": 11045,
  "\u0120thir": 1232,
  "toes": 8424,
  "conversation": 12653,
  "lly": 1480,
  "41": 10362,
  "\u0120marketing": 11201,
  "\u0120licken": 15366,
  "babble": 2905,
  "zanne": 15431,
  "\u0120passes": 8228,
  "\u0120dl": 11610,
  "tractor": 8289,
  "\u0120w": 123,
  "guides": 14690,
  "visions": 11296,
  "\u0120about": 360,
  "tot": 10422,
  "\u0120hipp": 4355,
  "\u0120wrist": 7890,
  "\u0120fever": 14514,
  "girls": 8664,
  "\u0120grover": 7126,
  "\u0120find": 752,
  "\u0120procedure": 7742,
  "basketball": 14631,
  "\u0120flu": 7664,
  "\u0120ari": 8179,
  "bounce": 9091,
  "\u0120parts": 4200,
  "\u0120mans": 10013,
  "\u0120spraying": 13589,
  "\u0120poles": 15960,
  "gree": 7042,
  "vator": 5346,
  "\u0120bracelets": 15252,
  "\u0120statut": 11107,
  "\u0120wise": 8735,
  "\u0120property": 7142,
  "lotte": 4891,
  "shot": 13428,
  "\u0120target": 6805,
  "jf": 12434,
  "\u0120rooms": 7202,
  "another": 1954,
  "\u0120wat": 526,
  "\u0120maria": 14137,
  "\u0120privile": 14383,
  "diam": 13822,
  "ard": 578,
  "\u0120uhoh": 6023,
  "\u0120spells": 10334,
  "glas": 10809,
  "stead": 15602,
  "\u0120sausage": 4131,
  "steve": 5015,
  "\u0120opposite": 4340,
  "anges": 4025,
  "mouth": 5152,
  "\u0120heal": 2683,
  "\u0120smily": 13632,
  "ins": 868,
  "\u0120en": 662,
  "sighs": 2719,
  "lift": 6857,
  "ain": 1824,
  "\u0120weird": 4747,
  "\u0120dor": 3540,
  "\u0120smiley": 12789,
  "ready": 1033,
  "\u0120ded": 9096,
  "cake": 2938,
  "amazing": 15345,
  "\u0120autumn": 9433,
  "opens": 4387,
  "\u0120hosp": 2594,
  "\u0120percy": 8688,
  "\u0120knowledge": 7959,
  "\u0120wouldn": 1217,
  "\u0120successfully": 13395,
  "\u0120honest": 4314,
  "\u0120opposition": 11508,
  "dab": 13531,
  "gabr": 6997,
  "\u0120theo": 11793,
  "\u0120knick": 10812,
  "rical": 8838,
  "isation": 12264,
  "bars": 15896,
  "\u0120throat": 3436,
  "\u0120hah": 6924,
  "hal": 10917,
  "\u0120happening": 2522,
  "\u0120knew": 2221,
  "\u0120violent": 14026,
  "\u0120ass": 2733,
  "\u0120bookshelf": 13167,
  "\u0120records": 6967,
  "\u0120psychology": 14168,
  "solute": 9675,
  "\u0120limited": 8748,
  "elmo": 15790,
  "\u0120chewing": 6005,
  "\u0120considered": 7818,
  "\u01205": 4449,
  "\u0120cate": 9318,
  "\u0120locked": 5366,
  "\u0120assets": 13999,
  "norm": 12095,
  "wi": 1623,
  "\u0120enjoying": 6551,
  "\u0120looks": 506,
  "\u0120plain": 6056,
  "tsk": 12815,
  "\u0120constant": 9894,
  "cupcakes": 15240,
  "\u0120compar": 8821,
  "places": 3277,
  "cheerio": 10942,
  "gonna": 2850,
  "gall": 14482,
  "\u0120tories": 12479,
  "should": 1733,
  "\u0120katherine": 14126,
  "\u0120net": 4588,
  "\u0120kangaroo": 4527,
  "\u0120ham": 3837,
  "block": 8055,
  "\u0120origin": 4818,
  "black": 3566,
  "\u0120mim": 8128,
  "\u0120tryin": 5633,
  "erk": 6213,
  "\u0120ei": 10820,
  "\u0120cooker": 7367,
  "\u0120amendment": 6959,
  "\u0120accept": 3967,
  "\u0120directive": 13504,
  "\u0120rolling": 4171,
  "\u0120phase": 12833,
  "\u0120pupp": 1224,
  "\u0120disney": 6866,
  "\u0120releases": 12275,
  "\u0120loop": 10042,
  "surprise": 13660,
  "atory": 6862,
  "\u0120dropping": 7850,
  "asing": 10923,
  "\u0120resear": 9645,
  "\u0120striped": 14848,
  "\u0120fri": 1794,
  "\u0120bobbles": 12565,
  "bla": 10246,
  "itt": 327,
  "\u0120fat": 2207,
  "[\"": 5301,
  "weet": 3498,
  "\u0120landed": 5628,
  "ioca": 11887,
  "intenance": 10552,
  "\u0120runny": 14295,
  "saurus": 8216,
  "\u0120milkshake": 7513,
  "\u0120peaches": 9873,
  "\u0120guides": 14136,
  "martin": 8191,
  "\u0120sun": 1759,
  "\u0120saddle": 14885,
  "\u0120pip": 6815,
  "\u0120contained": 15004,
  "\u0120thinks": 3451,
  "ts": 912,
  "bed": 2153,
  "mons": 12383,
  "\u0120buff": 9102,
  "ero": 3626,
  "str": 2883,
  "rrrr": 11596,
  "ham": 2558,
  "\u0120lords": 8869,
  "postman": 5544,
  "stom": 15864,
  "\u0120bleed": 15655,
  "dimitra": 7002,
  "\u0120trailer": 5134,
  "\u0120grocery": 7567,
  "\u0120screwdriver": 5102,
  "\u0120relevant": 8901,
  "ablo": 13010,
  "\u0120landlords": 12598,
  "\u0120grownups": 12933,
  "sit": 1192,
  "today": 3746,
  "\u0120sheeps": 14532,
  "\u0120knight": 8378,
  "\u0120suitcase": 5333,
  "apples": 8245,
  "thy": 5129,
  "usually": 7331,
  "\u0120roz": 4768,
  "\u0120lifted": 9200,
  "\u0120ends": 5006,
  "margie": 14003,
  "\u0120rises": 13629,
  "eka": 15467,
  "lll": 6712,
  "\u00c2\u00b0": 4669,
  "ust": 271,
  "\u0120winning": 8226,
  "\u0120muff": 4329,
  "\u0120surround": 10405,
  "ince": 1924,
  "aft": 2027,
  "arettes": 9600,
  "\u0120equally": 10875,
  "var": 14053,
  "\u0120tiger": 2368,
  "\u0120invol": 3062,
  "in": 118,
  "\u0120stre": 1586,
  "\u0120vary": 15704,
  "\u0120resolution": 8031,
  "\u0120radi": 6727,
  "\u0120amongst": 8375,
  "whinney": 8733,
  "\u0120uses": 4730,
  "\u0120bracelet": 6738,
  "\u0120frustrated": 9321,
  "\u0120cobra": 13620,
  "\u0120meas": 3611,
  "\u0120lights": 2827,
  "\u0120theat": 8421,
  "\u0120pile": 4301,
  "\u0120firetruck": 6851,
  "\u0120tre": 1464,
  "p": 56,
  "\u0120dino": 15146,
  "cken": 1322,
  "happ": 9336,
  "gown": 14426,
  "\u0120define": 12959,
  "03": 3295,
  "\u0120dock": 10211,
  "stru": 8180,
  "\u0120anti": 7067,
  "\u0120cocoa": 9295,
  "\u0120exp": 2670,
  "\u0120dungarees": 14701,
  "coughs": 2405,
  "riage": 9711,
  "\u0120limits": 13400,
  "rett": 10333,
  "tonight": 9373,
  "grunts": 4063,
  "\u0120robots": 15555,
  "\u0120powers": 9416,
  "g": 47,
  "\u0120weet": 11215,
  "\u0120somethin": 3231,
  "\u0120tc": 12011,
  "third": 11331,
  "\u0120rescu": 11369,
  "umbrella": 13366,
  "\u0120course": 1287,
  "gn": 1503,
  "nap": 8592,
  "vocalizes": 1556,
  "\u0120tutor": 11784,
  "\u0120connect": 11111,
  "\u0120ir": 6772,
  "\u0120affected": 10415,
  "ents": 1454,
  "\u0120safer": 15056,
  "\u0120decoration": 12737,
  "cold": 6215,
  "\u0120odds": 15110,
  "\u0120kwww": 6311,
  "\u0120bound": 5244,
  "\u0120covers": 5546,
  "\u0120crack": 3042,
  "ey": 2068,
  "\u0120carnival": 14585,
  "anced": 8377,
  "\u0120meadow": 12005,
  "ptember": 5205,
  "chanting": 14241,
  "\u0120bo": 322,
  "\u0120colin": 6665,
  "\u0120received": 7242,
  "ishing": 3167,
  "\u0120star": 1830,
  "jacent": 13776,
  "\u0120splo": 15216,
  "jams": 15998,
  "ubby": 6994,
  "\u0120tricycle": 8154,
  "bum": 10173,
  "\u0120dr": 824,
  "chur": 13004,
  "istry": 8184,
  "\u0120cat": 676,
  "ledge": 6572,
  "\u0120fills": 13769,
  "smiles": 5565,
  "yippee": 13607,
  "\u0120enterprise": 13193,
  "\u0120hotter": 14142,
  "\u0120wished": 11561,
  "\u0120pop": 1434,
  "iculous": 8018,
  "\u0120crocodiles": 10255,
  "\u0120excused": 14002,
  "\u0120hot": 1245,
  "\u0120ja": 6566,
  "plo": 14730,
  "\u0120indian": 4957,
  "going": 2244,
  "\u0120por": 4649,
  "pigg": 8311,
  "gotta": 4134,
  "growling": 12694,
  "guh": 7880,
  "\u0120trunks": 12202,
  "\u0120constantly": 11775,
  "\u0120misunder": 14996,
  "\u0120smell": 2331,
  "granddad": 8954,
  "\u0120rhy": 4257,
  "\u0120another": 617,
  "\u0120date": 4036,
  "\u0120wonderful": 3961,
  "\u0120hippos": 12932,
  "\u0120mainly": 7511,
  "\u0120shoelace": 7811,
  "\u0120nee": 5372,
  "stick": 3105,
  "radio": 8486,
  "\u0120worms": 8135,
  "\u0120waking": 8720,
  "shoes": 5189,
  "\u0120closet": 5683,
  "\u0120porcupine": 11071,
  "\u0120poet": 12856,
  "\u0120kim": 4513,
  "\u0120maam": 11683,
  "disney": 11590,
  "\u0120hunt": 8593,
  "age": 850,
  "\u0120agencies": 13765,
  "hiss": 15134,
  "grandma": 4409,
  "taps": 8528,
  "\u0120diamonds": 13903,
  "\u0120parked": 8574,
  "\u0120affair": 15319,
  "\u0120roger": 10590,
  "george": 8182,
  "\u0120professor": 10381,
  "ancing": 11352,
  "]?": 845,
  "etera": 7177,
  "\u0120nothin": 7720,
  "drinking": 7836,
  "\u0120girlie": 15967,
  "hurrah": 15741,
  "tig": 15593,
  "\u0120demonstration": 15842,
  "\u0120interpre": 7832,
  "\u0120flipping": 10939,
  "\u0120sitting": 1408,
  "\u0120jobs": 4235,
  "bbie": 3049,
  "supper": 15633,
  "bub": 9185,
  "ita": 5146,
  "\u0120bothering": 9545,
  "surely": 12411,
  "\u0120\u00e2\u0122\u0136": 4938,
  "ctic": 14976,
  "\u0120mm": 1481,
  "rubber": 14856,
  "lead": 14115,
  "rot": 2345,
  "oust": 15860,
  "fal": 10683,
  "writing": 7611,
  "make": 1952,
  "clam": 6266,
  "\u0120elsewhere": 9988,
  "\u0120playroom": 9861,
  "\u0120rates": 7256,
  "\u0120diving": 12818,
  "\u0120flowers": 2110,
  "pend": 3644,
  "\u0120polic": 6471,
  "christmas": 6794,
  "helicopter": 11168,
  "\u0120fet": 7083,
  "\u0120thinkin": 13683,
  "\u0120thunder": 7440,
  "\u0120bolton": 14034,
  "\u0120tran": 4908,
  "ails": 3771,
  "^": 38,
  "\u0120in": 165,
  "\u0120packing": 11247,
  "\u0120pond": 4746,
  "\u0120pounds": 1514,
  "\u0120stockport": 9762,
  "cotch": 10021,
  "\u01208": 6838,
  "\u0120her": 347,
  "kip": 10982,
  "ata": 7922,
  "\u0120midland": 15892,
  "\u0120spoilt": 15385,
  "\u0120stock": 5021,
  "\u0120coll": 1862,
  "\u0120semin": 12667,
  "\u0120dance": 3182,
  "\u0120sch": 12661,
  "shopping": 14315,
  "\u0120collect": 3150,
  "\u0120sol": 7345,
  "tooth": 8061,
  "\u0120mushy": 14917,
  "different": 7145,
  "kid": 7946,
  "\u0120pretending": 3938,
  "\u0120dick": 11246,
  "\u0120chat": 4606,
  "kangaroo": 9163,
  "aup": 12171,
  "venth": 11888,
  "\u0120palm": 11072,
  "\u0120signal": 7655,
  "stop": 1839,
  "\u0120turn": 596,
  "tering": 12176,
  "goti": 7738,
  "\u0120him": 408,
  "\u0120scientific": 14639,
  "adah": 7052,
  "\u0120med": 2444,
  "\u00e2\u0122\u013e": 4011,
  "\u0120entirely": 7426,
  "theless": 10090,
  "gail": 8201,
  "cmon": 6358,
  "\u0120guys": 1953,
  "\u0120giggles": 7881,
  "hall": 9095,
  "\u0120wicked": 8853,
  "kwww": 13361,
  "screen": 8265,
  "\u0120drink": 1015,
  "\u0120seen": 1218,
  "\u0120businesses": 10529,
  "\u0120sew": 8106,
  "\u0120shepher": 12445,
  "\u0120crawling": 6496,
  "\u0120zoo": 2290,
  "\u0120delays": 15638,
  "\u0120responsibility": 6534,
  "uhh": 13007,
  "q": 57,
  "\u0120now": 357,
  "\u0120normally": 3455,
  "brother": 1658,
  "\u0120plant": 3462,
  "aren": 2087,
  "removing": 10009,
  "ion": 292,
  "\u0120issu": 12121,
  "\u0120ker": 9340,
  "\u0120deep": 4057,
  "comes": 4266,
  "cise": 8588,
  "\u0120rhythm": 11172,
  "\".": 13978,
  "\u0120attractive": 10913,
  "\u0120toss": 11611,
  "wanted": 13944,
  "\u0120hospitals": 10622,
  "\u0120expend": 10555,
  "\u0120dipl": 14682,
  "\u0120strategy": 7727,
  "\u0120denver": 12415,
  "friends": 13333,
  "\u0120mustard": 8412,
  "\u0120storm": 9435,
  "\u0120normal": 4072,
  "\u0120stages": 13319,
  "\u0120auditors": 13397,
  "\u0120almost": 1806,
  "\u0120knaresborough": 15339,
  "bend": 12673,
  "aming": 12567,
  "ugs": 5460,
  "\u0120newspaper": 4844,
  "pert": 13325,
  "\u0120vis": 1933,
  "\u0120loving": 12759,
  "\u0120relie": 6362,
  "\u0120mothers": 8302,
  "\u0120annoyed": 9854,
  "snake": 8402,
  "deep": 9070,
  "\u0120creative": 15400,
  "\u0120request": 9059,
  "hands": 3448,
  "\u0120phones": 8646,
  "\u0120deter": 12386,
  "val": 1374,
  "\u0120pinched": 11200,
  "\u0120taken": 2261,
  "feels": 13427,
  "\u0120experiences": 13907,
  "lights": 9456,
  "feel": 4670,
  "sleepy": 13348,
  "\u0120sneak": 5536,
  "gorgeous": 14807,
  "\u00e2\u012a\u0128": 9523,
  "riet": 11183,
  "\u0120author": 2972,
  "lad": 5041,
  "\u0120chopping": 11538,
  "shoo": 9746,
  "\u0120bure": 12522,
  "\u0120ju": 920,
  "\u0120tipped": 8860,
  "grm": 5400,
  "\u0120superb": 13645,
  "\u0120backward": 12396,
  "tx": 15592,
  "\u0120tweet": 8805,
  "ic": 220,
  "rors": 14268,
  "\u0120flies": 5747,
  "\u0120questions": 2866,
  "\u0120subjects": 11817,
  "\u0120representing": 14781,
  "\u0120bust": 8436,
  "asher": 9339,
  "\u0120should": 671,
  "\u0120ribb": 6716,
  "under": 2455,
  "\u0120touch": 1636,
  "ater": 1024,
  "\u0120spend": 4029,
  "cricket": 14220,
  "wes": 8937,
  "spoon": 5725,
  "crawling": 15659,
  "\u0120batt": 14966,
  "...?": 2277,
  "\u0120areas": 3848,
  "\u0120banbury": 10474,
  "\u0120tearing": 15412,
  "\u0120loose": 6112,
  "pippin": 10887,
  "\u0120decor": 4921,
  "oohoo": 10616,
  "putta": 6631,
  "looking": 2770,
  "61": 15194,
  "\u0120refers": 5448,
  "erios": 7644,
  "\u0120trace": 9236,
  "mcnally": 9923,
  "\u0120seemed": 4645,
  "cie": 9186,
  "\u0120picked": 2705,
  "\u0120tutu": 14863,
  "\u0120loy": 14069,
  "wuh": 14340,
  "\u0120spiderman": 9521,
  "cra": 3600,
  "\u0120poppy": 9741,
  "\u0120min": 716,
  "\u0120sen": 2493,
  "\u0120\u00e2\u0122\u013f": 15888,
  "\u0120cray": 1062,
  "\u0120decorations": 11003,
  "\u0120qui": 12268,
  "cky": 2995,
  "\u0120conversations": 9265,
  "\u00c2": 81,
  "\u0120serious": 3879,
  "itional": 5814,
  "\u0120spreading": 15554,
  "\u0120pronunciation": 11894,
  "\u0120driveway": 15818,
  "\u0120education": 4221,
  "\u0120western": 8621,
  "\u0120dred": 11758,
  "\u0120corridor": 12334,
  "\u0120makin": 5721,
  "\u0120disappoint": 7643,
  "ting": 543,
  "ingo": 5690,
  "\u0120kidding": 6995,
  "thought": 6591,
  "\u0120envelope": 5927,
  "agger": 9419,
  "\u0120gentle": 3556,
  "\u0120chall": 6816,
  "\u0120minus": 4801,
  "where": 361,
  "\u0120bol": 8200,
  "\u0120muscle": 10329,
  "\u0120deliber": 9460,
  "\u0120sales": 5724,
  "tty": 1038,
  "gabriel": 11745,
  "\u0120cook": 957,
  "\u0120mhm": 3711,
  "\u0120excitement": 11040,
  "\u0120arf": 13878,
  "\u0120boundary": 10311,
  "unfortunately": 11452,
  "\u0120bebe": 11217,
  "ggedy": 7905,
  "ville": 10455,
  "\u0120posit": 2575,
  "cessary": 2675,
  "\u0120som": 8538,
  "\u0120russia": 12109,
  "which": 1093,
  "\u0120countryside": 7633,
  "colate": 1628,
  "namon": 12346,
  "\u0120train": 925,
  "\u0120rode": 9195,
  "\u0120council": 1889,
  "\u0120expecting": 8579,
  "\u0120abe": 4152,
  "\u0120figured": 9153,
  "manchester": 5019,
  "inct": 8835,
  "sters": 3949,
  "\u0120unique": 13634,
  "\u0120wel": 2829,
  "\u0120sw": 940,
  "aud": 12018,
  "exc": 9168,
  "\u0120comes": 1017,
  "unknown": 5070,
  "\u0120miss": 1528,
  "\u0120jj": 15695,
  "ifies": 12906,
  "cats": 11094,
  "\u0120skate": 8008,
  "\u0120winky": 6088,
  "\u0120wed": 2466,
  "\u0120grabs": 4078,
  "\u0120transform": 14852,
  "kate": 10058,
  "\u0120spent": 4860,
  "\u0120goggins": 15941,
  "\u0120announcement": 13524,
  "okey": 9302,
  "\u0120postbox": 7413,
  "\u0120incident": 9239,
  "\u0120calcul": 6835,
  "aa": 4013,
  "facial": 14313,
  "\u0120age": 2836,
  "\u0120vol": 3736,
  "press": 4864,
  "\u0120closes": 3861,
  "ival": 7857,
  "\u0120soil": 8671,
  "logical": 7810,
  "\u0120sliced": 15806,
  "\u0120round": 875,
  "eff": 10057,
  "\u0120favorite": 1704,
  "\u0120somewhere": 1961,
  "\u0120erase": 10185,
  "\u0120possible": 3494,
  "\u0120piggybank": 13296,
  "izzy": 5607,
  "\u0120doors": 3400,
  "\u0120buyed": 14371,
  "squeal": 9539,
  "lots": 3117,
  "lier": 3159,
  "\u0120commun": 2954,
  "\u0120bulldozer": 11117,
  "\u0120budget": 4539,
  "\u0120hallway": 8816,
  "\u0120strate": 4945,
  "choc": 15738,
  "\u0120hawa": 15121,
  "\u0120stup": 11017,
  "\u0120independ": 6059,
  "popcorn": 11629,
  "hs": 3525,
  "elled": 11127,
  "\u0120spike": 15374,
  "fe": 619,
  "\u0120sophistic": 14789,
  "\u0120pam": 8327,
  "\u0120tar": 4632,
  "danny": 9420,
  "eight": 2614,
  "verend": 13257,
  "checking": 15524,
  "\u0120flour": 5941,
  "ie": 294,
  "\u0120television": 2849,
  "\u0120wheat": 8083,
  "\u0120cooled": 15650,
  ";": 32,
  "\u0120:": 9816,
  "\u0120contrad": 15805,
  "\u0120twisted": 13144,
  "participants": 9273,
  "\u0120grind": 15138,
  "7": 28,
  "oxide": 13098,
  "\u0120frank": 5023,
  "ients": 4874,
  "\u0120recess": 8256,
  "\u0120correctly": 8250,
  ".,": 13670,
  "\u0120toolbox": 8173,
  "\u0120'": 350,
  "essor": 9558,
  "]\u00e2\u012e\u012b.": 5836,
  "\u0120working": 1632,
  "\u0120helped": 5050,
  "morisset": 11630,
  "\u0120tri": 1137,
  "\u0120established": 10235,
  "\u0120examples": 10621,
  "pau": 8104,
  "\u0120separated": 15407,
  "\u0120mumble": 15808,
  "sleep": 4613,
  "\u0120missing": 2786,
  "tro": 13110,
  "ergart": 8749,
  "\u0120soccer": 8558,
  "\u0120terry": 7967,
  "\u0120scoot": 5857,
  "\u0120watermelon": 6897,
  "\u0120eric": 4313,
  "\u0120matching": 9103,
  "\u0120owners": 10699,
  "\u0120lob": 5073,
  "oting": 6436,
  "laughing": 1532,
  "\u0120tightly": 15399,
  "\u0120software": 13826,
  "hamshire": 11749,
  "\u0120short": 2071,
  "mix": 7986,
  "\u0120steel": 10326,
  "\u0120earnings": 13206,
  "unte": 9451,
  "ull": 984,
  "neath": 3096,
  "robbie": 9713,
  "\u0120evidence": 5381,
  "\u0120checks": 10160,
  "\u0120fought": 13612,
  "\u0120whistling": 10227,
  "\u0120goat": 5457,
  "ewww": 8175,
  "\u0120meike": 11395,
  "around": 7221,
  "atically": 10209,
  "\u0120vacation": 7385,
  "\u0120cottage": 7371,
  "\u0120piggie": 10047,
  "\u0120thread": 10292,
  "\u0120sandra": 11033,
  "tar": 9334,
  "\u0120follow": 2060,
  "\u0120pasta": 5203,
  "\u0120electricity": 7704,
  "\u0120examination": 13948,
  "\u0120inde": 2653,
  "\u0120jay": 9121,
  "kins": 4126,
  "\u0120german": 7252,
  "hmallow": 11615,
  "\u0120former": 10122,
  "\u0120struggle": 10144,
  "\u0120symbol": 14475,
  "\u0120merrily": 10971,
  "mch": 539,
  "\u0120reasonable": 6595,
  "min": 2919,
  "\u0120develop": 2967,
  "\u0120bored": 6950,
  "\u0120ahead": 2233,
  "\u0120crea": 12260,
  "gagaa": 11710,
  "\u0120practising": 15403,
  "\u0120permanent": 11115,
  "\u0120tricks": 8458,
  "\u0120pot": 1134,
  "\u0120stat": 3916,
  "...": 261,
  "\u0120upset": 3765,
  "\u0120contrast": 14255,
  "max": 6678,
  "\u0120earlier": 3362,
  "dingo": 15721,
  "dood": 11211,
  "hit": 6839,
  "\u0120tween": 7010,
  "\u0120rubb": 4757,
  "\u0120subsequ": 12727,
  "onents": 14732,
  "\u0120tablets": 8337,
  "\u0120inviting": 13762,
  "pling": 12675,
  "\u0120period": 3997,
  "\u0120snee": 5250,
  "\u0120position": 3270,
  "\u0120firmly": 14246,
  "\u0120music": 2303,
  "\u0120lwww": 3723,
  "uto": 11959,
  "six": 2064,
  "\u0120scot": 3509,
  "\u0120em": 2050,
  "\u0120butter": 1433,
  "pose": 4528,
  "\u0120depressed": 13448,
  "\u0120bounces": 5909,
  "gy": 2680,
  "riding": 9279,
  "\u0120chairs": 3146,
  "quietly": 8230,
  "\u0120": 90,
  "chio": 11645,
  "\u0120eats": 3101,
  "ribut": 4447,
  "nother": 6659,
  "\u0120progra": 2682,
  "\u0120itchy": 12751,
  "cks": 877,
  "\u0120intelligent": 13461,
  "retrie": 15162,
  "\u0120pat": 1191,
  "\u0120birthday": 1185,
  "reading": 4883,
  "\u0120f": 144,
  "\u0120awww": 3119,
  "atta": 12440,
  "dunno": 6648,
  "\u0120sleep": 896,
  "\u0120refle": 6502,
  "\u0120mil": 944,
  "patsy": 5682,
  "\u0120krispies": 8210,
  "\u0120tex": 6765,
  "\u0120corporate": 15493,
  "\u0120ter": 2342,
  "\u0120bull": 5367,
  "\u0120melissa": 5790,
  "\u0120tone": 5275,
  "los": 11320,
  "\u0120swa": 13885,
  "\u0120verb": 11818,
  "cool": 4477,
  "\u0120straight": 2002,
  "\u0120compass": 15726,
  "\u0120rest": 1527,
  "\u0120ipad": 10178,
  "\u0120magazines": 7777,
  "\u0120fluff": 10863,
  "\u0120occurs": 9999,
  "\u0120liking": 15446,
  "cracker": 10477,
  "\u0120falls": 2513,
  "\u0120goo": 4031,
  "onathan": 5579,
  "ances": 1837,
  "question": 8594,
  "\u0120han": 5018,
  "\u0120compl": 3828,
  "\u0120mal": 5678,
  "\u0120vick": 10371,
  "\u0120head": 702,
  "hundred": 10451,
  "\u0120paw": 9170,
  "\u0120increased": 7877,
  "ea": 152,
  "\u0120squashed": 9431,
  "\u0120champion": 15846,
  "\u0120trainer": 14597,
  "hurray": 9457,
  "\u0120alex": 4701,
  "tom": 1439,
  "\u0120obvious": 7151,
  "jingle": 9188,
  "\u0120interference": 10663,
  "\u0120passion": 14445,
  "\u0120woah": 15396,
  "om": 160,
  "count": 2597,
  "\u0120output": 11876,
  "\u0120alive": 5585,
  "aling": 10010,
  "love": 2952,
  "b": 42,
  "5": 26,
  "\u0120colleagues": 6633,
  "[$=": 3609,
  "\u0120mem": 5664,
  "\u0120gold": 3287,
  "idi": 9795,
  "\u0120hopper": 15059,
  "mumbling": 8122,
  "rest": 1219,
  "gl": 3386,
  "\u0120innocent": 15850,
  "oct": 8177,
  "\u0120restrictions": 14715,
  "\u0120yogh": 5407,
  "\u0120conservative": 7558,
  "follows": 15019,
  "medicine": 13899,
  "\u0120cigarette": 9978,
  "\u0120dive": 10606,
  "\u0120stares": 6134,
  "\u0120lazy": 9646,
  "\u0120\u00e2\u0128": 1363,
  "faint": 14376,
  "ho": 182,
  "\u0120mack": 15135,
  "correcting": 14710,
  "issor": 14074,
  "\u0120buzzing": 12051,
  "\u0120waffles": 8101,
  "\u0120consider": 3513,
  "depends": 14047,
  "\u0120shops": 3615,
  "worth": 9253,
  "\u0120adequate": 13795,
  "resent": 3929,
  "\u0120offices": 10587,
  "\u0120addressed": 10473,
  "\u0120poison": 8108,
  "untranscribed": 3676,
  "\u0120legit": 15546,
  "*": 15,
  "\u0120restra": 15391,
  "\u0120sh": 523,
  "\u0120mode": 15874,
  "\u0120fusses": 9976,
  "\u0120lun": 13613,
  "\u0120down": 348,
  "\u0120remain": 9897,
  "inge": 11563,
  "you": 128,
  "\u0120glances": 5622,
  "\u0120closely": 7140,
  "inema": 9512,
  "\u0120blah": 7122,
  "bambi": 15582,
  "mit": 2465,
  "holic": 12847,
  "fif": 3518,
  "\u0120babe": 6685,
  "ses": 1299,
  "draw": 2618,
  "\u0120tam": 9094,
  "\u0120assess": 7040,
  "\u0120picking": 3491,
  "talking": 3829,
  "\u0120gener": 2254,
  "\u0120returning": 12100,
  "deedee": 7693,
  "ent": 263,
  "sle": 11313,
  "whis": 1248,
  "\u0120oval": 13269,
  "\u0120clop": 11975,
  "buck": 10025,
  "\u0120hort": 15212,
  "\u0120sec": 552,
  "chee": 9967,
  "\u0120mow": 12128,
  "\u0120ago": 1981,
  "\u0120gat": 9620,
  "\u0120hedgehog": 8850,
  "\u0120grain": 10067,
  "\u0120figures": 3603,
  "\u0120write": 1337,
  "\u0120root": 8398,
  "0209": 12052,
  "\u0120genuine": 11627,
  "watching": 8619,
  "mission": 10136,
  "\u0120everyday": 7475,
  "\u0120lads": 8721,
  "dible": 4772,
  "\u0120honestly": 6901,
  "\u0120thy": 15513,
  "\u0120pipe": 4468,
  "\u0120videos": 9542,
  "\u0120walk": 1307,
  "\u0120dinners": 12767,
  "\u0120vocaliz": 5062,
  "\u0120bitter": 12312,
  "to": 405,
  "\u0120covering": 8691,
  "\u0120abra": 14510,
  "produces": 6622,
  "iders": 12483,
  "\u0120cinnamon": 13854,
  "\u0120carp": 10520,
  "\u0120designed": 10107,
  "julia": 7418,
  "wing": 4904,
  "rim": 14498,
  "way": 450,
  "poline": 11001,
  "\u0120wooly": 14783,
  "scoop": 10352,
  "amen": 9910,
  "\u0120bugger": 13488,
  "\u0120swings": 6125,
  "then": 866,
  "eday": 10610,
  "\u0120crush": 15222,
  "writer": 14105,
  "\u0120mia": 5219,
  "match": 13107,
  "counts": 11475,
  "\u0120partially": 12027,
  "\u0120hard": 1179,
  "sty": 3387,
  "\u0120heavier": 12666,
  "mumbles": 6559,
  "\u0120marky": 4169,
  "\u0120injured": 12984,
  "\u0120pretzel": 7503,
  "\u0120liter": 7199,
  "\u0120cruz": 11942,
  "\u0120injury": 13456,
  "ultural": 7094,
  "watches": 9003,
  "mat": 2067,
  "\u0120penguin": 5059,
  "\u0120religion": 11049,
  "\u0120cluck": 9966,
  "\u0120repa": 10133,
  "\u0120second": 1305,
  "stea": 7515,
  "\u0120haz": 12220,
  "era": 1572,
  "\u0120casual": 11597,
  "\u0120festival": 10844,
  "mw": 5495,
  "\u0120creating": 14233,
  "\u0120buy": 1206,
  "\u0120handsome": 11497,
  "\u0120fre": 2842,
  "ints": 4729,
  "\u0120overalls": 13847,
  "\u0120hardest": 15306,
  "eenth": 7079,
  "gies": 10026,
  "ups": 5755,
  "\u00e2\u012e\u012b.": 1761,
  "\u0120panda": 6394,
  "giving": 5692,
  "\u0120sieve": 12650,
  "\u0120states": 5468,
  "\u0120phi": 4243,
  "\u0120hammers": 13539,
  "puter": 12961,
  "\u0120dal": 11446,
  "isher": 10182,
  "\u0120communist": 10475,
  "\u0120taxes": 15166,
  "\u0120bolt": 8002,
  "ulate": 11455,
  "hm": 321,
  "call": 2950,
  "omp": 8129,
  "bubble": 10578,
  "\u0120motorcycle": 5589,
  "\u0120saw": 1044,
  "aybe": 751,
  "\u0120priv": 4319,
  "\u0120elmo": 10493,
  "\u0120gun": 3320,
  "09": 5315,
  "\u0120doub": 4630,
  "\u0120exists": 13486,
  "\u0120customer": 6654,
  "slurping": 12253,
  "ute": 4952,
  "jjj": 9977,
  "noah": 15601,
  "\u0120researcher": 10880,
  "stan": 14125,
  "lollipop": 14420,
  "\u0120emily": 7532,
  "full": 2314,
  "\u0120officers": 5360,
  "double": 12553,
  "\u0120returns": 4118,
  "\u0120copying": 10104,
  "\u0120workforce": 15880,
  "ccup": 9434,
  "gain": 499,
  "mcc": 13919,
  "\u0120ev": 4918,
  "agon": 12580,
  "\u0120bru": 7926,
  "video": 12282,
  "rict": 3348,
  "\u0120cheeky": 4391,
  "come": 555,
  "sore": 14963,
  "\u0120keeping": 5153,
  "bble": 2775,
  "\u0120special": 2020,
  "blanket": 10785,
  "far": 6969,
  "lined": 15239,
  "\u0120bus": 904,
  "port": 3201,
  "yah": 6586,
  "starting": 13029,
  "\u0120minute": 1040,
  "\u0120difficult": 2417,
  "\u0120nat": 2528,
  "\u0120woof": 3510,
  "congress": 14043,
  "\u0120necessary": 5584,
  "\u0120mould": 13052,
  "\u0120expans": 13952,
  "\u0120reaching": 6907,
  "foot": 5329,
  "iously": 12681,
  "shing": 15115,
  "\u0120inher": 14972,
  "\u0120fan": 3532,
  "\u0120tunde": 13715,
  "olivia": 15184,
  "ula": 3573,
  "\u0120comedy": 15214,
  "\u0120josh": 7750,
  "\u0120soaking": 13664,
  "adle": 7552,
  "\u0120tay": 10686,
  "\u0120par": 1096,
  "\u0120writer": 14432,
  "\u0120rob": 4553,
  "\u0120cracking": 12274,
  "\u0120pr": 1221,
  "\u0120flashing": 8222,
  "poppy": 12026,
  "\u0120claimed": 14162,
  "\u0120saves": 13422,
  "louder": 12044,
  "\u0120jewish": 15893,
  "rer": 5353,
  "\u0120weak": 8836,
  "\u0120smash": 9286,
  "naw": 10955,
  "sex": 7525,
  "\u0120tomatoes": 6515,
  "\u0120yuc": 11725,
  "\u0120buster": 15757,
  "\u0120indic": 4242,
  "\u0120buttons": 3309,
  "berries": 2571,
  "tuck": 14486,
  "\u0120tongue": 3729,
  "\u0120manif": 15611,
  "\u0120best": 1690,
  "partic": 6779,
  "\u0120skittles": 15812,
  "cium": 10768,
  "atos": 11392,
  "\u0120coconut": 14646,
  "wilbur": 14264,
  "\u0120sweatshirt": 13309,
  "\u0120stripy": 12197,
  "du": 1593,
  "cap": 5699,
  "issa": 4482,
  "\u0120purely": 11481,
  "\u0120convention": 11270,
  "\u0120bot": 734,
  "\u0120bee": 2256,
  "\u0120bran": 4034,
  "\u0120sword": 7531,
  "\u0120stitches": 14895,
  "\u0120kilomet": 15578,
  "eleanor": 2201,
  "hoho": 9885,
  "\u0120salty": 14604,
  "\u0120applied": 10658,
  "\u0120parad": 15885,
  "\u0120j": 228,
  "elle": 6289,
  "\u0120icing": 6116,
  "\u0120poppers": 15291,
  "listen": 2853,
  "\u0120snapping": 15387,
  "\u0120opened": 3467,
  "\u0120builder": 3272,
  "\u0120given": 2435,
  "normal": 13834,
  "\u0120happy": 1388,
  "\u0120photo": 3748,
  "\u0120crink": 15298,
  "\u0120creation": 13837,
  "sible": 6941,
  "\u0120eleventh": 12677,
  "\u0120schemes": 8648,
  "\u0120cheap": 5110,
  "\u0120decl": 7964,
  "\u0120maximum": 9568,
  "\u0120pigeon": 12429,
  "before": 3446,
  "\u0120pokes": 13811,
  "\u0120comfy": 9408,
  "\u0120invisible": 12016,
  "falls": 10910,
  "\u0120undone": 12693,
  "\u0120practise": 12825,
  "kuczaj": 10716,
  "\u0120basic": 6420,
  "ome": 212,
  "wendy": 11721,
  "io": 1573,
  "ght": 196,
  "ropshire": 15916,
  "\u0120alle": 11572,
  "\u0120institution": 13825,
  "ult": 1073,
  "uu": 6095,
  "\u0120communicate": 15752,
  "birdie": 11173,
  "\u0120commend": 14899,
  "\u0120rent": 6001,
  "rainbow": 13781,
  "\u0120curric": 13184,
  "\u0120spilt": 7621,
  "ronic": 10618,
  "fly": 1757,
  "\u0120ninet": 1338,
  "\u0120spilled": 5125,
  "\u0120pant": 9662,
  "\u0120scan": 10266,
  "\u0120das": 12301,
  "\u0120cel": 7659,
  "gran": 11433,
  "welcome": 10697,
  "\u0120pointy": 14675,
  "lay": 6087,
  "\u0120strain": 14218,
  "\u0120cola": 10127,
  "\u0120scooby": 11950,
  "0202": 15644,
  "\u0120treasure": 4949,
  "\u0120pau": 5719,
  "nat": 7328,
  "\u0120feelings": 8809,
  "squeeze": 8851,
  "them": 5904,
  "\u0120dadda": 7215,
  "ay": 154,
  "much": 7369,
  "died": 13179,
  "\u0120attacking": 14154,
  "\u0120ties": 11763,
  "\u0120ended": 7102,
  "\u0120ordin": 6081,
  "ris": 1728,
  "_": 39,
  "\u0120super": 2488,
  "\u0120pumpkins": 6147,
  "\u0120scored": 11130,
  "-": 18,
  "\u0120wilbur": 14793,
  "\u0120emphat": 14997,
  "name": 1399,
  "\u0120stiff": 10792,
  "uls": 15702,
  "\u0120selby": 9907,
  "goodbye": 5377,
  "\u0120lids": 11661,
  "copy": 11266,
  "\u012013": 12685,
  "ger": 934,
  "\u0120blocked": 9497,
  "\u0120beha": 8218,
  "\u0120tra": 631,
  "selves": 2601,
  "peppa": 13746,
  "pear": 9423,
  "\u0120vel": 8278,
  "\u0120elements": 10867,
  "vocalises": 11830,
  "whistling": 13591,
  "\u0120hates": 13233,
  "xx": 176,
  "gelman": 6407,
  "liz": 11194,
  "\u0120pow": 3912,
  "\u0120sting": 8900,
  "\u0120smith": 7183,
  "rose": 7302,
  "\u0120witch": 4839,
  "\u0120ano": 9791,
  "hetic": 14226,
  "\u0120steady": 6221,
  "\u0120hearing": 7092,
  "\u0120skill": 5749,
  "\u0120sugar": 2489,
  "\u0120opening": 4400,
  "\u0120whatsoever": 11283,
  "\u0120consistent": 13259,
  "\u0120lightly": 13235,
  "flor": 15496,
  "\u0120mag": 5893,
  "\u0120contain": 2771,
  "vation": 9092,
  "\u0120involving": 15476,
  "\u0120yawning": 11029,
  "\u0120discussed": 8998,
  "sail": 15591,
  "mrose": 9212,
  "[.": 2172,
  "\u0120buys": 10762,
  "\u0120sma": 5868,
  "\u0120residential": 11826,
  "ty": 456,
  "\u0120caterpillars": 11854,
  "\u0120smelly": 12521,
  "\u0120tallulah": 14316,
  "\u0120come": 460,
  "\u0120magazine": 4665,
  "\u0120mayor": 7673,
  "\u0120ans": 1947,
  "ifically": 9124,
  "\u0120vat": 15518,
  "imm": 2204,
  "thony": 6463,
  "\u0120leadership": 15422,
  "\u0120macaroni": 7759,
  "\u0120building": 2105,
  "riam": 11155,
  "\u0120warmer": 10966,
  "ister": 1082,
  "\u0120nope": 7758,
  "\u0120lottery": 13554,
  "iona": 14741,
  "\u0120jac": 12077,
  "\u0120jones": 9579,
  "\u0120cent": 1840,
  "itely": 3165,
  "\u0120ax": 8852,
  "clicking": 15178,
  "squeals": 3477,
  "basket": 7451,
  "\u0120nurse": 5029,
  "\u0120freud": 7501,
  "\u0120none": 4154,
  "counter": 5815,
  "\u0120ten": 1170,
  "\u0120surplus": 15635,
  "\u0120eating": 1257,
  "\u0120kayode": 9480,
  "\u012011": 11199,
  "\u0120tray": 3465,
  "\u0120goldfish": 10569,
  "\u0120billy": 6262,
  "\u0120brace": 5962,
  "\u0120months": 2378,
  "vi": 5597,
  "chie": 7840,
  "\u0120greatest": 11224,
  "\u0120sevent": 3630,
  "\u0120accurate": 12747,
  "\u0120lightyear": 9866,
  "\u0120scotch": 14613,
  "eeat": 15224,
  "\u0120flush": 13752,
  "adadada": 14103,
  "\u0120mention": 3136,
  "\u0120trunk": 4111,
  "\u0120robert": 5162,
  "\u0120scrat": 6015,
  "\u0120wondered": 6954,
  "\u0120blackboard": 15148,
  "\u0120doug": 9177,
  "\u0120asian": 13277,
  "\u0120memory": 6350,
  "\u0120monthly": 12773,
  "scary": 12456,
  "music": 7598,
  "zipper": 14185,
  "\u0120holder": 11580,
  "dr": 2804,
  "\u0120iris": 10149,
  "jos": 13798,
  "\u0120dou": 3442,
  "\u0120agriculture": 12647,
  "\u0120roo": 4598,
  "mum": 1121,
  "\u0120higher": 3971,
  "\u0120jason": 4678,
  "\u0120welsh": 10969,
  "\u0120threat": 6936,
  "aulif": 15394,
  "hi": 115,
  "pony": 14962,
  "ounce": 7046,
  "\u0120pronounced": 9570,
  "\u0120brushed": 9493,
  "\u0120boiling": 9888,
  "abra": 7963,
  "=": 33,
  "key": 1116,
  "siren": 13981,
  "\u0120paint": 1577,
  "mey": 11800,
  "\u0120hap": 11084,
  "\u0120theatre": 9402,
  "sts": 9663,
  "\u0120moments": 11766,
  "\u0120hex": 15506,
  "hips": 9446,
  "\u0120ing": 8898,
  "icked": 4885,
  "\u0120olivia": 9208,
  "\u0120supporting": 10565,
  "\u0120pol": 1136,
  "\u0120gabriella": 6581,
  "\u0120briefly": 3672,
  "\u0120sear": 9337,
  "imet": 9602,
  "mosp": 11090,
  "\u0120edges": 9359,
  "\u0120concent": 5097,
  "\u0120thanksgiving": 11259,
  "\u0120ernie": 5616,
  "\u0120underwear": 12353,
  "\u0120claire": 8290,
  "\u0120welcome": 3147,
  "uffield": 14988,
  "01": 2830,
  "burp": 14311,
  "pia": 14339,
  "\u0120pail": 11157,
  "\u0120samantha": 6349,
  "72": 14562,
  "\u0120justice": 10991,
  "\u0120builders": 11464,
  "\u0120probably": 1160,
  "\u0120mandy": 7147,
  "princess": 10680,
  "\u0120responsible": 7372,
  "\u0120levels": 6789,
  "\u0120regulations": 9899,
  "\u0120fee": 9148,
  "\u0120to": 143,
  "doesn": 2628,
  "\u0120xavier": 15997,
  "\u0120pigs": 6825,
  "itation": 9167,
  "ittens": 5171,
  "\u0120sip": 8667,
  "\u0120hop": 3739,
  "\u0120cowboy": 4914,
  "\u0120utterances": 2871,
  "\u0120dad": 1130,
  "stingo": 13001,
  "\u0120definition": 9590,
  "\u0120disci": 9430,
  "\u0120distance": 5465,
  "agrees": 14038,
  "\u0120judgement": 14251,
  "\u0120containers": 12689,
  "cakes": 4192,
  "\u0120conver": 9937,
  "\u0120click": 3743,
  "\u0120quarters": 7837,
  "\u0120victoria": 15183,
  "\u0120encouraging": 11863,
  "\u0120difficulty": 7462,
  "hor": 2134,
  "\u0120independence": 14858,
  "gai": 3186,
  "\u0120batman": 7610,
  "\u0120junk": 9971,
  "\u0120elim": 3356,
  "\u0120kids": 1655,
  "oom": 550,
  "\u0120fred": 5652,
  "mot": 116,
  "\u0120mor": 948,
  "\u0120fif": 1161,
  "\u0120recognized": 8892,
  "\u0120imit": 3856,
  "\u0120umm": 14973,
  "counting": 10773,
  "\u0120crunchy": 9140,
  "overlaps": 12979,
  "\u0120fus": 3715,
  "\u0120manu": 7287,
  "lies": 7196,
  "\u0120digger": 4474,
  "steps": 8694,
  "hem": 12994,
  "\u0120francis": 12696,
  "fussing": 9522,
  "\u0120explosion": 14102,
  "\u0120devon": 12103,
  "\u0120von": 10798,
  "\u0120moustache": 12800,
  "pipe": 9461,
  "\u0120ske": 10116,
  "\u0120saturdays": 13706,
  "\u0120richard": 4652,
  "\u0120jeff": 8723,
  "\u0120spid": 5771,
  "otes": 9767,
  "ubbies": 5394,
  "doh": 8057,
  "padd": 15680,
  "\u0120somehow": 8060,
  "rocket": 15604,
  "\u0120adult": 2045,
  "gers": 6270,
  "\u0120rook": 9044,
  "fad": 1410,
  "\"": 7,
  "\u0120contributions": 13965,
  "brilliant": 6159,
  "\u0120writes": 6632,
  "\u0120silent": 11253,
  "fits": 10719,
  "nice": 2062,
  "lex": 3826,
  "\u0120perform": 9173,
  "\u0120cro": 2136,
  "\u0120gravy": 7965,
  "pud": 15497,
  "move": 2787,
  "stones": 10985,
  "sss": 5985,
  "rench": 2964,
  "gurg": 14960,
  "hered": 4859,
  "\u0120snaps": 9025,
  "sive": 4056,
  "\u0120lemme": 6438,
  "\u0120office": 2806,
  "jamie": 14847,
  "\u0120example": 3265,
  "\u0120flower": 2603,
  "\u0120darlin": 11291,
  "\u0120fired": 14059,
  "\u0120pe": 492,
  "issed": 6142,
  "uct": 12702,
  "\u0120dummy": 11014,
  "\u0120three": 597,
  "math": 14728,
  "\u0120virtually": 9384,
  "\u0120chalkboard": 13845,
  "umbles": 15945,
  "inddiff": 7380,
  "deh": 9939,
  "\u0120fizz": 11448,
  "roller": 6459,
  "\u0120engineering": 10250,
  "nina": 2347,
  "\u0120pips": 12948,
  ",.": 3988,
  "\u0120prizes": 14306,
  "assie": 9395,
  "ising": 3917,
  "lear": 14180,
  "\u0120launch": 14398,
  "\u0120refrigerator": 5326,
  "\u0120attend": 5605,
  "\u0120snowballs": 15393,
  "\u0120basically": 3953,
  "\u0120automatic": 12328,
  "\u0120included": 9004,
  "\u0120sustain": 12438,
  "\u0120gi": 1081,
  "iano": 4939,
  "\u0120has": 482,
  "\u0120giggle": 11447,
  "\u0120kitten": 6030,
  "\u0120bills": 9920,
  "\u0120breath": 3604,
  "\u0120reindeer": 7111,
  "oof": 1539,
  "ler": 3597,
  "mor": 3607,
  "\u0120oppo": 6560,
  "yesterday": 5984,
  "\u0120yet": 1099,
  "\u0120anyone": 3318,
  "kward": 9162,
  "\u0120lo": 465,
  "\u0120valuable": 12587,
  "\u0120prevent": 8657,
  "whoops": 2210,
  "\u0120slips": 9499,
  "bs": 1594,
  "\u0120unclear": 6314,
  "\u0120nwww": 6827,
  "\u0120merely": 11680,
  "mb": 1533,
  "kk": 7669,
  "\u0120muffins": 8273,
  "\u0120dragon": 4030,
  "\u0120somers": 13416,
  "\u0120brian": 3492,
  "\u0120santa": 3402,
  "\u0120ladies": 5839,
  "\u0120repair": 8996,
  "\u0120goldilocks": 13346,
  "\u0120autom": 8026,
  "\u0120complete": 5833,
  "\u0120ask": 1329,
  "seeing": 12909,
  "\u0120reduce": 9327,
  "\u0130": 101,
  "\u0120workers": 6456,
  "\u0120argue": 8477,
  "whether": 8563,
  "sound": 2112,
  "\u0120leng": 3718,
  "dio": 9673,
  ".\"": 1171,
  "\u0120spaces": 5138,
  "22": 5151,
  "\u0120bug": 4130,
  "\u0120johnny": 6985,
  "road": 6466,
  "\u0120raw": 9387,
  "mu": 3178,
  "nal": 8787,
  "\u0120squared": 7260,
  "\u0120luckily": 14248,
  "imitra": 3817,
  "\u0120realistic": 12817,
  "pel": 10858,
  "rolling": 7994,
  "\u0120strange": 3915,
  "asters": 14199,
  "\u0120hills": 10673,
  "write": 5141,
  "ange": 962,
  "\u0120approved": 10072,
  "\u0120character": 4392,
  "ahhah": 2263,
  "\u0120digg": 6335,
  "rons": 15590,
  "\u0120millions": 8952,
  "\u0120democr": 8620,
  "\u0120dioxide": 14994,
  "\u0120where": 484,
  "\u0120mashed": 8150,
  "elect": 11928,
  "waffle": 15072,
  "coun": 4972,
  "\u0120officer": 4825,
  "\u0120victor": 9383,
  "\u0120str": 1314,
  "asking": 9664,
  "\u0120word": 1525,
  "pouring": 14166,
  "\u0120occas": 4879,
  "\u0120sensitive": 11829,
  "\u0120keith": 8597,
  "ongue": 3579,
  "\u0120eighteenth": 13176,
  "hoo": 7245,
  "\u0120putted": 15696,
  "\u0120honk": 10669,
  "\u0120red": 836,
  "leen": 6733,
  "\u0120laun": 10041,
  "\u0120wars": 8971,
  "tent": 6184,
  "\u0120vehicle": 7144,
  "\u0120blo": 1113,
  "\u0120ban": 2083,
  "ellisweis": 6342,
  "\u0120s": 125,
  "ong": 459,
  "\u0120yelling": 8583,
  "\u0120doctors": 5653,
  "pass": 5136,
  "market": 6896,
  "\u0120nicked": 15325,
  "\u0120presses": 13705,
  "\u0120earth": 4533,
  "skip": 14780,
  "\u0120repu": 13180,
  "continuing": 14230,
  "\u0120sleeps": 7139,
  "\u0120edu": 12684,
  "\u0120joseph": 5854,
  "\u0120more": 415,
  "\u00e2\u0123": 11279,
  "proof": 14619,
  "\u0120expl": 2506,
  "\u0120restarted": 12035,
  "reaky": 11093,
  "sweetheart": 13254,
  "der": 749,
  "\u0120fur": 2266,
  "\u0120criminal": 14950,
  "\u0120kimberly": 12879,
  "\u0120caring": 14668,
  "daniel": 9241,
  "\u0120impact": 7772,
  "\u0120gla": 7697,
  "cathy": 6528,
  "such": 9825,
  "\u0120hockey": 10156,
  "muh": 12009,
  "ruff": 8161,
  "\u0120cape": 11034,
  "\u0120spind": 10012,
  "\u0120bay": 10605,
  "\u0120disappear": 9202,
  "\u0120seeds": 5137,
  "\u0120rema": 5068,
  "\u0120messy": 4961,
  "work": 2894,
  "catch": 4981,
  "\u0120doodle": 15599,
  "blows": 4140,
  "tax": 12564,
  "\u0120paddy": 11910,
  "\u0120tackle": 11668,
  "\u0120certific": 10714,
  "\u0120buh": 7586,
  "\u0120facilities": 8961,
  "carefully": 14378,
  "\u0120ron": 4667,
  "\u0120waving": 5942,
  "bike": 6604,
  "cula": 14332,
  "\u0120expenditure": 10914,
  "raining": 12307,
  "\u0120societies": 14622,
  "rogen": 10935,
  "silly": 5811,
  "\u0120gall": 7012,
  "lemon": 9772,
  "\u0120delay": 8368,
  "pots": 15681,
  "spoons": 11702,
  "\u0120intern": 6093,
  "\u0120probab": 14747,
  "\u0120conservatory": 14164,
  "oh": 201,
  "ab": 341,
  "break": 4758,
  "\u0120goes": 620,
  "\u0120messed": 8652,
  "\u0120fell": 1397,
  "\u0120heavy": 2714,
  "\u0120dolls": 3193,
  "\u0120grip": 15173,
  "\u0120parent": 2707,
  "\u0120approaches": 10278,
  "wning": 6512,
  "\u0120annie": 9083,
  "whist": 6518,
  "\u0120chan": 3839,
  "\u0120review": 6041,
  "weren": 9838,
  "\u0120kee": 13628,
  "\u0120jig": 15128,
  "\u0120video": 3202,
  "\u0120cords": 14991,
  "\u0120copper": 11218,
  "27": 6635,
  "\u0120/": 9317,
  "\u0120somebody": 1320,
  "\u0120mosquito": 13526,
  "\u0120aislinn": 15025,
  "emmy": 15300,
  "\u0120au": 4427,
  "\u0120blimey": 15295,
  "resumes": 13234,
  "intelligible": 6657,
  "\u0120carrying": 4366,
  "\u0120soldiers": 10741,
  "\u0120spider": 2927,
  "\u0120grasp": 15296,
  "ctive": 5679,
  "\u0120signals": 15821,
  "\u0120unzip": 15225,
  "kitty": 4136,
  "helps": 6404,
  "\u0120dipsy": 6791,
  "iddy": 7387,
  "nope": 2176,
  "\u0120arguing": 10450,
  "lin": 2985,
  "flies": 6356,
  "crash": 5824,
  "\u0120wearing": 2550,
  "\u0120explore": 8868,
  "\u0136": 104,
  "\u0120recommend": 4873,
  "\u0120searching": 14174,
  "\u0120resistance": 15759,
  "\u0120nana": 3633,
  "otic": 13211,
  "\u0120fifties": 11924,
  "\u0120membr": 15906,
  "\u0120buffalo": 15341,
  "dden": 3325,
  "\u0120mamma": 11440,
[...]
