{
  "\u0120ku": 5507,
  "\u0120tractor": 10451,
  "\u0120boon": 14097,
  "\u0120opvattingen": 8634,
  "\u0120sollicit": 14418,
  "\u0120tijden": 5191,
  "\u0120friet": 12204,
  "\u0120beieren": 9041,
  "\u0120gespecial": 13885,
  "spreekt": 12600,
  "staal": 13642,
  "\u0120rap": 6456,
  "\u0120voorkant": 8783,
  "\u0120vreselijk": 7264,
  "\u0120afgeleid": 6375,
  "\u0120omzetting": 10157,
  "\u0136": 161,
  "\u0120verhouding": 6356,
  "loes": 9987,
  "\u0120rits": 14869,
  "\u0120middelpunt": 11592,
  "ffende": 9103,
  "sverkiezingen": 7332,
  "hoef": 12775,
  "\u0120mijnen": 12415,
  "\u0120pant": 7117,
  "\u0120postzegels": 14351,
  "are": 1039,
  "russische": 15985,
  "atis": 3979,
  "',": 2047,
  "feest": 4939,
  "\u0120bas": 1369,
  "\u0120smalle": 9357,
  "beredeneer": 10655,
  "\u0120hamer": 8609,
  "\u0120ed": 1912,
  "slacht": 12277,
  "\u0120ding": 3663,
  "bladen": 10852,
  "\u0120oprichting": 11430,
  "1431": 10491,
  "\u0120haan": 8204,
  "\u0120cari": 10339,
  "\u0120vrijheid": 3773,
  "\u0120rechtszaak": 9786,
  "\u0120lola": 10846,
  "\u0120weiland": 13071,
  "\u0120gaan": 548,
  "\u0120oogjes": 15172,
  "\u0120helden": 10516,
  "igin": 5456,
  "\u0120gevolg": 2761,
  "\u0120colombia": 12860,
  "\u0120training": 8859,
  ">": 35,
  "duur": 9930,
  "eeen": 6330,
  "\u0120blaad": 7017,
  "iment": 3681,
  "\u012095": 11437,
  "maria": 12919,
  "\u0120worst": 7266,
  "\u0120verse": 11413,
  "1534": 10510,
  "\u0120gewaarschuwd": 15289,
  "sar": 11504,
  "\u0120binnenkant": 11139,
  "\u0120uitgeschakeld": 14935,
  "\u0120martinus": 7388,
  "alis": 3089,
  "\u0120wetten": 5705,
  "\u0120jochem": 8839,
  "\u0120slaap": 3111,
  "lands": 6874,
  "gewerkt": 13872,
  "\u0120herten": 13615,
  "\u0120hoest": 15509,
  "elijn": 12172,
  "\u0120charlotte": 11175,
  "kka": 10851,
  "oekra": 13491,
  "blijven": 5671,
  "\u0120kroop": 12253,
  "achel": 8177,
  "\u0120populairste": 9236,
  "\u0120gooch": 13094,
  "\u0120hoever": 15032,
  "ubl": 2344,
  "zijde": 3431,
  "\u0120commer": 7532,
  "\u0120bladeren": 4755,
  "elder": 6206,
  "place": 11986,
  "leiders": 12861,
  "\u0120perz": 13775,
  "\u0120det": 4773,
  "\u0120wee": 3332,
  "\u0120199": 1244,
  "vul": 4822,
  "igens": 5732,
  "\u0120mur": 9919,
  "assa": 5855,
  "zil": 3725,
  "aria": 9116,
  "rennen": 8425,
  "\u0120sara": 8061,
  "okken": 1220,
  "\u0120gebruikelijk": 15259,
  "\u0120dekker": 12433,
  "\u0120beschad": 5620,
  "derd": 3549,
  "600": 14508,
  "\u0120lampen": 9843,
  "1458": 10515,
  "geschiedenis": 3306,
  "1057": 8801,
  "\u0120karl": 11303,
  "\u0120dagen": 1688,
  "\u0120draaide": 4967,
  "tit": 8012,
  "\u0120tellen": 6329,
  "\u0120pe": 1491,
  "\u0120besliss": 6681,
  "\u0120vert": 726,
  "otseling": 4179,
  "\u0120linkse": 14425,
  "\u0120zoek": 1714,
  "\u0120zins": 9289,
  "breken": 5025,
  "\u0120opvallende": 12034,
  "playmate": 6498,
  "\u0120buur": 3741,
  "\u0120bevatten": 5579,
  "\u0120tegen": 518,
  "\u0120regelen": 9189,
  "\u0120hecht": 15220,
  "telefoon": 7550,
  "uwd": 8195,
  "\u0120verenig": 1161,
  "antaar": 11711,
  "\u0120grijpen": 12319,
  "\u0120infrastructuur": 12992,
  "\u0120wor": 301,
  "ogramma": 1802,
  "za": 2710,
  "\u0120bands": 11789,
  "iale": 1534,
  "\u0120welkom": 9896,
  "\u0120tel": 3260,
  "\u0120fant": 4093,
  "ooid": 3955,
  "\u0120vierkan": 8939,
  "gen": 225,
  "\u0120rollen": 5823,
  "\u0120wonder": 5527,
  "\u0120samenstelling": 7879,
  "\u0120eerder": 2152,
  "\u0120celestinus": 5592,
  "an": 178,
  "oming": 4862,
  "iseren": 10788,
  "\u0120collectie": 12050,
  "aaien": 11942,
  "\u0120religie": 7044,
  "rutte": 15284,
  "\u0120snee": 11312,
  "alb": 6579,
  "\u0120leren": 1972,
  "\u0120poppetje": 12836,
  "\u0120traditionele": 6921,
  "\u0120gerard": 6633,
  "kwam": 5171,
  "\u0120vleerm": 9079,
  "ois": 13480,
  "alen": 582,
  "fabrieken": 15978,
  "\u0120chat": 11874,
  "\u0120slijm": 10892,
  "\u0120zoekt": 4238,
  "\u0120benieuwd": 7687,
  "\u0120latijns": 13078,
  "eden": 2432,
  "romeinse": 14428,
  "mic": 12693,
  "\u0120blazen": 10381,
  "\u0120schuil": 10028,
  "\u01208": 876,
  "oeid": 4394,
  "\u0120versle": 14252,
  "\u0120gelegenheid": 10795,
  "help": 9853,
  "\u0120vergelijkbare": 12314,
  "vlies": 7120,
  "\u0120belachelijk": 12788,
  "\u0120nier": 9957,
  "\u0120toeval": 12895,
  "eilanden": 7419,
  "\u0120amersfoort": 11097,
  "\u0120christenunie": 13474,
  "intendo": 12603,
  "\u0120opgegeten": 9499,
  "oorten": 1438,
  "\u0120geeft": 1160,
  "\u0120hierboven": 5743,
  "\u0120kruis": 2393,
  "\u0120cowboy": 14431,
  "\u00e6": 131,
  "inees": 7764,
  "dier": 4221,
  "\u0120els": 5984,
  "\u0120piz": 6906,
  "\u0120landelijke": 9950,
  "az": 10305,
  "doende": 8849,
  "\u0120machines": 6752,
  "\u0120woning": 5865,
  "\u0120gevecht": 7539,
  "\u0120gewelddad": 14322,
  "warm": 6625,
  "\u0120batterij": 9266,
  "\u0120uitkomen": 12391,
  "wees": 14038,
  "\u0120springen": 5333,
  "\u0120produc": 2010,
  "\u0120bedrijfs": 8361,
  "was": 3822,
  "\u0120aanwe": 2867,
  "muts": 13389,
  "vl": 900,
  "\u0120schuiven": 10789,
  "\u0120evolutie": 13888,
  "\u0120parlement": 2734,
  "\u0120gids": 13137,
  "water": 1660,
  "\u0120opstand": 4731,
  "recht": 1465,
  "\u0120125": 12918,
  "\u0120verwijst": 6711,
  "\u0120verzoek": 11487,
  "anje": 6996,
  ",-.": 15098,
  "\u0120pvda": 6422,
  "\u0120verspreiding": 14731,
  "\u0120vijand": 5873,
  "\u0120trend": 9936,
  "\u0120brig": 15578,
  "wan": 5054,
  "\u0120knikt": 4833,
  "\u0120situaties": 7774,
  "gregatie": 14352,
  "omer": 8095,
  "\u0120belg": 3370,
  "\u0120communisme": 9382,
  "ct": 377,
  "\u0120male": 11090,
  "\u0120kiev": 9800,
  "nos": 14460,
  "\u0120ebbie": 9774,
  "\u0120gebracht": 3027,
  "\u0120m": 190,
  "\u0120sie": 10212,
  "werken": 2651,
  "\u01201997": 6096,
  "707": 15681,
  "\u0120pand": 11541,
  "\u0120boot": 2472,
  "loden": 13674,
  "\u0120toeristische": 13090,
  "\u0120lando": 15539,
  "\u0120meerderheid": 5903,
  "ivisie": 5227,
  "oort": 679,
  "\u0120woningen": 8898,
  "\u0120winnaars": 12320,
  "\u0120afro": 9094,
  "\u0120spook": 7472,
  "nelheid": 10059,
  "\u0120stilte": 9173,
  "ballen": 3680,
  "\u0120lichter": 14600,
  "\u0120breuk": 11360,
  "\u0120verdere": 11260,
  "\u0120zijkant": 10222,
  "ouwer": 8601,
  "\u0120overgebleven": 11279,
  "\u0120vene": 12734,
  "\u0120onveil": 15335,
  "\u0120whats": 9016,
  "\u01202018": 3916,
  "\u0120hill": 10870,
  "tev": 12940,
  "ontstaan": 12576,
  "\u0120nona": 8106,
  "fond": 6337,
  "\u0120ons": 1006,
  "daten": 3375,
  "laat": 2809,
  "istiek": 9793,
  "aspartylalanyl": 14986,
  "\u0120opgeb": 14408,
  "\u0120elke": 1257,
  "\u0120stre": 7292,
  "dr": 2205,
  "\u0120animatiefilm": 14707,
  "\u0120moed": 6797,
  "oek": 406,
  "stenen": 5394,
  "ochtend": 4935,
  "\u0120aantrekkelijk": 9879,
  "607": 9865,
  "elende": 5651,
  "\u0120snappen": 13802,
  "\u0120lippen": 6940,
  "\u0120supermarkt": 5586,
  "iten": 11403,
  "\u0120homohuwelijk": 15147,
  "\u0120serg": 6175,
  "\u0120vernoemd": 5594,
  "\u0120ronald": 14023,
  "[": 38,
  "\u0120low": 12437,
  "\u0120blind": 8789,
  "\u0120jean": 8139,
  "\u0120wer": 309,
  "\u0120nijl": 6792,
  "\u0120stortte": 12602,
  "\u0120zakt": 11160,
  "mest": 10215,
  "\u0120christus": 4717,
  "\u0120bon": 2165,
  "iegel": 3649,
  "kunnen": 9413,
  "\u0120ix": 3129,
  "kosten": 4708,
  "gevangen": 13189,
  "\u0120deken": 11398,
  "\u0120presidentskandid": 15092,
  "\u00c2\u00b7": 310,
  "\u0120effecten": 7997,
  "\u0120verzorgd": 12653,
  "\u0120ziekten": 12101,
  "opte": 7576,
  "\u0120ruimtevaart": 11999,
  "adult": 1088,
  "\u0120fabianus": 15886,
  "ondigd": 14661,
  "po": 1268,
  "\u0120york": 3442,
  "\u0120mad": 3763,
  "onome": 13016,
  "\u0120inleiding": 6399,
  "\u0120plaatselijke": 11591,
  "zon": 7541,
  "ikkel": 12871,
  "461": 10120,
  "\u0120expres": 11114,
  "\u012063": 10715,
  "\u0120schud": 5308,
  "\u0120diersoort": 14673,
  "\u0120deskundigen": 6658,
  "\u0120willy": 13651,
  "wijfeld": 12489,
  "\u0120afbeeld": 1063,
  "\u0120kilo": 5203,
  "\u0120wegens": 12797,
  "\u0120hoger": 2805,
  "\u0120degene": 7530,
  "\u0120dokter": 3828,
  "\u0120cruijff": 13526,
  "uba": 6209,
  "49": 3667,
  "\u0120oskar": 13870,
  "rische": 9767,
  "\u0120herfst": 7149,
  "\u0120ontst": 1537,
  "1829": 10400,
  "\u0120intere": 3842,
  "\u0120teveel": 8909,
  "parte": 4723,
  "\u0120zat": 1721,
  "\u0120kelder": 11106,
  "ailles": 11101,
  "\u0120kit": 7212,
  "\u0120schuld": 5052,
  "\u0120partic": 9438,
  "63": 4702,
  "schoenen": 6777,
  "\u0120architecten": 13832,
  "\u0120vog": 1506,
  "\u0120congres": 8221,
  "107": 8290,
  "\u0120centr": 12946,
  "308": 15442,
  "\u0120gespec": 13299,
  "\u0120constructie": 11216,
  "\u0120betreffende": 11317,
  "\u0120banden": 6714,
  "\u0120zichzelf": 2596,
  "\u0120verdween": 7782,
  "\u0120lukken": 11135,
  "norm": 11345,
  "\u0120student": 13499,
  "\u0120geit": 5192,
  "\u0120nv": 15431,
  "idingen": 6831,
  "ijssel": 8528,
  "\u0120iv": 1638,
  "\u0120tokio": 14856,
  "\u0120hout": 2488,
  "\u0120-": 378,
  "ermen": 3445,
  "\u0120goedge": 14871,
  "vrije": 11671,
  "\u0120kogel": 9564,
  "\u0120gaten": 4454,
  "\u0120mass": 2592,
  "\u0120kus": 6294,
  "haan": 9256,
  "\u0120versl": 6606,
  "\u0120dy": 7992,
  "05": 3688,
  "56": 3984,
  "eest": 1090,
  "\u0120homo": 11424,
  "\u0120pup": 11336,
  "vie": 2204,
  "\u0120plaatje": 2946,
  "\u0120voelen": 4396,
  "\u0120iedere": 2838,
  "\u0120gezocht": 7968,
  "carbonaat": 11595,
  "\u0120advoc": 8632,
  "\u0120ontsn": 4558,
  "\u0120vliegt": 1786,
  "\u0120enz": 5649,
  "\u0120klus": 10398,
  "\u0120werkelijk": 10489,
  "bezoek": 15718,
  "\u0120control": 6411,
  "\u0120bab": 2258,
  "\u0120global": 13840,
  "ieten": 1926,
  "\u0120fontein": 13307,
  "vv": 6287,
  "erson": 8287,
  "\u0120aanwij": 8384,
  "\u0120concurrentie": 10999,
  "\u0120struiken": 8925,
  "\u0120pom": 11180,
  "\u0120bondgenoten": 15067,
  "\u0120vaker": 3399,
  "\u0120wetsvoorstel": 13533,
  "\u0120voort": 2181,
  "idge": 10115,
  "\u0120toestel": 11453,
  "os": 440,
  "hein": 12593,
  "\u0120joop": 14957,
  "\u0120specif": 8744,
  "\u0120schilderkunst": 15239,
  "tsj": 15010,
  "\u0120ai": 11321,
  "\u0120saksen": 9254,
  "bord": 5613,
  "\u0120tin": 9448,
  "slapen": 10737,
  "\u0120half": 2282,
  "\u0120aansch": 9309,
  "\u0120wenen": 8772,
  "\u0120boerderijen": 12190,
  "\u0120jij": 660,
  "\u0120uitgere": 8901,
  "\u0120vereist": 11520,
  "\u0120bult": 13887,
  "gebonden": 13374,
  "\u0120org": 1695,
  "\u0120gekroond": 15162,
  "mende": 10691,
  "\u0120dankzij": 6097,
  "atoren": 6023,
  "\u00d2": 115,
  "\u0120andre": 6723,
  "\u0120gestolen": 5820,
  "\u0120ere": 12012,
  "\u0120hiervan": 3985,
  "angen": 1196,
  "wone": 12857,
  "\u0120somber": 14680,
  "1124": 8787,
  "\u0120secret": 12539,
  "619": 15076,
  "\u0120klim": 1903,
  "\u0120blijken": 9199,
  "\u0120schuin": 11351,
  "\u0120kruid": 13782,
  "\u0120gegooid": 8582,
  "\u0120winkels": 4781,
  "\u0120zsa": 6522,
  "\u0120helling": 13366,
  "\u0120gezondheid": 3699,
  "ions": 7229,
  "uctie": 4986,
  "\u0120voorzichtig": 4246,
  "mol": 7704,
  "\u0120verv": 2778,
  "uimen": 12773,
  "skandid": 14064,
  "\u0120dinsdag": 7207,
  "arm": 1096,
  "\u0120mislukt": 12884,
  "the": 2551,
  "punt": 1919,
  "\u0120vrolijke": 12146,
  "\u0120progress": 10815,
  "1145": 10532,
  "\u0120rijksm": 14672,
  "seryl": 5337,
  "\u0120lente": 7051,
  "\u0120besch": 902,
  "sur": 8478,
  "\u0120negen": 2919,
  "\u0120tem": 1881,
  "\u0120voelde": 4259,
  "elftal": 11764,
  "\u0120intussen": 9112,
  "\u0120sau": 11952,
  "\u0120print": 15089,
  "\u0120games": 6887,
  "\u0120organ": 7890,
  "\u0120kleed": 7560,
  "\u0120waal": 6896,
  "\u0120mogelijkheden": 5950,
  "\u0120babs": 12451,
  "\u0120arts": 7759,
  "omdat": 4768,
  "\u0120elementen": 5872,
  "\u0120mobiele": 8489,
  "leiding": 1922,
  "ific": 3581,
  "\u0120banaan": 8058,
  "\u0120blijft": 1810,
  "705": 10105,
  "limburg": 10079,
  "\u0120kleinere": 4738,
  "\u0120planeet": 5834,
  "\u0120commerc": 9737,
  "cus": 2332,
  "\u0120onderhoud": 10933,
  "\u0120xx": 7216,
  "\u0120spectacul": 12745,
  "ly": 3172,
  "\u0120besloten": 3872,
  "\u0120der": 1097,
  "\u0120richtte": 8110,
  "\u0120drieen": 13321,
  "buren": 14534,
  "ije": 1992,
  "aaldemoc": 10882,
  "osten": 1187,
  "\u0120accept": 9560,
  "bode": 13590,
  "\u0120day": 12406,
  "spra": 1469,
  "hoeveel": 5606,
  "\u0120sas": 5669,
  "\u0120heel": 584,
  "\u0120raffi": 10415,
  "\u0120ingewikkelde": 15784,
  "\u0120wapen": 4625,
  "\u0120gh": 7345,
  "verd": 2597,
  "\u0120vernieuw": 6926,
  "\u0120pond": 13046,
  "\u0120fran": 766,
  "41": 8797,
  "\u0120apr": 2675,
  "\u0120tillen": 14384,
  "\u0120behoef": 8579,
  "familie": 6513,
  "lander": 10053,
  "\u0120bal": 1335,
  "253": 9998,
  "itz": 7340,
  "\u01201922": 13732,
  "\u0120wijken": 7713,
  "\u0120toetsen": 8078,
  "dam": 1076,
  "\u0120debuut": 9526,
  "ams": 4084,
  "ex": 1440,
  "orgen": 1110,
  "\u0120voorstander": 8355,
  "\u0120astronaut": 15742,
  "\u0120kwam": 897,
  "\u0120problemen": 2602,
  "gew": 2718,
  "aseffect": 12486,
  "\u0120zojuist": 13487,
  "radio": 14492,
  "velien": 9110,
  "\u0120bescherm": 3335,
  "\u0120klimaat": 2844,
  "\u0120caesar": 10853,
  "bed": 2136,
  "vlucht": 10007,
  "\u0120el": 480,
  "\u0120ket": 4174,
  "\u0120snelle": 6783,
  "bureau": 7022,
  "26": 6073,
  "\u0120beker": 4923,
  "\u0120verloopt": 10452,
  "\u0120gans": 13510,
  "\u0120oekraiense": 8694,
  "\u0130": 155,
  "\u0120leon": 7169,
  "schijnlijk": 2197,
  "\u0120uitdrukkingen": 14349,
  "\u0120david": 4581,
  "\u0120maxima": 12260,
  "roep": 3529,
  "ftig": 11751,
  "\u0120kijk": 1368,
  "akkoord": 14128,
  "\u0120donker": 3137,
  "ert": 1826,
  "keurige": 9552,
  "\u0120out": 9138,
  "\u0120publie": 7413,
  "been": 7351,
  "\u0120:": 4074,
  "\u0120verschijn": 4344,
  "\u0120blok": 3278,
  "paleis": 14299,
  "ainer": 10984,
  "\u0120helen": 15457,
  "terdam": 2834,
  "\u0120werelderfgoed": 12670,
  "366": 10387,
  "\u0120resort": 11498,
  "\u0120vriendjes": 13965,
  "ilio": 12497,
  "\u0120politieke": 2066,
  "\u0120uren": 5755,
  "voers": 15585,
  "\u0120lezers": 9860,
  "zettend": 6024,
  "staan": 976,
  "drie": 5837,
  "\u0120bedraagt": 7395,
  "\u0120lichten": 12985,
  "netje": 11864,
  "\u01201949": 10482,
  "ek": 6753,
  "zer": 1774,
  "kens": 2175,
  "\u0120hypothese": 13178,
  "cul": 3949,
  "afval": 9814,
  "\u0120nader": 14801,
  "\u0120liefde": 5220,
  "\u0120beslissen": 8456,
  "\u0120spel": 1754,
  "\u0120hokje": 10770,
  "ooter": 11887,
  "\u0120tib": 13727,
  "\u0120duurzame": 11035,
  "\u0120doelgroep": 15644,
  "verwachting": 14947,
  "\u0120album": 3314,
  "\u0120beter": 1348,
  "\u0120zolang": 7885,
  "\u0120fluistert": 7271,
  "ancieel": 11089,
  "\u0120atlas": 6727,
  "\u0120[": 7354,
  "\u0120parken": 9171,
  "brabant": 5849,
  "70": 1856,
  "\u0120aspect": 9513,
  "\u0120monumenten": 11198,
  "\u0120verdien": 3105,
  "\u0120mees": 5547,
  "\u0120versailles": 11819,
  "iaan": 4821,
  "asius": 4940,
  "\u0120onzeker": 11664,
  "post": 8496,
  "inders": 11205,
  "\u0120smaak": 5124,
  "\u0120antarct": 13602,
  "tentoon": 14248,
  "\u0120bewonder": 9214,
  "gezet": 3257,
  "aaie": 14066,
  "10": 802,
  "955": 8633,
  "\u0120kinderen": 669,
  "\u0120scenario": 11447,
  "\u0120opname": 10945,
  "\u0120ijs": 1398,
  "\u0120nederl": 2102,
  "\u0120stem": 1054,
  "\u0120schot": 4059,
  "iging": 3821,
  "\u0120daadwerkelijk": 12586,
  "llen": 7502,
  "vereniging": 8522,
  "\u0120vleermuis": 14484,
  "\u0120gevoelens": 8710,
  "\u0120schimmel": 9205,
  "ci": 9363,
  "\u0120mei": 2394,
  "\u0120pind": 8982,
  "\u0120deel": 873,
  "\u0120kiest": 6599,
  "\u0120fietsp": 14451,
  "\u0120maand": 2137,
  "\u012065": 6709,
  "ena": 13183,
  "comp": 4475,
  "\u0120complex": 10453,
  "gebleven": 9313,
  "\u0120zolder": 9361,
  "\u0120hertogdom": 10854,
  "\u0120zuiver": 12105,
  "\u0120jasper": 11458,
  "cten": 2825,
  "stralen": 10578,
  "iel": 850,
  "\u0120veertig": 10409,
  "vle": 7639,
  "\u0120verrassen": 11445,
  "\u0120elect": 13568,
  "\u0120belast": 6641,
  "\u0120lana": 13761,
  "\u0120cell": 9471,
  "\u0120marketing": 14790,
  "\u0120hert": 3421,
  "holm": 12159,
  "getjes": 8453,
  "\u0120vla": 3981,
  "\u0120om": 305,
  "\u0120plastic": 3924,
  "\u0120welvaart": 7724,
  "\u0120inter": 1195,
  "aardigheden": 6316,
  "\u0120zomerspelen": 13598,
  "\u0120ziekte": 2724,
  "\u01201978": 10990,
  "\u0120schroeven": 15803,
  "hur": 8727,
  "\u0120verdachte": 9369,
  "\u0120januari": 2221,
  "aartjes": 15475,
  "\u0120ruil": 7937,
  "\u0120dak": 3124,
  "\u0120sleep": 12596,
  "\u0120halve": 4419,
  "\u0120martin": 7522,
  "\u0120machts": 13215,
  "boerderij": 10673,
  "\u0120gehakt": 14723,
  "fa": 5520,
  "\u00aa": 82,
  "mund": 11069,
  "\u0120regent": 6088,
  "leucyl": 3923,
  "\u0120hugo": 10271,
  "\u0120heide": 9831,
  "\u0120betoog": 14872,
  "\u0120volledige": 5569,
  "\u0120deze": 386,
  "\u0120opende": 7269,
  "\u0120volkslied": 9773,
  "\u0120cro": 7439,
  "itaal": 9019,
  "gor": 10707,
  "\u0120oosten": 1927,
  "\u0120barst": 9852,
  "petersburg": 14559,
  "jaagd": 11223,
  "lies": 7027,
  "\u0120strategie": 14074,
  "\u0120origineel": 14209,
  "\u0120versloeg": 13621,
  "\u0120porte": 10349,
  "histor": 9612,
  "\u0120slee": 9809,
  "\u0120vers": 598,
  "\u0120oogst": 10359,
  "\u0120sneijder": 15014,
  "\u0120plukken": 12820,
  "\u0120aanv": 3806,
  "lin": 6840,
  "iense": 8063,
  "ente": 4801,
  "verzeker": 8736,
  "\u0120ddr": 14132,
  "\u0120computers": 5786,
  "\u0120goud": 2751,
  "phenylalanyl": 6913,
  "\u0120citroen": 13352,
  "\u0120woensdag": 6093,
  "\u0120amb": 3535,
  "22": 3029,
  "brittannie": 6540,
  "\u0120explos": 6741,
  "omt": 9711,
  "ivia": 9280,
  "\u0120off": 2093,
  "\u0120reagan": 14910,
  "ku": 11934,
  "nie": 2699,
  "imeter": 5121,
  "\u0120cycl": 15183,
  "ommen": 3660,
  "ark": 7056,
  "\u0120samen": 712,
  "\u0120life": 13254,
  "\u0120voeren": 3925,
  "\u0120geleidelijk": 15738,
  "\u0120afwij": 13261,
  "\u0120roomse": 10729,
  "apende": 14725,
  "\u0120beantwoord": 4955,
  "\u0120corru": 14398,
  "\u0120erboven": 15406,
  "twee": 3331,
  "\u0120jum": 15194,
  "896": 6445,
  "\u0120drukke": 11406,
  "innetje": 15235,
  "act": 992,
  "\u0120probeerden": 7795,
  "wester": 15159,
  "\u0120stokje": 15207,
  "\u0120nit": 10082,
  "\u0120machtige": 14727,
  "icatie": 12440,
  "\u0120snaar": 11032,
  "roen": 10712,
  "antje": 12236,
  "\u0120buitenlandse": 5033,
  "\u0120wales": 10662,
  "116": 5181,
  "\u0120game": 5272,
  "prijs": 3448,
  "\u0120generaal": 6105,
  "\u012046": 8137,
  "\u0120ep": 6190,
  "\u0120gluc": 6576,
  "\u0120haalde": 3932,
  "\u0120gezorgd": 9380,
  "\u0120heb": 364,
  "gestelde": 5621,
  "\u0120opvallend": 8976,
  "\u0120schrok": 8529,
  "\u0120kleine": 1140,
  "\u0120nummers": 2985,
  "\u0120actie": 2167,
  "\u0120pi": 7679,
  "\u0120leiding": 5057,
  "half": 8818,
  "\u0120et": 2251,
  "rel": 4911,
  "\u0120bezien": 12750,
  "\u0120verkregen": 11341,
  "\u0120vierde": 4503,
  "ix": 1666,
  "alender": 9200,
  "\u0120groeide": 5784,
  "\u0120pesten": 8519,
  "di": 3941,
  "etter": 7806,
  "\u0120mal": 3186,
  "gemak": 12377,
  "hana": 14420,
  "\u0120wensen": 9610,
  "\u0120voorstellen": 6596,
  "\u0120kla": 2229,
  "193": 5248,
  "\u0120bakker": 5994,
  "\u0120grootte": 6182,
  "\u0120gor": 7941,
  "george": 15829,
  "\u0120tenminste": 6192,
  "\u0120aanvankelijk": 8307,
  "974": 10176,
  "\u012049": 9367,
  "\u0120aanleg": 7326,
  "rypt": 14696,
  "\u0120ongelijkheid": 13574,
  "\u0120ziekenhuis": 3653,
  "\u0120all": 4128,
  "\u0120zwemt": 12379,
  "clusief": 5684,
  "\u0120grondgebied": 9607,
  "\u0120wortel": 8201,
  "\u0120november": 2819,
  "oniem": 12187,
  "\u0120kerst": 3235,
  "\u0120denk": 1457,
  "\u0120rept": 9073,
  "\u0120stage": 13417,
  "\u01201944": 8779,
  "\u0120opvol": 5962,
  "\u0120bel": 517,
  "k": 53,
  "brood": 7429,
  "wer": 479,
  "\u0120dick": 12551,
  "\u0120riv": 1664,
  "\u0120versterkt": 10206,
  "\u0120siber": 15243,
  "\u0120stoel": 2836,
  "\u01201815": 13985,
  "\u0120freder": 10384,
  "achtigen": 8212,
  "\u0120margaret": 11844,
  "koffie": 11598,
  "\u0120raff": 8861,
  "\u0120400": 5958,
  "\u0120onbekend": 8653,
  "tat": 14078,
  "bs": 5825,
  "\u0120melanie": 12966,
  "\u0120critici": 15899,
  "f": 48,
  "\u0120gein": 6118,
  "\u0120morgen": 3039,
  "\u0120telef": 14016,
  "wn": 7516,
  "\u0120loop": 3020,
  "\u0120verwarm": 6557,
  "\u0120zus": 3043,
  "\u0120woord": 1060,
  "ombia": 11308,
  "\u0120soap": 11392,
  "\u0120gevonden": 1920,
  "huid": 7940,
  "e": 47,
  "\u0120luistert": 8319,
  "geest": 13226,
  "vlinder": 15344,
  "\u0120hoeven": 5554,
  "\u0120ontde": 1871,
  "\u0120little": 14658,
  "\u0120larven": 12524,
  "zaak": 2607,
  "\u0120oppervlakte": 4175,
  "yon": 10437,
  "ting": 1702,
  "\u0120exponent": 14987,
  "ines": 5647,
  "rede": 12609,
  "\u0120jr": 10393,
  "aarden": 6390,
  "\u0120hard": 1420,
  "\u0120rolde": 14601,
  "\u0120behandelen": 11668,
  "\u0120voordeel": 5491,
  "\u0120amus": 14777,
  "uit": 261,
  "anal": 13677,
  "\u01202017": 3734,
  "\u0120kwast": 14873,
  "dw": 9807,
  "\u0120agent": 7032,
  "\u0120koor": 10570,
  "47": 4853,
  "\u0120mogelijke": 5193,
  "ochten": 3749,
  "\u0120februari": 3218,
  "\u0120joodse": 6729,
  "\u0120uiterlijk": 7762,
  "\u0120immigratie": 13599,
  "elings": 14185,
  "\u0120vergeet": 6920,
  "\u0120fout": 4017,
  "idae": 11917,
  "\u0120omlaag": 8372,
  "terwijl": 12154,
  "\u0120wiel": 4888,
  "\u0120weeg": 14157,
  "issement": 12927,
  "igers": 5000,
  "kingen": 4889,
  "werking": 3373,
  "ses": 11339,
  "\u0120meen": 4508,
  "oor": 210,
  "\u0120christelijke": 7244,
  "\u0120bolle": 12950,
  "\u0120verandert": 4334,
  "iez": 1497,
  "\u0120masker": 11425,
  "\u0120blikken": 14664,
  "-,": 7065,
  "\u0120til": 7798,
  "iss": 1353,
  "alem": 10861,
  "\u0120voet": 1055,
  "\u0120raampje": 15238,
  "\u0120inleveren": 14375,
  "ider": 3088,
  "elletje": 11046,
  "bele": 3635,
  "\u0120\"": 628,
  "\u0120feite": 10739,
  "\u0120ste": 593,
  "35": 6474,
  "\u0120onvol": 8960,
  "\u0120crimineel": 11891,
  "sid": 7349,
  "\u0120plan": 996,
  "\u0120directe": 8150,
  "\u01201880": 15265,
  "ey": 12930,
  "\u0120bor": 2659,
  "\u0120hitler": 5562,
  "\u0120dome": 13134,
  "velden": 6965,
  "\u0120standaardafwijking": 15651,
  "tegenwoordig": 3862,
  "\u0120hof": 5009,
  "\u0120punt": 2199,
  "\u0120telefoon": 2564,
  "kaat": 9453,
  "\u0120gezonde": 7382,
  "let": 2038,
  "\u0120bijlage": 4863,
  "\u0120kamertje": 14286,
  "\u0120%": 9530,
  "\u0120bijeen": 7929,
  "\u0120amerik": 1036,
  "\u0120leerden": 15232,
  "geboren": 5396,
  "1362": 10521,
  "\u0120sim": 2644,
  "ocht": 723,
  "uinen": 5818,
  "\u0120stabiel": 15554,
  "ijder": 10799,
  "\u0120vr": 481,
  "\u0120schadelijke": 13712,
  "vanger": 15038,
  "heet": 12817,
  "\u0120conclusies": 13575,
  "\u01201957": 12180,
  "\u0120gebeurt": 1934,
  "vinger": 8953,
  "\u0120rijk": 1338,
  "\u0120n": 201,
  "\u0120verbonden": 5016,
  "gaat": 2119,
  "\u0120dipl": 7573,
  "\u0120aank": 9247,
  "heu": 13141,
  "\u0120slinger": 14139,
  "\u0120lukte": 5969,
  "\u0120sec": 2530,
  "\u0120gemeenten": 3336,
  "klass": 15269,
  "\u0120eigenschappen": 6031,
  "\u0120meisje": 1524,
  "\u0120wandelen": 7514,
  "jamin": 10958,
  "\u0120track": 13347,
  "900": 7202,
  "\u00ca": 109,
  "vriendelijk": 15781,
  "koe": 7965,
  "\u0120verkocht": 3013,
  "ig": 228,
  "\u0120servie": 7779,
  "\u0120weliswaar": 15408,
  "sol": 4539,
  "\u0120agnes": 14846,
  "\u0120overtuigd": 12208,
  "\u0120korte": 2672,
  "\u0120aandacht": 3203,
  "gende": 868,
  "aarde": 1542,
  "\u0120plaatsgevonden": 13344,
  "\u0120woonkamer": 13349,
  "\u0120kaal": 10742,
  "\u0120democratische": 5937,
  "eller": 2933,
  "nas": 9405,
  "\u0120voorkomt": 5464,
  "\u0120betekent": 1455,
  "davie": 13566,
  "\u0120lake": 9455,
  "\u0120tap": 6326,
  "\u0120ijsje": 5138,
  "keten": 6970,
  "\u0120erger": 6627,
  "temperatuur": 10331,
  "\u0120producenten": 14229,
  "\u0120gezichten": 12449,
  "ios": 6950,
  "\u0120turks": 12397,
  "\u0120december": 2526,
  "under": 11674,
  "\u0120ton": 2104,
  "\u0120geteld": 15091,
  "weging": 2876,
  "bevol": 5076,
  "\u0120strijden": 13871,
  "\u0120aap": 5188,
  "koper": 7493,
  "welk": 3999,
  "ietje": 8286,
  "uta": 14440,
  "\u0120opsomm": 5646,
  "\u0120mer": 1731,
  "\u0120fut": 13439,
  "\u0120aansluiting": 13682,
  "\u0120by": 6787,
  "gel": 547,
  "\u0120verter": 10874,
  "\u0120flip": 15346,
  "\u0120rom": 3103,
  "\u0120vvd": 6245,
  "\u0120austral": 3595,
  "poep": 11537,
  "\u0120geluid": 1104,
  "\u0120eric": 14277,
  "boekje": 4972,
  "\u0120aanslagen": 11852,
  "ec": 831,
  "\u0120document": 8364,
  "\u0120overkant": 10029,
  "aster": 11726,
  "\u0120spec": 1577,
  "\u0120kalender": 10756,
  "\u0120ka": 1596,
  "nel": 3030,
  "\u0120olifant": 5588,
  "\u0120eenvoudige": 9765,
  "\u0120laser": 13596,
  "pasta": 14368,
  "\u0120onafhankelijkheids": 12782,
  "\u0120drem": 14641,
  "1990": 14596,
  "\u0120reis": 2445,
  "\u0120fris": 6512,
  "\u0120maximaal": 2822,
  "\u0120moderne": 3685,
  "zers": 5503,
  "\u0120mu": 11505,
  "\u0120geef": 1254,
  "\u0120snelste": 13053,
  "\u0120opgevolgd": 7743,
  "\u0120ontstane": 14780,
  "\u0120hoek": 3175,
  "\u0120sak": 7690,
  "\u0120levende": 7892,
  "\u0120dierentuin": 3947,
  "\u0120lind": 7054,
  "\u0120ontstond": 3471,
  "\u0120onmogelijk": 8788,
  "\u0120nederlanders": 3254,
  "\u0120kubus": 14918,
  "ker": 465,
  "gegaan": 6799,
  "\u0120carriere": 8311,
  "\u0120evelien": 11028,
  "\u0120stra": 1028,
  "\u0120marijn": 11057,
  "\u0120vulkanen": 11211,
  "\u0120fijne": 9889,
  "\u0120restaurants": 9494,
  "roe": 7245,
  "cuul": 6458,
  "imen": 4999,
  "\u0120ana": 10611,
  "plo": 9650,
  "scr": 14882,
  "\u0120rontgen": 14134,
  "\u0120onver": 5118,
  "\\\"": 5351,
  "\u0129": 148,
  "ergie": 1792,
  "\u0120gebeurd": 3045,
  "\u0120folder": 9925,
  "\u0120vries": 10847,
  "\u0120jonge": 2608,
  "\u0120vleugel": 11579,
  "\u0120relatief": 7404,
  "\u0120opent": 11723,
  "\u0120opdrachten": 5035,
  "ouver": 5615,
  "\u0120betaling": 14693,
  "\u0120goo": 5223,
  "fase": 9543,
  "\u0120smer": 14406,
  "hb": 15821,
  "\u0120chine": 3910,
  "\u0120zuur": 2663,
  ")?": 9229,
  "\u0120ehm": 12948,
  "\u0120resp": 6314,
  "\u0120tegenwoordig": 2292,
  "\u0120luier": 13145,
  "zoals": 4710,
  "ructuur": 4072,
  "\u0120hulp": 2215,
  "\u0120ti": 9829,
  "\u0120plattegrond": 8933,
  "probeerd": 7914,
  "\u0120gedaan": 1319,
  "rine": 12888,
  "conser": 13062,
  "\u0120puck": 6296,
  "1464": 10475,
  "\u0120overeind": 7463,
  "\u0120kapot": 3078,
  "\u0120uniek": 14017,
  "trekken": 13081,
  "\u0120lith": 13892,
  "\u0120parall": 15127,
  "positie": 15787,
  "\u0120lucius": 7163,
  "\u0120belgische": 4095,
  "\u0120gauw": 3515,
  "\u0120aantrekken": 12825,
  "\u0120rich": 5864,
  "\u0120lux": 3723,
  "\u0120xv": 3744,
  "\u0120gedichten": 9119,
  "\u0120musical": 5501,
  "\u0120redden": 5500,
  "\u0120omgekomen": 12748,
  "vent": 8620,
  "plant": 3942,
  "07": 7709,
  "\u0120broeder": 13023,
  "\u0120len": 2677,
  "\u0120geliefd": 14040,
  "gebouw": 5170,
  "\u0120walter": 12315,
  "beur": 14060,
  "1730": 9697,
  "roos": 7768,
  "\u0120verzameling": 8231,
  "\u0120lees": 1597,
  "\u0120begele": 6672,
  "itten": 11799,
  "\u0120heus": 8168,
  "\u0120scheiden": 9581,
  "kt": 423,
  "rok": 11397,
  "\u0120gevormde": 14888,
  "\u0120uitgez": 4613,
  "mate": 11743,
  "\u0120vond": 1539,
  "\u0120netjes": 5773,
  "\u0120ta": 3209,
  "waren": 8928,
  "\u0120park": 2028,
  "laag": 3281,
  "\u0120bot": 1888,
  "\u0120dingen": 1391,
  "\u0120zanger": 6217,
  "jack": 15378,
  "ue": 3221,
  "\u0120jongere": 7960,
  "\u0120kwal": 6315,
  "wekkend": 12022,
  "oost": 2061,
  "\u0120bamb": 11920,
  "\u0120gecombin": 15713,
  "arts": 3700,
  "arr": 9454,
  "\u0120boet": 6927,
  "\u0120ten": 1167,
  "cc": 6123,
  "\u0120zwij": 9003,
  "\u0120klik": 5593,
  "\u0120aantallen": 11492,
  "\u0120dagelijks": 6242,
  "vet": 10985,
  "akker": 2280,
  "\u0120maken": 586,
  "ffie": 14042,
  "riere": 5960,
  "\u0120munteenheid": 13699,
  "ala": 3938,
  "\u013c": 167,
  "\u0120ontbreekt": 5331,
  "\u0120ped": 9186,
  "\u0120sporen": 7288,
  "getal": 14622,
  "afrik": 14933,
  "\u0120laarzen": 12342,
  "\u0120spot": 8136,
  "wat": 534,
  "\u0120vervelende": 11517,
  "\u0120spannen": 3673,
  "rode": 7077,
  "\u0120lied": 2187,
  "reizen": 14743,
  "\u0120reken": 2249,
  "\u0120banen": 9883,
  "\u0120kenmer": 2495,
  "organisatie": 6012,
  "\u0120event": 6370,
  "\u0120sporten": 6751,
  "toer": 8074,
  "\u0120tt": 11825,
  "\u0120opera": 8065,
  "ari": 1092,
  "vaak": 8967,
  "ks": 985,
  "gooid": 13605,
  "\u0120onderhouden": 13119,
  "\u012084": 13237,
  "\u0120grijs": 6333,
  "iester": 12908,
  "dien": 1705,
  "\u0120tat": 9975,
  "\u0120slu": 9629,
  "ilm": 15861,
  "leen": 9127,
  "\u0120golden": 14178,
  "1774": 13169,
  "\u0120overb": 11414,
  "aasd": 4267,
  "\u0120suzan": 8011,
  "\u0120poe": 6626,
  "elementen": 15870,
  "getallen": 15603,
  "dem": 1568,
  "\u0120contin": 6886,
  "schak": 6442,
  "\u0120katholieken": 11246,
  "\u01202002": 4110,
  "\u0120fonte": 10608,
  "\u0120bleek": 3584,
  "tuin": 8905,
  "\u0120voeden": 12026,
  "\u0120ged": 673,
  "\u0120medailles": 13408,
  "\u0120ontle": 11925,
  "ries": 14095,
  "\u0120ann": 4809,
  "\u0120bevrijden": 11576,
  "ofoon": 9716,
  "\u0120hij": 300,
  "\u0120rende": 4850,
  "\u0120uitgestorven": 10411,
  "\u0120gevierd": 7083,
  "\u0120tekort": 7452,
  "\u0120geduld": 14905,
  "ondens": 15919,
  "speel": 8668,
  "\u0120samenwerking": 5691,
  "\u0120werkst": 6804,
  "\u0120fotosynthese": 15494,
  "\u0120rat": 4049,
  "\u0120onderwerpen": 6587,
  "\u0120realis": 10804,
  "\u0120ak": 8815,
  "\u0120europa": 1729,
  "\u0120dag": 799,
  "\u0120zeventig": 10633,
  "vings": 8390,
  "\u0120spect": 9424,
  "\u0120stemde": 14226,
  "\u0120schijnt": 7230,
  "liepen": 14903,
  "\u0120paniek": 8781,
  "\u0120janneke": 5842,
  "foon": 1988,
  "\u0120artemis": 6053,
  "\u0120erom": 8085,
  "\u0120verba": 7930,
  "oestel": 11602,
  "geeft": 6090,
  "\u0120verschillend": 8128,
  "\u0120bag": 9515,
  "\u0120puntje": 12510,
  "\u0120messi": 14271,
  "cess": 13026,
  "tele": 5388,
  "\u0120plato": 14603,
  "\u0120vertrouwen": 6550,
  "\u0120alf": 9221,
  "\u0120dit": 387,
  "jama": 13507,
  "ittle": 13109,
  "relatie": 14889,
  "\u0120alarm": 10004,
  "\u0120zweef": 13902,
  "\u0120betere": 6133,
  "\u0120toekom": 3046,
  "\u0120bond": 3747,
  "inn": 1362,
  "ke": 373,
  "dur": 8860,
  "vroe": 6904,
  "\u0120ig": 10149,
  "\u0120iets": 697,
  "\u0120wind": 2180,
  "\u0120stuart": 15731,
  "\u0120vat": 7831,
  "1667": 10340,
  "\u0120echter": 1641,
  "eense": 11830,
  "anning": 3067,
  "\u0120jor": 14356,
  "\u0120verdacht": 12290,
  "\u0120team": 3093,
  "\u0120propag": 10683,
  "\u0120bijvoeg": 10773,
  "gan": 12762,
  "\u0120voornaam": 8492,
  "iana": 6598,
  "straal": 11950,
  "lokaal": 14893,
  "\u0120schoot": 4679,
  "\u0120rach": 15231,
  "gas": 4081,
  "\u0120uiteraard": 12784,
  "\u0120gouverneur": 7893,
  "\u0120poster": 7121,
  "kenning": 11152,
  "\u0120bedr": 14113,
  "\u0120mel": 1750,
  "\u0120pruik": 11849,
  "\u0120amazone": 13529,
  "\u0120josse": 9856,
  "keren": 7544,
  "\u0120": 140,
  "amse": 5313,
  "plaatjes": 12259,
  "sinds": 6602,
  "ologie": 2990,
  "\u0120ond": 6837,
  "\u0120lieverd": 13320,
  "\u0120solo": 12949,
  "\u0120bolletje": 15525,
  "oken": 4133,
  ")": 14,
  "ock": 3002,
  "\u0120tun": 5023,
  "aakte": 7026,
  "\u0120londen": 4147,
  "\u01201980": 6027,
  "bedankt": 13488,
  "wet": 2758,
  "\u00d0\u00b0": 14331,
  "\u0120hamilton": 11653,
  "\u0120vig": 13606,
  "\u0120reizen": 4205,
  "dok": 13363,
  "igan": 15151,
  "\u0120zei": 720,
  "\u0120vol": 433,
  "\u0120vliegtuig": 2619,
  "\u0120som": 5212,
  "\u0120nederlandstalige": 14803,
  "oeste": 13482,
  "sorry": 9463,
  "\u0120instelling": 15462,
  "ight": 5637,
  "ertijd": 6306,
  "jurk": 15629,
  "\u0120reda": 9567,
  "petrus": 15144,
  "\u0120schol": 4980,
  "\u0120familieleden": 12354,
  "outen": 5654,
  "ily": 13728,
  "\u0120('": 9407,
  "sproces": 12207,
  "\u0120eenheid": 7116,
  "\u0120afstanden": 9962,
  "\u0120s": 212,
  "schuwen": 10043,
  "\u0120technische": 8342,
  "\u0120sl": 571,
  "\u0120gep": 2683,
  "\u0120oorspron": 3206,
  "\u0120klant": 8393,
  "\u0120carolina": 13835,
  "\u0120praag": 13416,
  "sel": 795,
  "agden": 14718,
  "\u0120vracht": 3604,
  "\u0120zuidoosten": 12777,
  "aliteit": 2501,
  "bestuur": 5881,
  "537": 10265,
  "\u0120aanpassing": 15360,
  "schoon": 13341,
  "\u0120sigar": 8883,
  "\u0120',": 10027,
  "\u0120taylor": 7738,
  "oedt": 7807,
  "\u01201925": 15579,
  "\u0120end": 10370,
  "\u0120vogel": 2203,
  "\u0120laatst": 7096,
  "\u0120burgemeester": 3752,
  "\u0120neutronen": 15851,
  "inke": 4478,
  "\u0120rak": 5365,
  "\u0120gordijn": 11177,
  "\u0120zware": 3844,
  "precies": 9877,
  "\u0120kastje": 14914,
  "\u0120concept": 13687,
  "outer": 6686,
  "\u0120uitgezet": 12578,
  "\u0120labor": 8828,
  "\u0120succesvol": 7479,
  "\u0120dergelijk": 14839,
  "ondertussen": 13950,
  "\u0120cent": 1414,
  "\u0120walvissen": 12227,
  "\u0120tut": 12409,
  "\u0120soc": 1708,
  "factor": 13842,
  "\u0120tegelijk": 3540,
  "\u0120koolhydraten": 12335,
  "\u0120begrijpen": 5474,
  "\u0120duik": 4609,
  "\u0120reactor": 9584,
  "levensloop": 11421,
  "se": 325,
  "\u0120kwik": 11194,
  "\u0120kussen": 6867,
  "amine": 7392,
  "aus": 6634,
  "\u0120cijfers": 3930,
  "\u0120don": 1458,
  "rem": 7175,
  "\u0120veroverd": 8217,
  "krij": 6645,
  "\u0120>": 13012,
  "\u0120ontvoerd": 15286,
  "\u0120tromp": 10714,
  "\u0120kermis": 9076,
  "mit": 9445,
  "rijken": 10976,
  "\u012045": 5050,
  "tim": 8559,
  "\u0120schil": 1676,
  "\u0120opricht": 12712,
  "\u0120vakjes": 15167,
  "\u0120pauw": 13518,
  "\u0120vreem": 3068,
  "ador": 8896,
  "\u0120broeikaseffect": 12706,
  "\u0120room": 7285,
  "\u0120zoet": 5919,
  "\u0120carl": 11128,
  "breuk": 15892,
  "dioxide": 5856,
  "\u0120koninklijk": 11574,
  "\u0120lar": 7081,
  "ussen": 557,
  "\u0120neemt": 2316,
  "\u0120eeuwen": 5471,
  "\u0120vanavond": 4202,
  "ampt": 10653,
  "verga": 15911,
  "inium": 7014,
  "scherm": 8527,
  "\u0120oranje": 2730,
  "ymp": 2583,
  "\u0120indonesie": 5502,
  "\u0120trouwde": 5271,
  "\u0120bloedsom": 14117,
  "\u0120beloofd": 10471,
  "\u0120telt": 5698,
  "\u0120abel": 8728,
  "\u0120hoogleraar": 13147,
  "zende": 12672,
  "\u0120combinatie": 6208,
  "\u012027": 3297,
  "opgave": 2285,
  "\u0120publieke": 8166,
  "ab": 533,
  "\u0120traditie": 8509,
  "\u0120onderzoek": 1177,
  "\u00d9": 120,
  "\u0120knikte": 5694,
  "\u0120lat": 3092,
  "\u0120tank": 9352,
  "\u0120gepest": 10622,
  "\u0120minuten": 2310,
  "\u0120rups": 12084,
  "\u0120keizers": 14197,
  "hand": 1861,
  "geschoten": 11697,
  "iv": 701,
  "boeken": 3715,
  "org": 928,
  "\u0120verschilt": 7707,
  "verbod": 14421,
  "\u0120passende": 15845,
  "\u0120minstens": 5198,
  "77": 3940,
  "rump": 5992,
  "ruik": 462,
  "eeren": 13258,
  "oera": 9963,
  "\u0120wijn": 4725,
  "\u0120rijke": 4641,
  "\u0120opleiding": 5831,
  "\u00c2\u00b0": 4493,
  "\u0120inval": 14385,
  "\u0120vereniging": 6948,
  "\u0120ochtend": 3707,
  "riv": 6028,
  "donald": 10189,
  "ice": 2219,
  "acul": 10522,
  "\u0120benauwd": 14941,
  "\u0120sling": 11206,
  "\u0120prive": 9458,
  "\u0120del": 3018,
  "itser": 4602,
  "gelegd": 3120,
  "naam": 3367,
  "\u0120territorium": 11842,
  "\u0120cre": 3607,
  "\u0120gam": 12327,
  "ossing": 2315,
  "\u0120pok": 9779,
  "\u0120aanpassen": 11519,
  "\u0120drogen": 13008,
  "ash": 5088,
  "\u0120haha": 15582,
  "\u0120brak": 5821,
  "\u0120us": 7640,
  "\u0120gezamenlijke": 15319,
  "lok": 9416,
  "\u0120opkomen": 12554,
  "\u0120twijfel": 10696,
  "\u0120vetten": 12010,
  "brak": 11282,
  "\u0120vierkant": 8588,
  "\u0120gesloopt": 13155,
  "ronken": 8189,
  "731": 10363,
  "\u0120span": 1590,
  "towinst": 9944,
  "rijven": 1136,
  "\u0120lak": 12995,
  "\u0120relig": 4517,
  "\u0120kijkers": 13928,
  "\u0120nog": 388,
  "\u01201971": 10397,
  "\\'": 12626,
  "\u0120waterl": 13166,
  "waar": 851,
  "\u0120verrast": 13485,
  "o": 57,
  "\u0120gehand": 10964,
  "\u0120elektronen": 9593,
  "oris": 4660,
  "aging": 13315,
  "847": 10187,
  "springen": 11012,
  "\u0120christelijk": 12621,
  "juist": 4390,
  "raal": 2896,
  "oefend": 11773,
  "voering": 4878,
  "\u0120zuin": 11992,
  "\u010c": 139,
  "ublieft": 14639,
  "\u0120buitenste": 15345,
  "\u0120stekels": 14192,
  "alanyl": 2658,
  "\u0120pav": 13821,
  "inderen": 3927,
  "\u0120inle": 11253,
  "\u0120regionale": 10983,
  "\u0120vijver": 8353,
  "\u0120voertuigen": 14048,
  "rekte": 11544,
  "\u0120ontdekte": 7417,
  "\u0120spell": 4930,
  "dacht": 12790,
  "\u0120verantwoordelijk": 6039,
  "\u0120otto": 8963,
  "bab": 7011,
  "\u0120gekoppeld": 13603,
  "\u0120idee": 1747,
  "\u0120xxiii": 15940,
  "\u0120hokjes": 14454,
  "\u0120blik": 3304,
  "\u0120vezels": 15966,
  "\u0120sle": 1200,
  "\u0120vereenvoud": 13097,
  "\u0120plezier": 5913,
  "\u0120bacter": 3468,
  "cho": 9230,
  "\u0120perman": 14194,
  "\u0120vanwege": 2756,
  "\u0120youtube": 1493,
  "\u0120mythe": 15175,
  "\u0120brulde": 15702,
  "\u0120drop": 8245,
  "\u0120gladi": 15424,
  "vervuiling": 12232,
  "inge": 8417,
  "\u0120homoseks": 14942,
  "\u0120voormalig": 13314,
  "\u0120verrassing": 9633,
  "\u0120voerden": 15619,
  "\u0120schaatsen": 8515,
  "\u0120instrument": 5377,
  "\u0120beperking": 11739,
  "ffeur": 6516,
  "\u0120afgele": 4422,
  "1161": 10534,
  "igings": 14407,
  "ienten": 6148,
  "nic": 11919,
  "veren": 2511,
  "\u0120gratis": 4860,
  "\u0120kwaad": 4516,
  "\u0120kanten": 6258,
  "\u0120serie": 2903,
  "\u0120suus": 12856,
  "\u0120zogeheten": 4278,
  "ur": 250,
  "\u0120belangrijkste": 2140,
  "igt": 4254,
  "voer": 1501,
  "\u0120{": 7841,
  "687": 10204,
  "\u0120world": 6492,
  "boeren": 12420,
  "ooien": 2830,
  "\u0120staaf": 9562,
  "agne": 5912,
  "\u0120fiet": 2766,
  "\u00c3": 104,
  "vaardig": 15456,
  "\u01209": 1047,
  "onne": 6295,
  "anneke": 4240,
  "\u0120helik": 8513,
  "\u0120conclusie": 4874,
  "ak": 271,
  "\u0120branden": 5080,
  "\u0120dagelijkse": 11199,
  "alisme": 4277,
  "\u0120cath": 13848,
  "685": 10174,
  "ope": 14311,
  "\u0120communiceren": 13638,
  "\u0120spijker": 7742,
  "alisten": 15711,
  "zeven": 12216,
  "krijg": 14817,
  "\u0120hieraan": 14663,
  "\u0120weleens": 7916,
  "\u0120werkstuk": 8726,
  "\u0120medel": 11050,
  "moord": 10389,
  "letjes": 6695,
  "\u0120douche": 9174,
  "\u0120differen": 15107,
  "\u0120klappen": 11728,
  "\u0120naut": 11314,
  "ockholm": 13196,
  "\u0120speciaal": 3602,
  "\u0120trillingen": 15895,
  "\u0120eurovisiesongfestival": 10081,
  "\u0120yout": 1445,
  "rukt": 3482,
  "\u0120getekend": 4122,
  "dav": 12614,
  "\u0120ass": 5161,
  "hel": 2689,
  "raf": 1893,
  "\u0120opvang": 9177,
  "\u0120iris": 6132,
  "\u0120britten": 5387,
  "\u0120rob": 2231,
  "\u0120televisiezen": 14365,
  "afbeelding": 9063,
  "\u0120trainen": 10548,
  "vraag": 4634,
  "\u0120bv": 10130,
  "\u0120beg": 551,
  "\u0120herh": 9437,
  "\u0120minu": 1896,
  "\u0120afvoer": 15957,
  "\u0120gevaarlijk": 3532,
  "inus": 2131,
  "\u0120arabische": 7659,
  "\u012022": 2690,
  "\u0120huishoudens": 11448,
  "400": 13506,
  "\u0120mensenrechten": 14109,
  "heeft": 4736,
  "\u0120verwarming": 12090,
  "\u0120hormonen": 15492,
  "\u012080": 4026,
  "\u0120lithium": 15046,
  "\u0120har": 1518,
  "\u0120lol": 9296,
  "ama": 960,
  "nation": 2387,
  "\u0120kooi": 8550,
  "\u0120symbool": 5980,
  "oosters": 12564,
  "\u0120beest": 4315,
  "izers": 11834,
  "\u0120kareltje": 6421,
  "\u0120bewol": 13028,
  "\u0120onjuist": 5901,
  "wijn": 10253,
  "eefd": 5808,
  "\u0120zeehond": 10934,
  "91": 4038,
  "\u0120mini": 8506,
  "\u0120voorspelling": 14890,
  "\u0120tijdperk": 9839,
  "izer": 2417,
  "kal": 10640,
  "\u0120wal": 2568,
  "\u0120velden": 13843,
  "\u0120ongelijk": 10338,
  "\u0120gevaarlijke": 7580,
  "\u0120afscheid": 9057,
  "\u0120an": 1215,
  "\u0120milj": 1275,
  "roken": 1576,
  "ankelijk": 1980,
  "\u0120recre": 12103,
  "\u0120opge": 1232,
  "\u0120skel": 8347,
  "\u0120bruine": 6267,
  "reinig": 13823,
  "\u0120vermoorden": 10047,
  "var": 7740,
  "\u0120nor": 14355,
  "\u0120gelder": 11754,
  "enveen": 12054,
  "\u0120sport": 2049,
  "\u0120kiezers": 13697,
  "fd": 649,
  "\u0120wachten": 2841,
  "\u0120gijs": 7714,
  "\u0120ruilen": 13167,
  "\u0120lichaam": 1769,
  "\u0120volwassenen": 5509,
  "\u0120wout": 15217,
  "amilton": 11118,
  "red": 3885,
  "\u0120hass": 13135,
  "ketens": 15241,
  "\u0120geschikt": 4472,
  "\u0120persoonsvorm": 6619,
  "\u0120weerstand": 6493,
  "\u0120beinvloeden": 10498,
  "merkt": 6915,
  "hebben": 5745,
  "\u0120tientallen": 6784,
  "pos": 12747,
  "\u0120braken": 13658,
  "ers": 345,
  "\u0120smeer": 14463,
  "\u0120bestrijden": 10116,
  "apparaat": 9641,
  "\u0120hits": 11868,
  "\u0120visser": 8270,
  "\u0120dansen": 4719,
  "\u0120bert": 6667,
  "\u0120get": 1206,
  "\u0120boys": 13024,
  "\u0120uitleg": 2762,
  "\u0120kuip": 13768,
  "standig": 2892,
  "\u0120gibraltar": 14207,
  "at": 193,
  "\u0120panda": 11621,
  "kam": 6145,
  "dire": 11947,
  "genaam": 15083,
  "\u0120geschat": 14750,
  "\u0120,": 3369,
  "\u0120gr": 362,
  "vliegen": 10010,
  "gebouwen": 12774,
  "\u0120t": 199,
  "\u0120trokken": 7348,
  "nist": 15946,
  "kwaliteit": 15618,
  "rium": 7184,
  "\u0120gemeenschap": 7490,
  "\u0120grinnikt": 14762,
  "\u0120edelen": 12508,
  "ij": 185,
  "\u0120vergroten": 10887,
  "\u0120e": 197,
  "\u0120we": 318,
  "\u0120effect": 4623,
  "spieren": 9813,
  "@": 37,
  "wapens": 14435,
  "pele": 14614,
  "\u0120san": 4866,
  "\u0120scheids": 8857,
  "\u0120attracties": 8745,
  "\u0120potlood": 8214,
  "\u0120hek": 4482,
  "rat": 2502,
  "\u0120126": 8866,
  "\u0120jager": 10440,
  "ot": 226,
  "hals": 14922,
  "\u0120balkenende": 15015,
  "\u0120binnenkort": 6812,
  "sper": 8585,
  "king": 944,
  "\u0120inc": 9658,
  "weer": 1869,
  "\u0120alsjeblieft": 10197,
  "\u0120vergelijkbaar": 7431,
  "\u01201986": 8652,
  "\u0120mcdonald": 14853,
  "rom": 5211,
  "\u0120sold": 8102,
  "\u0120wandeling": 15041,
  "\u0120journaal": 14565,
  "reedt": 11150,
  "deeld": 2196,
  "\u0120nauwelijks": 4795,
  "qui": 12170,
  "\u0120bordje": 11144,
  "\u0120wand": 3107,
  "\u0120sterkte": 13567,
  "\u0120invoer": 12436,
  "\u0120roofdieren": 13039,
  "\u0120noordwesten": 14342,
  "d": 46,
  "\u0120poppen": 6703,
  "\u0120overstroming": 15357,
  "seel": 15717,
  "nest": 9803,
  "amer": 751,
  "\u0120twintigste": 6764,
  "\u0120gl": 1030,
  "wering": 15874,
  "\u0120lezer": 7158,
  "\u0120ruim": 1373,
  "\u0120star": 5869,
  "\u0120tekenfilm": 14840,
  "\u0120met": 264,
  "ise": 3164,
  "\u0120italie": 2956,
  "elt": 755,
  "ianen": 4541,
  "\u0120lost": 12766,
  "\u0120nieuw": 588,
  "\u0120filos": 4245,
  "\u0120sams": 14289,
  "\u0120handel": 3403,
  "\u0120cito": 15414,
  "\u0120boter": 4886,
  "ranken": 12698,
  "ido": 12815,
  "uut": 3714,
  "\u0120egyptische": 10537,
  "\u0120werkloos": 6063,
  "\u0120ontdekt": 3513,
  "\u0120bmw": 13478,
  "\u0120nettowinst": 13957,
  "rapt": 9627,
  "sat": 12791,
  "tekens": 14439,
  "organisaties": 8326,
  "\u0120ir": 7394,
  "blaas": 10809,
  "\u0120ijsland": 8628,
  "\u012082": 13616,
  "ager": 4263,
  "oa": 12587,
  "\u0120compl": 8179,
  "toren": 8569,
  "leucylleucyl": 14645,
  "tig": 2765,
  "\u0120plaat": 674,
  "\u0120onderdruk": 15258,
  "\u0120zonnig": 15317,
  "keringen": 14359,
  "\u0120louise": 14852,
  "\u0120aardbevingen": 10483,
  "\u0120naar": 339,
  "leiden": 15763,
  "wijzer": 8775,
  "\u0120koeien": 5068,
  "1939": 8365,
  "\u0120stoep": 7654,
  "get": 235,
  "\u0120migratie": 8941,
  "\u0120veiliger": 13240,
  "\u0120republikeinse": 8913,
  "417": 10091,
  "\u0120verschillende": 862,
  "deringen": 10873,
  "\u0120zien": 700,
  "\u0120col": 1847,
  "\u0120verzw": 13123,
  "lagen": 4515,
  "\u0120renaissance": 9193,
  "\u0120holle": 10896,
  "klap": 15165,
  "\u0120stap": 1396,
  "jo": 7282,
  "uurd": 3628,
  "1046": 10153,
  "beste": 7692,
  "\u0120gemengd": 13201,
  "marijn": 7694,
  "arabie": 11103,
  "\u0120dichter": 4530,
  "ics": 9509,
  "oep": 538,
  "weef": 10198,
  "vloe": 13517,
  "\u0120univers": 2435,
  "straat": 4507,
  "\u0120kol": 2236,
  "acy": 13267,
  "gelegen": 6231,
  "wegen": 1982,
  "\u0120geheime": 6534,
  "dheid": 13624,
  "aand": 5202,
  "\u0120kerken": 7108,
  "ballon": 11904,
  "\u0120signaal": 7904,
  "energie": 9531,
  "\u0120happ": 14951,
  "urt": 2301,
  "\u0120stoomm": 15400,
  "onische": 9244,
  "zwemmen": 15045,
  "fi": 13332,
  "\u0120redenen": 2240,
  "ummie": 2480,
  "\u0120zwitserland": 5555,
  "\u0120tina": 14215,
  "\u0120algemeen": 3696,
  "\u0120zons": 11151,
  "8": 29,
  "\u0120meth": 4479,
  "ossingen": 8298,
  "\u0120slowakije": 12821,
  "ott": 5628,
  "\u0120regering": 1724,
  "\u0120sus": 8122,
  "\u0120sprint": 13898,
  "\u0120albanie": 11243,
  "\u0120oefenen": 6052,
  "\u0120behoefte": 11024,
  "iaans": 6842,
  "dis": 7426,
  "geschikt": 15685,
  "\u0120parad": 10103,
  "\u00b5": 92,
  "\u0120plantjes": 14321,
  "\u0120personages": 6911,
  "\u0120voorbeeld": 2145,
  "\u0120kopieerblad": 13130,
  "\u0120miljoenen": 4976,
  "\u0120vernietigen": 14298,
  "\u0120waarvan": 2885,
  "\u0120tropisch": 9264,
  "cieel": 8768,
  "bots": 15706,
  "lengte": 8640,
  "\u0120grand": 9248,
  "\u0120autom": 4138,
  "\u0120slaapt": 6140,
  "peters": 13627,
  "\u0120limonade": 12163,
  "\u0120indische": 12964,
  "colle": 8483,
  "\u0120goede": 1078,
  "arte": 1904,
  "\u0120vos": 4543,
  "\u0120rolt": 13107,
  "\u0120dim": 14056,
  "rad": 7504,
  "na": 543,
  "\u0120helpt": 4018,
  "\u0120vroege": 6943,
  "aamde": 5877,
  "\u0120werelddeel": 15440,
  "ball": 3156,
  "\u0120verbeter": 4680,
  "\u0120tekstfragment": 9390,
  "\u0120tik": 8667,
  "cies": 1321,
  "\u0120gezien": 1470,
  "chem": 5558,
  "falt": 15628,
  "\u0120populatie": 10551,
  "zui": 13283,
  "\u0120staf": 14926,
  "\u0120hune": 15832,
  "hoep": 13410,
  "wood": 8283,
  "\u0120riep": 2230,
  "noem": 3071,
  "\u0120ad": 1210,
  "\u0120uitb": 15028,
  "\u0120pian": 14035,
  "wormen": 14131,
  "dh": 9320,
  "\u0120zorgden": 11375,
  "\u0120gedraaid": 14546,
  "\u012077": 12961,
  "oen": 351,
  "\u0120wereld": 737,
  "bescherm": 7528,
  "\u0120ziek": 1691,
  "\u0120dolfijn": 11566,
  "\u0120juist": 1467,
  "\u0120veront": 7675,
  "\u0120linus": 15990,
  "\u0120inwoners": 1875,
  "\u0120ziel": 5730,
  "gelaten": 4579,
  "\u0120schaam": 12816,
  "\u0120hierover": 9154,
  "spre": 2711,
  "\u0120engel": 1560,
  "bre": 3835,
  "ijk": 255,
  "orst": 5709,
  "\u01201956": 9887,
  "etaker": 13678,
  "\u0120onderweg": 5974,
  "\u0120afkomst": 12818,
  "\u0120ted": 4950,
  "boel": 4812,
  "othe": 5179,
  "\u0120hoesten": 15961,
  "intjes": 8824,
  "teurs": 13808,
  "\u0120ges": 3998,
  "\u0120onderzocht": 4910,
  "adel": 6479,
  "\u0120com": 2111,
  "\u0120bedekt": 7606,
  "route": 9365,
  "rec": 6705,
  "\u0120doet": 939,
  "\u0120bleken": 15209,
  "604": 9924,
  "genen": 11181,
  "':": 15653,
  "\u0120inkomen": 3514,
  "\u0120relaties": 12465,
  "\u0120bijten": 9399,
  "\u0120floor": 7693,
  "\u0120vlad": 14747,
  "\u0120cru": 6524,
  "\u0120slaapkamer": 10329,
  "\u0120beroeps": 9586,
  "\u0120toekomstige": 11391,
  "\u0120win": 8205,
  "\u0120ne": 392,
  "\u0120beneden": 2512,
  "velde": 14028,
  "\u0120gevochten": 10063,
  "\u0120hing": 7529,
  "\u012015": 1117,
  "\u0120texel": 12296,
  "zelf": 794,
  "eles": 5700,
  "\u0120ondersche": 4317,
  "\u0120boeren": 2723,
  "\u0120aant": 893,
  "\u0120polymeer": 14284,
  "04": 4350,
  "\u0120schat": 3086,
  "gi": 13181,
  "903": 7853,
  "\u0120vis": 1175,
  "verhalen": 9665,
  "\u0120aruba": 14666,
  "\u0120neder": 470,
  "\u0120aangebracht": 10598,
  "\u0120rit": 4718,
  "steld": 4365,
  "\u0120internation": 2764,
  "\u0120uitoefenen": 15556,
  "\u0120calixtus": 10143,
  "\u0120*": 5284,
  "denken": 5320,
  "\u0120pan": 2757,
  "\u00ac": 84,
  "\u0120toenemen": 6485,
  "\u0120eduard": 5897,
  "\u0120vier": 953,
  "\u0120millimeter": 14821,
  "iswaar": 14954,
  "plicht": 8447,
  "1316": 12597,
  "gek": 4806,
  "rive": 15514,
  "\u0120floris": 15129,
  "\u0120spoorlijn": 7581,
  "\u0120techn": 2510,
  "\u0120dierenpark": 9511,
  "laan": 14712,
  "enig": 1064,
  "\u0120maatschappelijk": 11373,
  "\u0120gedronken": 11435,
  "\u0120dwars": 6005,
  "gemene": 5927,
  "xx": 321,
  "\u0120900": 12677,
  "ctar": 9151,
  "\u0120mezelf": 8544,
  "\u0120gedrag": 3557,
  "\u0120schouw": 15791,
  "\u0120verdampt": 15343,
  "\u0120google": 1498,
  "denking": 12389,
  "\u0120raak": 3189,
  "\u0120slechts": 3021,
  "\u0120uitgaan": 12997,
  "\u0120beweging": 3827,
  "\u0120apple": 11476,
  "\u0120cornelius": 14859,
  "haren": 11582,
  "gaan": 1230,
  "spreek": 5505,
  "\u0120def": 10439,
  "\u0120kelt": 14098,
  "\u0120vloek": 14313,
  "aalt": 1978,
  "\u0120gaatje": 10677,
  "\u0120ontevreden": 14591,
  "\u0120beer": 3391,
  "\u0120kraan": 7279,
  "\u0120philips": 14760,
  "enn": 8936,
  "\u0120mine": 10391,
  "\u0120hind": 7849,
  "eeuw": 1375,
  "\u0120koninginne": 15805,
  "instrument": 8138,
  "od": 539,
  "\u0120ion": 14250,
  "uren": 703,
  "\u0120overl": 2637,
  "\u0120home": 14029,
  "oogst": 15723,
  "\u0120inte": 9288,
  "\u0120edward": 12447,
  "vijf": 9164,
  "uister": 2813,
  "\u0120000": 9194,
  "\u0120sterke": 4560,
  "\u0120baasje": 9867,
  "\u0120140": 13268,
  "\u0120revolution": 12846,
  "ificatie": 7127,
  "gebroken": 5921,
  "\u0120fir": 11054,
  "\u0120bedoelen": 15384,
  "\u0120elektr": 1951,
  "diederik": 13423,
  "\u01201976": 9348,
  "\u0120opstaan": 13629,
  "\u0120ontvang": 6236,
  "tweede": 9621,
  "\u0120halfrond": 12923,
  "\u0120but": 5279,
  "\u0120ergens": 2645,
  "films": 6872,
  "ode": 1564,
  "coln": 9217,
  "\u0120tax": 7716,
  "\u0120proces": 3555,
  "velt": 7564,
  "\u0120lever": 4336,
  "\u0120beschrijf": 10764,
  "\u0120robert": 5570,
  "')": 10942,
  "dor": 4230,
  "emma": 14528,
  "\u0120verplaatsen": 9406,
  "yrinus": 15817,
  "\u0120schepen": 3908,
  "\u0120raadsel": 12925,
  "ikken": 2826,
  "\u0120kar": 1386,
  "\u0120maakt": 1171,
  "onderd": 6034,
  "spullen": 12671,
  "\u0120duif": 12305,
  "\u0120geholpen": 7100,
  "\u0120kist": 6155,
  "\u0120meub": 8147,
  "it": 214,
  "\u0120matthijs": 15929,
  "urende": 4244,
  "schaal": 9557,
  "riel": 15367,
  "\u0120kusje": 12687,
  "fort": 8842,
  "\u0120filipijnen": 12546,
  "unen": 7513,
  "\u0120schm": 15637,
  "\u01201947": 12333,
  "\u0125": 144,
  "minste": 5844,
  "\u0120botten": 6462,
  "\u0120hil": 6135,
  "\u00ce": 111,
  "4": 25,
  "\u0120begrafenis": 15323,
  "\u0120nadat": 2801,
  "ules": 6734,
  "rijdt": 15087,
  "belde": 14240,
  "\u0120be": 240,
  "\u0120hoogst": 12676,
  "ingse": 14466,
  "\u0120roose": 9431,
  "\u0120gered": 6343,
  "acties": 10450,
  "\u0120beantwoording": 8171,
  "\u0120oceaan": 4474,
  "\u0120toil": 8097,
  "\u0120netto": 13146,
  "\u00dc": 123,
  "\u0120schilderij": 2882,
  "\u0120fle": 8079,
  "\u0120wanneer": 1707,
  "\u0120paral": 15163,
  "okk": 2670,
  "sje": 11796,
  "station": 3623,
  "\u0120gif": 8698,
  "arginyl": 5942,
  "\u0120wereldwijde": 12740,
  "\u0120voldoen": 3657,
  "\u0120uitgaven": 7685,
  "ish": 5543,
  "buis": 7777,
  "vertel": 6388,
  "\u0120late": 10112,
  "\u0120demonstranten": 14122,
  "\u0120region": 8702,
  "\u0120gekocht": 4908,
  "\u0120supers": 15411,
  "eken": 1024,
  "\u0120redactie": 13387,
  "\u0120goden": 5841,
  ").": 653,
  "aartje": 7097,
  "\u0120aankomen": 7756,
  "raam": 13289,
  "\u0120veertien": 8853,
  "lit": 14273,
  "\u0120verb": 822,
  "kelijke": 3874,
  "\u0120gesticht": 7557,
  "\u0120sergius": 6481,
  "\u0120koen": 4685,
  "\u0120plakken": 8485,
  "\u0120legend": 14102,
  "\u0120lyn": 13287,
  "\u0120ingele": 15632,
  "ce": 784,
  "\u0120ingrijpen": 11682,
  "?'": 666,
  "kker": 1052,
  "\u0120zwerf": 13967,
  "\u0120willekeurige": 10967,
  "kans": 13436,
  "ami": 7927,
  "staten": 6646,
  "\u0120begreep": 9121,
  "\u0120rugzak": 9982,
  "\u0120meiden": 5943,
  "\u0120nemen": 1752,
  "\u0120hans": 5114,
  "\u0120lieten": 6884,
  "\u0120vermist": 15169,
  "\u0120lievelings": 13041,
  "\u0120instrumenten": 7708,
  "int": 710,
  "30": 1656,
  "\u0120rembrandt": 11534,
  ",'": 507,
  "\u0120mais": 8096,
  "\u0120goedkop": 12393,
  "\u0120hoeft": 3187,
  "\u0120lun": 9752,
  "\u0120disco": 15680,
  "ian": 1281,
  "\u0120schoor": 9649,
  "nieuwe": 7561,
  "\u0120ondersteunt": 12470,
  "\u0120sit": 10133,
  "\u0120tev": 4480,
  "\u0120glim": 4505,
  "deze": 1866,
  "\u0120pog": 12098,
  "\u0120daarachter": 13490,
  "\u0120commiss": 12257,
  "\u0120dichterbij": 8556,
  "17": 1003,
  "\u0120refrein": 15623,
  "oeien": 2381,
  "\u0120bekijken": 4331,
  "\u0120aa": 8163,
  "\u0120diep": 3135,
  "osus": 13464,
  "uizen": 1011,
  "\u0120gemene": 9647,
  "\u0120graven": 6779,
  "\u0120j": 216,
  "\u0120nr": 6905,
  "kasteel": 9291,
  "\u0120oorlog": 1309,
  "\u0120class": 11440,
  "\u0120slovenie": 13466,
  "\u0120bren": 1937,
  "\u0120twente": 8683,
  "ance": 4166,
  "\u0120islam": 4869,
  "\u0120kringloop": 12074,
  "voeding": 8427,
  "oden": 1350,
  "\u0120daarvan": 3305,
  "996": 9115,
  "\u0120gast": 5244,
  "jun": 9826,
  "denk": 4129,
  "\u0120structuurformule": 9452,
  "1404": 10448,
  "\u0120nobelprijs": 15944,
  "\u0120chinezen": 11306,
  "aans": 2361,
  "isabeth": 9238,
  "\u0120knippen": 9225,
  "\u0120introductie": 13004,
  "\u0120stroom": 2044,
  "\u0120tweet": 7381,
  "ork": 2883,
  "anners": 13296,
  "boer": 6251,
  "\u0120madel": 13711,
  "\u0120gaat": 494,
  "942": 10286,
  "ummies": 10031,
  "\u0120mythologie": 8840,
  "\u0120conclus": 13515,
  "\u0120tijd": 635,
  "\u0120london": 15907,
  "\u0120plak": 5922,
  "\u0120pra": 4262,
  "\u0120brief": 2355,
  "\u0120herinnert": 15780,
  "\u0120stukjes": 4371,
  "\u0120apparaten": 7447,
  "\u0120cyprus": 13111,
  "\u0120hoo": 520,
  "\u0120\u00c9\u013b": 1653,
  "\u0120ernaar": 12482,
  "\u0120tentoonstelling": 7971,
  "\u0120uitgeverij": 15449,
  "\u0120behoren": 4000,
  "kte": 2305,
  "\u0120zag": 1605,
  "\u0120drukken": 7642,
  "\u0120frisdrank": 13769,
  "onna": 15949,
  "virus": 14354,
  "\u0120zeuren": 15991,
  "\u0120lin": 2916,
  "\u0120pindakaas": 14606,
  "\u0120bewegingen": 9220,
  "\u0120lis": 15296,
  "\u0120bes": 3959,
  "\u0120nogmaals": 13142,
  "\u0120betekende": 6813,
  "\u0120verzorging": 13547,
  "\u00c3\u00b8": 7012,
  "\u0120republikeinen": 10635,
  "\u0120dagboek": 9849,
  "and": 258,
  "slagen": 2682,
  "\u0120wereldrecord": 11018,
  "\u0120nul": 9901,
  "\u0120godin": 9772,
  "\u0120onschuldig": 15142,
  "\u0120klem": 9618,
  "ichten": 2370,
  "ogen": 1395,
  "\u0120dummie": 2938,
  "woorden": 1349,
  "uze": 5455,
  "\u0120voeten": 4318,
  "\u00da": 121,
  "\u0120florida": 10592,
  "loop": 2350,
  "\u0120vrouw": 1243,
  "att": 7075,
  "\u0120laagje": 10360,
  "\u0120zonder": 1277,
  "\u0120schreef": 3302,
  "\u0120momp": 5719,
  "\u0120lijken": 3786,
  "ales": 6701,
  "teen": 10914,
  "\u0120doelpunten": 9014,
  "\u0120atl": 4098,
  "\u0120atletiek": 15746,
  "hydraten": 11946,
  "\u0120ezel": 7859,
  "\u0120uitgebreid": 6344,
  "inkeltje": 5101,
  "\u0120jackson": 7391,
  "65": 5476,
  "\u0120prest": 7383,
  "\u0120bosch": 10030,
  "\u0120muur": 2807,
  "\u0120duwen": 10210,
  "\u0120dec": 3631,
  "groepen": 4852,
  "pl": 654,
  "\u0120valt": 1775,
  "zone": 7046,
  "innen": 577,
  "vand": 14054,
  "ife": 8155,
  "\u0120moeras": 12971,
  "\u0120verpakking": 12231,
  "\u0120terugk": 15387,
  "\u0120beweringen": 7749,
  "\u0120kabels": 13541,
  "\u0120bekijk": 3702,
  "\u0120kopieer": 11087,
  "\u0120opeens": 3801,
  "\u0120overd": 7307,
  "iete": 5238,
  "\u0120prot": 8197,
  "ids": 1108,
  "\u0120zetel": 8213,
  "iteren": 13608,
  "aff": 4891,
  "orth": 6173,
  "\u0120hak": 9881,
  "\u0120das": 8946,
  "head": 13647,
  "\u0120podium": 7248,
  "\u0120mexicaanse": 11305,
  "\u0120geloven": 4411,
  "lotte": 9038,
  "\u0120rena": 7695,
  "\u0120sjon": 15314,
  "\u0120bir": 8838,
  "comm": 8131,
  "\u0120opzicht": 3812,
  "\u0120vooraan": 11636,
  "\u0120driek": 15033,
  "\u0120bah": 8209,
  "\u0120historische": 6397,
  "\u0120pix": 14335,
  "gave": 1435,
  "\u0120akker": 9167,
  "\u0120wel": 366,
  "\u0120inheemse": 9175,
  "\u0120partij": 1080,
  "\u0120favor": 6503,
  "gal": 4381,
  "winkel": 5607,
  "\u0120billen": 13252,
  "och": 8377,
  "28167842": 10319,
  "\u0120wonnen": 9039,
  "\u0120lou": 4742,
  "\u0120fries": 5878,
  "\u0120ruw": 13018,
  "\u0120koolstof": 4155,
  "elke": 8617,
  "\u0120locatie": 8991,
  "oepen": 1611,
  "economie": 10940,
  "zoeken": 4823,
  "\u0120bevroren": 12688,
  "ette": 5197,
  "reking": 14668,
  "\u0120elekt": 1663,
  "oeit": 9534,
  "\u0120songfestival": 8557,
  "daarnaast": 7747,
  "|": 70,
  "eland": 2603,
  "\u0120speeltuin": 10656,
  "\u0120detail": 7855,
  "\u0120voetball": 5848,
  "\u0120consumenten": 6801,
  "\u0120nadruk": 10019,
  "\u0120presenteren": 11699,
  "ulen": 7861,
  "uard": 5335,
  "chester": 11361,
  "1585": 10446,
  "\u0120jac": 3145,
  "iens": 7238,
  "\u0120beste": 1393,
  "\u0120vie": 6902,
  "iders": 6345,
  "\u0120glimlachte": 11809,
  "ons": 1005,
  "spraken": 3026,
  "\u0120bush": 10580,
  "\u0120machtig": 10295,
  "sint": 13247,
  "und": 2160,
  "stedelijk": 15450,
  "etsen": 8193,
  "5": 26,
  "\u0120lachend": 8985,
  "\u0120winkelcentrum": 14320,
  "\u0120menselijk": 9111,
  "\u0120zowel": 2159,
  "nap": 11763,
  "niks": 8183,
  "\u0120centrum": 3476,
  "hongarije": 10190,
  "\u0120genoemde": 7062,
  "indie": 9095,
  "\u0120raad": 3194,
  "stublieft": 14825,
  "\u0120gegeten": 4813,
  "ton": 3461,
  "\u0120aangeboden": 8965,
  "ae": 12382,
  "\u0120zoen": 12697,
  "\u0120verbruik": 8587,
  "\u0120webquest": 9078,
  "\u0120groeiende": 14553,
  "\u0120huur": 5799,
  "konink": 14730,
  "1721": 9370,
  "\u0120stelling": 2550,
  "\u0120handels": 5386,
  "brand": 2584,
  "\u0120stroomsterkte": 12161,
  "\u0120sociale": 3392,
  "iter": 2178,
  "\u012090": 5066,
  "\u0120vervoer": 3668,
  "melk": 7241,
  "\u0120bekendste": 4050,
  "\u0120vleugels": 6355,
  "\u0120volwassen": 3319,
  "grens": 8075,
  "\u0120primaire": 13475,
  "\u0120noot": 6062,
  "aak": 426,
  "elijkheid": 3527,
  "gebergte": 11810,
  "haal": 11249,
  "\u0120brom": 5790,
  "1058": 12255,
  "\u0120motor": 3672,
  "\u0120theat": 10629,
  "19": 718,
  "uizing": 15299,
  "\u0120razend": 10380,
  "laus": 12714,
  "\u0120mechan": 12610,
  "orden": 1736,
  "\u0120vervang": 10734,
  "\u0120sen": 4229,
  "\u0120sloeg": 5395,
  "\u012057": 11226,
  "\u0120check": 7389,
  "ium": 1209,
  "\u0120boog": 5911,
  "\u0120reus": 5742,
  "wedstrijd": 4272,
  "\u0120verdwenen": 4931,
  "\u0120form": 1947,
  "\u0120theater": 4219,
  "\u01201996": 6431,
  "\u0120regelt": 15352,
  "\u0120pa": 1305,
  "\u0120afsche": 6416,
  "\u0120gebruikmaken": 9907,
  "\u0120graf": 2276,
  "\u0120wereldoorlog": 2139,
  "\u0120xxi": 15853,
  "\u0120verboden": 3793,
  "gaande": 7473,
  "ser": 1198,
  "ich": 438,
  "\u0120zwak": 6327,
  "\u0120grootste": 1474,
  "\u0120gezin": 4400,
  "streek": 10839,
  "\u0120alexander": 3081,
  "\u0120zeiden": 7265,
  "\u0120portuge": 9673,
  "\u0120kor": 1648,
  "andid": 3651,
  "\u0120soorten": 1884,
  "verdeling": 6924,
  "\u0120poetin": 12623,
  "\u0120studenten": 4779,
  "behalve": 11710,
  "\u0120scheppen": 15170,
  "\u0120geleverd": 11261,
  "\u0120kaar": 2895,
  "\u0120heen": 1464,
  "uis": 485,
  "\u0120onth": 11886,
  "\u0120bijvoeglijk": 14648,
  "\u0120duiven": 11797,
  "\u0120eerdere": 13582,
  "\u0120studios": 13382,
  "\u0120normaal": 3133,
  "\u0120artis": 13636,
  "regio": 14258,
  "\u0120schem": 6839,
  "\u0120international": 9571,
  "1555": 6494,
  "aardig": 2984,
  "karel": 13451,
  "\u0120maandag": 5532,
  "\u0120spelletjes": 8308,
  "\u0120zwavelzuur": 13837,
  "\u0120lift": 8242,
  "\u0120beck": 12736,
  "\u0120enorm": 2455,
  "rijden": 2099,
  "\u0120potje": 6918,
  "\u0120sch": 311,
  "\u0120planeten": 8777,
  "\u0120toentertijd": 9838,
  "\u0120log": 3192,
  "\u0120fan": 6616,
  "\u0120voice": 14452,
  "75": 2486,
  "\u0120handje": 12982,
  "inet": 3497,
  "gs": 5008,
  "stu": 11990,
  "\u0120nadenken": 7577,
  "osaur": 4021,
  "tain": 8442,
  "ard": 762,
  "umm": 1433,
  "vard": 14130,
  "\u01202025": 10978,
  "**": 8450,
  "\u0120draait": 3597,
  "\u0120jagers": 9012,
  "\u0120heerlijk": 6518,
  "hele": 5904,
  "\u0120prachtige": 5685,
  "\u0120genre": 12372,
  "\u0120palestina": 11683,
  "\u0120varen": 5156,
  "duit": 3782,
  "\u0120zwaartekracht": 9824,
  "\u0120gelijknamige": 13435,
  "\u0120orde": 4450,
  "\u0120hagel": 14269,
  "\u0120sem": 11938,
  "\u013b": 166,
  "ties": 12095,
  "\u0120geleid": 5085,
  "\u0120aparte": 6567,
  "\u0120kruipt": 11643,
  "...'": 2793,
  "\u0120gemakkelijker": 12990,
  "max": 9730,
  "\u0120hum": 5047,
  "\u0120onderstreep": 9978,
  "\u0120tevoorschijn": 8410,
  "\u0120tekenaar": 9731,
  "\u0120mijn": 620,
  "\u0120ident": 6081,
  "\u0120criter": 12922,
  "\u0120gezondheids": 8998,
  "\u0120stuurt": 7674,
  "aanval": 10890,
  "bok": 12383,
  "\u0120besloot": 3640,
  "wanneer": 5857,
  "maat": 3315,
  "\u0120uitger": 7399,
  "\u0120bloemen": 3283,
  "kundigen": 15771,
  "bedden": 14502,
  "\u0120spaar": 5870,
  "\u0120warmte": 4704,
  "\u0120teddie": 7872,
  "\u0120ber": 834,
  "ragen": 791,
  "\u0120stad": 716,
  "schoppen": 14007,
  "\u0120uitwerking": 15868,
  "blij": 4041,
  "sburg": 8798,
  "erijen": 11945,
  "\u0120uitgebracht": 6454,
  "oss": 1530,
  "\u0120sher": 11620,
  "\u0120bladzijde": 4575,
  "\u0120ieder": 887,
  "\u0120app": 1431,
  "moeder": 5480,
  "\u0120smart": 9523,
  "otter": 12592,
  "\u0120boef": 10701,
  "istr": 9278,
  "\u0120stroomt": 4574,
  "\u0120bleven": 5436,
  "\u0120prijs": 2380,
  "\u0120gereden": 8848,
  "\u0120cult": 2130,
  "\u0120qua": 8835,
  "\u0120leger": 1993,
  "\u0120rif": 14161,
  "\u0120vergr": 8437,
  "\u0120vo": 3311,
  "slanden": 11452,
  "ijten": 11470,
  "gedrukte": 13471,
  "\u0120heijn": 14590,
  "bast": 10554,
  "\u012050": 2252,
  "cycl": 11740,
  "nog": 1817,
  "\u0120paulus": 3735,
  "\u0120verslag": 4618,
  "beschrijving": 14571,
  "\u0120kennis": 1318,
  "jes": 397,
  "ingsuit": 11033,
  "basis": 6765,
  "\u0120nakom": 12474,
  "frankrijk": 8334,
  "\u0120uitgezonden": 5542,
  "\u0120categorie": 7152,
  "\u0120vent": 8695,
  "schaap": 14391,
  "rekking": 15342,
  "\u0120subsid": 10812,
  "\u0120deeltjes": 7712,
  "\u0120conflict": 7295,
  "bollen": 11518,
  "\u0120premier": 4519,
  "contra": 14170,
  "\u0120gezondheidsklachten": 10728,
  "\u0120ingewikkel": 12507,
  "aarten": 5664,
  "-)": 9294,
  "\u0120sard": 15950,
  "\u0120eerlijk": 5234,
  "osaurus": 8924,
  "ikids": 1526,
  "lekker": 5204,
  "\u0120zwakke": 11929,
  "argument": 7377,
  "\u0120ivan": 13231,
  "school": 2560,
  "gewicht": 7342,
  "\u0120scheik": 9402,
  "\u0120lilly": 9059,
  "\u0120letter": 2064,
  "belt": 10148,
  "\u0120vari": 5595,
  "\u0120regerings": 11531,
  "vloeistof": 15146,
  "\u0120duits": 1340,
  "\u0120fu": 15467,
  "wen": 9422,
  "\u0120ok": 8276,
  "\u0120ontdekten": 13431,
  "oth": 3777,
  "enk": 13557,
  "qu": 1170,
  "\u0120onderzoekers": 3634,
  "\u0120opzoeken": 9040,
  "ockey": 7649,
  "\u0120toevallig": 8926,
  "rediet": 8502,
  "\u0120huwelijk": 6078,
  "\u0120vor": 1216,
  "oem": 575,
  "ooide": 14927,
  "varken": 10817,
  "offs": 12617,
  "\u0120tunnel": 7213,
  "\u0120romp": 14465,
  "\u0120miri": 10646,
  "\u0120verbaasd": 4683,
  "andere": 6080,
  "\u0120duizenden": 4281,
  "\u0120uitgesproken": 11117,
  "\u0120uitgenodigd": 11652,
  "\u0120bewer": 3775,
  "gegevens": 11099,
  "\u0120chaos": 12263,
  "streep": 5838,
  "\u0120argumentatie": 11777,
  "wijf": 4341,
  "ioenen": 12840,
  "\u0120handelaren": 15205,
  "sma": 14353,
  "\u0120pvv": 9708,
  "\u0120twijf": 5516,
  "\u0120industriele": 8366,
  "\u0120hon": 2453,
  "\u0120rens": 14541,
  "bant": 4065,
  "\u0120bless": 15589,
  "\u0120fabriek": 4429,
  "utam": 3275,
  "pens": 11238,
  "bil": 11218,
  "voort": 6119,
  "woning": 11439,
  "uline": 13072,
  "\u00cf": 112,
  "ander": 369,
  "\u0120mat": 2692,
  "\u0120plank": 8543,
  "\u0120gelegen": 4882,
  "\u0120isabel": 12937,
  "\u0120besteed": 9605,
  "su": 7296,
  "\u0120honderden": 5524,
  "\u0120mooie": 2237,
  "\u0120vorm": 1291,
  "rijn": 8904,
  "shoofd": 9760,
  "\u0120prom": 9579,
  "\u0120maur": 7601,
  "sent": 2384,
  "\u0120ama": 8916,
  "ologische": 4121,
  "\u0120selectie": 11501,
  "\u0120papegaaien": 13968,
  "\u0120zuiden": 2969,
  "\u0120bestaande": 6045,
  "\u0120pinkeltje": 5551,
  "sw": 4099,
  "unda": 11706,
  "\u0120hogere": 5140,
  "\u0120voorstellingen": 15182,
  "\u0120paschalis": 10334,
  "\u0120odys": 14127,
  "\u0120bedrijf": 2110,
  "\u0120universum": 15686,
  "\u0120kru": 1512,
  "\u0120ov": 11412,
  "\u0120darmen": 14814,
  "\u0120markt": 3259,
  "\u0120gebaseerd": 4481,
  "\u0120openbare": 7880,
  "\u0120motief": 12466,
  "haai": 13425,
  "\u0120lacht": 4268,
  "orf": 12387,
  "avond": 2468,
  "\u0120verdedig": 6459,
  "opvang": 11708,
  "\u0120verwar": 7728,
  "\u0120gedr": 10017,
  "\u0120slikken": 14282,
  "omgeving": 13139,
  "\u0120kwijt": 4369,
  "ten": 303,
  "\u0120volksrepubliek": 13033,
  "\u0120waarschijnlijk": 2334,
  "wereld": 4606,
  "\u0120fietst": 9819,
  "doen": 1889,
  "\u0120zakdoek": 13005,
  "\u0120studen": 4076,
  "zar": 14616,
  "versla": 15133,
  "\u0120enkelvoud": 13035,
  "\u0120cou": 6816,
  "\u0120muzikale": 12835,
  "1676": 9630,
  "\u0120wikipedia": 1588,
  "\u0120urbanus": 3978,
  "rift": 1891,
  "\u0120fabrikant": 12525,
  "\u0120mail": 7676,
  "\u0120meid": 12059,
  "dst": 1354,
  "\u0120langzamerhand": 12973,
  "\u01201933": 11244,
  "...\"": 11383,
  "\u0120geregeld": 7744,
  "\u0120files": 13826,
  "\u0120passag": 5966,
  "\u0120spreekt": 4849,
  "1159": 10527,
  "\u0120ontvoer": 11752,
  "\u0120ruiter": 14176,
  "\u0120inhoudt": 13890,
  "\u0120wilhelm": 6844,
  "\u0120biedt": 7165,
  "\u0120tegenstelling": 6086,
  "\u0120samenleving": 4125,
  "ierd": 4533,
  "\u0120rooms": 6811,
  "\u0120lunch": 13906,
  "\u0120gesp": 1328,
  "\u0120help": 6328,
  "\u0120vrije": 3750,
  "\u0120verloren": 3956,
  "inyl": 2489,
  "\u01201932": 11667,
  "foto": 5461,
  "aller": 9007,
  "\u0120tweede": 962,
  "kern": 9232,
  "533": 15844,
  "\u0120onverwacht": 13666,
  "\u0120uitgedrukt": 13428,
  "aal": 320,
  "\u00e0": 125,
  "\u0120bat": 3675,
  "\u0120afgenomen": 10643,
  "nederland": 3473,
  "2002": 13448,
  "\u0120dier": 1451,
  "\u0120onderneming": 11675,
  "ovjet": 3011,
  "\u0120lampjes": 14453,
  "belasting": 7162,
  "rika": 2463,
  "super": 11023,
  "ni": 7896,
  "c": 45,
  "\u0120donor": 14018,
  "\u0120man": 587,
  "gestuurd": 15273,
  "\u0120costa": 13419,
  "\u0120kron": 14835,
  "ijdens": 874,
  "oeder": 3031,
  "bevel": 14495,
  "\u0120tent": 3384,
  "schepen": 6908,
  "\u0120do": 2269,
  "\u0120waren": 644,
  "drukt": 5600,
  "104": 3005,
  "\u0120locomot": 10938,
  "uela": 12165,
  "\u0120mus": 1540,
  "\u0120oekraine": 4301,
  "\u0120gemeten": 6365,
  "\u0120doorgaat": 15956,
  "\u0120capit": 13811,
  "\u0120term": 4971,
  "\u0120moeilijker": 8325,
  "stukje": 15584,
  "\u0120polen": 3986,
  "filmd": 9594,
  "\u0120bijeenkomst": 14093,
  "\u0120nationaal": 4790,
  "\u0120schaat": 5264,
  "\u0120dochters": 10660,
  "urs": 3393,
  "stelsel": 4029,
  "\u0120wezens": 10172,
  "\u0120show": 5153,
  "gedraaid": 14975,
  "\u0120gar": 3228,
  "\u0120omvat": 8931,
  "\u0120griekenland": 4603,
  "\u0120stevig": 5716,
  "\u0120terwijl": 1449,
  "vier": 5472,
  "kruid": 10813,
  "\u00d0": 113,
  "\u0120tran": 2542,
  "\u0120binas": 8999,
  "zeggen": 14036,
  "\u0120groepjes": 9401,
  "28": 4024,
  "\u0120gezell": 4993,
  "\u0120toch": 695,
  "ontwerp": 15543,
  "ganger": 12446,
  "\u0120herinneren": 11232,
  "arrest": 10288,
  "\u0120antarctica": 15558,
  "\u01201912": 12531,
  "\u0120griep": 8784,
  "\u0120gestemd": 11850,
  "\u0120zodat": 1949,
  "\u0120bjorn": 10909,
  "hedraal": 6832,
  "rieken": 4681,
  "\u0120microfoon": 9273,
  "atisch": 3974,
  "moderne": 14237,
  "mun": 15455,
  "lucht": 5036,
  "88": 3764,
  "\u0120scand": 10478,
  "schappelijke": 5046,
  "\u0120ly": 14334,
  "\u0120alpen": 8266,
  "\u0120filosof": 5748,
  "\u0120dinosauriers": 13329,
  "\u0120vervuiling": 14699,
  "\u0120may": 9977,
  "bloemen": 9980,
  "\u0120chromosomen": 15897,
  "eerd": 722,
  "\u01201983": 10481,
  "\u0120buitenland": 4188,
  "\u0120kalm": 13272,
  "\u0120cir": 2536,
  "\u0120eend": 5084,
  "code": 8673,
  "\u0120oogsten": 14344,
  "\u0120vriendschap": 10669,
  "\u0120space": 13212,
  "\u0120marcel": 12896,
  "1550": 15795,
  "omstandigheden": 11300,
  "craft": 9625,
  "\u0120wegge": 9129,
  "caretaker": 13691,
  "kinder": 10093,
  "'d": 3446,
  "\u0120tenzij": 13987,
  "\u0120californie": 8192,
  "pelen": 5852,
  "\u0120moh": 10041,
  "\u0120verzorgings": 13718,
  "aba": 14339,
  "\u0120zijden": 13845,
  "met": 1156,
  "\u0120pig": 11995,
  "\u0120mickey": 9305,
  "\u0120tony": 12829,
  "\u0120boe": 7088,
  "ssa": 13778,
  "werper": 10325,
  "\u0120professionele": 14429,
  "\u0120enth": 6129,
  "oernooi": 14522,
  "golf": 11003,
  "gezond": 8024,
  "\u0120vriendinnen": 8767,
  "\u0120go": 6042,
  "wagens": 7301,
  "\u0120mannetjes": 6617,
  "ique": 7272,
  "cm": 8055,
  "rijke": 6699,
  "\u0120roze": 6426,
  "argumenteer": 8656,
  "bie": 3102,
  "glycyl": 6372,
  "\u0120delf": 14290,
  "vang": 2323,
  "\u0120ontbrekende": 14858,
  "\u0120dordrecht": 13115,
  "\u012099": 13424,
  "\u0120im": 1938,
  "\u0120ren": 1689,
  "aca": 6014,
  "spellen": 13874,
  "\u0120lichaamstemperatuur": 14363,
  "cit": 13362,
  "lah": 12042,
  "werk": 1224,
  "\u0120hevige": 14162,
  "\u0120steunde": 14047,
  "\u0120gehe": 1876,
  "arium": 6496,
  "gin": 5359,
  "\u0120overdag": 8593,
  "\u0120eraf": 7741,
  "techn": 7786,
  "dracht": 1356,
  "\u0120grappen": 12533,
  "\u0120leugen": 12988,
  "these": 10971,
  "\u0120volg": 2194,
  "\u012023": 2823,
  "houd": 1297,
  "\u00b6": 93,
  "seizoen": 8145,
  "\u0120stijging": 9104,
  "stijd": 6180,
  "\u0120democratisch": 12141,
  "ques": 11546,
  "appen": 2206,
  "\u0120controle": 4001,
  "ardo": 10546,
  "\u0120verdiepingen": 14268,
  "\u0120thuis": 1722,
  "\u0120skelet": 10333,
  "\u0120beth": 14191,
  "\u0120moo": 1944,
  "appel": 6956,
  "\u0120zogenoemde": 9596,
  "\u0120roepen": 4749,
  "fen": 3004,
  "\u0120zover": 7016,
  "\u0120gene": 5661,
  "\u0120revolutie": 4113,
  "\u0120apart": 6383,
  "\u0120dionysius": 15019,
  "\u0120terecht": 2785,
  "\u0120leraren": 7436,
  "ika": 8234,
  "houdt": 6336,
  "1691": 10492,
  "hydr": 10531,
  "\u0120gedachte": 7308,
  "\u0120astronauten": 11459,
  "\u0120reist": 9713,
  "schau": 14037,
  "\u0120windmolen": 13785,
  "erdinand": 8599,
  "\u0120pakje": 10717,
  "\u0120einde": 2016,
  "middag": 4170,
  "\u0120communic": 6321,
  "\u0120vl": 670,
  "\u0120individ": 5697,
  "chel": 10238,
  "\u0120ap": 5389,
  "\u0120beweren": 15350,
  "\u0120spoed": 14929,
  "\u0120boodschappen": 6572,
  "gevers": 9106,
  "\u0120besluit": 3578,
  "\u0120menig": 14105,
  "uiker": 10479,
  "\u0120scheidsrechter": 11331,
  "\u0120ofwel": 10891,
  "\u0120metingen": 11829,
  "\u0120gestraft": 15727,
  "\u0120korting": 11142,
  "\u0120paras": 11195,
  "\u0120gemeen": 1185,
  "\u0120somm": 1333,
  "1012": 10256,
  "yer": 7805,
  "ouk": 11635,
  "aart": 790,
  "\u0120verpleeg": 10552,
  "\u0120donetsk": 14842,
  "2014": 11060,
  "\u0120voedingsstoffen": 8645,
  "555": 9718,
  "\u0120belde": 12441,
  "\u0120champ": 6942,
  "opol": 9231,
  "%.": 6541,
  "\u0120strepen": 10722,
  "sproduct": 13948,
  "\u0120krokod": 6894,
  "john": 11067,
  "\u0120deur": 1720,
  "parag": 5889,
  "\u0120amf": 13054,
  "\u0120kantine": 11342,
  "raan": 10572,
  "hai": 8429,
  "\u0120bende": 11126,
  "\u0120cate": 5228,
  "99": 2239,
  "\u0120nij": 5752,
  "chter": 555,
  "\u0120alaska": 12201,
  "em": 1137,
  "\u0120ontvangen": 5129,
  "\u0120stekel": 14164,
  "\u0120amerika": 3010,
  "redien": 10487,
  "rest": 4754,
  "\u0120aardappelen": 11614,
  "ban": 8841,
  "vaardigheid": 12092,
  "\u0120verklaren": 7851,
  "borg": 10011,
  "omm": 607,
  "agon": 9472,
  "poeder": 14863,
  "stat": 10828,
  "vatten": 14396,
  "\u0120regen": 1697,
  "gaand": 13587,
  "hee": 2621,
  "\u0120record": 4997,
  "\u0120ruit": 7355,
  "gedrag": 7901,
  "6": 27,
  "rastructuur": 12051,
  "\u0120rod": 7575,
  "azie": 6861,
  "yes": 9644,
  "ias": 6151,
  "\u0120mich": 3201,
  "\u0120veget": 11463,
  "\u0120aanwez": 6443,
  "jaard": 4639,
  "\u0120roosmarijn": 9561,
  "\u0120katten": 5636,
  "\u0120mieren": 10272,
  "\u0120lut": 7860,
  "\u0120bo": 495,
  "staande": 2517,
  "\u0120toegekend": 5965,
  "pit": 14561,
  "\u0120waard": 5920,
  "\u0120uitbarsting": 14219,
  "\u0120marloes": 11755,
  "\u0120uiteindelijk": 1727,
  "\u0120ging": 777,
  "\u0120sensor": 12428,
  "baller": 12317,
  "kant": 1767,
  "\u0120ina": 14619,
  "aars": 1779,
  "\u0120gilt": 10606,
  "\u0120laten": 1091,
  "\u0120etc": 10865,
  "\u0120willen": 1282,
  "druk": 2281,
  "\u0120prooi": 8386,
  "\u0120wakker": 3693,
  "\u0120zijn": 265,
  "okee": 6523,
  "ortus": 15722,
  "kings": 4689,
  "\u0120ijsselmeer": 12473,
  "\u0120helaas": 5780,
  "\u0120vijf": 1397,
  "\u00f0": 136,
  "\u0120cor": 1997,
  "\u0120tes": 14770,
  "\u0120ss": 13891,
  "48": 5207,
  "grond": 2587,
  "\u0120overal": 2948,
  "\u0120restaurant": 4276,
  "\u0120geur": 5946,
  "\")": 10639,
  "\u01202015": 3758,
  "verhouding": 14388,
  "oeps": 10724,
  "\u0120accent": 15393,
  "2008": 12088,
  "\u0120groen": 1557,
  "zichtig": 3564,
  "\u0120zetmeel": 12963,
  "\u0120beleid": 5254,
  "\u0120stalen": 11897,
  "\u0120plaatsvindt": 10894,
  "+": 16,
  "unning": 12607,
  "\u0120has": 11015,
  "uwer": 15996,
  "\u0120tachtig": 8134,
  "\u0120weet": 858,
  "vergelijking": 10501,
  "\u0120raden": 10775,
  "\u0120bewoond": 11735,
  "\u012012": 1208,
  "\u0120toont": 9570,
  "ende": 3500,
  "\u0120tom": 2426,
  "hit": 10052,
  "\u0120spiegel": 5231,
  "\u0120stadhouder": 9045,
  "655": 15020,
  "\u0120klimaatverandering": 9787,
  "cre": 12402,
  "ietske": 14966,
  "\u0120koning": 965,
  "\u0120dek": 5425,
  "lieden": 7058,
  "\u0120na": 411,
  "\u0120concer": 14755,
  "\u0120verdrag": 6430,
  "\u0120zwem": 2053,
  "scoach": 15017,
  "ax": 11845,
  "klik": 14501,
  "ello": 12182,
  "\u0120geschrokken": 6858,
  "\u0120krabbel": 9360,
  "\u0120for": 4163,
  "sle": 7607,
  "\u0120films": 3739,
  "\u0120veroorz": 3220,
  "\u0120signalen": 14782,
  "\u0120put": 7666,
  "\u0120inh": 6520,
  "n": 56,
  "\u0120maal": 5667,
  "amerika": 3766,
  "\u0120carna": 9428,
  "131": 15230,
  "aling": 2148,
  "\u0120child": 14864,
  "\u00ce\u00b1": 13576,
  "\u012068": 10970,
  "\u0120eronder": 10135,
  "\u0120bijzondere": 4273,
  "ecten": 3591,
  "nooien": 15365,
  "grafiek": 13838,
  "part": 2314,
  "\u0120broers": 6212,
  "\u0120bar": 1887,
  "bakken": 12642,
  "\u0120bier": 6413,
  "\u0120afdeling": 8621,
  "\u0120speelden": 7611,
  "\u0120wellicht": 14902,
  "\u0120mam": 3108,
  "\u0120ruik": 15879,
  "\u0120vrol": 4185,
  "teit": 14772,
  "\u0120voedingsmiddelen": 15893,
  "\u0120omstandigheden": 6147,
  "\u00a1": 73,
  "\u0120minim": 4607,
  "\u0120alex": 2261,
  "lazen": 4158,
  "\u0120batter": 6178,
  "\u0120warm": 1994,
  "\u0120verkochte": 15889,
  "\u0120die": 278,
  "\u0120durfde": 10869,
  "\u01201995": 6271,
  "ikker": 2153,
  "\u0120fragment": 4223,
  "ere": 450,
  "useum": 14830,
  "\u0120sol": 2135,
  "\u01204": 581,
  "person": 7932,
  "\u0120niks": 1709,
  "rene": 15642,
  "\u0120eef": 4393,
  "\u0120krokodil": 9274,
  "\u0120flessen": 8482,
  "\u0120informatiebron": 3933,
  "\u0120kat": 1211,
  "\u0120beschrijft": 8503,
  "\u0120voorwerp": 5218,
  "\u0120vermogen": 4142,
  "gevoegd": 4053,
  "\u0120pierre": 12147,
  "\u0120beperkt": 8604,
  "toets": 11867,
  "jawel": 7420,
  "\u0120hemel": 5390,
  "\u0120compleet": 9131,
  "\u0120wikikids": 1555,
  "molecuul": 15698,
  "\u0120ijzer": 3711,
  "jaars": 11485,
  "\u0120menu": 12463,
  "\u0120piep": 5757,
  "7": 28,
  "\u00b2": 89,
  "\u0120dil": 12792,
  "psen": 11847,
  "ierland": 8419,
  "\u0120zand": 2245,
  "\u0120ander": 418,
  "niet": 1629,
  "boom": 3611,
  "ya": 3921,
  "\u0120led": 11008,
  "\u0120sof": 10674,
  "\u0120aminozuren": 15320,
  "\u0120dode": 6460,
  "\u0120arbeids": 4627,
  "\u0120verga": 4884,
  "\u0120waar": 359,
  "\u012035": 4061,
  "\u0120...'": 6019,
  "\u0120verzekering": 15695,
  "oeibaar": 11860,
  "fl": 1923,
  "\u0120brengen": 2509,
  "\u0120tweel": 6882,
  "\u0120hormoon": 11841,
  "\u0120trok": 3478,
  "eldoorn": 13048,
  "\u0120leopold": 10289,
  "waardoor": 14734,
  "\u0120jol": 12213,
  "emen": 4119,
  "ing": 237,
  "ieland": 12419,
  "\u0120gan": 8277,
  "weefsel": 11274,
  "\u0120diam": 6363,
  "\u0120youssef": 12760,
  "\u0120gesc": 14491,
  "oeh": 5581,
  "mir": 12708,
  "pakken": 4785,
  "mob": 13998,
  "ors": 5134,
  "\u0120mia": 13700,
  "aai": 13604,
  "stan": 10307,
  "van": 682,
  "daad": 3610,
  "inka": 14283,
  "knop": 11376,
  "\u0120landschappen": 12999,
  "\u01204000": 13144,
  "any": 10463,
  "\u0120pokemon": 14456,
  "istieken": 14280,
  "identen": 12045,
  "\u0120gedrukt": 9951,
  "\u0120afsluit": 13800,
  "\u0120luther": 10982,
  "\u0120nap": 3436,
  "glyc": 5397,
  "\u0120vakanties": 10310,
  "zan": 10568,
  "\u0120uitvoeren": 6079,
  "\u0120syndroom": 15444,
  "\u0120dochter": 3094,
  "\u0120moorden": 11277,
  "ustral": 3354,
  "mers": 11935,
  "\u0120geschiedenis": 2808,
  "ische": 488,
  "oloog": 5952,
  "schen": 14744,
  "\u0120midd": 3162,
  "\u0120gepleegd": 11163,
  "\u0120minecraft": 13203,
  "\u0120sprake": 3455,
  "\u0120vervoeren": 9423,
  "offels": 14968,
  "\u0120supporters": 15166,
  "kele": 1741,
  "\u0120benedictus": 2484,
  "graven": 6348,
  "\u0120kilogram": 12120,
  "y": 67,
  "\u0120sant": 8444,
  "hond": 3958,
  "\u0120veroorzaakt": 4258,
  "ung": 8391,
  "\u0120francis": 7080,
  "amsterdam": 11167,
  "\u0143": 174,
  ".\"": 1488,
  "\u0120ouders": 1726,
  "\u0120gearrest": 11922,
  "\u0120bie": 5243,
  "\u0120toorn": 14133,
  "\u0120scholieren": 6563,
  "cie": 2091,
  "\u0120sens": 7618,
  "\u0120sindsdien": 6977,
  "\u0120haard": 15031,
  "sdag": 4416,
  "plan": 7107,
  "fel": 13280,
  "\u0120kond": 13101,
  "odatus": 10417,
  "\u0120uitspraken": 4218,
  "\u0120titel": 3049,
  "\u0120finish": 13689,
  "geluid": 12562,
  "\u0120kok": 5111,
  "una": 5143,
  "\u0120verg": 4031,
  "ume": 6778,
  "\u0120university": 10831,
  "\u0120ox": 9882,
  "arias": 15304,
  "\u0120ri": 5324,
  "aken": 1461,
  "\u0120jury": 7664,
  "\u0120reden": 1360,
  "\u0120beroepen": 11116,
  "\u0120zondag": 4759,
  "\u0120dijk": 5246,
  "uur": 360,
  "icus": 6418,
  "gelegenheid": 8047,
  "cro": 15189,
  "\u0120identiteit": 7948,
  "\u0120bau": 9207,
  "\u0120ollie": 13089,
  "\u0120vredes": 14291,
  "\u0120licham": 10454,
  "yana": 13675,
  "\u0120hoofdkantoor": 12515,
  "otische": 8808,
  "keer": 9285,
  "\u0120kweken": 15105,
  "led": 14467,
  "\u0120communistische": 7009,
  "\u0120controleren": 7698,
  "\u0120seconden": 4249,
  "\u0120industrie": 4509,
  "\u0120nadelig": 15187,
  "ern": 5336,
  "belang": 8951,
  "\u0120deeg": 12793,
  "iveau": 3906,
  "\u0120aud": 9308,
  "\u0120opgebouwd": 7609,
  "astricht": 7178,
  "ubliek": 1737,
  "beker": 10901,
  "\u0120ergste": 12616,
  "\u0120koninkrijk": 2449,
  "hal": 2558,
  "\u01201940": 8211,
  "\u0120maat": 1839,
  "\u0120liegen": 13293,
  "795": 10303,
  "\u0120dieet": 14516,
  "ugo": 8763,
  "\u0120luxe": 8046,
  "\u0120indeling": 9335,
  "ield": 2304,
  "adan": 14870,
  "615": 9945,
  "\u0120heilig": 13449,
  "\u0120dui": 6922,
  "hier": 1248,
  "terrein": 14188,
  "\u0120midden": 1770,
  "onomie": 14297,
  "\u0120roept": 1646,
  "\u0120break": 13150,
  "slecht": 15552,
  "\u0120elastiek": 14964,
  "furt": 13388,
  "\u0120erfelijke": 13716,
  "\u0120strak": 7142,
  "resultaat": 11634,
  "\u0120gaf": 2209,
  "\u0120weggehaald": 13292,
  "ologisch": 7988,
  "\u0120goe": 4105,
  "\u0120kosten": 2929,
  "\u0120paulien": 9981,
  "\u0120wip": 11310,
  "\u0120logeren": 12072,
  "\u0120poes": 2655,
  "\u0120applaus": 15968,
  "sne": 6971,
  "\u0120steekt": 5356,
  "\u0120charles": 6444,
  "\u0120stamp": 15432,
  "\u0120verscheen": 5859,
  "uitgaven": 12668,
  "\u0120eindigen": 12157,
  "\u0120totdat": 6114,
  "\u0120ster": 1101,
  "\u0120ontzettend": 6347,
  "\u0120architectuur": 8770,
  "\u0120begrij": 3211,
  "\u0120rotterdamse": 14700,
  "\u0120uitvoer": 9801,
  "\u0120aansluiten": 12669,
  "\u0120knikkers": 15555,
  "ingt": 2371,
  "\u0120lars": 12198,
  "\u0120downloaden": 13096,
  "\u0120haai": 10630,
  "anto": 12873,
  "\u0120lood": 5352,
  "ici": 7042,
  "oto": 11996,
  "\u01201954": 12594,
  "\u0120naast": 1637,
  "\u0120ach": 9099,
  "heer": 3594,
  "\u0120symbolen": 11271,
  "\u0120sprook": 4792,
  "\u0120tips": 7237,
  "\u0120bank": 2212,
  "\u0120litouwen": 11930,
  "\u0120kabel": 7412,
  "\u0120vloe": 4339,
  "\u0120laboratorium": 10582,
  "\u0120sal": 2926,
  "\u0120experimenten": 12380,
  "\u0120sto": 8007,
  "114": 4896,
  "1591": 7918,
  "\u0120zangeres": 6089,
  "vrouwen": 8766,
  "\u0120schudde": 7302,
  "\u0120oostelijke": 13931,
  "\u0120ver": 239,
  "\u0120hulpverlen": 14883,
  "\u0120agress": 9056,
  "\u0120jongste": 7635,
  "griek": 13657,
  "\u0120gescheiden": 7132,
  "orpen": 14953,
  "\u0120clemens": 2742,
  "\u0120ladder": 10205,
  "606": 14884,
  "issen": 2331,
  "\u0120nucle": 14720,
  "ugen": 6283,
  "\u0120past": 2226,
  "498": 10266,
  "ogie": 6997,
  "\u0120verliest": 9551,
  "\u0120toer": 2220,
  "\u0120zoete": 12369,
  "\u0120buik": 3190,
  "269": 15047,
  "iding": 1251,
  "\u0120tas": 3521,
  "deneer": 9209,
  "\u0120zwaarte": 7662,
  "309": 10263,
  "\u0120ambtenaren": 11916,
  "\u0120emotie": 15741,
  "eeg": 937,
  "\u0120variatie": 15421,
  "\u0120kost": 2642,
  "\u0120market": 12916,
  "\u0120donder": 5290,
  "moleculen": 10504,
  "\u0120adverten": 6193,
  "\u0120millim": 12944,
  "ieter": 7278,
  "\u0120groepje": 5892,
  "\u0120invloed": 2626,
  "kim": 12405,
  "\u0120aantekeningen": 12269,
  "\u0120geweldige": 11409,
  "\u0120neef": 7733,
  "\u0120vogeltje": 11496,
  "ages": 3626,
  "\u01201890": 15542,
  "\u0120afgev": 8125,
  "\u0120ben": 573,
  "\u0120tong": 5887,
  "\u0120ni": 4573,
  "rik": 1043,
  "\u0120bezienswaardigheden": 15249,
  "isse": 4116,
  "alys": 9991,
  "zz": 4265,
  "\u0120provinciale": 8249,
  "uay": 7812,
  "\u0120bidden": 12695,
  "\u0120vinger": 3897,
  "\u0120dorpen": 3863,
  "\u0120stamt": 15934,
  "zuid": 6754,
  "\u0120hengel": 11642,
  "\u0120voorzitter": 5826,
  "\u0120organen": 8720,
  "\u0120opening": 6517,
  "\u00ba": 97,
  "\u0120begonnen": 2782,
  "allen": 744,
  "gra": 2477,
  "\u0120moslim": 5959,
  "\u01201962": 12000,
  "\u0120bakken": 7148,
  "fles": 9574,
  "\u0120beeldbank": 1619,
  "\u0120schreeuwde": 8836,
  "\u0120juichen": 14694,
  "inig": 1578,
  "\u0120andersom": 9033,
  "\u0120postze": 10283,
  "_": 42,
  "\u0120handig": 4720,
  "\u0120katrien": 13927,
  "09": 9724,
  "personages": 12787,
  "\u0120roemenie": 7102,
  "\u0120$": 12933,
  "\u0120zorgde": 3905,
  "1513": 8790,
  "\u0120knikker": 14525,
  "\u0120natuur": 885,
  "\u0120pens": 7066,
  "\u0120sprongen": 10494,
  "\u0120toren": 3408,
  "\u0120bewee": 6185,
  "\u0120verontwaardigd": 13836,
  "zij": 1701,
  "ber": 564,
  "\u0120uitstekend": 14708,
  "\u0120gekweekt": 14836,
  "cd": 9081,
  "\u0120efteling": 7360,
  "\u0120product": 3987,
  "adden": 3784,
  "\u0120fin": 1806,
  "\u0120moet": 416,
  "\u0120streek": 7519,
  "\u0120fe": 1302,
  "democ": 7605,
  "\u0120oekra": 3233,
  "\u0120vermenig": 13434,
  "gom": 11165,
  "eline": 14899,
  "\u0120americ": 10807,
  "\u0120kanaal": 5633,
  "anis": 1378,
  "\u0120prof": 3338,
  "\u0120giech": 11684,
  "\u0120absolute": 11878,
  "volutie": 3400,
  "\u0120noemen": 2375,
  "\u0120music": 4005,
  "aven": 10147,
  "buurt": 6542,
  "ital": 1669,
  "\u0120landschap": 5369,
  "\u0120pu": 5158,
  "\u0120papieren": 9922,
  "\u0120bruik": 11219,
  "\u0120werkwijze": 14748,
  "iet": 256,
  "tene": 7667,
  "vig": 7820,
  "\u0120z": 194,
  "684": 15752,
  "lysyl": 8748,
  "\u0120benoemen": 14443,
  "rijder": 14496,
  "\u0120dood": 1417,
  "achten": 1550,
  "ransport": 13733,
  "elderfgoed": 11536,
  "ontgen": 13853,
  "\u0120hingen": 14657,
  "hoeken": 10708,
  "\u0120haw": 8269,
  "aamd": 4156,
  "\u0120neem": 1583,
  "\u0120verantwoordelijkheid": 11364,
  "vaard": 8313,
  "\u0120sticht": 8383,
  "\u0120hul": 12811,
  "ank": 627,
  "\u0120oppositie": 15493,
  "\u0120utrechtse": 15776,
  "wissel": 15208,
  "\u0120ruimtes": 15007,
  "daag": 1347,
  "\u0120drukker": 15203,
  "lei": 1886,
  "oeiende": 10956,
  "to": 2391,
  "\u0120streep": 4292,
  "iekem": 6272,
  "\u0120verlen": 8930,
  "\u01202000": 2922,
  "\u0120werkgelegenheid": 9100,
  "\u0120aandoening": 11596,
  "engeland": 13863,
  "\u0120holt": 11495,
  "\u0120rani": 12390,
  "endam": 15200,
  "\u0120kathol": 4033,
  "\u0120fractievoorzitter": 15422,
  "brengt": 14847,
  "\u0120company": 15802,
  "\u0120belasting": 4432,
  "orta": 13705,
  "\u0120kik": 5597,
  "\u0120brommer": 12807,
  "\u0120oo": 2027,
  "vin": 987,
  "har": 4826,
  "\u0120studeren": 7657,
  "\u0120palestijnse": 13177,
  "ows": 9202,
  "kop": 3943,
  "hondje": 15779,
  "concent": 13056,
  "ues": 12977,
  "08": 10023,
  "\u0120kloppen": 8251,
  "\u0120succes": 2444,
  "gevoel": 8575,
  "\u0120vijfde": 7240,
  "oven": 1828,
  "\u0120zoon": 2411,
  "\u0120kindjes": 12506,
  "kwal": 13879,
  "\u0120staren": 15373,
  "\u0120jonger": 11433,
  "vo": 2015,
  "rijders": 10665,
  "\u0120massaal": 14366,
  "\u0120respect": 8646,
  "view": 4518,
  "\u0120ontwik": 1561,
  "waarschijnlijk": 12855,
  "ieleden": 11263,
  "\u0120initiatief": 14487,
  "akken": 982,
  "\u0120athene": 9565,
  "\u0120jas": 3165,
  "\u0120stemming": 12929,
  "\u0120ogen": 1548,
  "\u0120krij": 687,
  "\u0120luchtvaart": 9372,
  "\u0120zilveren": 8103,
  "\u01203": 472,
  "zenuw": 15917,
  "\u0120dro": 5354,
  "elekt": 9667,
  "eenkomst": 15671,
  "\u0120oproep": 10540,
  "\u0120opeen": 15635,
  "200": 2505,
  "\u0120kinderarbeid": 12715,
  "\u0120beinvloed": 7775,
  "\u0120thee": 4225,
  "meer": 1150,
  "\u0120musea": 9282,
  "geen": 4626,
  "\u0120hadden": 1106,
  "club": 3911,
  "osla": 5888,
  "\u0120pakistan": 13348,
  "\u0120links": 2852,
  "\u0120daaraan": 10274,
  "\u0120dagelijk": 4944,
  "\u0120kernconcept": 14643,
  "culen": 5975,
  "\u0120heftige": 13573,
  "\u0120scherp": 8299,
  "kundige": 6075,
  "\u0120fas": 7485,
  "\u0120afleveringen": 13664,
  "\u012038": 6489,
  "onde": 2073,
  "uff": 4044,
  "\u0120sh": 1667,
  "\u0120monarchie": 7390,
  "straling": 8304,
  "uste": 11334,
  "\u0120agr": 15863,
  "\u0120allereerste": 13784,
  "elena": 9434,
  "\u0120pakte": 4248,
  "\u0120deelt": 10254,
  "\u0120rechten": 4633,
  "\u0120bijdra": 8446,
  "\u0120wetenschappers": 4867,
  "assingen": 8268,
  "\u0120gekleurd": 11233,
  "beelden": 1942,
  "machine": 4054,
  "ius": 702,
  "\u0120pogingen": 14300,
  "\u0120hoeveelheden": 8553,
  "ila": 8263,
  "atsj": 13219,
  "pod": 11880,
  "vlie": 2880,
  "wassen": 2858,
  "\u0120mountain": 14272,
  "\u0120plaatjes": 4117,
  "\u0120verbond": 15226,
  "sprong": 5366,
  "\u0120fr": 1289,
  "\u0120conflicten": 11146,
  "elten": 8006,
  "\u0120onbew": 11547,
  "\u0120ontwerp": 4483,
  "\u0120spoorweg": 6722,
  "wintig": 8314,
  "\u0120werkte": 4271,
  "\u0120categorieen": 14583,
  "\u0120lijk": 9791,
  "\u0120vroegen": 11158,
  "\u0120eenheden": 15461,
  "\u0120zogenaamd": 12759,
  "\u0120horen": 1628,
  "\u0120rassen": 9740,
  "\u0120graan": 6532,
  "\u0120ross": 15464,
  "raham": 12344,
  "uite": 10395,
  "ulde": 11885,
  "asparag": 6247,
  "ic": 412,
  "\u0120eh": 1905,
  "\u0120gewassen": 8161,
  "wist": 13042,
  "\u0120350": 13492,
  "ind": 403,
  "\u0120zeehonden": 9299,
  "\u0120lenin": 15523,
  "\u0120daartoe": 10916,
  "\u0120u": 805,
  "1216": 8792,
  "\u0120betekenis": 3678,
  "\u0120snoep": 5006,
  "\u0120kring": 5572,
  "\u0120knoppen": 15341,
  "\u0120venus": 13301,
  "\u0120scheep": 7138,
  "\u0120account": 15013,
  "\u0120slotte": 7365,
  "\u0120dvd": 10898,
  "gebracht": 4337,
  "\u0120meneer": 1984,
  "\u0120winkel": 2508,
  "gebruik": 2727,
  "\u0120helemaal": 1025,
  "\u0120kindje": 5245,
  "\u0120knooppunt": 7598,
  "\u0120vel": 4441,
  "\u0120platte": 5806,
  "\u0120hip": 8696,
  "centen": 12108,
  "\u0120randstad": 12757,
  "ijker": 6092,
  "\u0120sin": 10944,
  "\u0120beurs": 11337,
  "inhoud": 2008,
  "\u0120robbie": 6521,
  "\u0120mast": 12874,
  "\u0120leeftijds": 12003,
  "816": 10388,
  "ical": 8718,
  "financ": 15097,
  "\u0120indiaan": 10921,
  "\u0120fc": 5427,
  "centra": 13854,
  "\u01201993": 8068,
  "\u0120pleeg": 11031,
  "\u0120turkse": 7189,
  "omin": 7824,
  "\u0120august": 2874,
  "\u0120cl": 1545,
  "\u0120hypothecaire": 14072,
  "\u0120war": 2454,
  "\u0120munten": 6592,
  "\u0120klok": 4589,
  "\u0120vloeibaar": 12502,
  "eept": 11299,
  "\u0120ontmoet": 4266,
  "\u0120gedachten": 6856,
  "kere": 4476,
  "\u0120lessen": 6183,
  "star": 10741,
  "uldig": 3271,
  "\u0120roel": 12199,
  "\u0120mooiste": 6387,
  "\u0120kud": 12247,
  "pakket": 10550,
  "kap": 4615,
  "\u0120compon": 7827,
  "pad": 4537,
  "\u0120beelden": 3625,
  "\u0120blaadje": 11552,
  "worpen": 5728,
  "\u0120zang": 2888,
  "aving": 10493,
  "1032": 10512,
  "clipjes": 1622,
  "\u0120bemanning": 12358,
  "\u0120vaders": 10823,
  "\u0120letterlijk": 8151,
  "\u0120bewezen": 14959,
  ",\"": 4037,
  "\u0120arena": 9709,
  "vuil": 14713,
  "\u0120se": 1079,
  "\u0120boekje": 4428,
  "\u0120afrika": 3612,
  "ief": 1124,
  "sman": 15707,
  "\u0120abonne": 12921,
  "\u0120bast": 8937,
  "tabel": 10593,
  "gelopen": 2185,
  "icef": 15841,
  "\u0120breedte": 10365,
  "ival": 3148,
  "auto": 2423,
  "\u0120turken": 12680,
  "\u0120zwaard": 8623,
  "\u0120toep": 5393,
  "acter": 3009,
  "imm": 4605,
  "\u0120wolf": 3853,
  "\u0120geintere": 9563,
  "bedrag": 10670,
  "\u0120monte": 14143,
  "\u0120ax": 15825,
  "\u0120allen": 6798,
  "\u0120qu": 2915,
  "\u0120privacy": 14483,
  "\u0120melodie": 8805,
  "683": 14921,
  "\u0120zorgen": 1868,
  "titel": 14211,
  "\u0120gedeeld": 14187,
  "sens": 13799,
  "\u0120jip": 15664,
  "verv": 10099,
  "\u0120milan": 12311,
  "zam": 7711,
  "ktor": 12058,
  "\u0120manen": 13493,
  "\u0120straat": 2151,
  "\u0120brein": 11515,
  "\u0120protestanten": 11021,
  "chine": 2428,
  "wolken": 15693,
  "icetus": 15915,
  "hertog": 12568,
  "\u0120schiet": 4580,
  "\u0120schad": 4465,
  "\u0120werkgevers": 12134,
  "\u0120lijn": 2589,
  "\u0120villa": 9974,
  "'-": 14560,
  "\u0120bud": 10834,
  "\u012079": 12699,
  "\u0120weken": 2613,
  "\u0120afspraak": 8196,
  "\u0120skate": 15176,
  "\u0120heer": 2321,
  "\u0120jarenlang": 9227,
  "ske": 14027,
  "\u0120ethi": 15008,
  "osie": 14281,
  "\u0120wet": 1898,
  "\u0120ul": 13133,
  "dankjewel": 14676,
  "onent": 14034,
  "\u0120beur": 12735,
  "rans": 9668,
  "omas": 3479,
  "\u0120500": 4362,
  "\u0120vertellen": 1963,
  "\u0120winters": 4239,
  "\u0120onrust": 13156,
  "\u0120kna": 11370,
  "\u0120zou": 562,
  "\u0120roodkapje": 15395,
  "\u012d": 152,
  "\u0120dinosaurus": 15626,
  "mariake": 14894,
  "\u0120kart": 5013,
  "\u0120zuidpool": 12920,
  "\u0120sfeer": 8618,
  "\u0120aminozuur": 13993,
  "ound": 7310,
  "aplu": 9895,
  "\u0120scheepvaart": 15939,
  "\u0120marx": 13953,
  "voorzien": 10625,
  "\u0120schildpad": 12381,
  "\u0120blikjes": 14642,
  "\u0120in": 208,
  "\u0120dunne": 6539,
  "\u0120eugenius": 6472,
  "\u0120makkelijk": 2851,
  "kin": 14403,
  "\u0120manchester": 14444,
  "\u0120kathedraal": 7646,
  "\u0120wenk": 11738,
  "\u0120dor": 1407,
  "bevolking": 7337,
  "ruimte": 6464,
  "\u0120nadelen": 8630,
  "\u0120gezinnen": 9934,
  "biljetten": 14612,
  "relig": 13127,
  "\u0120geble": 11637,
  "\u0120politicus": 6331,
  "\u0120dw": 3520,
  "\u0120draaien": 3730,
  "rix": 6871,
  "ypen": 14994,
  "lor": 6170,
  "561": 9763,
  "\u01202006": 3903,
  "\u0120slagen": 11475,
  "\u0120gingt": 15199,
  "\u0120macht": 1857,
  "vezel": 15469,
  "\u0120gev": 504,
  "\u0120podcast": 8363,
  "\u0120tweeling": 8001,
  "\u0120l": 215,
  "\u0120magnet": 9355,
  "\u0120bokken": 15080,
  "wijken": 7028,
  "\u0120kruist": 11759,
  "\u012006": 8651,
  "\u0120sever": 11301,
  "wind": 7897,
  "\u0120dook": 13975,
  "\u0120artiest": 12563,
  "\u0120draad": 5483,
  "mama": 2493,
  "\u0120sme": 11586,
  "\u0120ram": 7061,
  "iste": 4227,
  "heb": 1706,
  "\u0120vergel": 5447,
  "use": 9333,
  "\u0120uiterste": 15315,
  "\u0120lok": 4004,
  "\u0120bosnie": 11127,
  "boe": 8548,
  "voorzitter": 12288,
  "\u0120speelgoed": 5810,
  "maakt": 5663,
  "agers": 5787,
  "\u0120groepen": 3122,
  "aseerd": 4335,
  "\u0120berend": 15294,
  "ppen": 4549,
  "\u0120vormgeving": 8089,
  "\u0120kokkie": 12339,
  "urger": 15334,
  "\u0120tomas": 8919,
  "\u0120organis": 1999,
  "\u0120halfuur": 13218,
  "\u0120ins": 11029,
  "bar": 3070,
  "\u0120vik": 8549,
  "\u0120wangen": 10755,
  "\u0120vies": 4906,
  "1678": 10230,
  "\u0120chauffeur": 8421,
  "\u0120zom": 1575,
  "\u0120gereed": 7572,
  "\u0120aren": 6988,
  "eesten": 4512,
  "uken": 7185,
  "\u0120wilhelmina": 10908,
  "\u0120dokters": 15485,
  "\u0120scheuren": 14936,
  "\u0120zure": 12326,
  "\u0120ol": 1553,
  "\u0120verdediging": 12862,
  "\u0120merkt": 8903,
  "\u0120bereid": 7637,
  "\u0120knap": 5908,
  "\u0120krantenartikel": 15278,
  "\u0120populairder": 14261,
  "\u0120gebruikers": 9906,
  "wie": 2307,
  "\u0120char": 3474,
  "\u0120non": 9004,
  "\u0120aangekomen": 10693,
  "\u0120snapt": 8301,
  "\u0120schotland": 6959,
  "\u0120ijst": 12764,
  "lig": 5807,
  "\u0120gebit": 13650,
  "\u0120daalt": 8981,
  "\u0120jap": 2440,
  "oosten": 4075,
  "973": 14861,
  "\u0120vermoord": 5149,
  "\u0120opgel": 4204,
  "\u0120slechte": 4404,
  "een": 375,
  "76": 2092,
  "ip": 447,
  "\u0120eng": 4942,
  "\u0120golven": 7753,
  "\u0120noem": 1516,
  "oup": 12412,
  "art": 448,
  "\u0120bewustzijn": 13667,
  "ctie": 640,
  "ett": 6033,
  "\u0120hieronder": 2050,
  "aya": 12140,
  "103": 15676,
  "\u0120tijdstip": 10678,
  "\u0120lotte": 12151,
  "kr": 2250,
  "\u0120betaalt": 7160,
  "\u0120bangladesh": 12681,
  "\u0120waaraan": 6409,
  "\u0120gesl": 6488,
  "otheek": 4803,
  "\u0120tiktok": 10089,
  "\u0120fys": 8561,
  "\u0120parijs": 3152,
  "\u0120tu": 6584,
  "percentage": 11510,
  "\u0120avontuur": 8975,
  "\u0120kleedkamer": 15072,
  "ge": 266,
  "\u0120moment": 1878,
  "\u0120fabrieken": 5567,
  "\u0120drama": 12394,
  "urg": 1100,
  "\u0120brazilie": 5297,
  "\u0120meet": 4895,
  "\u0120hondje": 5002,
  "\u0120sug": 10911,
  "\u0120contra": 5652,
  "\u0120elftal": 6738,
  "\u0120voorstel": 6551,
  "\u0120duitsers": 4756,
  "\u0120beledig": 15094,
  "\u0120piet": 3226,
  "\u0120waarover": 9769,
  "cap": 11879,
  "\u0120name": 6297,
  "\u0120elektriciteit": 4380,
  "\u0120glan": 14225,
  "lamp": 6565,
  "\u0120europees": 5281,
  "\u0120mod": 2481,
  "\u0120risico": 5791,
  "\u0120lip": 8445,
  "lement": 2506,
  "\u0120amerikaan": 15800,
  "\u0120rondje": 5682,
  "\u0120gelaten": 10878,
  "\u0120vogeltjes": 15583,
  "\u0120wester": 4247,
  "\u0120johnson": 10049,
  "\u0120woede": 8854,
  "\u0120bossen": 6273,
  "\u0120lachen": 3097,
  "{": 69,
  "\u0120toilet": 10038,
  "\u0120that": 11590,
  "\u0120oblast": 14238,
  "\u0120concurr": 6293,
  "\u0120inge": 1843,
  "\u0120jasje": 12902,
  "jong": 9344,
  "\u0120johan": 5109,
  "oi": 14380,
  "\u0120roosevelt": 9691,
  "onom": 5668,
  "amerikaanse": 7144,
  "\u0120protestant": 8254,
  "wolf": 9050,
  "identified": 4424,
  "ara": 2063,
  "\u0120orleans": 13073,
  "\u0120xiv": 5473,
  "ald": 2410,
  "visitor": 13323,
  "\u0120onru": 7942,
  "urele": 5603,
  "\u0120bleef": 2352,
  "\u0120discussie": 5782,
  "schakeld": 11234,
  "up": 2580,
  "\u0120bezet": 4622,
  "loper": 12692,
  "wordt": 11022,
  "\u0120syrie": 10060,
  "\u0120koel": 5045,
  "slowakije": 12595,
  "\u0120boord": 6749,
  "glutamyl": 6509,
  "ary": 8987,
  "\u0120eenvoudig": 7697,
  "\u0120gezondheidszorg": 12023,
  "onk": 2947,
  "\u0120molens": 15932,
  "ument": 1902,
  "\u0120singapore": 13405,
  "\u0120verkeerde": 7366,
  "\u0120overleefd": 13786,
  "\u0120vrijk": 10326,
  "grepen": 10228,
  "\u0120mannetje": 5289,
  "apend": 15086,
  "\u0120est": 5632,
  "\u0120taxi": 12808,
  "oningen": 13607,
  "\u0120best": 565,
  "sector": 13399,
  "iezen": 1953,
  "\u0120eitjes": 8934,
  "\u0120dictatuur": 12624,
  "eend": 9756,
  "dag": 1127,
  "\u0120caravan": 11563,
  "\u0120vervelend": 7177,
  "itas": 13978,
  "\u0120rente": 6305,
  "\u0120mier": 13206,
  "prem": 15643,
  "dorp": 7235,
  "bare": 1782,
  "ified": 4407,
  "rels": 9575,
  "chr": 4311,
  "\u0120abraham": 13216,
  "sident": 1495,
  "\u0120maagden": 14172,
  "590": 9986,
  "\u0120gebeurde": 3349,
  "\u0120kleuren": 2995,
  "\u0120documentaire": 14350,
  "\u0120cajus": 15933,
  "ches": 13162,
  "\u0120voordelen": 6928,
  "trek": 5759,
  "a": 43,
  "\u0120diesel": 10803,
  "\u0120rot": 1765,
  "vloer": 15581,
  "pf": 14129,
  "\u0120muggen": 12728,
  "\u0120leidt": 4960,
  "\u0120datum": 8871,
  "\u0120schoon": 2591,
  "\u0120advis": 9840,
  "\u0120begrijpt": 8443,
  "\u0120butler": 7474,
  "baas": 14329,
  "aris": 3818,
  "\u0120handelingen": 13294,
  "\u0120am": 938,
  "tegen": 2632,
  "\u0120verwijzing": 11210,
  "\u0120dient": 8507,
  "\u0120pion": 12460,
  "noot": 10615,
  "\u0120spont": 13580,
  "ike": 2738,
  "\u0120steek": 6405,
  "\u0120arriv": 14498,
  "\u0120kan": 400,
  "\u0120drink": 5273,
  "hoofd": 4008,
  "\u0120rust": 4208,
  "fte": 7481,
  "\u0120voedings": 4595,
  "\u0120nieuws": 1768,
  "\u0120verantwoord": 4284,
  "\u0120snijdt": 12044,
  "ia": 473,
  "\u0120socialistische": 10563,
  "\u0120geloof": 2610,
  "noord": 6269,
  "\u0120pr": 553,
  "elaar": 4354,
  "\u0120prenten": 14412,
  "\u0120dichtbij": 6310,
  "\u0120bevel": 9754,
  "\u0120verover": 3249,
  "ijntje": 7549,
  "est": 5934,
  "\u0120schiereiland": 12893,
  "bijvoorbeeld": 7321,
  "\u0120veer": 5493,
  "isering": 9396,
  "oont": 13086,
  "ll": 14434,
  "\u0120lee": 5771,
  "lam": 4232,
  "\u0120kanker": 8392,
  "\u0120sab": 6308,
  "\u0120knopen": 14524,
  "\u0120belt": 9510,
  "\u0120;": 14055,
  "\u0120brink": 9837,
  "\u0120spring": 10356,
  "\u0120titan": 15310,
  "\u0120zoogdier": 15981,
  "game": 13796,
  "oplossing": 8655,
  "sen": 307,
  "\u0120wilson": 14411,
  "ijns": 5184,
  "\u0120enschede": 14540,
  "\u0120feestje": 9864,
  "jul": 4764,
  "raagt": 3127,
  "\u0120y": 813,
  "kru": 4905,
  "\u0120kangoer": 13577,
  "\u0120uniform": 14065,
  "\u0120ertoe": 11898,
  "\u0120geallieerden": 8472,
  "de": 219,
  "\u0120smelt": 8518,
  "pvda": 14682,
  "straks": 10456,
  "braak": 7702,
  "\u0120inf": 6653,
  "\u0120lagere": 6800,
  "\u0120even": 647,
  "rente": 15772,
  "\u0120offic": 2429,
  "\u0120mengsel": 6143,
  "istieke": 15001,
  "\u0120pannen": 9022,
  "\u0120buit": 13915,
  "\u0120gekapt": 13803,
  "\u0120gebruikte": 3215,
  "\u0120bevolking": 2458,
  "\u0120adel": 6610,
  "\u0120locaties": 15849,
  "\u0120legenda": 7778,
  "\u0120jose": 6414,
  "\u0120den": 680,
  "\u0120stamboom": 14399,
  "\u0120habsburg": 14892,
  "\u0120klein": 1013,
  "natuur": 4899,
  "blauwe": 12467,
  "\u0120kab": 3064,
  "\u0120naald": 9601,
  "\u0120ervaren": 8912,
  "\u0120verkiez": 8008,
  "david": 13994,
  "poesje": 14556,
  "\u0120nam": 1069,
  "\u0120amerikaans": 5721,
  "vocht": 14685,
  "rien": 9185,
  "\u0120coupl": 11367,
  "\u00e2": 127,
  "\u0120wisten": 5422,
  "\u0120lenn": 14754,
  "\u0120deb": 4159,
  "\u0120grap": 8902,
  "lein": 7584,
  "kind": 7215,
  "\u012061": 12395,
  "zal": 4216,
  "curs": 12569,
  "\u0120democratie": 4747,
  "\u0120stu": 1996,
  "via": 9598,
  "\u0120geintroduceerd": 15361,
  "\u0120praktische": 14580,
  "\u0120ruiken": 8856,
  "\u0120jong": 1661,
  "\u0120eenden": 13368,
  "\u0120beslist": 9427,
  "\u0120keuzes": 14732,
  "\u0120modern": 8077,
  "\u0120schoof": 10375,
  "\u0120kant": 1408,
  "standigheden": 4713,
  "\u0120vertonen": 13422,
  "eeft": 365,
  "\u0120ernstige": 8490,
  "\u0120scherpe": 8111,
  "\u0120toestemming": 7375,
  "\u0120hollandse": 11644,
  "\u0120prim": 6655,
  "les": 1007,
  "sieve": 14450,
  "\u0120ont": 468,
  "assing": 4692,
  "alia": 11747,
  "\u0120toenemende": 11235,
  "\u0120trump": 6264,
  "com": 4304,
  "\u0120waarschuw": 6126,
  "randen": 4892,
  "\u0120hebben": 452,
  "\u0120onderzoekt": 10104,
  "barde": 8591,
  "mor": 11583,
  "\u0120dubbel": 7335,
  "hands": 15036,
  "press": 4646,
  "bra": 2191,
  "daagse": 6833,
  "oemen": 1363,
  "\u0120300": 5374,
  "\u0120schreven": 12309,
  "\u0120rennen": 4062,
  "\u0120inzicht": 10733,
  "\u012073": 13440,
  "\u0120high": 10025,
  "\u0120absoluut": 9749,
  "\u0120ein": 9828,
  "\u0120vervolgd": 15297,
  "atra": 13394,
  "dit": 1125,
  "afdeling": 14628,
  "\u0120big": 6583,
  "335": 10220,
  "sz": 8038,
  "\u0120achteruit": 6907,
  "\u0120voetballers": 12727,
  "\u0120knee": 12365,
  "\u0120gegevens": 2654,
  "\u0120zender": 7409,
  "\u0120ring": 5010,
  "\u0120staatssecretaris": 11742,
  "\u0120uitvinding": 9484,
  "\u0120sturen": 4364,
  "\u0120cha": 8236,
  "ijnse": 4486,
  "jullie": 5533,
  "ftal": 5186,
  "zo": 812,
  "amb": 3589,
  "\u0120been": 4197,
  "ague": 6373,
  "\u0120demonstratie": 15103,
  "hoed": 11004,
  "pool": 5342,
  "\u0120nobel": 13124,
  "vertrouwen": 15545,
  "ange": 13067,
  "ac": 1262,
  "med": 9529,
  "\u0120aluminium": 8144,
  "zorg": 5100,
  "\u0120ref": 4830,
  "gerust": 13981,
  "\u0120schijnen": 15436,
  "\u0120middeleeuwen": 4567,
  "kst": 599,
  "ublie": 1509,
  "\u0120kamp": 2899,
  "\u0120quint": 7588,
  "\u0120aangeduid": 10684,
  "\u0120lelijke": 14513,
  "\u0120strip": 3724,
  "\u0120wegen": 3533,
  "\u0120rijks": 8580,
  ".,": 8092,
  "\u0120prod": 1286,
  "eedt": 5256,
  "\u0120kolen": 11179,
  "\u0120party": 10703,
  "ilijk": 1815,
  "\u0120uitzen": 4312,
  "\u0120stoffen": 2981,
  "eca": 13958,
  "\u0120geval": 2467,
  "\u0120dennis": 11875,
  "\u0120concert": 6624,
  "iano": 5819,
  "gische": 11600,
  "\u0120just": 5305,
  "machines": 11840,
  "ptomen": 9606,
  "\u0120ang": 2528,
  "\u0120draak": 8081,
  "\u0120krul": 12828,
  "\u0120mg": 8105,
  "\u0120spe": 8762,
  "\u0120wan": 7135,
  "\u0120publiceerde": 12543,
  "ierp": 8484,
  "\u0120oerwoud": 15242,
  "odig": 1068,
  "ensie": 9850,
  "prinses": 10667,
  "\u0120delen": 2213,
  "\u0120doen": 578,
  "reken": 1454,
  "\u0120vaste": 3825,
  "iller": 13118,
  "\u0120eerst": 915,
  "\u0120affiche": 12052,
  "osf": 5112,
  "\u0120fa": 3901,
  "\u0120beschik": 5285,
  "\u0120zaak": 6210,
  "ata": 7653,
  "844": 10186,
  "\u0120journal": 4675,
  "\u0120dollar": 6659,
  "\u0120breng": 10136,
  "\u0120zorgt": 2746,
  "\u0120opstellen": 15826,
  "\u0120deelwoord": 8847,
  "\u0120afschaffing": 15814,
  "\u0120meesten": 12958,
  "kampen": 9947,
  "\u0120mn": 14952,
  "\u0120dict": 7114,
  "\u0120data": 13945,
  "772": 10226,
  "\u0120spoel": 8498,
  "ovic": 14341,
  "andra": 7517,
  "\u0120rapport": 7515,
  "\u0120persoonlijke": 7050,
  "\u0120concentratie": 5634,
  "cijfer": 12638,
  "stof": 1255,
  "\u0120zoveel": 2434,
  "\u0120duitse": 2143,
  "\u0120eruit": 2864,
  "\u0120stapten": 15728,
  "\u0120gouden": 3360,
  "\u0120wasmachine": 15913,
  "ooie": 9780,
  "vens": 4668,
  "\u0120stout": 11972,
  "zinn": 6477,
  "\u0120aldus": 12251,
  "\u0120aardrijk": 12225,
  "doek": 5093,
  "\u0120bass": 13100,
  "zou": 8048,
  "\u0120net": 825,
  "\u0120ris": 4791,
  "paarden": 14304,
  "\u0120kip": 4571,
  "\u0120roos": 3055,
  "\u0120roman": 7647,
  "erd": 2089,
  "\u0120wenkbra": 12038,
  "apen": 1327,
  "\u0120zuidelijk": 11980,
  "\u0120kom": 532,
  "mart": 11005,
  "wijzen": 6244,
  "\u0120nomin": 15053,
  "vis": 1132,
  "ouse": 8958,
  "\u0120zullen": 1955,
  "adem": 4484,
  "\u0120inflatie": 10022,
  "62": 5329,
  "\u0120poly": 9031,
  "\u0120zeeland": 6500,
  "\u0120glazen": 5596,
  "\u0120irrit": 11741,
  "\u0120rusland": 2503,
  "\u0120meld": 7339,
  "\u0120vet": 3212,
  "akte": 7766,
  "\u0120meervoud": 8874,
  "\u0120bijdrage": 8476,
  "regels": 4203,
  "\u01201950": 7636,
  "\u0126": 145,
  "\u0120ongel": 7555,
  "\u0120ouder": 3717,
  "\u0120pas": 1320,
  "onken": 6280,
  "\u012031": 3351,
  "\u0120moeite": 4864,
  "ielen": 3300,
  "oleon": 3896,
  "\u0120lies": 10337,
  "\u0120pastoor": 13447,
  "\u0120koe": 3704,
  "\u0120vincent": 10806,
  "\u0120rok": 8452,
  "horst": 10013,
  "\u0120bevinden": 6322,
  "\u01201918": 8545,
  "\u0120chec": 6303,
  "\u0120spullen": 3171,
  "woord": 622,
  "\u0120voeding": 8918,
  "\u0120bereiken": 4107,
  "ik": 231,
  "ieel": 3154,
  "\u0120roest": 15533,
  "huizen": 3948,
  "\u0120aanst": 15606,
  "hoek": 3008,
  "66": 2953,
  "1040": 15060,
  "74": 2827,
  "bal": 1205,
  "\u0120jesse": 8619,
  "\u0120milaan": 14043,
  "\u0120situatie": 3273,
  "pje": 1976,
  "\u0120sterven": 7188,
  "\u0120netvlies": 15227,
  "opie": 9456,
  "\u0120sovjetunie": 14702,
  "\u0120ja": 667,
  "\u0120peru": 10602,
  "\u0120zegt": 596,
  "\u0120oostenrijkse": 9502,
  "\u0120utrecht": 3076,
  "\u0120keltische": 15704,
  "\u0120verdwijnen": 6311,
  "\u0120job": 11507,
  "\u0120patient": 6153,
  "\u0120stan": 12200,
  "\u0120hamburg": 12989,
  "ville": 10910,
  "op": 302,
  "\u0120adviezen": 8733,
  "oedel": 11955,
  "\u0120emma": 8331,
  "352": 10108,
  "\u0120bezitt": 12716,
  "\u0120spotify": 15425,
  "\u0120alternatief": 11718,
  "eeper": 9844,
  "\u0120derde": 2515,
  "\u0120vochtig": 14232,
  "eum": 2087,
  "\u0120represent": 15505,
  "\u0120sinterklaas": 4925,
  "\u0120achtergelaten": 14041,
  "jam": 4342,
  "\u0120zenuw": 5215,
  "\u0120zwe": 1475,
  "deling": 5539,
  "\u0120kind": 1604,
  "geschreven": 10069,
  "sluitend": 8398,
  "\u0120julius": 6103,
  "\u00c2\u0142": 824,
  "\u0120sound": 15295,
  "ifatius": 3881,
  "\u0120rim": 15152,
  "ild": 10987,
  "\u0120geliefde": 13532,
  "ister": 905,
  "\u0120motiveer": 13530,
  "\u0120dezelfde": 1910,
  "\u0120tum": 13643,
  "1073": 10511,
  "\u0120tassen": 13753,
  "\u0120grij": 4210,
  "zine": 5189,
  "hm": 2116,
  "\u0120ab": 1879,
  "aco": 11385,
  "rier": 14053,
  "\u0120eis": 11525,
  "\u0120wolkenkra": 11580,
  "\u0120dig": 4510,
  "eh": 3053,
  "\u0120zwitserse": 13275,
  "\u0120krab": 4655,
  "dru": 8606,
  "erto": 12422,
  "532": 15482,
  "zelfde": 1115,
  "\u0120aten": 11617,
  "\u0120gemenebest": 14485,
  "\u0141": 172,
  "\u0120koffer": 7650,
  "racht": 613,
  "\u0120ving": 2567,
  "gezondheid": 13969,
  "\u0120ts": 3153,
  "\u0120&": 1283,
  "\u0120herstellen": 9783,
  "kers": 2824,
  "\u0120keuken": 2992,
  "omp": 896,
  "\u0120sneeuwpop": 13521,
  "\u0120veranderd": 4019,
  "\u0120venster": 13197,
  "gelijk": 1383,
  "\u0120rend": 12011,
  "\u0120istan": 12663,
  "\u0120overheen": 10609,
  "ifat": 3879,
  "\u0120verkle": 10838,
  "\u0120zoogdieren": 7719,
  "\u01201948": 8467,
  "oppervlak": 7837,
  "ouwen": 793,
  "back": 12384,
  "\u0120waait": 10797,
  "\u0120trouwens": 5144,
  "884": 10367,
  "\u0120vliegende": 10046,
  "\u0120vliegen": 3182,
  "\u0120hapje": 12472,
  "\u0120zwav": 6989,
  ",": 17,
  "kopen": 12643,
  "\u0120gemeenter": 6605,
  "\u012060": 3486,
  "\u0120avonturen": 8796,
  "\u0120schimmels": 9880,
  "\u0120geschilderd": 11568,
  "europa": 4473,
  "\u0120bewijs": 6755,
  "rij": 334,
  "\u0120nicht": 12097,
  "oret": 14538,
  "rak": 5639,
  "\u0120medicijn": 9855,
  "\u0120dol": 3340,
  "uleerd": 15351,
  "blik": 8080,
  "\u0120su": 1223,
  "cr": 3290,
  "\u0120mil": 838,
  "heven": 10005,
  "\u01201929": 12133,
  "vogel": 4973,
  "ieder": 7182,
  "\u0120comm": 1085,
  "nemer": 6249,
  "\u0120gordijnen": 13243,
  "isda": 13068,
  "\u0120jess": 11623,
  "\u0120premiere": 11806,
  "\u0120winst": 4162,
  "\u0120diersoorten": 11835,
  "\u0120leggen": 2994,
  "\u0120gang": 3178,
  "lessen": 12046,
  "\u0120pru": 4629,
  "\u0120vakken": 8005,
  "\u0120president": 1803,
  "\u0120kortweg": 15682,
  "illy": 6580,
  "\u0120indruk": 5017,
  "\u0120proe": 11193,
  "veiligheid": 11965,
  "\u0120liberale": 9822,
  "kanker": 12226,
  "\u01202019": 3670,
  "\u0120barok": 13379,
  "\u0120jaap": 4538,
  "\u0120bestaan": 1967,
  "gelen": 15022,
  "\u0120schrijfster": 9144,
  "\u012f": 154,
  "\u0120jen": 14217,
  "\u0120sterren": 3912,
  "\u0120arbeidsproduct": 15420,
  "\u0120angstig": 12804,
  "methionyl": 13503,
  "\u0120antwoordt": 5162,
  "bah": 8461,
  "\u0120getroffen": 8316,
  "vormige": 8009,
  "230": 9623,
  "\u0120wenkbrauwen": 13623,
  "\u0120dorp": 2317,
  "\u0120bespreken": 11791,
  "elen": 443,
  "\u0120makkelijker": 6433,
  "ord": 1134,
  "399": 10207,
  "eenheid": 13581,
  "\u0120gemerkt": 14386,
  "\u0120ie": 503,
  "\u0120kees": 4783,
  "\u0120evenals": 11434,
  "\u0120naamwoorden": 11545,
  "\u0120onafhankelijk": 3363,
  "parijs": 14361,
  "winning": 15330,
  "mach": 9696,
  "\u00c2\u0142\u00c2\u0142": 2959,
  "\u0120diagram": 5583,
  "\u0120massa": 4452,
  "geloof": 13188,
  "antie": 1678,
  "\u0120hol": 1734,
  "\u0120voorst": 4750,
  "west": 3661,
  "\u0120definitie": 7830,
  "574": 15148,
  "\u0120stat": 5152,
  "\u0120slaven": 4715,
  "\u0120keizer": 2599,
  "halen": 3142,
  "rechten": 5032,
  "\u0120wou": 3419,
  "\u0120pun": 7035,
  "\u0120stukje": 2224,
  "ats": 3803,
  "\u0120draai": 7881,
  "\u0120schub": 15670,
  "\u0120delta": 10832,
  "\u0120diff": 12184,
  "\u0120opgaven": 11220,
  "\u0120...(": 7868,
  "\u0120npo": 1513,
  "\u0120ontdekken": 7543,
  "ities": 7106,
  "meestal": 11010,
  "\u0120zw": 727,
  "\u0120national": 7143,
  "cour": 13460,
  "\u0120schoppen": 15471,
  "\u0120erasmus": 15451,
  "laagd": 11444,
  "\u0120zweedse": 10671,
  "\u0120goedkoper": 8403,
  "\u0120virus": 7330,
  "namen": 7545,
  "\u0120nadel": 12047,
  "\u0120therm": 9464,
  "\u0120verzeker": 6836,
  "utatie": 14931,
  "\u0120afge": 1406,
  "\u0120mate": 6446,
  "\u0120dichtst": 11662,
  "\u0120joseph": 9748,
  "\u0120rapper": 13548,
  "\u0120variant": 9913,
  "ublic": 3411,
  "\u0120ideeen": 4586,
  "\u0120kiezen": 2748,
  "\u0120spra": 2388,
  "\u0120pes": 15665,
  "politie": 9451,
  "\u0120verslaggever": 10657,
  "\u0120theaters": 15703,
  "spanning": 9535,
  "\u0120steden": 1814,
  "way": 9467,
  "\u0120aankoop": 12176,
  "cu": 3072,
  "\u0120gab": 10555,
  "\u0120carnaval": 11651,
  "\u0120moest": 1221,
  "cat": 11793,
  "\u0120verdiend": 10449,
  "\u0120stijf": 14135,
  "\u0120rails": 11502,
  "\u0120republiek": 2787,
  "\u0120franc": 5970,
  "yan": 10054,
  "volg": 4102,
  "\u00b8": 95,
  "\u0120europe": 8627,
  "\u0120commun": 2784,
  "bel": 1246,
  "alles": 7794,
  "\u0120koek": 3032,
  "\u0120palestijnen": 15101,
  "ffect": 7531,
  "\u0120vest": 9698,
  "laura": 11768,
  "hut": 9466,
  "\u0120woordenboek": 6525,
  "\u0120link": 5055,
  "$": 9,
  "own": 3489,
  "buurtschappen": 9182,
  "\u0120vragen": 1059,
  "\u0120afwas": 14104,
  "chloride": 10485,
  "\u0120persoonsvormen": 13934,
  "verten": 5939,
  "\u0120schelen": 12252,
  "ify": 14695,
  "verb": 3084,
  "\u0120puz": 5079,
  "\u0120verl": 1288,
  "\u012039": 7055,
  "\u0120onge": 6545,
  "\u0120grappige": 11188,
  "igd": 2225,
  "1227": 10476,
  "\u0120karel": 2638,
  "agnie": 14518,
  "\u0120paste": 11157,
  "\u0120onafhankelijkheid": 7146,
  "brug": 5611,
  "\u0120atlantische": 8812,
  "ack": 5925,
  "pport": 8756,
  "\u0120structuur": 5371,
  "ih": 14052,
  "\u0120geldt": 3463,
  "1314": 13589,
  "\u0120papiertje": 13661,
  "\u0120trib": 12349,
  "iseerde": 12647,
  "\u0120sleutel": 5478,
  "\u0120dobbel": 12338,
  "opa": 8050,
  "\u0120veroordeeld": 9841,
  "\u0120cris": 6364,
  "\u0120antistoffen": 14195,
  "investig": 335,
  "rid": 5304,
  "meerkeuzevragen": 10577,
  "bomen": 5860,
  "\u0120televis": 2257,
  "\u0120journalisten": 9025,
  "padden": 10616,
  ");": 9701,
  "urk": 5325,
  "rof": 10915,
  "sal": 7509,
  "\u0120openen": 8637,
  "as": 259,
  "\u0120asielzoekers": 13671,
  "\u0120darm": 5348,
  "\u0120nie": 8329,
  "loge": 7648,
  "\u0120zeewater": 9400,
  "caire": 13841,
  "\u0120blad": 2555,
  "\u0120dave": 8426,
  "programma": 3662,
  "\u0120bijbel": 6546,
  "\u0120chris": 8188,
  "\u0120kolom": 8252,
  "neder": 7347,
  "\u0120oktober": 2630,
  "\u0120grapp": 4554,
  "\u0120reageert": 6412,
  "\u0120dir": 6278,
  "\u0120broodjes": 13380,
  "\u0120bruiloft": 12731,
  "\u0120gewoonlijk": 14880,
  "\u0120si": 7832,
  "swaardigheden": 10457,
  "\u0120gasten": 4426,
  "\u0120ke": 917,
  "leer": 6953,
  "\u0120orkaan": 8649,
  "stem": 3619,
  "\u0120prakt": 5398,
  "ize": 14459,
  "\u0120spann": 9489,
  "klok": 9953,
  "\u0120morris": 14555,
  ",-": 4252,
  "\u0120politie": 1142,
  "\u0120sprak": 6668,
  "\u0120wedstrijden": 4894,
  "alleen": 5746,
  "\u0120ouderen": 9096,
  "\u0120begin": 1680,
  "\u0120anal": 7442,
  "768": 15617,
  "vooral": 11016,
  "\u0120onmiddellijk": 7425,
  "feder": 9440,
  "\u0120zaad": 5846,
  "elier": 11309,
  "corder": 14049,
  "\u0120mun": 4782,
  "\u0120nijlpaard": 15816,
  "dere": 1753,
  "houden": 1827,
  "\u0120aff": 8541,
  "\u0120eerlijke": 14189,
  "\u0120rica": 15952,
  "\u0120pepe": 14362,
  "\u0120ballon": 4563,
  "\u0120perfect": 9804,
  "sting": 6771,
  "\u0120lilian": 11147,
  "waarden": 5884,
  "\u0120maje": 14543,
  "\u0120nakomelingen": 13793,
  "antwoord": 2546,
  "\u0120jongeren": 2923,
  "aarts": 7223,
  "sluiting": 6644,
  "play": 11762,
  "\u0120vital": 14898,
  "\u0120verzameld": 9542,
  "\u0120diederik": 11707,
  "\u0120aanra": 8454,
  "instrumenten": 9284,
  "vestig": 331,
  "\u0120inkt": 8094,
  "rop": 7274,
  "\u0120overleven": 6559,
  "achine": 14343,
  "frank": 5495,
  "\u0120stemm": 8757,
  "kia": 14214,
  "ited": 12249,
  "\u0120kwis": 14392,
  "\u0120wallonie": 15783,
  "\u0120leken": 11451,
  "\u0120bur": 1586,
  "den": 221,
  "plank": 11899,
  "threonyl": 5133,
  "\u0120beteken": 1065,
  "\u0120p": 220,
  "\u0120pala": 12498,
  "\u0120nation": 2046,
  "\u0120snavel": 9067,
  "markt": 3058,
  "\u0120vaak": 800,
  "uters": 4372,
  "\u0120cont": 1584,
  "doet": 4358,
  "\u01201994": 6852,
  "1903": 9548,
  "ijna": 1112,
  "\u0120fab": 2303,
  "\u0120geproduceerd": 5886,
  "jongen": 9275,
  "\u0120slacht": 4305,
  "\u0120dorst": 12719,
  "\u0120(=": 11237,
  "stalige": 6423,
  "\u0120merken": 5616,
  "\u0120plaats": 898,
  "\u0120natuurlijke": 5590,
  "\u0120breken": 7548,
  "\u0120frits": 9172,
  "\u0120ontwierp": 13455,
  "\u0120slachtoffers": 6317,
  "\u0120helpen": 1900,
  "\u0120bijbehoren": 9693,
  "\u0120chrissy": 14841,
  "\u0120van": 207,
  "\u0120vals": 10094,
  "\u0120zenuwachtig": 9611,
  "uma": 11692,
  "\u0120geloofden": 12281,
  "mees": 13936,
  "%": 10,
  "ijzer": 9378,
  "\u0120ammoniak": 10814,
  "res": 2037,
  "\u0120verster": 5373,
  "\u0120vermeld": 5426,
  "\u0120scheur": 11804,
  "\u0120lepel": 6750,
  "\u0120verwacht": 3136,
  "\u0120verhaaltje": 5676,
  "\u0120veeteelt": 15478,
  "\u0120heette": 4673,
  "aska": 9741,
  "fabet": 6975,
  "\u0120voegt": 13251,
  "zels": 6850,
  "\u0120noemt": 4687,
  "dse": 10209,
  "\u0120langste": 9537,
  "53": 2722,
  "\u0120formosus": 15925,
  "ox": 2913,
  "onte": 8152,
  "\u0120alleen": 646,
  "ty": 3265,
  "akaas": 13438,
  "\u012054": 9993,
  "\u01201952": 10182,
  "\u0120lager": 4274,
  "\u0120producten": 3063,
  "\u0120lie": 756,
  "\u0120tekstbericht": 10962,
  "\u0120vuilnis": 6766,
  "\u0120gebeurtenissen": 4953,
  "\u0120afgelopen": 2574,
  "\u0120gedood": 7441,
  "\u0120stuur": 3650,
  "\u0120onvoldoende": 10753,
  "coh": 4046,
  "volle": 5137,
  "zijn": 2069,
  "arist": 15117,
  "\u0120doll": 5449,
  "118": 3729,
  "\u0120stille": 12755,
  "\u0120voorbereiding": 15652,
  "\u0120schudt": 7252,
  "elsel": 3598,
  "xxx": 417,
  "gering": 13052,
  "spin": 14719,
  "aq": 12975,
  "elf": 459,
  "\u0120culturele": 8027,
  "\u0120verdrietig": 6949,
  "te": 297,
  "uldigen": 15137,
  "\u012071": 13213,
  "eert": 1050,
  "\u0120boten": 7925,
  "\u0120variabele": 12168,
  "\u0120bovenstaande": 6196,
  "\u0120natuurgebied": 8670,
  "str": 1173,
  "uurde": 11954,
  "ink": 595,
  "\u0120diefstal": 14372,
  "\u0120/": 1549,
  "\u0120functies": 6682,
  "\u0120zelfstandige": 11931,
  "\u0120vlucht": 2979,
  "\u0120white": 15621,
  "\u0120vindt": 1278,
  "999": 9762,
  "\u0120tonen": 6499,
  "ijs": 826,
  "\u0120gemaakte": 12876,
  "\u0120dod": 8133,
  "\u0120kans": 2060,
  "\u0120honder": 2786,
  "yl": 626,
  "\u0120middags": 11307,
  "econom": 7367,
  "hertogen": 15855,
  "\u0120onderstaand": 13562,
  "wicht": 6111,
  "\u0120coal": 9811,
  "finale": 10645,
  "\u0120marco": 11914,
  "begrip": 15986,
  "droom": 9528,
  "\u0120investering": 15528,
  "\u0120romantiek": 12690,
  "\u0120pos": 9903,
  "\u0120spelling": 13317,
  "imin": 3082,
  "\u0120ash": 14714,
  "oorte": 4338,
  "oornis": 8957,
  "\u0120aarzelde": 15553,
  "ekend": 12732,
  "haus": 10881,
  "\u0120secunda": 13743,
  "\u0120my": 2837,
  "warming": 13770,
  "\u0120gemaakt": 871,
  "\u0120enzym": 11824,
  "\u0120huil": 2459,
  "\u0120vijft": 4011,
  "roductie": 9585,
  "rr": 3800,
  "\u0120modernis": 13522,
  "concentratie": 13279,
  "\u0120optredens": 13662,
  "weet": 2241,
  "\u0120glets": 13191,
  "\u0120dichtheid": 10766,
  "geografie": 12461,
  "lie": 458,
  "\u0120lucas": 7839,
  "\u0120elizabeth": 6747,
  "\u0120bein": 4929,
  "\u0120doosje": 9148,
  "atern": 14874,
  "ateau": 15271,
  "\u0120grinn": 7735,
  "\u0120whatsappje": 12195,
  "\u0120snelweg": 7520,
  "versum": 11493,
  "\u0120fasc": 14818,
  "overzicht": 14314,
  "\u0120vlug": 5714,
  "gemeen": 2878,
  "\u0120gedoe": 10822,
  "\u0120ikke": 11817,
  "\u0120vanmiddag": 6152,
  "\u0120az": 6036,
  "\u0120knvb": 15228,
  "vember": 2770,
  "\u0120betrouwbaar": 14123,
  "\u0120krokodillen": 13882,
  "\u0120kolon": 3964,
  "\u0120mineraal": 12583,
  "anda": 3867,
  "\u0120terechtkomen": 14939,
  "nou": 935,
  "thol": 7482,
  "\u0120bin": 6279,
  "\u0120werkwoord": 5384,
  "\u0120wein": 13924,
  "\u0120historici": 12487,
  "activ": 15799,
  "\u0120schild": 5048,
  "ri": 880,
  "ssecret": 9393,
  "aan": 299,
  "\u0120factor": 9632,
  "som": 7731,
  "istor": 3117,
  "\u0120\u00c3\u0139": 11843,
  "\u0120activiteit": 4524,
  "\u0120supermarkten": 12069,
  "\u0120vochtige": 14985,
  "\u0120drupp": 9983,
  "eeuwse": 6552,
  "\u0120bek": 2147,
  "\u0120gecon": 8049,
  "\u0120uitste": 9743,
  "\u0120urb": 3804,
  "\u0120overlast": 12738,
  "genoeg": 14336,
  "centrum": 4408,
  "\u0120arjen": 15918,
  "\u0120opslag": 10758,
  "\u0120verdelen": 7834,
  "zig": 2646,
  "\u0120niets": 1525,
  "\u0120weigerde": 10566,
  "wik": 1325,
  "\u012059": 13373,
  "\u0120how": 13228,
  "misschien": 4724,
  "oning": 9397,
  "tru": 11893,
  "da": 717,
  "vor": 9321,
  "\u0120resten": 10744,
  "oun": 2740,
  "\u0120dus": 747,
  "\u0120tijm": 12189,
  "\u0120limburg": 5217,
  "\u0120kort": 1931,
  "\u0120chromos": 11262,
  "\u0120...?": 10903,
  "\u0120verdienen": 4391,
  "alex": 6955,
  "\u0120aanget": 5526,
  "\u0120maria": 3780,
  "\u0120vergeten": 3918,
  "\u0120spons": 9198,
  "\u0120afk": 11109,
  "elle": 4192,
  "\u0120durf": 6213,
  "\u0120gerust": 10294,
  "\u0120akk": 3834,
  "gisteren": 14330,
  "\u0120prinses": 3459,
  "\u0120krie": 14011,
  "\u0120zulke": 5574,
  "\u0120wolven": 9316,
  "\u0120live": 6615,
  "ouw": 391,
  "\u0120dimensie": 15798,
  "ibi": 9705,
  "\u0120wolkenkrabbers": 15285,
  "edia": 934,
  "\u0120kolonie": 5766,
  "ount": 6188,
  "nemingen": 10830,
  "ro": 308,
  "\u0120bellen": 4776,
  "\u0120rekenen": 5765,
  "\u0120bedoelde": 11457,
  "\u0120teams": 9080,
  "\u0120truc": 8474,
  "\u0120komen": 693,
  "\u0120christian": 14364,
  "zijds": 9891,
  "\u0120warmer": 8684,
  "21": 2792,
  "\u0120hoofdpijn": 14254,
  "254": 10106,
  "pres": 9403,
  "\u0120erg": 877,
  "\u0120amper": 15229,
  "\u0120zeldzame": 10124,
  "imir": 13561,
  "\u0120hield": 3034,
  "\u0120rad": 2006,
  "\u0120justitie": 8172,
  "\u0120function": 7661,
  "mooi": 5933,
  "\u0120schilderijen": 5706,
  "\u0120afgekort": 12186,
  "\u0120balkon": 13781,
  "nit": 14488,
  "\u0120geweld": 2850,
  "osta": 10588,
  "\u0120economisch": 7478,
  "hulp": 8356,
  "soep": 13391,
  "heid": 486,
  "\u012024": 2420,
  "\u0120wil": 413,
  "ug": 502,
  "\u0120brok": 11957,
  "\u0120zestien": 7471,
  "\u0120verschrikkelijke": 13546,
  "1700": 9520,
  "\u0120genetische": 15073,
  "\u0120sn": 616,
  "\u0120adam": 7570,
  "\u01201919": 10652,
  "middels": 3470,
  "\u0120blaadjes": 11000,
  "\u0120kunt": 1041,
  "oegen": 3322,
  "\u0120bestond": 3738,
  "ctor": 2176,
  "\u0120strijd": 3826,
  "\u0120trans": 5692,
  "\u0120toegepast": 8521,
  "\u0120afgevaardig": 9776,
  "\u0120praat": 3833,
  "686": 10035,
  "\u0120the": 903,
  "\u0120kijken": 1009,
  "usie": 8821,
  "aalden": 10057,
  "jacht": 13463,
  "\u0120april": 2700,
  "\u0120verz": 1331,
  "aparte": 10760,
  "breekt": 4707,
  "\u0120gekl": 8487,
  "ylon": 13632,
  "\u0120econ": 1728,
  "spiegel": 7772,
  "95": 4193,
  "\u0120gastenboek": 8746,
  "gevonden": 5343,
  "fect": 5948,
  "\u0120krijgt": 1367,
  "\u0120tekst": 658,
  "cepten": 13245,
  "aux": 11730,
  "aring": 1948,
  "\u0120isol": 12481,
  "\u0120bruggen": 8740,
  "\u0120voorover": 15605,
  "\u0120mak": 1941,
  "\u0120cam": 8086,
  "broek": 4209,
  "lim": 3447,
  "\u0120aspecten": 5089,
  "allatie": 9046,
  "\u0120rog": 8338,
  "\u00b9": 96,
  "teur": 1913,
  "\u0120dem": 1840,
  "ck": 1523,
  "\u0120brachten": 9351,
  "\u0120facebook": 12641,
  "leng": 7316,
  "valt": 6334,
  "199": 9935,
  "investigator": 336,
  "\u0120regisseur": 10066,
  "\u0120ontsnapte": 15737,
  "eer": 257,
  "glutaminyl": 4959,
  "echt": 4963,
  "meesters": 14526,
  "sels": 7004,
  "oon": 476,
  "\u0120bijzonders": 12450,
  "duitsland": 5277,
  "ington": 5194,
  "ijen": 4343,
  "\u0120college": 7962,
  "\u0120cijf": 2952,
  "\u0120innocentius": 2904,
  "\u0120redenering": 11324,
  "ograf": 3083,
  "\u0120musk": 13964,
  "\u0120herhaald": 13954,
  "\u0120scen": 7568,
  "hoven": 4730,
  "\u0120zoe": 13820,
  "\u0120uitzicht": 11338,
  "ness": 8602,
  "agen": 932,
  "bodem": 9704,
  "\u012078": 12289,
  "\u0120gedragen": 5656,
  "\u0120american": 12953,
  "besch": 4594,
  "\u0120bestuderen": 11625,
  "lopende": 11268,
  "ort": 576,
  "\u0120weekend": 4714,
  "oseks": 13764,
  "\u0120ondergrond": 8244,
  "\u0120schoolplein": 9591,
  "neem": 4243,
  "\u0120formules": 9620,
  "bus": 3552,
  "\u0120stromen": 7501,
  "\u0120sel": 15403,
  "det": 12548,
  "pol": 2942,
  "1707": 14969,
  "\u0120vluchtte": 11776,
  "\u0120tegenstander": 6684,
  "\u0120anders": 1099,
  "\u0120ajax": 4816,
  "\u0120vlinder": 5718,
  "\u0120bod": 12392,
  ";": 32,
  "23": 1985,
  "\u0120dou": 4550,
  "\u0120straten": 6353,
  "223": 10090,
  "\u0120gez": 636,
  "veningen": 15869,
  "\u0120onthouden": 8876,
  "\u0120hoeveel": 1103,
  "dood": 15077,
  "urken": 9960,
  "\u0120leerling": 5250,
  "\u0120kwart": 3525,
  "\u0120gezellig": 6015,
  "del": 4838,
  "elies": 12628,
  "\u0120verbetering": 13432,
  "\u0120baard": 9990,
  "\u0120kwe": 10620,
  "\u0120joden": 3982,
  "\u0120bonaire": 15804,
  "ruimen": 7057,
  "iiii": 11803,
  "gif": 10686,
  "\u0120poet": 6452,
  "jagers": 14792,
  "\u0120plaatsvinden": 8917,
  "\u0120zieken": 2989,
  "\u0120persoon": 1799,
  "\u0120vakant": 14576,
  "fectie": 9251,
  "\u0120grafieken": 11081,
  "\u0120huis": 764,
  "\u0120marokko": 6607,
  "\u0120maarten": 4448,
  "\u0120stru": 10541,
  "\u0120priester": 14631,
  "\u0120spreuk": 13355,
  "\u0120vertaling": 11660,
  "\u0120paraplu": 12312,
  "\u0120vakantie": 2322,
  "\u0120allemaal": 1044,
  "prof": 12717,
  "iska": 11072,
  "\u0120inclusief": 8691,
  "\u0120genoemd": 1294,
  "\u0120pepijn": 4981,
  "\u0120stro": 8020,
  "drenthe": 15774,
  "\u0120choc": 4094,
  "veil": 4611,
  "ublike": 5216,
  "handeling": 9686,
  "\u0120leert": 4890,
  "ran": 510,
  "maakte": 14503,
  "ouwd": 1409,
  "\u0120pakket": 15005,
  "\u0120buiten": 930,
  "\u0120momen": 1700,
  "insdag": 6865,
  "spelen": 5777,
  "\u0120verkoop": 4412,
  "\u0120ontsnappen": 7651,
  "\u0120lijstje": 10070,
  "\u0120aangevallen": 7952,
  "\u0120rellen": 15864,
  "\u0120vrouwtjes": 7060,
  "\u0120prent": 7556,
  "\u0120vlaggen": 12033,
  "nooi": 4340,
  "zier": 5392,
  "iner": 4057,
  "record": 8000,
  "\u0120protesteren": 12509,
  "\u0120nationaliteit": 15684,
  "\u0120uh": 1860,
  "reactie": 5989,
  "\u0120india": 4131,
  "\u0120henk": 9089,
  "kab": 10003,
  "\u0120one": 10875,
  "\u0120plant": 2513,
  "\u0120frederik": 6736,
  "\u0120nederlandse": 1098,
  "\u0120afgevoerd": 13649,
  "\u0120binden": 13726,
  "ade": 1191,
  "\u0120azijn": 11382,
  "\u0120voorlop": 5951,
  "\u0120waargenomen": 12911,
  "\u0120trekken": 2937,
  "zitters": 13108,
  "\u0120alkmaar": 14082,
  "\u0120valerie": 9020,
  "\u012040": 2733,
  "\u0120salaris": 13933,
  "\u0120trip": 14166,
  "\u0120geproduc": 5404,
  "\u0120bezoeken": 6981,
  "dorpen": 13126,
  "soc": 6814,
  "\u0120chloor": 15260,
  "\u0120chron": 15348,
  "\u012043": 7518,
  "\u0120medewerkers": 9293,
  "scheiden": 10590,
  "\u0120staatssecret": 10444,
  "\u0120brede": 7658,
  "ux": 7991,
  "\u0137": 162,
  "\u0120records": 14149,
  "\u0120zaden": 7616,
  "\u0120braziliaanse": 14068,
  "jon": 5286,
  "ggen": 856,
  "\u0120neut": 6006,
  "nn": 11026,
  "placeholder": 12904,
  "\u0120kop": 1306,
  "\u0120ou": 656,
  "r": 60,
  "\u0120verbouwd": 9054,
  "obil": 10156,
  "amera": 3975,
  "\u0120kong": 14573,
  "cedes": 14634,
  "\u0120vonk": 10928,
  "\u0120straal": 6495,
  "\u0120gebaren": 12912,
  "ollen": 8846,
  "gez": 4309,
  "dragen": 6613,
  "1165": 12245,
  "\u0120voetballen": 4941,
  "\u0120studie": 5402,
  "eren": 407,
  "\u0120geslagen": 7917,
  "\u0120herinneringen": 12655,
  "\u0120kennen": 3829,
  "lake": 14950,
  "\u0120wetsvoor": 12102,
  "936": 15736,
  "ieuwd": 7537,
  "\u0120juffrouw": 4937,
  "\u01202005": 3798,
  "\u0120genoeg": 1694,
  "middelen": 4591,
  "\u0120hoofdgedachte": 11291,
  "sj": 8114,
  "\u0120viel": 2521,
  "oge": 1654,
  "\u0120logische": 14983,
  "\u0120iemand": 1051,
  "\u0120wormen": 11783,
  "\u0120kruising": 14911,
  "\u0120kooplieden": 10994,
  "\u0120slangen": 9476,
  "gebieden": 4433,
  "isme": 1290,
  "\u0120ontwikkel": 2062,
  "701": 9429,
  "\u0120bloedvat": 15349,
  "\u0120negatief": 8182,
  "\u0120antwoordblad": 6662,
  "\u0120wanden": 15370,
  "\u0120street": 11717,
  "\u0120nassau": 15860,
  "\u0120scheiding": 10382,
  "helm": 5833,
  "\u0120rondom": 5938,
  "\u0120gebaar": 14833,
  "\u0120beeldh": 11207,
  "\u0120verwant": 11049,
  "ging": 2234,
  "\u0120touw": 4228,
  "afbeeldingen": 1609,
  "\u0120she": 13339,
  "\u0120ervan": 2797,
  "t\u00c9\u013b": 15401,
  "blie": 6198,
  "ole": 1811,
  "mes": 6116,
  "\u0120hetzelfde": 2033,
  "\u0120produceert": 11390,
  "eiden": 6124,
  "kort": 2828,
  "\u0120rut": 6240,
  "onderwijs": 7634,
  "genoten": 5074,
  "osfeer": 9421,
  "\u0120sint": 3642,
  "kk": 1873,
  "\u0120onno": 15668,
  "pijp": 13390,
  "voorbeeld": 882,
  "\u0120ontbijt": 7891,
  "\u0120adeodatus": 10435,
  "\u0120peper": 8190,
  "\u0120zoog": 6125,
  "inianus": 15566,
  "\u0120puzzel": 6032,
  "\u0120dief": 6501,
  "\u0120consumptie": 13360,
  "\u0120zonen": 11043,
  "vering": 5383,
  "provin": 12353,
  "\u0120egel": 14512,
  "neus": 9109,
  "\u0120liefst": 4299,
  "men": 358,
  "\u0120burgers": 3934,
  "uto": 12913,
  "\u0120beheer": 9061,
  "\u0120pur": 12591,
  "672": 15857,
  "aakt": 684,
  "\u0120traditioneel": 13093,
  "\u0120aangelegd": 6838,
  "\u0120bloem": 3441,
  "\u0120meg": 11658,
  "\u0120lopende": 13963,
  "eloze": 14427,
  "\u0120scout": 11464,
  "\u0120opgele": 10394,
  "\u0120katoen": 8405,
  "\u0120geste": 7036,
  "\u0120verdriet": 4900,
  "\u0120competitie": 10808,
  "\u0120dille": 15331,
  "\u0120werkelijkheid": 5762,
  "ook": 1049,
  "\u0120verm": 1295,
  "\u0120mex": 3742,
  "ctievoor": 5115,
  "\u0120iran": 9897,
  "\u0120kende": 8387,
  "\u0120mummie": 10604,
  "\u0120cd": 3033,
  "\u0120toen": 563,
  "uiteindelijk": 13397,
  "\u0120vitamine": 10301,
  "\u0120oppassen": 14235,
  "\u0120tenslotte": 11079,
  "\u0120medic": 4307,
  "\u0120ontsnapt": 10706,
  "\u0120philip": 13328,
  "\u0120olifanten": 8207,
  "\u0120gouverne": 7324,
  "\u0120ontdekkingen": 12584,
  "\u0120gebied": 1505,
  "\u0120afbraak": 15997,
  "drank": 9657,
  "\u0120voldoet": 11853,
  "\u0120groot": 668,
  "\u0120schudden": 11778,
  "\u0120zandbak": 11877,
  "\u0120benad": 11257,
  "pas": 4251,
  "\u0120inheem": 8054,
  "\u0120kenmerken": 3893,
  "risch": 14684,
  "\u0120stij": 2914,
  "\u0120griff": 9449,
  "inaas": 8891,
  "\u0120huisarts": 8258,
  "\u0120slang": 6172,
  "\u0120meerdere": 2872,
  "kwamen": 8406,
  "iti": 5650,
  "\u0140": 171,
  "\u0120daarvoor": 2977,
  "fe": 2218,
  "onnen": 1186,
  "aciteit": 9876,
  "\u0120hom": 5104,
  "\u0120bouwden": 11242,
  "\u0120begrip": 5185,
  "\u0120schakeling": 12454,
  "ores": 13337,
  "\u0120ju": 889,
  "geluk": 2462,
  "bedrijven": 7280,
  "\u0120club": 2641,
  "\u0120blinde": 12957,
  "\u0120schra": 15470,
  "\u0120kantoren": 15392,
  "artikel": 10676,
  "\u0120veilige": 9923,
  "\u0120mob": 3743,
  "elect": 15156,
  "\u0120stads": 4881,
  "\u0120typ": 5326,
  "ling": 3536,
  "\u0120sinaas": 9602,
  "\u0120kompas": 14545,
  "\u0120glo": 10748,
  "pi": 15078,
  "cel": 3565,
  "\u0120gemiddelde": 3320,
  "zame": 4333,
  "entie": 4206,
  "\u0120duidelijke": 11190,
  "\u0120geladen": 13400,
  "\u0120gouda": 15888,
  "\u0120tri": 9224,
  "\u0120trillen": 9381,
  "\u0120schak": 4992,
  "\u0120uitdrukking": 7665,
  "752": 10219,
  "verloop": 14771,
  "\u0120sanders": 14796,
  "\u0120televisieserie": 14607,
  "\u0120hebt": 1020,
  "\u0120reizigers": 12041,
  "\u0120behouden": 9158,
  "ov": 1237,
  "spraak": 2158,
  "\u0120departe": 10871,
  "\u0120daarmee": 2712,
  "\u0120proef": 3876,
  "\u0120bj": 9646,
  "papp": 15329,
  "\u0120reclame": 4397,
  "\u0120vere": 8479,
  "\u0120weergeven": 12959,
  "\u0120online": 5416,
  "\u0120oran": 2605,
  "\u0120behalve": 3887,
  "\u0120450": 15224,
  "\u0120namen": 2254,
  "\u0120zweden": 4570,
  "conc": 15613,
  "\u0120waters": 10426,
  "\u0120750": 15476,
  "\u0120zonn": 8015,
  "uigen": 2211,
  "\u0120d": 177,
  "arend": 11958,
  "\u0120gevolgen": 3765,
  "hol": 1374,
  "\u0120tsaar": 11790,
  "\u0120russische": 3759,
  "\u0120city": 5468,
  "iver": 13411,
  "\u0120boos": 2267,
  "allo": 3858,
  "abel": 1626,
  "volut": 2763,
  "\u0120wanhopig": 12053,
  "\u0120wend": 9117,
  "blauw": 7670,
  "\u0120onbekende": 10526,
  "\u0120nic": 3312,
  "moder": 10145,
  "feer": 7449,
  "\u0120vertelden": 15161,
  "how": 12627,
  "\u0120zoeter": 15994,
  "zachstan": 13791,
  "\u0120inhoud": 3976,
  "urn": 10988,
  "\u0120ontmoeten": 11410,
  "ica": 2259,
  "\u0120hun": 529,
  "par": 1274,
  "\u0120ontmoette": 11700,
  "\u0120onlangs": 13418,
  "\u00d7": 118,
  "\u0120boom": 1899,
  "\u0120bevrijding": 15694,
  "amide": 5739,
  "\u0120ligt": 959,
  "\u01205": 618,
  "scoop": 10826,
  "rafen": 13075,
  "\u0120samenvatting": 6429,
  "\u0120bekend": 1061,
  "\u0120komende": 5201,
  "\u0120toneel": 3037,
  "\u0120xii": 2769,
  "\u0120aanwijzingen": 11483,
  "\u0120katholieke": 6312,
  "ringen": 10195,
  "\u012028": 3161,
  "\u0120pasen": 12827,
  "\u0120meegeteld": 5098,
  "\u0120muizen": 5993,
  "kies": 5269,
  "ladesh": 11908,
  "\u0120gren": 4101,
  "\u0120arch": 3837,
  "ger": 530,
  "orgt": 2588,
  "\u01202012": 3570,
  "\u0120vwo": 11555,
  "ega": 6744,
  "\u0120zichtbaar": 6389,
  "oude": 5481,
  "fc": 8495,
  "\u0120sebast": 13634,
  "\u0120overdreven": 12167,
  "\u0120joris": 6888,
  "jas": 7569,
  "dees": 14509,
  "\u0120eut": 11951,
  "\u0120projecten": 13824,
  "wal": 6338,
  "schal": 15573,
  "\u0120opmer": 5899,
  "\u0120koets": 11993,
  "\u0120oor": 815,
  "stijging": 11550,
  "\u0120getra": 13148,
  "\u0120gaza": 7625,
  "\u0120berlijn": 5322,
  "\u0120aardgas": 9608,
  "ei": 5813,
  "goeding": 11890,
  "stop": 8504,
  "\u0120make": 8714,
  "szins": 13063,
  "ossa": 13519,
  "\u01206000": 14167,
  "\u0120beleg": 12280,
  "\u0120anton": 6339,
  "\u01201943": 12633,
  "\u0120wilt": 2572,
  "\u0120activiteiten": 7010,
  "\u0120duur": 2075,
  "\u0120michiel": 10299,
  "\u0120stof": 2129,
  "hydro": 11037,
  "wikkel": 6590,
  "\u0120perf": 13952,
  "\u0120min": 803,
  "\u0120arab": 4637,
  "indt": 13117,
  "ibiot": 15590,
  "rep": 6060,
  "\u0120exact": 10278,
  "sluit": 4085,
  "\u0120verw": 1296,
  "\u0120tegels": 12328,
  "ject": 3387,
  "\u0120vader": 954,
  "oofden": 14908,
  "\u0120thail": 8738,
  "\u0120confeder": 15263,
  "oensdag": 5772,
  "\u0120thies": 8042,
  "\u0120noemden": 10863,
  "\u0120ca": 3199,
  "\u0120arn": 5441,
  "\u0120spannend": 5110,
  "ylvan": 12183,
  "\u0120platform": 14319,
  "\u0120terreur": 14774,
  "wegingen": 6807,
  "concept": 11889,
  "ament": 12215,
  "odat": 10269,
  "\u0120ron": 5338,
  "\u0120fietsen": 3618,
  "\u0120kunst": 1567,
  "steun": 12131,
  "\u0120uil": 7140,
  "\u0120steeds": 829,
  "\u0120fried": 11772,
  "izigers": 9145,
  "arissen": 10782,
  "\u0120illeg": 8654,
  "\u0120moleculen": 9192,
  "\u0120bloedcellen": 8952,
  "\u0120havens": 12469,
  "ken": 242,
  "ante": 2109,
  "rich": 7906,
  "neth": 13469,
  "\u0120eindigde": 8576,
  "\u0120quin": 10048,
  "858": 9414,
  "\u0120luister": 3761,
  "ricten": 10267,
  "\u0120varieren": 13091,
  "\u0120hersenen": 4495,
  "gier": 6465,
  "\u0120hob": 5738,
  "\u0120daaruit": 11416,
  "\u0123": 142,
  "leid": 14769,
  "\u0120sign": 5073,
  "\u0120vertrekt": 10692,
  "\u0120sad": 14244,
  "\u0120groenland": 11011,
  "\u0120tijdje": 4151,
  "\u0120beleefd": 13584,
  "\u0120ant": 686,
  "\u0120toegankelijk": 13748,
  "orte": 7024,
  "ificeerd": 14422,
  "\u0120blz": 7645,
  "\u0120gebruik": 491,
  "ame": 1181,
  "\u0120geluk": 1890,
  "foort": 10001,
  "\u0120juicht": 15062,
  "\u0120ottom": 8272,
  "\u0120pil": 5370,
  "\u0120nadeel": 8420,
  "\u0120verbannen": 14877,
  "stadt": 12276,
  "55": 1809,
  "625": 9662,
  "oting": 8265,
  "\u0120omdat": 783,
  "\u0120azie": 5283,
  "dy": 3781,
  "\u0120150": 5241,
  "\u0120schade": 4060,
  "\u0120verbeterd": 12206,
  "\u0120bad": 2796,
  "\u0120chir": 12675,
  "\u0120stroop": 13441,
  "\u0120vlaamse": 6222,
  "\u0120ue": 12960,
  "\u0120193": 2794,
  "ippen": 2227,
  "\u0120detect": 12005,
  "\u0120balans": 9101,
  "\u0120district": 8333,
  "chtenstein": 13122,
  "\u0120nieuwsgierig": 8345,
  "\u0120ky": 14686,
  "\u0120kleinste": 8825,
  "\u0120stationsgebouw": 15044,
  "\u0120paleis": 3480,
  "\u0120foss": 7691,
  "\u0120vorsten": 8867,
  "\u0120blijf": 6304,
  "isole": 4722,
  "lu": 4576,
  "ades": 15135,
  "\u0120vernietigd": 13721,
  "ite": 657,
  "\u0120wennen": 11633,
  "appels": 7801,
  "81": 6275,
  "\u0120econoom": 12278,
  "\u0120biden": 11538,
  "teke": 11782,
  "\u0120werknemers": 5769,
  "\u0120lanc": 10954,
  "onade": 10974,
  "\u0122": 141,
  "\u0120zwaarder": 11408,
  "wetenschap": 14816,
  "oebel": 10931,
  "\u0120kookt": 14618,
  "\u01201974": 10736,
  "\u012013": 1520,
  "eerste": 6266,
  "\u0120stefan": 10144,
  "\u0120apparaat": 5087,
  "fil": 1979,
  "kapje": 13061,
  "\u0120asp": 3389,
  "\u0120(...)": 11526,
  "die": 771,
  "\u0120dwingen": 14644,
  "alie": 12435,
  "\u0120fantas": 8644,
  "igo": 13942,
  "ille": 2731,
  "ens": 1075,
  "aid": 6860,
  "woud": 5983,
  "\u01201914": 11693,
  "\u0120verzamel": 10923,
  "2003": 14479,
  "\u0120lettergrepen": 15974,
  "\u0120pracht": 3534,
  "tje": 589,
  "\u0120kanton": 12536,
  "\u0120duo": 15521,
  "quin": 15291,
  "\u0120achterover": 15512,
  "\u0120voertuig": 13545,
  "\u0120miner": 5672,
  "iest": 3456,
  "ulatie": 12028,
  "\u0120gerrit": 12275,
  "wonden": 8560,
  "of": 464,
  "reef": 13868,
  "\u0120kwets": 12573,
  "idt": 6945,
  "prus": 9482,
  "\u0120binnenlandse": 10574,
  "\u0120wanhop": 10980,
  "\u0120omzet": 4566,
  "\u0120paren": 13017,
  "\u0120beantwoorden": 6403,
  "meester": 2518,
  "gewone": 14137,
  "\u0120commons": 1615,
  "\u0120maker": 14674,
  "\u0120ras": 7450,
  "\u0120nergens": 5519,
  "berlijn": 11676,
  "\u0120tan": 7644,
  "\u0120amstel": 15388,
  "rale": 3709,
  "\u0120beperken": 12743,
  "woners": 1538,
  "\u0120schu": 4514,
  "zem": 7393,
  "rassen": 13937,
  "vr": 1249,
  "\u0120ophalen": 9728,
  "\u0120dwerg": 9723,
  "iele": 1760,
  "rucht": 3748,
  "\u0120tijn": 12978,
  "ht": 10002,
  "fer": 10061,
  "zending": 14108,
  "\u0120gebruiken": 1496,
  "\u0120opgelucht": 9674,
  "\u0120voorjaar": 9332,
  "vester": 4547,
  "verschillende": 15700,
  "einde": 7886,
  "\u0120kook": 8013,
  "\u0120bedrag": 4501,
  "gewoon": 7255,
  "\u0120tablet": 11102,
  "\u0120tentoon": 5735,
  "\u0120tai": 8223,
  "\u0120bereken": 1662,
  "\u0120hopelijk": 14988,
  "ost": 926,
  "03": 2909,
  "lou": 10419,
  "\u0120law": 11227,
  "\u0120berekenen": 8044,
  "\u0120voortplant": 9113,
  "\u0120ingest": 11837,
  "ham": 3163,
  "\u0120lege": 6688,
  "beg": 12845,
  "\u0120ringen": 11851,
  "\u0120myster": 9866,
  "mensen": 5626,
  "liggende": 12426,
  "anks": 5713,
  "\u0120meten": 6889,
  "obert": 12763,
  "hoor": 9544,
  "\u0120waaronder": 3356,
  "ael": 4658,
  "\u0120vestig": 7882,
  "ff": 774,
  "\u0120succesvolle": 10142,
  "christ": 10284,
  "\u0120planten": 1915,
  "1492": 10430,
  "\u0120verplaatst": 9648,
  "\u0120debat": 9479,
  "\u0120kir": 10111,
  "tekening": 7467,
  "\u0120test": 4490,
  "oring": 9600,
  "rol": 2553,
  "extra": 7125,
  "\u0120dronken": 11912,
  "\u012037": 5986,
  "\u0120roofd": 9859,
  "serylalanyl": 14778,
  "toet": 12527,
  "braan": 13494,
  "\u0120rijp": 14116,
  "\u0120cup": 11350,
  "\u0120aanp": 6555,
  "\u0120vand": 15218,
  "\u0120patat": 11611,
  "\u0120jacks": 6910,
  "\u0120miljarden": 14115,
  "\u0120felix": 6878,
  "om": 236,
  "\u0120ideale": 12601,
  "verkeer": 8306,
  "\u0120zonde": 13539,
  "we": 436,
  "\u0120beschouwd": 6756,
  "\u0120gloeil": 14430,
  "ys": 1763,
  "\u0120misschien": 1384,
  "\u0120pit": 8107,
  "\u0120lieve": 5552,
  "verandering": 6829,
  "\u0120grotere": 4213,
  "96": 1924,
  "\u0120slim": 3993,
  "\u0120goed": 505,
  "\u0120varianten": 14854,
  "642": 9750,
  "iff": 5014,
  "\u0120zogen": 4036,
  "vinden": 5998,
  "\u0120diverse": 5753,
  "\u0120verdie": 15762,
  "\u0120veranderen": 3645,
  "installatie": 15926,
  "\u0120brandt": 10549,
  "06": 4323,
  "\u0120dalen": 6995,
  "\u0120georganiseerd": 7110,
  "\u012081": 14805,
  "ose": 2306,
  "\u0120afkorting": 8984,
  "\u0120beschikbaar": 7343,
  "ratie": 1885,
  "\u0120gewoonte": 15234,
  "commun": 14270,
  "ero": 8980,
  "\u0120staken": 10858,
  "\u01201969": 9734,
  "ates": 11134,
  "kore": 6239,
  "afstand": 10180,
  "\u0120zoals": 772,
  "jev": 13702,
  "spart": 6825,
  "\u0120oven": 8540,
  "irts": 15003,
  "kmaar": 12478,
  "\u0120schijf": 8563,
  "\u0120plantages": 13592,
  "\u0120vii": 1848,
  "\u0120voc": 8641,
  "\u0124\u00ac": 2875,
  "\u0120zevende": 11981,
  "\u0120uitbreiden": 14267,
  "1952": 15059,
  "\u0120harris": 10603,
  "\u0120onrustig": 13477,
  "9": 30,
  "\u0120behaalde": 10152,
  "\u0120beschermen": 4032,
  "acao": 8309,
  "ieven": 3795,
  "doel": 7590,
  "\u0120gelet": 12043,
  "still": 15596,
  "schot": 7197,
  "\u0120antar": 12800,
  "\u0120eil": 1507,
  "\u0120voorgesteld": 11815,
  "\u01201970": 6961,
  "92": 2268,
  "\u0120scooter": 14881,
  "\u0120startte": 13326,
  "882": 10246,
  "\u0120juni": 2427,
  "\u0120spreken": 3550,
  "\u0120ongeveer": 1372,
  "\u0120duizen": 2964,
  "telijke": 6697,
  "\u0120eveneens": 14414,
  "\u0120broek": 3512,
  "\u0120zuig": 11311,
  "\u0120presentatie": 6794,
  "\u0120gesloten": 2831,
  "\u0120gem": 535,
  "actor": 8351,
  "\u0120cuba": 9432,
  "\u00ae": 85,
  "mann": 7129,
  "\u0120noemde": 6194,
  "\u0120olympisch": 13034,
  "geteld": 4761,
  "\u0120voldoende": 4638,
  "\u0120favoriete": 7857,
  "\u0120saus": 14119,
  "elk": 8120,
  "\u0120opruimen": 7995,
  "ongeluk": 11971,
  "\u0120gewonnen": 3292,
  "\u0120uitv": 5038,
  "\u0120gepraat": 11132,
  "\u0120mij": 1107,
  "\u0120kub": 9276,
  "\u0120nak": 7793,
  "hem": 4199,
  "\u0120tekent": 12118,
  "tv": 1483,
  "inkomen": 11372,
  "\u0120ruikt": 8970,
  "\u0120bestemmingen": 15924,
  "\u0120technologie": 8581,
  "\u0120jarig": 6161,
  "\u0120ottomaanse": 10146,
  "\u0120marianne": 15743,
  "\u0120awards": 11567,
  "alve": 3854,
  "\u0120daarentegen": 12849,
  "drukken": 9315,
  "\u0120angst": 5119,
  "\u0120bliksem": 8260,
  "985": 15654,
  "\u0120?": 8707,
  "cer": 9184,
  "\u0120invester": 8121,
  "\u0120zucht": 4359,
  "\u0120verspreidde": 15184,
  "\u0120criminaliteit": 7468,
  "\u0120likt": 15026,
  "\u0120washington": 6359,
  "\u0120eredivisie": 9480,
  "pn": 13080,
  "ibare": 15236,
  "\u0120arbeiders": 5221,
  "\u0120navo": 9325,
  "\u0120golf": 4103,
  "\u0120science": 10935,
  "\u0120administratie": 14575,
  "\u0120burger": 3422,
  "\u0120geest": 5175,
  "\u0120vraag": 761,
  "\u0120genen": 11112,
  "klein": 7219,
  "\u0120waarvoor": 6410,
  "digen": 6238,
  "\u0120draa": 1696,
  "\u0120onderz": 2582,
  "\u0120koolstofdioxide": 6707,
  "\u0120dal": 6893,
  "tap": 15114,
  "\u0120besp": 3850,
  "\u0120korter": 9997,
  "\u0120margaretha": 15898,
  "ooster": 5372,
  "\u0120verh": 801,
  "\u0120overw": 4733,
  "ateur": 9759,
  "\u0120bill": 9636,
  "\u0120vrouwen": 1836,
  "\u0120zorg": 2029,
  "\u0120verticale": 12430,
  "\u0120schermen": 15155,
  "onze": 10421,
  "\u0120briefje": 7491,
  "\u0120dierentuinen": 15180,
  "elligen": 7736,
  "\u0120700": 11355,
  "\u0120damp": 13751,
  "\u0120beton": 10183,
  "\u0120lawaai": 8350,
  "\u0120omgekeerd": 14455,
  "ometers": 9729,
  "wel": 732,
  "\u0120agen": 7684,
  "\u0120schuim": 12582,
  "\u0120jim": 8123,
  "periode": 8057,
  "\u0120liberalen": 11861,
  "\u0120xvi": 8116,
  "\u0120concent": 4460,
  "\u0120rotsen": 11963,
  "\u0120koffie": 2890,
  "onium": 14827,
  "\u0120wint": 2843,
  "\u0120nicolaas": 4446,
  "\u0120keken": 5720,
  "\u0120nare": 14924,
  "brandt": 9271,
  "un": 272,
  "\u0120wa": 4620,
  "ted": 15572,
  "\u0120lego": 9259,
  "\u0120caval": 14819,
  "geld": 3488,
  "\u0120klei": 6529,
  "\u0120direct": 3299,
  "\u0120overstromingen": 7613,
  "\u0120niemand": 2120,
  "ppel": 5991,
  "maken": 2436,
  "lang": 2716,
  "01": 8208,
  "\u0120prima": 6157,
  "\u0120damasus": 10408,
  "moes": 14993,
  "\u0120verbinding": 7198,
  "\u0120klassieke": 6256,
  "not": 6259,
  "au": 970,
  "mand": 808,
  "1484": 10514,
  "istische": 2286,
  "stoot": 12994,
  "\u0120leiders": 7771,
  "huh": 6809,
  "zicht": 1402,
  "\u0120homoh": 14783,
  "\u0120aanzien": 6759,
  "\u0120leuker": 9234,
  "gent": 3840,
  "\u0120luchtdruk": 11820,
  "\u0120antwoord": 948,
  "boy": 9146,
  "\u0120mensen": 487,
  "\u01201923": 14572,
  "\u0120verklaring": 2485,
  "\u0120waarden": 6207,
  "\u0120agap": 9478,
  "\u0120rail": 8023,
  "\u01201200": 14599,
  "\u0120correctievoorschrift": 6138,
  "\u0120pers": 1084,
  "\u0120verjaardag": 5165,
  "ine": 475,
  "\u0120aangeven": 10557,
  "\u0120overheid": 2168,
  "\u0120united": 14257,
  "\u0120vlogen": 12444,
  "\u0120migranten": 10959,
  "1292": 10991,
  "\u0120toeristen": 4073,
  "\u0120agenda": 12813,
  "676": 10073,
  "ecte": 13739,
  "verg": 9277,
  "jeblie": 6407,
  "\u0120james": 5839,
  "\u0120vergelijking": 3855,
  "\u0120frequentie": 9338,
  "oegt": 11429,
  "vloeden": 7141,
  "\u0120gewenste": 13771,
  "\u0120mit": 13367,
  "bo": 1033,
  "alling": 11530,
  "groen": 7435,
  "opl": 5711,
  "li": 3253,
  "\u0120daarom": 1146,
  "\u0120inspir": 6740,
  "\u0120beatrix": 9914,
  "ouden": 750,
  "tr": 2855,
  "beid": 6640,
  "\u0120ideologie": 12453,
  "\u0120editie": 11564,
  "\u0120ale": 15195,
  "kstad": 15833,
  "ants": 13085,
  "ugt": 10024,
  "\u0120astron": 7454,
  "vorm": 1897,
  "\u0120stinkt": 14514,
  "ti": 7858,
  "\u0120vormde": 11020,
  "\u0120claim": 14324,
  "\u0120onderver": 12772,
  "alingen": 12366,
  "duik": 9485,
  "\u0120soe": 12528,
  "\u0120voortgezet": 12722,
  "\u0120vertrok": 9181,
  "\u0120scandinavie": 14608,
  "\u0120hilversum": 12297,
  "\u0120reddings": 9735,
  "\u0120verlegen": 9415,
  "bewijs": 9053,
  "\u0120gedeelte": 3316,
  "molens": 13694,
  "nummers": 12285,
  "spec": 9715,
  "\u0120recht": 1048,
  "\u0120bezit": 5341,
  "\u0120airport": 11120,
  "\u0120snelheid": 3282,
  "\u0120duncan": 15976,
  "\u0120neg": 4186,
  "\u0120belastingen": 8687,
  "\u0120on": 279,
  "ellingen": 3308,
  "\u0120video": 2347,
  "\u0120wall": 9789,
  "\u0120canada": 4695,
  "inique": 15398,
  "\u0120vullen": 8899,
  "\u0120autosnel": 13385,
  "\u0120toegestaan": 10936,
  "\u0120leden": 3119,
  "\u0120geex": 15280,
  "\u0120mike": 13559,
  "\u0120teleur": 7604,
  "\u0120duit": 974,
  "\u0120huilen": 3357,
  "\u0120peters": 12926,
  "1389": 10258,
  "\u0120zee": 1042,
  "oscoop": 6184,
  "\u0120ath": 9008,
  "\u0120gekke": 8302,
  "\u0120suikers": 13690,
  "\u0120cellul": 13839,
  "\u0120onzin": 9470,
  "\u0120doodstraf": 13404,
  "rie": 1424,
  "\u0120benzine": 6288,
  "\u0120haartjes": 14039,
  "\u0120fluisterde": 6573,
  "\u0120verbind": 15090,
  "omingen": 5704,
  "\u0120veil": 2009,
  "\u0120gebeurten": 3405,
  "\u0120uiteinde": 12177,
  "\u0120exempl": 9952,
  "thuis": 15657,
  "sulf": 12493,
  "\u0120militaire": 5902,
  "\u0120lint": 13847,
  "\u0120ac": 1830,
  "vermogen": 9835,
  "\u0120vlaanderen": 6160,
  "\u0120ondersteunen": 12144,
  "\u00c9\u00a8": 6879,
  "\u0120chocola": 9525,
  "zuur": 2660,
  "\u0120wol": 2448,
  "\u0120districten": 13221,
  "\u0120brandstoffen": 12947,
  "\u0120blote": 9757,
  "antal": 9387,
  "\u0120tekenen": 3871,
  "\u0120nachts": 5824,
  "\u0120uitzien": 12979,
  "\u0120had": 477,
  "\u0120spr": 1212,
  "day": 14875,
  "isseerd": 12520,
  "\u0120overzicht": 5936,
  "\u0120eigenaar": 6115,
  "\u0120indonesische": 14171,
  "\u0120uitzonder": 7631,
  "\u0120joe": 10464,
  "\u0120veranderde": 5345,
  "vlieg": 11143,
  "\u0120tre": 1143,
  "\u0120jagen": 6968,
  "\u0120japan": 2795,
  "tre": 6098,
  "\u0120mm": 5761,
  "maatschappij": 5385,
  "\u0120wethouder": 15308,
  "\u0120torn": 13680,
  "\u0120hectar": 13165,
  "\u0120meda": 5788,
  "\u0120kunstenaar": 5775,
  "\u0120it": 6486,
  "peratuur": 2402,
  "\u0120roc": 11461,
  "\u0120lap": 9533,
  "\u0120godsdienst": 7193,
  "ders": 776,
  "lex": 4462,
  "etjes": 2799,
  "\u0120sow": 14245,
  "mus": 3652,
  "will": 5312,
  "\u01201924": 12650,
  "\u0120haren": 5362,
  "mal": 5444,
  "\u0120failliet": 14789,
  "\u0120beiden": 9931,
  "groei": 9060,
  "\u0120vluchtelingen": 6992,
  "b": 44,
  "\u0120zielig": 7945,
  "chtend": 3679,
  "\u0120vrachtwagen": 6292,
  "\u0120bezorgd": 8129,
  "ve": 286,
  "combin": 12488,
  "2012": 11196,
  "\u0120architect": 8344,
  "\u01202007": 4045,
  "ee": 217,
  "\u0120wist": 1930,
  "\u0120duiken": 10315,
  "verse": 4654,
  "\u0120cm": 3347,
  "malige": 4721,
  "\u0120pl": 435,
  "\u0120immigranten": 10071,
  "\u0120wemel": 7098,
  "aden": 2288,
  "uiling": 7499,
  "vog": 3438,
  "sterven": 11873,
  "\u0120drugs": 7069,
  "isch": 415,
  "beheer": 11182,
  "\u0120aardig": 4438,
  "\u0120soph": 7823,
  "\u0120jan": 1172,
  "\u0120nazi": 6156,
  "stru": 6235,
  "\u0120ierse": 10867,
  "\u0120anim": 5328,
  "\u0120sokken": 9637,
  "breng": 5155,
  "\u0120bew": 1563,
  "\u0120tarwe": 12230,
  "\u0120tram": 9130,
  "\u0109": 137,
  "\u0120onderwerp": 1219,
  "!'": 823,
  "\u0120staatsschuld": 15692,
  "\u0120kunststof": 11326,
  "\u0120reactievergelijking": 12635,
  "\u0120gerechten": 11420,
  "aki": 15376,
  "\u0120mexico": 4693,
  "\u0120punk": 14092,
  "\u0120immig": 6849,
  "ellig": 15262,
  "\u0120roeren": 15836,
  "\u0120hoefde": 9806,
  "voorts": 13234,
  "\u0120pakt": 2939,
  "\u0120uitgeroepen": 11086,
  "\u0120opgehaald": 9500,
  "industrie": 6417,
  "sk": 1229,
  "\u0120wijzig": 15838,
  "44": 5805,
  "bul": 10040,
  "\u0120zen": 2628,
  "\u0120donau": 14974,
  "\u0120bruto": 12801,
  "juf": 11839,
  "1118": 10433,
  "\u0120schitt": 12514,
  "ompje": 14879,
  "\u0120verbeeld": 11462,
  "\u0120stierven": 12356,
  "langs": 8826,
  "\u0120behand": 3435,
  "\u0120zelden": 11178,
  "bek": 9108,
  "plaatste": 15923,
  "\u0120lokken": 15120,
  "\u0120noordoosten": 12158,
  "\u0120mompelde": 9162,
  "\u0120pip": 8511,
  "atorium": 8164,
  "chn": 2034,
  "verschillen": 8852,
  "cte": 5421,
  "woordt": 4831,
  "\u0120gunstig": 10939,
  "\u0120reageerde": 13990,
  "\u0120intelligentie": 13065,
  "\u0120rolstoel": 10952,
  "\u0120zenuwen": 11131,
  "\u0120hoofd": 780,
  "\u0120symb": 4542,
  "575": 15048,
  "ooh": 10690,
  "\u0120kippen": 5756,
  "\u0120mong": 12496,
  "cellen": 3230,
  "itst": 9790,
  "olie": 4150,
  "\u0120jungle": 15427,
  "sers": 5445,
  "viet": 12385,
  "uchten": 4194,
  "\u0120lukt": 4617,
  "\u0120doelpunt": 8816,
  "\u0120algemene": 6227,
  "\u0120gevlucht": 10276,
  "jus": 14791,
  "ust": 739,
  "bei": 2247,
  "aspartyl": 7745,
  "reen": 10441,
  "mmers": 12900,
  "\u0128\u0134": 5350,
  "\u0120jeruzalem": 12191,
  "\u0120bepalen": 4237,
  "\u0120klaar": 1849,
  "inen": 2127,
  "\u00c9": 108,
  "\u0120lo": 5300,
  "\u0120hoop": 2962,
  "\u0120bedoeling": 5299,
  "splan": 14815,
  "ely": 9676,
  "\u0120overleg": 8932,
  "\u0120geken": 15712,
  "\u0120zoo": 14795,
  "\u0120vaardigheden": 13558,
  "\u0120voorop": 12872,
  "\u0120hypothe": 7811,
  "\u0120nieuwe": 806,
  "\u0120titels": 12002,
  "\u0120romantische": 15040,
  "\u0120kids": 13045,
  "\u0120fosf": 9408,
  "\u0120graafschap": 10966,
  "\u0120blaast": 12776,
  "centr": 11856,
  "britt": 5778,
  "elly": 8349,
  "\u0120michael": 5803,
  "ugel": 8719,
  "\u0120tar": 5078,
  "\u01202020": 3767,
  "last": 5205,
  "edict": 2338,
  "\u0120ballen": 8464,
  "\u0120oe": 1582,
  "\u0120kg": 4030,
  "\u0120schouder": 5880,
  "ongfestival": 9477,
  "\u0120ba": 5019,
  "atten": 5783,
  "\u0120prij": 14741,
  "speler": 7018,
  "\u0120vuurtoren": 13459,
  "\u0120houdt": 2090,
  "uu": 12906,
  "\u0120zelf": 608,
  "handig": 11760,
  "\u0120moesten": 2097,
  "plein": 5659,
  "\u0120oversteken": 14625,
  "\u0120politiek": 2918,
  "\u0120held": 7218,
  "\u0120strand": 3504,
  "mming": 4211,
  "\u0120gelderland": 7505,
  "plaat": 1301,
  "\u0120aft": 6141,
  "\u0120verbeteringen": 15622,
  "opbouw": 13210,
  "\u0120vierkante": 10771,
  "hout": 5680,
  "stam": 6200,
  "\u0120bella": 15383,
  "\u0120huidige": 3225,
  "ragment": 2856,
  "nood": 9377,
  "\u0120humor": 10499,
  "zag": 7821,
  "\u0120betaal": 8022,
  "dans": 13192,
  "\u0120gooi": 8895,
  "\u0120gelden": 8878,
  "\u0120afsluiting": 15872,
  "\u0120bruin": 5176,
  "\u0120vergelijk": 2382,
  "\u0120ernst": 13473,
  "tiel": 9613,
  "\u0120xvii": 12967,
  "\u0120volgende": 1018,
  "vak": 4137,
  "\u0120schep": 11315,
  "uzik": 5470,
  "\u0120verschijnen": 10185,
  "role": 3149,
  "\u0120rose": 12897,
  "\u0120woont": 2897,
  "bedenk": 8330,
  "\u0120transport": 6974,
  "\u0120arthur": 10768,
  "\u0120afwe": 13372,
  "\u0120gelezen": 6393,
  "\u0120opgeruimd": 15312,
  "\u0120112": 13486,
  "\u0120beestje": 12357,
  "tur": 15049,
  "\u0120onderzoeker": 9875,
  "\u0120fotograaf": 11209,
  "tanden": 12605,
  "\u012019": 455,
  "eef": 585,
  "\u0120wit": 1389,
  "board": 9512,
  "\u0120verf": 4604,
  "\u0120steenkool": 10009,
  "\u0120dieper": 10932,
  "\u0120verbruikt": 13386,
  "v": 64,
  "\u0120achtereen": 13955,
  "\u0120droeg": 7428,
  "\u0120verkoopt": 8466,
  "496": 10347,
  "cirkel": 6680,
  "mak": 3836,
  "\u0120zwaaide": 12542,
  "ouverne": 6712,
  "iris": 9873,
  "\u0120tw": 1657,
  "\u0120sorry": 8786,
  "igend": 9578,
  "\u0120volkspartij": 15396,
  "\u0120vasthouden": 8650,
  "68": 3258,
  "\u0120arrest": 13655,
  "\u0120bepaalt": 8423,
  "\u0120sap": 7228,
  "waarde": 3817,
  "\u0120bevrucht": 10281,
  "prijzen": 7678,
  "\u0120antwerpen": 5990,
  "\u0120albert": 4975,
  "\u0120kiesrecht": 12242,
  "holder": 12778,
  "regeling": 15417,
  "\u0120aangeb": 8402,
  "\u012047": 9334,
  "\u0120zodan": 12178,
  "\u0120boterham": 6866,
  "verschil": 5536,
  "\u0120brown": 15518,
  "riek": 3096,
  "\u0120vlot": 12981,
  "\u0120li": 2400,
  "\u0120hand": 769,
  "\u0120haged": 15268,
  "sub": 14404,
  "liep": 8288,
  "\u0120syl": 14058,
  "ced": 8935,
  "ouder": 12814,
  "\u0120mompelt": 10781,
  "vat": 1300,
  "\u0120andere": 514,
  "\u0120grotten": 14442,
  "\u0120exper": 3841,
  "\u0120tine": 14767,
  "\u0120bovenkant": 11096,
  "\u0120waddenzee": 11411,
  "\u0120begint": 1740,
  "ikt": 1222,
  "\u0120ongelukken": 11646,
  "oest": 2298,
  "scholen": 7369,
  "\u0120concerten": 15288,
  "\u0120jezus": 6041,
  "welke": 2144,
  "526": 10203,
  "\u0120negentien": 14323,
  "ijd": 445,
  "\u0120meubels": 12078,
  "tuut": 15658,
  "oer": 711,
  "\u0120provin": 1632,
  "isoleucyl": 5420,
  "\u0120renaiss": 8672,
  "\u0120bez": 1217,
  "84": 2483,
  "\u0120systeem": 3972,
  "\u0120file": 12823,
  "\u0120diamant": 15102,
  "arie": 12407,
  "vanaf": 7001,
  "\u0120at": 1316,
  "\u0120zak": 2163,
  "\u0120leer": 1245,
  "s": 61,
  "oede": 922,
  "\u0120engelsen": 9303,
  "ffing": 11855,
  "zwart": 14579,
  "\u0120uitst": 6016,
  "\u0120speelde": 3592,
  "ant": 354,
  "gev": 665,
  "\u0120opv": 13288,
  "be": 333,
  "\u0120waarmee": 2618,
  "\u0120pelag": 10248,
  "\u0120bezetting": 11481,
  "\u0120vertelt": 2684,
  "\u0120kortste": 14144,
  "\u0120kamerverkiezingen": 9235,
  "\u0120daarover": 8360,
  "ureel": 9589,
  "\u0120critic": 13472,
  "\u0120stappen": 3785,
  "\u0120conserv": 8297,
  "mich": 9988,
  "\u0120jaar": 513,
  "\u0120lim": 3648,
  "885": 10227,
  "\u0120hoogtepunt": 11174,
  "\u0120hond": 1226,
  "\u0120boel": 10352,
  "\u0120lich": 1633,
  "\u0120jaren": 1139,
  "quent": 12517,
  "jury": 15822,
  "\u0120vanmorgen": 10607,
  "\u0120tiend": 10786,
  "schrijf": 2529,
  "ally": 15611,
  "\u0120kies": 1946,
  "zaken": 4732,
  "\u0120je": 251,
  "\u0120che": 7943,
  "\u0120slavernij": 6037,
  "formule": 6139,
  "\u0120beren": 8530,
  "roduceerd": 14917,
  "worm": 13392,
  "dan": 1250,
  "wek": 7006,
  "ingen": 371,
  "\u0120kwalificatie": 13525,
  "stijl": 6346,
  "\u0120stromingen": 14014,
  "wl": 13940,
  "\u0120vele": 2814,
  "<SEP>": 3,
  "\u0120tra": 1086,
  "age": 1284,
  "\u0120inzet": 10743,
  "\u0120opvallen": 5731,
  "\u0120lidstaten": 13059,
  "\u0120soep": 4628,
  "lid": 6535,
  "wijde": 11627,
  "12": 918,
  "zweden": 15815,
  "olympische": 14828,
  "sign": 14793,
  "\u0120toenmalige": 13876,
  "\u0120laatste": 1201,
  "\u0120decenn": 14264,
  "kinderen": 5707,
  "voorzichtig": 12673,
  "vanda": 10689,
  "\u0120studeerde": 7488,
  "\u0120tak": 4545,
  "\u0120toon": 2098,
  "isteren": 1940,
  "\u0120troon": 5376,
  "\u0120pon": 10348,
  "\u0120strafbaar": 14913,
  "\u0120zeeen": 12332,
  "yst": 2228,
  "\u0120genot": 10255,
  "atieven": 11818,
  "\u0120begraven": 6588,
  "voerder": 10261,
  "168": 10154,
  "inkt": 2636,
  "\u0120plek": 1426,
  "89": 2431,
  "daan": 2927,
  "vlaanderen": 12741,
  "\u0120productie": 3503,
  "\u012053": 8340,
  "\u0120dikker": 12721,
  "2013": 7477,
  "musical": 15890,
  "bilj": 14377,
  "go": 4815,
  "verbruik": 9736,
  "risis": 8181,
  "\u0120islamitische": 9017,
  "2009": 15138,
  "\u0120bataaf": 15206,
  "\u0120db": 13412,
  "tik": 15079,
  "president": 4504,
  "\u0120spreek": 4762,
  "\u0120gekookt": 14085,
  "\u0120proberen": 2943,
  "\u0120\u00e2\u0122\u012d": 7217,
  "koningin": 15100,
  "\u0120turner": 15064,
  "\u0120partner": 11184,
  "\u0120result": 3014,
  "\u0120wie": 1038,
  "\u0120achttiende": 12780,
  "\u0120strips": 12374,
  "erm": 1716,
  "vla": 13939,
  "\u0120stoere": 14763,
  "bit": 15325,
  "conclusie": 8434,
  "\u0120ondergrondse": 14326,
  "\u0120gevorm": 4439,
  "\u0120fel": 3545,
  "dad": 8004,
  "ciale": 7190,
  "\u0120beoord": 3961,
  "\u0120schrikken": 8923,
  "\u0120dekens": 15458,
  "brother": 3770,
  "\u0120voren": 4800,
  "\u0120moskou": 7840,
  "\u0120gods": 5275,
  "\u0120straling": 8303,
  "\u0120onderdeel": 2614,
  "gele": 1401,
  "\u0120natura": 10977,
  "x": 66,
  "\u0120gig": 8510,
  "brr": 9087,
  "geven": 796,
  "kn": 2622,
  "\u0120maatschappelijke": 7021,
  "\u0120argumenten": 5434,
  "persoon": 5917,
  "\u0120eefie": 5072,
  "bu": 12477,
  "\u0120onderwijs": 2905,
  "\u0120waarop": 2401,
  "\u0120vir": 3845,
  "\u0120versterken": 14481,
  "\u0120krui": 7870,
  "\u0120kaat": 12434,
  "\u0120hal": 1364,
  "duizend": 9082,
  "schuw": 4647,
  "\u0120gat": 4201,
  "\u0120collectieve": 15778,
  "\u0120reageren": 4802,
  "\u0120hag": 7338,
  "\u012069": 12822,
  "\u012018": 809,
  "verk": 2374,
  "\u0120klasgenoot": 13029,
  "\u0120verdw": 2242,
  "\u0120treedt": 9498,
  "\u0120mogen": 1945,
  "\u0120kelly": 10132,
  "\u0120fem": 7814,
  "\u0120rij": 1314,
  "terug": 12153,
  "\u0120rid": 4055,
  "\u0120persoons": 5034,
  "et": 179,
  "resultaten": 14482,
  "\u0120overgebracht": 15437,
  "\u0120opbouw": 11896,
  "1830": 9258,
  "\u0120spelen": 1182,
  "\u0120aarz": 7792,
  "\u0120standpunten": 11514,
  "sloop": 9932,
  "other": 293,
  "\u0120schimm": 8862,
  "\u0120brazil": 4382,
  "\u0120stoom": 6094,
  "\u0120opgevoed": 14173,
  "\u0120filmen": 15513,
  "ornie": 7705,
  "iften": 11640,
  "els": 469,
  "\u0120gehad": 2912,
  "\u0120gesproken": 3501,
  "\u0120gulden": 8676,
  "\u0120gepl": 5544,
  "cret": 8362,
  "\u0120ve": 1155,
  "\u0120vrees": 12998,
  "\u0120!": 14824,
  "\u0120zong": 10663,
  "\u0120internationale": 3989,
  "\u0120vleermuizen": 14236,
  "intig": 3006,
  "rekt": 5287,
  "\u0120drie": 758,
  "\u0120bestuur": 2704,
  "blok": 5624,
  "\u0120afwijking": 14626,
  "\u0120misdaad": 12396,
  "\u0120plekje": 10632,
  "\u0120indire": 14063,
  "\u0120williams": 14325,
  "oste": 15497,
  "\u012083": 14062,
  "derde": 6136,
  "\u0120enqu": 14216,
  "\u0120)": 6604,
  "wijd": 5122,
  "\u0120verre": 7461,
  "\u0120laad": 12854,
  "rekening": 7521,
  "auffeur": 6547,
  "\u0120cele": 5330,
  "plaatje": 9522,
  "assen": 1001,
  "koek": 5001,
  "\u0120gedwongen": 9178,
  "ji": 8336,
  "\u0120harm": 7047,
  "schien": 1235,
  "project": 12718,
  "\u0120michel": 11036,
  "\u0120ontwikk": 3502,
  "icht": 409,
  "\u0120veroor": 2540,
  "1878": 9921,
  "inten": 8029,
  "1": 22,
  "appe": 13560,
  "\u0120to": 542,
  "\u0120liber": 4191,
  "name": 3832,
  "\u0120noten": 7112,
  "\u0120lindsey": 11426,
  "kok": 9176,
  "\u0120brussel": 5736,
  "\u0120plannen": 4154,
  "\u0120veldslag": 15931,
  "\u0120gemeentehuis": 15272,
  "\u0120rechtstreeks": 10738,
  "verenig": 5225,
  "\u0120vliegtuigen": 5549,
  "\u0120femin": 13622,
  "\u0120psych": 5695,
  "\u0120romeinen": 4108,
  "\u0120toezicht": 13776,
  "\u0120stik": 5696,
  "1285": 9298,
  "\u0120leerde": 8531,
  "\u0120sier": 5618,
  "\u0120prog": 9030,
  "523": 10162,
  "\u0120gewend": 8680,
  "je": 260,
  "\u0120verklaringen": 12802,
  "\u0120flu": 11047,
  "sie": 2581,
  "\u0120neushoorn": 11681,
  "\u0120vriendin": 5106,
  "\u0120dance": 12847,
  "\u012042": 6900,
  "\u0120schooltv": 1608,
  "\u0120fabrik": 8758,
  "\u0120videofragment": 12810,
  "-": 18,
  "\u0120monsters": 12752,
  "baarheid": 5053,
  "\u0120recente": 15808,
  "\u0120magnesium": 11609,
  "\u0120grondwet": 4457,
  "\u0120via": 1543,
  "orge": 3630,
  "\u0120zuster": 8570,
  "aas": 1082,
  "\u0120praktijk": 8104,
  "\u0120ademhaling": 14292,
  "\u0120beweert": 11477,
  "\u0120zusjes": 15096,
  "enkele": 13083,
  "\u0120duwde": 9383,
  "tussen": 2845,
  "\u0120duw": 4697,
  "well": 13249,
  "\u0120mooi": 1480,
  "\u0120satelliet": 11273,
  "\u0120friedrich": 13553,
  "\u0120ade": 6632,
  "\u0120vi": 1344,
  "\u0120turkije": 4360,
  "\u0120opp": 7484,
  "hoort": 14076,
  "\u0120pius": 3217,
  "\u0120straks": 2967,
  "\u0120omroep": 6068,
  "\u0120tafels": 13113,
  "\u0120lodewijk": 3882,
  "\u0120helder": 7092,
  "elie": 12234,
  "\u0120vle": 2648,
  "soorten": 4321,
  "\u0120dorpje": 8156,
  "\u0120bol": 2833,
  "eeks": 3666,
  "\u0120onbe": 3280,
  "stade": 10856,
  "asser": 11009,
  "verband": 13125,
  "\u0120flinke": 7465,
  "\u0120steen": 2433,
  "1846": 10377,
  "\u0120tuur": 6510,
  "intje": 15823,
  "rijs": 1427,
  "historie": 10037,
  "\u0120boven": 899,
  "\u0120lust": 9179,
  "winter": 15115,
  "\u0120voordel": 13730,
  "\u0120verkleed": 12292,
  "\u0120du": 2356,
  "\u0120muzik": 6000,
  "\u0120braaf": 14288,
  "ou": 253,
  "soms": 6994,
  "\u0120geleerd": 4653,
  "ros": 3754,
  "\u0120schematisch": 8428,
  "\u0120roken": 7975,
  "\u0120zelfde": 11169,
  "overige": 12898,
  "kring": 7247,
  "\u0120dubbele": 8436,
  "eegd": 7250,
  "\u0120rode": 2222,
  "etitie": 7374,
  "oeden": 2873,
  "\u0120not": 3415,
  "\u0120site": 5364,
  "edel": 10376,
  "\u0120vast": 1010,
  "verander": 5693,
  "\u0120o": 189,
  "kar": 4601,
  "\u0120sterft": 12064,
  "banen": 11285,
  "gelijke": 4934,
  "\u0120horizon": 15071,
  "\u0120netwerk": 9281,
  "\u0120bananen": 10345,
  "beschouwing": 14400,
  "markten": 9592,
  "galerij": 6361,
  "\u0120kloosters": 14692,
  "uisterd": 12423,
  "\u010a": 138,
  "\u0120olden": 13828,
  "\u0120beschouw": 15767,
  "eens": 1621,
  "\u0120rijtjes": 14315,
  "\u0120hoopt": 7123,
  "\u0120run": 9353,
  "\u0120probeerde": 3728,
  "\u0120stemt": 15390,
  "\u0120wat": 356,
  "\u0120sanne": 7898,
  "\u0120groep": 1116,
  "\u0120passagiers": 6651,
  "\u0120wille": 7253,
  "\u0120ban": 3179,
  "\u0120armen": 3558,
  "omot": 5147,
  "\u0120zodra": 5883,
  "anders": 1766,
  "\u0120muzikanten": 14233,
  "\u0120haar": 434,
  "\u0120wele": 7874,
  "\u0120imp": 8149,
  "\u0120uitgelegd": 10859,
  "\u0120spoorwegen": 9795,
  "\u0120vandaag": 1504,
  "\u0120paardje": 15524,
  "\u0120perfecte": 14652,
  "\u0120ruud": 15541,
  "\u0120doc": 4880,
  "\u0120zult": 9028,
  "\u0120inspiratie": 9124,
  "vlag": 7978,
  "yp": 2329,
  "send": 12556,
  "alle": 2202,
  "liedjes": 13833,
  "ffe": 10726,
  "woningen": 13856,
  "\u0120boed": 8187,
  "\u0120chemisch": 13198,
  "arnold": 14210,
  "\u0120verband": 3429,
  "\u0120bron": 857,
  "\u0120ontwikkeld": 5529,
  "\u0120maatregelen": 5346,
  "\u0120voorkomen": 2369,
  "gezin": 15830,
  "\u0120chinese": 4624,
  "\u0120knieen": 8971,
  "\u0120ooster": 8072,
  "\u0120wiss": 8232,
  "ny": 4956,
  "\u0120sander": 11895,
  "\u0120aangeeft": 13755,
  "\u0120cels": 13645,
  "\u0120onze": 1358,
  "217": 10039,
  "oten": 836,
  "iteit": 870,
  "\u0120aand": 1962,
  "\u0120woonden": 5097,
  "\u0120gevaar": 2216,
  "hangen": 6661,
  "\u0120jo": 3523,
  "genoot": 5438,
  "skund": 4384,
  "goe": 11191,
  "schijn": 1519,
  "931": 10300,
  "\u0120shanghai": 14089,
  "konijn": 11698,
  "atie": 405,
  "\u0120voortplanting": 13696,
  "\u0120siem": 12248,
  "\u0120flesje": 10051,
  "\u0120aarde": 1874,
  "\u0120noorder": 15415,
  "zuiger": 13551,
  "\u0120wouter": 7933,
  "\u0120marinus": 9909,
  "\u0120zeek": 10605,
  "ctoren": 14690,
  "\u0120zij": 721,
  "\u0120ongezond": 15992,
  "\u0120letland": 13986,
  "\u0120duurde": 5334,
  "\u0120bioscoop": 7638,
  "\u0120napoleon": 4176,
  "ijt": 2620,
  "vast": 5814,
  "?": 36,
  "\u0120tol": 6589,
  "retje": 10617,
  "eau": 6102,
  "son": 3566,
  "\u0120enorme": 3697,
  "daarom": 10140,
  "ada": 3252,
  "offel": 14255,
  "ford": 9070,
  "\u0120zwaan": 14499,
  "ale": 526,
  "stromen": 10751,
  "\u0120turf": 12068,
  "\u0120felle": 12318,
  "\u0120basisschool": 5027,
  "\u0120heleboel": 6074,
  "\u0120verle": 6406,
  "bot": 7894,
  "\u0120zwart": 3301,
  "\u0120taal": 1935,
  "ipt": 3946,
  "\u0120nederlands": 2083,
  "\u01201935": 15095,
  "sse": 3188,
  "\u0120verlagen": 13484,
  "\u0120pist": 10096,
  "\u0120paarden": 4148,
  "ijsten": 8771,
  "\u0120orka": 14878,
  "\u0120docenten": 11145,
  "ionele": 4250,
  "\u0120klin": 13050,
  "yla": 15024,
  "stellen": 2949,
  "\u0120chef": 15699,
  "\u0120meter": 1685,
  "\u0120advertentie": 7214,
  "\u0120zachte": 7583,
  "\u0120opger": 3041,
  "somm": 3889,
  "\u0120essent": 14887,
  "eur": 1858,
  "\u012e": 153,
  "ion": 558,
  "kunde": 4027,
  "\u0120overleed": 4694,
  "ed": 568,
  "\u01201965": 11229,
  "\u0120mosk": 5867,
  "\u0120tijdelijke": 13565,
  "rag": 1193,
  "cip": 4355,
  "\u0120evenwicht": 6739,
  "\u0120rooie": 13273,
  "ulier": 13049,
  "\u0120leu": 3150,
  "\u0120manieren": 3614,
  "\u0120neur": 9508,
  "\u0120haiti": 15128,
  "\u0120heten": 5550,
  "\u0120graaf": 4388,
  "\u0120verloor": 5177,
  "pir": 12887,
  "ramp": 11948,
  "\u0120eentje": 3788,
  "\u0120verlangen": 14809,
  "taal": 4531,
  "\u0120radioactieve": 14584,
  "\u0120poolse": 9954,
  "mevrouw": 12117,
  "\u0120geslacht": 5662,
  "ket": 3098,
  "matig": 3377,
  "\u0120stelde": 5609,
  "\u0120droegen": 10790,
  "31": 4593,
  "\u0120akkoord": 8546,
  "72": 2561,
  "\u0120speur": 11767,
  "\u0120clown": 8743,
  "ubb": 11094,
  "\u0120aanwezigheid": 8837,
  "eigenlijk": 10581,
  "sn": 1841,
  "\u0120innemen": 15906,
  "\u0120frankfurt": 15726,
  "\u0120wetenschapper": 13037,
  "\u0120verloop": 9034,
  "xy": 9026,
  "aaf": 6286,
  "affing": 14735,
  "\u0120vuist": 11427,
  "sporen": 10275,
  "\u0120grootst": 13735,
  "\u0120oppervlak": 3420,
  "\u0120vestigen": 14486,
  "\u0120details": 12322,
  "sst": 10486,
  "ournal": 4316,
  "ialisme": 11407,
  "\u0120hoge": 2020,
  "\u0120franse": 2081,
  "\u0120precies": 1788,
  "hof": 4887,
  "\u0120greep": 7641,
  "ob": 1308,
  "\u0120veroverden": 14756,
  "\u0120spit": 14594,
  "\u01201848": 10085,
  "mans": 5828,
  "\u0120voorl": 4447,
  "\u0120grondwater": 9356,
  "\u0120dum": 13999,
  "\u0120behoorlijk": 5800,
  "iversiteit": 12032,
  "uele": 4260,
  "\u0120bacterien": 4421,
  "ctuur": 3104,
  "jet": 2693,
  "1352": 10432,
  "\u0120gewonden": 11239,
  "oogle": 1489,
  "mee": 906,
  "\u00e2\u0122\u012d": 7211,
  "\u0120locomotief": 15591,
  "\u0120draag": 8750,
  "\u0120simpele": 15480,
  "\u0120mas": 5563,
  "\u0120openings": 15201,
  "891": 10361,
  "ukt": 3683,
  "pakt": 3223,
  "\u0120gooit": 6230,
  "\u0120lossen": 7788,
  "\u0120lelijk": 10539,
  "affen": 8611,
  "\u0120cast": 6763,
  "ongeveer": 11848,
  "uwen": 2720,
  "\u0120couplet": 13552,
  "\u0120mede": 3069,
  "\u0120naged": 11638,
  "\u0120tegenwoordige": 11608,
  "\u0120aart": 15116,
  "\u0120omroepen": 14962,
  "\u0120wang": 10420,
  "\u0120interview": 5433,
  "\u0120cade": 5280,
  "\u0120achttien": 12754,
  "\u0120chic": 10961,
  "\u0120opt": 2308,
  "\u0120lam": 7926,
  "\u0120satell": 8685,
  "\u0120zeld": 5907,
  "\u0120laken": 13757,
  "mig": 14897,
  "\u0120grieks": 9700,
  "\u0120kleding": 3240,
  "\u0120aan": 280,
  "984": 15560,
  "ver": 270,
  "\u0120uruguay": 13619,
  "\u0120schaap": 6923,
  "1455": 10473,
  "\u0120geert": 12711,
  "\u0120genezen": 10535,
  "\u0120vrouwelijke": 7421,
  "\u0120jaarlijkse": 7816,
  "\u0120zekere": 13313,
  "anim": 14275,
  "goederen": 14788,
  "\u0120akkie": 7903,
  "\u0120tennis": 7210,
  "voordat": 15538,
  "\u0120discus": 4873,
  "\u0120bestellen": 15409,
  "oonde": 14691,
  "\u00e4": 129,
  "\u0120archite": 4614,
  "kig": 2095,
  "ona": 3208,
  "rey": 11136,
  "\u0120heeft": 394,
  "\u0120kamerlid": 12029,
  "\u0120gepubliceerd": 5409,
  "\u0120cola": 9120,
  "\u0120zo": 330,
  "dolf": 11933,
  "\u0120ml": 6084,
  "\u0120ruwe": 15569,
  "joh": 7475,
  "\u0120letten": 7987,
  "\u0120mario": 7073,
  "!": 6,
  "\u0120winter": 2745,
  "\u0120groente": 6577,
  "\u0120jul": 814,
  "oll": 12909,
  "\u0120zetten": 2079,
  "\u0120aanraking": 14212,
  "\u0120gisteravond": 7322,
  "city": 13640,
  "\u0120sluit": 5916,
  "hap": 12659,
  "\u0120zeespiegel": 12618,
  "wol": 5793,
  "\u0120personage": 7958,
  "\u0120fram": 12175,
  "\u0120komma": 15088,
  "\u0120exclusief": 13736,
  "\u0120wilden": 2687,
  "\u0120arme": 4962,
  "\u0120explosie": 11650,
  "1187": 6506,
  "\u0120theod": 9032,
  "\u0120econom": 1832,
  "isten": 1192,
  "itsen": 9894,
  "pop": 3682,
  "madam": 15075,
  "aardige": 10076,
  "spron": 2941,
  "\u0120soft": 10957,
  "\u0120ing": 5412,
  "rek": 846,
  "knoop": 10343,
  "mas": 9766,
  "\u0120vit": 5496,
  "iast": 6767,
  "\u0120ziekenhuizen": 12243,
  "ges": 5896,
  "\u0120acet": 15645,
  "\u0120vaat": 12306,
  "\u0120gebouw": 2635,
  "\u0120kiez": 12286,
  "\u0120eb": 6830,
  "\u0120vloed": 12348,
  "\u0120pony": 12761,
  "uizend": 6449,
  "\u0120stoer": 10016,
  "brengen": 4868,
  "\u0120kalf": 12781,
  "\u0120rijst": 6001,
  "\u0120misl": 5801,
  "\u0120ministerie": 6232,
  "\u0120aanb": 4841,
  "\u0120pauze": 7407,
  "\u0120hersteld": 12017,
  "\u0120werken": 1339,
  "\u0120br": 422,
  "\u0120en": 213,
  "\u0120poeder": 12513,
  "\u0120verminder": 8229,
  "\u0120balken": 9996,
  "dicht": 6276,
  "\u0120klopte": 13583,
  "\u0120begrijp": 7270,
  "\u0120kh": 14866,
  "\u0120pootjes": 12806,
  "\u0120vertel": 4327,
  "its": 2094,
  "\u0120ontwikkelen": 6773,
  "2015": 14200,
  "\u0120ridder": 5450,
  "\u0120installatie": 13031,
  "\u0120hui": 11936,
  "uil": 1152,
  "\u0120instru": 3386,
  "ago": 5854,
  "ames": 4979,
  "kikker": 8203,
  "\u0120vieren": 5511,
  "\u0120verst": 2189,
  "vrij": 4123,
  "jewel": 11349,
  "\u0120oefen": 5926,
  "\u0120baden": 13679,
  "\u0120vallen": 1950,
  "ra": 263,
  "kanen": 6549,
  "\u0120strook": 14597,
  "\u0120hierdoor": 1444,
  "snede": 9253,
  "85": 2238,
  "\u0120vertelde": 4255,
  "\u0120tradities": 13901,
  "veringen": 11801,
  "\u0120vijanden": 8312,
  "eeksel": 11854,
  "bor": 6743,
  "\u01201964": 8850,
  "\u0120opnames": 13822,
  "\u0120ijssel": 6891,
  "\u0120schand": 15029,
  "\u0120stress": 10134,
  "\u0120cap": 4386,
  "\u0120verklaarde": 11119,
  "\u01201800": 12615,
  "rang": 15788,
  "\u0120geer": 14059,
  "\u0120ingewikkeld": 12859,
  "\u0120rie": 8677,
  "\u0120ex": 709,
  "zant": 9243,
  "spor": 15719,
  "\u0120fen": 6428,
  "\u01207": 840,
  "\u0120verder": 931,
  "\u0120opbreng": 6835,
  "\u0120afvalwater": 14554,
  "\u0120aziatische": 10757,
  "\u0120bijna": 1154,
  "noteer": 8538,
  "\u0120wijd": 10661,
  "\u0120kr": 699,
  "\u0120kampen": 9976,
  "\u0120al": 245,
  "\u0120geinspir": 10410,
  "eek": 603,
  "iform": 9798,
  "\u0120gezichts": 15733,
  "\u0120omgeving": 3860,
  "verkiezingen": 4092,
  "\u0120eurocent": 13319,
  "\u0120kleur": 1598,
  "\u0120paars": 10951,
  "inde": 1515,
  "eemt": 9368,
  "\u0120erv": 3868,
  "stemming": 5296,
  "richt": 3839,
  "celona": 7944,
  "\u01201968": 8053,
  "als": 546,
  "\u0120beeldende": 14757,
  "\u0120betaalde": 11872,
  "\u0120verhe": 14218,
  "\u0120overeenkomst": 9656,
  "\u0120kel": 14308,
  "zakelijk": 8631,
  "\u0120rijkste": 13962,
  "wee": 393,
  "\u0120gisteren": 3169,
  "\u0120omschrijving": 7706,
  "\u0120dun": 3439,
  "ters": 1872,
  "neet": 9279,
  "bes": 6395,
  "\u0120toneelstuk": 4799,
  "studio": 15108,
  "\u0120vas": 15759,
  "ieke": 1613,
  "\u0120hat": 14462,
  "\u0120welzijn": 15000,
  "orn": 3664,
  "album": 7915,
  "\u0120antwoordde": 6082,
  "124": 4528,
  "zitten": 6046,
  "\u0120gevoel": 3262,
  "ulsen": 14101,
  "\u0120streken": 13609,
  "\u0120maxim": 1995,
  "\u0120daling": 11686,
  "geweld": 15930,
  "editie": 13653,
  "namelijk": 3622,
  "\u0120druk": 1642,
  "\u0120groenten": 9684,
  "\u0120rosa": 9857,
  "\u0120politici": 5489,
  "\u0120rijken": 14715,
  "probleem": 13214,
  "landers": 9808,
  "\u0120lijdend": 15281,
  "\u0120alvast": 10098,
  "\u0120keus": 15477,
  "\u0120afgesproken": 7787,
  "\u0120manier": 1487,
  "ror": 6685,
  "aterdag": 4367,
  "internation": 14726,
  "klimmen": 14266,
  "\u0120kerncentrale": 15548,
  "popul": 9941,
  "kamp": 3157,
  "\u01201990": 5548,
  "\u0120jouw": 1925,
  "\u0120janine": 11197,
  "\u0120prem": 3378,
  "\u0120au": 3580,
  "\u0120defensie": 14990,
  "\u012016": 1303,
  "\u0120barbie": 15443,
  "\u0120broeden": 14932,
  "\u0120marathon": 13825,
  "\u0120fla": 7025,
  "\u0120paas": 10710,
  "\u00c4": 105,
  "\u0120geen": 508,
  "\u0120sla": 1184,
  "\u0120wijnen": 14306,
  "\u0120zuidelijke": 5797,
  "\u0120gemeenschappelijke": 14256,
  "rekenen": 11836,
  "oei": 3267,
  "579": 10050,
  "\u0120britt": 5781,
  "box": 9159,
  "\u0120nienke": 11093,
  "\u0120ger": 1256,
  "\u0120koraal": 9417,
  "unidentified": 4443,
  "werkers": 5414,
  "\u0120maaike": 12125,
  "ammed": 11064,
  "verzam": 14468,
  "nadat": 10968,
  "\u0120heelal": 11417,
  "\u0120vecht": 7737,
  "\u0120hobby": 8459,
  "\u0120natuurlijk": 1323,
  "\u012044": 7239,
  "\u0120europeanen": 12625,
  "\u0120enkel": 3856,
  "\u0120deugd": 14997,
  "\u0120march": 15439,
  "\u0120resultaat": 5086,
  "\u0120dachten": 5956,
  "\u0120roem": 10571,
  "ile": 4395,
  "1998": 14906,
  "\u0120schiphol": 7119,
  "hagen": 13079,
  "\u0120slik": 15876,
  "\u0120reser": 8887,
  "kent": 13729,
  "\u0120zich": 493,
  "\u0120liever": 3969,
  "\u0120doel": 1829,
  "yn": 2115,
  "ijl": 2000,
  "vader": 5944,
  "\u0120liedjes": 5071,
  "eet": 4007,
  "\u0120tover": 7845,
  "\u0120vrienden": 2860,
  "\u0120tussen": 659,
  "\u0120normen": 12630,
  "\u0120rupsen": 13827,
  "\u0120blanke": 11871,
  "\u0120tek": 2383,
  "schud": 13646,
  "uz": 910,
  "tem": 6484,
  "\u0120koningin": 2466,
  "ous": 4069,
  "\u0120km": 2755,
  "\u0120afd": 12771,
  "trekker": 12786,
  "\u0120daniel": 10467,
  "\u0120tie": 4326,
  "\u0120erbij": 2971,
  "kken": 2902,
  "\u0120eiwitten": 8671,
  "\u0120diepte": 8571,
  "\u0120caca": 15912,
  "\u0120heil": 3659,
  "ips": 2117,
  "\u0120producent": 14698,
  "isen": 3601,
  "\u0120voegen": 9917,
  "\u0120grenst": 8397,
  "\u0120doos": 3410,
  "\u0120heksen": 8851,
  "\u0120mammoet": 13151,
  "vend": 15221,
  "\u0120forum": 13500,
  "\u0120aantal": 995,
  "\u0120caf": 5638,
  "\u0120christ": 2105,
  "inds": 1270,
  "\u0120un": 1242,
  "\u01201939": 9553,
  "uid": 544,
  "\u0120ties": 10095,
  "inie": 5266,
  "\u0120vlak": 2311,
  "\u0120cit": 2945,
  "\u0120decimaal": 13992,
  "\u0120deelname": 13926,
  "\u0120sluiten": 5208,
  "\u0120vooraf": 7427,
  "anneer": 1511,
  "stic": 3494,
  "\u0120toets": 6818,
  "1559": 9326,
  "\u0120resultaten": 5199,
  "\u0120niveau": 6378,
  "\u0120aanleggen": 12501,
  "964": 6425,
  "\u0120regelmatig": 4373,
  "\u0120monster": 6480,
  "\u0120hu": 5571,
  "\u0120begeleiding": 13991,
  "\u0120schrikt": 7589,
  "\u0120spits": 8635,
  "\u0120erdoor": 14387,
  "\u0120hiel": 4363,
  "300": 14239,
  "roduc": 7336,
  "\u0120democraten": 10282,
  "\u0120baarmoeder": 11988,
  "\u0120uitbreiding": 8725,
  "):": 5059,
  "rod": 3950,
  "\u0120fotograf": 12351,
  "\u0120act": 2040,
  "\u0120toneelstukken": 12833,
  "vliet": 11677,
  "\u0120olie": 3352,
  "kan": 1500,
  "fab": 3543,
  "richting": 5251,
  "\u0120bedrijven": 3036,
  "win": 6775,
  "\u0120roep": 1541,
  "\u01201000": 5357,
  "ieso": 14251,
  "sbe": 6621,
  "\u0120amsterdamse": 10184,
  "enen": 1482,
  "\u0120oren": 4383,
  "itaire": 11287,
  "kijk": 951,
  "\u0120roy": 7954,
  "\u0120up": 8076,
  "\u0120cad": 15154,
  "\u0120invasie": 11297,
  "\u0120drake": 10217,
  "dichtheid": 13903,
  "veer": 11894,
  "\u0120verslagen": 6930,
  "keuze": 7585,
  "\u0120afl": 13187,
  "\u0120gebruikten": 6999,
  "98": 5417,
  "\u0120champions": 11551,
  "midden": 12661,
  "\u0120maanden": 2534,
  "\u0120ontstaat": 2601,
  "stemen": 8863,
  "\u0120beeldscherm": 14837,
  "\u0120voorloper": 13665,
  "\u0120mythol": 7961,
  "stel": 1958,
  "\u0120vraagnummer": 4461,
  "\u0120levert": 5164,
  "\u0120aangetoond": 15139,
  "\u0120caroline": 10925,
  "spe": 9143,
  "bert": 1983,
  "ner": 2898,
  "\u0120verlichting": 9898,
  "vee": 13749,
  "\u0120speler": 5582,
  "\u0120vormden": 11302,
  "fst": 6324,
  "acten": 13960,
  "\u0120ruzie": 3807,
  "\u0120illust": 13152,
  "\u0120pijlen": 10565,
  "\u0120wateren": 12270,
  "wonen": 13160,
  "phone": 9899,
  "ial": 2274,
  "\u0120verlicht": 12137,
  "kige": 15190,
  "md": 10648,
  "alsjeblieft": 11183,
  "\u0120unie": 3417,
  "\u0120enigszins": 13639,
  "\u0120aanhanger": 15446,
  "\u0120ongeduldig": 14374,
  "vatting": 3636,
  "\u0120koningen": 8280,
  "\u0120spin": 6654,
  "\u0120versch": 2142,
  "nemers": 3516,
  "\u0120kale": 10664,
  "afel": 1797,
  "dat": 420,
  "\u0120mann": 3797,
  "toch": 6553,
  "ets": 3295,
  "\u0120kinderboeken": 7909,
  "elletjes": 12894,
  "\u0120assistent": 13693,
  "\u0120besl": 1239,
  "rouwen": 10772,
  "1769": 10402,
  "\u0120noteer": 6144,
  "\u0120knop": 6453,
  "leur": 3590,
  "\u0120liggen": 1562,
  "\u0120obama": 9442,
  "nieuw": 1508,
  "oorlogen": 13284,
  "\u0120orgaan": 9097,
  "\u0120peter": 3061,
  "tern": 6890,
  "\u0120gesteund": 14024,
  "\u0120scoorde": 9771,
  "\u0120ieke": 12219,
  "uif": 3792,
  "\u0120onderkant": 9473,
  "\u0120overijssel": 9886,
  "51": 6250,
  "\u0120stimuleren": 13157,
  "\u0120uitverk": 14409,
  "\u0120buurvrouw": 11423,
  "\u0120zochten": 13022,
  "\u0120pols": 15385,
  "\u0120coordin": 13946,
  "\u0120zinnen": 1901,
  "\u0120razendsnel": 15246,
  "\u0120brons": 11059,
  "\u0120laura": 4885,
  "\u0120kandid": 4288,
  "avan": 9624,
  "\u0120duurste": 15394,
  "tja": 14096,
  "\u0120aardkorst": 13403,
  "\u0120schouders": 5349,
  "\u01205000": 10427,
  "ferentie": 10505,
  "\u0120overigens": 6260,
  "ko": 5733,
  "aide": 15753,
  "\u0120crimin": 4296,
  "mater": 6504,
  "\u0120middelbare": 5368,
  "\u0120trouwen": 3385,
  "contact": 13663,
  "yo": 8615,
  "\u0120wei": 12330,
  "401": 10068,
  "\u0120fort": 5126,
  "stuk": 1798,
  "verbinding": 12071,
  "zaal": 5172,
  "\u0120beschrij": 4522,
  "instru": 5235,
  "\u0120jak": 11673,
  "balans": 15679,
  "nad": 9237,
  "oeg": 692,
  "\u0120zonne": 3293,
  "\u0120gold": 11347,
  "\u0120zijk": 7510,
  "\u01202010": 3330,
  "bat": 9394,
  "1800": 15063,
  "\u0120rusten": 12221,
  "\u0120ingedeeld": 10883,
  "}": 71,
  "minister": 12070,
  "names": 9672,
  "\u0120okt": 2604,
  "\u0120waarna": 5487,
  "\u0120laag": 2364,
  "\u0120trekt": 3277,
  "sterren": 11926,
  "\u0120bourg": 10327,
  "ell": 612,
  "\u0120gips": 14158,
  "\u0120fragmenten": 14568,
  "aspart": 6131,
  "iaal": 1587,
  "\u0120noordelijk": 12065,
  "\u0120zit": 552,
  "\u0120oorlogen": 7161,
  "omen": 419,
  "damp": 12148,
  "\u0120dagblad": 10429,
  "\u01201938": 12468,
  "afwijking": 13652,
  "\u0120staande": 15878,
  "ementen": 10943,
  "\u0120pac": 12869,
  "\u0120will": 8146,
  "ass": 866,
  "\u0120as": 2376,
  "\u0120provincies": 3469,
  "\u0120mooier": 11129,
  "\u0120prullen": 14293,
  "oet": 342,
  "ieren": 597,
  "\u0120schedel": 12737,
  "\u0120sym": 3066,
  "189": 9832,
  "\u0120munt": 5750,
  "\u0120geheugen": 9035,
  "\u0120welk": 1510,
  "\u0120kansen": 10917,
  "\u0120eur": 725,
  "\u0120onderhand": 7725,
  "\u0120omst": 14006,
  "prop": 14549,
  "kg": 13182,
  "\u0120vermoeden": 13298,
  "\u0120gran": 9714,
  "\u0120opzet": 10423,
  "computer": 11296,
  "ss": 925,
  "\u0120meent": 14851,
  "dstrijden": 3361,
  "\u0138": 163,
  "wort": 12480,
  "tar": 243,
  "\u0120verspreiden": 9418,
  "\u0120badkamer": 9940,
  "\u0120bru": 1287,
  "\u0120zoom": 14773,
  "unami": 14928,
  "\u013f": 170,
  "\u0120special": 8514,
  "\u0120minimum": 11084,
  "lat": 7323,
  "\u0120grappig": 5703,
  "\u0120klagen": 13989,
  "\u0120voetbal": 1870,
  "\u0120gekregen": 2806,
  "vaten": 6451,
  "\u0120keu": 1968,
  "?\"": 4435,
  "\u0120bese": 8647,
  "spel": 2713,
  "\u0120snijden": 8969,
  "\u0120nom": 14033,
  "\u0120buff": 12511,
  "chi": 13534,
  "\u0120criminelen": 12295,
  "\u0120stralen": 9703,
  "\u0120eigen": 685,
  "\u0120abd": 14697,
  "\u0120benadering": 9263,
  "\u0120tevoren": 11715,
  "\u0120onweer": 10177,
  "\u0120sta": 4705,
  "\u0120loonkosten": 13383,
  "hij": 1046,
  "\u0120attra": 3615,
  "\u0120command": 10403,
  "\u0120sja": 14160,
  "\u0120telefoons": 13006,
  "deskundigen": 14621,
  "\u0120denkt": 2114,
  "\u0120huilt": 7797,
  "\u0120richten": 7630,
  "\u0120dwer": 7553,
  "\u0120beroemde": 4796,
  "lines": 9272,
  "\u0120bijl": 14831,
  "\u0120heet": 1265,
  "\u0120gebeuren": 3398,
  "\u0120flink": 4389,
  "\u0120sao": 14419,
  "eerst": 4787,
  "\u0120chi": 12155,
  "\u0120warme": 4865,
  "\u0120god": 2017,
  "\u0120hut": 6077,
  "\u0120opl": 1776,
  "\u01201963": 10897,
  "hne": 15429,
  "\u0120diende": 13659,
  "\u0120wr": 7457,
  "\u0120haakjes": 15983,
  "ino": 2774,
  "\u00c2\u00b2": 6630,
  "\u0120suz": 6594,
  "\u0120gekenmerkt": 15988,
  "apore": 12217,
  "\u0120elders": 15382,
  "\u0120mon": 1490,
  "\u0120vlammen": 14945,
  "\u0120adv": 3624,
  "\u0120standpunt": 7587,
  "offic": 13442,
  "tas": 6704,
  "\u0120leerl": 1723,
  "\u0120schreeuwt": 9374,
  "\u0120smaakt": 14550,
  "verklaar": 10711,
  "mel": 2333,
  "97": 6574,
  "\u0120webs": 3692,
  "fonds": 12970,
  "\u0120cos": 11153,
  "\u0120geniet": 15640,
  "ronen": 8378,
  "\u0120stand": 2171,
  "darm": 12284,
  "\u0120speer": 13648,
  "\u0120broed": 12238,
  "\u0120twijfelen": 15358,
  "\u0120eraan": 4471,
  "klimaat": 7153,
  "\u0120play": 8817,
  "\u0120opbrengst": 8547,
  "\u0120comite": 15309,
  "\u0120naties": 8056,
  "\u0120tand": 4135,
  "\u0120uitgen": 11527,
  "\u0120reed": 5963,
  "\u0120bell": 14834,
  "\u0120teun": 13644,
  "\u0120zintuig": 15244,
  "\u0120bewaard": 6793,
  "\u0120neerslag": 5930,
  "okker": 8872,
  "\u0120beide": 1712,
  "iers": 2031,
  "inken": 2085,
  "aaid": 10864,
  "\u0120tempel": 7089,
  "fietsen": 12196,
  "\u0120beschermd": 7352,
  "\u0120os": 8019,
  "media": 12169,
  "\u0120cirkel": 4974,
  "yy": 1404,
  "agenten": 14475,
  "zender": 12203,
  "\u0120stadion": 3875,
  "steek": 15459,
  "\u0120prote": 2817,
  "\u0120he": 269,
  "splaat": 15379,
  "bere": 1599,
  "jer": 6843,
  "\u0120tropische": 9068,
  "\u0120platen": 6056,
  "\u0120verbeterde": 15691,
  "\u0120lisa": 9958,
  "\u0120dra": 1130,
  "\u0120gemen": 8729,
  "belgie": 9290,
  "\u0120plekken": 3531,
  "\u0120kaap": 14044,
  "\u0120arnhem": 7353,
  "\u0120junior": 10034,
  "\u0120groothertog": 15339,
  "\u0120mic": 3433,
  "ms": 8807,
  "offer": 15266,
  "\u0120vil": 13508,
  "gorie": 6047,
  "\u0120elise": 11606,
  "anium": 11236,
  "\u0120oost": 2396,
  "\u0120verlie": 2293,
  "\u0120tour": 6671,
  "\u0120holly": 6901,
  "\u0120recreatie": 14457,
  "\u0120paar": 1037,
  "\u0120pat": 2166,
  "\u0120pod": 4546,
  "\u0120domme": 13043,
  "\u0120bevindt": 4684,
  "iesten": 6487,
  "orgd": 4417,
  "nee": 545,
  "maan": 11909,
  "\u0120heft": 6676,
  "\u0120isot": 13514,
  "\u0120lab": 5699,
  "illen": 2721,
  "rijft": 9694,
  "\u0120moder": 2705,
  "\u0120acties": 10020,
  "\u0120pet": 3424,
  "\u0120jam": 2717,
  "\u0120miss": 5774,
  "\u0120sted": 9588,
  "\u0120slimme": 10364,
  "\u0120vereen": 11556,
  "wand": 6700,
  "\u0120verdieping": 9926,
  "\u0120voorzien": 4810,
  "gronden": 13852,
  "neming": 6846,
  "\u0120bezittingen": 13698,
  "ijden": 655,
  "ith": 4496,
  "\u0120tok": 6802,
  "gereden": 15979,
  "boem": 7023,
  "cas": 13997,
  "itiek": 1822,
  "\u0120aandelen": 6268,
  "\u0120saar": 4313,
  "\u0120doorsnede": 12848,
  "man": 975,
  "\u0120behandeld": 7671,
  "\u0120schoolreis": 15058,
  "\u0120freek": 15839,
  "heide": 15955,
  "\u0120bijkomen": 15247,
  "\u0120bewegen": 4183,
  "rank": 2931,
  "soort": 4325,
  "\u0120nov": 8115,
  "hebbers": 10727,
  "\u0120steentjes": 14230,
  "\u0120levens": 3705,
  "licht": 3237,
  "\u0120stijn": 15500,
  "alisatie": 13542,
  "pie": 10567,
  "ieden": 1021,
  "\u0120huisdieren": 11078,
  "quest": 7998,
  "\u0120populaire": 5625,
  "\u0120sub": 4470,
  "\u0120vlie": 1083,
  "cyclop": 13361,
  "\u0120arbe": 3118,
  "\u0120handtekening": 14667,
  "1978": 6003,
  "oud": 600,
  "\u0120geleden": 1911,
  "amon": 13396,
  "\u0120voordeur": 12367,
  "\u0120spaans": 7984,
  "haling": 7703,
  "iemand": 1845,
  "/": 20,
  "restaur": 13543,
  "\u0120puntjes": 15412,
  "\u0120camping": 7385,
  "02": 9125,
  "aard": 642,
  "\u0120sophie": 9376,
  "ano": 6543,
  "ijdt": 6325,
  "\u0120bijen": 4662,
  "\u0120ruimte": 1936,
  "\u0120daarna": 958,
  "45": 6205,
  "\u0120lorre": 11968,
  "\u0120rent": 4082,
  "\u0120gek": 767,
  "nemen": 2811,
  "\u0120zun": 5996,
  "\u0120kon": 497,
  "empl": 9550,
  "reding": 12769,
  "ado": 6864,
  "val": 1109,
  "\u0120logisch": 9796,
  "bb": 5972,
  "eteren": 5905,
  "ijp": 8948,
  "\u0120verdiende": 15276,
  "aringen": 6350,
  "\u0120bram": 4650,
  "\u0120knuffel": 13357,
  "\u0120import": 8662,
  "\u0120osc": 9692,
  "\u0120dolfijnen": 7977,
  "\u0120tegenst": 3809,
  "\u0120britse": 2960,
  "\u0120eindexamen": 13077,
  "275": 15214,
  "can": 7710,
  "\u01201967": 11265,
  "\u0120tulpen": 13129,
  "ych": 4222,
  "\u0120snij": 11225,
  "oorde": 5853,
  "kking": 7535,
  "\u0120zilver": 5142,
  "anden": 572,
  "glas": 6237,
  "\u0120velen": 10584,
  "gangers": 9746,
  "\u0120absol": 6420,
  "\u0120een": 204,
  "poten": 10128,
  "\u0120opleveren": 10107,
  "\u0120tegenovergestelde": 10718,
  "\u0120verzorgen": 11757,
  "\u0120dam": 3365,
  "\u0120mocht": 2071,
  "\u0120suriname": 7344,
  "\u0120hoewel": 2598,
  "\u0120kritisch": 12254,
  "bronnen": 4328,
  "vide": 5556,
  "\u0120kampioenschap": 9812,
  "69": 4565,
  "wouden": 15757,
  "\u0120gewicht": 4659,
  "\u0120friese": 11332,
  "nels": 15563,
  "\",": 2548,
  "\u0120verwij": 2134,
  "\u0120juliana": 15796,
  "\u0120eindigt": 7889,
  "\u0120justin": 13154,
  "\u0120kro": 5123,
  "alexander": 8592,
  "\u0120duinen": 8185,
  "\u0120verhaal": 1269,
  "\u0120cav": 8584,
  "ucht": 1390,
  "\u0120relatie": 4621,
  "\u0120gangen": 12710,
  "\u0120won": 1952,
  "ide": 643,
  "\u0120ar": 604,
  "etst": 14656,
  "0": 21,
  "uilen": 6570,
  "\u0120green": 9318,
  "groene": 11903,
  "\u0120portug": 4811,
  "\u0120ontbij": 6782,
  "\u012026": 3146,
  "vos": 13248,
  "\u0120bezem": 13185,
  "logen": 4752,
  "oeide": 9845,
  "\u0120hoi": 15739,
  "gere": 4013,
  "2004": 14885,
  "beren": 7445,
  "\u0120frans": 2849,
  "43": 8002,
  "stroom": 5292,
  "ooft": 6470,
  "33": 4086,
  "\u0120telkens": 4643,
  "\u0120terugt": 13564,
  "werkt": 2908,
  "\u0120band": 2263,
  "\u0120harp": 15729,
  "clusie": 3639,
  "ankt": 7951,
  "uminium": 7757,
  "\u0120smit": 14973,
  "\u0120broertje": 7086,
  "utels": 11123,
  "origin": 15662,
  "\u0120eman": 11486,
  "plas": 12443,
  "\u0120loopt": 1617,
  "1294": 7919,
  "\u0120ank": 7411,
  "blad": 2106,
  "\u0120rund": 14798,
  "\u0120bereiden": 14168,
  "paul": 9203,
  "stoel": 5005,
  "\u01201959": 12218,
  "\u0120vruchtbaar": 14758,
  "erij": 3493,
  "gingen": 11469,
  "\u0120nix": 12812,
  "jecten": 7356,
  "\u0120catal": 12928,
  "basisles": 13527,
  "914": 10125,
  "\u0120adolf": 11292,
  "i": 51,
  "20": 1058,
  "\u0120mach": 10468,
  "\u0120dav": 3805,
  "\u0120argent": 6656,
  "\u0120wereldber": 10762,
  "mother": 295,
  "\u0120wes": 7033,
  "\u0120beeind": 13971,
  "\u0120snel": 879,
  "\u0120vergeleken": 7076,
  "moed": 10321,
  "ffrouw": 4492,
  "\u0120ingezet": 7979,
  "\u0120cons": 3703,
  "\u0120vleug": 4820,
  "\u0120hoofdrol": 7810,
  "aald": 1073,
  "\u0120are": 14165,
  "isseur": 8940,
  "ol": 249,
  "\u0120opgeven": 14566,
  "eekt": 1939,
  "iga": 15951,
  "staand": 8222,
  "\u0120helikopter": 10318,
  "\u0120tro": 6313,
  "bom": 9444,
  "tien": 2552,
  "ziek": 5236,
  "\u0120volume": 8494,
  "\u0120bewering": 5154,
  "oph": 4875,
  "tent": 12439,
  "\u0120mamma": 7432,
  "gels": 2341,
  "\u0120oper": 3996,
  "ace": 6936,
  "\u0120mac": 5024,
  "uzalem": 11756,
  "\u0120teruggevonden": 14876,
  "tog": 13556,
  "oogd": 6895,
  "\u0120110": 11973,
  "\u0120pres": 13236,
  "zie": 1122,
  "aire": 1795,
  "va": 2363,
  "\u0120mc": 5557,
  "\u0120rechts": 2715,
  "pel": 1977,
  "\u0120glas": 3025,
  "\u0120maatregel": 8638,
  "iliteit": 6478,
  "ikelen": 7071,
  "\u0120zeer": 2478,
  "child": 238,
  "pius": 15947,
  "eries": 15216,
  "\u0120trad": 5605,
  "volgende": 8026,
  "1724": 9669,
  "\u0120oude": 1387,
  "ins": 1441,
  "\u0120piramide": 6724,
  "\u0120boodschap": 6110,
  "\u0120sach": 13253,
  "kor": 4440,
  "1143": 10434,
  "\u0120glimlach": 10000,
  "\u0120rustige": 14703,
  "\u0120ler": 3926,
  "\u0120schommel": 15792,
  "plat": 10610,
  "\u0120winnen": 3453,
  "\u0120wood": 15025,
  "\u0120dub": 3847,
  "\u0120beleven": 11645,
  "\u0120oorlogs": 7656,
  "\u0120glucose": 6993,
  "\u0120uitzoeken": 11076,
  "\u0120blijkbaar": 10386,
  "\u0120gevangen": 2395,
  "\u0120rou": 10835,
  "drinken": 12279,
  "iction": 13783,
  "\u0120gent": 8658,
  "\u0120basis": 2012,
  "\u0120grieken": 3464,
  "\u0120geweest": 1601,
  "\u0120verstopt": 6643,
  "orde": 2863,
  "emon": 12136,
  "rijding": 9851,
  "\u0120buurt": 2335,
  "agent": 10992,
  "\u0120dolf": 4498,
  "\u0120ontspannen": 12370,
  "\u0120originele": 9587,
  "rijpen": 9005,
  "\u0120ruben": 7430,
  "\u0120bevor": 8441,
  "\u0120televisies": 9501,
  "\u0120oplos": 6127,
  "1958": 9436,
  "\u0120alinea": 1880,
  "\u0120klokken": 11727,
  "volgens": 1570,
  "voet": 4181,
  "\u0120individuele": 11446,
  "sd": 6824,
  "\u0120vandaar": 9139,
  "\u0120jer": 4582,
  "\u0120faill": 12004,
  "tekst": 4497,
  "\u0120namens": 6497,
  "\u0120bankje": 13495,
  "\u0120zeldzaam": 10907,
  "tok": 12233,
  "\u0120blijk": 9616,
  "rib": 6168,
  "icket": 15972,
  "\u0120attractie": 4525,
  "\u0120aardbeving": 6986,
  "\u0120raket": 7396,
  "\u0120tabel": 2539,
  "\u0120taalgebruik": 13830,
  "\u0120voorwaarde": 10597,
  "\u0120logo": 10695,
  "zingen": 6065,
  "\u0120eg": 2846,
  "\u0120goeie": 10884,
  "steen": 3219,
  "\u0120basisscholen": 12086,
  "aag": 8159,
  "\u0120bu": 7208,
  "iem": 4746,
  "\u0120wink": 3902,
  "2017": 12256,
  "ali": 13102,
  "jen": 6564,
  "\u0120boris": 8780,
  "ering": 2800,
  "2005": 7729,
  "\u0120ellende": 12544,
  "\u0120wijst": 4523,
  "\u0120knol": 14776,
  "\u0120fien": 13921,
  "mil": 9286,
  "\u0120wapens": 5764,
  "uild": 11280,
  "ate": 1415,
  "\u0120sporters": 11281,
  "knooppunt": 13457,
  "\u0120expl": 5146,
  "nem": 2392,
  "\u0120sociaal": 5428,
  "\u0120krachten": 8271,
  "\u0120brabant": 7789,
  "vd": 3814,
  "\u0120nag": 5327,
  "\u0120recl": 3823,
  "\u0120beschaving": 15267,
  "hield": 14992,
  "\u0120arrond": 14413,
  "\u0120pict": 8994,
  "\u0120sche": 1329,
  "\u0120varia": 10342,
  "\u0120overige": 5642,
  "\u0120tijdelijk": 7231,
  "\u0120indones": 4444,
  "1009": 10530,
  "eringen": 8616,
  "\u0120tul": 10785,
  "\u0120duitsland": 1733,
  "\u0120aangewezen": 13121,
  "ranen": 12632,
  "\u0120shirt": 9817,
  "\u0120gregorius": 2492,
  "\u0120feest": 2275,
  "\u0120uitvoering": 9666,
  "\u0120hawai": 9943,
  "\u0120carol": 6169,
  "ury": 11869,
  "ining": 13844,
  "\u0120sou": 11994,
  "\u0120astrid": 10158,
  "\u0120zoeken": 2235,
  "\u0120enkele": 1824,
  "\u00e7": 132,
  "\u0120...-": 4449,
  "\u0120scandina": 11025,
  "\u0120lijkt": 1585,
  "dak": 14153,
  "\u0120lichte": 8457,
  "letters": 12448,
  "\u0120animatie": 8399,
  "\u0120eic": 12408,
  "\u0120waterstof": 5219,
  "\u0120100": 2058,
  "\u0120bevr": 8135,
  "voed": 5580,
  "\u0120onderstaande": 3824,
  "\u0120dr": 516,
  "lijn": 2055,
  "\u0120randen": 14797,
  "agd": 5239,
  "odoxe": 11394,
  "ans": 1400,
  "\u0120aqu": 7020,
  "hy": 4298,
  "slaan": 4700,
  "\u0120hiermee": 4009,
  "kels": 6076,
  "\u0120achtergrond": 6340,
  "\u0120oei": 14019,
  "odigd": 8071,
  "zagen": 15254,
  "\u0120tekende": 11034,
  "oof": 1379,
  "\u012011": 1670,
  "\u0120italiaans": 9652,
  "\u0120taken": 6146,
  "\u012010": 942,
  "gerekend": 15811,
  "achtige": 4136,
  "ulance": 8573,
  "\u0120konink": 1928,
  "\u0120seconde": 6638,
  "\u0120westelijke": 10406,
  "\u0120vertegenwoordigd": 14855,
  "\u0120eeuwenlang": 14891,
  "anger": 5339,
  "\u0120tweetal": 12705,
  "\u01201917": 10199,
  "\u0120overlijden": 9818,
  "\u0120kam": 3647,
  "\u01201960": 6163,
  "\u0120bagage": 15074,
  "\u0120shake": 14228,
  "\u0120#": 14739,
  "\u0120post": 3113,
  "spoor": 7542,
  "kapot": 13523,
  "\u0120cultuur": 2924,
  "\u0120isa": 6070,
  "ble": 8749,
  "figuur": 7750,
  "\u0120auteur": 7527,
  "ffen": 2318,
  "oos": 746,
  "\u0120artikel": 3256,
  "week": 5131,
  "rap": 9626,
  "brief": 9491,
  "\u0120sowieso": 14586,
  "\u0120objecten": 14848,
  "\u0120raakte": 4770,
  "parken": 9540,
  "tocht": 8093,
  "\u0120bezwaar": 15517,
  "\u0120dierenarts": 11915,
  "plek": 12228,
  "actie": 1659,
  "\u0120activ": 9761,
  "11": 1773,
  "\u0120toestand": 10949,
  "\u0120droogte": 12756,
  "\u0120tele": 1218,
  "sende": 14469,
  "dom": 2886,
  "\u0120drum": 7722,
  "arab": 6544,
  "\u0120mete": 11488,
  "lijnen": 6758,
  "ory": 7498,
  "\u0120katholiek": 11082,
  "\u0120uitgezocht": 13274,
  "\u0120trekker": 13007,
  "\u0120centimeter": 5560,
  "\u0120bovenaan": 9580,
  "\u0120btw": 7732,
  "ooi": 999,
  "\u0120christendom": 7225,
  "\u0120toe": 662,
  "famil": 5866,
  "\u0120ongew": 13922,
  "fran": 5525,
  "boot": 4134,
  "\u0120dien": 2080,
  "\u0120voorlezen": 8995,
  "\u0120laat": 729,
  "kleed": 9055,
  "bral": 12574,
  "\u0120gelov": 14472,
  "blijf": 5311,
  "gh": 8583,
  "stud": 12629,
  "898": 15842,
  "\u0120honger": 4526,
  "\u0120gogh": 13338,
  "\u0120trein": 1757,
  "\u0120aanged": 7626,
  "\u0120heuvel": 6526,
  "\u0120alb": 2471,
  "verkiez": 15275,
  "\u0120veegt": 15813,
  "\u0120hart": 1812,
  "fig": 6010,
  "gsel": 5139,
  "voorschijn": 8374,
  "\u0120vertrouw": 9964,
  "\u0120tim": 2108,
  "merk": 8888,
  "\u0120kamerleden": 14287,
  "\u0120broodje": 11630,
  "\u0120hamas": 13766,
  "vels": 6713,
  "\u0120la": 741,
  "groeien": 13688,
  "\u0120benoem": 13850,
  "otte": 2835,
  "\u0120meteor": 13907,
  "\u0120overheids": 12087,
  "\u0120verlopen": 12858,
  "\u0120kassa": 11813,
  "94": 3973,
  "\u0120eilanden": 3383,
  "\u0120gebleven": 5758,
  "\u0120koloniale": 14915,
  "\u0120tor": 8751,
  "stemmen": 11647,
  "\u0120daad": 9447,
  "marie": 12464,
  "raat": 1787,
  "\u0120diana": 9538,
  "ondanks": 7809,
  "\u0120republike": 5523,
  "\u0120blokken": 6875,
  "\u0120wesp": 15765,
  "\u0120stuurde": 8045,
  "baby": 10697,
  "\u0120actrice": 8488,
  "\u0120componist": 12194,
  "\u0120opgevoerd": 12235,
  "varen": 9726,
  "\u0120uitkomt": 13980,
  "\u0120bm": 11346,
  "thijs": 7579,
  "\u0120zadel": 15430,
  "\u0120mug": 8030,
  "\u0120anti": 9044,
  "thomas": 10262,
  "gericht": 8877,
  "\u0120meesters": 13003,
  "honden": 5798,
  "\u0120gewaar": 14010,
  "\u0120beesten": 10211,
  "\u0120heks": 5314,
  "\u0120canade": 9339,
  "\u0120sven": 5675,
  "pat": 5861,
  "\u0120uefa": 13331,
  "tijdens": 4748,
  "\u0120woest": 4494,
  "\u0120box": 8411,
  "\u0120scheeps": 13814,
  "\u01202009": 3892,
  "ail": 3518,
  "\u0120aristoteles": 13330,
  "\u0120nad": 1960,
  "scher": 10900,
  "\u0120sand": 10324,
  "\u0120fer": 9107,
  "keuzevragen": 9675,
  "schieten": 9507,
  "m": 55,
  "\u0120nar": 10163,
  "\u0120meerder": 5515,
  "ieuze": 5424,
  "\u0120gevraagd": 2054,
  "\u0120gigantische": 12864,
  "\u0120eva": 9051,
  "eed": 621,
  "\u0120doorn": 14963,
  "\u0120leeuwen": 7574,
  "ioneel": 7603,
  "gelukkig": 8663,
  "\u0120meters": 11074,
  "\u0120sinds": 1432,
  "mengsel": 14103,
  "\u0120verste": 14768,
  "strijd": 15499,
  "ellen": 754,
  "\u0120trainer": 9412,
  "\u0120abonnement": 15747,
  "sp": 404,
  "\u0120rijdt": 4145,
  "\u0120fluiten": 12274,
  "daden": 14934,
  "\u0120stok": 4212,
  "\u0120besmet": 5553,
  "\u0120silver": 12566,
  "ag": 288,
  "uziek": 1241,
  "\u0120yyy": 6857,
  "\u0120getrouwd": 6690,
  "uiten": 770,
  "\u0120zwaaien": 11966,
  "37": 6854,
  "gevoerd": 2847,
  "\u0120televisieprogramma": 10362,
  "\u0120kauw": 9009,
  "\u0120popp": 6548,
  "uwe": 3458,
  "\u0120spir": 12910,
  "\u0120belooft": 14441,
  "\u0120opzichte": 4902,
  "\u0120artiesten": 7068,
  "\u0120ontmoeting": 14424,
  "utel": 4427,
  "\u0120kenmerk": 6571,
  "\u0120robot": 6463,
  "ime": 6030,
  "\u0120leo": 2694,
  "poet": 15328,
  "wikkeld": 11386,
  "\u0120\u00e2": 515,
  "\u0120afbeelding": 1179,
  "leans": 12174,
  "\u0120stadhuis": 9682,
  "tom": 5380,
  "stoffen": 3125,
  "\u0120aug": 2653,
  "\u0120scheikunde": 12323,
  "iz": 963,
  "okod": 5900,
  "ainers": 15447,
  "is": 205,
  "\u0120compagnie": 15202,
  "ref": 15866,
  "controle": 8117,
  "ministratie": 13032,
  "\u0120vu": 7554,
  "\u0120saai": 8237,
  "\u0120eindelijk": 3810,
  "\u0120pro": 498,
  "\u0120verschenen": 7376,
  "\u0120jee": 8469,
  "\u012034": 5712,
  "\u0120genomineerd": 15900,
  "ori": 11506,
  "\u0120kapitaal": 11821,
  "\u01202023": 4377,
  "\u0120irak": 8865,
  "atief": 2848,
  "ch": 192,
  "\u0120probeer": 5802,
  "\u0120bevestigd": 11166,
  "\u0120stijgen": 7145,
  "\u00bc": 99,
  "\u0120sociaaldemoc": 13224,
  "\u0120bla": 1168,
  "gemoet": 15197,
  "pen": 402,
  "inger": 7067,
  "entjes": 9388,
  "vertegenwoordig": 14515,
  "\u0120bezorg": 14529,
  "\u00af": 86,
  "682": 15277,
  "\u0120hant": 12149,
  "san": 12550,
  "annings": 14446,
  "waard": 4836,
  "\u0120kunstmest": 15883,
  "\u0120lekkers": 15279,
  "\u0120achterkant": 8198,
  "\u0120leverde": 11270,
  "chan": 7458,
  "ieu": 2353,
  "\u0120mol": 3062,
  "\u0120behulp": 2272,
  "ianca": 14478,
  "\u0120mega": 14627,
  "deels": 10026,
  "\u0120mult": 6652,
  "\u0120minste": 8291,
  "\u0120borden": 11654,
  "\u0120verven": 13340,
  "zaamheid": 8449,
  "\u0120bommen": 11704,
  "\u0120onsch": 7993,
  "\u0120trapp": 14671,
  "\u0120winke": 8257,
  "\u0120drog": 11110,
  "\u0120pol": 735,
  "rict": 6769,
  "174": 10139,
  "\u0120eugen": 6004,
  "ilen": 6106,
  "gu": 7905,
  "\u0120yl": 15659,
  "\u0120keren": 5178,
  "\u00b0": 87,
  "\u0120dm": 13913,
  "\u0120ph": 3087,
  "orp": 7566,
  "\u0120mos": 3115,
  "alt": 10150,
  "\u0120rh": 8578,
  "\u0120renden": 13899,
  "\u0120opgesteld": 10905,
  "\u0120ce": 11974,
  "\u0120zaal": 4794,
  "oord": 424,
  "\u0120voorste": 15910,
  "\u0120uitdag": 14389,
  "oeld": 2708,
  "\u0120vaccin": 9443,
  "zerbeidzjan": 13909,
  "icten": 8855,
  "opter": 6983,
  "\u0120vlees": 3234,
  "\u0120functioneren": 13112,
  "\u0120wassen": 5159,
  "\u0120steken": 5827,
  "\u0120piraten": 7783,
  "\u0120gewaarschuw": 15109,
  "\u0120mari": 8404,
  "\u013e": 169,
  "mbo": 9446,
  "spl": 5196,
  "do": 4688,
  "\u0120afgezet": 11561,
  "\u0120gevechten": 10123,
  "\u0120tekens": 12505,
  "\u0120period": 10138,
  "\u0120tit": 2270,
  "\u0120kopjes": 11695,
  "lust": 12993,
  "283": 10223,
  "\u0120aquarium": 13276,
  "\u0120saint": 6591,
  "cties": 3042,
  "\u0120max": 1693,
  "\u0120fee": 10374,
  "stikke": 4832,
  "\u0120da": 2586,
  "etie": 8608,
  "asie": 5686,
  "\u0120stel": 3101,
  "cont": 4078,
  "\u0120onged": 10876,
  "istof": 5026,
  "\u0120extre": 11170,
  "\u0120presidentsverkiezingen": 12031,
  "\u0120langzaam": 3238,
  "sch": 319,
  "playm": 6455,
  "\u0120blokjes": 12541,
  "\u0120maga": 12062,
  "arn": 7981,
  "jarige": 2887,
  "nieuws": 5518,
  "d\u00c9\u013b": 13817,
  "sprogramma": 13858,
  "nam": 1907,
  "\u0120hein": 8278,
  "\u0120geh": 895,
  "\u0120evenveel": 8051,
  "\u0120staats": 4855,
  "\u0120zacharias": 15749,
  "\u0120internationaal": 7256,
  "\u0120zouden": 1634,
  "904": 10201,
  "adelijk": 12939,
  "\u0120simpel": 7558,
  "\u0120eiken": 14031,
  "steken": 6318,
  "52": 2965,
  "\u0120fact": 4915,
  "\u0120cas": 4104,
  "\u0120lib": 8264,
  "fluit": 11593,
  "\u0120ult": 10818,
  "\u0120veen": 6951,
  "\u0120begrepen": 10626,
  "236": 10032,
  "\u0120mogelijkheid": 6044,
  "\u0120canadese": 11041,
  "ijn": 234,
  "bez": 12558,
  "\u0120veluwe": 12785,
  "pporters": 12730,
  "fant": 11052,
  "\u0120zintuigen": 13179,
  "\u0120knie": 8099,
  "\u0120bedreigde": 13862,
  "\u0120insuline": 15016,
  "\u0120plein": 4797,
  "\u0120goedgekeurd": 15751,
  "\u0120mee": 439,
  "retten": 13772,
  "\u0120verhuisde": 8468,
  "\u01201979": 10470,
  "\u0120wezen": 5135,
  "idi": 12796,
  "\u0120gru": 9268,
  "662": 14845,
  "\u0120lief": 1864,
  "er": 176,
  "\u0120kruipen": 9690,
  "bouwen": 9037,
  "jan": 3865,
  "\u0120egypt": 9132,
  "\u0120gaatjes": 11753,
  "\u0120haag": 3269,
  "\u00a4": 76,
  "joe": 9566,
  "rut": 11340,
  "aline": 13889,
  "\u0120kostuum": 13540,
  "\u0120dieren": 1029,
  "\u0120voortaan": 8082,
  "eerde": 1066,
  "\u0120meander": 9222,
  "\u0120tref": 14636,
  "ete": 4656,
  "kl": 1163,
  "woner": 9863,
  "1119": 10455,
  "\u0120stim": 8216,
  "oria": 7907,
  "\u0120stranden": 12214,
  "\u0120getallen": 5885,
  "\u0120aanmer": 15715,
  "\u0120voorbereid": 15141,
  "\u0120aardrijkskunde": 15248,
  "\u0120irrig": 15750,
  "\u0120gerekend": 9090,
  "visie": 12085,
  "\u0120brieven": 7072,
  "ep": 8734,
  "oefen": 11304,
  "1918": 15920,
  "achusetts": 15559,
  "autom": 11678,
  "93": 3241,
  "vige": 11881,
  "\u0120kouder": 12636,
  "verdrag": 14480,
  "\u0120aantrek": 7232,
  "\u0120prestaties": 15854,
  "\u0120pijl": 5689,
  "\u0120viet": 5673,
  "\u0120appel": 3965,
  "uig": 1452,
  "\u0120elkaar": 763,
[...]
